{"version": "1.0", "truncation": null, "padding": null, "added_tokens": [{"id": 0, "content": "<s>", "single_word": false, "lstrip": false, "rstrip": false, "normalized": false, "special": true}, {"id": 1, "content": "</s>", "single_word": false, "lstrip": false, "rstrip": false, "normalized": false, "special": true}, {"id": 2, "content": "<tool_call>", "single_word": false, "lstrip": false, "rstrip": false, "normalized": false, "special": true}, {"id": 3, "content": "</tool_call>", "single_word": false, "lstrip": false, "rstrip": false, "normalized": false, "special": true}, {"id": 4, "content": "<|im_sep|>", "single_word": false, "lstrip": false, "rstrip": false, "normalized": false, "special": true}, {"id": 5, "content": "<|fim_prefix|>", "single_word": false, "lstrip": false, "rstrip": false, "normalized": false, "special": true}, {"id": 6, "content": "<|fim_middle|>", "single_word": false, "lstrip": false, "rstrip": false, "normalized": false, "special": true}, {"id": 7, "content": "<|fim_suffix|>", "single_word": false, "lstrip": false, "rstrip": false, "normalized": false, "special": true}, {"id": 8, "content": "<think>", "single_word": false, "lstrip": false, "rstrip": false, "normalized": false, "special": false}, {"id": 9, "content": "</think>", "single_word": false, "lstrip": false, "rstrip": false, "normalized": false, "special": false}, {"id": 10, "content": "<tool_response>", "single_word": false, "lstrip": false, "rstrip": false, "normalized": false, "special": true}, {"id": 11, "content": "</tool_response>", "single_word": false, "lstrip": false, "rstrip": false, "normalized": false, "special": true}, {"id": 12, "content": "<tools>", "single_word": false, "lstrip": false, "rstrip": false, "normalized": false, "special": true}, {"id": 13, "content": "</tools>", "single_word": false, "lstrip": false, "rstrip": false, "normalized": false, "special": true}, {"id": 14, "content": "<arguments>", "single_word": false, "lstrip": false, "rstrip": false, "normalized": false, "special": true}, {"id": 15, "content": "</arguments>", "single_word": false, "lstrip": false, "rstrip": false, "normalized": false, "special": true}, {"id": 16, "content": "<parameters>", "single_word": false, "lstrip": false, "rstrip": false, "normalized": false, "special": true}, {"id": 17, "content": "</parameters>", "single_word": false, "lstrip": false, "rstrip": false, "normalized": false, "special": true}, {"id": 18, "content": "<function", "single_word": false, "lstrip": false, "rstrip": false, "normalized": false, "special": true}, {"id": 19, "content": "</function>", "single_word": false, "lstrip": false, "rstrip": false, "normalized": false, "special": true}, {"id": 20, "content": "<param", "single_word": false, "lstrip": false, "rstrip": false, "normalized": false, "special": true}, {"id": 21, "content": "</param>", "single_word": false, "lstrip": false, "rstrip": false, "normalized": false, "special": true}, {"id": 65048, "content": "<|im_start|>", "single_word": false, "lstrip": false, "rstrip": false, "normalized": false, "special": true}, {"id": 65049, "content": "<|im_end|>", "single_word": false, "lstrip": false, "rstrip": false, "normalized": false, "special": true}, {"id": 65050, "content": "<unk>", "single_word": false, "lstrip": false, "rstrip": false, "normalized": false, "special": true}, {"id": 65051, "content": "<|thought_begin|>", "single_word": false, "lstrip": false, "rstrip": false, "normalized": false, "special": true}, {"id": 65052, "content": "<|thought_end|>", "single_word": false, "lstrip": false, "rstrip": false, "normalized": false, "special": true}, {"id": 65053, "content": "<|tool_call|>", "single_word": false, "lstrip": false, "rstrip": false, "normalized": false, "special": true}, {"id": 65054, "content": "<|execute_start|>", "single_word": false, "lstrip": false, "rstrip": false, "normalized": false, "special": true}, {"id": 65055, "content": "<|execute_end|>", "single_word": false, "lstrip": false, "rstrip": false, "normalized": false, "special": true}, {"id": 65056, "content": "/think", "single_word": false, "lstrip": false, "rstrip": false, "normalized": false, "special": true}, {"id": 65057, "content": "/no_think", "single_word": false, "lstrip": false, "rstrip": false, "normalized": false, "special": true}, {"id": 65058, "content": "<unused_token_0>", "single_word": false, "lstrip": false, "rstrip": false, "normalized": true, "special": false}, {"id": 65059, "content": "<unused_token_1>", "single_word": false, "lstrip": false, "rstrip": false, "normalized": true, "special": false}, {"id": 65060, "content": "<unused_token_2>", "single_word": false, "lstrip": false, "rstrip": false, "normalized": true, "special": false}, {"id": 65061, "content": "<unused_token_3>", "single_word": false, "lstrip": false, "rstrip": false, "normalized": true, "special": false}, {"id": 65062, "content": "<unused_token_4>", "single_word": false, "lstrip": false, "rstrip": false, "normalized": true, "special": false}, {"id": 65063, "content": "<unused_token_5>", "single_word": false, "lstrip": false, "rstrip": false, "normalized": true, "special": false}, {"id": 65064, "content": "<unused_token_6>", "single_word": false, "lstrip": false, "rstrip": false, "normalized": true, "special": false}, {"id": 65065, "content": "<unused_token_7>", "single_word": false, "lstrip": false, "rstrip": false, "normalized": true, "special": false}, {"id": 65066, "content": "<unused_token_8>", "single_word": false, "lstrip": false, "rstrip": false, "normalized": true, "special": false}, {"id": 65067, "content": "<unused_token_9>", "single_word": false, "lstrip": false, "rstrip": false, "normalized": true, "special": false}, {"id": 65068, "content": "<unused_token_10>", "single_word": false, "lstrip": false, "rstrip": false, "normalized": true, "special": false}, {"id": 65069, "content": "<unused_token_11>", "single_word": false, "lstrip": false, "rstrip": false, "normalized": true, "special": false}, {"id": 65070, "content": "<unused_token_12>", "single_word": false, "lstrip": false, "rstrip": false, "normalized": true, "special": false}, {"id": 65071, "content": "<unused_token_13>", "single_word": false, "lstrip": false, "rstrip": false, "normalized": true, "special": false}, {"id": 65072, "content": "<unused_token_14>", "single_word": false, "lstrip": false, "rstrip": false, "normalized": true, "special": false}, {"id": 65073, "content": "<unused_token_15>", "single_word": false, "lstrip": false, "rstrip": false, "normalized": true, "special": false}, {"id": 65074, "content": "<unused_token_16>", "single_word": false, "lstrip": false, "rstrip": false, "normalized": true, "special": false}, {"id": 65075, "content": "<unused_token_17>", "single_word": false, "lstrip": false, "rstrip": false, "normalized": true, "special": false}, {"id": 65076, "content": "<unused_token_18>", "single_word": false, "lstrip": false, "rstrip": false, "normalized": true, "special": false}, {"id": 65077, "content": "<unused_token_19>", "single_word": false, "lstrip": false, "rstrip": false, "normalized": true, "special": false}, {"id": 65078, "content": "<unused_token_20>", "single_word": false, "lstrip": false, "rstrip": false, "normalized": true, "special": false}, {"id": 65079, "content": "<unused_token_21>", "single_word": false, "lstrip": false, "rstrip": false, "normalized": true, "special": false}, {"id": 65080, "content": "<unused_token_22>", "single_word": false, "lstrip": false, "rstrip": false, "normalized": true, "special": false}, {"id": 65081, "content": "<unused_token_23>", "single_word": false, "lstrip": false, "rstrip": false, "normalized": true, "special": false}, {"id": 65082, "content": "<unused_token_24>", "single_word": false, "lstrip": false, "rstrip": false, "normalized": true, "special": false}, {"id": 65083, "content": "<unused_token_25>", "single_word": false, "lstrip": false, "rstrip": false, "normalized": true, "special": false}, {"id": 65084, "content": "<unused_token_26>", "single_word": false, "lstrip": false, "rstrip": false, "normalized": true, "special": false}, {"id": 65085, "content": "<unused_token_27>", "single_word": false, "lstrip": false, "rstrip": false, "normalized": true, "special": false}, {"id": 65086, "content": "<unused_token_28>", "single_word": false, "lstrip": false, "rstrip": false, "normalized": true, "special": false}, {"id": 65087, "content": "<unused_token_29>", "single_word": false, "lstrip": false, "rstrip": false, "normalized": true, "special": false}, {"id": 65088, "content": "<unused_token_30>", "single_word": false, "lstrip": false, "rstrip": false, "normalized": true, "special": false}, {"id": 65089, "content": "<unused_token_31>", "single_word": false, "lstrip": false, "rstrip": false, "normalized": true, "special": false}, {"id": 65090, "content": "<unused_token_32>", "single_word": false, "lstrip": false, "rstrip": false, "normalized": true, "special": false}, {"id": 65091, "content": "<unused_token_33>", "single_word": false, "lstrip": false, "rstrip": false, "normalized": true, "special": false}, {"id": 65092, "content": "<unused_token_34>", "single_word": false, "lstrip": false, "rstrip": false, "normalized": true, "special": false}, {"id": 65093, "content": "<unused_token_35>", "single_word": false, "lstrip": false, "rstrip": false, "normalized": true, "special": false}, {"id": 65094, "content": "<unused_token_36>", "single_word": false, "lstrip": false, "rstrip": false, "normalized": true, "special": false}, {"id": 65095, "content": "<unused_token_37>", "single_word": false, "lstrip": false, "rstrip": false, "normalized": true, "special": false}, {"id": 65096, "content": "<unused_token_38>", "single_word": false, "lstrip": false, "rstrip": false, "normalized": true, "special": false}, {"id": 65097, "content": "<unused_token_39>", "single_word": false, "lstrip": false, "rstrip": false, "normalized": true, "special": false}, {"id": 65098, "content": "<unused_token_40>", "single_word": false, "lstrip": false, "rstrip": false, "normalized": true, "special": false}, {"id": 65099, "content": "<unused_token_41>", "single_word": false, "lstrip": false, "rstrip": false, "normalized": true, "special": false}, {"id": 65100, "content": "<unused_token_42>", "single_word": false, "lstrip": false, "rstrip": false, "normalized": true, "special": false}, {"id": 65101, "content": "<unused_token_43>", "single_word": false, "lstrip": false, "rstrip": false, "normalized": true, "special": false}, {"id": 65102, "content": "<unused_token_44>", "single_word": false, "lstrip": false, "rstrip": false, "normalized": true, "special": false}, {"id": 65103, "content": "<unused_token_45>", "single_word": false, "lstrip": false, "rstrip": false, "normalized": true, "special": false}, {"id": 65104, "content": "<unused_token_46>", "single_word": false, "lstrip": false, "rstrip": false, "normalized": true, "special": false}, {"id": 65105, "content": "<unused_token_47>", "single_word": false, "lstrip": false, "rstrip": false, "normalized": true, "special": false}, {"id": 65106, "content": "<unused_token_48>", "single_word": false, "lstrip": false, "rstrip": false, "normalized": true, "special": false}, {"id": 65107, "content": "<unused_token_49>", "single_word": false, "lstrip": false, "rstrip": false, "normalized": true, "special": false}, {"id": 65108, "content": "<unused_token_50>", "single_word": false, "lstrip": false, "rstrip": false, "normalized": true, "special": false}, {"id": 65109, "content": "<unused_token_51>", "single_word": false, "lstrip": false, "rstrip": false, "normalized": true, "special": false}, {"id": 65110, "content": "<unused_token_52>", "single_word": false, "lstrip": false, "rstrip": false, "normalized": true, "special": false}, {"id": 65111, "content": "<unused_token_53>", "single_word": false, "lstrip": false, "rstrip": false, "normalized": true, "special": false}, {"id": 65112, "content": "<unused_token_54>", "single_word": false, "lstrip": false, "rstrip": false, "normalized": true, "special": false}, {"id": 65113, "content": "<unused_token_55>", "single_word": false, "lstrip": false, "rstrip": false, "normalized": true, "special": false}, {"id": 65114, "content": "<unused_token_56>", "single_word": false, "lstrip": false, "rstrip": false, "normalized": true, "special": false}, {"id": 65115, "content": "<unused_token_57>", "single_word": false, "lstrip": false, "rstrip": false, "normalized": true, "special": false}, {"id": 65116, "content": "<unused_token_58>", "single_word": false, "lstrip": false, "rstrip": false, "normalized": true, "special": false}, {"id": 65117, "content": "<unused_token_59>", "single_word": false, "lstrip": false, "rstrip": false, "normalized": true, "special": false}, {"id": 65118, "content": "<unused_token_60>", "single_word": false, "lstrip": false, "rstrip": false, "normalized": true, "special": false}, {"id": 65119, "content": "<unused_token_61>", "single_word": false, "lstrip": false, "rstrip": false, "normalized": true, "special": false}, {"id": 65120, "content": "<unused_token_62>", "single_word": false, "lstrip": false, "rstrip": false, "normalized": true, "special": false}, {"id": 65121, "content": "<unused_token_63>", "single_word": false, "lstrip": false, "rstrip": false, "normalized": true, "special": false}, {"id": 65122, "content": "<unused_token_64>", "single_word": false, "lstrip": false, "rstrip": false, "normalized": true, "special": false}, {"id": 65123, "content": "<unused_token_65>", "single_word": false, "lstrip": false, "rstrip": false, "normalized": true, "special": false}, {"id": 65124, "content": "<unused_token_66>", "single_word": false, "lstrip": false, "rstrip": false, "normalized": true, "special": false}, {"id": 65125, "content": "<unused_token_67>", "single_word": false, "lstrip": false, "rstrip": false, "normalized": true, "special": false}, {"id": 65126, "content": "<unused_token_68>", "single_word": false, "lstrip": false, "rstrip": false, "normalized": true, "special": false}, {"id": 65127, "content": "<unused_token_69>", "single_word": false, "lstrip": false, "rstrip": false, "normalized": true, "special": false}, {"id": 65128, "content": "<unused_token_70>", "single_word": false, "lstrip": false, "rstrip": false, "normalized": true, "special": false}, {"id": 65129, "content": "<unused_token_71>", "single_word": false, "lstrip": false, "rstrip": false, "normalized": true, "special": false}, {"id": 65130, "content": "<unused_token_72>", "single_word": false, "lstrip": false, "rstrip": false, "normalized": true, "special": false}, {"id": 65131, "content": "<unused_token_73>", "single_word": false, "lstrip": false, "rstrip": false, "normalized": true, "special": false}, {"id": 65132, "content": "<unused_token_74>", "single_word": false, "lstrip": false, "rstrip": false, "normalized": true, "special": false}, {"id": 65133, "content": "<unused_token_75>", "single_word": false, "lstrip": false, "rstrip": false, "normalized": true, "special": false}, {"id": 65134, "content": "<unused_token_76>", "single_word": false, "lstrip": false, "rstrip": false, "normalized": true, "special": false}, {"id": 65135, "content": "<unused_token_77>", "single_word": false, "lstrip": false, "rstrip": false, "normalized": true, "special": false}, {"id": 65136, "content": "<unused_token_78>", "single_word": false, "lstrip": false, "rstrip": false, "normalized": true, "special": false}, {"id": 65137, "content": "<unused_token_79>", "single_word": false, "lstrip": false, "rstrip": false, "normalized": true, "special": false}, {"id": 65138, "content": "<unused_token_80>", "single_word": false, "lstrip": false, "rstrip": false, "normalized": true, "special": false}, {"id": 65139, "content": "<unused_token_81>", "single_word": false, "lstrip": false, "rstrip": false, "normalized": true, "special": false}, {"id": 65140, "content": "<unused_token_82>", "single_word": false, "lstrip": false, "rstrip": false, "normalized": true, "special": false}, {"id": 65141, "content": "<unused_token_83>", "single_word": false, "lstrip": false, "rstrip": false, "normalized": true, "special": false}, {"id": 65142, "content": "<unused_token_84>", "single_word": false, "lstrip": false, "rstrip": false, "normalized": true, "special": false}, {"id": 65143, "content": "<unused_token_85>", "single_word": false, "lstrip": false, "rstrip": false, "normalized": true, "special": false}, {"id": 65144, "content": "<unused_token_86>", "single_word": false, "lstrip": false, "rstrip": false, "normalized": true, "special": false}, {"id": 65145, "content": "<unused_token_87>", "single_word": false, "lstrip": false, "rstrip": false, "normalized": true, "special": false}, {"id": 65146, "content": "<unused_token_88>", "single_word": false, "lstrip": false, "rstrip": false, "normalized": true, "special": false}, {"id": 65147, "content": "<unused_token_89>", "single_word": false, "lstrip": false, "rstrip": false, "normalized": true, "special": false}, {"id": 65148, "content": "<unused_token_90>", "single_word": false, "lstrip": false, "rstrip": false, "normalized": true, "special": false}, {"id": 65149, "content": "<unused_token_91>", "single_word": false, "lstrip": false, "rstrip": false, "normalized": true, "special": false}, {"id": 65150, "content": "<unused_token_92>", "single_word": false, "lstrip": false, "rstrip": false, "normalized": true, "special": false}, {"id": 65151, "content": "<unused_token_93>", "single_word": false, "lstrip": false, "rstrip": false, "normalized": true, "special": false}, {"id": 65152, "content": "<unused_token_94>", "single_word": false, "lstrip": false, "rstrip": false, "normalized": true, "special": false}, {"id": 65153, "content": "<unused_token_95>", "single_word": false, "lstrip": false, "rstrip": false, "normalized": true, "special": false}, {"id": 65154, "content": "<unused_token_96>", "single_word": false, "lstrip": false, "rstrip": false, "normalized": true, "special": false}, {"id": 65155, "content": "<unused_token_97>", "single_word": false, "lstrip": false, "rstrip": false, "normalized": true, "special": false}, {"id": 65156, "content": "<unused_token_98>", "single_word": false, "lstrip": false, "rstrip": false, "normalized": true, "special": false}, {"id": 65157, "content": "<unused_token_99>", "single_word": false, "lstrip": false, "rstrip": false, "normalized": true, "special": false}, {"id": 65158, "content": "<unused_token_100>", "single_word": false, "lstrip": false, "rstrip": false, "normalized": true, "special": false}, {"id": 65159, "content": "<unused_token_101>", "single_word": false, "lstrip": false, "rstrip": false, "normalized": true, "special": false}, {"id": 65160, "content": "<unused_token_102>", "single_word": false, "lstrip": false, "rstrip": false, "normalized": true, "special": false}, {"id": 65161, "content": "<unused_token_103>", "single_word": false, "lstrip": false, "rstrip": false, "normalized": true, "special": false}, {"id": 65162, "content": "<unused_token_104>", "single_word": false, "lstrip": false, "rstrip": false, "normalized": true, "special": false}, {"id": 65163, "content": "<unused_token_105>", "single_word": false, "lstrip": false, "rstrip": false, "normalized": true, "special": false}, {"id": 65164, "content": "<unused_token_106>", "single_word": false, "lstrip": false, "rstrip": false, "normalized": true, "special": false}, {"id": 65165, "content": "<unused_token_107>", "single_word": false, "lstrip": false, "rstrip": false, "normalized": true, "special": false}, {"id": 65166, "content": "<unused_token_108>", "single_word": false, "lstrip": false, "rstrip": false, "normalized": true, "special": false}, {"id": 65167, "content": "<unused_token_109>", "single_word": false, "lstrip": false, "rstrip": false, "normalized": true, "special": false}, {"id": 65168, "content": "<unused_token_110>", "single_word": false, "lstrip": false, "rstrip": false, "normalized": true, "special": false}, {"id": 65169, "content": "<unused_token_111>", "single_word": false, "lstrip": false, "rstrip": false, "normalized": true, "special": false}, {"id": 65170, "content": "<unused_token_112>", "single_word": false, "lstrip": false, "rstrip": false, "normalized": true, "special": false}, {"id": 65171, "content": "<unused_token_113>", "single_word": false, "lstrip": false, "rstrip": false, "normalized": true, "special": false}, {"id": 65172, "content": "<unused_token_114>", "single_word": false, "lstrip": false, "rstrip": false, "normalized": true, "special": false}, {"id": 65173, "content": "<unused_token_115>", "single_word": false, "lstrip": false, "rstrip": false, "normalized": true, "special": false}, {"id": 65174, "content": "<unused_token_116>", "single_word": false, "lstrip": false, "rstrip": false, "normalized": true, "special": false}, {"id": 65175, "content": "<unused_token_117>", "single_word": false, "lstrip": false, "rstrip": false, "normalized": true, "special": false}, {"id": 65176, "content": "<unused_token_118>", "single_word": false, "lstrip": false, "rstrip": false, "normalized": true, "special": false}, {"id": 65177, "content": "<unused_token_119>", "single_word": false, "lstrip": false, "rstrip": false, "normalized": true, "special": false}, {"id": 65178, "content": "<unused_token_120>", "single_word": false, "lstrip": false, "rstrip": false, "normalized": true, "special": false}, {"id": 65179, "content": "<unused_token_121>", "single_word": false, "lstrip": false, "rstrip": false, "normalized": true, "special": false}, {"id": 65180, "content": "<unused_token_122>", "single_word": false, "lstrip": false, "rstrip": false, "normalized": true, "special": false}, {"id": 65181, "content": "<unused_token_123>", "single_word": false, "lstrip": false, "rstrip": false, "normalized": true, "special": false}, {"id": 65182, "content": "<unused_token_124>", "single_word": false, "lstrip": false, "rstrip": false, "normalized": true, "special": false}, {"id": 65183, "content": "<unused_token_125>", "single_word": false, "lstrip": false, "rstrip": false, "normalized": true, "special": false}, {"id": 65184, "content": "<unused_token_126>", "single_word": false, "lstrip": false, "rstrip": false, "normalized": true, "special": false}, {"id": 65185, "content": "<unused_token_127>", "single_word": false, "lstrip": false, "rstrip": false, "normalized": true, "special": false}, {"id": 65186, "content": "<unused_token_128>", "single_word": false, "lstrip": false, "rstrip": false, "normalized": true, "special": false}, {"id": 65187, "content": "<unused_token_129>", "single_word": false, "lstrip": false, "rstrip": false, "normalized": true, "special": false}, {"id": 65188, "content": "<unused_token_130>", "single_word": false, "lstrip": false, "rstrip": false, "normalized": true, "special": false}, {"id": 65189, "content": "<unused_token_131>", "single_word": false, "lstrip": false, "rstrip": false, "normalized": true, "special": false}, {"id": 65190, "content": "<unused_token_132>", "single_word": false, "lstrip": false, "rstrip": false, "normalized": true, "special": false}, {"id": 65191, "content": "<unused_token_133>", "single_word": false, "lstrip": false, "rstrip": false, "normalized": true, "special": false}, {"id": 65192, "content": "<unused_token_134>", "single_word": false, "lstrip": false, "rstrip": false, "normalized": true, "special": false}, {"id": 65193, "content": "<unused_token_135>", "single_word": false, "lstrip": false, "rstrip": false, "normalized": true, "special": false}, {"id": 65194, "content": "<unused_token_136>", "single_word": false, "lstrip": false, "rstrip": false, "normalized": true, "special": false}, {"id": 65195, "content": "<unused_token_137>", "single_word": false, "lstrip": false, "rstrip": false, "normalized": true, "special": false}, {"id": 65196, "content": "<unused_token_138>", "single_word": false, "lstrip": false, "rstrip": false, "normalized": true, "special": false}, {"id": 65197, "content": "<unused_token_139>", "single_word": false, "lstrip": false, "rstrip": false, "normalized": true, "special": false}, {"id": 65198, "content": "<unused_token_140>", "single_word": false, "lstrip": false, "rstrip": false, "normalized": true, "special": false}, {"id": 65199, "content": "<unused_token_141>", "single_word": false, "lstrip": false, "rstrip": false, "normalized": true, "special": false}, {"id": 65200, "content": "<unused_token_142>", "single_word": false, "lstrip": false, "rstrip": false, "normalized": true, "special": false}, {"id": 65201, "content": "<unused_token_143>", "single_word": false, "lstrip": false, "rstrip": false, "normalized": true, "special": false}, {"id": 65202, "content": "<unused_token_144>", "single_word": false, "lstrip": false, "rstrip": false, "normalized": true, "special": false}, {"id": 65203, "content": "<unused_token_145>", "single_word": false, "lstrip": false, "rstrip": false, "normalized": true, "special": false}, {"id": 65204, "content": "<unused_token_146>", "single_word": false, "lstrip": false, "rstrip": false, "normalized": true, "special": false}, {"id": 65205, "content": "<unused_token_147>", "single_word": false, "lstrip": false, "rstrip": false, "normalized": true, "special": false}, {"id": 65206, "content": "<unused_token_148>", "single_word": false, "lstrip": false, "rstrip": false, "normalized": true, "special": false}, {"id": 65207, "content": "<unused_token_149>", "single_word": false, "lstrip": false, "rstrip": false, "normalized": true, "special": false}, {"id": 65208, "content": "<unused_token_150>", "single_word": false, "lstrip": false, "rstrip": false, "normalized": true, "special": false}, {"id": 65209, "content": "<unused_token_151>", "single_word": false, "lstrip": false, "rstrip": false, "normalized": true, "special": false}, {"id": 65210, "content": "<unused_token_152>", "single_word": false, "lstrip": false, "rstrip": false, "normalized": true, "special": false}, {"id": 65211, "content": "<unused_token_153>", "single_word": false, "lstrip": false, "rstrip": false, "normalized": true, "special": false}, {"id": 65212, "content": "<unused_token_154>", "single_word": false, "lstrip": false, "rstrip": false, "normalized": true, "special": false}, {"id": 65213, "content": "<unused_token_155>", "single_word": false, "lstrip": false, "rstrip": false, "normalized": true, "special": false}, {"id": 65214, "content": "<unused_token_156>", "single_word": false, "lstrip": false, "rstrip": false, "normalized": true, "special": false}, {"id": 65215, "content": "<unused_token_157>", "single_word": false, "lstrip": false, "rstrip": false, "normalized": true, "special": false}, {"id": 65216, "content": "<unused_token_158>", "single_word": false, "lstrip": false, "rstrip": false, "normalized": true, "special": false}, {"id": 65217, "content": "<unused_token_159>", "single_word": false, "lstrip": false, "rstrip": false, "normalized": true, "special": false}, {"id": 65218, "content": "<unused_token_160>", "single_word": false, "lstrip": false, "rstrip": false, "normalized": true, "special": false}, {"id": 65219, "content": "<unused_token_161>", "single_word": false, "lstrip": false, "rstrip": false, "normalized": true, "special": false}, {"id": 65220, "content": "<unused_token_162>", "single_word": false, "lstrip": false, "rstrip": false, "normalized": true, "special": false}, {"id": 65221, "content": "<unused_token_163>", "single_word": false, "lstrip": false, "rstrip": false, "normalized": true, "special": false}, {"id": 65222, "content": "<unused_token_164>", "single_word": false, "lstrip": false, "rstrip": false, "normalized": true, "special": false}, {"id": 65223, "content": "<unused_token_165>", "single_word": false, "lstrip": false, "rstrip": false, "normalized": true, "special": false}, {"id": 65224, "content": "<unused_token_166>", "single_word": false, "lstrip": false, "rstrip": false, "normalized": true, "special": false}, {"id": 65225, "content": "<unused_token_167>", "single_word": false, "lstrip": false, "rstrip": false, "normalized": true, "special": false}, {"id": 65226, "content": "<unused_token_168>", "single_word": false, "lstrip": false, "rstrip": false, "normalized": true, "special": false}, {"id": 65227, "content": "<unused_token_169>", "single_word": false, "lstrip": false, "rstrip": false, "normalized": true, "special": false}, {"id": 65228, "content": "<unused_token_170>", "single_word": false, "lstrip": false, "rstrip": false, "normalized": true, "special": false}, {"id": 65229, "content": "<unused_token_171>", "single_word": false, "lstrip": false, "rstrip": false, "normalized": true, "special": false}, {"id": 65230, "content": "<unused_token_172>", "single_word": false, "lstrip": false, "rstrip": false, "normalized": true, "special": false}, {"id": 65231, "content": "<unused_token_173>", "single_word": false, "lstrip": false, "rstrip": false, "normalized": true, "special": false}, {"id": 65232, "content": "<unused_token_174>", "single_word": false, "lstrip": false, "rstrip": false, "normalized": true, "special": false}, {"id": 65233, "content": "<unused_token_175>", "single_word": false, "lstrip": false, "rstrip": false, "normalized": true, "special": false}, {"id": 65234, "content": "<unused_token_176>", "single_word": false, "lstrip": false, "rstrip": false, "normalized": true, "special": false}, {"id": 65235, "content": "<unused_token_177>", "single_word": false, "lstrip": false, "rstrip": false, "normalized": true, "special": false}, {"id": 65236, "content": "<unused_token_178>", "single_word": false, "lstrip": false, "rstrip": false, "normalized": true, "special": false}, {"id": 65237, "content": "<unused_token_179>", "single_word": false, "lstrip": false, "rstrip": false, "normalized": true, "special": false}, {"id": 65238, "content": "<unused_token_180>", "single_word": false, "lstrip": false, "rstrip": false, "normalized": true, "special": false}, {"id": 65239, "content": "<unused_token_181>", "single_word": false, "lstrip": false, "rstrip": false, "normalized": true, "special": false}, {"id": 65240, "content": "<unused_token_182>", "single_word": false, "lstrip": false, "rstrip": false, "normalized": true, "special": false}, {"id": 65241, "content": "<unused_token_183>", "single_word": false, "lstrip": false, "rstrip": false, "normalized": true, "special": false}, {"id": 65242, "content": "<unused_token_184>", "single_word": false, "lstrip": false, "rstrip": false, "normalized": true, "special": false}, {"id": 65243, "content": "<unused_token_185>", "single_word": false, "lstrip": false, "rstrip": false, "normalized": true, "special": false}, {"id": 65244, "content": "<unused_token_186>", "single_word": false, "lstrip": false, "rstrip": false, "normalized": true, "special": false}, {"id": 65245, "content": "<unused_token_187>", "single_word": false, "lstrip": false, "rstrip": false, "normalized": true, "special": false}, {"id": 65246, "content": "<unused_token_188>", "single_word": false, "lstrip": false, "rstrip": false, "normalized": true, "special": false}, {"id": 65247, "content": "<unused_token_189>", "single_word": false, "lstrip": false, "rstrip": false, "normalized": true, "special": false}, {"id": 65248, "content": "<unused_token_190>", "single_word": false, "lstrip": false, "rstrip": false, "normalized": true, "special": false}, {"id": 65249, "content": "<unused_token_191>", "single_word": false, "lstrip": false, "rstrip": false, "normalized": true, "special": false}, {"id": 65250, "content": "<unused_token_192>", "single_word": false, "lstrip": false, "rstrip": false, "normalized": true, "special": false}, {"id": 65251, "content": "<unused_token_193>", "single_word": false, "lstrip": false, "rstrip": false, "normalized": true, "special": false}, {"id": 65252, "content": "<unused_token_194>", "single_word": false, "lstrip": false, "rstrip": false, "normalized": true, "special": false}, {"id": 65253, "content": "<unused_token_195>", "single_word": false, "lstrip": false, "rstrip": false, "normalized": true, "special": false}, {"id": 65254, "content": "<unused_token_196>", "single_word": false, "lstrip": false, "rstrip": false, "normalized": true, "special": false}, {"id": 65255, "content": "<unused_token_197>", "single_word": false, "lstrip": false, "rstrip": false, "normalized": true, "special": false}, {"id": 65256, "content": "<unused_token_198>", "single_word": false, "lstrip": false, "rstrip": false, "normalized": true, "special": false}, {"id": 65257, "content": "<unused_token_199>", "single_word": false, "lstrip": false, "rstrip": false, "normalized": true, "special": false}, {"id": 65258, "content": "<unused_token_200>", "single_word": false, "lstrip": false, "rstrip": false, "normalized": true, "special": false}, {"id": 65259, "content": "<unused_token_201>", "single_word": false, "lstrip": false, "rstrip": false, "normalized": true, "special": false}, {"id": 65260, "content": "<unused_token_202>", "single_word": false, "lstrip": false, "rstrip": false, "normalized": true, "special": false}, {"id": 65261, "content": "<unused_token_203>", "single_word": false, "lstrip": false, "rstrip": false, "normalized": true, "special": false}, {"id": 65262, "content": "<unused_token_204>", "single_word": false, "lstrip": false, "rstrip": false, "normalized": true, "special": false}, {"id": 65263, "content": "<unused_token_205>", "single_word": false, "lstrip": false, "rstrip": false, "normalized": true, "special": false}, {"id": 65264, "content": "<unused_token_206>", "single_word": false, "lstrip": false, "rstrip": false, "normalized": true, "special": false}, {"id": 65265, "content": "<unused_token_207>", "single_word": false, "lstrip": false, "rstrip": false, "normalized": true, "special": false}, {"id": 65266, "content": "<unused_token_208>", "single_word": false, "lstrip": false, "rstrip": false, "normalized": true, "special": false}, {"id": 65267, "content": "<unused_token_209>", "single_word": false, "lstrip": false, "rstrip": false, "normalized": true, "special": false}, {"id": 65268, "content": "<unused_token_210>", "single_word": false, "lstrip": false, "rstrip": false, "normalized": true, "special": false}, {"id": 65269, "content": "<unused_token_211>", "single_word": false, "lstrip": false, "rstrip": false, "normalized": true, "special": false}, {"id": 65270, "content": "<unused_token_212>", "single_word": false, "lstrip": false, "rstrip": false, "normalized": true, "special": false}, {"id": 65271, "content": "<unused_token_213>", "single_word": false, "lstrip": false, "rstrip": false, "normalized": true, "special": false}, {"id": 65272, "content": "<unused_token_214>", "single_word": false, "lstrip": false, "rstrip": false, "normalized": true, "special": false}, {"id": 65273, "content": "<unused_token_215>", "single_word": false, "lstrip": false, "rstrip": false, "normalized": true, "special": false}, {"id": 65274, "content": "<unused_token_216>", "single_word": false, "lstrip": false, "rstrip": false, "normalized": true, "special": false}, {"id": 65275, "content": "<unused_token_217>", "single_word": false, "lstrip": false, "rstrip": false, "normalized": true, "special": false}, {"id": 65276, "content": "<unused_token_218>", "single_word": false, "lstrip": false, "rstrip": false, "normalized": true, "special": false}, {"id": 65277, "content": "<unused_token_219>", "single_word": false, "lstrip": false, "rstrip": false, "normalized": true, "special": false}, {"id": 65278, "content": "<unused_token_220>", "single_word": false, "lstrip": false, "rstrip": false, "normalized": true, "special": false}, {"id": 65279, "content": "<unused_token_221>", "single_word": false, "lstrip": false, "rstrip": false, "normalized": true, "special": false}, {"id": 65280, "content": "<unused_token_222>", "single_word": false, "lstrip": false, "rstrip": false, "normalized": true, "special": false}, {"id": 65281, "content": "<unused_token_223>", "single_word": false, "lstrip": false, "rstrip": false, "normalized": true, "special": false}, {"id": 65282, "content": "<unused_token_224>", "single_word": false, "lstrip": false, "rstrip": false, "normalized": true, "special": false}, {"id": 65283, "content": "<unused_token_225>", "single_word": false, "lstrip": false, "rstrip": false, "normalized": true, "special": false}, {"id": 65284, "content": "<unused_token_226>", "single_word": false, "lstrip": false, "rstrip": false, "normalized": true, "special": false}, {"id": 65285, "content": "<unused_token_227>", "single_word": false, "lstrip": false, "rstrip": false, "normalized": true, "special": false}, {"id": 65286, "content": "<unused_token_228>", "single_word": false, "lstrip": false, "rstrip": false, "normalized": true, "special": false}, {"id": 65287, "content": "<unused_token_229>", "single_word": false, "lstrip": false, "rstrip": false, "normalized": true, "special": false}, {"id": 65288, "content": "<unused_token_230>", "single_word": false, "lstrip": false, "rstrip": false, "normalized": true, "special": false}, {"id": 65289, "content": "<unused_token_231>", "single_word": false, "lstrip": false, "rstrip": false, "normalized": true, "special": false}, {"id": 65290, "content": "<unused_token_232>", "single_word": false, "lstrip": false, "rstrip": false, "normalized": true, "special": false}, {"id": 65291, "content": "<unused_token_233>", "single_word": false, "lstrip": false, "rstrip": false, "normalized": true, "special": false}, {"id": 65292, "content": "<unused_token_234>", "single_word": false, "lstrip": false, "rstrip": false, "normalized": true, "special": false}, {"id": 65293, "content": "<unused_token_235>", "single_word": false, "lstrip": false, "rstrip": false, "normalized": true, "special": false}, {"id": 65294, "content": "<unused_token_236>", "single_word": false, "lstrip": false, "rstrip": false, "normalized": true, "special": false}, {"id": 65295, "content": "<unused_token_237>", "single_word": false, "lstrip": false, "rstrip": false, "normalized": true, "special": false}, {"id": 65296, "content": "<unused_token_238>", "single_word": false, "lstrip": false, "rstrip": false, "normalized": true, "special": false}, {"id": 65297, "content": "<unused_token_239>", "single_word": false, "lstrip": false, "rstrip": false, "normalized": true, "special": false}, {"id": 65298, "content": "<unused_token_240>", "single_word": false, "lstrip": false, "rstrip": false, "normalized": true, "special": false}, {"id": 65299, "content": "<unused_token_241>", "single_word": false, "lstrip": false, "rstrip": false, "normalized": true, "special": false}, {"id": 65300, "content": "<unused_token_242>", "single_word": false, "lstrip": false, "rstrip": false, "normalized": true, "special": false}, {"id": 65301, "content": "<unused_token_243>", "single_word": false, "lstrip": false, "rstrip": false, "normalized": true, "special": false}, {"id": 65302, "content": "<unused_token_244>", "single_word": false, "lstrip": false, "rstrip": false, "normalized": true, "special": false}, {"id": 65303, "content": "<unused_token_245>", "single_word": false, "lstrip": false, "rstrip": false, "normalized": true, "special": false}, {"id": 65304, "content": "<unused_token_246>", "single_word": false, "lstrip": false, "rstrip": false, "normalized": true, "special": false}, {"id": 65305, "content": "<unused_token_247>", "single_word": false, "lstrip": false, "rstrip": false, "normalized": true, "special": false}, {"id": 65306, "content": "<unused_token_248>", "single_word": false, "lstrip": false, "rstrip": false, "normalized": true, "special": false}, {"id": 65307, "content": "<unused_token_249>", "single_word": false, "lstrip": false, "rstrip": false, "normalized": true, "special": false}, {"id": 65308, "content": "<unused_token_250>", "single_word": false, "lstrip": false, "rstrip": false, "normalized": true, "special": false}, {"id": 65309, "content": "<unused_token_251>", "single_word": false, "lstrip": false, "rstrip": false, "normalized": true, "special": false}, {"id": 65310, "content": "<unused_token_252>", "single_word": false, "lstrip": false, "rstrip": false, "normalized": true, "special": false}, {"id": 65311, "content": "<unused_token_253>", "single_word": false, "lstrip": false, "rstrip": false, "normalized": true, "special": false}, {"id": 65312, "content": "<unused_token_254>", "single_word": false, "lstrip": false, "rstrip": false, "normalized": true, "special": false}, {"id": 65313, "content": "<unused_token_255>", "single_word": false, "lstrip": false, "rstrip": false, "normalized": true, "special": false}, {"id": 65314, "content": "<unused_token_256>", "single_word": false, "lstrip": false, "rstrip": false, "normalized": true, "special": false}, {"id": 65315, "content": "<unused_token_257>", "single_word": false, "lstrip": false, "rstrip": false, "normalized": true, "special": false}, {"id": 65316, "content": "<unused_token_258>", "single_word": false, "lstrip": false, "rstrip": false, "normalized": true, "special": false}, {"id": 65317, "content": "<unused_token_259>", "single_word": false, "lstrip": false, "rstrip": false, "normalized": true, "special": false}, {"id": 65318, "content": "<unused_token_260>", "single_word": false, "lstrip": false, "rstrip": false, "normalized": true, "special": false}, {"id": 65319, "content": "<unused_token_261>", "single_word": false, "lstrip": false, "rstrip": false, "normalized": true, "special": false}, {"id": 65320, "content": "<unused_token_262>", "single_word": false, "lstrip": false, "rstrip": false, "normalized": true, "special": false}, {"id": 65321, "content": "<unused_token_263>", "single_word": false, "lstrip": false, "rstrip": false, "normalized": true, "special": false}, {"id": 65322, "content": "<unused_token_264>", "single_word": false, "lstrip": false, "rstrip": false, "normalized": true, "special": false}, {"id": 65323, "content": "<unused_token_265>", "single_word": false, "lstrip": false, "rstrip": false, "normalized": true, "special": false}, {"id": 65324, "content": "<unused_token_266>", "single_word": false, "lstrip": false, "rstrip": false, "normalized": true, "special": false}, {"id": 65325, "content": "<unused_token_267>", "single_word": false, "lstrip": false, "rstrip": false, "normalized": true, "special": false}, {"id": 65326, "content": "<unused_token_268>", "single_word": false, "lstrip": false, "rstrip": false, "normalized": true, "special": false}, {"id": 65327, "content": "<unused_token_269>", "single_word": false, "lstrip": false, "rstrip": false, "normalized": true, "special": false}, {"id": 65328, "content": "<unused_token_270>", "single_word": false, "lstrip": false, "rstrip": false, "normalized": true, "special": false}, {"id": 65329, "content": "<unused_token_271>", "single_word": false, "lstrip": false, "rstrip": false, "normalized": true, "special": false}, {"id": 65330, "content": "<unused_token_272>", "single_word": false, "lstrip": false, "rstrip": false, "normalized": true, "special": false}, {"id": 65331, "content": "<unused_token_273>", "single_word": false, "lstrip": false, "rstrip": false, "normalized": true, "special": false}, {"id": 65332, "content": "<unused_token_274>", "single_word": false, "lstrip": false, "rstrip": false, "normalized": true, "special": false}, {"id": 65333, "content": "<unused_token_275>", "single_word": false, "lstrip": false, "rstrip": false, "normalized": true, "special": false}, {"id": 65334, "content": "<unused_token_276>", "single_word": false, "lstrip": false, "rstrip": false, "normalized": true, "special": false}, {"id": 65335, "content": "<unused_token_277>", "single_word": false, "lstrip": false, "rstrip": false, "normalized": true, "special": false}, {"id": 65336, "content": "<unused_token_278>", "single_word": false, "lstrip": false, "rstrip": false, "normalized": true, "special": false}, {"id": 65337, "content": "<unused_token_279>", "single_word": false, "lstrip": false, "rstrip": false, "normalized": true, "special": false}, {"id": 65338, "content": "<unused_token_280>", "single_word": false, "lstrip": false, "rstrip": false, "normalized": true, "special": false}, {"id": 65339, "content": "<unused_token_281>", "single_word": false, "lstrip": false, "rstrip": false, "normalized": true, "special": false}, {"id": 65340, "content": "<unused_token_282>", "single_word": false, "lstrip": false, "rstrip": false, "normalized": true, "special": false}, {"id": 65341, "content": "<unused_token_283>", "single_word": false, "lstrip": false, "rstrip": false, "normalized": true, "special": false}, {"id": 65342, "content": "<unused_token_284>", "single_word": false, "lstrip": false, "rstrip": false, "normalized": true, "special": false}, {"id": 65343, "content": "<unused_token_285>", "single_word": false, "lstrip": false, "rstrip": false, "normalized": true, "special": false}, {"id": 65344, "content": "<unused_token_286>", "single_word": false, "lstrip": false, "rstrip": false, "normalized": true, "special": false}, {"id": 65345, "content": "<unused_token_287>", "single_word": false, "lstrip": false, "rstrip": false, "normalized": true, "special": false}, {"id": 65346, "content": "<unused_token_288>", "single_word": false, "lstrip": false, "rstrip": false, "normalized": true, "special": false}, {"id": 65347, "content": "<unused_token_289>", "single_word": false, "lstrip": false, "rstrip": false, "normalized": true, "special": false}, {"id": 65348, "content": "<unused_token_290>", "single_word": false, "lstrip": false, "rstrip": false, "normalized": true, "special": false}, {"id": 65349, "content": "<unused_token_291>", "single_word": false, "lstrip": false, "rstrip": false, "normalized": true, "special": false}, {"id": 65350, "content": "<unused_token_292>", "single_word": false, "lstrip": false, "rstrip": false, "normalized": true, "special": false}, {"id": 65351, "content": "<unused_token_293>", "single_word": false, "lstrip": false, "rstrip": false, "normalized": true, "special": false}, {"id": 65352, "content": "<unused_token_294>", "single_word": false, "lstrip": false, "rstrip": false, "normalized": true, "special": false}, {"id": 65353, "content": "<unused_token_295>", "single_word": false, "lstrip": false, "rstrip": false, "normalized": true, "special": false}, {"id": 65354, "content": "<unused_token_296>", "single_word": false, "lstrip": false, "rstrip": false, "normalized": true, "special": false}, {"id": 65355, "content": "<unused_token_297>", "single_word": false, "lstrip": false, "rstrip": false, "normalized": true, "special": false}, {"id": 65356, "content": "<unused_token_298>", "single_word": false, "lstrip": false, "rstrip": false, "normalized": true, "special": false}, {"id": 65357, "content": "<unused_token_299>", "single_word": false, "lstrip": false, "rstrip": false, "normalized": true, "special": false}, {"id": 65358, "content": "<unused_token_300>", "single_word": false, "lstrip": false, "rstrip": false, "normalized": true, "special": false}, {"id": 65359, "content": "<unused_token_301>", "single_word": false, "lstrip": false, "rstrip": false, "normalized": true, "special": false}, {"id": 65360, "content": "<unused_token_302>", "single_word": false, "lstrip": false, "rstrip": false, "normalized": true, "special": false}, {"id": 65361, "content": "<unused_token_303>", "single_word": false, "lstrip": false, "rstrip": false, "normalized": true, "special": false}, {"id": 65362, "content": "<unused_token_304>", "single_word": false, "lstrip": false, "rstrip": false, "normalized": true, "special": false}, {"id": 65363, "content": "<unused_token_305>", "single_word": false, "lstrip": false, "rstrip": false, "normalized": true, "special": false}, {"id": 65364, "content": "<unused_token_306>", "single_word": false, "lstrip": false, "rstrip": false, "normalized": true, "special": false}, {"id": 65365, "content": "<unused_token_307>", "single_word": false, "lstrip": false, "rstrip": false, "normalized": true, "special": false}, {"id": 65366, "content": "<unused_token_308>", "single_word": false, "lstrip": false, "rstrip": false, "normalized": true, "special": false}, {"id": 65367, "content": "<unused_token_309>", "single_word": false, "lstrip": false, "rstrip": false, "normalized": true, "special": false}, {"id": 65368, "content": "<unused_token_310>", "single_word": false, "lstrip": false, "rstrip": false, "normalized": true, "special": false}, {"id": 65369, "content": "<unused_token_311>", "single_word": false, "lstrip": false, "rstrip": false, "normalized": true, "special": false}, {"id": 65370, "content": "<unused_token_312>", "single_word": false, "lstrip": false, "rstrip": false, "normalized": true, "special": false}, {"id": 65371, "content": "<unused_token_313>", "single_word": false, "lstrip": false, "rstrip": false, "normalized": true, "special": false}, {"id": 65372, "content": "<unused_token_314>", "single_word": false, "lstrip": false, "rstrip": false, "normalized": true, "special": false}, {"id": 65373, "content": "<unused_token_315>", "single_word": false, "lstrip": false, "rstrip": false, "normalized": true, "special": false}, {"id": 65374, "content": "<unused_token_316>", "single_word": false, "lstrip": false, "rstrip": false, "normalized": true, "special": false}, {"id": 65375, "content": "<unused_token_317>", "single_word": false, "lstrip": false, "rstrip": false, "normalized": true, "special": false}, {"id": 65376, "content": "<unused_token_318>", "single_word": false, "lstrip": false, "rstrip": false, "normalized": true, "special": false}, {"id": 65377, "content": "<unused_token_319>", "single_word": false, "lstrip": false, "rstrip": false, "normalized": true, "special": false}, {"id": 65378, "content": "<unused_token_320>", "single_word": false, "lstrip": false, "rstrip": false, "normalized": true, "special": false}, {"id": 65379, "content": "<unused_token_321>", "single_word": false, "lstrip": false, "rstrip": false, "normalized": true, "special": false}, {"id": 65380, "content": "<unused_token_322>", "single_word": false, "lstrip": false, "rstrip": false, "normalized": true, "special": false}, {"id": 65381, "content": "<unused_token_323>", "single_word": false, "lstrip": false, "rstrip": false, "normalized": true, "special": false}, {"id": 65382, "content": "<unused_token_324>", "single_word": false, "lstrip": false, "rstrip": false, "normalized": true, "special": false}, {"id": 65383, "content": "<unused_token_325>", "single_word": false, "lstrip": false, "rstrip": false, "normalized": true, "special": false}, {"id": 65384, "content": "<unused_token_326>", "single_word": false, "lstrip": false, "rstrip": false, "normalized": true, "special": false}, {"id": 65385, "content": "<unused_token_327>", "single_word": false, "lstrip": false, "rstrip": false, "normalized": true, "special": false}, {"id": 65386, "content": "<unused_token_328>", "single_word": false, "lstrip": false, "rstrip": false, "normalized": true, "special": false}, {"id": 65387, "content": "<unused_token_329>", "single_word": false, "lstrip": false, "rstrip": false, "normalized": true, "special": false}, {"id": 65388, "content": "<unused_token_330>", "single_word": false, "lstrip": false, "rstrip": false, "normalized": true, "special": false}, {"id": 65389, "content": "<unused_token_331>", "single_word": false, "lstrip": false, "rstrip": false, "normalized": true, "special": false}, {"id": 65390, "content": "<unused_token_332>", "single_word": false, "lstrip": false, "rstrip": false, "normalized": true, "special": false}, {"id": 65391, "content": "<unused_token_333>", "single_word": false, "lstrip": false, "rstrip": false, "normalized": true, "special": false}, {"id": 65392, "content": "<unused_token_334>", "single_word": false, "lstrip": false, "rstrip": false, "normalized": true, "special": false}, {"id": 65393, "content": "<unused_token_335>", "single_word": false, "lstrip": false, "rstrip": false, "normalized": true, "special": false}, {"id": 65394, "content": "<unused_token_336>", "single_word": false, "lstrip": false, "rstrip": false, "normalized": true, "special": false}, {"id": 65395, "content": "<unused_token_337>", "single_word": false, "lstrip": false, "rstrip": false, "normalized": true, "special": false}, {"id": 65396, "content": "<unused_token_338>", "single_word": false, "lstrip": false, "rstrip": false, "normalized": true, "special": false}, {"id": 65397, "content": "<unused_token_339>", "single_word": false, "lstrip": false, "rstrip": false, "normalized": true, "special": false}, {"id": 65398, "content": "<unused_token_340>", "single_word": false, "lstrip": false, "rstrip": false, "normalized": true, "special": false}, {"id": 65399, "content": "<unused_token_341>", "single_word": false, "lstrip": false, "rstrip": false, "normalized": true, "special": false}, {"id": 65400, "content": "<unused_token_342>", "single_word": false, "lstrip": false, "rstrip": false, "normalized": true, "special": false}, {"id": 65401, "content": "<unused_token_343>", "single_word": false, "lstrip": false, "rstrip": false, "normalized": true, "special": false}, {"id": 65402, "content": "<unused_token_344>", "single_word": false, "lstrip": false, "rstrip": false, "normalized": true, "special": false}, {"id": 65403, "content": "<unused_token_345>", "single_word": false, "lstrip": false, "rstrip": false, "normalized": true, "special": false}, {"id": 65404, "content": "<unused_token_346>", "single_word": false, "lstrip": false, "rstrip": false, "normalized": true, "special": false}, {"id": 65405, "content": "<unused_token_347>", "single_word": false, "lstrip": false, "rstrip": false, "normalized": true, "special": false}, {"id": 65406, "content": "<unused_token_348>", "single_word": false, "lstrip": false, "rstrip": false, "normalized": true, "special": false}, {"id": 65407, "content": "<unused_token_349>", "single_word": false, "lstrip": false, "rstrip": false, "normalized": true, "special": false}, {"id": 65408, "content": "<unused_token_350>", "single_word": false, "lstrip": false, "rstrip": false, "normalized": true, "special": false}, {"id": 65409, "content": "<unused_token_351>", "single_word": false, "lstrip": false, "rstrip": false, "normalized": true, "special": false}, {"id": 65410, "content": "<unused_token_352>", "single_word": false, "lstrip": false, "rstrip": false, "normalized": true, "special": false}, {"id": 65411, "content": "<unused_token_353>", "single_word": false, "lstrip": false, "rstrip": false, "normalized": true, "special": false}, {"id": 65412, "content": "<unused_token_354>", "single_word": false, "lstrip": false, "rstrip": false, "normalized": true, "special": false}, {"id": 65413, "content": "<unused_token_355>", "single_word": false, "lstrip": false, "rstrip": false, "normalized": true, "special": false}, {"id": 65414, "content": "<unused_token_356>", "single_word": false, "lstrip": false, "rstrip": false, "normalized": true, "special": false}, {"id": 65415, "content": "<unused_token_357>", "single_word": false, "lstrip": false, "rstrip": false, "normalized": true, "special": false}, {"id": 65416, "content": "<unused_token_358>", "single_word": false, "lstrip": false, "rstrip": false, "normalized": true, "special": false}, {"id": 65417, "content": "<unused_token_359>", "single_word": false, "lstrip": false, "rstrip": false, "normalized": true, "special": false}, {"id": 65418, "content": "<unused_token_360>", "single_word": false, "lstrip": false, "rstrip": false, "normalized": true, "special": false}, {"id": 65419, "content": "<unused_token_361>", "single_word": false, "lstrip": false, "rstrip": false, "normalized": true, "special": false}, {"id": 65420, "content": "<unused_token_362>", "single_word": false, "lstrip": false, "rstrip": false, "normalized": true, "special": false}, {"id": 65421, "content": "<unused_token_363>", "single_word": false, "lstrip": false, "rstrip": false, "normalized": true, "special": false}, {"id": 65422, "content": "<unused_token_364>", "single_word": false, "lstrip": false, "rstrip": false, "normalized": true, "special": false}, {"id": 65423, "content": "<unused_token_365>", "single_word": false, "lstrip": false, "rstrip": false, "normalized": true, "special": false}, {"id": 65424, "content": "<unused_token_366>", "single_word": false, "lstrip": false, "rstrip": false, "normalized": true, "special": false}, {"id": 65425, "content": "<unused_token_367>", "single_word": false, "lstrip": false, "rstrip": false, "normalized": true, "special": false}, {"id": 65426, "content": "<unused_token_368>", "single_word": false, "lstrip": false, "rstrip": false, "normalized": true, "special": false}, {"id": 65427, "content": "<unused_token_369>", "single_word": false, "lstrip": false, "rstrip": false, "normalized": true, "special": false}, {"id": 65428, "content": "<unused_token_370>", "single_word": false, "lstrip": false, "rstrip": false, "normalized": true, "special": false}, {"id": 65429, "content": "<unused_token_371>", "single_word": false, "lstrip": false, "rstrip": false, "normalized": true, "special": false}, {"id": 65430, "content": "<unused_token_372>", "single_word": false, "lstrip": false, "rstrip": false, "normalized": true, "special": false}, {"id": 65431, "content": "<unused_token_373>", "single_word": false, "lstrip": false, "rstrip": false, "normalized": true, "special": false}, {"id": 65432, "content": "<unused_token_374>", "single_word": false, "lstrip": false, "rstrip": false, "normalized": true, "special": false}, {"id": 65433, "content": "<unused_token_375>", "single_word": false, "lstrip": false, "rstrip": false, "normalized": true, "special": false}, {"id": 65434, "content": "<unused_token_376>", "single_word": false, "lstrip": false, "rstrip": false, "normalized": true, "special": false}, {"id": 65435, "content": "<unused_token_377>", "single_word": false, "lstrip": false, "rstrip": false, "normalized": true, "special": false}, {"id": 65436, "content": "<unused_token_378>", "single_word": false, "lstrip": false, "rstrip": false, "normalized": true, "special": false}, {"id": 65437, "content": "<unused_token_379>", "single_word": false, "lstrip": false, "rstrip": false, "normalized": true, "special": false}, {"id": 65438, "content": "<unused_token_380>", "single_word": false, "lstrip": false, "rstrip": false, "normalized": true, "special": false}, {"id": 65439, "content": "<unused_token_381>", "single_word": false, "lstrip": false, "rstrip": false, "normalized": true, "special": false}, {"id": 65440, "content": "<unused_token_382>", "single_word": false, "lstrip": false, "rstrip": false, "normalized": true, "special": false}, {"id": 65441, "content": "<unused_token_383>", "single_word": false, "lstrip": false, "rstrip": false, "normalized": true, "special": false}, {"id": 65442, "content": "<unused_token_384>", "single_word": false, "lstrip": false, "rstrip": false, "normalized": true, "special": false}, {"id": 65443, "content": "<unused_token_385>", "single_word": false, "lstrip": false, "rstrip": false, "normalized": true, "special": false}, {"id": 65444, "content": "<unused_token_386>", "single_word": false, "lstrip": false, "rstrip": false, "normalized": true, "special": false}, {"id": 65445, "content": "<unused_token_387>", "single_word": false, "lstrip": false, "rstrip": false, "normalized": true, "special": false}, {"id": 65446, "content": "<unused_token_388>", "single_word": false, "lstrip": false, "rstrip": false, "normalized": true, "special": false}, {"id": 65447, "content": "<unused_token_389>", "single_word": false, "lstrip": false, "rstrip": false, "normalized": true, "special": false}, {"id": 65448, "content": "<unused_token_390>", "single_word": false, "lstrip": false, "rstrip": false, "normalized": true, "special": false}, {"id": 65449, "content": "<unused_token_391>", "single_word": false, "lstrip": false, "rstrip": false, "normalized": true, "special": false}, {"id": 65450, "content": "<unused_token_392>", "single_word": false, "lstrip": false, "rstrip": false, "normalized": true, "special": false}, {"id": 65451, "content": "<unused_token_393>", "single_word": false, "lstrip": false, "rstrip": false, "normalized": true, "special": false}, {"id": 65452, "content": "<unused_token_394>", "single_word": false, "lstrip": false, "rstrip": false, "normalized": true, "special": false}, {"id": 65453, "content": "<unused_token_395>", "single_word": false, "lstrip": false, "rstrip": false, "normalized": true, "special": false}, {"id": 65454, "content": "<unused_token_396>", "single_word": false, "lstrip": false, "rstrip": false, "normalized": true, "special": false}, {"id": 65455, "content": "<unused_token_397>", "single_word": false, "lstrip": false, "rstrip": false, "normalized": true, "special": false}, {"id": 65456, "content": "<unused_token_398>", "single_word": false, "lstrip": false, "rstrip": false, "normalized": true, "special": false}, {"id": 65457, "content": "<unused_token_399>", "single_word": false, "lstrip": false, "rstrip": false, "normalized": true, "special": false}, {"id": 65458, "content": "<unused_token_400>", "single_word": false, "lstrip": false, "rstrip": false, "normalized": true, "special": false}, {"id": 65459, "content": "<unused_token_401>", "single_word": false, "lstrip": false, "rstrip": false, "normalized": true, "special": false}, {"id": 65460, "content": "<unused_token_402>", "single_word": false, "lstrip": false, "rstrip": false, "normalized": true, "special": false}, {"id": 65461, "content": "<unused_token_403>", "single_word": false, "lstrip": false, "rstrip": false, "normalized": true, "special": false}, {"id": 65462, "content": "<unused_token_404>", "single_word": false, "lstrip": false, "rstrip": false, "normalized": true, "special": false}, {"id": 65463, "content": "<unused_token_405>", "single_word": false, "lstrip": false, "rstrip": false, "normalized": true, "special": false}, {"id": 65464, "content": "<unused_token_406>", "single_word": false, "lstrip": false, "rstrip": false, "normalized": true, "special": false}, {"id": 65465, "content": "<unused_token_407>", "single_word": false, "lstrip": false, "rstrip": false, "normalized": true, "special": false}, {"id": 65466, "content": "<unused_token_408>", "single_word": false, "lstrip": false, "rstrip": false, "normalized": true, "special": false}, {"id": 65467, "content": "<unused_token_409>", "single_word": false, "lstrip": false, "rstrip": false, "normalized": true, "special": false}, {"id": 65468, "content": "<unused_token_410>", "single_word": false, "lstrip": false, "rstrip": false, "normalized": true, "special": false}, {"id": 65469, "content": "<unused_token_411>", "single_word": false, "lstrip": false, "rstrip": false, "normalized": true, "special": false}, {"id": 65470, "content": "<unused_token_412>", "single_word": false, "lstrip": false, "rstrip": false, "normalized": true, "special": false}, {"id": 65471, "content": "<unused_token_413>", "single_word": false, "lstrip": false, "rstrip": false, "normalized": true, "special": false}, {"id": 65472, "content": "<unused_token_414>", "single_word": false, "lstrip": false, "rstrip": false, "normalized": true, "special": false}, {"id": 65473, "content": "<unused_token_415>", "single_word": false, "lstrip": false, "rstrip": false, "normalized": true, "special": false}, {"id": 65474, "content": "<unused_token_416>", "single_word": false, "lstrip": false, "rstrip": false, "normalized": true, "special": false}, {"id": 65475, "content": "<unused_token_417>", "single_word": false, "lstrip": false, "rstrip": false, "normalized": true, "special": false}, {"id": 65476, "content": "<unused_token_418>", "single_word": false, "lstrip": false, "rstrip": false, "normalized": true, "special": false}, {"id": 65477, "content": "<unused_token_419>", "single_word": false, "lstrip": false, "rstrip": false, "normalized": true, "special": false}, {"id": 65478, "content": "<unused_token_420>", "single_word": false, "lstrip": false, "rstrip": false, "normalized": true, "special": false}, {"id": 65479, "content": "<unused_token_421>", "single_word": false, "lstrip": false, "rstrip": false, "normalized": true, "special": false}, {"id": 65480, "content": "<unused_token_422>", "single_word": false, "lstrip": false, "rstrip": false, "normalized": true, "special": false}, {"id": 65481, "content": "<unused_token_423>", "single_word": false, "lstrip": false, "rstrip": false, "normalized": true, "special": false}, {"id": 65482, "content": "<unused_token_424>", "single_word": false, "lstrip": false, "rstrip": false, "normalized": true, "special": false}, {"id": 65483, "content": "<unused_token_425>", "single_word": false, "lstrip": false, "rstrip": false, "normalized": true, "special": false}, {"id": 65484, "content": "<unused_token_426>", "single_word": false, "lstrip": false, "rstrip": false, "normalized": true, "special": false}, {"id": 65485, "content": "<unused_token_427>", "single_word": false, "lstrip": false, "rstrip": false, "normalized": true, "special": false}, {"id": 65486, "content": "<unused_token_428>", "single_word": false, "lstrip": false, "rstrip": false, "normalized": true, "special": false}, {"id": 65487, "content": "<unused_token_429>", "single_word": false, "lstrip": false, "rstrip": false, "normalized": true, "special": false}, {"id": 65488, "content": "<unused_token_430>", "single_word": false, "lstrip": false, "rstrip": false, "normalized": true, "special": false}, {"id": 65489, "content": "<unused_token_431>", "single_word": false, "lstrip": false, "rstrip": false, "normalized": true, "special": false}, {"id": 65490, "content": "<unused_token_432>", "single_word": false, "lstrip": false, "rstrip": false, "normalized": true, "special": false}, {"id": 65491, "content": "<unused_token_433>", "single_word": false, "lstrip": false, "rstrip": false, "normalized": true, "special": false}, {"id": 65492, "content": "<unused_token_434>", "single_word": false, "lstrip": false, "rstrip": false, "normalized": true, "special": false}, {"id": 65493, "content": "<unused_token_435>", "single_word": false, "lstrip": false, "rstrip": false, "normalized": true, "special": false}, {"id": 65494, "content": "<unused_token_436>", "single_word": false, "lstrip": false, "rstrip": false, "normalized": true, "special": false}, {"id": 65495, "content": "<unused_token_437>", "single_word": false, "lstrip": false, "rstrip": false, "normalized": true, "special": false}, {"id": 65496, "content": "<unused_token_438>", "single_word": false, "lstrip": false, "rstrip": false, "normalized": true, "special": false}, {"id": 65497, "content": "<unused_token_439>", "single_word": false, "lstrip": false, "rstrip": false, "normalized": true, "special": false}, {"id": 65498, "content": "<unused_token_440>", "single_word": false, "lstrip": false, "rstrip": false, "normalized": true, "special": false}, {"id": 65499, "content": "<unused_token_441>", "single_word": false, "lstrip": false, "rstrip": false, "normalized": true, "special": false}, {"id": 65500, "content": "<unused_token_442>", "single_word": false, "lstrip": false, "rstrip": false, "normalized": true, "special": false}, {"id": 65501, "content": "<unused_token_443>", "single_word": false, "lstrip": false, "rstrip": false, "normalized": true, "special": false}, {"id": 65502, "content": "<unused_token_444>", "single_word": false, "lstrip": false, "rstrip": false, "normalized": true, "special": false}, {"id": 65503, "content": "<unused_token_445>", "single_word": false, "lstrip": false, "rstrip": false, "normalized": true, "special": false}, {"id": 65504, "content": "<unused_token_446>", "single_word": false, "lstrip": false, "rstrip": false, "normalized": true, "special": false}, {"id": 65505, "content": "<unused_token_447>", "single_word": false, "lstrip": false, "rstrip": false, "normalized": true, "special": false}, {"id": 65506, "content": "<unused_token_448>", "single_word": false, "lstrip": false, "rstrip": false, "normalized": true, "special": false}, {"id": 65507, "content": "<unused_token_449>", "single_word": false, "lstrip": false, "rstrip": false, "normalized": true, "special": false}, {"id": 65508, "content": "<unused_token_450>", "single_word": false, "lstrip": false, "rstrip": false, "normalized": true, "special": false}, {"id": 65509, "content": "<unused_token_451>", "single_word": false, "lstrip": false, "rstrip": false, "normalized": true, "special": false}, {"id": 65510, "content": "<unused_token_452>", "single_word": false, "lstrip": false, "rstrip": false, "normalized": true, "special": false}, {"id": 65511, "content": "<unused_token_453>", "single_word": false, "lstrip": false, "rstrip": false, "normalized": true, "special": false}, {"id": 65512, "content": "<unused_token_454>", "single_word": false, "lstrip": false, "rstrip": false, "normalized": true, "special": false}, {"id": 65513, "content": "<unused_token_455>", "single_word": false, "lstrip": false, "rstrip": false, "normalized": true, "special": false}, {"id": 65514, "content": "<unused_token_456>", "single_word": false, "lstrip": false, "rstrip": false, "normalized": true, "special": false}, {"id": 65515, "content": "<unused_token_457>", "single_word": false, "lstrip": false, "rstrip": false, "normalized": true, "special": false}, {"id": 65516, "content": "<unused_token_458>", "single_word": false, "lstrip": false, "rstrip": false, "normalized": true, "special": false}, {"id": 65517, "content": "<unused_token_459>", "single_word": false, "lstrip": false, "rstrip": false, "normalized": true, "special": false}, {"id": 65518, "content": "<unused_token_460>", "single_word": false, "lstrip": false, "rstrip": false, "normalized": true, "special": false}, {"id": 65519, "content": "<unused_token_461>", "single_word": false, "lstrip": false, "rstrip": false, "normalized": true, "special": false}, {"id": 65520, "content": "<unused_token_462>", "single_word": false, "lstrip": false, "rstrip": false, "normalized": true, "special": false}, {"id": 65521, "content": "<unused_token_463>", "single_word": false, "lstrip": false, "rstrip": false, "normalized": true, "special": false}, {"id": 65522, "content": "<unused_token_464>", "single_word": false, "lstrip": false, "rstrip": false, "normalized": true, "special": false}, {"id": 65523, "content": "<unused_token_465>", "single_word": false, "lstrip": false, "rstrip": false, "normalized": true, "special": false}, {"id": 65524, "content": "<unused_token_466>", "single_word": false, "lstrip": false, "rstrip": false, "normalized": true, "special": false}, {"id": 65525, "content": "<unused_token_467>", "single_word": false, "lstrip": false, "rstrip": false, "normalized": true, "special": false}, {"id": 65526, "content": "<unused_token_468>", "single_word": false, "lstrip": false, "rstrip": false, "normalized": true, "special": false}, {"id": 65527, "content": "<unused_token_469>", "single_word": false, "lstrip": false, "rstrip": false, "normalized": true, "special": false}, {"id": 65528, "content": "<unused_token_470>", "single_word": false, "lstrip": false, "rstrip": false, "normalized": true, "special": false}, {"id": 65529, "content": "<unused_token_471>", "single_word": false, "lstrip": false, "rstrip": false, "normalized": true, "special": false}, {"id": 65530, "content": "<unused_token_472>", "single_word": false, "lstrip": false, "rstrip": false, "normalized": true, "special": false}, {"id": 65531, "content": "<unused_token_473>", "single_word": false, "lstrip": false, "rstrip": false, "normalized": true, "special": false}, {"id": 65532, "content": "<unused_token_474>", "single_word": false, "lstrip": false, "rstrip": false, "normalized": true, "special": false}, {"id": 65533, "content": "<unused_token_475>", "single_word": false, "lstrip": false, "rstrip": false, "normalized": true, "special": false}, {"id": 65534, "content": "<unused_token_476>", "single_word": false, "lstrip": false, "rstrip": false, "normalized": true, "special": false}, {"id": 65535, "content": "<unused_token_477>", "single_word": false, "lstrip": false, "rstrip": false, "normalized": true, "special": false}], "normalizer": null, "pre_tokenizer": {"type": "Sequence", "pretokenizers": [{"type": "Split", "pattern": {"Regex": "\\p{N}{1,3}"}, "behavior": "Isolated", "invert": false}, {"type": "Split", "pattern": {"Regex": "(?i:'s|'t|'re|'ve|'m|'ll|'d)|[^\\r\\n\\p{L}\\p{N}]?\\p{L}+|\\p{N}+| ?[^\\s\\p{L}\\p{N}]+[\\r\\n]*|\\s*[\\r\\n]+|\\s+(?!\\S)|\\s+"}, "behavior": "Isolated", "invert": false}, {"type": "ByteLevel", "add_prefix_space": false, "trim_offsets": true, "use_regex": false}]}, "post_processor": {"type": "TemplateProcessing", "single": [{"SpecialToken": {"id": "<s>", "type_id": 0}}, {"Sequence": {"id": "A", "type_id": 0}}], "pair": [{"SpecialToken": {"id": "<s>", "type_id": 0}}, {"Sequence": {"id": "A", "type_id": 0}}, {"SpecialToken": {"id": "<s>", "type_id": 1}}, {"Sequence": {"id": "B", "type_id": 1}}], "special_tokens": {"<s>": {"id": "<s>", "ids": [0], "tokens": ["<s>"]}}}, "decoder": {"type": "ByteLevel", "add_prefix_space": true, "trim_offsets": true, "use_regex": true}, "model": {"type": "BPE", "dropout": null, "unk_token": "<unk>", "continuing_subword_prefix": null, "end_of_word_suffix": null, "fuse_unk": false, "byte_fallback": false, "ignore_merges": false, "vocab": {"<s>": 0, "</s>": 1, "<tool_call>": 2, "</tool_call>": 3, "<|im_sep|>": 4, "<|fim_prefix|>": 5, "<|fim_middle|>": 6, "<|fim_suffix|>": 7, "<think>": 8, "</think>": 9, "<tool_response>": 10, "</tool_response>": 11, "<tools>": 12, "</tools>": 13, "<arguments>": 14, "</arguments>": 15, "<parameters>": 16, "</parameters>": 17, "<function": 18, "</function>": 19, "<param": 20, "</param>": 21, "!": 22, "\"": 23, "#": 24, "$": 25, "%": 26, "&": 27, "'": 28, "(": 29, ")": 30, "*": 31, "+": 32, ",": 33, "-": 34, ".": 35, "/": 36, "0": 37, "1": 38, "2": 39, "3": 40, "4": 41, "5": 42, "6": 43, "7": 44, "8": 45, "9": 46, ":": 47, ";": 48, "<": 49, "=": 50, ">": 51, "?": 52, "@": 53, "A": 54, "B": 55, "C": 56, "D": 57, "E": 58, "F": 59, "G": 60, "H": 61, "I": 62, "J": 63, "K": 64, "L": 65, "M": 66, "N": 67, "O": 68, "P": 69, "Q": 70, "R": 71, "S": 72, "T": 73, "U": 74, "V": 75, "W": 76, "X": 77, "Y": 78, "Z": 79, "[": 80, "\\": 81, "]": 82, "^": 83, "_": 84, "`": 85, "a": 86, "b": 87, "c": 88, "d": 89, "e": 90, "f": 91, "g": 92, "h": 93, "i": 94, "j": 95, "k": 96, "l": 97, "m": 98, "n": 99, "o": 100, "p": 101, "q": 102, "r": 103, "s": 104, "t": 105, "u": 106, "v": 107, "w": 108, "x": 109, "y": 110, "z": 111, "{": 112, "|": 113, "}": 114, "~": 115, "¡": 116, "¢": 117, "£": 118, "¤": 119, "¥": 120, "¦": 121, "§": 122, "¨": 123, "©": 124, "ª": 125, "«": 126, "¬": 127, "®": 128, "¯": 129, "°": 130, "±": 131, "²": 132, "³": 133, "´": 134, "µ": 135, "¶": 136, "·": 137, "¸": 138, "¹": 139, "º": 140, "»": 141, "¼": 142, "½": 143, "¾": 144, "¿": 145, "À": 146, "Á": 147, "Â": 148, "Ã": 149, "Ä": 150, "Å": 151, "Æ": 152, "Ç": 153, "È": 154, "É": 155, "Ê": 156, "Ë": 157, "Ì": 158, "Í": 159, "Î": 160, "Ï": 161, "Ð": 162, "Ñ": 163, "Ò": 164, "Ó": 165, "Ô": 166, "Õ": 167, "Ö": 168, "×": 169, "Ø": 170, "Ù": 171, "Ú": 172, "Û": 173, "Ü": 174, "Ý": 175, "Þ": 176, "ß": 177, "à": 178, "á": 179, "â": 180, "ã": 181, "ä": 182, "å": 183, "æ": 184, "ç": 185, "è": 186, "é": 187, "ê": 188, "ë": 189, "ì": 190, "í": 191, "î": 192, "ï": 193, "ð": 194, "ñ": 195, "ò": 196, "ó": 197, "ô": 198, "õ": 199, "ö": 200, "÷": 201, "ø": 202, "ù": 203, "ú": 204, "û": 205, "ü": 206, "ý": 207, "þ": 208, "ÿ": 209, "Ā": 210, "ā": 211, "Ă": 212, "ă": 213, "Ą": 214, "ą": 215, "Ć": 216, "ć": 217, "Ĉ": 218, "ĉ": 219, "Ċ": 220, "ċ": 221, "Č": 222, "č": 223, "Ď": 224, "ď": 225, "Đ": 226, "đ": 227, "Ē": 228, "ē": 229, "Ĕ": 230, "ĕ": 231, "Ė": 232, "ė": 233, "Ę": 234, "ę": 235, "Ě": 236, "ě": 237, "Ĝ": 238, "ĝ": 239, "Ğ": 240, "ğ": 241, "Ġ": 242, "ġ": 243, "Ģ": 244, "ģ": 245, "Ĥ": 246, "ĥ": 247, "Ħ": 248, "ħ": 249, "Ĩ": 250, "ĩ": 251, "Ī": 252, "ī": 253, "Ĭ": 254, "ĭ": 255, "Į": 256, "į": 257, "İ": 258, "ı": 259, "Ĳ": 260, "ĳ": 261, "Ĵ": 262, "ĵ": 263, "Ķ": 264, "ķ": 265, "ĸ": 266, "Ĺ": 267, "ĺ": 268, "Ļ": 269, "ļ": 270, "Ľ": 271, "ľ": 272, "Ŀ": 273, "ŀ": 274, "Ł": 275, "ł": 276, "Ń": 277, "Ġt": 278, "he": 279, "Ġa": 280, "in": 281, "ĠĠ": 282, "on": 283, "re": 284, "Ġthe": 285, "at": 286, "er": 287, "Ġs": 288, "Ġo": 289, "en": 290, "Ġc": 291, "Ġw": 292, "is": 293, "es": 294, "it": 295, "an": 296, "or": 297, "al": 298, "Ġp": 299, "ed": 300, "Ġf": 301, "Ġb": 302, "ar": 303, "Ġof": 304, "Ġan": 305, "ing": 306, "Ġm": 307, "Ġd": 308, "à¸": 309, "Ġin": 310, "ou": 311, "ion": 312, "ic": 313, "td": 314, "le": 315, "Ġand": 316, "Ġto": 317, "as": 318, "Ġ{": 319, "ro": 320, "Ġh": 321, "ĠĠĠĠ": 322, "Ġ\\": 323, "Ġ}": 324, "ï¼": 325, "Ġth": 326, "ent": 327, "Ġe": 328, "ä¸": 329, "ct": 330, "Ġn": 331, "><": 332, "Ġl": 333, "el": 334, "om": 335, "st": 336, "ï¼Į": 337, "et": 338, "Ġre": 339, "il": 340, "im": 341, "ra": 342, "Ġ(": 343, "ĠT": 344, "ot": 345, "ol": 346, "id": 347, "Ġg": 348, "ig": 349, ".Ċ": 350, "ut": 351, "</": 352, "ve": 353, "ĠI": 354, "ation": 355, "ĠS": 356, "Ġis": 357, "ce": 358, "ĠA": 359, "ly": 360, "ch": 361, "ãĢ": 362, "çļ": 363, "us": 364, "Ġbe": 365, "ur": 366, "çļĦ": 367, "un": 368, "ow": 369, "Ġ$": 370, "ĠC": 371, "am": 372, "ad": 373, "Ġfor": 374, "äº": 375, "Ġon": 376, "ver": 377, "âĢ": 378, "ul": 379, "Ġthat": 380, "os": 381, "Ġst": 382, "Ġhe": 383, "ith": 384, "ir": 385, "ĠM": 386, "ay": 387, "Ġ_": 388, "if": 389, "Ġas": 390, "00": 391, "Ġcon": 392, "Ġy": 393, "ĠĠĠ": 394, "tr": 395, "ãĢĤ": 396, "ãģ": 397, "à¹": 398, "ĠP": 399, "od": 400, "Ġwith": 401, "qu": 402, "ĠÐ": 403, "ter": 404, "th": 405, "em": 406, "um": 407, "ĠB": 408, "Ġal": 409, "ä»": 410, "Ġit": 411, "Ġwh": 412, "ab": 413, "Ġpro": 414, "Ġde": 415, "ĠThe": 416, "ĠH": 417, "ath": 418, "Ġv": 419, "åı": 420, "ag": 421, "se": 422, "her": 423, "ht": 424, "res": 425, "Ð¾": 426, "pe": 427, "Ġwe": 428, "iv": 429, "and": 430, "æľ": 431, "ac": 432, "Ġwas": 433, "ĠR": 434, "Ġex": 435, "Ġr": 436, "ĠD": 437, "ĠF": 438, "ate": 439, "ĠE": 440, "ld": 441, "Ġ-": 442, "è¿": 443, "å¤": 444, "ĠL": 445, "ess": 446, "Ġyou": 447, "Ġor": 448, "ĠW": 449, "ers": 450, "est": 451, "==": 452, "Ðµ": 453, "ist": 454, "ity": 455, "19": 456, "Ġare": 457, "Ġ\"": 458, "Ġcom": 459, "ction": 460, "pp": 461, "ĠĠĠĠĠĠĠĠ": 462, "Ġse": 463, "ant": 464, "Ġat": 465, "math": 466, "æĺ": 467, "'s": 468, "ill": 469, "ore": 470, "Ġby": 471, "ain": 472, "åħ": 473, "Ġsu": 474, "op": 475, "ight": 476, "Ð°": 477, "rom": 478, "ĠN": 479, "oc": 480, "nd": 481, "åĪ": 482, "Ġ=": 483, "ke": 484, "ĠG": 485, "ä½": 486, "ies": 487, "Ġ^": 488, "ive": 489, "ment": 490, "20": 491, "Ġnot": 492, "å®": 493, "ure": 494, "Ġ'": 495, "ial": 496, "Ġun": 497, "åĲ": 498, "ib": 499, "ÑĤ": 500, "ä¹": 501, "art": 502, "></": 503, "Ð¸": 504, "åľ": 505, "Ġha": 506, "ä¸Ģ": 507, "end": 508, "Ġsh": 509, "Ġne": 510, "pl": 511, "Ġfrom": 512, "te": 513, "Ġch": 514, "Ġ)": 515, "Ġ,": 516, "ĠĠĊ": 517, "ort": 518, "æĺ¯": 519, "ge": 520, "Ġk": 521, "ould": 522, "pt": 523, "og": 524, "Ġle": 525, "ren": 526, "Ġ<": 527, "ie": 528, "ical": 529, "ĠJ": 530, "red": 531, "ud": 532, "Ġthis": 533, "æĪ": 534, "ine": 535, "å°": 536, "all": 537, "fe": 538, "Ð½": 539, "iz": 540, "ãĢĤĊ": 541, "ich": 542, "Ġus": 543, "ell": 544, ">Ċ": 545, "ĠO": 546, "per": 547, "çĶ": 548, "Ġ$\\": 549, "ĠĠĠĠĠ": 550, "Ñģ": 551, "),": 552, "ust": 553, "Ġ.": 554, "ä¸į": 555, "10": 556, "Ġhave": 557, "Ġme": 558, "ard": 559, "our": 560, "Ġhis": 561, "rou": 562, "Ð¾Ð": 563, "è¯": 564, "ÑĢ": 565, "rm": 566, "ri": 567, "ome": 568, "Ġcan": 569, "ãĤ": 570, "up": 571, "âĢľ": 572, "ph": 573, "ated": 574, "æĹ": 575, "Ġj": 576, "Ġab": 577, "able": 578, "ĠIn": 579, "hen": 580, "ime": 581, "ous": 582, "out": 583, "ans": 584, "ap": 585, "--": 586, "Ġ[": 587, "ide": 588, "ult": 589, "AA": 590, "âĢĿ": 591, "ost": 592, "ak": 593, "åĽ": 594, "Ġim": 595, "ther": 596, "ass": 597, "orm": 598, "Ġher": 599, "ind": 600, "Ġen": 601, "Ġall": 602, "The": 603, "ãĢģ": 604, "mathrm": 605, "Ġwor": 606, "Ġcomp": 607, "åľ¨": 608, "åŃ": 609, "Ġcl": 610, "ue": 611, "Ġwhich": 612, "ations": 613, "ip": 614, "æī": 615, "æľī": 616, "Ġres": 617, "ition": 618, "cc": 619, "æĸ": 620, "ast": 621, "12": 622, "Ġpl": 623, "Ġhad": 624, "ok": 625, "ong": 626, "ack": 627, "Ġdo": 628, "act": 629, "der": 630, "Ġqu": 631, "$Ċ": 632, "äºº": 633, "Ġdis": 634, "age": 635, "to": 636, "gh": 637, "..": 638, "ame": 639, "du": 640, "',": 641, "ence": 642, "ĠU": 643, ").": 644, "ĠK": 645, "ary": 646, "åĩ": 647, "Ġbut": 648, "Ġ}$": 649, "ance": 650, "Ġad": 651, "ft": 652, "ep": 653, "Ġtr": 654, "Ġ+": 655, "ang": 656, "one": 657, "====": 658, ".,": 659, "ne": 660, "int": 661, "å¥": 662, "cl": 663, "ach": 664, "Ġwere": 665, ".\"": 666, "Ġone": 667, "éĩ": 668, "ub": 669, "rac": 670, "11": 671, "ens": 672, "ice": 673, "ia": 674, "ãĥ": 675, "ress": 676, "å¹": 677, "ff": 678, "Ġout": 679, "Ġper": 680, "èĢ": 681, "av": 682, "å¼": 683, "Ġtheir": 684, "ase": 685, "Ġthey": 686, "ĠV": 687, "15": 688, "Ġso": 689, "con": 690, "ĠTh": 691, "Ġgo": 692, "18": 693, "$$Ċ": 694, "ign": 695, "ber": 696, "oun": 697, "ose": 698, "ual": 699, "Ġman": 700, "åĨ": 701, "ace": 702, "Ð»": 703, "Ġcont": 704, "__": 705, ",\"": 706, "ents": 707, "Ġhas": 708, "æĢ": 709, "ire": 710, "ions": 711, "Ġwill": 712, "'t": 713, "à¹Ī": 714, "ely": 715, "are": 716, "13": 717, "Ġshe": 718, "Ġi": 719, "ite": 720, "ru": 721, "Ġup": 722, "14": 723, "Ġsp": 724, "16": 725, "è¡": 726, "âĢĶ": 727, "Ġmy": 728, "xt": 729, "Ġmore": 730, ")Ċ": 731, "urn": 732, "Ġother": 733, "ear": 734, "ook": 735, "form": 736, "row": 737, "Ġpart": 738, "ma": 739, "Ġev": 740, "vel": 741, "à¸Ń": 742, "ound": 743, "de": 744, "so": 745, "IC": 746, "ĠY": 747, "Ġno": 748, "Ġx": 749, "ĠĠĠĊ": 750, "rent": 751, "very": 752, "we": 753, "17": 754, "own": 755, "ys": 756, "æĪĳ": 757, "çĽ": 758, "Ġsa": 759, "ll": 760, "æķ": 761, "unction": 762, "ä¸Ń": 763, "ile": 764, "Ġar": 765, "000": 766, "åĴ": 767, "ors": 768, "25": 769, "low": 770, "Ġthere": 771, "ory": 772, "éĢ": 773, "Ġbeen": 774, "Ġapp": 775, "Ġif": 776, "oss": 777, "ord": 778, "Ġsc": 779, "ake": 780, "Ġwould": 781, "ks": 782, "Ġag": 783, "port": 784, "here": 785, "ect": 786, "Ġwho": 787, "å¤§": 788, "ĠCh": 789, "Ġdes": 790, "Ñĥ": 791, "}$": 792, "ces": 793, "wo": 794, "Ġhim": 795, "çİ": 796, "Ġpre": 797, "ĠHe": 798, "ms": 799, "ree": 800, "ater": 801, "ta": 802, "ä¸º": 803, "ä¸Ĭ": 804, "ry": 805, "Ġits": 806, "Ġob": 807, "aus": 808, "Ðº": 809, "Ġyour": 810, "Ġli": 811, "Ġinto": 812, "Ġtime": 813, "ew": 814, "ple": 815, "Ġthan": 816, "ĠĠĠĠĠĠĠ": 817, "Ġabout": 818, "201": 819, "ĠSt": 820, "pr": 821, "åĴĮ": 822, "ish": 823, "Ã©": 824, "Ġsy": 825, "erv": 826, "ĠIt": 827, "Ġwhen": 828, "ian": 829, "Ġ&": 830, "Ġte": 831, "ates": 832, "Ġsome": 833, "ray": 834, "Ġro": 835, "Ġover": 836, "ata": 837, "22": 838, "ings": 839, "hed": 840, "Ġspe": 841, "Ġcol": 842, "200": 843, "30": 844, "Ġpr": 845, "Ġdif": 846, "ov": 847, "éģ": 848, "ove": 849, "Ġkn": 850, "Ġany": 851, "vers": 852, "frac": 853, "ict": 854, "Ġrel": 855, "Ġbet": 856, ".\"Ċ": 857, "Ġalso": 858, "Ġthem": 859, "right": 860, "å½": 861, "Ġmod": 862, "ark": 863, "eth": 864, "Ġbec": 865, "mathb": 866, "ally": 867, "ä»¥": 868, "ob": 869, "elf": 870, "],": 871, "ject": 872, "Ġinter": 873, "uc": 874, "Ġcons": 875, "Ñı": 876, "the": 877, "\",": 878, "Ag": 879, "Ñĭ": 880, "olog": 881, "Ġacc": 882, "lect": 883, "ays": 884, "åĩº": 885, "ious": 886, "old": 887, "ps": 888, "ick": 889, "ific": 890, "ty": 891, "=\"": 892, "Ġ|": 893, "cre": 894, "rit": 895, "Ġtwo": 896, "mer": 897, "ons": 898, "Ġonly": 899, "ail": 900, "tain": 901, "ood": 902, "fect": 903, ";Ċ": 904, "Ġass": 905, "ĠĠĠĠĠĠĠĠĠĠĠĠĠĠĠĠ": 906, "æ³": 907, "ild": 908, "24": 909, "Ġmay": 910, "irst": 911, "ener": 912, "Ġtra": 913, "Ġind": 914, "Ð¼": 915, "reat": 916, "cess": 917, "å±": 918, "Ġwhat": 919, "\":": 920, "Ġ/": 921, "åı¯": 922, "ied": 923, "Ð²": 924, "oint": 925, "Ġval": 926, "ular": 927, "Ġwork": 928, "99": 929, "cal": 930, "Ġpe": 931, ":Ċ": 932, "In": 933, "hat": 934, "ink": 935, "ient": 936, "Ġla": 937, "eg": 938, "Ġsub": 939, "Ġunder": 940, "Ġrec": 941, "Ġthese": 942, "Ġcould": 943, "âĢĿĊ": 944, "Ġour": 945, "27": 946, "les": 947, "50": 948, "ond": 949, "à¸µ": 950, "lic": 951, "ĠÐ¿": 952, "ating": 953, "pect": 954, "Ġam": 955, "iss": 956, "erm": 957, "Ġem": 958, "Ġsuch": 959, "ÑĮ": 960, "oth": 961, "23": 962, "ced": 963, "ution": 964, "Ġbl": 965, "Ġcomm": 966, "ĠThis": 967, "ble": 968, "fore": 969, "igh": 970, "``": 971, "stem": 972, "ï¼ļ": 973, "Ġph": 974, "ough": 975, "----": 976, "ss": 977, "ative": 978, "ise": 979, "Ġoff": 980, "Ġfe": 981, "ram": 982, "Ġco": 983, "ause": 984, "':": 985, "å¦": 986, "ä½ł": 987, "ics": 988, "fter": 989, "Ġsaid": 990, "Ġthen": 991, "26": 992, "199": 993, "ning": 994, "Ġlike": 995, "28": 996, "çĶ¨": 997, "ility": 998, "Ġhow": 999, "Ġnew": 1000, "36": 1001, "Ġra": 1002, "Ġact": 1003, "40": 1004, "var": 1005, "turn": 1006, "åŃĲ": 1007, "dition": 1008, "Ġstud": 1009, "ible": 1010, "rough": 1011, "éģĵ": 1012, "ER": 1013, "ween": 1014, "========": 1015, "Ġfirst": 1016, "æµ": 1017, "ade": 1018, "ful": 1019, "left": 1020, "Ġdiffe": 1021, "åī": 1022, "ational": 1023, "29": 1024, "ities": 1025, "oy": 1026, "Ð´": 1027, "Ġ*": 1028, "Ġtrans": 1029, "33": 1030, "ÑģÑĤ": 1031, "Ġnum": 1032, "ffect": 1033, "Ġsm": 1034, "round": 1035, "Ġknow": 1036, "Ġac": 1037, "imes": 1038, "sp": 1039, "itt": 1040, "Ġbetween": 1041, "ng": 1042, "com": 1043, "Ġfl": 1044, "pro": 1045, "Ġet": 1046, "ax": 1047, "(t": 1048, "ont": 1049, "Ġreg": 1050, "tern": 1051, ",Ċ": 1052, "ĠWe": 1053, "ange": 1054, "){": 1055, "get": 1056, "Ġfol": 1057, "ex": 1058, "uch": 1059, "ä¹ĭ": 1060, "Ġform": 1061, "resent": 1062, "ures": 1063, "ize": 1064, "wn": 1065, "Ġpol": 1066, "cept": 1067, "ull": 1068, "Ġdid": 1069, "å¹´": 1070, "Ġshould": 1071, "Ġback": 1072, "Ġthrough": 1073, "Ġwhere": 1074, "Ġset": 1075, "ract": 1076, "ec": 1077, "Ġyear": 1078, "ĠUn": 1079, "Ġsim": 1080, "ICAg": 1081, "çĦ": 1082, "Ġuse": 1083, "Ġsee": 1084, "ount": 1085, "ments": 1086, "Ġrem": 1087, "Ġpar": 1088, "//": 1089, "iel": 1090, "Ġneed": 1091, "Ġint": 1092, "io": 1093, "à¸Ķ": 1094, "Ġcor": 1095, "ric": 1096, "ug": 1097, "è¡Į": 1098, "Ġsystem": 1099, "ç¬": 1100, "eng": 1101, "ix": 1102, "Ġmost": 1103, "Ġfollow": 1104, "iew": 1105, "ĠÐ²": 1106, "fl": 1107, "clud": 1108, "Ġinv": 1109, "pos": 1110, "Ġprodu": 1111, "60": 1112, "other": 1113, "**": 1114, "cy": 1115, "____": 1116, "array": 1117, "Ġget": 1118, "Ġz": 1119, "Ñĩ": 1120, "Ġsur": 1121, "37": 1122, "AAAA": 1123, "its": 1124, "ock": 1125, "ife": 1126, "ork": 1127, "åŃ¦": 1128, "}}": 1129, "Ġeach": 1130, "ĠAn": 1131, "Ġgener": 1132, "Ġdet": 1133, "ten": 1134, "Ġjust": 1135, "hes": 1136, "ature": 1137, "Ġstr": 1138, "Ġvar": 1139, "ople": 1140, "ower": 1141, "Ġequ": 1142, "Ġprov": 1143, "ily": 1144, "ident": 1145, "ined": 1146, "Ġatt": 1147, "_{": 1148, "35": 1149, "Ġresult": 1150, "ased": 1151, "Ġclass": 1152, "ever": 1153, "ä¾": 1154, "ï¼Ł": 1155, "Ġinst": 1156, "198": 1157, "Ġdef": 1158, "ier": 1159, "cial": 1160, "trib": 1161, "ism": 1162, "this": 1163, "ds": 1164, "45": 1165, "çĤ": 1166, "ĠÑģ": 1167, "ON": 1168, "led": 1169, "ward": 1170, "mathbf": 1171, "ues": 1172, "Ġused": 1173, "à¸Ĺ": 1174, "ĠRe": 1175, "ĠPro": 1176, "als": 1177, "Ġ)$": 1178, "Ġent": 1179, "Ġhand": 1180, "function": 1181, "ÐµÐ½": 1182, "åĪĨ": 1183, "âĢ¦": 1184, "IN": 1185, "Ġagain": 1186, "à¸ļ": 1187, "Ġlook": 1188, "Ġpers": 1189, "Ġeven": 1190, "38": 1191, "Ġu": 1192, "ç®": 1193, "Ġafter": 1194, "å°ı": 1195, "{array": 1196, "21": 1197, "Ġest": 1198, "##": 1199, "48": 1200, "å¥½": 1201, "ins": 1202, "ized": 1203, "Ġwell": 1204, ");": 1205, "?\"": 1206, "ĠCom": 1207, "amb": 1208, "Ġlong": 1209, "velop": 1210, "(\"": 1211, "iet": 1212, "Ġfunction": 1213, "Ġway": 1214, "ĠSe": 1215, "ather": 1216, "Ġmodel": 1217, "mathcal": 1218, "^{": 1219, "},": 1220, "Ġsupp": 1221, "Ġpoint": 1222, "gan": 1223, "Ġpeople": 1224, "ator": 1225, "ited": 1226, "Ġexp": 1227, "ness": 1228, "Ġfact": 1229, "ample": 1230, "sc": 1231, "Ġright": 1232, "ĠÐ½": 1233, "sh": 1234, "over": 1235, "Ġext": 1236, "ES": 1237, "æ³ķ": 1238, "Ġdifferent": 1239, "åĢ": 1240, "air": 1241, "å¦Ĥ": 1242, "75": 1243, "Ġgiv": 1244, "39": 1245, "ement": 1246, "Ġsame": 1247, "Ġdisc": 1248, "ctions": 1249, "44": 1250, "ool": 1251, "ages": 1252, "ĠX": 1253, "ght": 1254, "Ġel": 1255, "Ġsol": 1256, "Ġnow": 1257, "of": 1258, "ĠZ": 1259, "eta": 1260, "Ġsign": 1261, "uring": 1262, "Ġconst": 1263, "ale": 1264, "Ġshow": 1265, "Ġinte": 1266, "100": 1267, "Ġbecause": 1268, "ÑĢÐ°": 1269, "Ġcar": 1270, "Ġê": 1271, "æ¬": 1272, "Ġmany": 1273, "à¸ª": 1274, "ave": 1275, "Ġdata": 1276, "ype": 1277, "Ġpat": 1278, "Ġdown": 1279, "Ġevery": 1280, "Ġexper": 1281, "Ġappro": 1282, "val": 1283, "Ġvery": 1284, "ĠFor": 1285, "Ġmat": 1286, "ines": 1287, "ãģ®": 1288, "ck": 1289, "ran": 1290, "46": 1291, "æ±": 1292, "Ġbel": 1293, "Ġeffect": 1294, "arg": 1295, "put": 1296, "line": 1297, "Ġed": 1298, "und": 1299, "Ġwant": 1300, "Ġend": 1301, "ner": 1302, "ts": 1303, "Ġmin": 1304, "Ġpartic": 1305, "Ġke": 1306, "ĠQ": 1307, "ene": 1308, "ting": 1309, "Ġfin": 1310, "Ð·": 1311, "prime": 1312, "Ġhigh": 1313, "ĠÐ¸": 1314, "pha": 1315, "ization": 1316, "text": 1317, "dot": 1318, "Ġboth": 1319, "ince": 1320, "cent": 1321, "ern": 1322, "Ġmade": 1323, "Ġcall": 1324, "äºĭ": 1325, "Ġmake": 1326, "ically": 1327, "AT": 1328, "ruct": 1329, "Ð¾Ð²": 1330, "aking": 1331, "æľ¬": 1332, "47": 1333, "for": 1334, "Ġap": 1335, "li": 1336, "Ġnumber": 1337, "irc": 1338, "æīĢ": 1339, "ĠShe": 1340, "Ġthose": 1341, "ivers": 1342, "da": 1343, "man": 1344, "Ġgra": 1345, "ody": 1346, "Ġbefore": 1347, "AN": 1348, "gg": 1349, "49": 1350, "arch": 1351, "æĢ§": 1352, "Ġmust": 1353, "é¡": 1354, "Ġinclud": 1355, "way": 1356, "Th": 1357, "self": 1358, "Ġgood": 1359, "80": 1360, "ox": 1361, "AR": 1362, "Ġ:": 1363, "Ġcent": 1364, "Ġcomple": 1365, "Ġdevelop": 1366, "Ġcur": 1367, "Ġmuch": 1368, "197": 1369, "55": 1370, "Ġear": 1371, "ym": 1372, "ural": 1373, "Ġown": 1374, "ices": 1375, "æĽ": 1376, "åīį": 1377, "ĠAl": 1378, "ï¼ī": 1379, "Ġrep": 1380, "Ġrequ": 1381, "uss": 1382, "66": 1383, "ä½ĵ": 1384, "éĥ": 1385, "ci": 1386, "ared": 1387, "gy": 1388, "Ġimport": 1389, "}Ċ": 1390, "ology": 1391, "70": 1392, "Ġaut": 1393, "rest": 1394, "é«": 1395, "Ġprocess": 1396, "Ġgrou": 1397, "Ġfound": 1398, "alpha": 1399, "ven": 1400, "Ġdec": 1401, "formation": 1402, "yle": 1403, "ho": 1404, "ĠBut": 1405, "rence": 1406, "-b": 1407, "ute": 1408, "ublic": 1409, "Ġdep": 1410, "Ġgl": 1411, "Ġbeing": 1412, "Ġdire": 1413, "Ġfind": 1414, "Ġposs": 1415, "ethod": 1416, "}{": 1417, "yp": 1418, "ä¸İ": 1419, "vent": 1420, "Ġdoes": 1421, "EN": 1422, "ĠÐ¾": 1423, "ton": 1424, "Ġreal": 1425, "Ñħ": 1426, "arge": 1427, "Ġsoc": 1428, "oh": 1429, "read": 1430, "çĤ¹": 1431, "hem": 1432, "Ð¿": 1433, "ĠIf": 1434, "Ġop": 1435, "Ġchild": 1436, "return": 1437, "app": 1438, "ength": 1439, "?Ċ": 1440, "ases": 1441, "éĽ": 1442, "32": 1443, "Ġ\\\\": 1444, "Ġlife": 1445, "Ġref": 1446, "Ġyears": 1447, "chn": 1448, "til": 1449, "90": 1450, "Ġproble": 1451, "par": 1452, "ider": 1453, "Ġincre": 1454, "OR": 1455, "34": 1456, "py": 1457, "]Ċ": 1458, "ĠAnd": 1459, "ield": 1460, "31": 1461, "ists": 1462, "ĠDe": 1463, "ash": 1464, "ars": 1465, "ode": 1466, "Ġpos": 1467, "ah": 1468, "æı": 1469, "rain": 1470, "Ġhel": 1471, "ional": 1472, "str": 1473, ").Ċ": 1474, "col": 1475, "AL": 1476, "any": 1477, "que": 1478, "ï¼Ī": 1479, "au": 1480, "Ġbr": 1481, "land": 1482, "ants": 1483, "Ġread": 1484, "ted": 1485, "ãģĦ": 1486, "Ġloc": 1487, "Ġbu": 1488, "ought": 1489, "alk": 1490, "ĠPh": 1491, "Ġspec": 1492, "span": 1493, "ision": 1494, "Ġthink": 1495, "Ġpa": 1496, "be": 1497, "Ġexpl": 1498, "rol": 1499, "Ġmon": 1500, "Ġperson": 1501, "Ġcase": 1502, "ross": 1503, "Ġdist": 1504, "ĠAs": 1505, "ually": 1506, "Ġsmall": 1507, "meric": 1508, "Ġins": 1509, "Ġusing": 1510, "cond": 1511, "He": 1512, "Ġthree": 1513, "elta": 1514, "-s": 1515, "88": 1516, "tic": 1517, "Ġanal": 1518, "ĠNew": 1519, "Ġser": 1520, "ung": 1521, "lear": 1522, "ĠCon": 1523, "Ġresp": 1524, "77": 1525, "Ġes": 1526, "aw": 1527, "ann": 1528, "æĹł": 1529, "ved": 1530, "ivid": 1531, "ives": 1532, "min": 1533, "ral": 1534, "Ġque": 1535, "ively": 1536, "ential": 1537, "Ġgu": 1538, "ouse": 1539, "...": 1540, "ĠÐº": 1541, "Ġmem": 1542, "arm": 1543, "igure": 1544, "Ġcoun": 1545, "Ġserv": 1546, "ense": 1547, "ĠĠĠĠĠĠĠĠĠĠĠ": 1548, "Ġgr": 1549, "set": 1550, ")</": 1551, "202": 1552, "Ġhere": 1553, "ND": 1554, "ç¤": 1555, "ÐµÑĤ": 1556, "We": 1557, "65": 1558, "yn": 1559, "```": 1560, "Ð¹": 1561, "err": 1562, "ves": 1563, "Ġsom": 1564, "Ð±": 1565, "ters": 1566, "ulation": 1567, "95": 1568, "'d": 1569, "].": 1570, "ished": 1571, "Ġpresent": 1572, "Ġfam": 1573, "hip": 1574, "Ġwhile": 1575, "Ġsl": 1576, "Ġdi": 1577, "Ġprog": 1578, "ien": 1579, "Ġdon": 1580, "mathbb": 1581, "It": 1582, "ĠThey": 1583, "Ġnon": 1584, "éĥ¨": 1585, "Ġ$(": 1586, "196": 1587, "cr": 1588, "ĠHow": 1589, "atic": 1590, "Ġworld": 1591, "Ġmethod": 1592, "ability": 1593, "ffic": 1594, "Ġhum": 1595, "ambda": 1596, "Ġimp": 1597, "Ġdem": 1598, "ĠAr": 1599, "Ġline": 1600, "&&": 1601, "Ġgiven": 1602, "ior": 1603, "AC": 1604, "85": 1605, "Ġtake": 1606, "amp": 1607, "Ġadd": 1608, "Ġlet": 1609, "ality": 1610, "Ġbeh": 1611, "ÑĢÐµ": 1612, "Ġtest": 1613, "Ġ{\\": 1614, "Ġmed": 1615, "ption": 1616, "els": 1617, "åķ": 1618, "\">": 1619, "Ġstill": 1620, "ĠThere": 1621, ".l": 1622, "ience": 1623, "Ġcour": 1624, "mu": 1625, "-d": 1626, "Ġsay": 1627, "Ġhead": 1628, "OD": 1629, "Ġlead": 1630, ")$": 1631, "æĹ¥": 1632, "ĠâĢ": 1633, "ert": 1634, "ĠAmeric": 1635, "less": 1636, "RE": 1637, "ank": 1638, "az": 1639, "ired": 1640, "Ġhelp": 1641, "05": 1642, ",e": 1643, "Ġtoo": 1644, "Ġocc": 1645, "Ġmight": 1646, "Ġav": 1647, "alth": 1648, "åĨħ": 1649, "Ġturn": 1650, "Ġwom": 1651, "ĠâĢľ": 1652, "ertain": 1653, "æĺİ": 1654, ");Ċ": 1655, "ä¸ī": 1656, "inal": 1657, "ron": 1658, "01": 1659, "chool": 1660, "æķ°": 1661, "ĠÐ´": 1662, "78": 1663, "ãģ§": 1664, "ittle": 1665, "Ġorder": 1666, "Ġstand": 1667, "âĸ": 1668, "Ġoper": 1669, "ç¬¬": 1670, "acter": 1671, "Ġvalue": 1672, "æĸĩ": 1673, "Ġconf": 1674, "Ġlevel": 1675, "Ġquest": 1676, "ying": 1677, "Ġstate": 1678, "new": 1679, "Ð³": 1680, "ital": 1681, "Ð¾Ð»": 1682, "Ġmain": 1683, "Ġwithout": 1684, "68": 1685, "Ġcontin": 1686, "):": 1687, "table": 1688, "ets": 1689, "Ġele": 1690, "Ġmeas": 1691, "ving": 1692, "raph": 1693, "oci": 1694, "stand": 1695, "po": 1696, "Ġpower": 1697, "aj": 1698, "iness": 1699, "Ġchar": 1700, "64": 1701, "Ġtem": 1702, "amma": 1703, "yl": 1704, "Ġ~": 1705, "Ġday": 1706, "ides": 1707, "ID": 1708, "OT": 1709, "98": 1710, "ĠEx": 1711, "view": 1712, "67": 1713, "egin": 1714, "Ġsk": 1715, "ole": 1716, "Ġaround": 1717, "ĠYou": 1718, "Ġexample": 1719, "}\\": 1720, "ane": 1721, "ãģĹ": 1722, "igma": 1723, "Ġcre": 1724, "Ġpres": 1725, "itive": 1726, "Ġseem": 1727, "iversity": 1728, "?\"Ċ": 1729, "ots": 1730, "._": 1731, "ason": 1732, "éĩı": 1733, "à¸µà¹Ī": 1734, "Ġloss": 1735, "Ġask": 1736, "Ñİ": 1737, "Ġpass": 1738, "ified": 1739, "Ġey": 1740, "pi": 1741, "ĠĊ": 1742, "Ġdel": 1743, "akes": 1744, "Ġappe": 1745, "ST": 1746, "Ġmet": 1747, "Ġinformation": 1748, "Ġfollowing": 1749, "Ġmean": 1750, "--------": 1751, "ĠCl": 1752, "Ġstart": 1753, "Ġlear": 1754, "Ġanother": 1755, "rist": 1756, "Ġcondition": 1757, "bers": 1758, "ived": 1759, "Ð½Ð¸": 1760, "Ġche": 1761, "Ġgreat": 1762, "ãģ«": 1763, "Ġduring": 1764, "rem": 1765, "Ġide": 1766, "'Ċ": 1767, "ĠÃ": 1768, "not": 1769, "orn": 1770, "tt": 1771, "quad": 1772, "ĠLe": 1773, "ium": 1774, "oid": 1775, "Ġperform": 1776, "Ġinterest": 1777, ".S": 1778, "ried": 1779, "part": 1780, "Ġreturn": 1781, "Ġless": 1782, "angle": 1783, "Ġplace": 1784, "begin": 1785, "Ġimportant": 1786, "Ġthought": 1787, "69": 1788, "Ġobs": 1789, ".p": 1790, "atch": 1791, "Ġopen": 1792, "',Ċ": 1793, "hy": 1794, "ww": 1795, "ctor": 1796, "ately": 1797, "Ġ</": 1798, "cdot": 1799, "ik": 1800, "Ġsecond": 1801, "Ġlittle": 1802, "à¤": 1803, "ĠSh": 1804, "Ġnever": 1805, "ination": 1806, "ways": 1807, "bar": 1808, "Ġpur": 1809, "Ð½Ñĭ": 1810, "Ġbre": 1811, "Ġcommun": 1812, "Ġmark": 1813, "try": 1814, "Ġcap": 1815, "è¡¨": 1816, "Ġcal": 1817, "Ġtechn": 1818, "Ð¾Ð¼": 1819, "agn": 1820, "Ġorgan": 1821, "-f": 1822, "=t": 1823, "ivity": 1824, "Ġcell": 1825, "name": 1826, "Ġplay": 1827, "'m": 1828, "Ġinc": 1829, "Ġ]": 1830, "Ġver": 1831, "Ð½Ð¾": 1832, "tribut": 1833, "ining": 1834, "ĠInd": 1835, "Ġagainst": 1836, "Ġlarge": 1837, "IT": 1838, "ĠOn": 1839, "'re": 1840, "Ġwater": 1841, "Ġve": 1842, "ĠGod": 1843, "HE": 1844, "ling": 1845, "Ġ{Ċ": 1846, "Ġder": 1847, "Ġwithin": 1848, "Ġgroup": 1849, "Ġcare": 1850, "Ġstat": 1851, "Ġpublic": 1852, "Ġlast": 1853, "43": 1854, "79": 1855, "Ġident": 1856, "play": 1857, "Ġwrit": 1858, "lambda": 1859, "cul": 1860, "\\mathrm": 1861, "================": 1862, "ger": 1863, "41": 1864, "Ġprof": 1865, "med": 1866, "Ð°ÑĤ": 1867, "Ġmen": 1868, "\",\"": 1869, "Ġbas": 1870, "ush": 1871, "data": 1872, "ĠAd": 1873, "phi": 1874, "ently": 1875, "crib": 1876, "lt": 1877, "Ġobject": 1878, "gt": 1879, "________": 1880, "ients": 1881, "Ġinfl": 1882, "Ch": 1883, "Ġstruct": 1884, "Ð¸ÑĤ": 1885, "Ġleft": 1886, "ilar": 1887, "Ġvari": 1888, "Ã¡": 1889, "âĢĻ": 1890, "Ġproper": 1891, "ression": 1892, "co": 1893, "conom": 1894, "Ã³": 1895, "Ġelect": 1896, "Ġfew": 1897, "Ġlim": 1898, "por": 1899, "Ġbook": 1900, "Ġdr": 1901, "ote": 1902, "ples": 1903, "Ġ.Ċ": 1904, "Ġhist": 1905, "use": 1906, "sw": 1907, "ething": 1908, "Ð¾Ð´": 1909, "Ġold": 1910, "Ġparticular": 1911, "ency": 1912, "St": 1913, "Ġcome": 1914, "ief": 1915, "Ġgrow": 1916, "ither": 1917, "dis": 1918, "42": 1919, "AB": 1920, "ãģ¨": 1921, "Ġfre": 1922, "uck": 1923, "ä½¿": 1924, "ysis": 1925, "äºĮ": 1926, "ĠÐ¼": 1927, "Ġconsider": 1928, "ĠĠĠĠĠĠ": 1929, "ably": 1930, "ised": 1931, "NT": 1932, "nal": 1933, "æľĪ": 1934, "ention": 1935, "Ġsince": 1936, "Ġq": 1937, "Ġresults": 1938, "ividual": 1939, ",r": 1940, "eter": 1941, "fer": 1942, "âĢ¦âĢ¦": 1943, "Ġvis": 1944, "Ġter": 1945, "sum": 1946, "Ġvol": 1947, "Ġadv": 1948, "Ð¾ÑĢ": 1949, "Ġbro": 1950, "gr": 1951, "pped": 1952, "Ġsupport": 1953, "Ġgoing": 1954, "iety": 1955, "ilon": 1956, "ÑĪ": 1957, "ek": 1958, "æ¬¡": 1959, "II": 1960, "thing": 1961, "ï¼Ľ": 1962, "Ġmult": 1963, "ploy": 1964, "Ġstudy": 1965, "Ġbus": 1966, "Ġgre": 1967, "ury": 1968, "abl": 1969, "Ġlight": 1970, "mb": 1971, "Ġfeel": 1972, "ological": 1973, "Ġsing": 1974, "ãģª": 1975, "aps": 1976, ">-": 1977, "hor": 1978, "ÐµÐ»": 1979, "iod": 1980, "Ġlo": 1981, "ĠÑĤ": 1982, "son": 1983, "Ġsit": 1984, "58": 1985, "\\x": 1986, "uro": 1987, "Ġpract": 1988, "://": 1989, "den": 1990, "AAAAAAAA": 1991, "Ġgeneral": 1992, "Ġcontrol": 1993, "%$": 1994, "style": 1995, "Ð¶": 1996, "oper": 1997, "Ġhuman": 1998, "MD": 1999, "LE": 2000, "-m": 2001, "ĠEng": 2002, "Ġoften": 2003, "Ġsocial": 2004, "Ġbo": 2005, "iron": 2006, "08": 2007, "Ġchang": 2008, "'ll": 2009, "inc": 2010, "Ġdeterm": 2011, "You": 2012, "An": 2013, "ains": 2014, "ga": 2015, "Ġdirect": 2016, "ĠÐ½Ð°": 2017, "-p": 2018, "ission": 2019, "Ġdesign": 2020, "âĸĪ": 2021, "Ġrepresent": 2022, "AS": 2023, "Ġhapp": 2024, "This": 2025, "Ġproblem": 2026, "IG": 2027, "ãĤĭ": 2028, "ental": 2029, "Ġener": 2030, "Ġproduct": 2031, "Ġput": 2032, "MT": 2033, "Ġsomething": 2034, "beta": 2035, "Ġreport": 2036, "ÑĨ": 2037, "Ġview": 2038, "||": 2039, "åı£": 2040, "Ġindividual": 2041, "Ġallow": 2042, "type": 2043, "IS": 2044, "urther": 2045, "Ġbest": 2046, "oor": 2047, "Ġaway": 2048, "Ġsat": 2049, ",and": 2050, "Ġpot": 2051, "Ġfil": 2052, "Ġpossible": 2053, "outh": 2054, "ĠÂ": 2055, "Ġredu": 2056, "195": 2057, "iter": 2058, "vious": 2059, "ference": 2060, "Ġtop": 2061, "ĠRes": 2062, "aterial": 2063, "Ġlow": 2064, "97": 2065, "by": 2066, "ends": 2067, "Ġself": 2068, "ccess": 2069, "sigma": 2070, "urs": 2071, "Ġalways": 2072, "ource": 2073, "let": 2074, "As": 2075, "rad": 2076, "Ġcalled": 2077, "Ġlaw": 2078, "Ġprote": 2079, "ohn": 2080, "ãģĮ": 2081, "rel": 2082, "ina": 2083, "Ġprob": 2084, "ION": 2085, "Ġchildren": 2086, "ames": 2087, "times": 2088, "ering": 2089, "))": 2090, "Ġunderstand": 2091, "Ġ#": 2092, "é»": 2093, "che": 2094, "ead": 2095, "fic": 2096, "ume": 2097, "Ð¾Ð³": 2098, "raw": 2099, "-t": 2100, "ĠUniversity": 2101, "Ġfour": 2102, "Ġdidn": 2103, "Ġ>": 2104, "ĠTo": 2105, "olution": 2106, "iving": 2107, "ape": 2108, "where": 2109, "Ġcharacter": 2110, "Ġschool": 2111, "Ġpop": 2112, "ĠTr": 2113, "Ġobserv": 2114, "Ġchange": 2115, "ÐµÑĢ": 2116, "Ġleg": 2117, "sy": 2118, "Ġmeasure": 2119, "Ġobtain": 2120, "Ġrun": 2121, "Ġhome": 2122, "AM": 2123, "Ġdiscuss": 2124, "ĠÐ¿ÑĢ": 2125, "eps": 2126, "Ġsignific": 2127, "ĠWhat": 2128, "Ġabove": 2129, "ances": 2130, "Ġrest": 2131, "ĠBe": 2132, "vern": 2133, "lo": 2134, "day": 2135, "ott": 2136, "Ġcr": 2137, "Pro": 2138, "ĠCol": 2139, "07": 2140, "att": 2141, "Ġrelations": 2142, "ĠWhen": 2143, "ormal": 2144, "Ġopp": 2145, "ĠIs": 2146, "istic": 2147, "Ġeas": 2148, "Ġrespect": 2149, "EC": 2150, "Ġhard": 2151, "-c": 2152, "åĲį": 2153, "work": 2154, "apt": 2155, "EL": 2156, "Ġdescrib": 2157, "rag": 2158, "âĸĪâĸĪ": 2159, "face": 2160, "Ġbody": 2161, "aut": 2162, "57": 2163, "ument": 2164, "Ġcost": 2165, "ification": 2166, "ided": 2167, "pre": 2168, "ãģ¯": 2169, "Ġmom": 2170, "Ġlist": 2171, "ãĤĴ": 2172, "Ġcertain": 2173, "Ġclear": 2174, "idence": 2175, "Ġcho": 2176, "ĠChrist": 2177, "ateg": 2178, "Ġside": 2179, "ograph": 2180, "plic": 2181, "ustr": 2182, "Ð°Ð»": 2183, "ĠAt": 2184, "59": 2185, "ule": 2186, "Mz": 2187, "Ġsw": 2188, "Ġconc": 2189, "Ġthings": 2190, "Ġ}Ċ": 2191, "rop": 2192, "Ġgot": 2193, "cri": 2194, "theta": 2195, "Ġrow": 2196, "me": 2197, "Ġwar": 2198, "action": 2199, "ley": 2200, "Ġname": 2201, "ĠPl": 2202, "Ġrese": 2203, "Ġinvol": 2204, "../": 2205, "ĠNo": 2206, "AD": 2207, "06": 2208, "Ġmar": 2209, "\"Ċ": 2210, "Ġgive": 2211, "Ġtype": 2212, "Ġrad": 2213, "Ð¾ÑĤ": 2214, "br": 2215, ".com": 2216, "Ġgovern": 2217, "Ġexpect": 2218, "leq": 2219, "ope": 2220, "ãĢĭ": 2221, "ended": 2222, "_l": 2223, "Ġmove": 2224, "Ġopt": 2225, "Ġinvest": 2226, "Ġbetter": 2227, "ÃŃ": 2228, "thon": 2229, "Ġeyes": 2230, "ĠYork": 2231, "Ġund": 2232, "Ġwhe": 2233, "Ġperiod": 2234, "Ġuntil": 2235, ".g": 2236, "ĠâĢĵ": 2237, "Ġposition": 2238, "ieve": 2239, "Ġlab": 2240, "ique": 2241, "Ġsugg": 2242, ".s": 2243, "olds": 2244, "Ġsuggest": 2245, "Ġsum": 2246, "angu": 2247, "ories": 2248, "Ġfr": 2249, "ats": 2250, "Ġenergy": 2251, "bs": 2252, "Ġtot": 2253, "ĠMar": 2254, "uation": 2255, "Ġfore": 2256, "itud": 2257, "ched": 2258, "Ġden": 2259, "Ġphys": 2260, "rt": 2261, "aken": 2262, "Ġbeg": 2263, "Ġiss": 2264, "though": 2265, "Ġfield": 2266, "Ġnext": 2267, "wh": 2268, "ÐµÐ½Ð¸": 2269, "ĠComm": 2270, "ued": 2271, "ogn": 2272, "Ġnet": 2273, "Ġdev": 2274, "ĠSp": 2275, "Ġface": 2276, "09": 2277, "Ġmov": 2278, "ison": 2279, "Ġpolit": 2280, "ery": 2281, "Ġindic": 2282, "Ġaddition": 2283, "Ġtell": 2284, "Ġfar": 2285, "Ġtyp": 2286, "Ġcame": 2287, "rodu": 2288, "eb": 2289, "ĠThese": 2290, "ream": 2291, "Ġplan": 2292, "Ġfamily": 2293, "Ġmanag": 2294, "ĠHowever": 2295, "resp": 2296, "'ve": 2297, "af": 2298, "Ġcrit": 2299, "poch": 2300, "ĠAmerican": 2301, "Ġcommon": 2302, "Ġclos": 2303, "reg": 2304, "ee": 2305, "Ġroom": 2306, "Ġtreat": 2307, "Ġsimilar": 2308, "Ġcult": 2309, ".c": 2310, "ĠTe": 2311, "Ġarg": 2312, "Ġvalues": 2313, "ird": 2314, "Ġarm": 2315, "ĠWh": 2316, "partial": 2317, "Ã£": 2318, ":\"": 2319, "Ġexist": 2320, "Ġpred": 2321, "Ġlater": 2322, "\"I": 2323, ")}": 2324, "56": 2325, "ĠÐ±": 2326, "tribution": 2327, "Ġbased": 2328, "orth": 2329, "Ġtext": 2330, "ians": 2331, "Ð¾Ð¹": 2332, "cing": 2333, "Ġmeans": 2334, "Ġsever": 2335, "Ġtoward": 2336, "Ġpress": 2337, "Ã¼": 2338, "nu": 2339, "Ġkind": 2340, "most": 2341, "Ġsal": 2342, "Ġorig": 2343, "Ġhig": 2344, "ask": 2345, "(e": 2346, "Ġmaterial": 2347, "ĠOr": 2348, "gamma": 2349, "ify": 2350, "Ġmor": 2351, "_t": 2352, "Ġcirc": 2353, "Ġfac": 2354, "Ġspace": 2355, "alf": 2356, "ables": 2357, "Ġtimes": 2358, "Ġtw": 2359, "!Ċ": 2360, "ained": 2361, "arrow": 2362, "Ġquestion": 2363, "Ġlocal": 2364, "Ġrece": 2365, "ED": 2366, "Ġcourse": 2367, "ĠAll": 2368, "Ġnecess": 2369, "Ġleast": 2370, ".[": 2371, "```Ċ": 2372, "iver": 2373, "Ġmot": 2374, "Ġassoci": 2375, "Ġant": 2376, "idth": 2377, "enn": 2378, "Ġshown": 2379, "usion": 2380, "ubl": 2381, "AP": 2382, "viron": 2383, "Ġnear": 2384, "å½¢": 2385, "LC": 2386, "Ġeconom": 2387, "Ġcurrent": 2388, "Ġdevelopment": 2389, "ording": 2390, "Ġfri": 2391, "Ġris": 2392, "mm": 2393, "epend": 2394, "Ġpost": 2395, "Ã£o": 2396, "Ġhy": 2397, "Ġexam": 2398, "Ġrate": 2399, "ĠLet": 2400, "Ġbusiness": 2401, "Ã§": 2402, "Ġreason": 2403, "ajor": 2404, "uf": 2405, "racy": 2406, "duct": 2407, "Ġinit": 2408, "Ġmind": 2409, "osp": 2410, "Ġothers": 2411, "Ġanalysis": 2412, "Ġabs": 2413, "ai": 2414, ".</": 2415, "++": 2416, "delta": 2417, "Ġupon": 2418, "ened": 2419, "ailable": 2420, "Ġwords": 2421, "ards": 2422, "Ġamong": 2423, "ours": 2424, "Ġwr": 2425, "Ex": 2426, "Ġdom": 2427, "Ġwomen": 2428, "Ġsubject": 2429, "194": 2430, "Ġeng": 2431, "Â·": 2432, "Ġprom": 2433, ";&": 2434, "Ġhowever": 2435, "Ġterm": 2436, "ered": 2437, "rho": 2438, "Ar": 2439, "Ġbehav": 2440, "Ġknown": 2441, "-l": 2442, "elt": 2443, "Ġtook": 2444, "To": 2445, "Ġstrong": 2446, "Ġsignificant": 2447, "bl": 2448, "02": 2449, "tau": 2450, ".e": 2451, "Ġalong": 2452, "87": 2453, "Ġseveral": 2454, "stit": 2455, "etic": 2456, "Ġmass": 2457, "Ġapplic": 2458, "atter": 2459, "Ġenough": 2460, "Nz": 2461, "apter": 2462, "Ġcomput": 2463, "ĠĠĠĠĠĠĠĠĠĠĠĠĠĠĠ": 2464, "Ġparam": 2465, "Ġthough": 2466, "Al": 2467, "lection": 2468, "Ġbecome": 2469, "Ġshort": 2470, "RO": 2471, "Ġseen": 2472, ".length": 2473, "åħĥ": 2474, "ING": 2475, "Ġmus": 2476, "\\%$": 2477, ".j": 2478, "imal": 2479, "Ġill": 2480, "Mj": 2481, "Ġrather": 2482, "Ġemploy": 2483, ">N": 2484, "Ġinf": 2485, "Ġhouse": 2486, "Ġart": 2487, "ait": 2488, "ĠJohn": 2489, "Ġsuccess": 2490, "ival": 2491, "ĠBl": 2492, "imens": 2493, "96": 2494, "ledge": 2495, "pecial": 2496, "For": 2497, "ibility": 2498, "Ġprogram": 2499, "Ġlik": 2500, "Ġbound": 2501, "Ġland": 2502, "999": 2503, "Ġterms": 2504, "Ġbuild": 2505, "Re": 2506, "Ġcomb": 2507, "Ġsingle": 2508, "è¨": 2509, "....": 2510, "Ġaccount": 2511, "aring": 2512, "gen": 2513, "Ġimpro": 2514, "Ġasked": 2515, "ready": 2516, "Ġfree": 2517, "What": 2518, "Ġhealth": 2519, "Ġarea": 2520, "Ġkeep": 2521, "omega": 2522, "Ġfull": 2523, "sup": 2524, "Ġsuper": 2525, "Ġneg": 2526, "Ġtoget": 2527, "urch": 2528, "ET": 2529, "aster": 2530, "Ġtogether": 2531, "ĠThen": 2532, "ux": 2533, "big": 2534, "Ġeither": 2535, "Cl": 2536, "****": 2537, "Ð°Ðº": 2538, "Nj": 2539, "çİĭ": 2540, "Ġmil": 2541, "oot": 2542, "Ġtotal": 2543, "And": 2544, "ĠNe": 2545, "Ġconne": 2546, "Ġmoment": 2547, "æĢĿ": 2548, "aim": 2549, "ĠMr": 2550, "ators": 2551, "cont": 2552, "ĠHis": 2553, "ler": 2554, "ĠPr": 2555, "ĠÐ·": 2556, "Ġwon": 2557, "ĠPhys": 2558, "ÑģÑı": 2559, "03": 2560, "193": 2561, "ĠCo": 2562, "Ð»Ð¸": 2563, "Ġtrue": 2564, "fficient": 2565, "ift": 2566, "Ġyoung": 2567, "Ġenc": 2568, "ĠSo": 2569, "EE": 2570, "Ġresearch": 2571, "Ġtre": 2572, "Ġapproach": 2573, "Ġpotential": 2574, "cer": 2575, "Ġair": 2576, "Ġauthor": 2577, "oney": 2578, "une": 2579, "\"),": 2580, "Delta": 2581, "circ": 2582, "ources": 2583, "Ñī": 2584, "sequ": 2585, "Ġflow": 2586, "atures": 2587, "ids": 2588, "ÑģÐº": 2589, ",n": 2590, "Ġdie": 2591, "ml": 2592, "ches": 2593, "^{\\": 2594, "uff": 2595, "fty": 2596, "respond": 2597, "Ġstructure": 2598, "Ġwent": 2599, "ĠEn": 2600, "Ġdays": 2601, "ae": 2602, "Ġearly": 2603, "Ġnight": 2604, "asing": 2605, "oll": 2606, "=function": 2607, "Ġnat": 2608, "Ã¤": 2609, ".A": 2610, "ember": 2611, "ĠThat": 2612, "see": 2613, "Ġhimself": 2614, "ĠAss": 2615, "Ġalready": 2616, "sych": 2617, "Ġeduc": 2618, "Ġspecial": 2619, "Ġdone": 2620, "ĠĠĠĠĠĠĠĠĠĠĠĠĠĠĠĠĠĠĠĠĠĠĠĠĠĠĠĠĠĠĠĠ": 2621, "Ġmajor": 2622, "rences": 2623, "anguage": 2624, "Ġdue": 2625, "div": 2626, "åĽĽ": 2627, "ged": 2628, "ored": 2629, "omet": 2630, "ending": 2631, "Ġpain": 2632, "Ġincluding": 2633, "mod": 2634, "Ġsize": 2635, "Ġlarg": 2636, "ĠÑĥ": 2637, "()": 2638, "Ġexperim": 2639, "===": 2640, "ĠEpoch": 2641, "ges": 2642, "ault": 2643, "Ġlove": 2644, "_s": 2645, "If": 2646, "ressed": 2647, "iol": 2648, "Ġsec": 2649, "Ġsystems": 2650, "Ġonce": 2651, "imate": 2652, "US": 2653, "python": 2654, "But": 2655, "Ġreally": 2656, "Ph": 2657, "OL": 2658, "Ġfurther": 2659, "89": 2660, "ĠMan": 2661, "aces": 2662, "idd": 2663, "side": 2664, "Ġsens": 2665, "verage": 2666, "Ġavailable": 2667, "Ġbi": 2668, "iction": 2669, "ibr": 2670, "Ġlay": 2671, "roll": 2672, "infty": 2673, "erc": 2674, "sq": 2675, "elves": 2676, "å±±": 2677, "istr": 2678, "Ġstudents": 2679, "bol": 2680, "vironment": 2681, "ips": 2682, "Ġcomplex": 2683, "icy": 2684, "position": 2685, "Ġmonth": 2686, "{\\": 2687, "iple": 2688, "Ġdeg": 2689, "Ġsure": 2690, ".'Ċ": 2691, "Ġable": 2692, "ocus": 2693, "At": 2694, "500": 2695, "Ġinde": 2696, "now": 2697, "ficult": 2698, "IL": 2699, "Ġquant": 2700, "Ġpast": 2701, "UR": 2702, "Ġwhether": 2703, "error": 2704, "rect": 2705, "Ġwind": 2706, "Ġsent": 2707, "Ġlooked": 2708, "De": 2709, "04": 2710, "add": 2711, "ĠOne": 2712, "Ġconditions": 2713, "ĠCar": 2714, "ising": 2715, "Ġheart": 2716, "Ġarr": 2717, "Ġwhole": 2718, "color": 2719, "Ġfrequ": 2720, "ĠÐ½Ðµ": 2721, "\\n": 2722, "empt": 2723, "fra": 2724, "Ġexperience": 2725, "hing": 2726, "Ġrelationship": 2727, "Ġtemper": 2728, "Ġtalk": 2729, "Ð½Ð°": 2730, "Ġcou": 2731, "Ġcannot": 2732, "61": 2733, "Ġprovide": 2734, "Ġwhy": 2735, "Lj": 2736, "ãģĭ": 2737, "Ġpp": 2738, "63": 2739, "chan": 2740, "itor": 2741, "ĠCan": 2742, "oph": 2743, "Ġaction": 2744, "na": 2745, "Ġrespons": 2746, "ref": 2747, "Ġbene": 2748, "Ġpatients": 2749, "display": 2750, "Ĥ¬": 2751, "ĠÑ": 2752, "arget": 2753, "ado": 2754, "Ġmeet": 2755, "isf": 2756, "Ġmax": 2757, "ned": 2758, "Ġcorrespond": 2759, "My": 2760, "She": 2761, "ences": 2762, "Ġspecific": 2763, "-w": 2764, "sub": 2765, "Ġmaking": 2766, "Ġprim": 2767, "51": 2768, "ĠUnited": 2769, "iqu": 2770, "Ġdifficult": 2771, "imum": 2772, "Ġtheory": 2773, "ĠSoc": 2774, "ĠApp": 2775, "ĠTHE": 2776, "Ġpay": 2777, "Ġthing": 2778, "Ġcases": 2779, "Ġtold": 2780, "pper": 2781, "Ġcaus": 2782, "Ġpo": 2783, "uture": 2784, "å®¹": 2785, "vert": 2786, "Ġgen": 2787, "No": 2788, "ii": 2789, "order": 2790, "Ġtaken": 2791, "Ġhaving": 2792, "Ġsense": 2793, "Ġever": 2794, "icro": 2795, "Ġdou": 2796, "AG": 2797, "Ġdetail": 2798, "Ġproblems": 2799, "Ġproject": 2800, "Ġacross": 2801, "ustom": 2802, "ÐµÐ¼": 2803, "62": 2804, "Ġfood": 2805, "Ġexc": 2806, "ĠQu": 2807, "iven": 2808, "ĠGe": 2809, "Ġang": 2810, "Ġrange": 2811, "Ġhigher": 2812, "CT": 2813, "ones": 2814, "pg": 2815, "Ġalmost": 2816, "Ġvarious": 2817, "Ġfail": 2818, "onse": 2819, "rix": 2820, "Ġste": 2821, "OM": 2822, "Ġgovernment": 2823, "eral": 2824, "Ġblack": 2825, "ands": 2826, "\\begin": 2827, "]=": 2828, "equ": 2829, "ĠSch": 2830, "irl": 2831, "Ġess": 2832, "ada": 2833, ">C": 2834, "Ġmarket": 2835, "ero": 2836, "Ġelse": 2837, ">S": 2838, "ceed": 2839, "Ġrele": 2840, "atory": 2841, "ware": 2842, "swer": 2843, ",'": 2844, "Im": 2845, "rid": 2846, "Ġ('": 2847, "(\\": 2848, "urope": 2849, "52": 2850, "aining": 2851, "Ġpaper": 2852, "Ġactiv": 2853, "ĠBy": 2854, "operator": 2855, "On": 2856, "urb": 2857, "itle": 2858, "inary": 2859, "ĠStates": 2860, "iam": 2861, "def": 2862, "ze": 2863, "ĠMe": 2864, "Ġ\\|": 2865, "IF": 2866, "Ġvers": 2867, "medi": 2868, "Ġhalf": 2869, "lected": 2870, "arr": 2871, "wg": 2872, "Ġ...": 2873, "OS": 2874, "ari": 2875, "ties": 2876, "ilities": 2877, "53": 2878, "Ġestabl": 2879, "alse": 2880, "Ġkey": 2881, ".C": 2882, "ister": 2883, "operatorname": 2884, "ĠSc": 2885, "Ġintrodu": 2886, "ĠSu": 2887, "itude": 2888, "ournal": 2889, "Ġsolution": 2890, "192": 2891, "Ġpath": 2892, ".t": 2893, "off": 2894, ".d": 2895, "Ġknew": 2896, "There": 2897, "ĠSte": 2898, "Ġyet": 2899, "Ġbegin": 2900, "Ġlower": 2901, "ĠPol": 2902, ".m": 2903, "Ġshall": 2904, "æ¨": 2905, "ortun": 2906, "Ġmother": 2907, "utes": 2908, "Ġlog": 2909, "/s": 2910, "Ġvo": 2911, "Ġpoints": 2912, "posed": 2913, "Ġach": 2914, "54": 2915, "Ġdoor": 2916, "ills": 2917, "Ġsepar": 2918, "Ġgroups": 2919, "Ġinflu": 2920, "Ġsound": 2921, "umn": 2922, "utions": 2923, "Ġitself": 2924, "Ġword": 2925, "(n": 2926, "Ġpriv": 2927, "Ġce": 2928, "ament": 2929, "Ġple": 2930, "ĠRo": 2931, "rame": 2932, "xi": 2933, "go": 2934, "htt": 2935, "uth": 2936, "ensity": 2937, "irm": 2938, "uracy": 2939, "Ġconcept": 2940, "ĠOF": 2941, "Ġnothing": 2942, "Ġsil": 2943, "iation": 2944, "-in": 2945, "Ġles": 2946, "omm": 2947, "Ġrequire": 2948, "org": 2949, "Un": 2950, "Ġrole": 2951, "Ġground": 2952, "ump": 2953, "Ġhistory": 2954, "Ġshows": 2955, "hib": 2956, "Ġsection": 2957, "Ġnature": 2958, "cle": 2959, "ĠAm": 2960, "ĠMed": 2961, "illed": 2962, "ĠÑĩ": 2963, ",a": 2964, "Ġsurface": 2965, "Ġpara": 2966, "Ġcy": 2967, "hers": 2968, "irt": 2969, "ured": 2970, "Ġaccept": 2971, "izing": 2972, "Ġspect": 2973, "Ġwalk": 2974, "Ġstyle": 2975, "Ġhold": 2976, "quot": 2977, "ĠWith": 2978, "è¨Ģ": 2979, "dd": 2980, "psilon": 2981, "Ġchanges": 2982, "sqrt": 2983, "Ġpolitical": 2984, "Ġknowledge": 2985, "Ġfocus": 2986, "displaystyle": 2987, "CH": 2988, "Ġblood": 2989, "Ġnormal": 2990, "Ġprevious": 2991, "Ġage": 2992, "rack": 2993, "eters": 2994, "ius": 2995, ",t": 2996, "Ġdeath": 2997, "Ġmatter": 2998, "lex": 2999, "Ġamount": 3000, "back": 3001, "Ġmodels": 3002, "ÑģÑĤÐ²": 3003, "head": 3004, "Ġpercent": 3005, "Ġlearning": 3006, "Ġ;": 3007, "Ġoccur": 3008, "Ġhands": 3009, "-h": 3010, "73": 3011, "Ġrecord": 3012, "ymbol": 3013, "ĠÃł": 3014, "Ġcalcul": 3015, "Ġfelt": 3016, "&&(": 3017, "Ġtable": 3018, "orld": 3019, "Ġinclude": 3020, "ĠCal": 3021, "gl": 3022, "_{\\": 3023, "ixed": 3024, "Ġphot": 3025, "Ġsays": 3026, "Ġmembers": 3027, "Ð¾Ð±": 3028, "Ġfall": 3029, "ening": 3030, "ondon": 3031, "ç¤º": 3032, "Ġcells": 3033, "ĠPress": 3034, "ground": 3035, "IA": 3036, "_d": 3037, "ĠâĢĶ": 3038, "Ġassum": 3039, "ection": 3040, "Ġer": 3041, "pose": 3042, "ales": 3043, "Ġweight": 3044, "ires": 3045, "Ġsequ": 3046, "Ġdu": 3047, "ules": 3048, "ĠEurope": 3049, "ÐºÐ°": 3050, "ruction": 3051, "Om": 3052, "Ġsaw": 3053, "Ġperformance": 3054, "Ġbig": 3055, "Ã³n": 3056, "-S": 3057, "ached": 3058, "place": 3059, "ĠĠĠĠĠĠĠĠĠ": 3060, "Ġut": 3061, "ores": 3062, "Ġcompon": 3063, "ĠAb": 3064, "Ġlength": 3065, "Ġred": 3066, "Ġrecogn": 3067, "Ġge": 3068, "Ġmagn": 3069, "Ġwoman": 3070, "aced": 3071, "ĠPar": 3072, "][": 3073, "Ġsimple": 3074, "vare": 3075, "ino": 3076, "ĠCor": 3077, "roup": 3078, "ĠIntern": 3079, "tilde": 3080, "sf": 3081, "ises": 3082, "Ġclose": 3083, "Ġstates": 3084, "Ġmill": 3085, "Ġcut": 3086, "rown": 3087, "artment": 3088, "Ġeffects": 3089, "Ġbar": 3090, "fully": 3091, "æ¼": 3092, "72": 3093, "bre": 3094, "Ġsatisf": 3095, "Ġlanguage": 3096, "ĠFig": 3097, "$\\": 3098, "('": 3099, "ows": 3100, "Ġjob": 3101, "Ġdefin": 3102, "omes": 3103, "body": 3104, "Ġport": 3105, "mp": 3106, "Ġprec": 3107, "Ġconcern": 3108, "idered": 3109, "Ġservice": 3110, "Ġrequired": 3111, "ike": 3112, "Ġincrease": 3113, "Ġinitial": 3114, "ENT": 3115, "Ġfuture": 3116, "IV": 3117, "Math": 3118, "uk": 3119, "Ġstudies": 3120, "varepsilon": 3121, "äºĶ": 3122, "bo": 3123, "Ġmoney": 3124, "Ġdiv": 3125, "aves": 3126, "no": 3127, "pecially": 3128, "Ġwhite": 3129, "Ġfront": 3130, "ĠSy": 3131, "ĠUS": 3132, "Con": 3133, "Ġfather": 3134, "Ġparent": 3135, "Ġthus": 3136, "inter": 3137, "Ġenvironment": 3138, ">M": 3139, "itted": 3140, "Ġcountry": 3141, "ply": 3142, "bed": 3143, "Ġdise": 3144, "Ġâ": 3145, "tical": 3146, "Ġcompany": 3147, "ãģĨ": 3148, "enc": 3149, "éĢī": 3150, "Ġcross": 3151, "ĠCent": 3152, "Ġsex": 3153, "uments": 3154, "Ġdistribution": 3155, "Ġnatural": 3156, "cret": 3157, "ster": 3158, "iff": 3159, "ky": 3160, "lish": 3161, "gor": 3162, "bt": 3163, "ĠBrit": 3164, "Ġconsidered": 3165, "Ġdefined": 3166, "andom": 3167, "Figure": 3168, "lor": 3169, "iddle": 3170, "CC": 3171, "Ð»Ð°": 3172, "haps": 3173, "Ġeval": 3174, "191": 3175, "Ð¾Ð½": 3176, "Ġidea": 3177, "Ġfive": 3178, "Ġdeep": 3179, "Ġimage": 3180, "osed": 3181, "Ġwanted": 3182, "sim": 3183, "pping": 3184, "Ġrowspan": 3185, "UT": 3186, "Ġnecessary": 3187, "oms": 3188, "Ġmethods": 3189, "Ð¾Ñģ": 3190, "ĠMy": 3191, "Ġtri": 3192, "Fig": 3193, "Ġstandard": 3194, "but": 3195, "74": 3196, "Ġanything": 3197, "MS": 3198, "Ġconstant": 3199, "anced": 3200, "}_": 3201, ":[": 3202, "ynam": 3203, "Ġtreatment": 3204, "orem": 3205, "ĠPa": 3206, "Ġturned": 3207, "When": 3208, "Ġann": 3209, "ĠPer": 3210, "Ð¾Ð³Ð¾": 3211, "Ġsoft": 3212, "ha": 3213, "Type": 3214, "umber": 3215, "Ġbelow": 3216, "71": 3217, "erson": 3218, "Ġmechan": 3219, "ĠÐ³": 3220, "ĠRep": 3221, "NA": 3222, "ÑĢÑĥ": 3223, "ĠSee": 3224, "Ġdeal": 3225, "tot": 3226, "opy": 3227, "Ġpattern": 3228, "ega": 3229, "Ġid": 3230, "Ġmakes": 3231, "Ġprofess": 3232, "Ġstep": 3233, "(a": 3234, "irit": 3235, "MC": 3236, "Ġeff": 3237, "é¡¹": 3238, "Ġtraining": 3239, "Ġoffic": 3240, "Ġworking": 3241, "ĠÑĢÐ°": 3242, "Ġclaim": 3243, "mselves": 3244, "ĠSci": 3245, ".f": 3246, "84": 3247, "Ġhtt": 3248, "Ġappear": 3249, "ĠNot": 3250, "Ġaccess": 3251, "class": 3252, "acc": 3253, "Ġtherefore": 3254, "=e": 3255, "Ġobtained": 3256, "Ġevent": 3257, "xim": 3258, "Ġthemselves": 3259, "Ġbed": 3260, "centr": 3261, "rug": 3262, "ĠMay": 3263, "Ġhor": 3264, "Ġregard": 3265, "ĠII": 3266, "ĠÃ©": 3267, "-g": 3268, "Ġassociated": 3269, "/t": 3270, "cm": 3271, "urity": 3272, "ÑĤÐ¾": 3273, ".)": 3274, "101": 3275, ".jpg": 3276, "Ġliter": 3277, "ney": 3278, "ĠGerm": 3279, "93": 3280, "itting": 3281, "})": 3282, "ÑĨÐ¸": 3283, "ĠEl": 3284, "Ġgirl": 3285, "Ġneeded": 3286, "Ġimm": 3287, "ilt": 3288, "Ġ\\{": 3289, "91": 3290, "Ġbehind": 3291, "åŃĹ": 3292, "uous": 3293, "________________": 3294, "ret": 3295, "isc": 3296, "Ð¸Ð¼": 3297, "Ġfollows": 3298, "Ġproduction": 3299, "uit": 3300, "Ð»Ñı": 3301, "ĠWill": 3302, "itch": 3303, "ependent": 3304, "Ġheav": 3305, "ĠAcc": 3306, "Ġdark": 3307, "Ġrat": 3308, "Ġlimit": 3309, "Ġaff": 3310, "lying": 3311, "ili": 3312, "gorith": 3313, "Ġdescribed": 3314, "Ġfunctions": 3315, "verse": 3316, "Ġpositive": 3317, "airs": 3318, "Ġum": 3319, "acy": 3320, "IM": 3321, "190": 3322, "Ġusually": 3323, "bf": 3324, "istics": 3325, "value": 3326, "81": 3327, "uct": 3328, "How": 3329, "120": 3330, "mon": 3331, "Ġbehavior": 3332, "ĠEd": 3333, "à¥": 3334, "ros": 3335, "Ġbegan": 3336, "Ġpri": 3337, "Ð°Ð½": 3338, "\\\\": 3339, "bert": 3340, "iding": 3341, "Ġtradition": 3342, "Ġconsist": 3343, "astic": 3344, "Ġimag": 3345, "Ġaffect": 3346, "ĠHer": 3347, "Ġexcept": 3348, "Ġneeds": 3349, "Ġestim": 3350, "rap": 3351, "83": 3352, "Ġworks": 3353, ".x": 3354, "Ġdepend": 3355, "bit": 3356, "Ġquite": 3357, "Ġentire": 3358, "Ġnetwork": 3359, "rangle": 3360, "Ġlikely": 3361, "Ġtarget": 3362, "Ġrisk": 3363, "tag": 3364, "ĠFran": 3365, "å¼ķ": 3366, "ĠIN": 3367, "ille": 3368, "_c": 3369, "Ġresponse": 3370, "300": 3371, "Ġsem": 3372, "pm": 3373, "Ġheld": 3374, "Ġequation": 3375, "ais": 3376, "ey": 3377, "Ġdoing": 3378, "ils": 3379, "Ġdemon": 3380, "Ġforce": 3381, "Is": 3382, "PS": 3383, "istance": 3384, "Ġcoll": 3385, "Ġwhose": 3386, "86": 3387, "Ġquick": 3388, "obal": 3389, "([": 3390, "AAAAAAAAAAAAAAAA": 3391, "Ġactivity": 3392, "ĠSome": 3393, "erve": 3394, "ields": 3395, "cript": 3396, "Ġcompet": 3397, "Ġsix": 3398, "150": 3399, "Ġgrowth": 3400, "76": 3401, "_p": 3402, "ĠThus": 3403, "ios": 3404, "actions": 3405, "Ġfun": 3406, "ĠCont": 3407, "Ġtemperature": 3408, "82": 3409, "Ġbecame": 3410, "=n": 3411, "aving": 3412, "Ġpersonal": 3413, "lied": 3414, "Us": 3415, "ught": 3416, "ender": 3417, "Ġson": 3418, "like": 3419, "omen": 3420, "(r": 3421, "åķĬ": 3422, "Ġcle": 3423, "Omega": 3424, "pri": 3425, "Ã¨": 3426, "overed": 3427, "Ġret": 3428, "ĠFigure": 3429, "reen": 3430, "Ġ['": 3431, "with": 3432, "arent": 3433, "ols": 3434, "Ġconcentr": 3435, ">P": 3436, "Ġpor": 3437, "EM": 3438, "Ġrelig": 3439, "Ġevidence": 3440, "Ġlos": 3441, "Te": 3442, "Ġcheck": 3443, "ĠEnglish": 3444, "Ġrev": 3445, "_loss": 3446, "Ġdat": 3447, "94": 3448, "ites": 3449, "rs": 3450, "umb": 3451, "Ġcreat": 3452, "ĠGu": 3453, "trans": 3454, "Ġslow": 3455, "odes": 3456, "Ġstory": 3457, "ĠRev": 3458, "Ġweek": 3459, "Ġespecially": 3460, "ishing": 3461, ".M": 3462, "resh": 3463, "125": 3464, "Ġparticip": 3465, ".D": 3466, "ring": 3467, "iber": 3468, "tered": 3469, "Ġwall": 3470, "unt": 3471, "Ð°ÑĤÑĮ": 3472, "Ġcommunic": 3473, "ĠAct": 3474, "hel": 3475, "Ġlevels": 3476, "ĠIm": 3477, "oke": 3478, "vec": 3479, "log": 3480, "Ġdifference": 3481, "-st": 3482, "Ġvoice": 3483, "Ġrelated": 3484, "lement": 3485, "Ã¶": 3486, "Ġ`": 3487, "(x": 3488, "Ġcustom": 3489, "ĠGr": 3490, "Ġcontr": 3491, "AK": 3492, "Ġquestions": 3493, "light": 3494, "Ġsource": 3495, "Ġsyn": 3496, "Ġbelieve": 3497, "ĠDes": 3498, "Ġjud": 3499, "Tr": 3500, "ula": 3501, "Ġfinal": 3502, "ĠDo": 3503, "92": 3504, "128": 3505, "EST": 3506, "Ġbreak": 3507, "abor": 3508, "www": 3509, "Ġcommunity": 3510, "Ġphysical": 3511, "ops": 3512, "arc": 3513, "Ġsqu": 3514, "Ġanswer": 3515, "atively": 3516, "####": 3517, "Ġgave": 3518, "ĠĠĠĠĊ": 3519, "ension": 3520, "Ġattempt": 3521, "ging": 3522, "Ġlonger": 3523, "aries": 3524, "Ġcomplete": 3525, "psi": 3526, "Ġperm": 3527, "earch": 3528, "Ġaverage": 3529, "oved": 3530, "ham": 3531, "],[": 3532, "Ġlines": 3533, "orts": 3534, "Ci": 3535, "rams": 3536, "orks": 3537, "Ġgraph": 3538, "Ġinvestig": 3539, "oul": 3540, "epsilon": 3541, "Ġseries": 3542, "ĠCoun": 3543, "Ġagre": 3544, "Ġdoc": 3545, "aching": 3546, "arily": 3547, "Ġprinc": 3548, "plement": 3549, "Aw": 3550, "Ġpubl": 3551, "ĠAfter": 3552, "aff": 3553, "uration": 3554, "Ġpractice": 3555, "Ġwasn": 3556, "hood": 3557, ".get": 3558, "Ġpredict": 3559, ",i": 3560, "Ġexact": 3561, "frak": 3562, "ieved": 3563, "Ġobserved": 3564, "Ġways": 3565, "æ¥": 3566, "mathfrak": 3567, "abel": 3568, "Ġfriend": 3569, "ĠStr": 3570, "AQ": 3571, "Ġsus": 3572, "ĠStud": 3573, "print": 3574, "Ġcause": 3575, "ĠComp": 3576, "Ġintegr": 3577, "alle": 3578, "Ġfactor": 3579, "geq": 3580, "reet": 3581, "Ġmess": 3582, "Ġpsych": 3583, "Ġlooking": 3584, "dro": 3585, "Qu": 3586, "rought": 3587, "ems": 3588, "])": 3589, "Ġprovided": 3590, "cted": 3591, "Ġinput": 3592, "Ġintern": 3593, "UL": 3594, "ĠLondon": 3595, "Ġens": 3596, "ĠDr": 3597, "IR": 3598, "Ġcity": 3599, "Ġcolor": 3600, "dom": 3601, "ev": 3602, "Ġprobably": 3603, "mathsf": 3604, "Ġareas": 3605, "----------------": 3606, "Ġnumbers": 3607, "Ġseems": 3608, "itation": 3609, "Ġpie": 3610, "Ġdemonstr": 3611, "bolds": 3612, "Ġpressure": 3613, "Ġbit": 3614, "wise": 3615, "];": 3616, "001": 3617, "Ġtax": 3618, ",s": 3619, "boldsymbol": 3620, "ony": 3621, "ĠÐ»": 3622, "Ġir": 3623, "ï¼ŁĊ": 3624, "Ġtaking": 3625, "ste": 3626, "Ð°Ð½Ð¸": 3627, "plot": 3628, "->": 3629, "Ġda": 3630, "osis": 3631, "acity": 3632, "QU": 3633, "Ġsimply": 3634, "Ġanaly": 3635, "raction": 3636, "Ind": 3637, "Ġreview": 3638, "aly": 3639, "Ġfactors": 3640, "ĠAf": 3641, "urg": 3642, "ĠAg": 3643, "ĠSim": 3644, "Ġimprove": 3645, "Ġadj": 3646, "ĠInc": 3647, "Ġeducation": 3648, "Ġfund": 3649, "Ġnational": 3650, "ÐµÐ¹": 3651, "Ġcompar": 3652, "Ġpopulation": 3653, "Ġbenef": 3654, "Ġchall": 3655, "ford": 3656, "elling": 3657, "Ġoutside": 3658, "Ġpull": 3659, "Ġlot": 3660, "By": 3661, "Ġteam": 3662, "All": 3663, "Ġaccording": 3664, "Ġgreater": 3665, "ĠMc": 3666, "{C": 3667, "Ġtypes": 3668, "Ġsam": 3669, "rew": 3670, "Ð¾Ðº": 3671, "ministr": 3672, "Ġpolicy": 3673, "iÃ³n": 3674, "Ġattention": 3675, "Ġbring": 3676, "ĠMod": 3677, "Ġexpected": 3678, "è¯ķ": 3679, "Ġten": 3680, "Ġartic": 3681, "pid": 3682, "(s": 3683, "Ġdam": 3684, "Ġcorrect": 3685, "Ġfav": 3686, "AY": 3687, "OC": 3688, "Ġexpression": 3689, "ica": 3690, "110": 3691, "ilos": 3692, "\":\"": 3693, "En": 3694, "Ġeconomic": 3695, "Ġquality": 3696, "ror": 3697, "Ġregion": 3698, "Ġcontext": 3699, "Ġsle": 3700, "osition": 3701, "-C": 3702, "Ġhours": 3703, "omp": 3704, "ĠMore": 3705, "Ġdraw": 3706, "Ġphase": 3707, "opt": 3708, "align": 3709, "OW": 3710, "Ġspeak": 3711, "Ġproced": 3712, "varphi": 3713, "Ġstren": 3714, "raft": 3715, "Ġteac": 3716, "tries": 3717, "Ġelements": 3718, "Ġtry": 3719, "ĠÐ°": 3720, "ĠJournal": 3721, "ki": 3722, "Ġmach": 3723, "ĠAND": 3724, "Ð°Ð¼": 3725, "Ġfeatures": 3726, "ĠWar": 3727, "Sh": 3728, "Ġsoon": 3729, "cale": 3730, "max": 3731, "Ġfa": 3732, "_f": 3733, "ĠBr": 3734, "ĠÑį": 3735, "Ġmanagement": 3736, "iles": 3737, "ecause": 3738, "ĠPart": 3739, "/d": 3740, "Ġinterpre": 3741, "Ġlearn": 3742, "Ġbasis": 3743, "Ġwritten": 3744, "ĠÐ¾ÑĤ": 3745, "lege": 3746, "Ġseemed": 3747, "Ġinside": 3748, "Ġincreased": 3749, "Ġsomeone": 3750, "Ġcontent": 3751, "Ġeffective": 3752, "Ġliving": 3753, ".b": 3754, "Ġattack": 3755, "nder": 3756, ".'": 3757, "oud": 3758, "ĠTrans": 3759, "Ġstra": 3760, "ĠMin": 3761, "Ġminutes": 3762, "Ġgas": 3763, "Ġadm": 3764, "index": 3765, "zz": 3766, "Ġimmedi": 3767, "lier": 3768, "Ġcat": 3769, "kn": 3770, "Ġinstead": 3771, "oe": 3772, "inally": 3773, "Ġdisease": 3774, "Ġalgorith": 3775, "anc": 3776, "ĠNational": 3777, "raining": 3778, "111": 3779, "Ġservices": 3780, "Ð¸Ð²": 3781, "Ġlive": 3782, "Ġsituation": 3783, "bor": 3784, "ensive": 3785, "That": 3786, "ĠState": 3787, "ements": 3788, "Ġdeveloped": 3789, "Ġequal": 3790, ">A": 3791, "sl": 3792, "FIG": 3793, "which": 3794, "ana": 3795, "Ġoriginal": 3796, "date": 3797, "comp": 3798, "const": 3799, "åı·": 3800, "atives": 3801, "ĠHar": 3802, "),Ċ": 3803, "Ġthird": 3804, "itary": 3805, ".pro": 3806, "inger": 3807, "Ġheard": 3808, "Ġfem": 3809, "Ġmaintain": 3810, "mber": 3811, "Ġbal": 3812, "Ġcentury": 3813, "Ġful": 3814, "Ġcount": 3815, "ĠChar": 3816, "Ġunderstanding": 3817, "key": 3818, "âĢĶâĢĶ": 3819, "nn": 3820, "roke": 3821, "ĠST": 3822, "bra": 3823, "./": 3824, "lib": 3825, "ĠVal": 3826, "ATION": 3827, "Gamma": 3828, "Ġpack": 3829, "Ġtoday": 3830, "ÐºÐ¸": 3831, "Īĺ": 3832, "ĠInt": 3833, "cription": 3834, "Ġelement": 3835, "-M": 3836, "Ġmonths": 3837, "pmb": 3838, "180": 3839, "isions": 3840, "So": 3841, "ĠUs": 3842, "Ġpict": 3843, "ura": 3844, "ĠReg": 3845, "Wh": 3846, "anger": 3847, "iques": 3848, "uly": 3849, "Ġgame": 3850, "Ġmicro": 3851, "ounds": 3852, "Ġincreasing": 3853, "aN": 3854, "Le": 3855, "\")": 3856, "imin": 3857, "Ġeverything": 3858, "hemical": 3859, "iting": 3860, "Ġ(\\": 3861, "Ġfeet": 3862, "ãĤĵ": 3863, "ĠDep": 3864, "ocal": 3865, "Ð°ÑĢ": 3866, "Ġbase": 3867, "Ġ,Ċ": 3868, "âĸĪâĸĪâĸĪâĸĪ": 3869, "IP": 3870, "Ġimpact": 3871, "102": 3872, "Ġdistance": 3873, "/+": 3874, "ese": 3875, "Ġhot": 3876, "Ġdirection": 3877, "ancial": 3878, "Se": 3879, "Ġtou": 3880, "cos": 3881, "vant": 3882, "ä¾ĭ": 3883, "Ġpatient": 3884, "oly": 3885, "ordin": 3886, "overline": 3887, "Ġmatrix": 3888, "ĠPe": 3889, "Ġmeaning": 3890, "=[": 3891, "come": 3892, "Ġhyp": 3893, "hern": 3894, "Ġgives": 3895, "Ġlinear": 3896, "pec": 3897, "Ġsett": 3898, "Ġproperties": 3899, "Ġcreate": 3900, "VV": 3901, "mar": 3902, "Ġconsum": 3903, "-n": 3904, "ett": 3905, "Ġdimens": 3906, "qq": 3907, "iform": 3908, "Ġ${": 3909, "Ġbad": 3910, "rench": 3911, "ded": 3912, "oles": 3913, "ĠBar": 3914, "oo": 3915, "width": 3916, "Ġ{'": 3917, "ington": 3918, "AF": 3919, "Ð¸Ð½": 3920, "{m": 3921, "Ġhom": 3922, "Ġlate": 3923, "Ġreported": 3924, "Ġproperty": 3925, "-based": 3926, "Ġsample": 3927, "Ġbrought": 3928, "Ġrandom": 3929, "Ġfire": 3930, "Ġdecl": 3931, "ivil": 3932, "Ġein": 3933, ",this": 3934, "Ġdynam": 3935, "Ġessential": 3936, "Ġdecre": 3937, "Ġstay": 3938, "ĠFr": 3939, "Ġconduct": 3940, "æĺŁ": 3941, "Ġfigure": 3942, "âĢĻs": 3943, "iled": 3944, "ĠWorld": 3945, "aches": 3946, "tributed": 3947, "yond": 3948, "Ġinstit": 3949, "ulations": 3950, "Ġmiss": 3951, "\">Ċ": 3952, "Ġsubst": 3953, "Of": 3954, "189": 3955, "leg": 3956, "ulated": 3957, "CE": 3958, "Ġstarted": 3959, "onal": 3960, "Ġopportun": 3961, "Ġevents": 3962, "Ġmodern": 3963, "Ġprint": 3964, "lin": 3965, "Ġforms": 3966, "Ġexperien": 3967, "Ġca": 3968, "Ġviol": 3969, "}^{": 3970, "OP": 3971, "Ġaddress": 3972, "inct": 3973, "Ġhistor": 3974, "Ġwait": 3975, "eneral": 3976, "room": 3977, "Ġissues": 3978, "Ġemer": 3979, "Ġleave": 3980, "Ġprice": 3981, "Ġcomplet": 3982, "ĠSince": 3983, "men": 3984, "Ġsn": 3985, "NS": 3986, "igen": 3987, "asc": 3988, "izes": 3989, "ĠSystem": 3990, ".org": 3991, "ÑĦ": 3992, "Ġproducts": 3993, "']": 3994, "Ġapproxim": 3995, "ellow": 3996, "Ġinvolved": 3997, "Ġavoid": 3998, "Ġactually": 3999, "ĠSm": 4000, "Ġaud": 4001, "Ġparameters": 4002, "ustry": 4003, "Ġassess": 4004, "ĠÑģÑĤ": 4005, "vey": 4006, "(){": 4007, "Ġconv": 4008, "Ij": 4009, "Ġpan": 4010, "Ġtrying": 4011, "ĠDis": 4012, "Ġalthough": 4013, "Ġalone": 4014, "-B": 4015, "Ġappropri": 4016, "Pl": 4017, "olic": 4018, "Ġoutput": 4019, "Ġcry": 4020, "df": 4021, "ĠÐ·Ð°": 4022, "ĠLa": 4023, "ĠMon": 4024, "ĠAmerica": 4025, "fill": 4026, "ĠÐ¾Ð±": 4027, "ingu": 4028, "Ġprivate": 4029, "Ġsociety": 4030, "Ġdecision": 4031, "Ġimplement": 4032, "Ġcontact": 4033, ".y": 4034, "uel": 4035, "Ġcountries": 4036, "aint": 4037, "Ġsomet": 4038, "Ġcateg": 4039, "Ġcentral": 4040, "ades": 4041, "Ġcapital": 4042, "400": 4043, "Ġbott": 4044, "AE": 4045, "âĢĺ": 4046, ">B": 4047, "Ġwrite": 4048, "Ġprevent": 4049, "iment": 4050, "='": 4051, "more": 4052, "Ġeasy": 4053, "ography": 4054, "Ġdig": 4055, "Ġ\\}": 4056, "Ġerror": 4057, "Ã§Ã£o": 4058, "\"},": 4059, "enty": 4060, "Ġreve": 4061, "ato": 4062, ">.": 4063, "Ġcompared": 4064, "Ġmention": 4065, "Ġprovides": 4066, "ĠDav": 4067, "Ġcomes": 4068, "Ġdirectly": 4069, "Ġpage": 4070, "Ġbuilding": 4071, "108": 4072, "Ġdegree": 4073, ">F": 4074, "langle": 4075, "TA": 4076, "Ġ@": 4077, "Ġtrain": 4078, "Ġprop": 4079, "Ġpresence": 4080, "Ġparts": 4081, "apan": 4082, "Ġapplication": 4083, "%</": 4084, "æµĭ": 4085, "Ġord": 4086, "ÐµÐ»ÑĮ": 4087, "{\"": 4088, "ding": 4089, "Ġadded": 4090, "under": 4091, "Ġfollowed": 4092, "Ġlarger": 4093, "used": 4094, "Ġactivities": 4095, "xy": 4096, "ĠAfric": 4097, ">D": 4098, "Ġlas": 4099, "Ġparticularly": 4100, "iant": 4101, "Ġexpress": 4102, "}}$": 4103, "Ġtakes": 4104, "do": 4105, "Ġhair": 4106, "Ġplant": 4107, "ĠFrom": 4108, "ĠSouth": 4109, "ken": 4110, "Ġdest": 4111, "Ġarch": 4112, "Ġsite": 4113, "etr": 4114, "vis": 4115, "ira": 4116, "Ġdrug": 4117, "Ġinstance": 4118, "New": 4119, "!\"": 4120, "gu": 4121, "Ġdemand": 4122, "Ġindex": 4123, "Ġbroad": 4124, "Ġdro": 4125, "105": 4126, "Col": 4127, "gth": 4128, "Ġprior": 4129, "eds": 4130, "ĠÎ": 4131, "ÑĢÐµÐ´": 4132, "Ġaspect": 4133, "Ġlack": 4134, "BB": 4135, "Ġsch": 4136, "Ġissue": 4137, "187": 4138, "ĠNow": 4139, "chi": 4140, "ĠInternational": 4141, "Ã©s": 4142, "Ġsequence": 4143, "Ġcode": 4144, "()Ċ": 4145, "Ġunit": 4146, "bon": 4147, "Ġspirit": 4148, "import": 4149, "Ġsun": 4150, "Ġ//": 4151, "Ġregular": 4152, "188": 4153, "ternal": 4154, "Ġcouldn": 4155, "Ġlost": 4156, "LA": 4157, ".;": 4158, "Ġaltern": 4159, "Ġspecies": 4160, "Ġnote": 4161, "Ġstri": 4162, ".The": 4163, "itions": 4164, "Ġrecent": 4165, "Ġdetect": 4166, ".P": 4167, "ronic": 4168, "Ġcorresponding": 4169, "inn": 4170, ">(": 4171, "Ġwriting": 4172, "Ġtransform": 4173, "Ġillustr": 4174, "Ġswe": 4175, "ĠGl": 4176, "Ġsometimes": 4177, "Ġprep": 4178, "Ãª": 4179, "140": 4180, "Ġmillion": 4181, "Ġscale": 4182, "Ġnumer": 4183, "Ġaw": 4184, "Ġinj": 4185, "Ġep": 4186, "_n": 4187, ",âĢĿ": 4188, "Ġbir": 4189, "ferences": 4190, "ights": 4191, "px": 4192, "ĠNorth": 4193, "era": 4194, "Ġbeaut": 4195, "Ġinfluence": 4196, "Ġpresented": 4197, "(this": 4198, "/m": 4199, "Ġsearch": 4200, "adem": 4201, "Ad": 4202, "../../": 4203, "emb": 4204, "103": 4205, "ancy": 4206, "Be": 4207, "Ġtruth": 4208, "Ġtown": 4209, "Ġexec": 4210, "othes": 4211, "ĠWest": 4212, "Ġpour": 4213, "ares": 4214, "aling": 4215, "Ġdensity": 4216, "Ġrespectively": 4217, "ĠEr": 4218, "anks": 4219, "Ġvolume": 4220, "Ġax": 4221, "ming": 4222, "Ġbecomes": 4223, "Ġmusic": 4224, "Ġthinking": 4225, "ĠKing": 4226, "ĠChristian": 4227, "ials": 4228, "Ġmole": 4229, "Ġcolumn": 4230, "oin": 4231, "oat": 4232, "clus": 4233, "Oi": 4234, "Ġrepl": 4235, "-to": 4236, "dered": 4237, "ÐµÐ´": 4238, "ĠMat": 4239, "ĠÐ²Ñĭ": 4240, "igr": 4241, "ĠCons": 4242, ":#": 4243, "/st": 4244, "(var": 4245, "Ġshare": 4246, "Ġcamp": 4247, "eks": 4248, "change": 4249, "ij": 4250, "Ġperhaps": 4251, "och": 4252, "OG": 4253, "estern": 4254, "Ġforward": 4255, "Ġdoesn": 4256, "TH": 4257, "Ġ{\"": 4258, "Ġcover": 4259, "Or": 4260, "Ġnuc": 4261, "urt": 4262, "Ġhear": 4263, "duc": 4264, "oon": 4265, "Ġchoice": 4266, "250": 4267, "Ġaccuracy": 4268, "Ġcoming": 4269, "Ġbasic": 4270, "Ġcompan": 4271, "Ġengine": 4272, "Ġmulti": 4273, ".L": 4274, "Ġapplied": 4275, ".R": 4276, "Ġweak": 4277, "109": 4278, "Ġacid": 4279, "Ġtor": 4280, "Ġblock": 4281, "Ġeth": 4282, "Ġdead": 4283, "Ġmap": 4284, "ĠJes": 4285, "ading": 4286, "ãģĤ": 4287, "SS": 4288, "oted": 4289, "ĠBritish": 4290, "Ġability": 4291, "Ġdetermined": 4292, "itte": 4293, "Ġ$^": 4294, "Ġconstit": 4295, "UN": 4296, "ÐµÐ½Ð¸Ñı": 4297, "totype": 4298, "fort": 4299, "Ġbeyond": 4300, "186": 4301, "Ġparents": 4302, ",l": 4303, "ĠĠĠĠĠĠĠĠĠĠ": 4304, "Id": 4305, "Ġgetting": 4306, "Ġadditional": 4307, "top": 4308, "Ġfram": 4309, "âĳ": 4310, "box": 4311, "gment": 4312, ".n": 4313, "-e": 4314, "ico": 4315, "za": 4316, "203": 4317, "ĠRec": 4318, "Ġconstruct": 4319, "Ġextrem": 4320, "Ġmultiple": 4321, "Ġmyself": 4322, "ĠFl": 4323, "hr": 4324, "IE": 4325, "Ġnegative": 4326, "Ġindividuals": 4327, "Ġpurpose": 4328, "104": 4329, "ship": 4330, "ffe": 4331, "Ġemot": 4332, "Ġhope": 4333, "Ġmer": 4334, "ĠAc": 4335, "Ġmiddle": 4336, "Ġfriends": 4337, "Ġperfect": 4338, "rely": 4339, "_m": 4340, "ĠTable": 4341, "Ġstress": 4342, "-y": 4343, "Ġfear": 4344, "ĠPres": 4345, "ĠFirst": 4346, "Ġpick": 4347, "Ġled": 4348, "Ġbox": 4349, "ĠResearch": 4350, "Ġoffice": 4351, "etry": 4352, "Ġmut": 4353, "Ġcapt": 4354, "aged": 4355, "Ġhab": 4356, ">T": 4357, "Ġcenter": 4358, ".:": 4359, "ÑĩÐµ": 4360, "Ġcard": 4361, "Ġautom": 4362, "cil": 4363, "Ġwatch": 4364, "###": 4365, "],Ċ": 4366, "UM": 4367, "ously": 4368, "Ġtowards": 4369, "undred": 4370, "135": 4371, "Ġgenerally": 4372, "Ġtas": 4373, "Ġqual": 4374, "Let": 4375, "With": 4376, "Ġculture": 4377, "Ġheat": 4378, ".h": 4379, "Ġscient": 4380, "ĠCH": 4381, "ldots": 4382, "Ġdra": 4383, "ership": 4384, "ĠEm": 4385, "ogen": 4386, "Ġincluded": 4387, "rightarrow": 4388, "ĠWilliam": 4389, "Ġreceived": 4390, "ĠÐ¿Ð¾": 4391, "ĠJan": 4392, "Ġtransl": 4393, "Ġstage": 4394, "Ġfoot": 4395, "Ps": 4396, "Ġuseful": 4397, "Ġmis": 4398, "ara": 4399, "enth": 4400, "Ġearlier": 4401, "Ġlink": 4402, "Gl": 4403, "LT": 4404, "ĠServ": 4405, "Ġstrength": 4406, "Ð¾Ð·": 4407, "allel": 4408, "!==": 4409, "124": 4410, "Ġpoor": 4411, "orph": 4412, "YX": 4413, "=r": 4414, "800": 4415, "Ġevalu": 4416, "['": 4417, "ests": 4418, "from": 4419, "tex": 4420, "alt": 4421, "dots": 4422, ".B": 4423, "Ġbur": 4424, "Ġmovement": 4425, "Ġproduced": 4426, "Ġunc": 4427, "Ġtask": 4428, "Ġconvers": 4429, "Ġchapter": 4430, "-P": 4431, "Ġcritical": 4432, "FB": 4433, "icht": 4434, "Ġwrong": 4435, "augh": 4436, "'.": 4437, "va": 4438, "Ġuser": 4439, "Ġstop": 4440, "ching": 4441, "Ġsurpr": 4442, "rum": 4443, "clusion": 4444, "Ġprocesses": 4445, "Ġnorm": 4446, "ĠRuss": 4447, "phas": 4448, "IB": 4449, "aled": 4450, "255": 4451, "Ġtend": 4452, "isms": 4453, "Ġconsequ": 4454, "Ġindependent": 4455, "Ġserious": 4456, "Ġshape": 4457, "Ii": 4458, "sin": 4459, "Ġvalid": 4460, ",c": 4461, "Ġones": 4462, ".-": 4463, "ospital": 4464, "Array": 4465, "107": 4466, "Ġslight": 4467, "ĠHist": 4468, "160": 4469, "Ġtried": 4470, "ords": 4471, "hemat": 4472, ".push": 4473, "ĠPat": 4474, "Ġcorrel": 4475, "ida": 4476, "Ġmorning": 4477, "(c": 4478, ".J": 4479, "Ġrefer": 4480, "127": 4481, "ZW": 4482, "tributes": 4483, "Ġacqu": 4484, "Ġmag": 4485, "130": 4486, "ka": 4487, "Ġconver": 4488, "Ġeasily": 4489, "Ġlabor": 4490, "omy": 4491, "121": 4492, "Ġfile": 4493, "}(": 4494, "ĠâĢĺ": 4495, "Ġcourt": 4496, "106": 4497, "oman": 4498, "fin": 4499, ":{": 4500, "tation": 4501, "Ġoffer": 4502, "Ġmit": 4503, "Ġindustry": 4504, "ĠBer": 4505, "Ġzero": 4506, "joy": 4507, "ufact": 4508, "upp": 4509, "cles": 4510, "Ġfast": 4511, "olar": 4512, "lim": 4513, "Ġinform": 4514, ",-": 4515, "ĠBo": 4516, "ĠEar": 4517, "Ax": 4518, "Ġroad": 4519, "Ġetc": 4520, "Ġrelation": 4521, "ĠĠĠĠĠĠĠĠĠĠĠĠĠĠĠĠĠĠĠ": 4522, "ĠSection": 4523, "Ġproposed": 4524, "https": 4525, "ĠPre": 4526, "Ġneigh": 4527, "Ġbackground": 4528, "Ġfixed": 4529, "inks": 4530, "Ġdifferences": 4531, "ript": 4532, "Ġround": 4533, "iot": 4534, "Ġwave": 4535, "iling": 4536, "Ġrepe": 4537, "ayer": 4538, "ĠJapan": 4539, "ety": 4540, "::": 4541, "ctors": 4542, "YW": 4543, "112": 4544, "Ġfinancial": 4545, "orge": 4546, "exp": 4547, "Ob": 4548, "122": 4549, "urrent": 4550, "itable": 4551, "ias": 4552, "Ġexerc": 4553, "(i": 4554, "ception": 4555, "Ġrule": 4556, "Ð¸ÑĤÑĮ": 4557, "Ġwide": 4558, "Ġcontrast": 4559, "ideo": 4560, "my": 4561, "========================": 4562, "115": 4563, "185": 4564, "Yes": 4565, "Ġcontract": 4566, "-D": 4567, "Ġbeginning": 4568, "ĠCommun": 4569, "ĠÐµ": 4570, "ĠFrench": 4571, "Ġparty": 4572, "Ġrights": 4573, "Ġspeed": 4574, "Ġnam": 4575, "that": 4576, "FF": 4577, "king": 4578, "ibrary": 4579, "book": 4580, "Oh": 4581, "âĢĵ": 4582, "ĠMark": 4583, "stitute": 4584, "Ġdetermine": 4585, "Ġreading": 4586, "Ġlif": 4587, "ĠCour": 4588, "Ġdog": 4589, "Ġproduce": 4590, "OV": 4591, "Ġinflating": 4592, "known": 4593, "rapy": 4594, "Ġmemory": 4595, "(),": 4596, "race": 4597, "Ġappropriate": 4598, "ï¼ļĊ": 4599, "ĠJew": 4600, "istry": 4601, "117": 4602, "Bl": 4603, "ç®Ģ": 4604, "bG": 4605, "iency": 4606, "berg": 4607, "omas": 4608, "Ġlimited": 4609, "Ġmouth": 4610, "Ġphilos": 4611, "Ġimpl": 4612, "Ġinternational": 4613, "mark": 4614, "+\"": 4615, "Ġanim": 4616, "Ġglobal": 4617, "ĠWhile": 4618, "/c": 4619, "Ġclin": 4620, "Ġnor": 4621, "Ġadvant": 4622, "======": 4623, "One": 4624, "ports": 4625, "Ġresources": 4626, "Ġsleep": 4627, "Ġclosed": 4628, "Table": 4629, "pite": 4630, "Ġrates": 4631, "ĠAlthough": 4632, "omb": 4633, "Ġflu": 4634, "Ġcreated": 4635, "Ġvariables": 4636, "ante": 4637, "AV": 4638, "Ġtrou": 4639, "bb": 4640, ";/": 4641, "Ġfit": 4642, "EP": 4643, "Ġhon": 4644, "ny": 4645, "Ġbooks": 4646, "Ġprimary": 4647, "********": 4648, "Ġquickly": 4649, "123": 4650, "-r": 4651, "rote": 4652, "ĠOther": 4653, "Ġsort": 4654, "Ġemp": 4655, "IH": 4656, "Ġinn": 4657, ".E": 4658, "Ġcarry": 4659, "attle": 4660, "Ġearth": 4661, "Ġren": 4662, "Ġprobability": 4663, "OU": 4664, "ĠAug": 4665, "âĢ¢": 4666, "Ġtree": 4667, "\"You": 4668, "Str": 4669, "band": 4670, "Ġextra": 4671, "ech": 4672, "={": 4673, "=this": 4674, "ially": 4675, "Ġrecomm": 4676, "ults": 4677, "Ġhundred": 4678, "Ġvia": 4679, "Ġstru": 4680, "ĠAng": 4681, "Ġclearly": 4682, "chen": 4683, "Ġkept": 4684, "ĠChapter": 4685, "Ġstraight": 4686, "---": 4687, "Ġvector": 4688, "Ð¸Ð»": 4689, "Ġfrequency": 4690, "600": 4691, "Ġremember": 4692, "Ġ[========================": 4693, "Ġreached": 4694, "Ġphen": 4695, "Ġago": 4696, "Ġsteps": 4697, "Ġwife": 4698, "ession": 4699, "appa": 4700, "Ġrelative": 4701, "Ġsurv": 4702, "Ġwood": 4703, "ĠHere": 4704, "-A": 4705, "iers": 4706, "Ġpen": 4707, "ÐµÐº": 4708, "Ġcontains": 4709, "Ġpret": 4710, "Ġsymb": 4711, "Ġimages": 4712, "uman": 4713, "Ġcomputer": 4714, "Ġideas": 4715, "Ġestablished": 4716, "cap": 4717, "ĠAssoci": 4718, "ĠNone": 4719, "Ġfeature": 4720, "Ġherself": 4721, "Ġdiscussed": 4722, "Ġfine": 4723, "æľĿ": 4724, "Ġfair": 4725, "sec": 4726, "aily": 4727, "Ai": 4728, "Ġnull": 4729, "Ġmaximum": 4730, "ĠLord": 4731, "Ġreaction": 4732, "iful": 4733, "ERS": 4734, "pa": 4735, "ulate": 4736, "======]": 4737, "Ġ[==============================]": 4738, "Ġchurch": 4739, "eration": 4740, "ĠJesus": 4741, "EF": 4742, "ĠJust": 4743, "ĠPaul": 4744, "Ġpublished": 4745, ",o": 4746, "Ġbreath": 4747, "ĠEven": 4748, "116": 4749, "Ġstrict": 4750, ",the": 4751, "Ġequival": 4752, "Ã¼r": 4753, "ĠScience": 4754, "itz": 4755, "Ġachieve": 4756, "Ġshowed": 4757, "Ġhost": 4758, "Ġcomponents": 4759, "Ġfirm": 4760, "TS": 4761, ">R": 4762, "ando": 4763, "Ġcred": 4764, "tribute": 4765, "asons": 4766, "Ġgone": 4767, "Ġindu": 4768, "Ġremain": 4769, "Ġadministr": 4770, "Ġvirt": 4771, "Ġeight": 4772, "Ġbrother": 4773, "Ġfat": 4774, "Ġcosts": 4775, "_id": 4776, "184": 4777, "Ġfeed": 4778, "lig": 4779, "test": 4780, "Ġproof": 4781, "):Ċ": 4782, "Ġsuff": 4783, "Ġball": 4784, "ĠTherefore": 4785, "114": 4786, "113": 4787, "Ġtransfer": 4788, "Ġwhom": 4789, "Ġdas": 4790, "ĠJe": 4791, "vere": 4792, "ifying": 4793, "izations": 4794, "uls": 4795, "ooth": 4796, "Ġratio": 4797, "Ġtrade": 4798, "NG": 4799, "stroke": 4800, "Ġcru": 4801, "Ġlives": 4802, "Ð½ÑĭÑħ": 4803, "Ġtele": 4804, "Ġclean": 4805, "Ġleading": 4806, "Ġrules": 4807, "Ġmaterials": 4808, "ederal": 4809, "point": 4810, "flict": 4811, "estion": 4812, "Ġblue": 4813, "Ð°Ð²": 4814, "ibly": 4815, "Ġsold": 4816, "Ġoil": 4817, "ĠInter": 4818, "Ġcharge": 4819, "157": 4820, "ĠMor": 4821, "ĠSw": 4822, "ager": 4823, "url": 4824, "wide": 4825, "vention": 4826, "Ġaim": 4827, "overn": 4828, "Ġmoved": 4829, "oring": 4830, "Ġhydro": 4831, "Ġobjects": 4832, "ama": 4833, "Ġpopular": 4834, "Ġtravel": 4835, "Ġscience": 4836, "hens": 4837, "Ġmid": 4838, "Ġcontain": 4839, "Ġprogress": 4840, "pling": 4841, "Now": 4842, "XS": 4843, "Ġorganization": 4844, "PR": 4845, "link": 4846, "Ġfeeling": 4847, "Ġversion": 4848, "Ġcontinued": 4849, "ocks": 4850, "\\*": 4851, "Ġcommand": 4852, "Ġglass": 4853, "Ġalgorithm": 4854, "ocr": 4855, "ellig": 4856, "Ġskin": 4857, "Ð½ÑĭÐµ": 4858, "Ġvariable": 4859, "Ġplus": 4860, "ĠÐ¿ÑĢÐ¸": 4861, "ja": 4862, "ĠLaw": 4863, "Ġspl": 4864, "EB": 4865, "118": 4866, "Ġimportance": 4867, "Ġtechnology": 4868, "Ġworth": 4869, "Ġvel": 4870, "Phi": 4871, "\").": 4872, "Ġassign": 4873, "Ġdate": 4874, "etric": 4875, "Ġoptim": 4876, "Ġactive": 4877, "ĠRel": 4878, "Data": 4879, "Ġobvious": 4880, "_b": 4881, "Ġdocument": 4882, "ĠTra": 4883, "Ne": 4884, "Ġequations": 4885, "Ġappears": 4886, "Pr": 4887, "Ġreference": 4888, "ĠSchool": 4889, "ĠChurch": 4890, "\"W": 4891, "axis": 4892, "Ġenjoy": 4893, "ĠOur": 4894, "Ġcit": 4895, "tes": 4896, "ĠAust": 4897, "pective": 4898, "Ġune": 4899, "Ġbuilt": 4900, "=(": 4901, "333": 4902, "Ġgrand": 4903, "Ġtrust": 4904, "Ġrestr": 4905, "}_{": 4906, "Ġband": 4907, "Ġsolutions": 4908, "encies": 4909, "MA": 4910, "126": 4911, "sb": 4912, "Ġmedical": 4913, ".w": 4914, "ĠTechn": 4915, "Ġthroughout": 4916, "Ġsources": 4917, "Ġsufficient": 4918, "la": 4919, "sis": 4920, "PP": 4921, "Ġboy": 4922, "asure": 4923, "Ġfloor": 4924, "Ġsto": 4925, "ugh": 4926, "Ġactual": 4927, "Ġcand": 4928, "ĠEq": 4929, "Ġedge": 4930, "Ġdiscussion": 4931, "amin": 4932, "Ġchann": 4933, "ountain": 4934, "Ġtransm": 4935, "ya": 4936, "-H": 4937, "Ġstudent": 4938, "Ġunique": 4939, "ca": 4940, "Ġfig": 4941, "ĠBro": 4942, "119": 4943, "Ġcompletely": 4944, "Ġhighly": 4945, "Ġemphas": 4946, "unch": 4947, "CR": 4948, "ĠCity": 4949, "requ": 4950, "Ġdetails": 4951, "Ġfaith": 4952, "Ġsecurity": 4953, "ĠEngland": 4954, "works": 4955, "Ġcold": 4956, "Ġtitle": 4957, "ategy": 4958, "ixt": 4959, "onic": 4960, "amm": 4961, "Ġreduced": 4962, "Ġarms": 4963, "Ġdomin": 4964, "abla": 4965, "Ġwonder": 4966, "ĠÐĴ": 4967, "Bb": 4968, "Ġstood": 4969, "They": 4970, "Ġcollect": 4971, "rupt": 4972, "ridge": 4973, "Ġready": 4974, "ĠĠĠĠĠĠĠĠĠĠĠĠĠ": 4975, "Ġselect": 4976, "Ġdefinition": 4977, "kappa": 4978, "-up": 4979, "Ġfinally": 4980, "Ð¼Ð¸": 4981, "fo": 4982, "Ġdiss": 4983, "ago": 4984, "Ġrespond": 4985, "EG": 4986, "$$": 4987, "Ġformer": 4988, "Ð°ÐµÑĤ": 4989, "ĠÐŁ": 4990, "Ġstrateg": 4991, "osen": 4992, "ashington": 4993, "Ġgreen": 4994, "Ġthreat": 4995, "gar": 4996, "')Ċ": 4997, "ĠEuropean": 4998, "ustrial": 4999, "Ġou": 5000, "ĠSer": 5001, "Ġforeign": 5002, "Ġwindow": 5003, "Ġenter": 5004, "itors": 5005, "raint": 5006, "Ġrapid": 5007, "Do": 5008, "Not": 5009, "ams": 5010, "asion": 5011, "Ġrequires": 5012, "agement": 5013, "Ġfields": 5014, "ocation": 5015, "Ġsecret": 5016, "icle": 5017, "Ġsud": 5018, "!\"Ċ": 5019, "gs": 5020, "aur": 5021, "Ġexactly": 5022, "EX": 5023, "002": 5024, "183": 5025, "unk": 5026, "Ġvon": 5027, "Ġrunning": 5028, "gn": 5029, "Ġparameter": 5030, "http": 5031, "ĠVol": 5032, "})$": 5033, "Ð½Ð¾ÑģÑĤ": 5034, "].Ċ": 5035, "Ġnovel": 5036, "(b": 5037, "Ġcarried": 5038, "Ġfilm": 5039, "ĠGeneral": 5040, "Ġvan": 5041, "alled": 5042, "Ġeye": 5043, "zo": 5044, "Ġexamples": 5045, "REF": 5046, "Ġenh": 5047, "Ġtechniques": 5048, "Ġdouble": 5049, "Ġdisplay": 5050, "Ġstatement": 5051, "rab": 5052, "Big": 5053, "ĠChina": 5054, "omin": 5055, "Ġdesigned": 5056, "Ġreflect": 5057, "arp": 5058, "ipment": 5059, "Ġbrain": 5060, "Ð½Ð¾Ð¹": 5061, "/f": 5062, "CD": 5063, "ĠLoss": 5064, "illing": 5065, "aded": 5066, "Ġuses": 5067, "Ġsmaller": 5068, "Ġroll": 5069, "\",Ċ": 5070, "well": 5071, "Ġthick": 5072, ">L": 5073, "Ġdefine": 5074, "Ġremains": 5075, "Ġletter": 5076, "Ġstatus": 5077, "Ġ!": 5078, "Name": 5079, "Ġcontroll": 5080, "Ġharm": 5081, "Lambda": 5082, "ĠSupp": 5083, "Ġpoly": 5084, "ĠInst": 5085, "Ġprograms": 5086, "Ġsudden": 5087, "Ð¾Ð¿": 5088, "ittee": 5089, "Zm": 5090, "-se": 5091, "itect": 5092, ",h": 5093, "Ġign": 5094, "rec": 5095, "ba": 5096, "ÑĤÐ¸": 5097, "uge": 5098, "Ġencou": 5099, "Ġpair": 5100, "Ġperformed": 5101, "OH": 5102, "ĠDepartment": 5103, "181": 5104, "aging": 5105, ",d": 5106, ".F": 5107, "inner": 5108, "((": 5109, "AI": 5110, ".)Ċ": 5111, "CI": 5112, "wards": 5113, "ÑģÐ¿": 5114, "Ġcontinuous": 5115, "ette": 5116, "Ġfight": 5117, "zy": 5118, "Ġchanged": 5119, "Ġthous": 5120, "Ġargument": 5121, "ĠHouse": 5122, "Ġbank": 5123, "Ġsignal": 5124, "ache": 5125, "Ġanyone": 5126, "ube": 5127, "Ġadapt": 5128, "Ġimmediately": 5129, "isation": 5130, "nabla": 5131, "iny": 5132, "ĠOf": 5133, "Ġdiag": 5134, "Ġmotion": 5135, "Ġexists": 5136, "ÑĢÐ¸": 5137, "/step": 5138, "Ġapplications": 5139, "}},": 5140, "Ġplaced": 5141, "Ġwarm": 5142, "Ġhappened": 5143, "Ġcounter": 5144, "Ġcoe": 5145, "gram": 5146, "Ġassume": 5147, "Ġbond": 5148, "vision": 5149, "tributions": 5150, "Ġfully": 5151, "/b": 5152, "Ġsolid": 5153, "Ġbab": 5154, "ĠAnn": 5155, "Ġcam": 5156, "yr": 5157, "Ġprotect": 5158, ".H": 5159, "Ġmoving": 5160, "Ġweeks": 5161, "Ġfalse": 5162, "Ġallowed": 5163, "Ġvariety": 5164, "Ġchalleng": 5165, "ns": 5166, "apers": 5167, "wood": 5168, "Ġsets": 5169, "Ġreligious": 5170, "iable": 5171, "Ġschem": 5172, "Ġliterature": 5173, "Ġorigin": 5174, "Ġcivil": 5175, "mail": 5176, "Ġupper": 5177, "-align": 5178, "Ġforces": 5179, "Ġclust": 5180, "roy": 5181, "Ġcontinue": 5182, "ĠĠĠĠĠĠĠĠĠĠĠĠ": 5183, "\";": 5184, "ĠĠĠĠĠĠĠĠĠĠĠĠĠĠĠĠĠĠĠĠĠĠĠ": 5185, "rage": 5186, ".set": 5187, "[i": 5188, "Ġbran": 5189, "170": 5190, "ĠComput": 5191, "rc": 5192, "Ġhttps": 5193, "icit": 5194, "edom": 5195, "Ġcomponent": 5196, "Ġarray": 5197, "Ġ%": 5198, "icon": 5199, "ipal": 5200, "empl": 5201, "Ġspread": 5202, "urance": 5203, "ĠAut": 5204, "hold": 5205, "Ġvict": 5206, "ĠTheorem": 5207, "Ġstim": 5208, "Ġgold": 5209, "ĠHealth": 5210, "Val": 5211, "Res": 5212, "Ġoccup": 5213, "Ġoperation": 5214, "Ġmeeting": 5215, "Ġstar": 5216, "Ġdivid": 5217, "Ġyourself": 5218, "ĠBook": 5219, "Ġutil": 5220, "Ġreach": 5221, "Ġcompanies": 5222, "ĠOct": 5223, "TR": 5224, "Ġgiving": 5225, "Ġsaying": 5226, "Ġallows": 5227, "AH": 5228, "Ġcompl": 5229, "Ġexperiment": 5230, "Ġunits": 5231, "Ġhyper": 5232, "mat": 5233, "ilde": 5234, "ĠEduc": 5235, "atever": 5236, "otal": 5237, "ĠDavid": 5238, "ĠBlack": 5239, "Ab": 5240, "Ġlegal": 5241, "Ġworkers": 5242, "375": 5243, "antic": 5244, "Ġpassed": 5245, "Ġmeasured": 5246, "fig": 5247, "Ġcup": 5248, "Ġwat": 5249, "Ġmanufact": 5250, "Ġdream": 5251, "inding": 5252, "Ġcommunication": 5253, "Ġdiff": 5254, "Ġincludes": 5255, "aset": 5256, "field": 5257, "Ð°Ð»ÑĮ": 5258, "Ġlatter": 5259, "Ġconstruction": 5260, "Ġsym": 5261, "Ġmedia": 5262, "Ġsamples": 5263, "ĠJames": 5264, "BC": 5265, "Ġstaff": 5266, "Ġsaf": 5267, "-L": 5268, "Ġmember": 5269, "Ġworked": 5270, "iance": 5271, "Ġeveryone": 5272, "ĠLi": 5273, "ophy": 5274, "cular": 5275, "179": 5276, "Ġstock": 5277, "ãĢĮ": 5278, "ao": 5279, "uary": 5280, "iat": 5281, "129": 5282, "ĠSub": 5283, "Ġlayer": 5284, "Ġsetting": 5285, "/l": 5286, "ĠGerman": 5287, "SE": 5288, "ĠMich": 5289, "Ġrob": 5290, "Ġnearly": 5291, "Ġnod": 5292, "ees": 5293, "ãĢį": 5294, "\\t": 5295, "emma": 5296, "/w": 5297, "Ġking": 5298, "Ġbelong": 5299, "Ġdeb": 5300, "Ġmilitary": 5301, "Ġpicture": 5302, "ih": 5303, "elled": 5304, "Ġapply": 5305, "Ð³Ð¾": 5306, "Ġbul": 5307, "Ġ==": 5308, "TER": 5309, "Ġsymm": 5310, "zen": 5311, "umin": 5312, "map": 5313, "term": 5314, "182": 5315, "Ġcas": 5316, "-F": 5317, "ework": 5318, "ÐµÐ½Ð¸Ðµ": 5319, "Ġhour": 5320, "nel": 5321, "131": 5322, "Ġpow": 5323, "Ġsitu": 5324, "Ġconflict": 5325, "Ġgradu": 5326, "crete": 5327, "ris": 5328, "ries": 5329, "Ġcircum": 5330, "Ġexistence": 5331, "orrow": 5332, "ĠÑĢÐµ": 5333, "ael": 5334, "cient": 5335, "ĠWhy": 5336, "Ġdistinct": 5337, "Ġ}$Ċ": 5338, "ears": 5339, "cast": 5340, "gebra": 5341, "Ġhttp": 5342, "Ġmeant": 5343, "Ġabsol": 5344, "è¿°": 5345, "ÑĢÐ¾Ð²": 5346, "ĠÐ¸Ð·": 5347, "Ġemb": 5348, "Ð½Ð¾Ð³Ð¾": 5349, "Ġtransport": 5350, "SI": 5351, "Ġprotein": 5352, "Ġ\\%$": 5353, "ãĥ«": 5354, "comm": 5355, "ĪĴ": 5356, "Ġinteresting": 5357, "ZX": 5358, "Ġinternal": 5359, "iring": 5360, "ĠRich": 5361, "start": 5362, "Ġrelatively": 5363, "Ġveloc": 5364, "su": 5365, "Ġfavor": 5366, "Ġinteraction": 5367, "Ġaccom": 5368, "ensor": 5369, "Ġsea": 5370, "Ġhus": 5371, "Ġnews": 5372, "Ġwid": 5373, "void": 5374, "ady": 5375, "ĠHol": 5376, "active": 5377, "ĠApr": 5378, "ĠCalif": 5379, "ads": 5380, "Ġgoes": 5381, "odies": 5382, "ĠSociety": 5383, "Ġvisual": 5384, "Ġtraditional": 5385, "roph": 5386, "Ġstructures": 5387, "Ġbuy": 5388, "Ġcaused": 5389, "Ġchoose": 5390, "SP": 5391, "139": 5392, "?'Ċ": 5393, "subset": 5394, "yd": 5395, "Ġpurch": 5396, "iveness": 5397, "ĠSam": 5398, "}{\\": 5399, "enge": 5400, "144": 5401, "159": 5402, "Ġskills": 5403, "level": 5404, "inci": 5405, "Ġonto": 5406, "Ġbes": 5407, "irect": 5408, "Ġdiagn": 5409, "Ġmachine": 5410, "des": 5411, "Ġopin": 5412, "175": 5413, "Ġbehavi": 5414, "ef": 5415, "/p": 5416, "Ġapparent": 5417, "ML": 5418, "wid": 5419, "Ġsquare": 5420, "-con": 5421, ".ex": 5422, "otic": 5423, "Then": 5424, "icted": 5425, "osite": 5426, "Ġerr": 5427, "ĠDon": 5428, "151": 5429, "vest": 5430, "MOD": 5431, "ĠMrs": 5432, "152": 5433, "idden": 5434, "Ġextract": 5435, "what": 5436, "Ġbrief": 5437, ":h": 5438, "Zj": 5439, "ĠVer": 5440, "Ġ**": 5441, "Ġwouldn": 5442, "Ġreduce": 5443, "Ġincome": 5444, "Ġwrote": 5445, "NN": 5446, "Ġformation": 5447, "&quot": 5448, "ĠCong": 5449, "ĠEv": 5450, "...Ċ": 5451, "ĠChe": 5452, "Ġcharg": 5453, "kin": 5454, "ĠdÃ©": 5455, "Ġdecided": 5456, "ĠFurther": 5457, "ui": 5458, "ĠHigh": 5459, "ĠData": 5460, "Ġhop": 5461, "Ġsignificantly": 5462, "142": 5463, "Ġevolution": 5464, "Sigma": 5465, "Cont": 5466, "ĠSan": 5467, "oma": 5468, "Ġheavy": 5469, "ĠAp": 5470, "Ġindeed": 5471, "otimes": 5472, "From": 5473, "Ġincreases": 5474, "pers": 5475, "ĠYour": 5476, "èª": 5477, "ushed": 5478, "ls": 5479, "Ġphone": 5480, "ĠPark": 5481, "ĠJune": 5482, "-re": 5483, "inese": 5484, "Ġreasons": 5485, "Ġeffort": 5486, "Ġfinite": 5487, "Ġexplain": 5488, "ĠMus": 5489, "136": 5490, "_g": 5491, "rows": 5492, "RI": 5493, "&#": 5494, "ita": 5495, "Ġprocedure": 5496, "Ġstring": 5497, "clude": 5498, ">H": 5499, "Ġdanger": 5500, "atin": 5501, "ÑĥÑĤ": 5502, "Ġpeace": 5503, "ayout": 5504, "Ġuna": 5505, ",f": 5506, "isl": 5507, "ZG": 5508, "CA": 5509, "Ġproport": 5510, "idge": 5511, ".r": 5512, "Ġchance": 5513, "Ġhar": 5514, "MP": 5515, "can": 5516, "133": 5517, "Ġpas": 5518, "-Ċ": 5519, "Ð½ÑĭÐ¹": 5520, "Ġult": 5521, "jection": 5522, "iced": 5523, "132": 5524, "204": 5525, "ĠÐ¶": 5526, "ĠRed": 5527, "Ġprove": 5528, "ĠHam": 5529, "umer": 5530, "Ġpal": 5531, "DS": 5532, "Ġtwenty": 5533, "Ġstrategy": 5534, "lease": 5535, "Ġmessage": 5536, "Ġquantum": 5537, "ipp": 5538, "ilies": 5539, "Ġarrang": 5540, "ete": 5541, "Ġmeasures": 5542, "))Ċ": 5543, "156": 5544, "ĠSocial": 5545, "Ð¸Ðµ": 5546, "abil": 5547, "ĠMiss": 5548, "Ð´Ð°": 5549, "Ġnames": 5550, "atus": 5551, "Ġeffic": 5552, "166": 5553, "MG": 5554, "Ġactions": 5555, "ava": 5556, "ĠEast": 5557, "rite": 5558, "Ġburn": 5559, "ĠMost": 5560, "ĠMac": 5561, "337": 5562, "html": 5563, "ĠFe": 5564, "isted": 5565, "riage": 5566, "Ġunivers": 5567, "Ġcultural": 5568, "Ð¸Ñħ": 5569, "Am": 5570, "ĠBecause": 5571, "Ġspin": 5572, "ria": 5573, ",p": 5574, ":t": 5575, "Ġadjust": 5576, "Ġopened": 5577, "Ġ--": 5578, "irty": 5579, "Ġzu": 5580, "Ġpure": 5581, "cup": 5582, "Ġprofessional": 5583, "143": 5584, "Ġtransition": 5585, "Ġsales": 5586, "-T": 5587, "Ġcook": 5588, "ĠTest": 5589, "else": 5590, "amental": 5591, "ĠSur": 5592, "145": 5593, "153": 5594, "Ġmanner": 5595, "empor": 5596, "ancing": 5597, "ĠWashington": 5598, "Ġbirth": 5599, "ude": 5600, "vi": 5601, ";stroke": 5602, "141": 5603, "QQ": 5604, "Ã±": 5605, "-year": 5606, "Ġlabel": 5607, "Ġbill": 5608, "ĠEqu": 5609, "Ġfif": 5610, "aker": 5611, "ĠBi": 5612, "ander": 5613, "171": 5614, "Ġinteg": 5615, "178": 5616, "CL": 5617, "ĠIndian": 5618, "ĠOb": 5619, "Ġheight": 5620, "Ġestablish": 5621, "Ġ$^{": 5622, "Ġbelief": 5623, "Ġprepar": 5624, "qquad": 5625, ",M": 5626, "ÑĥÑİ": 5627, "ZD": 5628, "Ġdrink": 5629, "Ġintroduced": 5630, "138": 5631, "Ġanimals": 5632, "force": 5633, "Ġchemical": 5634, "=a": 5635, "Ġplaces": 5636, ".âĢĿ": 5637, "(l": 5638, "ĠFrance": 5639, "ua": 5640, "Ġnoted": 5641, "-R": 5642, "........": 5643, "-G": 5644, "Ġarticle": 5645, "Ġcapacity": 5646, "Ġnoise": 5647, ".T": 5648, "================================": 5649, "ĠÑĦ": 5650, "Ġsin": 5651, "Ġtiss": 5652, "Ġidentified": 5653, "Mi": 5654, "nes": 5655, "ĠTwo": 5656, "(f": 5657, "ras": 5658, "ario": 5659, "Ġcool": 5660, "ĠArt": 5661, "Ġsuggested": 5662, "ober": 5663, "aciÃ³n": 5664, "abs": 5665, "ĠSept": 5666, "ĠIII": 5667, "ornia": 5668, "Ġabsor": 5669, "Ġdry": 5670, "Ġneut": 5671, "Ġidentity": 5672, "Ġpiece": 5673, "-of": 5674, "161": 5675, "010": 5676, "Ġgoal": 5677, "oi": 5678, "ĠEach": 5679, ".W": 5680, "Ġincor": 5681, "875": 5682, "Ed": 5683, "Ġrise": 5684, "Ġsuccessful": 5685, "ĠAugust": 5686, "mercial": 5687, "Ġbottom": 5688, "(d": 5689, "-th": 5690, "nce": 5691, "Ġlocation": 5692, "625": 5693, "Ġsac": 5694, "155": 5695, "Ġboard": 5696, "}$Ċ": 5697, "Ġclasses": 5698, "Ġlearned": 5699, "fered": 5700, "Ġdoubt": 5701, "Ġimplic": 5702, "Az": 5703, "frame": 5704, "Ġmentioned": 5705, "Ġmanif": 5706, "Ġwa": 5707, "Ġformed": 5708, "Ġisn": 5709, "ĠGo": 5710, "Ġcop": 5711, "gress": 5712, "Ġhous": 5713, "Ġoperations": 5714, "imensional": 5715, "Ġrelevant": 5716, "Ġvill": 5717, "hest": 5718, "168": 5719, "YT": 5720, "Ġseparate": 5721, "Ġappeared": 5722, "177": 5723, "ĠProf": 5724, "âĢĶthe": 5725, "ĠCourt": 5726, "Ġpages": 5727, "widet": 5728, "widetilde": 5729, "Com": 5730, "137": 5731, "Ġwish": 5732, "Ġresid": 5733, "ĠHen": 5734, "Ġur": 5735, "Ġcoordin": 5736, "Sp": 5737, "poses": 5738, "Ġrac": 5739, "ĠÐ¡": 5740, "ĠPresident": 5741, "rael": 5742, "Ġonline": 5743, "PT": 5744, "Ġmur": 5745, "Ġconcentration": 5746, "inciples": 5747, "ini": 5748, "ĠAssociation": 5749, "ĠInstitute": 5750, "Ġtrack": 5751, "El": 5752, "Ġbeautiful": 5753, "Ġfailure": 5754, "Ġdaily": 5755, "Ġsupply": 5756, "ãĥ»": 5757, "Ġliqu": 5758, "iliar": 5759, "134": 5760, "Ġprinciple": 5761, "Ġexhib": 5762, "Ġexpressed": 5763, "Ġmedic": 5764, "ye": 5765, "Ġsmooth": 5766, "Ġtherm": 5767, "();Ċ": 5768, "Ġsav": 5769, ".png": 5770, ".I": 5771, "UB": 5772, ".G": 5773, "165": 5774, "cis": 5775, "Ġplot": 5776, "ĠOff": 5777, "abilities": 5778, "othing": 5779, "Ġcharacteristics": 5780, "otes": 5781, "ĠStreet": 5782, "Ġvir": 5783, "Ġformula": 5784, "ĠClass": 5785, "long": 5786, "Ġgrowing": 5787, "Ġcast": 5788, "wK": 5789, "ESS": 5790, "cious": 5791, "linear": 5792, "Ġsafe": 5793, "Ġsoul": 5794, "ultural": 5795, "Ġrepresentation": 5796, "ĠMart": 5797, "-sh": 5798, "-a": 5799, "176": 5800, "])Ċ": 5801, "Ġvertical": 5802, "Wx": 5803, "NC": 5804, "OB": 5805, "zing": 5806, "reci": 5807, "ĠNote": 5808, "Ġlat": 5809, "167": 5810, "AAAAAAAAAAAAAAAAAAAAAAAAAAAAAAAA": 5811, "Ġexperiments": 5812, "het": 5813, "ĠEst": 5814, "Ġresulting": 5815, "ĠWhite": 5816, ")(": 5817, "Ġpatterns": 5818, "sv": 5819, "fection": 5820, "Ġopportunity": 5821, "Text": 5822, "Ġreality": 5823, "Ġextent": 5824, "ĠGeorge": 5825, "]),": 5826, "Ġpun": 5827, "Ġscen": 5828, "Ġrock": 5829, "Des": 5830, "Ġ\\}$": 5831, "-pro": 5832, "Ġ?": 5833, "Ġmode": 5834, "Ġisol": 5835, "Ġoccurs": 5836, "/v": 5837, "Ġslightly": 5838, "ĠÑĩÑĤÐ¾": 5839, "Ġstudied": 5840, "UD": 5841, "List": 5842, "Ġded": 5843, "Ġphenomen": 5844, "ĠGree": 5845, "ĠSuch": 5846, "ometry": 5847, "=i": 5848, "Ġstrugg": 5849, "Ġna": 5850, "ados": 5851, "Ġgenerated": 5852, "Ġideal": 5853, "ĠMarch": 5854, "HT": 5855, "Ġplane": 5856, "Ġoverall": 5857, "/Ċ": 5858, ",y": 5859, "kt": 5860, "Ġfarm": 5861, "nam": 5862, "149": 5863, "ĠCenter": 5864, "Ġdomain": 5865, "Ġgeneration": 5866, "pen": 5867, ")),": 5868, "bm": 5869, "EV": 5870, "Ġsoftware": 5871, "Ġpolic": 5872, "bal": 5873, "hors": 5874, "Me": 5875, "Ġfru": 5876, "Ġidentify": 5877, "Ġserve": 5878, "Ġattract": 5879, "bi": 5880, "ĠGovern": 5881, "lands": 5882, "Ġdied": 5883, "ido": 5884, "HR": 5885, "Ġhol": 5886, "Ġsynthe": 5887, "Ġcurve": 5888, "osph": 5889, "Ġrecently": 5890, "Ġschools": 5891, "aughter": 5892, "ĠDevelop": 5893, "Ġtim": 5894, "Ġdescription": 5895, "Xiv": 5896, "Ġconnection": 5897, "ĠJack": 5898, "ĠÂ«": 5899, "Ġconcerned": 5900, "ĠMary": 5901, "ĠJuly": 5902, "ĠPsych": 5903, "uild": 5904, "Er": 5905, "148": 5906, "Ġmob": 5907, "erved": 5908, "ball": 5909, "147": 5910, "Ġcollection": 5911, "ELB": 5912, "\"+": 5913, "kw": 5914, "Ġrepro": 5915, "anging": 5916, "Ġprefer": 5917, "=!": 5918, "Ġleads": 5919, "FO": 5920, "stein": 5921, "Ġdrive": 5922, "åĨħå®¹": 5923, "Ġbalance": 5924, "169": 5925, "164": 5926, "ĠPal": 5927, "Ġvideo": 5928, "Ġdescribe": 5929, "Ġauthority": 5930, "neq": 5931, "Ġreturned": 5932, "Ġconnected": 5933, "time": 5934, "Ġequipment": 5935, "________________________________": 5936, "Ġgain": 5937, "Ġlaws": 5938, "ivation": 5939, "162": 5940, "Ġconfig": 5941, "Ġquiet": 5942, "Ãº": 5943, "Ġlooks": 5944, "Ġtests": 5945, "Ġrelationships": 5946, "Ġmist": 5947, "\".": 5948, "Ġsurround": 5949, "ĠPhil": 5950, "rer": 5951, "Ġdos": 5952, "Ġrequest": 5953, "case": 5954, "Ġitems": 5955, "Ġbenefits": 5956, "Ġexisting": 5957, "154": 5958, "ishes": 5959, "rane": 5960, "Ġscore": 5961, "\\{": 5962, "resents": 5963, "Ġcomparison": 5964, "select": 5965, "PC": 5966, "ĠMany": 5967, "EW": 5968, "ĠÐ¿Ð¾Ð´": 5969, "Ġmedium": 5970, "173": 5971, "After": 5972, "Ġpolice": 5973, "Ġcontinu": 5974, "path": 5975, "Ġje": 5976, "Ġsexual": 5977, "003": 5978, "Ġequivalent": 5979, ".is": 5980, "Ġaspects": 5981, "ĠWil": 5982, "Ġanti": 5983, "cho": 5984, "mary": 5985, "uy": 5986, "({": 5987, "Ġstation": 5988, "ĠSol": 5989, "Ġmarg": 5990, "Ġwalked": 5991, "Ġsubsequ": 5992, "Ġran": 5993, "ÐµÑģ": 5994, "256": 5995, "gence": 5996, "alysis": 5997, "overy": 5998, "146": 5999, "ĠArm": 6000, "ĠNet": 6001, "ĠRem": 6002, "Ġlaugh": 6003, "eline": 6004, "arian": 6005, "Ġunf": 6006, "Ġflat": 6007, "arn": 6008, "ĠDi": 6009, "XX": 6010, ",b": 6011, "oyal": 6012, "163": 6013, "Ġmoral": 6014, "Ġminimum": 6015, "Ġelectr": 6016, "uted": 6017, "Ġprepared": 6018, "Ġtempor": 6019, "Ġpeak": 6020, "Ġplants": 6021, "AND": 6022, "Ġmagnetic": 6023, "Ġadvantage": 6024, "Ġregions": 6025, "ZT": 6026, "ĠÐ´Ð»Ñı": 6027, "Ey": 6028, "Ġexperimental": 6029, "Ġpaid": 6030, "rees": 6031, "cf": 6032, "Ġtalking": 6033, "Ġcertainly": 6034, "utive": 6035, "ipped": 6036, "Ġclient": 6037, "ague": 6038, "Ġuniform": 6039, "ĠChinese": 6040, "idation": 6041, "image": 6042, "Ġensure": 6043, "know": 6044, "Ġformal": 6045, "opl": 6046, ")/": 6047, "stood": 6048, "Ġampl": 6049, "Ym": 6050, "Ġcorpor": 6051, "Ġjoint": 6052, "acing": 6053, "Ġos": 6054, "cz": 6055, "Ġfreedom": 6056, "PH": 6057, "Ġclinical": 6058, "Ġfresh": 6059, "ker": 6060, "Ġcopy": 6061, "âĢĶand": 6062, "Ġtechnique": 6063, "Ð¸Ð·": 6064, "ÐµÐ²": 6065, "Ġrequirements": 6066, "Ġnation": 6067, "172": 6068, "ĠAre": 6069, "Ġexternal": 6070, "Ġexchange": 6071, "hi": 6072, "ĠReview": 6073, "ossible": 6074, "oming": 6075, "210": 6076, "}],": 6077, "ĠKe": 6078, "Ġagreement": 6079, "Ġteaching": 6080, "ells": 6081, "ĠSal": 6082, "ĠMath": 6083, "Par": 6084, "Ġuns": 6085, "ĠEvery": 6086, "-time": 6087, "ston": 6088, "URE": 6089, "mid": 6090, "Ġdut": 6091, "Ġboundary": 6092, "cher": 6093, "olf": 6094, "Ð¸Ñģ": 6095, "Ð¾Ñĩ": 6096, "Au": 6097, "ĠTO": 6098, "Ġangle": 6099, "Ġsuggests": 6100, "SC": 6101, "Ġvelocity": 6102, "Ġaccur": 6103, "ĠArch": 6104, "ĠTheir": 6105, "ĠDem": 6106, "model": 6107, "vo": 6108, "Ġeat": 6109, "ĠCalifornia": 6110, "666": 6111, "Ġplanning": 6112, "Ġdans": 6113, "Ġoperator": 6114, "ĠDan": 6115, "205": 6116, "Ġtheore": 6117, "null": 6118, "Ġselected": 6119, "Ġmiles": 6120, "Ġraised": 6121, "Ġsmile": 6122, "Ġolder": 6123, "ÑĥÐ´": 6124, "ln": 6125, "arter": 6126, "Ġhusband": 6127, "Ġconstraint": 6128, "Ġesc": 6129, "Ġhappy": 6130, "Ġmental": 6131, "stitution": 6132, ";\\": 6133, "Ġintr": 6134, "Ġfell": 6135, "Ġrepresents": 6136, "Ġindicate": 6137, "Ġprocessing": 6138, "Ġveh": 6139, "Ġcomfort": 6140, "AJ": 6141, "Ġgal": 6142, "Ġvent": 6143, "_data": 6144, "220": 6145, "Ġ{-": 6146, "Ġsympt": 6147, "KS": 6148, "itter": 6149, "Â»": 6150, "Ġtasks": 6151, "ĠÑĢÐ°Ð·": 6152, "Ġoffered": 6153, "Ġusers": 6154, "Ġcombination": 6155, "Ġsimpl": 6156, "Ġvisit": 6157, "Ġresponsible": 6158, "ansion": 6159, "stract": 6160, "agger": 6161, "ront": 6162, "Ġfing": 6163, "Ġist": 6164, "158": 6165, "QI": 6166, "Ġlie": 6167, "ĠThomas": 6168, "Ġproceed": 6169, "Ġhistorical": 6170, "Ġau": 6171, "Fl": 6172, "Ġhospital": 6173, "ÐµÐ½ÑĤ": 6174, "Ġcancer": 6175, "eed": 6176, "estic": 6177, ".sh": 6178, "Ã©e": 6179, "LL": 6180, "ags": 6181, "240": 6182, "Ġexplan": 6183, "ano": 6184, "Ġhref": 6185, "Ġmo": 6186, "ambridge": 6187, "ĠCollege": 6188, "Ġstarting": 6189, "arden": 6190, "-term": 6191, "ĠWork": 6192, "Ġring": 6193, "Ġmale": 6194, "ners": 6195, "Ġleaves": 6196, "cn": 6197, "Ġcontaining": 6198, "Ġpulled": 6199, ".In": 6200, "Ġsend": 6201, "udd": 6202, "230": 6203, "Ġarchitect": 6204, "La": 6205, "174": 6206, "HD": 6207, "Ġinterview": 6208, "je": 6209, "zeta": 6210, "Ġauthors": 6211, "ÑıÑĤ": 6212, "String": 6213, "ÑĥÑĩ": 6214, "Ġcriter": 6215, "GE": 6216, "ena": 6217, "ÐµÑĢÐµ": 6218, "Ġstream": 6219, "Ġreceive": 6220, "Ġnone": 6221, "Ġthr": 6222, "222": 6223, "Ġselection": 6224, "height": 6225, "ologies": 6226, "Ġcouple": 6227, "Ġfamilies": 6228, "appe": 6229, "GB": 6230, "ville": 6231, "Ġtrees": 6232, "Ġnut": 6233, "ĠRobert": 6234, "ĠLou": 6235, "Ġvary": 6236, "Ġmes": 6237, "Ġmetal": 6238, "Ġuncertain": 6239, "Ġholds": 6240, "ĠPR": 6241, "Ġinstr": 6242, "greg": 6243, "apping": 6244, "ora": 6245, "Ġsubstant": 6246, "Ġotherwise": 6247, "Ġreduction": 6248, "Ġpresident": 6249, "ĠApril": 6250, "ipe": 6251, "Ġcandid": 6252, "/j": 6253, "Ġpowerful": 6254, "ĠGra": 6255, "Ġteacher": 6256, "Ġalternative": 6257, "Ġcomo": 6258, "icago": 6259, "mann": 6260, "Ġpractical": 6261, "Ġelectron": 6262, "Ġnp": 6263, "ocy": 6264, "Ġwin": 6265, "AW": 6266, "images": 6267, "rey": 6268, "ulture": 6269, ")},": 6270, "Ġexercise": 6271, "Object": 6272, "Ġpros": 6273, "Ġsites": 6274, "olved": 6275, "izer": 6276, "Ġcovered": 6277, "Ġpet": 6278, "Ġstanding": 6279, "Ġtool": 6280, "Ġseven": 6281, "bn": 6282, "Ġcos": 6283, "ĠCON": 6284, "ĠCanada": 6285, "Ġcalculated": 6286, "Ġpreviously": 6287, "Ġstopped": 6288, "Ġyield": 6289, "itis": 6290, "IST": 6291, "CP": 6292, "Ġchair": 6293, "Ġresistance": 6294, "Ġspent": 6295, "Ġspeech": 6296, "iller": 6297, "pol": 6298, "ĠUnder": 6299, "ĠBen": 6300, "Ġwit": 6301, "Ġ$|": 6302, "rim": 6303, "Ġtreated": 6304, "Ġconscious": 6305, "Ġframework": 6306, "ĠPublic": 6307, "Ġefficient": 6308, "coh": 6309, "Ġelectric": 6310, "=#": 6311, "Ġcompre": 6312, "ÃŃa": 6313, "Ġderived": 6314, "ĠCompany": 6315, "Ġtight": 6316, "\");": 6317, "Ġefforts": 6318, "Ġborn": 6319, "Ġanimal": 6320, "ilit": 6321, "Ġexplained": 6322, ")-": 6323, "Nm": 6324, "Ġcomment": 6325, "Co": 6326, "Ġmel": 6327, "CM": 6328, "useum": 6329, "Ġslowly": 6330, "ÑĢÐ°Ð²": 6331, "Ġhappen": 6332, "ĠIndia": 6333, ">$": 6334, "ĠIsrael": 6335, ":href": 6336, "flow": 6337, "ferent": 6338, "Ġparallel": 6339, "().": 6340, "ographic": 6341, "[\"": 6342, "DR": 6343, "Ġfinding": 6344, "Ġtorch": 6345, "Ġrot": 6346, "UG": 6347, "Ġoffers": 6348, "ulf": 6349, "Ġnotice": 6350, "Ġgun": 6351, "Ġchosen": 6352, "Ġnetworks": 6353, "ĠBel": 6354, "teen": 6355, "Ġminor": 6356, "Ġsafety": 6357, "Ġdistingu": 6358, "Ġfundamental": 6359, "ĠGermany": 6360, "cember": 6361, "Ġcircumst": 6362, "Ġstore": 6363, "ĠDiv": 6364, "ĠUse": 6365, "Ġseason": 6366, "Ġiron": 6367, "Ġestimate": 6368, "Ġ..": 6369, "Ġcauses": 6370, "ader": 6371, "](": 6372, "omorph": 6373, ">E": 6374, "nt": 6375, "appro": 6376, "ĠCouncil": 6377, "Ġintellig": 6378, "Ġradio": 6379, "ĠDet": 6380, "ĠStep": 6381, "ĠMoreover": 6382, "ildren": 6383, "Ġinfin": 6384, "ĠNat": 6385, "Ġxlink": 6386, "gin": 6387, "Ġbow": 6388, "Ġspectrum": 6389, "See": 6390, "\"What": 6391, "Ġempt": 6392, "Ġapproaches": 6393, "Ġjo": 6394, "uer": 6395, "Ġà¤": 6396, "ĠFOR": 6397, "Ġinterested": 6398, "}}{": 6399, "Ġagent": 6400, "Ġdepends": 6401, "Ġmaster": 6402, "Ġtools": 6403, "ĠUsing": 6404, "Ġsummer": 6405, "Ġnarrow": 6406, "Ġevaluation": 6407, "ĠFeb": 6408, "Ġroot": 6409, "ĠGen": 6410, "Ġhit": 6411, "_acc": 6412, "Ġwidth": 6413, "Ġbright": 6414, "Ġpossess": 6415, "Ġmas": 6416, "700": 6417, "ĠEconom": 6418, "ĠElect": 6419, "board": 6420, "pd": 6421, "_col": 6422, "uke": 6423, "Ġwild": 6424, "ĠChem": 6425, "eless": 6426, "lies": 6427, "ocked": 6428, "Ġpossibility": 6429, "Ġauf": 6430, "AX": 6431, "ĠSec": 6432, "ĠConference": 6433, "Ġinvolve": 6434, "omic": 6435, "Ġinhib": 6436, "Ġcore": 6437, ",u": 6438, "Ġdial": 6439, "Ġinterests": 6440, "down": 6441, "uv": 6442, "LD": 6443, "script": 6444, "Ġrout": 6445, "Ġhadn": 6446, "Ġox": 6447, "Ġdesire": 6448, "Ġrich": 6449, "}),": 6450, "Ġconsistent": 6451, "Ġtherapy": 6452, "ĠAlso": 6453, "/n": 6454, "Ġeconomy": 6455, "anted": 6456, "Ġ]$": 6457, "antly": 6458, "Ġrepresented": 6459, "FR": 6460, "Ġprot": 6461, "alog": 6462, "Ġtesting": 6463, "jo": 6464, "Ġnucle": 6465, "Ġcitiz": 6466, "ingly": 6467, "pected": 6468, "phone": 6469, "Ã¡s": 6470, "usiness": 6471, "/g": 6472, "atically": 6473, "ĠHistory": 6474, "outhern": 6475, "ĠFin": 6476, "onent": 6477, "Ġhoriz": 6478, "Sc": 6479, "ervation": 6480, "Ġdecisions": 6481, "ĠIS": 6482, "Ġwaiting": 6483, "Ġdoll": 6484, "edge": 6485, "Ġwel": 6486, "Ġgod": 6487, "ptions": 6488, "Ġcomplic": 6489, "Ġ|Ċ": 6490, "Ġsides": 6491, "Ġbra": 6492, "Ġcarbon": 6493, "ĠEducation": 6494, "Ġorient": 6495, "amily": 6496, "LS": 6497, "orage": 6498, "rep": 6499, "'S": 6500, "Ġdepth": 6501, "Ġbaby": 6502, "opic": 6503, "Ġexpand": 6504, "Ġproviding": 6505, "Ġtouch": 6506, "oken": 6507, "=Math": 6508, "Ġleaving": 6509, "Ġfemale": 6510, "ĠTraining": 6511, "/M": 6512, "van": 6513, "Ġprem": 6514, "Ġteachers": 6515, "Ġsubjects": 6516, "kg": 6517, "212": 6518, "ocol": 6519, ">\\": 6520, "ĠGreat": 6521, "ĠMal": 6522, "Ġlived": 6523, "Ġplans": 6524, "Qw": 6525, "ĠZh": 6526, "Ġremoved": 6527, "Ġcolon": 6528, "osing": 6529, "ilib": 6530, "Ġunderstood": 6531, "ĠCongress": 6532, "edy": 6533, "WF": 6534, "Ġtour": 6535, "iated": 6536, "uffer": 6537, "Ġpul": 6538, "Ã´": 6539, "othe": 6540, "Â°": 6541, "Ġexplicit": 6542, "OO": 6543, "ovember": 6544, "anges": 6545, "ifically": 6546, "ella": 6547, "ĠfÃ¼r": 6548, "Ġsusp": 6549, "cu": 6550, "\"],": 6551, "Ġdevice": 6552, "*,": 6553, "PD": 6554, "Ġsupported": 6555, "ĠSecond": 6556, "string": 6557, ".py": 6558, "onents": 6559, "zed": 6560, "Ġremark": 6561, "ĠĠĠĠĠĠĠĠĠĠĠĠĠĠĠĠĠ": 6562, "?'": 6563, "TT": 6564, "Ġvision": 6565, "oration": 6566, "Ġdamage": 6567, "ipl": 6568, "Ġjour": 6569, "ĠÐļ": 6570, "Ġimplies": 6571, "Ġkit": 6572, "Ġfilled": 6573, "Ġtrac": 6574, "default": 6575, "ilton": 6576, "Ġscientific": 6577, "Ġfloat": 6578, "Ig": 6579, "how": 6580, "kay": 6581, "Ġhypothes": 6582, "Here": 6583, "venue": 6584, "Ġdiam": 6585, ":!": 6586, "Ġcommercial": 6587, "Ġqui": 6588, "standing": 6589, "icks": 6590, "sm": 6591, "Ġwhatever": 6592, "ĠWestern": 6593, "Ġsong": 6594, "Ġfrequently": 6595, "Ġborder": 6596, "/D": 6597, "itudes": 6598, "/C": 6599, "Ġindustrial": 6600, "Ġobservations": 6601, "aren": 6602, "Ġshowing": 6603, "Ġprotection": 6604, "vd": 6605, "rium": 6606, "Ġlib": 6607, "Ð°Ñı": 6608, "Ġnarr": 6609, "Ġcrow": 6610, "Ġapproximately": 6611, "Ġindicated": 6612, "Ġextended": 6613, "Ġknows": 6614, "state": 6615, "oving": 6616, "Ġpretty": 6617, "Ġinvestment": 6618, "Ġcolle": 6619, "à¥į": 6620, "ĠParis": 6621, "widehat": 6622, "Ġmort": 6623, "ĠRoman": 6624, "kl": 6625, "ĠAlex": 6626, "Ġmechanism": 6627, "Ġnorth": 6628, "ĠDec": 6629, "aign": 6630, "ĠPo": 6631, "\"></": 6632, "uh": 6633, "ademic": 6634, "Ġdeveloping": 6635, "005": 6636, "ĠOut": 6637, "Ġparticles": 6638, "idel": 6639, "rier": 6640, "208": 6641, "Ġforg": 6642, "Ġspot": 6643, "Ġchain": 6644, "Ġfamiliar": 6645, "360": 6646, "Ġprinciples": 6647, "225": 6648, "900": 6649, "Ġta": 6650, "xford": 6651, "Ġsave": 6652, "isher": 6653, "Ġgar": 6654, "/S": 6655, "Ġexperiences": 6656, "Ġyes": 6657, "ĠÑĤÐ°Ðº": 6658, "Ġremained": 6659, "Ġnodes": 6660, "values": 6661, "while": 6662, "UC": 6663, "Ġmajority": 6664, "xx": 6665, "Ġframe": 6666, "Ġneither": 6667, "Î±": 6668, "ĠAfrica": 6669, "ÐµÑģÑĤ": 6670, "Ġplate": 6671, "Ew": 6672, "vol": 6673, "')": 6674, "Ġcryst": 6675, "Ġpractices": 6676, "Ġexpos": 6677, "Ð°Ñģ": 6678, "ellect": 6679, "dr": 6680, "Ġfraction": 6681, "EEE": 6682, "ĠTH": 6683, "ĠPeter": 6684, "ĠSeptember": 6685, "Ġenem": 6686, "Ġlocated": 6687, "orry": 6688, "Ġhat": 6689, "Ġshift": 6690, "Ġplayed": 6691, "ela": 6692, "img": 6693, "ĠÐĿ": 6694, "ĠLear": 6695, "mic": 6696, "Ġvac": 6697, "ĠJer": 6698, "lam": 6699, "ĠTime": 6700, "athe": 6701, "Ġcomposition": 6702, "207": 6703, "Per": 6704, "Ð¸Ð¹": 6705, "Ġholding": 6706, "param": 6707, "Ġchest": 6708, "Ġdimension": 6709, "ĠHel": 6710, "ellent": 6711, "ĠForm": 6712, "Ġmal": 6713, "ĠÐ¿Ð¾Ð»": 6714, "Ġreports": 6715, "rot": 6716, "Ġfish": 6717, "inder": 6718, "Ġbenefit": 6719, "ceived": 6720, "Ġben": 6721, "Ġclim": 6722, "Ġtum": 6723, "ashion": 6724, "anned": 6725, "ĠUnion": 6726, "Ġneighbor": 6727, "Ġpersons": 6728, "Ð¸Ð´": 6729, "Ġmerely": 6730, "oto": 6731, "ws": 6732, "ollow": 6733, "Ġaware": 6734, "BS": 6735, "ĠDNA": 6736, "oviet": 6737, "ĠMass": 6738, "Ġencourag": 6739, "aW": 6740, "Ġmathemat": 6741, "Ġsurvey": 6742, "App": 6743, "ĠProcess": 6744, "Ġgrav": 6745, "Ġstandards": 6746, "Ġmix": 6747, "Ġcritic": 6748, "Index": 6749, "ails": 6750, "ÑģÐµ": 6751, "eq": 6752, "ĠGroup": 6753, "Zh": 6754, ".),": 6755, "ĠÏ": 6756, "ĠJanuary": 6757, "Ġenvironmental": 6758, "ĠInformation": 6759, "PL": 6760, "Ġcycle": 6761, "Ġconnect": 6762, "211": 6763, "'],": 6764, "Ġhighest": 6765, "Ġstories": 6766, "ĠMex": 6767, "ÃŁ": 6768, "Ġarguments": 6769, "duction": 6770, "oes": 6771, "ĠAD": 6772, "rig": 6773, "Ġdaughter": 6774, "Ġbelieved": 6775, ">=": 6776, "Ġing": 6777, "Ġfrag": 6778, "Ġshif": 6779, "urban": 6780, "Ġaccepted": 6781, "Ġassumed": 6782, "dataframe": 6783, "Ġprices": 6784, "eli": 6785, "gw": 6786, "ĠSmith": 6787, "ĠAustral": 6788, "Ġshared": 6789, "zym": 6790, "eness": 6791, "004": 6792, "Ġthin": 6793, "Ġ$\\{": 6794, "\\frac": 6795, "-ch": 6796, "Ġspat": 6797, "{H": 6798, "Ġtypical": 6799, "æ±ī": 6800, "istical": 6801, "ĠOh": 6802, "ÐŁ": 6803, "Mod": 6804, "Ġneck": 6805, "EA": 6806, "Ġstrategies": 6807, "Ġship": 6808, "Ġrank": 6809, "ĠÂ£": 6810, "(p": 6811, "ĠStat": 6812, "Ġstars": 6813, "[r": 6814, "Ġexcess": 6815, "Ġusual": 6816, ",A": 6817, "ĠFre": 6818, "aneous": 6819, "itative": 6820, "Ġgirls": 6821, "ĠService": 6822, "GR": 6823, "Ġcalls": 6824, "user": 6825, "Ġsust": 6826, "cel": 6827, "roduction": 6828, "Ġtrend": 6829, "Ġscene": 6830, "ona": 6831, "ĠBra": 6832, "Ġhence": 6833, "Ġwhis": 6834, "ĠOctober": 6835, "asp": 6836, "ĠRichard": 6837, "Ġshot": 6838, "Ġforest": 6839, "_r": 6840, "ĠETA": 6841, "Ġrace": 6842, "Ġopinion": 6843, "Ġinner": 6844, "Ġmeasurements": 6845, "Ġwants": 6846, "Ġopposite": 6847, "Ġvit": 6848, "Ġrational": 6849, "Ġnamed": 6850, "ĠBoth": 6851, "Color": 6852, "Ġlegisl": 6853, "Ġrepeated": 6854, "Ġencoun": 6855, "Ġrelease": 6856, "oster": 6857, "Ġguess": 6858, "Ġ$[": 6859, "istant": 6860, "Ġviews": 6861, "Ġdress": 6862, "ĠSpr": 6863, "ÑĭÐµ": 6864, "+=": 6865, "cks": 6866, "Ġans": 6867, "Iy": 6868, "Ġminim": 6869, "uries": 6870, "Ġperspective": 6871, ".(": 6872, "Ġ$=": 6873, "equiv": 6874, "-and": 6875, "Ġdetailed": 6876, "ifier": 6877, "ĠMa": 6878, "ĠIV": 6879, "bid": 6880, "ĠMag": 6881, "Up": 6882, "Ġnotes": 6883, "ĠCO": 6884, "abase": 6885, "CO": 6886, "}^": 6887, "Ġlips": 6888, "Time": 6889, "Ġgoods": 6890, "FT": 6891, ",but": 6892, "////": 6893, "Ġfigures": 6894, "MB": 6895, "unic": 6896, "Ġcond": 6897, "-the": 6898, "acters": 6899, "Ġfort": 6900, "350": 6901, "!!": 6902, "/P": 6903, "ÐºÑĥ": 6904, "[e": 6905, "Ġchannel": 6906, "Ġachieved": 6907, "ĠFour": 6908, "Ġma": 6909, "uses": 6910, "Ġsuddenly": 6911, "Ġunless": 6912, "Ġletters": 6913, "ĠSat": 6914, "Ġflex": 6915, "Ġtom": 6916, "},Ċ": 6917, "ĠDevelopment": 6918, "Ay": 6919, "sk": 6920, "Ġours": 6921, ";++": 6922, "Ġleaders": 6923, "Ġliquid": 6924, "Ġorganizations": 6925, "Ġfingers": 6926, "Ġalign": 6927, "Ġresponsibility": 6928, "Ġrub": 6929, "Ġsand": 6930, "-like": 6931, "ĠModel": 6932, "Ġwhereas": 6933, "Ġimpossible": 6934, "Ġmountain": 6935, "Ġsouth": 6936, "ethyl": 6937, "-W": 6938, "uzz": 6939, "ĠAnt": 6940, "Ġdrop": 6941, "ĠPort": 6942, "Ġhall": 6943, "Ġappreci": 6944, "ĠGreen": 6945, "ĠUSA": 6946, "CS": 6947, "ĠIts": 6948, "Ġstreet": 6949, "Ġsoil": 6950, "using": 6951, "lete": 6952, "ĠFrank": 6953, "udget": 6954, "Ġcaught": 6955, "Ġdiet": 6956, "conds": 6957, "Ġgent": 6958, "Ġtypically": 6959, "Ġplease": 6960, "Ġfinished": 6961, "rog": 6962, "Ġvot": 6963, "Ġstable": 6964, "elle": 6965, "Ġmeasurement": 6966, "ounced": 6967, "Ġansw": 6968, "Psi": 6969, "Ġremaining": 6970, "Ġmarked": 6971, "attributes": 6972, "Ġindicates": 6973, "ĠOver": 6974, "Ġpolar": 6975, "Ġ$(\\": 6976, "Ġcircumstances": 6977, "Ġcombined": 6978, "Ste": 6979, "218": 6980, "Ġ)Ċ": 6981, "Ġefficiency": 6982, "ivate": 6983, "Ġalgebra": 6984, "ĠFrancis": 6985, "load": 6986, "BN": 6987, "char": 6988, "PA": 6989, "Ġadop": 6990, "Ġsight": 6991, "rend": 6992, "atform": 6993, "Ġcollege": 6994, "Ġamb": 6995, "Mu": 6996, "Fe": 6997, "Ġreform": 6998, "Ġnode": 6999, "mas": 7000, "Ġdri": 7001, "ĠrÃ©": 7002, "LY": 7003, "ĠMo": 7004, "star": 7005, "Ġincorpor": 7006, "mosp": 7007, "idad": 7008, "attr": 7009, "cG": 7010, "gb": 7011, "urally": 7012, "oding": 7013, "ĠExper": 7014, "ĠOnly": 7015, "Ġtrial": 7016, "Ġrelax": 7017, "]:": 7018, "Ġfunctional": 7019, "\"It": 7020, "Ġtal": 7021, "Ġ=>": 7022, "ĠÐºÐ°Ðº": 7023, "ĠAccording": 7024, "NR": 7025, "ĠarXiv": 7026, "ĠMethod": 7027, "rome": 7028, "ĠFinally": 7029, "ĠLife": 7030, "ĠYet": 7031, "abled": 7032, "^{-": 7033, ".N": 7034, "Ġexpansion": 7035, "Ð°Ð·": 7036, "ĠCharles": 7037, "Ġinstitutions": 7038, "Ġuma": 7039, "-de": 7040, "house": 7041, "Ġgets": 7042, "AO": 7043, "Ġtechnical": 7044, "ĠCath": 7045, "uce": 7046, "Ġserved": 7047, "Ġconsists": 7048, "Ġderiv": 7049, "Ġanx": 7050, "ĠMer": 7051, "Ġscheme": 7052, "Ġestimated": 7053, "ilibrium": 7054, "Ġsubm": 7055, "Ġchallenge": 7056, "Ġappoint": 7057, "Ġchief": 7058, "Ġlargest": 7059, "-dimensional": 7060, "à¸Ńà¸ļ": 7061, "PI": 7062, "EY": 7063, "Ġrough": 7064, "Ġcorner": 7065, "Ġerrors": 7066, "Ġagents": 7067, "ĠFore": 7068, "Ni": 7069, "orthern": 7070, "Ġinteractions": 7071, "ĠJud": 7072, "pled": 7073, "perty": 7074, "ĠHence": 7075, "ĠRob": 7076, "Ġsubt": 7077, "Ġagree": 7078, "Pi": 7079, "Ġcommit": 7080, ".app": 7081, "enses": 7082, "bitr": 7083, "cs": 7084, "cluded": 7085, "ĠHenry": 7086, "aze": 7087, "ĠGood": 7088, "Ġemployees": 7089, "These": 7090, "Ġpositions": 7091, "ogene": 7092, "actor": 7093, "ĠChicago": 7094, "ZS": 7095, "Ġalt": 7096, "Ġmission": 7097, "ĠLemma": 7098, "Em": 7099, "content": 7100, "Ġpurposes": 7101, "]</": 7102, "ald": 7103, "/h": 7104, "comes": 7105, "Ġmatch": 7106, "Ġsupposed": 7107, "ruary": 7108, "206": 7109, "Ġmine": 7110, ".html": 7111, "Ġpolicies": 7112, "Es": 7113, "Ġthoughts": 7114, "Ġdoctor": 7115, "ĠMax": 7116, "cha": 7117, "ĠDecember": 7118, "ĠSoviet": 7119, "ĠBig": 7120, "=fill": 7121, "break": 7122, "Ġinvolves": 7123, "(o": 7124, "otion": 7125, "iders": 7126, "Ah": 7127, "Ġ||": 7128, "Ġinsp": 7129, "ĠFound": 7130, "ometric": 7131, "Ġegg": 7132, "Ġentirely": 7133, "Ġanalog": 7134, "Ġdetection": 7135, "Ġinstitution": 7136, "Ġinterpretation": 7137, "related": 7138, "ige": 7139, "Ġancient": 7140, "word": 7141, "Ġ=$": 7142, "emporary": 7143, "win": 7144, "Ġscreen": 7145, "Ġreligion": 7146, "ibilities": 7147, "Ġreplace": 7148, "nic": 7149, "Ġcircle": 7150, "-cent": 7151, "ÐµÑĩ": 7152, "Ro": 7153, "{Ċ": 7154, "Ġload": 7155, "rank": 7156, "aked": 7157, "there": 7158, "Iw": 7159, "Ġprincipal": 7160, "Ġcloser": 7161, "ician": 7162, "Ġmarriage": 7163, "Proof": 7164, "apped": 7165, "Ġcontribution": 7166, "Ġaccomp": 7167, "ani": 7168, "Ġsymptoms": 7169, "real": 7170, "ĠAfrican": 7171, "Ġpieces": 7172, "ĠHall": 7173, "III": 7174, "calc": 7175, "orders": 7176, "209": 7177, "Ġcareer": 7178, "Ġchanging": 7179, "iro": 7180, "ÐµÐ·": 7181, "irms": 7182, "ĠDel": 7183, "};": 7184, "neg": 7185, "Ac": 7186, "ĠMad": 7187, "Ġbodies": 7188, "Ġevening": 7189, "etime": 7190, "cohol": 7191, "INE": 7192, "Ġaffected": 7193, "erg": 7194, "Ġaxis": 7195, "ĠQue": 7196, "Ġobjective": 7197, "Ġcredit": 7198, "input": 7199, "Ġplaying": 7200, "ÑĢÑĭ": 7201, "Ġsell": 7202, "Ġempty": 7203, "MW": 7204, "scr": 7205, "ĠÐŀ": 7206, "Int": 7207, "=s": 7208, "Ġapart": 7209, "mes": 7210, "215": 7211, "Ġdrawn": 7212, "mo": 7213, "ĠEarth": 7214, "ĠRad": 7215, "Ġconsult": 7216, "Ġgoals": 7217, "Ġfer": 7218, "Ġice": 7219, "herent": 7220, "Ġmixt": 7221, "faces": 7222, "slant": 7223, ")\\": 7224, "Ġrealized": 7225, "ĠBas": 7226, "Br": 7227, "Ġemployed": 7228, "ulating": 7229, "ĠSen": 7230, "ourse": 7231, "Ġdataset": 7232, "eles": 7233, "ĠEngine": 7234, "Ġshap": 7235, "Ġoccasion": 7236, "Ġappearance": 7237, "[t": 7238, "Ġcorrelation": 7239, "ĠMet": 7240, "ynom": 7241, "ĠPlan": 7242, "Ġmaybe": 7243, "aper": 7244, "Ġabsence": 7245, "Some": 7246, "roid": 7247, "section": 7248, "Ġspiritual": 7249, "=o": 7250, "Ġfill": 7251, "Ġalle": 7252, "icles": 7253, "Ġbroken": 7254, "gra": 7255, ">W": 7256, ">+": 7257, "ART": 7258, "Ġmemb": 7259, "ses": 7260, "was": 7261, "Ġcarefully": 7262, "oses": 7263, "ĠWeb": 7264, "Ġconvent": 7265, "Ġoblig": 7266, "ĠCambridge": 7267, "lebr": 7268, "Ġdespite": 7269, "ĠDuring": 7270, "iously": 7271, "ifies": 7272, "item": 7273, "eting": 7274, "Ġspring": 7275, "ĠDie": 7276, "ĠLtd": 7277, "obs": 7278, "**Ċ": 7279, "Ġfib": 7280, "Ġmonitor": 7281, "Ġpointed": 7282, "oral": 7283, "Ġopening": 7284, "Ġmarried": 7285, "Ġgene": 7286, "Ġsitting": 7287, "Ġcrucial": 7288, "_D": 7289, "Ġagreed": 7290, "Ġtissue": 7291, "Ġoptions": 7292, "?(": 7293, "Ġkilled": 7294, "ĠOld": 7295, ",J": 7296, "Ð¡": 7297, "ĠWhere": 7298, "war": 7299, "Ġfailed": 7300, "ĠSa": 7301, "Ġparties": 7302, "Ġion": 7303, "organ": 7304, "Ġmir": 7305, "Ġnerv": 7306, "ĠSie": 7307, "ĠNovember": 7308, "edit": 7309, "Ġassessment": 7310, "-type": 7311, "RU": 7312, "ois": 7313, "213": 7314, "Ġoccurred": 7315, "ĠVir": 7316, "osh": 7317, "RT": 7318, "Ez": 7319, "Ġitem": 7320, "Ġelectro": 7321, "ĠJose": 7322, "Ġtrouble": 7323, "ĠCA": 7324, "Ms": 7325, "Ġintellect": 7326, "ĠOnce": 7327, "vin": 7328, "Ġimper": 7329, "Ġpush": 7330, "[n": 7331, ",m": 7332, ".O": 7333, "pat": 7334, "Ġrein": 7335, "RA": 7336, "Ġlean": 7337, "rd": 7338, "ĠMichael": 7339, "'),": 7340, "Ġcharacters": 7341, "Ġlies": 7342, "Ġmais": 7343, "Ġforced": 7344, "Ġprojects": 7345, "ested": 7346, "valid": 7347, "uction": 7348, "Ġdistr": 7349, "Ġwww": 7350, "ĠSun": 7351, "Ġindepend": 7352, "Ġmac": 7353, "Ġsi": 7354, "Ġhelped": 7355, "Ġdynamics": 7356, "Ġcatch": 7357, "Ġforth": 7358, "Ġplas": 7359, "303": 7360, "Ġcab": 7361, "ko": 7362, "Ġguide": 7363, "234": 7364, "*(": 7365, "ĠNor": 7366, "ĠBank": 7367, "Ġsweet": 7368, "Ġfra": 7369, "ĠĠĠĠĠĠĠĠĠĠĠĠĠĠ": 7370, "Ġprison": 7371, "ĠIll": 7372, "Ġrecords": 7373, "HV": 7374, "just": 7375, "++)": 7376, "214": 7377, "ÐºÐ¾": 7378, "sel": 7379, "Ġinequ": 7380, "ĠLike": 7381, "Ġintended": 7382, "_S": 7383, "osa": 7384, "Ġpark": 7385, "cluding": 7386, "ĠSystems": 7387, "Ġcreating": 7388, "Ġhung": 7389, "len": 7390, "sey": 7391, "Ġfindings": 7392, "ĠGovernment": 7393, "Don": 7394, "Ġfederal": 7395, "dy": 7396, "\")Ċ": 7397, "ICA": 7398, "Ġadministration": 7399, "ĠPost": 7400, "221": 7401, "Ġoverl": 7402, "cia": 7403, "anged": 7404, "rained": 7405, "ĠÂ±": 7406, "Ge": 7407, "Ġclassical": 7408, "Ġoption": 7409, "Ġlegs": 7410, "Ġsolve": 7411, "-N": 7412, "Ġreferred": 7413, "Ġthank": 7414, "Ġkne": 7415, "Ġriver": 7416, "itivity": 7417, "ĠHuman": 7418, "TC": 7419, "ĠSum": 7420, "Ġgro": 7421, "Ġwilling": 7422, "Ġresolution": 7423, "Ġoperating": 7424, "ĠStand": 7425, "itely": 7426, "Ġ\"#": 7427, "224": 7428, "contin": 7429, "Ġcharacteristic": 7430, "erate": 7431, "Ġprocedures": 7432, "kins": 7433, "Ġcomprehens": 7434, "xygen": 7435, "Ġrain": 7436, "Ġthousand": 7437, "Ġstead": 7438, "Ġkitchen": 7439, "olve": 7440, "ola": 7441, "ifications": 7442, "object": 7443, "231": 7444, "ATE": 7445, "Ġproved": 7446, "ructions": 7447, "Iz": 7448, "Ġvoid": 7449, "Ġoptimal": 7450, "ĠFalse": 7451, "ĠRepublic": 7452, "ĠAir": 7453, "Ġsister": 7454, "enced": 7455, "IO": 7456, "ĠMult": 7457, "Ġdivided": 7458, "Ġrecommend": 7459, "Ġstated": 7460, "Ġdisappe": 7461, "Ġcategory": 7462, "Ġsomewhat": 7463, "ĠStudies": 7464, "Ġconcer": 7465, "ĠAny": 7466, "Ġsegment": 7467, "Since": 7468, "Ġsections": 7469, "_i": 7470, "inations": 7471, "Trans": 7472, "Ġspoke": 7473, "vg": 7474, "Ny": 7475, "ICE": 7476, "Ġtun": 7477, "/x": 7478, "Ġregarding": 7479, "\"]": 7480, "ÐĴ": 7481, "ĠÑħ": 7482, "Ġarbitr": 7483, "/F": 7484, "Ġprofession": 7485, "bered": 7486, "ieties": 7487, "orter": 7488, "Ġacknow": 7489, "Ġboys": 7490, "Ġhorse": 7491, "ĠLand": 7492, "alian": 7493, "ĠLin": 7494, "ĠMem": 7495, "Ġstret": 7496, "ĠAdd": 7497, "Ġdevices": 7498, "RS": 7499, "Ġtables": 7500, "\"No": 7501, "Ġfeelings": 7502, "Ġaccompl": 7503, "CB": 7504, "Ġcampaign": 7505, "option": 7506, "ĠCommission": 7507, "Ġrecept": 7508, "Ġbare": 7509, "uan": 7510, "à¤¾": 7511, "Ġtheoretical": 7512, "Ġtransformation": 7513, "zer": 7514, "Ġshoulder": 7515, "epth": 7516, "adow": 7517, "Ġloved": 7518, "/or": 7519, ">>": 7520, "Ġconfidence": 7521, ".min": 7522, "orical": 7523, "Ġlimits": 7524, "ben": 7525, "Ġguar": 7526, "Ġimproved": 7527, "Ġfluid": 7528, "ĠWho": 7529, "Ġfix": 7530, "theless": 7531, ";g": 7532, "Ġdense": 7533, "Ġassumption": 7534, "label": 7535, "Ġnav": 7536, "Ġinnov": 7537, "Mw": 7538, "ĠExp": 7539, "ĠRef": 7540, "ĠĠĠĠĠĠĠĠĠĠĠĠĠĠĠĠĠĠĠĠĠĠĠĠĠĠĠĠĠĠĠĠĠĠĠĠĠĠĠĠĠĠĠĠĠĠĠĠĠĠĠĠĠĠĠĠĠĠĠĠĠĠĠĠ": 7541, "Ġsituations": 7542, "illa": 7543, "Ġwalls": 7544, "Ġresponses": 7545, "anda": 7546, "Man": 7547, "Ġdemonstrated": 7548, "ĠOrgan": 7549, "Ġextremely": 7550, "HO": 7551, "Ġvous": 7552, "Ġparticle": 7553, "PE": 7554, "ĠSimilar": 7555, "ropy": 7556, "ĠRiver": 7557, "True": 7558, "Ġbehaviour": 7559, "Ġcu": 7560, "ĠTom": 7561, "Ġterr": 7562, "size": 7563, "Mm": 7564, "Ġdestroy": 7565, "Ġbattle": 7566, "235": 7567, "ictions": 7568, "Ġatmosp": 7569, "HJ": 7570, "Ġconcepts": 7571, "260": 7572, "Ġclosely": 7573, "plt": 7574, "ĠCommittee": 7575, "Ġedges": 7576, "ĠCa": 7577, "Ġdiscovered": 7578, "020": 7579, "Ġ$$": 7580, "Ġkill": 7581, "Ãµ": 7582, "Ġreb": 7583, "Ġexperienced": 7584, "ĠPeople": 7585, "216": 7586, "Ġahead": 7587, "IX": 7588, "Ġconclusion": 7589, "dm": 7590, "Ġrou": 7591, "_train": 7592, "Ye": 7593, "abet": 7594, "ĠIr": 7595, "Ġelimin": 7596, "Ġtub": 7597, "yer": 7598, "ĠJewish": 7599, "Ġkin": 7600, "Ġannual": 7601, "Ġrecognition": 7602, "ĠIEEE": 7603, "ĠInte": 7604, "Ġkinds": 7605, "Ġpra": 7606, "Ġinvent": 7607, "Ġmeta": 7608, "Ġexcellent": 7609, "Ġtrib": 7610, "iner": 7611, "ÑĨÐ¸Ð¸": 7612, "ymm": 7613, "Ġsigns": 7614, "Ġsky": 7615, "QB": 7616, "ĠLett": 7617, "030": 7618, "/T": 7619, "PO": 7620, "uable": 7621, "Ġarrived": 7622, "Ġweap": 7623, "update": 7624, "offset": 7625, "ĠCD": 7626, "320": 7627, "Ġcogn": 7628, "Ġadvert": 7629, "Ġgrad": 7630, "Ġtheorem": 7631, "Ġwitness": 7632, "Ġreader": 7633, "Dr": 7634, "ĠZe": 7635, "Ix": 7636, "Ġobservation": 7637, "]-": 7638, "Ġeventually": 7639, "oder": 7640, "struct": 7641, "Ġminute": 7642, "-pack": 7643, "270": 7644, "ĠNon": 7645, "Ġopportunities": 7646, "road": 7647, "Ġcreation": 7648, "/B": 7649, "ifferent": 7650, "Ġsymbol": 7651, "Ġacts": 7652, "Ġstrongly": 7653, "Ġrig": 7654, "icians": 7655, "450": 7656, "cules": 7657, "312": 7658, "Yw": 7659, "Ġbecoming": 7660, "iverse": 7661, "Ġstone": 7662, "Ġsevere": 7663, "Ġrecognized": 7664, "Ġinterval": 7665, "Ġhell": 7666, "hol": 7667, "ĠFurthermore": 7668, "floor": 7669, "Ġhandle": 7670, "Ġsen": 7671, "ĠBay": 7672, "isp": 7673, "Ġbacter": 7674, "Ġseeing": 7675, "Ġphilosophy": 7676, "ĠBritain": 7677, "eck": 7678, "ito": 7679, "ogle": 7680, "sect": 7681, "rian": 7682, ".max": 7683, "learn": 7684, "gery": 7685, "Ġjump": 7686, "ĠOxford": 7687, "eding": 7688, "Qi": 7689, "-E": 7690, "aine": 7691, "Qz": 7692, "Ġorders": 7693, "Hz": 7694, "Ġmixed": 7695, "uz": 7696, "ystem": 7697, "Ġsuitable": 7698, "Ġfle": 7699, "Ġcontained": 7700, "ĠJapanese": 7701, "Ġpowers": 7702, "MENT": 7703, "Ġparticipants": 7704, "Mr": 7705, "229": 7706, "Ġvictim": 7707, "eld": 7708, "Ġbear": 7709, "Ġeigen": 7710, "cd": 7711, "weight": 7712, "Ġkid": 7713, "CG": 7714, "ĠDay": 7715, "NW": 7716, "Ġtro": 7717, "Ġcm": 7718, "SD": 7719, "Ġclaims": 7720, "Ġdenote": 7721, "Ġnuclear": 7722, "Ġconven": 7723, "280": 7724, "Ð°Ð¹": 7725, "Yy": 7726, "emale": 7727, "Can": 7728, "ctr": 7729, "Ġdelay": 7730, "ĠBox": 7731, "Ġantib": 7732, "Ġmotor": 7733, "inity": 7734, "ĠManagement": 7735, "wer": 7736, "ĠMil": 7737, "Ġcities": 7738, "LCA": 7739, "Ġmanager": 7740, "Ġrul": 7741, "ĠSil": 7742, "Ġsentence": 7743, "Ġdynamic": 7744, "512": 7745, "ador": 7746, "Ġhuge": 7747, "ITY": 7748, "cean": 7749, "Ġbath": 7750, "Ġhur": 7751, "Ġexpert": 7752, "=new": 7753, "Ġcustomers": 7754, "Ġprecis": 7755, "'I": 7756, "Ġdies": 7757, "icked": 7758, "ĠLong": 7759, "Ġwaves": 7760, "Ġdigital": 7761, "AAA": 7762, "Ġvoc": 7763, "Ġ$-": 7764, "adr": 7765, "Ġwidely": 7766, "aÃ§Ã£o": 7767, "fa": 7768, "Ãµes": 7769, "ĠLo": 7770, "Ġseek": 7771, "Ġrecall": 7772, "iate": 7773, "Ġscr": 7774, "iology": 7775, ",as": 7776, "Ġcompleted": 7777, "Ġwealth": 7778, "Ġfacts": 7779, "Ġunknown": 7780, "219": 7781, "Ġintegral": 7782, "ocket": 7783, "ĠGal": 7784, "Ġadult": 7785, "ĠLouis": 7786, "Ts": 7787, "While": 7788, "Ġsharp": 7789, "ima": 7790, "--------------------------------": 7791, "ĠÐľ": 7792, "ĠMicro": 7793, "ĠÐ¸Ð½": 7794, "VVVV": 7795, "Ġsignificance": 7796, "Ġconversation": 7797, ",\\": 7798, "ĠCap": 7799, "ĠSl": 7800, "Ġdepart": 7801, "enter": 7802, ",I": 7803, "Ġleader": 7804, ")+": 7805, "223": 7806, "Ġlibrary": 7807, "Ġgreatest": 7808, "006": 7809, "ontal": 7810, "Ġmissing": 7811, "Sm": 7812, "Ġvariation": 7813, "233": 7814, "Ġadvanced": 7815, "Ġnurs": 7816, "ĠOffice": 7817, "Ġadvance": 7818, "245": 7819, "unc": 7820, "ĠPRO": 7821, "|Ċ": 7822, "Ġnice": 7823, "Ġconj": 7824, "Ġdrugs": 7825, "Why": 7826, "ĠProfess": 7827, "Ġbelie": 7828, "PG": 7829, "ĠProgram": 7830, "Class": 7831, "Ġgames": 7832, "Ġweb": 7833, "Ð°Ð½Ð¸Ñı": 7834, "Ġthro": 7835, "Ġpreced": 7836, "{g": 7837, "Ġspeaking": 7838, "Ġcitizens": 7839, "Ġpropos": 7840, "217": 7841, "Ġgenerate": 7842, "ĠSet": 7843, "Ġsecondary": 7844, "ĠGold": 7845, "Ġvs": 7846, "ocratic": 7847, "(!": 7848, ",in": 7849, "Ġaccurate": 7850, "Ġinvar": 7851, "Ġbreast": 7852, "Ġconsiderable": 7853, "Ġembed": 7854, "lich": 7855, "Ġpolynom": 7856, "gypt": 7857, "Ġlic": 7858, "Ġpregn": 7859, "has": 7860, "Ġprimarily": 7861, "Ġnecessarily": 7862, "/N": 7863, "Ġabsolute": 7864, "Ð½Ðµ": 7865, "Ġgalax": 7866, "ĠGreek": 7867, "Ġspaces": 7868, "asy": 7869, "Ġaudience": 7870, "Ġremove": 7871, "War": 7872, "ublished": 7873, "Ġdesired": 7874, "Ġprime": 7875, "Uy": 7876, "John": 7877, "Ġemotional": 7878, "275": 7879, "icate": 7880, "ĠAmericans": 7881, "oves": 7882, "Ġpassage": 7883, "Ġadequ": 7884, "vy": 7885, "304": 7886, "gged": 7887, "fol": 7888, "ĠWind": 7889, "ĠBet": 7890, "Ġkeeping": 7891, "Ġeasier": 7892, "Ġscal": 7893, "ĠTor": 7894, "Ð¸ÑģÑĤ": 7895, "Ġaccel": 7896, "Ġcelebr": 7897, "ĠHy": 7898, "011": 7899, "+/": 7900, "Ġdram": 7901, "Ġcontrolled": 7902, "net": 7903, "fall": 7904, "uZ": 7905, "ĠIndeed": 7906, "underline": 7907, "Ġturns": 7908, "Ġaid": 7909, "auss": 7910, "232": 7911, "Ã©n": 7912, "Ġpolitics": 7913, "Ġsick": 7914, "Ġwatched": 7915, "Ġcash": 7916, "Ġconducted": 7917, "Ġchrom": 7918, "ĠÑı": 7919, "Ġcustomer": 7920, "Ġchem": 7921, "Ġcommunities": 7922, "Ġdecrease": 7923, "Ġbag": 7924, "Ġlip": 7925, "Ġhappens": 7926, "Ġlose": 7927, "Ġrevolution": 7928, "Ð½Ð°Ñı": 7929, "oped": 7930, "Sub": 7931, "pecific": 7932, "AU": 7933, "(u": 7934, "Ġnumerous": 7935, "Ġcooper": 7936, "arks": 7937, "Our": 7938, "Ġplatform": 7939, "Ġdependent": 7940, "Ġmuscle": 7941, "ĠInstead": 7942, "DB": 7943, "group": 7944, "Ġelev": 7945, "Ġhabit": 7946, "Ġkids": 7947, "-level": 7948, "ĠInternet": 7949, "_x": 7950, "Ġtrig": 7951, "Comp": 7952, "Ġshut": 7953, "truct": 7954, "ĠSpe": 7955, ".con": 7956, "di": 7957, "Ġvolt": 7958, "tre": 7959, "Ġpapers": 7960, "Ġjournal": 7961, "ĠBur": 7962, "ĠEnd": 7963, "à¥įà¤": 7964, "format": 7965, "ĠBrown": 7966, "typeof": 7967, "Ġlargely": 7968, "dX": 7969, "istered": 7970, "243": 7971, "qqqq": 7972, "\\|": 7973, "_test": 7974, "ĠTex": 7975, "Go": 7976, "Qy": 7977, "ĠCOM": 7978, "aven": 7979, "vas": 7980, "Ġentry": 7981, "ĠTheory": 7982, "Ġye": 7983, "ĠPolit": 7984, "MR": 7985, "Ġoxygen": 7986, "QL": 7987, "Ġsuc": 7988, "Ġton": 7989, "Ġdegrees": 7990, "View": 7991, "227": 7992, "Are": 7993, "FL": 7994, "Ġstability": 7995, "Ġphr": 7996, "version": 7997, "ivo": 7998, "Ġantic": 7999, "you": 8000, "Ġpossibly": 8001, "ĠDef": 8002, "Ġsector": 8003, "Ġnotion": 8004, "endix": 8005, "ĠSir": 8006, "UE": 8007, "Ġcalc": 8008, "Ġdistrict": 8009, "DP": 8010, "-ph": 8011, "Ġdirector": 8012, "Ġimmediate": 8013, "going": 8014, "Ġeducational": 8015, "Ġmatters": 8016, "Ġends": 8017, "ARD": 8018, "ema": 8019, "hn": 8020, "Ġveget": 8021, "ĠConf": 8022, "241": 8023, "Ġdefault": 8024, "Ġsalt": 8025, "ĠON": 8026, ":\\": 8027, "ota": 8028, "Ġrevealed": 8029, "/L": 8030, "Ġentered": 8031, "oung": 8032, "Ġofficial": 8033, "265": 8034, "Ġbrown": 8035, "Ġseg": 8036, "igration": 8037, "Ġseconds": 8038, "Ġsole": 8039, "Ġcategories": 8040, "only": 8041, "Ġexposure": 8042, "Ġimplementation": 8043, "sch": 8044, "ĠWell": 8045, "444": 8046, "-K": 8047, "Ġaus": 8048, "/z": 8049, "Ġexplanation": 8050, "rection": 8051, "Ġguard": 8052, "Ġmainly": 8053, "Ã©r": 8054, "ĠLeg": 8055, "Ġconcerns": 8056, "Ġreactions": 8057, "Ġhurt": 8058, "Ġeffectively": 8059, "Ġdimensions": 8060, "car": 8061, "Ġhelps": 8062, "isk": 8063, "226": 8064, "Ġterrit": 8065, "Jj": 8066, "anish": 8067, "Ġfilter": 8068, "008": 8069, "Ġjustice": 8070, "Ġcompare": 8071, "number": 8072, "Ġinstall": 8073, "Ġreact": 8074, ".Size": 8075, "wered": 8076, "oston": 8077, "athy": 8078, "Ġble": 8079, "Ġclassification": 8080, "Ġdomestic": 8081, "inction": 8082, "Ġcurrently": 8083, "Ġresearc": 8084, "Ġforget": 8085, "Ġinh": 8086, "RY": 8087, "Ġpool": 8088, "273": 8089, "check": 8090, "ĠAnalysis": 8091, "Rh": 8092, "Ð¸Ñı": 8093, "ĠEX": 8094, "Ġcollabor": 8095, "Ġcoffe": 8096, "Ġintensity": 8097, "ĠFebruary": 8098, "Qx": 8099, "(h": 8100, "Ġstatements": 8101, "007": 8102, "Ġsuppose": 8103, "{N": 8104, "reshold": 8105, "amples": 8106, "305": 8107, "Ġpropag": 8108, "His": 8109, "252": 8110, "ĠTw": 8111, "ometimes": 8112, "Ġurban": 8113, "Ġagric": 8114, "Ġgap": 8115, "andon": 8116, "ĠCat": 8117, ":n": 8118, "Ġmixture": 8119, "ether": 8120, "ĠJac": 8121, "ĠProceed": 8122, "transform": 8123, "/H": 8124, ".K": 8125, "Ġpert": 8126, "Ġequilibrium": 8127, "=-": 8128, "Ġoperators": 8129, "Ġbuck": 8130, "\"The": 8131, "Ġretain": 8132, "isters": 8133, "Ġsubs": 8134, "ĠAT": 8135, "Ġclub": 8136, "Ġhier": 8137, "ĠPower": 8138, "DD": 8139, "Ġju": 8140, "Ġyellow": 8141, "Ġturning": 8142, "Ð¸Ð¸": 8143, "Ġfacilit": 8144, "Ġspend": 8145, "Ġseat": 8146, "istent": 8147, "ĠUN": 8148, "Ġtail": 8149, "ictor": 8150, "merican": 8151, "Ġstuff": 8152, "Ġviolence": 8153, "\\u": 8154, "\\left": 8155, "Acc": 8156, "Ġperman": 8157, "Ġnicht": 8158, "Ġextension": 8159, "Ug": 8160, "}.": 8161, "Ġbegins": 8162, "eper": 8163, "ĠBre": 8164, "ĠUK": 8165, "Ġfiles": 8166, "Ġyouth": 8167, "Ġrecorded": 8168, "âĢĻt": 8169, "However": 8170, "Ġcapable": 8171, "Ġenhance": 8172, "coming": 8173, "ullet": 8174, "Ġinfection": 8175, "ĠTV": 8176, "Ġwatching": 8177, "OF": 8178, "ĠDire": 8179, "db": 8180, "aa": 8181, "ortunately": 8182, "Ġourselves": 8183, "ĠSk": 8184, "fb": 8185, "imm": 8186, "555": 8187, "Ġstorage": 8188, "Vl": 8189, "ĠCounty": 8190, "Ðŀ": 8191, "Pe": 8192, "Ġreject": 8193, "arl": 8194, "Ġsubsequent": 8195, "301": 8196, "Ġattend": 8197, "Ð½Ð¾Ðµ": 8198, ",D": 8199, "ERT": 8200, "ounded": 8201, "Ġexceed": 8202, "ĠClin": 8203, "/e": 8204, "Ġpurs": 8205, "238": 8206, "Ġconsidering": 8207, "Ġdistributed": 8208, "254": 8209, "ĠRet": 8210, "ocument": 8211, "uj": 8212, "ĠAnother": 8213, "Ġswitch": 8214, "ooking": 8215, "239": 8216, "ĠCr": 8217, "ĠUp": 8218, "ĠJul": 8219, "Ġconsequences": 8220, ",S": 8221, "osc": 8222, "248": 8223, "ungen": 8224, "May": 8225, "mean": 8226, ",w": 8227, "228": 8228, "æĹ¥æľ¬": 8229, "Ġleadership": 8230, "ĠLog": 8231, "Ġstatic": 8232, "anta": 8233, "Although": 8234, "Xz": 8235, "Ġchallenges": 8236, "gal": 8237, "BA": 8238, "Ġwaste": 8239, "Ġtwice": 8240, "Ġpairs": 8241, "ĠTrue": 8242, "ĠâĢ¢": 8243, "290": 8244, "ĠFather": 8245, "Gr": 8246, "Ġinsurance": 8247, "ensus": 8248, "Ġpy": 8249, "Ġphosph": 8250, "fil": 8251, "-packages": 8252, "ĠLuc": 8253, "Ġlit": 8254, "Ġ[[": 8255, "ishment": 8256, "Ġrapidly": 8257, "issions": 8258, "isis": 8259, "ĠSing": 8260, "Ġfurn": 8261, "pes": 8262, "irmed": 8263, "itÃ©": 8264, "Ġarmy": 8265, "aria": 8266, "Ġfashion": 8267, "orough": 8268, "ĠCentral": 8269, "(m": 8270, "[A": 8271, "Ġknowing": 8272, "approx": 8273, "ABLE": 8274, "Ġdiscipl": 8275, "ĠLearning": 8276, "Ġthrow": 8277, "Os": 8278, "Ġenzym": 8279, "Ġcompact": 8280, "Ġadding": 8281, "Ġrose": 8282, "Nl": 8283, "Ġ(\"": 8284, "Ġhole": 8285, "ĠDesign": 8286, "xic": 8287, "Bh": 8288, "Ġradius": 8289, "SR": 8290, "fficients": 8291, "Ġpartial": 8292, "750": 8293, "BD": 8294, "237": 8295, "attering": 8296, "262": 8297, "Ġprofit": 8298, "Ġhero": 8299, "=u": 8300, "uced": 8301, "imately": 8302, "249": 8303, "Vy": 8304, "Ġspecified": 8305, "253": 8306, "Ġaccounts": 8307, "ANT": 8308, "Uw": 8309, "ĠJo": 8310, "Ġcoffee": 8311, "Ġfamous": 8312, "/y": 8313, "Ġfab": 8314, "ĠINT": 8315, "Value": 8316, "lik": 8317, "itan": 8318, "Ġexplore": 8319, "Ġjoin": 8320, "Ġbudget": 8321, "(-": 8322, "bour": 8323, "Ġanswers": 8324, "ĠControl": 8325, "Ġcircuit": 8326, "-V": 8327, "Ġcurves": 8328, "Mx": 8329, "ĠIns": 8330, "246": 8331, "embly": 8332, "Ġbeam": 8333, "Ġom": 8334, "km": 8335, "Ġintegration": 8336, "ĠProble": 8337, "eries": 8338, "Ġordered": 8339, "space": 8340, "Ġspatial": 8341, ".add": 8342, "OUR": 8343, "Ġcommonly": 8344, "Ġwinter": 8345, "_v": 8346, "hl": 8347, "plete": 8348, "orial": 8349, "ernel": 8350, "Ġped": 8351, "Ġfruit": 8352, "score": 8353, "Ġordinary": 8354, "ĠEffect": 8355, "Ġsimult": 8356, "Ġreasonable": 8357, "Ġnit": 8358, "rices": 8359, "aux": 8360, "Ġimmun": 8361, "Ġworse": 8362, "create": 8363, ".select": 8364, "Ġunion": 8365, "Ġroots": 8366, "xp": 8367, "ĠWal": 8368, "water": 8369, "Ġgest": 8370, "Ġdust": 8371, "261": 8372, "015": 8373, "cat": 8374, "Ġsimulation": 8375, "Ġvec": 8376, "kz": 8377, "anch": 8378, "THE": 8379, "draw": 8380, "âĪĴ": 8381, "Ġsteel": 8382, "Ġlayers": 8383, ",P": 8384, "Ġcompetition": 8385, "296": 8386, ".index": 8387, "Ġcalculate": 8388, "Ġdivision": 8389, "ĠÃĹ": 8390, "iration": 8391, "Ġdiagram": 8392, "Ġevident": 8393, ">V": 8394, "file": 8395, "\\}": 8396, "plots": 8397, "normal": 8398, "ĠÐĶ": 8399, "uality": 8400, "Ġmilk": 8401, "iture": 8402, "Ġsuit": 8403, "Ġcro": 8404, "}}\\": 8405, "ALL": 8406, "gi": 8407, "Ġstrange": 8408, "Ġworry": 8409, "Ġdepending": 8410, "Ġweather": 8411, "oir": 8412, "ILL": 8413, "Ġnin": 8414, "Ġassociation": 8415, "ĠOR": 8416, "omer": 8417, "IZ": 8418, "281": 8419, "Ġnumerical": 8420, "Ġalcohol": 8421, "ped": 8422, ",[": 8423, "cw": 8424, "Ġhighlight": 8425, "fast": 8426, "Ġmolecular": 8427, "Ġinvolving": 8428, "=l": 8429, "KG": 8430, "Ġcriteria": 8431, "ĠEgypt": 8432, "Ġwalking": 8433, "_j": 8434, "236": 8435, "ACT": 8436, "****************": 8437, "Ġdifferential": 8438, "Ġplays": 8439, "Ġ*/Ċ": 8440, "Ġbone": 8441, "ĠTechnology": 8442, "Ġsich": 8443, "'T": 8444, "Ġsnow": 8445, "Ġloop": 8446, "adian": 8447, "Ġvillage": 8448, "Note": 8449, "oday": 8450, "lu": 8451, "DF": 8452, "Ġtheories": 8453, "âĺ": 8454, "Ġconstraints": 8455, "ĠLabor": 8456, "Ġrecon": 8457, "ĠNever": 8458, "Ġmaps": 8459, "Ġnegot": 8460, "tenance": 8461, "Ġsugar": 8462, "Her": 8463, "Ġhidden": 8464, "Ġanalys": 8465, "nan": 8466, "Ġhypothesis": 8467, "242": 8468, "Ġvess": 8469, "UV": 8470, "\\right": 8471, ",B": 8472, "Ġmanufacture": 8473, "Ġplayers": 8474, "Ġconcerning": 8475, "Off": 8476, "ĠAv": 8477, "Ġdecide": 8478, "(y": 8479, "oured": 8480, "']Ċ": 8481, "Af": 8482, "eller": 8483, "Ġresource": 8484, "rene": 8485, "Ġuniversal": 8486, ";s": 8487, "Ġestimates": 8488, ".in": 8489, "Ġdescribes": 8490, "ottom": 8491, "=c": 8492, "atio": 8493, "iones": 8494, "bled": 8495, "{M": 8496, "ĠMartin": 8497, "/r": 8498, "azine": 8499, "Ġdiscover": 8500, "wa": 8501, "();": 8502, "Rem": 8503, "ĠRussian": 8504, "Ġtelling": 8505, "Ġpanel": 8506, "Ke": 8507, "Ġdropped": 8508, "ĠId": 8509, "Ġimprovement": 8510, "012": 8511, "ĠProceedings": 8512, "Ġdepos": 8513, "Ġconsumption": 8514, ",L": 8515, "Just": 8516, "247": 8517, ".V": 8518, "Ġasking": 8519, "aneously": 8520, "Ġmetab": 8521, "Ġcolumns": 8522, "Ġoutl": 8523, "Ġ----": 8524, "Ġadopted": 8525, "ĠMedic": 8526, "Ġmanaged": 8527, "Ġproportion": 8528, "Ġdepartment": 8529, "251": 8530, "aud": 8531, "Ġconsideration": 8532, "Ð½ÑĭÐ¼": 8533, "Ġprompt": 8534, "Ð¸Ðº": 8535, "UP": 8536, "Ġduty": 8537, "ĠLee": 8538, "ympt": 8539, "ersonal": 8540, "anguages": 8541, "Ġcoast": 8542, "open": 8543, "bing": 8544, "Ġjobs": 8545, "ĠJoseph": 8546, "uing": 8547, "Ġreson": 8548, "Ðļ": 8549, "Ġsuperior": 8550, "seud": 8551, "ĠReport": 8552, "ĠÐł": 8553, ".text": 8554, "Ġdifficulty": 8555, "Ġbeat": 8556, "stream": 8557, "Ġstre": 8558, "IES": 8559, "Ġmechanisms": 8560, "Ġadvice": 8561, "310": 8562, "oting": 8563, "non": 8564, "bin": 8565, "agen": 8566, "BM": 8567, "Reg": 8568, "285": 8569, "esian": 8570, "Ġsan": 8571, "Ġfro": 8572, "ymph": 8573, "ECT": 8574, "Ġhal": 8575, "Ġeine": 8576, "kh": 8577, "Ġintroduction": 8578, "Ġunderlying": 8579, "SH": 8580, "Ġfault": 8581, "riend": 8582, "night": 8583, "Ġintroduce": 8584, "fraid": 8585, "Ġdinner": 8586, "Ġfocused": 8587, "Ġtruly": 8588, "burg": 8589, "Ġpercentage": 8590, "Ġarticles": 8591, "ĠSuper": 8592, "Ġsounds": 8593, "Ġcrime": 8594, "ployment": 8595, "ÑĭÐ¹": 8596, "imer": 8597, "writ": 8598, "hav": 8599, "ĠArab": 8600, "ÑĢÐ¾": 8601, "Ġstick": 8602, "Ġlen": 8603, "Ġshock": 8604, "bles": 8605, "Ġteach": 8606, "Ġemployment": 8607, "Ġclothes": 8608, "{R": 8609, "390": 8610, "Ġtopic": 8611, "Uz": 8612, "BR": 8613, "ea": 8614, "Ux": 8615, "font": 8616, "tz": 8617, "Ġrend": 8618, "ĠDen": 8619, "Ġrecognize": 8620, "Ġsorry": 8621, "Right": 8622, "Ġdriving": 8623, "reme": 8624, "Ġsucceed": 8625, "rich": 8626, "emp": 8627, "311": 8628, "[a": 8629, "auge": 8630, "Ġreturns": 8631, "Ġhealthy": 8632, "Ġdependence": 8633, "ĠSP": 8634, "Ġadults": 8635, "ĠCarol": 8636, "BO": 8637, "ĠAccuracy": 8638, "Ġreplied": 8639, "Ġstructural": 8640, "ĠRoad": 8641, "Ġhumans": 8642, "icular": 8643, "\\%": 8644, "Ġvisible": 8645, "erver": 8646, "Ġnewsp": 8647, "uilding": 8648, "||(": 8649, "ĠIntroduction": 8650, "Ġcollected": 8651, "iger": 8652, "Ġattitude": 8653, "ĠList": 8654, "Ġodd": 8655, "Ġperiods": 8656, "Ġapproximation": 8657, "Ġradiation": 8658, "MF": 8659, "Ġgrew": 8660,
[...]
