{"version": "1.0", "truncation": null, "padding": null, "added_tokens": [{"id": 49126, "content": "<|endoftext|>", "single_word": false, "lstrip": false, "rstrip": false, "normalized": false, "special": true}, {"id": 49127, "content": "<|im_start|>", "single_word": false, "lstrip": false, "rstrip": false, "normalized": false, "special": true}, {"id": 49128, "content": "<|im_end|>", "single_word": false, "lstrip": false, "rstrip": false, "normalized": false, "special": true}, {"id": 49129, "content": "<|object_ref_start|>", "normalized": false, "lstrip": false, "rstrip": false, "single_word": false, "special": true}, {"id": 49130, "content": "<|object_ref_end|>", "normalized": false, "lstrip": false, "rstrip": false, "single_word": false, "special": true}, {"id": 49131, "content": "<|box_start|>", "normalized": false, "lstrip": false, "rstrip": false, "single_word": false, "special": true}, {"id": 49132, "content": "<|box_end|>", "normalized": false, "lstrip": false, "rstrip": false, "single_word": false, "special": true}, {"id": 49133, "content": "<|quad_start|>", "normalized": false, "lstrip": false, "rstrip": false, "single_word": false, "special": true}, {"id": 49134, "content": "<|quad_end|>", "normalized": false, "lstrip": false, "rstrip": false, "single_word": false, "special": true}, {"id": 49135, "content": "<|vision_start|>", "normalized": false, "lstrip": false, "rstrip": false, "single_word": false, "special": true}, {"id": 49136, "content": "<|vision_end|>", "normalized": false, "lstrip": false, "rstrip": false, "single_word": false, "special": true}, {"id": 49137, "content": "<|vision_pad|>", "normalized": false, "lstrip": false, "rstrip": false, "single_word": false, "special": true}, {"id": 49138, "content": "<|image_pad|>", "normalized": false, "lstrip": false, "rstrip": false, "single_word": false, "special": true}, {"id": 49139, "content": "<|video_pad|>", "normalized": false, "lstrip": false, "rstrip": false, "single_word": false, "special": true}, {"id": 49140, "content": "<tool_call>", "lstrip": false, "normalized": false, "rstrip": false, "single_word": false, "special": false}, {"id": 49141, "content": "</tool_call>", "lstrip": false, "normalized": false, "rstrip": false, "single_word": false, "special": false}, {"id": 49142, "content": "<|fim_prefix|>", "lstrip": false, "normalized": false, "rstrip": false, "single_word": false, "special": false}, {"id": 49143, "content": "<|fim_middle|>", "lstrip": false, "normalized": false, "rstrip": false, "single_word": false, "special": false}, {"id": 49144, "content": "<|fim_suffix|>", "lstrip": false, "normalized": false, "rstrip": false, "single_word": false, "special": false}, {"id": 49145, "content": "<|fim_pad|>", "lstrip": false, "normalized": false, "rstrip": false, "single_word": false, "special": false}, {"id": 49146, "content": "<|repo_name|>", "lstrip": false, "normalized": false, "rstrip": false, "single_word": false, "special": false}, {"id": 49147, "content": "<|file_sep|>", "lstrip": false, "normalized": false, "rstrip": false, "single_word": false, "special": false}, {"id": 49148, "content": "<tool_response>", "lstrip": false, "normalized": false, "rstrip": false, "single_word": false, "special": false}, {"id": 49149, "content": "</tool_response>", "lstrip": false, "normalized": false, "rstrip": false, "single_word": false, "special": false}, {"id": 49150, "content": "<think>", "lstrip": false, "normalized": false, "rstrip": false, "single_word": false, "special": false}, {"id": 49151, "content": "</think>", "lstrip": false, "normalized": false, "rstrip": false, "single_word": false, "special": false}], "normalizer": {"type": "NFC"}, "pre_tokenizer": {"type": "Sequence", "pretokenizers": [{"type": "Split", "pattern": {"Regex": "(?i:'s|'t|'re|'ve|'m|'ll|'d)|[^\\r\\n\\p{L}\\p{N}]?[\\p{L}\\p{M}]+|\\p{N}| ?[^\\s\\p{L}\\p{M}\\p{N}]+[\\r\\n]*|\\s*[\\r\\n]+|\\s+(?!\\S)|\\s+"}, "behavior": "Isolated", "invert": false}, {"type": "ByteLevel", "add_prefix_space": false, "trim_offsets": false, "use_regex": false}]}, "post_processor": {"type": "ByteLevel", "add_prefix_space": false, "trim_offsets": false, "use_regex": false}, "decoder": {"type": "ByteLevel", "add_prefix_space": false, "trim_offsets": false, "use_regex": false}, "model": {"type": "BPE", "dropout": null, "unk_token": null, "continuing_subword_prefix": "", "end_of_word_suffix": "", "fuse_unk": false, "byte_fallback": false, "ignore_merges": false, "vocab": {"!": 0, "\"": 1, "#": 2, "$": 3, "%": 4, "&": 5, "'": 6, "(": 7, ")": 8, "*": 9, "+": 10, ",": 11, "-": 12, ".": 13, "/": 14, "0": 15, "1": 16, "2": 17, "3": 18, "4": 19, "5": 20, "6": 21, "7": 22, "8": 23, "9": 24, ":": 25, ";": 26, "<": 27, "=": 28, ">": 29, "?": 30, "@": 31, "A": 32, "B": 33, "C": 34, "D": 35, "E": 36, "F": 37, "G": 38, "H": 39, "I": 40, "J": 41, "K": 42, "L": 43, "M": 44, "N": 45, "O": 46, "P": 47, "Q": 48, "R": 49, "S": 50, "T": 51, "U": 52, "V": 53, "W": 54, "X": 55, "Y": 56, "Z": 57, "[": 58, "\\": 59, "]": 60, "^": 61, "_": 62, "`": 63, "a": 64, "b": 65, "c": 66, "d": 67, "e": 68, "f": 69, "g": 70, "h": 71, "i": 72, "j": 73, "k": 74, "l": 75, "m": 76, "n": 77, "o": 78, "p": 79, "q": 80, "r": 81, "s": 82, "t": 83, "u": 84, "v": 85, "w": 86, "x": 87, "y": 88, "z": 89, "{": 90, "|": 91, "}": 92, "~": 93, "¡": 94, "¢": 95, "£": 96, "¤": 97, "¥": 98, "¦": 99, "§": 100, "¨": 101, "©": 102, "ª": 103, "«": 104, "¬": 105, "®": 106, "¯": 107, "°": 108, "±": 109, "²": 110, "³": 111, "´": 112, "µ": 113, "¶": 114, "·": 115, "¸": 116, "¹": 117, "º": 118, "»": 119, "¼": 120, "½": 121, "¾": 122, "¿": 123, "À": 124, "Á": 125, "Â": 126, "Ã": 127, "Ä": 128, "Å": 129, "Æ": 130, "Ç": 131, "È": 132, "É": 133, "Ê": 134, "Ë": 135, "Ì": 136, "Í": 137, "Î": 138, "Ï": 139, "Ð": 140, "Ñ": 141, "Ò": 142, "Ó": 143, "Ô": 144, "Õ": 145, "Ö": 146, "×": 147, "Ø": 148, "Ù": 149, "Ú": 150, "Û": 151, "Ü": 152, "Ý": 153, "Þ": 154, "ß": 155, "à": 156, "á": 157, "â": 158, "ã": 159, "ä": 160, "å": 161, "æ": 162, "ç": 163, "è": 164, "é": 165, "ê": 166, "ë": 167, "ì": 168, "í": 169, "î": 170, "ï": 171, "ð": 172, "ñ": 173, "ò": 174, "ó": 175, "ô": 176, "õ": 177, "ö": 178, "÷": 179, "ø": 180, "ù": 181, "ú": 182, "û": 183, "ü": 184, "ý": 185, "þ": 186, "ÿ": 187, "Ā": 188, "ā": 189, "Ă": 190, "ă": 191, "Ą": 192, "ą": 193, "Ć": 194, "ć": 195, "Ĉ": 196, "ĉ": 197, "Ċ": 198, "ċ": 199, "Č": 200, "č": 201, "Ď": 202, "ď": 203, "Đ": 204, "đ": 205, "Ē": 206, "ē": 207, "Ĕ": 208, "ĕ": 209, "Ė": 210, "ė": 211, "Ę": 212, "ę": 213, "Ě": 214, "ě": 215, "Ĝ": 216, "ĝ": 217, "Ğ": 218, "ğ": 219, "Ġ": 220, "ġ": 221, "Ģ": 222, "ģ": 223, "Ĥ": 224, "ĥ": 225, "Ħ": 226, "ħ": 227, "Ĩ": 228, "ĩ": 229, "Ī": 230, "ī": 231, "Ĭ": 232, "ĭ": 233, "Į": 234, "į": 235, "İ": 236, "ı": 237, "Ĳ": 238, "ĳ": 239, "Ĵ": 240, "ĵ": 241, "Ķ": 242, "ķ": 243, "ĸ": 244, "Ĺ": 245, "ĺ": 246, "Ļ": 247, "ļ": 248, "Ľ": 249, "ľ": 250, "Ŀ": 251, "ŀ": 252, "Ł": 253, "ł": 254, "Ń": 255, "ĠĠ": 256, "ĠĠĠĠ": 257, "in": 258, "Ġt": 259, "ĠĠĠĠĠĠĠĠ": 260, "er": 261, "ĠĠĠ": 262, "on": 263, "Ġa": 264, "re": 265, "at": 266, "st": 267, "en": 268, "or": 269, "Ġth": 270, "ĊĊ": 271, "Ġc": 272, "le": 273, "Ġs": 274, "it": 275, "an": 276, "ar": 277, "al": 278, "Ġthe": 279, "Ġp": 280, "Ġf": 281, "ou": 282, "Ġ=": 283, "is": 284, "ĠĠĠĠĠĠĠ": 285, "ing": 286, "es": 287, "Ġw": 288, "ion": 289, "ed": 290, "ic": 291, "Ġb": 292, "Ġd": 293, "et": 294, "Ġm": 295, "Ġo": 296, "ro": 297, "as": 298, "el": 299, "ct": 300, "nd": 301, "Ġin": 302, "Ġh": 303, "ent": 304, "id": 305, "Ġn": 306, "am": 307, "ĠĠĠĠĠĠĠĠĠĠĠ": 308, "Ġto": 309, "Ġre": 310, "--": 311, "Ġ{": 312, "Ġof": 313, "om": 314, "im": 315, "čĊ": 316, "Ġ(": 317, "il": 318, "//": 319, "Ġand": 320, "ur": 321, "se": 322, "Ġl": 323, "ex": 324, "ĠS": 325, "ad": 326, "Ġ\"": 327, "ch": 328, "ut": 329, "if": 330, "**": 331, "Ġ}": 332, "em": 333, "ol": 334, "ĠĠĠĠĠĠĠĠĠĠĠĠĠĠĠĠ": 335, "th": 336, "Ġg": 337, "ig": 338, "iv": 339, "ce": 340, "od": 341, "Ġv": 342, "ate": 343, "ĠT": 344, "ag": 345, "ay": 346, "Ġ*": 347, "ot": 348, "us": 349, "ĠC": 350, "Ġst": 351, "ĠI": 352, "un": 353, "ul": 354, "ue": 355, "ĠA": 356, "ow": 357, "Ġ'": 358, "ew": 359, "Ġ<": 360, "ation": 361, "()": 362, "Ġfor": 363, "ab": 364, "ort": 365, "um": 366, "ame": 367, "Ġis": 368, "pe": 369, "tr": 370, "ck": 371, "âĢ": 372, "Ġy": 373, "ist": 374, "----": 375, "he": 376, "Ġe": 377, "lo": 378, "ĠM": 379, "Ġbe": 380, "ers": 381, "Ġon": 382, "Ġcon": 383, "ap": 384, "ub": 385, "ĠP": 386, "ĠĠĠĠĠĠĠĠĠĠĠĠĠĠĠ": 387, "ass": 388, "int": 389, "ly": 390, "urn": 391, "Ġ$": 392, "av": 393, "port": 394, "ir": 395, "->": 396, "nt": 397, "ction": 398, "end": 399, "Ġde": 400, "ith": 401, "out": 402, "turn": 403, "our": 404, "ĠĠĠĠĠ": 405, "lic": 406, "res": 407, "pt": 408, "==": 409, "Ġthis": 410, "Ġwh": 411, "Ġif": 412, "ĠD": 413, "ver": 414, "age": 415, "ĠB": 416, "ht": 417, "ext": 418, "=\"": 419, "Ġthat": 420, "****": 421, "ĠR": 422, "Ġit": 423, "ess": 424, "ĠF": 425, "Ġr": 426, "os": 427, "and": 428, "Ġas": 429, "ect": 430, "ke": 431, "rom": 432, "Ġ//": 433, "con": 434, "ĠL": 435, "(\"": 436, "qu": 437, "lass": 438, "Ġwith": 439, "iz": 440, "de": 441, "ĠN": 442, "Ġal": 443, "op": 444, "up": 445, "get": 446, "ile": 447, "Ġan": 448, "ata": 449, "ore": 450, "ri": 451, "Ġpro": 452, "ter": 453, "ain": 454, "ĠW": 455, "ĠE": 456, "Ġcom": 457, "Ġreturn": 458, "art": 459, "ĠH": 460, "ack": 461, "import": 462, "ublic": 463, "Ġor": 464, "est": 465, "ment": 466, "ĠG": 467, "able": 468, "Ġ-": 469, "ine": 470, "ill": 471, "ind": 472, "ere": 473, "::": 474, "ity": 475, "Ġ+": 476, "Ġtr": 477, "elf": 478, "ight": 479, "('": 480, "orm": 481, "ult": 482, "str": 483, "..": 484, "\",": 485, "Ġyou": 486, "ype": 487, "pl": 488, "Ġnew": 489, "Ġj": 490, "ĠĠĠĠĠĠĠĠĠĠĠĠĠĠĠĠĠĠĠ": 491, "Ġfrom": 492, "Ġex": 493, "ĠO": 494, "ld": 495, "Ġ[": 496, "oc": 497, "Ġse": 498, "Ġle": 499, "--------": 500, ".s": 501, "',": 502, "ant": 503, "Ġat": 504, "ase": 505, ".c": 506, "Ġch": 507, "</": 508, "ave": 509, "ang": 510, "Ġare": 511, "Ġint": 512, "âĢĻ": 513, "_t": 514, "ert": 515, "ial": 516, "act": 517, "ive": 518, "ode": 519, "ost": 520, "Ġclass": 521, "Ġnot": 522, "og": 523, "ord": 524, "alue": 525, "all": 526, "ff": 527, "ont": 528, "ime": 529, "are": 530, "ĠU": 531, "Ġpr": 532, "Ġ:": 533, "ies": 534, "ize": 535, "ure": 536, "Ġby": 537, "ire": 538, ".p": 539, "Ġsh": 540, "ice": 541, "ast": 542, "ption": 543, "tring": 544, "ok": 545, "__": 546, "cl": 547, "##": 548, "Ġhe": 549, "ard": 550, ").": 551, "Ġ@": 552, "iew": 553, "Ġwas": 554, "ip": 555, "this": 556, "Ġu": 557, "ĠThe": 558, "ide": 559, "ace": 560, "ib": 561, "ac": 562, "rou": 563, "Ġwe": 564, "ject": 565, "Ġpublic": 566, "ak": 567, "ve": 568, "ath": 569, "oid": 570, "Ġ=>": 571, "ust": 572, "que": 573, "Ġres": 574, "))": 575, "'s": 576, "Ġk": 577, "ans": 578, "yst": 579, "unction": 580, "********": 581, "Ġi": 582, "Ġus": 583, "pp": 584, "one": 585, "ail": 586, "====": 587, "name": 588, "Ġstr": 589, "Ġ/": 590, "Ġ&": 591, "ach": 592, "div": 593, "ystem": 594, "ell": 595, "Ġhave": 596, "err": 597, "ould": 598, "ull": 599, "pon": 600, "ĠJ": 601, "_p": 602, "Ġ==": 603, "ign": 604, "St": 605, "Ġpl": 606, "form": 607, "put": 608, "ount": 609, "dd": 610, "ite": 611, "Ġget": 612, "rr": 613, "ome": 614, "ĠâĢ": 615, "aram": 616, "cc": 617, "Ġ*/": 618, "ER": 619, "In": 620, "les": 621, "_s": 622, "ong": 623, "ie": 624, "Ġcan": 625, "ĠV": 626, "erv": 627, "pr": 628, "Ġun": 629, "row": 630, "ber": 631, "Ġdo": 632, "ll": 633, "Ġel": 634, "Ġself": 635, "ated": 636, "ary": 637, "Ġ.": 638, "']": 639, "ud": 640, "Ġen": 641, "ĠTh": 642, "ĠĠĠĠĠĠĠĠĠĠĠĠĠĠĠĠĠĠĠĠĠĠĠ": 643, "te": 644, "_c": 645, "uct": 646, "Ġab": 647, "ork": 648, ".get": 649, "Ġ#": 650, "aw": 651, "ress": 652, "ob": 653, "Name": 654, "app": 655, "['": 656, "Ġall": 657, "ory": 658, "ition": 659, "ance": 660, "ear": 661, "Ġcont": 662, "vent": 663, "ia": 664, "Ġwill": 665, "IN": 666, "ĠĠĠĠĠĠĠĠĠ": 667, "return": 668, "Ġ</": 669, "data": 670, "Re": 671, "ple": 672, "ild": 673, "ther": 674, "Ġyour": 675, "($": 676, "Ġout": 677, "),": 678, "Ġhas": 679, "String": 680, "so": 681, "Ġup": 682, "ax": 683, "Ġdef": 684, "Ġbo": 685, "ge": 686, "alse": 687, "ON": 688, "per": 689, "ich": 690, "Ġbut": 691, "ĠĊ": 692, "Ġ_": 693, "_m": 694, "add": 695, "quest": 696, "odel": 697, "self": 698, "ery": 699, "ft": 700, "ens": 701, "ake": 702, ".C": 703, "Ġgo": 704, "Ġfunction": 705, "ĠK": 706, "ivate": 707, "Ġim": 708, "Ġconst": 709, ".t": 710, "Ġvoid": 711, "Ġset": 712, "ĠSystem": 713, "cri": 714, "li": 715, ".m": 716, "ally": 717, "set": 718, "ep": 719, "âĢĻs": 720, "bo": 721, "def": 722, "Ġme": 723, "Ġ!": 724, "atch": 725, "\">": 726, "ec": 727, "ĠIn": 728, "ph": 729, "Ġ|": 730, "_f": 731, "Ġvar": 732, "ence": 733, "Id": 734, "ree": 735, "ink": 736, "lect": 737, "ug": 738, "eth": 739, "Ġelse": 740, "----------------": 741, "cont": 742, "Ġso": 743, "atic": 744, "Ġlo": 745, "pro": 746, "ton": 747, "ss": 748, "own": 749, "abel": 750, "oint": 751, "ous": 752, "eld": 753, "ST": 754, "The": 755, "ĠĠĠĠĠĠĠĠĠĠĠĠĠĠĠĠĠĠĠĠĠĠĠĠĠĠĠĠĠĠĠĠ": 756, "RE": 757, "\":": 758, "olor": 759, "tp": 760, "eg": 761, "key": 762, "ude": 763, "ĠSt": 764, "ound": 765, "Ġar": 766, "ener": 767, "ser": 768, "bject": 769, "essage": 770, "fer": 771, "Ġmore": 772, "ations": 773, "ents": 774, "Ġhis": 775, "Ġthey": 776, ".S": 777, "ĠY": 778, "use": 779, "ne": 780, "ish": 781, "old": 782, "_d": 783, "io": 784, "ield": 785, "Ġper": 786, "Cont": 787, "ings": 788, "####": 789, "Ġdata": 790, "Ġsa": 791, "ef": 792, "fo": 793, "Ġone": 794, "eng": 795, "Ġdis": 796, "AT": 797, "Ġname": 798, "Ġtrue": 799, "val": 800, "led": 801, ".f": 802, "Ġne": 803, "Ġend": 804, ".T": 805, "cre": 806, "ark": 807, "log": 808, "Ex": 809, "error": 810, "_id": 811, "urre": 812, "ange": 813, "Ġnull": 814, "rray": 815, "Ġmy": 816, "pan": 817, "ict": 818, "ator": 819, "View": 820, "List": 821, "âĢĿ": 822, "Ġpre": 823, "Ġx": 824, "clude": 825, "arg": 826, "ov": 827, ".h": 828, "Ġ>": 829, "Ġtheir": 830, "')": 831, "irst": 832, "ick": 833, "gh": 834, "LE": 835, "OR": 836, "Ġprivate": 837, "tem": 838, "user": 839, "Ġ)": 840, "com": 841, ".A": 842, "Ġid": 843, "read": 844, "Ġwho": 845, "_b": 846, "Ġtime": 847, "Ġman": 848, "ry": 849, "========": 850, "roup": 851, "rop": 852, "public": 853, "vel": 854, "umber": 855, "ble": 856, "Ġwhich": 857, "****************": 858, "Ġany": 859, "Ġfalse": 860, "we": 861, "Ġvalue": 862, "Ġli": 863, "\")": 864, "nder": 865, "gr": 866, "Ġno": 867, "param": 868, "fig": 869, ".com": 870, "Ġapp": 871, "_l": 872, "ions": 873, ".D": 874, "ĠCh": 875, "Ġabout": 876, "Ġadd": 877, "Ġsu": 878, "Ġstring": 879, "ID": 880, "Ġover": 881, "string": 882, ".l": 883, "ource": 884, "_C": 885, "Ġqu": 886, "ĠString": 887, "ca": 888, "SE": 889, "Ġro": 890, "sh": 891, "ual": 892, "Type": 893, "son": 894, "new": 895, "ern": 896, "Ġag": 897, "AR": 898, "].": 899, "Ġ?": 900, "ical": 901, "Ġdes": 902, "uth": 903, "ix": 904, "ays": 905, "Ġtype": 906, "'t": 907, "ault": 908, "Ġinter": 909, "var": 910, ".b": 911, "Ġpart": 912, ".d": 913, "urrent": 914, "IT": 915, "EN": 916, "enc": 917, "(f": 918, "ra": 919, "value": 920, "cho": 921, "utton": 922, "ose": 923, "Ġ!=": 924, "ater": 925, "Ã©": 926, "reate": 927, "oll": 928, "pos": 929, "yle": 930, "ng": 931, "AL": 932, "using": 933, "ames": 934, "ates": 935, "ely": 936, "Ġwork": 937, "Ġem": 938, "inal": 939, "Ġsp": 940, "Ġwhen": 941, ".set": 942, "ĠĠĠĠĠĠ": 943, "to": 944, "quire": 945, "indow": 946, "lement": 947, "pect": 948, "ash": 949, "[i": 950, "Ġuse": 951, ".F": 952, "pec": 953, "Ġad": 954, "ove": 955, "ception": 956, "ength": 957, "include": 958, "ader": 959, "ĠĠĠĠĠĠĠĠĠĠĠĠĠĠĠĠĠĠĠĠĠĠĠĠĠĠĠ": 960, "atus": 961, "Th": 962, "itle": 963, "rit": 964, "void": 965, "().": 966, "Ġoff": 967, "Ġother": 968, "Ġ&&": 969, "ms": 970, "Ġbeen": 971, "Ġte": 972, "ml": 973, "co": 974, "nc": 975, "ervice": 976, "Ġ%": 977, "ann": 978, "ade": 979, "lock": 980, "const": 981, "ponse": 982, "Ġsup": 983, "++": 984, "date": 985, "Ġacc": 986, "Ġhad": 987, "Ġbu": 988, "ĠRe": 989, "Ġwere": 990, "Ġfile": 991, "Ġwould": 992, "ĠâĢľ": 993, "ven": 994, "iss": 995, "Ġour": 996, "class": 997, "raw": 998, "Ġyear": 999, "Data": 1000, "Ġval": 1001, "Ġsome": 1002, "fter": 1003, "ys": 1004, "Ġ///": 1005, "round": 1006, "view": 1007, "Ġpe": 1008, "Ġthere": 1009, "Ġsaid": 1010, "du": 1011, "of": 1012, "line": 1013, "/*": 1014, "duct": 1015, "Ġher": 1016, "ĠĠĠĠĠĠĠĠĠĠĠĠĠ": 1017, "Res": 1018, "Ġco": 1019, "Ġcomm": 1020, "ise": 1021, "min": 1022, "ĠĠĠĠĊ": 1023, "#include": 1024, "ethod": 1025, ".P": 1026, "ute": 1027, "Ġass": 1028, "Int": 1029, "ask": 1030, "loc": 1031, "Ġlike": 1032, "ody": 1033, "Ġlet": 1034, "load": 1035, "Ġam": 1036, "rol": 1037, "Ġgr": 1038, "yp": 1039, "Ġalso": 1040, "ĠIt": 1041, "url": 1042, "ific": 1043, "ors": 1044, "_P": 1045, "_n": 1046, "igh": 1047, "Ġthan": 1048, "Com": 1049, "AN": 1050, "UL": 1051, "ating": 1052, "ĠThis": 1053, "ref": 1054, "_S": 1055, "Ġstatic": 1056, "roll": 1057, "Ġjust": 1058, "Ġresult": 1059, "ian": 1060, "idth": 1061, "Ġthem": 1062, "der": 1063, "reak": 1064, "Con": 1065, "://": 1066, "ule": 1067, "...": 1068, "arch": 1069, "ement": 1070, "Ġ<<": 1071, "ush": 1072, "ense": 1073, "arr": 1074, "Ġinto": 1075, "cess": 1076, "amp": 1077, "ied": 1078, "ument": 1079, "Ġ\\": 1080, "],": 1081, "wo": 1082, "als": 1083, "Ġwhat": 1084, "anc": 1085, "Value": 1086, "='": 1087, "olum": 1088, "Ġpos": 1089, "ages": 1090, "ayer": 1091, "Ġsc": 1092, "ues": 1093, "_T": 1094, "Ġlist": 1095, "(s": 1096, "Ġcase": 1097, "Ch": 1098, "ponent": 1099, "Ġz": 1100, "Ġkn": 1101, "let": 1102, "DE": 1103, "red": 1104, "Ġfe": 1105, "Ġ,": 1106, "(t": 1107, "Ġfirst": 1108, "word": 1109, "Ġimport": 1110, "Ġact": 1111, "Ġchar": 1112, "CT": 1113, "ĠTr": 1114, "ople": 1115, "={": 1116, "ient": 1117, "cent": 1118, ".j": 1119, "lection": 1120, "Ġonly": 1121, "Ġprint": 1122, "mer": 1123, ".W": 1124, "ock": 1125, "Ġ--": 1126, "Text": 1127, "Ġop": 1128, "ank": 1129, "Ġits": 1130, "Ġback": 1131, "[\"": 1132, "Ġneed": 1133, "Ġcl": 1134, "Ġsub": 1135, "Ġla": 1136, "((": 1137, ".\"": 1138, "Object": 1139, "Ġstart": 1140, "file": 1141, "(self": 1142, "ner": 1143, "ey": 1144, "Ġuser": 1145, "Ġent": 1146, "ĠCom": 1147, "its": 1148, "ĠCon": 1149, "ouble": 1150, "ower": 1151, "item": 1152, "very": 1153, "ĠWe": 1154, "lick": 1155, "ĠQ": 1156, "php": 1157, "ttp": 1158, "':": 1159, "ics": 1160, "Ġunder": 1161, ".L": 1162, ");": 1163, "ices": 1164, "Ġreg": 1165, "SS": 1166, "Ġthen": 1167, "reat": 1168, "ious": 1169, ".G": 1170, "ek": 1171, "irect": 1172, "heck": 1173, "cript": 1174, "ning": 1175, "ĠUn": 1176, "Ġmay": 1177, "ĠWh": 1178, "Bo": 1179, "Item": 1180, "struct": 1181, ".st": 1182, "ream": 1183, "ible": 1184, "loat": 1185, "Ġorg": 1186, "und": 1187, "sum": 1188, "_in": 1189, "../": 1190, "_M": 1191, "Ġhow": 1192, "rite": 1193, "To": 1194, "ww": 1195, "Ġpeople": 1196, "index": 1197, ".n": 1198, "http": 1199, "(m": 1200, "ector": 1201, "Ġind": 1202, "Ġjav": 1203, "ĠHe": 1204, "_st": 1205, "ful": 1206, "ole": 1207, "Ġshould": 1208, "opy": 1209, "elp": 1210, "ier": 1211, "_name": 1212, "erson": 1213, "ION": 1214, "ote": 1215, "Ġtest": 1216, "Ġbet": 1217, "rror": 1218, "ular": 1219, "ãĢ": 1220, "ĠÐ": 1221, "bs": 1222, "ting": 1223, "Ġmake": 1224, "Tr": 1225, "Ġafter": 1226, "arget": 1227, "RO": 1228, "olumn": 1229, "rc": 1230, "_re": 1231, "define": 1232, "Ġright": 1233, "right": 1234, "day": 1235, "Ġlong": 1236, "[]": 1237, "(p": 1238, "td": 1239, "cond": 1240, "ĠPro": 1241, "Ġrem": 1242, "ptions": 1243, "vid": 1244, ".g": 1245, "Ġext": 1246, "Ġ__": 1247, "pace": 1248, "mp": 1249, "Ġmin": 1250, "stance": 1251, "air": 1252, "action": 1253, "wh": 1254, "type": 1255, "util": 1256, "ait": 1257, "<?": 1258, "IC": 1259, "text": 1260, "Ġph": 1261, "Ġfl": 1262, ".M": 1263, "ccess": 1264, "br": 1265, "fore": 1266, "ersion": 1267, ".re": 1268, "ateg": 1269, "Ġloc": 1270, "ins": 1271, "-s": 1272, "trib": 1273, "ĠInt": 1274, "Ġarray": 1275, ",\"": 1276, "Pro": 1277, "(c": 1278, "ession": 1279, "Ġshe": 1280, "\"]": 1281, "aph": 1282, "Ġexp": 1283, "erty": 1284, "ĠSe": 1285, "Ġpar": 1286, "unc": 1287, "ET": 1288, "Ġread": 1289, "print": 1290, "Ġrel": 1291, "Ġform": 1292, "Ġdr": 1293, "Exception": 1294, "input": 1295, "Ġtrans": 1296, "########": 1297, "order": 1298, "By": 1299, "Ġaw": 1300, "ities": 1301, "uff": 1302, "play": 1303, ".add": 1304, "ĠâĢĵ": 1305, "Ġwant": 1306, "Ġcomp": 1307, "ments": 1308, "Ġ||": 1309, "az": 1310, "be": 1311, "Ġnumber": 1312, "Ġrequire": 1313, "ĠEx": 1314, "Ġcol": 1315, "Ġkey": 1316, "ember": 1317, "Ġtwo": 1318, "Ġsize": 1319, "Ġwhere": 1320, "UT": 1321, "result": 1322, "ĠĠĠĠĠĠĠĠĠĠĠĠĠĠĠĠĠĠĠĠĠĠĠĠĠĠĠĠĠĠĠ": 1323, "ough": 1324, "orld": 1325, "ood": 1326, "uch": 1327, "ative": 1328, "ger": 1329, "arent": 1330, "Ġ/*": 1331, "Ġarg": 1332, "Ġwhile": 1333, "(this": 1334, "Ġrec": 1335, "Ġdif": 1336, "State": 1337, "Ġspec": 1338, "ride": 1339, "_F": 1340, "Ġlook": 1341, "AM": 1342, "ility": 1343, "eter": 1344, "âĢĻt": 1345, "ĊĊĊ": 1346, "ayout": 1347, "--------------------------------": 1348, "ager": 1349, "Ġcould": 1350, "Ġbr": 1351, "ends": 1352, "ures": 1353, "Ġknow": 1354, "ets": 1355, "ĠIf": 1356, "ĠSh": 1357, ".w": 1358, "back": 1359, "Ġser": 1360, "Ġ+=": 1361, "Ġfr": 1362, "Ġhand": 1363, "Ind": 1364, "ULL": 1365, "Im": 1366, "Ġmost": 1367, "Ġtry": 1368, "Ġnow": 1369, "rough": 1370, "ackage": 1371, "Ġhim": 1372, "._": 1373, "ify": 1374, "Ġbreak": 1375, "ren": 1376, "#define": 1377, "itt": 1378, "Ġap": 1379, "(n": 1380, "ĠYou": 1381, "-m": 1382, "Ġevery": 1383, "ustom": 1384, "lient": 1385, "ocument": 1386, "cription": 1387, "Error": 1388, "-b": 1389, "Ð¾": 1390, "][": 1391, "trans": 1392, "Ġpoint": 1393, "Ġstd": 1394, "Ġfil": 1395, "Time": 1396, "Ġmod": 1397, "Ġ->": 1398, "Ġerror": 1399, "ah": 1400, "Ġtext": 1401, "roller": 1402, "lose": 1403, "ql": 1404, "Ġpol": 1405, "></": 1406, "Ġshow": 1407, "User": 1408, "ased": 1409, "Ġfind": 1410, "Ð°": 1411, "ED": 1412, "span": 1413, "enu": 1414, "Ġcurrent": 1415, "Ġused": 1416, "cept": 1417, "clud": 1418, "Ġplay": 1419, "Ġlog": 1420, "ution": 1421, "fl": 1422, "Ġsee": 1423, "indows": 1424, "Ġhelp": 1425, "Ġthese": 1426, "Ġpass": 1427, "Ġdown": 1428, "Ġeven": 1429, "ason": 1430, "uild": 1431, "from": 1432, "(d": 1433, "Ġbl": 1434, "label": 1435, "else": 1436, "Ðµ": 1437, "Ġ(!": 1438, "ized": 1439, "(),": 1440, "Ġob": 1441, "Ġitem": 1442, "ump": 1443, "UR": 1444, "orn": 1445, "Ġdon": 1446, "Se": 1447, "man": 1448, "ample": 1449, "tn": 1450, "================": 1451, "He": 1452, "gram": 1453, "Ġdid": 1454, "wn": 1455, "_h": 1456, "iver": 1457, "Ġsm": 1458, "Ġthrough": 1459, "ĠAn": 1460, "che": 1461, "Ġinv": 1462, "ouse": 1463, "Ġes": 1464, "ĠNew": 1465, "export": 1466, "mary": 1467, "uto": 1468, "ler": 1469, "Ġlast": 1470, "Ġevent": 1471, "try": 1472, "ï¼": 1473, "ily": 1474, "igned": 1475, "ines": 1476, "ollow": 1477, "icense": 1478, "sole": 1479, "lear": 1480, "(int": 1481, "Ġagain": 1482, "Ġhigh": 1483, "html": 1484, "Index": 1485, "uthor": 1486, "Ġline": 1487, "Event": 1488, "_D": 1489, "Ġdoes": 1490, "itial": 1491, "Ġcr": 1492, "ars": 1493, "Ġtem": 1494, "cause": 1495, "face": 1496, "Ġ`": 1497, "_A": 1498, "Button": 1499, "ature": 1500, "ected": 1501, "ES": 1502, "ister": 1503, "Ġbefore": 1504, "ale": 1505, "other": 1506, "Ġbecause": 1507, "roid": 1508, "Ġed": 1509, "ik": 1510, "reg": 1511, "ĠDe": 1512, "Ġdist": 1513, "Ġstate": 1514, "Ġcons": 1515, "rint": 1516, "att": 1517, "Ġhere": 1518, "ined": 1519, "Ġfinal": 1520, "Ġ\"\"": 1521, "Key": 1522, "LO": 1523, "Ġdel": 1524, "pty": 1525, "thing": 1526, "ĠAnd": 1527, "Ġrun": 1528, "ĠX": 1529, "ym": 1530, ".app": 1531, "Ġvery": 1532, "ces": 1533, "_N": 1534, "ared": 1535, "ward": 1536, "list": 1537, "ited": 1538, "olog": 1539, "itch": 1540, "Box": 1541, "ife": 1542, "Ġac": 1543, "Ġmodel": 1544, "Ġmon": 1545, "Ġway": 1546, "lete": 1547, "Ġcall": 1548, "Ġatt": 1549, "Ġcal": 1550, "vert": 1551, "Ġdec": 1552, "lease": 1553, "oun": 1554, "fr": 1555, "formation": 1556, "etail": 1557, "Ġnum": 1558, "aj": 1559, "query": 1560, "Ġwell": 1561, "Ġobject": 1562, "ĠAs": 1563, "Ġyears": 1564, "Color": 1565, "IS": 1566, "Ġdefault": 1567, "Wh": 1568, "Ġins": 1569, "aint": 1570, "Ġjava": 1571, "Ġsim": 1572, "ĠAr": 1573, "mon": 1574, "til": 1575, "):": 1576, "Set": 1577, "atter": 1578, "Ġview": 1579, "Ġpres": 1580, "array": 1581, "We": 1582, "At": 1583, "Ġbel": 1584, "Ġmany": 1585, "Man": 1586, "ender": 1587, "Ġbeing": 1588, "Ġgood": 1589, "ational": 1590, "ware": 1591, ".log": 1592, "Ġusing": 1593, "_B": 1594, "Ġ:=": 1595, "_w": 1596, "ists": 1597, "lish": 1598, "Ġstud": 1599, "ĠAl": 1600, "Ġgu": 1601, "config": 1602, "uring": 1603, "time": 1604, "oken": 1605, "amespace": 1606, "Ġrequest": 1607, "Ġchild": 1608, "ĠÃ": 1609, "lob": 1610, "Ġparam": 1611, "Ġecho": 1612, "function": 1613, "********************************": 1614, "ps": 1615, "Element": 1616, "alk": 1617, "lication": 1618, "by": 1619, "Size": 1620, "rawing": 1621, "Ġperson": 1622, "ĠĠĠĠĠĠĠĠĠĠĠĠĠĠĠĠĠ": 1623, "\\n": 1624, "object": 1625, "ince": 1626, "En": 1627, "File": 1628, "uf": 1629, "ffect": 1630, "AC": 1631, "Ġstyle": 1632, "summary": 1633, "Ġque": 1634, "_r": 1635, "Ġ($": 1636, "Model": 1637, "ident": 1638, "Ġmethod": 1639, "IL": 1640, "ott": 1641, "less": 1642, "ING": 1643, "Ġ()": 1644, "Ġexpect": 1645, "ync": 1646, "package": 1647, "urs": 1648, "Ġprot": 1649, "./": 1650, "pre": 1651, "ma": 1652, "Ġsur": 1653, "Ġfound": 1654, "Info": 1655, "par": 1656, "imes": 1657, ".e": 1658, "ains": 1659, "Ġpost": 1660, "-d": 1661, "olean": 1662, "Ġsl": 1663, "PE": 1664, "Ġsuch": 1665, "select": 1666, "ainer": 1667, "Ġthink": 1668, "Ġdiffer": 1669, ".r": 1670, "FF": 1671, "ool": 1672, "plate": 1673, "qual": 1674, "ĠFor": 1675, "Ġmuch": 1676, "uc": 1677, "(new": 1678, "odule": 1679, "Ġsom": 1680, "Ġhttp": 1681, "ĠList": 1682, "Ġcount": 1683, "Ġinst": 1684, "char": 1685, "mit": 1686, ".id": 1687, "aking": 1688, "Ġgener": 1689, "px": 1690, "vice": 1691, "_data": 1692, "ĠNULL": 1693, "idd": 1694, "ãĢĤ": 1695, "Ġmed": 1696, "org": 1697, "ider": 1698, "ache": 1699, "work": 1700, "Ġcheck": 1701, "ween": 1702, "Ġ((": 1703, "the": 1704, "ants": 1705, "><": 1706, ".B": 1707, "-c": 1708, "Ġopen": 1709, "Ġest": 1710, "ĠĠĠĠĠĠĠĠĊ": 1711, "Ġnext": 1712, "IM": 1713, "ÑĤ": 1714, "OT": 1715, "Ã³": 1716, "Ġfollow": 1717, "content": 1718, "ĠĠĠĠĠĠĠĠĠĠĠĠ": 1719, "Ġinclud": 1720, "HE": 1721, "ĠRes": 1722, "Ġhref": 1723, "Ð¸": 1724, "Ġcar": 1725, "ypes": 1726, "image": 1727, "Un": 1728, "Ġbool": 1729, "AD": 1730, "Ġgame": 1731, "rows": 1732, "*/": 1733, "velop": 1734, "Ġpath": 1735, "ision": 1736, "Ġeach": 1737, "ĠPl": 1738, "_type": 1739, "Path": 1740, "nection": 1741, "Ġav": 1742, "').": 1743, "Ġsupport": 1744, "ENT": 1745, "rem": 1746, "\").": 1747, "Ġown": 1748, "Ġcor": 1749, "count": 1750, "miss": 1751, "ually": 1752, "Ġmem": 1753, "std": 1754, "ience": 1755, "search": 1756, "Form": 1757, "Ġsex": 1758, "ename": 1759, "Ġsign": 1760, "Ġet": 1761, "ĠĠĠĠĠĠĠĠĠĠ": 1762, "','": 1763, "ĠApp": 1764, "Ġthose": 1765, "off": 1766, "Ġerr": 1767, "Ġsystem": 1768, "Ġbest": 1769, "code": 1770, "Ġsame": 1771, "Ġdi": 1772, "uss": 1773, "Ġcreate": 1774, "ather": 1775, "Array": 1776, ".in": 1777, "fe": 1778, "Service": 1779, "UN": 1780, "ats": 1781, "ĠZ": 1782, "alth": 1783, "Ġmade": 1784, "true": 1785, "AB": 1786, "Ġmark": 1787, "rid": 1788, "ified": 1789, "yn": 1790, "press": 1791, "Ġgroup": 1792, "Ġfin": 1793, "ĠLicense": 1794, "Field": 1795, "eger": 1796, "Ġworld": 1797, "iness": 1798, "ty": 1799, "Ġprocess": 1800, "(b": 1801, "Ġcre": 1802, "arn": 1803, "ives": 1804, "Ġmain": 1805, "ideo": 1806, "_g": 1807, "AG": 1808, "valid": 1809, "img": 1810, "PI": 1811, "Ġcolor": 1812, "Ġreport": 1813, "Ġtake": 1814, "rib": 1815, "OM": 1816, "Ġday": 1817, "Request": 1818, "Ġsk": 1819, "bers": 1820, ".Add": 1821, "oot": 1822, "Image": 1823, "Ġcomple": 1824, "ollection": 1825, "Ġtop": 1826, "Ġfree": 1827, "AS": 1828, "De": 1829, "ĠOn": 1830, "IG": 1831, "eta": 1832, "Date": 1833, "Ġaction": 1834, "Over": 1835, "itor": 1836, "ĠĠĠĠĠĠĠĠĠĠĠĠĠĠĠĠĠĠĠĠĠĠĠĠĠĠĠĠĠĠĠĠĠĠĠ": 1837, "not": 1838, "Ġindex": 1839, "her": 1840, "icon": 1841, "On": 1842, "ivity": 1843, "mand": 1844, "OL": 1845, "Ġreal": 1846, "Ġmax": 1847, "land": 1848, "....": 1849, "raph": 1850, "Ġbuild": 1851, "leg": 1852, "assword": 1853, "âĢ¦": 1854, "ook": 1855, "uck": 1856, "Ġmessage": 1857, "test": 1858, "ivers": 1859, "Ġinput": 1860, "Ġart": 1861, "Ġbetween": 1862, "Get": 1863, "enter": 1864, "ground": 1865, "ene": 1866, "Ã¡": 1867, ".length": 1868, "Node": 1869, "(i": 1870, "Class": 1871, "for": 1872, "ĠâĢĶ": 1873, "ten": 1874, "oin": 1875, "Ġke": 1876, "ui": 1877, "ĠIN": 1878, "Ġtable": 1879, "sub": 1880, "ĠLe": 1881, "Ġhead": 1882, "Ġmust": 1883, ".util": 1884, "Context": 1885, "Ġorder": 1886, "Ġmov": 1887, "over": 1888, "Ġcontin": 1889, "Ġsay": 1890, "static": 1891, ".Text": 1892, "pany": 1893, "Ġter": 1894, "head": 1895, "rg": 1896, "Ġproduct": 1897, "This": 1898, ".âĢĿ": 1899, "ĠBut": 1900, "loy": 1901, "Ġdouble": 1902, "sg": 1903, "Ġplace": 1904, ".x": 1905, "message": 1906, "Ġinformation": 1907, "private": 1908, "Ġoper": 1909, "ced": 1910, "db": 1911, "\"></": 1912, "Param": 1913, "icle": 1914, "Ġweek": 1915, "Ġprop": 1916, "table": 1917, "idget": 1918, "place": 1919, "Prop": 1920, "ĠAll": 1921, "els": 1922, "box": 1923, ".R": 1924, "ĠTo": 1925, "iter": 1926, "Sh": 1927, "uration": 1928, "older": 1929, "_list": 1930, "come": 1931, "Ġsw": 1932, "ization": 1933, "bl": 1934, "Ġprogram": 1935, "(e": 1936, "ape": 1937, "check": 1938, "Ġund": 1939, "ategory": 1940, "ags": 1941, "Ġresponse": 1942, "US": 1943, "Ġstruct": 1944, "escription": 1945, "Ġcode": 1946, "_H": 1947, "uffer": 1948, "Ġwithout": 1949, "lobal": 1950, "Manager": 1951, "ilter": 1952, "PO": 1953, "option": 1954, "Ġsol": 1955, "Ġ===": 1956, "akes": 1957, "Controller": 1958, "Message": 1959, "Ġref": 1960, "ever": 1961, "ĠSo": 1962, "aining": 1963, ".append": 1964, "Ġstill": 1965, "Ġprovid": 1966, "Ġassert": 1967, "med": 1968, "Ġcap": 1969, "usiness": 1970, "Ġrep": 1971, "tings": 1972, "ved": 1973, ".N": 1974, "api": 1975, "OD": 1976, "Ġfield": 1977, "iven": 1978, "oto": 1979, "âĢľ": 1980, "col": 1981, "(x": 1982, "ght": 1983, "Result": 1984, "Code": 1985, ".is": 1986, "link": 1987, "Ġcour": 1988, "An": 1989, "Ġteam": 1990, "ift": 1991, "Ġsecond": 1992, "Ġgoing": 1993, "Ġrange": 1994, "_E": 1995, "ness": 1996, "Ġfam": 1997, "Ġnil": 1998, "ĠCont": 1999, "ailable": 2000, "utes": 2001, "atab": 2002, "Ġfact": 2003, "Ġvis": 2004, "(&": 2005, "ĠAN": 2006, "Al": 2007, "title": 2008, "Ġandroid": 2009, "CE": 2010, "\\\"": 2011, "irt": 2012, "Ġwrit": 2013, "Ð½": 2014, "ftware": 2015, "ond": 2016, "Ġret": 2017, "osition": 2018, "Ġhome": 2019, "Ġleft": 2020, "args": 2021, "meric": 2022, "Ġdirect": 2023, "oci": 2024, "Pl": 2025, "As": 2026, "ret": 2027, "ado": 2028, "Of": 2029, "chn": 2030, "ĠGet": 2031, "ee": 2032, "ross": 2033, "();": 2034, "____": 2035, ".ph": 2036, "It": 2037, "oute": 2038, "Ġexper": 2039, "chool": 2040, "www": 2041, "},": 2042, "Ġallow": 2043, "ĠÂ": 2044, "())": 2045, "size": 2046, "ism": 2047, "ai": 2048, "tract": 2049, "ane": 2050, "context": 2051, "Ġbeg": 2052, "CH": 2053, "Ġpage": 2054, "hip": 2055, "no": 2056, "core": 2057, "sp": 2058, "Ġdifferent": 2059, "iable": 2060, "ĠMe": 2061, "button": 2062, "ĠIs": 2063, "ervices": 2064, "Ġca": 2065, "Ġaround": 2066, "App": 2067, "ration": 2068, "Ġrece": 2069, "Ġreally": 2070, "Ġimage": 2071, "Ġtarget": 2072, "Ġdep": 2073, "opyright": 2074, "tra": 2075, "ingle": 2076, "ital": 2077, "Layout": 2078, "Ġboth": 2079, "arm": 2080, "=>": 2081, "aterial": 2082, "iled": 2083, "Ġput": 2084, "Qu": 2085, "ÑĢ": 2086, "ung": 2087, "map": 2088, "Ġlevel": 2089, "Component": 2090, "book": 2091, "creen": 2092, "Ġconfig": 2093, "ãģ": 2094, "Or": 2095, ".data": 2096, "Ġdocument": 2097, "\",\"": 2098, "tribute": 2099, "ux": 2100, "Log": 2101, "ference": 2102, "post": 2103, "_e": 2104, "Ġlocal": 2105, "andom": 2106, "assert": 2107, "Val": 2108, "lected": 2109, "ina": 2110, "atabase": 2111, "Add": 2112, "Ġcontent": 2113, ".print": 2114, "signed": 2115, "ric": 2116, "Ġfa": 2117, "-f": 2118, "ived": 2119, "Ġquest": 2120, ".ex": 2121, "Ġfloat": 2122, "Ġdevelop": 2123, "Map": 2124, "ading": 2125, "Ġposs": 2126, "UE": 2127, "namespace": 2128, "_O": 2129, ">(": 2130, "json": 2131, "etails": 2132, "Ġtoo": 2133, "Ġextends": 2134, "ĠNone": 2135, "Ġfore": 2136, "(String": 2137, "format": 2138, "Ġgreat": 2139, "inter": 2140, "cale": 2141, "Ñģ": 2142, "ron": 2143, "iving": 2144, "Ent": 2145, "ency": 2146, "xt": 2147, "oy": 2148, "Ġmonth": 2149, "Ġhapp": 2150, "Ġsuper": 2151, "bar": 2152, "default": 2153, "_de": 2154, "ords": 2155, "ln": 2156, "ĠInd": 2157, "ases": 2158, "Ġtitle": 2159, "Ġcontext": 2160, "oh": 2161, "-p": 2162, "Em": 2163, "Ġmet": 2164, "Test": 2165, "Ġlife": 2166, "_v": 2167, "ĠUS": 2168, "UI": 2169, "ocation": 2170, "md": 2171, "Ġ]": 2172, "sw": 2173, "Ġincre": 2174, "script": 2175, "ential": 2176, "ways": 2177, ".de": 2178, "Ġsrc": 2179, "Ġcatch": 2180, "ĠAmeric": 2181, "ĠĠĠĠĠĠĠĠĠĠĠĠĠĠ": 2182, "Ġpay": 2183, "plit": 2184, "âĢĶ": 2185, "Ġcoun": 2186, "obj": 2187, ".php": 2188, "Ġchange": 2189, "ething": 2190, "'re": 2191, "aster": 2192, "los": 2193, "lation": 2194, "ĠĠĊ": 2195, "Le": 2196, "Ã¤": 2197, "({": 2198, "ready": 2199, "ĠNo": 2200, "Ġposition": 2201, "Ġold": 2202, "Ġbook": 2203, "abled": 2204, "bug": 2205, "Hand": 2206, "isplay": 2207, "aving": 2208, "Ġgover": 2209, "Ġversion": 2210, "System": 2211, "nect": 2212, "response": 2213, "Style": 2214, "Up": 2215, "angu": 2216, "Ġthree": 2217, "init": 2218, "ero": 2219, "Ġlaw": 2220, "endif": 2221, "Ġbase": 2222, "email": 2223, "(l": 2224, "_V": 2225, "Ġconf": 2226, "ATE": 2227, "Ġduring": 2228, "tes": 2229, "Ġconsole": 2230, "ĠPr": 2231, "Ġspe": 2232, "ves": 2233, "path": 2234, "ialog": 2235, "dition": 2236, "_to": 2237, "ards": 2238, "Ġagainst": 2239, "etwork": 2240, "ĠPh": 2241, "_L": 2242, "cur": 2243, "imit": 2244, "With": 2245, "Ġpower": 2246, "ium": 2247, "Ġwom": 2248, "left": 2249, "ources": 2250, "atri": 2251, "ĠIm": 2252, "ĠMan": 2253, "orth": 2254, "${": 2255, "quals": 2256, "ese": 2257, "_size": 2258, "Ġiss": 2259, "otal": 2260, "-g": 2261, "ique": 2262, "rame": 2263, "Ġwidth": 2264, "erg": 2265, ")(": 2266, "ittle": 2267, "TR": 2268, "ĠThey": 2269, "ences": 2270, "rl": 2271, "ons": 2272, "Ġlabel": 2273, ".y": 2274, "-t": 2275, "update": 2276, "anel": 2277, "sc": 2278, ".to": 2279, "Ġproject": 2280, "Ã¼": 2281, "Ġelement": 2282, "Ġsuccess": 2283, ".sh": 2284, "ram": 2285, "ched": 2286, "Ġdate": 2287, "Ġtot": 2288, "All": 2289, "ification": 2290, "Ġtri": 2291, "chem": 2292, "my": 2293, "Ġbig": 2294, "ĠAd": 2295, "ĠAt": 2296, "ots": 2297, "num": 2298, "Act": 2299, "Ġmap": 2300, "era": 2301, "cope": 2302, ".$": 2303, ",âĢĿ": 2304, "Ġpop": 2305, "Ġfew": 2306, "Ġlen": 2307, "uid": 2308, "eters": 2309, "ules": 2310, "ÃŃ": 2311, "source": 2312, "https": 2313, "Ġdem": 2314, "Ġear": 2315, "################": 2316, "Ġmatch": 2317, "ories": 2318, "aces": 2319, "ĠCl": 2320, "Ġnode": 2321, "irc": 2322, "local": 2323, "unity": 2324, "Ġanother": 2325, "<<": 2326, "ogle": 2327, "Ġsit": 2328, "ework": 2329, "TE": 2330, ".I": 2331, "NS": 2332, "ology": 2333, "ought": 2334, ">>": 2335, "Ġcare": 2336, "state": 2337, "Ġeffect": 2338, "++)": 2339, "_file": 2340, "ending": 2341, "Line": 2342, "For": 2343, "ior": 2344, "ĠSc": 2345, "Ġfun": 2346, "])": 2347, "start": 2348, "vious": 2349, "Ġ},": 2350, "ours": 2351, "Ġleg": 2352, "Ġservice": 2353, "Ġsince": 2354, "iron": 2355, "Label": 2356, "Ġnon": 2357, "Ġlos": 2358, "iction": 2359, "Ġfull": 2360, "acter": 2361, "board": 2362, "gress": 2363, "Ġturn": 2364, "ither": 2365, ".size": 2366, "Ġbody": 2367, "resh": 2368, "eturn": 2369, "(_": 2370, "yles": 2371, "ormal": 2372, "pi": 2373, "Ġsomething": 2374, "!--": 2375, "uint": 2376, "Ġprodu": 2377, "Ġstand": 2378, "Ġproble": 2379, "Ġavailable": 2380, "mt": 2381, "ĠBl": 2382, "Ġ...": 2383, "Ġblock": 2384, "Input": 2385, "Ġkeep": 2386, "Count": 2387, "open": 2388, "Ġ['": 2389, "Ġthrow": 2390, "uilder": 2391, "Action": 2392, "Ġthings": 2393, "True": 2394, "Ġurl": 2395, "ĠBo": 2396, "printf": 2397, "Ġred": 2398, "js": 2399, ".create": 2400, "ĠOr": 2401, "Status": 2402, "Instance": 2403, "Ġcontrol": 2404, "Ġcome": 2405, "Ġcustom": 2406, "location": 2407, "model": 2408, "ĠčĊ": 2409, "Ġsource": 2410, "Ġeas": 2411, ".out": 2412, "oney": 2413, "Ġawait": 2414, "Ġpartic": 2415, "AP": 2416, "ublish": 2417, "odes": 2418, "_pro": 2419, "ply": 2420, "riter": 2421, "Ġprov": 2422, "Ġmill": 2423, "HT": 2424, "Ġchang": 2425, "Ġask": 2426, "ĠĠĠĠĠĠĠĠĠĠĠĠĠĠĠĠĠĠĠĠĠ": 2427, "Ġoutput": 2428, "Ġemail": 2429, ".push": 2430, "ination": 2431, "atrix": 2432, "Table": 2433, "uccess": 2434, "ĠĠĠĠĠĠĠĠĠĠĠĠĠĠĠĠĠĠĠĠĠĠĠĠĠĠĠĠĠĠĠĠĠĠĠĠĠĠĠ": 2435, "Ġdisc": 2436, "([": 2437, "Ġbusiness": 2438, "height": 2439, ".html": 2440, "ta": 2441, "field": 2442, "Ġrequired": 2443, "_R": 2444, "Ġgovern": 2445, "lex": 2446, ".,": 2447, "ĠSet": 2448, "urch": 2449, "///": 2450, "ts": 2451, "af": 2452, "Ġmight": 2453, "istory": 2454, "Str": 2455, "Ġnever": 2456, "Response": 2457, "arse": 2458, "ada": 2459, "ĠHow": 2460, "Ġ*)": 2461, "Ġ;": 2462, "Ġhard": 2463, "Ad": 2464, "Ġintern": 2465, "used": 2466, "(data": 2467, "mod": 2468, "annel": 2469, "Ġnp": 2470, "ugg": 2471, "Ġcalled": 2472, "body": 2473, "Ġcho": 2474, "(r": 2475, "_set": 2476, "ird": 2477, "Ġ>=": 2478, "Ġoptions": 2479, "ĠGener": 2480, "Ġheight": 2481, "Point": 2482, "You": 2483, "ety": 2484, "Click": 2485, "Ġsmall": 2486, "Ġide": 2487, "Ġaccess": 2488, "anguage": 2489, "Ġprotected": 2490, "Ġjob": 2491, "ĠThere": 2492, "Def": 2493, "Ġaddress": 2494, "Ġuint": 2495, "Not": 2496, "oo": 2497, "aps": 2498, "<div": 2499, "ained": 2500, "atur": 2501, "Ġsum": 2502, "-w": 2503, "ĠDate": 2504, "Ġlittle": 2505, "Ġfri": 2506, "YPE": 2507, "Ġport": 2508, "eh": 2509, "pring": 2510, "_path": 2511, "Ġstatus": 2512, "aim": 2513, "bool": 2514, "Ġappe": 2515, "Ġos": 2516, ".name": 2517, "ension": 2518, "_G": 2519, "Ġupdate": 2520, "Config": 2521, "aff": 2522, "ERR": 2523, "Ġ<=": 2524, "ately": 2525, "uction": 2526, "ĠTe": 2527, "Ġlink": 2528, "ĠUser": 2529, ".find": 2530, ".org": 2531, "me": 2532, "Ġgiven": 2533, "Out": 2534, "Ġbetter": 2535, "Page": 2536, "Ġfeel": 2537, "enn": 2538, "ML": 2539, "Ġalready": 2540, "Ġincluding": 2541, "oogle": 2542, "ru": 2543, "ically": 2544, "prop": 2545, "lean": 2546, "outer": 2547, "Ġalways": 2548, "ording": 2549, "If": 2550, "orage": 2551, "Ġparent": 2552, "vis": 2553, "Ġgot": 2554, "stand": 2555, "Ġless": 2556, "/s": 2557, "ĠAss": 2558, "apt": 2559, "ired": 2560, "ĠAdd": 2561, "Ġaccount": 2562, "ploy": 2563, "Ġder": 2564, "resent": 2565, "Ġlot": 2566, "Ġvalid": 2567, "Ġbit": 2568, "ponents": 2569, "Ġfollowing": 2570, "_ex": 2571, "SON": 2572, "Ġsure": 2573, "ocial": 2574, "Ġprom": 2575, "erties": 2576, "header": 2577, ".pro": 2578, "Ġboolean": 2579, "Ġsearch": 2580, "ken": 2581, "Ġorig": 2582, "Ġer": 2583, "Ed": 2584, "EM": 2585, "aut": 2586, "ling": 2587, "ality": 2588, "bed": 2589, "ether": 2590, "posit": 2591, "Ġinvest": 2592, "ĠOR": 2593, "Ġsays": 2594, "mission": 2595, "AME": 2596, "Ġtemp": 2597, "oad": 2598, "Ġrest": 2599, "info": 2600, "Ġinterest": 2601, "Arg": 2602, "Ġperform": 2603, "pons": 2604, "ĠView": 2605, "Ġver": 2606, "lib": 2607, "(const": 2608, "Util": 2609, "arge": 2610, "Ġmult": 2611, "Ġdie": 2612, "Ġsite": 2613, "../../": 2614, "EL": 2615, "Ġvalues": 2616, "pen": 2617, "No": 2618, "icro": 2619, "Ġbeh": 2620, "Ġ'./": 2621, "acy": 2622, "rec": 2623, "\"))": 2624, "Content": 2625, "_W": 2626, "plement": 2627, "Ġwon": 2628, "Ġvideo": 2629, "adi": 2630, "point": 2631, "%%": 2632, "Ġgl": 2633, "erved": 2634, "viron": 2635, "IF": 2636, "uted": 2637, "'m": 2638, "Ġcert": 2639, "Ġprof": 2640, "Ġcell": 2641, "ari": 2642, "Ġplayer": 2643, "ais": 2644, "Ġcost": 2645, "Ġhum": 2646, "(R": 2647, "Ġoffic": 2648, "ks": 2649, ".text": 2650, "atures": 2651, "Ġtotal": 2652, "ope": 2653, "Ġstat": 2654, "UM": 2655, "Ġload": 2656, "ights": 2657, "Ġclear": 2658, "uro": 2659, "Ġtechn": 2660, "upport": 2661, "IR": 2662, "Ġrow": 2663, "Ġseem": 2664, "Ġq": 2665, "Ġshort": 2666, "ĠNot": 2667, "ipp": 2668, "Group": 2669, "section": 2670, "max": 2671, "irl": 2672, "Ġoverride": 2673, "Ġcompany": 2674, "Ġdone": 2675, "Ġgre": 2676, ".Re": 2677, "Ġbelie": 2678, "rist": 2679, "Ġhealth": 2680, "ANT": 2681, "ĠBe": 2682, ".value": 2683, "ĠGr": 2684, "ottom": 2685, "Ġargs": 2686, "PT": 2687, "status": 2688, "func": 2689, "uments": 2690, "-h": 2691, "Number": 2692, "ĠLog": 2693, "erver": 2694, "ament": 2695, "Ġobj": 2696, "inc": 2697, "Ġchildren": 2698, "icy": 2699, "IZ": 2700, "ands": 2701, "ably": 2702, "Ġdistrib": 2703, "Ġcur": 2704, "erial": 2705, "Ġdays": 2706, "reated": 2707, "rect": 2708, "-l": 2709, "irm": 2710, "idden": 2711, "omb": 2712, "Ġinitial": 2713, ".js": 2714, "Ġâ": 2715, "Query": 2716, "Ġonline": 2717, "imal": 2718, ".con": 2719, "au": 2720, "Url": 2721, "control": 2722, "irection": 2723, "Ġinstance": 2724, "ORT": 2725, "ĠFr": 2726, "where": 2727, "Ġorgan": 2728, "apter": 2729, "Ġreason": 2730, "options": 2731, "ĠMar": 2732, "(a": 2733, "Ġwithin": 2734, "ODE": 2735, "_DE": 2736, "admin": 2737, "ended": 2738, "Ġdesign": 2739, "ĠData": 2740, "une": 2741, "ĠFile": 2742, "root": 2743, "Ġcent": 2744, "Ġarr": 2745, "_add": 2746, "len": 2747, "page": 2748, ",'": 2749, "_str": 2750, "Ġbro": 2751, "ability": 2752, "outh": 2753, "/c": 2754, "pose": 2755, "irtual": 2756, "earch": 2757, "_url": 2758, "argin": 2759, "Ġschool": 2760, "ava": 2761, "Ġconsider": 2762, ".label": 2763, "ĠArray": 2764, "web": 2765, "opt": 2766, ".println": 2767, "ulation": 2768, "Ġfunc": 2769, "PL": 2770, "Ġ\"\\": 2771, "ĠText": 2772, "actory": 2773, "(function": 2774, "null": 2775, "Ġeng": 2776, "down": 2777, "Ġinclude": 2778, "ĠEn": 2779, "ĠDr": 2780, "Ġdb": 2781, "!!": 2782, "side": 2783, "Ġinit": 2784, "quired": 2785, "ĠShe": 2786, "Column": 2787, "react": 2788, "Ġann": 2789, "Ġstop": 2790, "Ġlater": 2791, "ĠThat": 2792, "ention": 2793, "df": 2794, "UG": 2795, "ILE": 2796, "Ġclient": 2797, "raft": 2798, "ffer": 2799, "POST": 2800, "elper": 2801, "Ġlove": 2802, "quote": 2803, "oud": 2804, "Ġjson": 2805, "Ġable": 2806, "Ġmen": 2807, "AX": 2808, "ĠCopyright": 2809, "Ã¶": 2810, "avig": 2811, "req": 2812, "Client": 2813, "erc": 2814, "ilt": 2815, "pecial": 2816, "_com": 2817, "room": 2818, "Ġgive": 2819, "amb": 2820, "ike": 2821, "Ġcondition": 2822, "client": 2823, "ators": 2824, ":\"": 2825, "Ġcopy": 2826, "uture": 2827, "iversity": 2828, "ernal": 2829, "{{": 2830, "ĠCan": 2831, "ounc": 2832, "do": 2833, "Ġocc": 2834, "Ġappro": 2835, "thers": 2836, "ze": 2837, "Ġeither": 2838, "ĠFl": 2839, "Ġimportant": 2840, "Ġlead": 2841, "attr": 2842, "ART": 2843, "Equal": 2844, "Ġda": 2845, "etch": 2846, "entity": 2847, "Ġfamily": 2848, "adding": 2849, "Ġoption": 2850, "Ġexist": 2851, "ica": 2852, "ĠObject": 2853, "'ve": 2854, "vers": 2855, "itional": 2856, "output": 2857, "ĠTrue": 2858, "ĠOF": 2859, "_time": 2860, "Ġoffer": 2861, "HER": 2862, "egin": 2863, "\"\"": 2864, "Ġwater": 2865, "Ġche": 2866, "ĠMy": 2867, "ored": 2868, "Ġstep": 2869, "ances": 2870, "CK": 2871, "AY": 2872, "struction": 2873, "(C": 2874, "ouch": 2875, "Stream": 2876, "active": 2877, "ama": 2878, "Entity": 2879, "product": 2880, "Ġgovernment": 2881, "ĠID": 2882, "ajor": 2883, "And": 2884, "Ġdisplay": 2885, "Ð»": 2886, "Ġtimes": 2887, "Ġfour": 2888, "Ġfar": 2889, "Ġpresent": 2890, "ĠNS": 2891, "uest": 2892, "Ġbas": 2893, "echo": 2894, "child": 2895, "ifier": 2896, "Handler": 2897, "Ġlib": 2898, "Property": 2899, "translation": 2900, "Ġroom": 2901, "Ġonce": 2902, "Ġ[]": 2903, "center": 2904, "================================": 2905, "Ġresults": 2906, "Ġcontinue": 2907, "Ġtalk": 2908, "_get": 2909, "Ġgrow": 2910, ".sw": 2911, "eb": 2912, "ĠPublic": 2913, "OP": 2914, "ecute": 2915, "ols": 2916, "Ġ**": 2917, "Ġmass": 2918, "ured": 2919, ".class": 2920, "omic": 2921, "Ġmean": 2922, "ips": 2923, "Ġaut": 2924, "Ġuntil": 2925, "Ġmarket": 2926, "Ġarea": 2927, "uit": 2928, "Ġlength": 2929, "ĠWith": 2930, "structor": 2931, "event": 2932, "\"><": 2933, "ĠSp": 2934, "IV": 2935, "Ġmus": 2936, "iff": 2937, "Ġkind": 2938, "author": 2939, "ounds": 2940, "mb": 2941, "_key": 2942, "width": 2943, "pository": 2944, "Ġlight": 2945, "uk": 2946, "Row": 2947, "ohn": 2948, "alf": 2949, "vironment": 2950, "apper": 2951, "ollections": 2952, "Ġside": 2953, "_info": 2954, "Ġexample": 2955, "imary": 2956, "Ġwr": 2957, "Ġcamp": 2958, "cribe": 2959, "\"/": 2960, "Ġmiss": 2961, "way": 2962, "Ġbased": 2963, "Ġplan": 2964, "Vis": 2965, "omain": 2966, "unk": 2967, "Ġaway": 2968, "UP": 2969, "<T": 2970, "OS": 2971, "iod": 2972, "ĠMon": 2973, "âĢĻre": 2974, "Ġlik": 2975, "Ã§": 2976, "ively": 2977, ".v": 2978, "imer": 2979, "izer": 2980, "Sub": 2981, "Ġbutton": 2982, "ĠUp": 2983, "Ġexperience": 2984, "CL": 2985, "Ġrender": 2986, "_value": 2987, "Ġnear": 2988, "URL": 2989, "alt": 2990, "Ġcountry": 2991, "ibility": 2992, "ead": 2993, "Ġauthor": 2994, "Ġspecific": 2995, "base": 2996, "(name": 2997, "ones": 2998, "ĠDo": 2999, "Ġalong": 3000, "year": 3001, "Ġexpress": 3002, ".'": 3003, "env": 3004, "Ġbegin": 3005, "Ġsoftware": 3006, "Ġimp": 3007, "Ġwin": 3008, "Ã³n": 3009, "Ġthing": 3010, "Trans": 3011, "ĠTHE": 3012, "Ġwhy": 3013, "Ġdoesn": 3014, "ij": 3015, "ging": 3016, "Ġsingle": 3017, "offset": 3018, "arning": 3019, "ograph": 3020, "ley": 3021, "_count": 3022, "Ġanal": 3023, "create": 3024, "/m": 3025, "ĠReg": 3026, "unch": 3027, "=$": 3028, "isk": 3029, "Ġrights": 3030, "(M": 3031, "aper": 3032, ".model": 3033, "Ġpo": 3034, "empty": 3035, "artment": 3036, "Ġant": 3037, "ĠWhen": 3038, "Ġwomen": 3039, "ĠEd": 3040, "Ġseason": 3041, "Ġdest": 3042, "Ã£": 3043, "(h": 3044, "Ġpossible": 3045, "Ġsever": 3046, "Ġdidn": 3047, "Ġsent": 3048, "Ġenc": 3049, "Ġcommand": 3050, "_x": 3051, "Ġrecent": 3052, "olution": 3053, "vector": 3054, "ĠBy": 3055, "ĠMay": 3056, "ĠAct": 3057, "Ġmoney": 3058, "INT": 3059, "bsite": 3060, "sl": 3061, "attern": 3062, "ĠClass": 3063, "Ġtold": 3064, "udio": 3065, "current": 3066, "Ġequ": 3067, "Ġauto": 3068, "ĠState": 3069, "da": 3070, "msg": 3071, "Ġworking": 3072, "Ġquery": 3073, "ĠBr": 3074, "Ġwindow": 3075, "auth": 3076, "only": 3077, "Ġleast": 3078, "agn": 3079, "Ġexpl": 3080, "itter": 3081, "aring": 3082, "Ġcolumn": 3083, "ĠGeneral": 3084, "\":\"": 3085, "eral": 3086, "rior": 3087, "Ġrecord": 3088, "IB": 3089, "EX": 3090, "Ġdat": 3091, "Ġmaking": 3092, "ued": 3093, "ĠCar": 3094, "emp": 3095, "\".": 3096, "ĠMed": 3097, "Ġclose": 3098, "Ġpercent": 3099, "Ġpast": 3100, "(g": 3101, ":(": 3102, "Ġwrite": 3103, "Ġmove": 3104, "Ġpat": 3105, "Control": 3106, ".To": 3107, "Ġvi": 3108, "inate": 3109, "'ll": 3110, "aged": 3111, "Null": 3112, "Ġspecial": 3113, "IZE": 3114, "Ġcity": 3115, "ĠEng": 3116, "ixed": 3117, "inary": 3118, "py": 3119, "Ġeff": 3120, "ario": 3121, "Ġtell": 3122, "avor": 3123, "Ġselect": 3124, "level": 3125, "imum": 3126, "oper": 3127, "Builder": 3128, "IP": 3129, "esc": 3130, "Ġfont": 3131, "ĠAm": 3132, "ished": 3133, "ills": 3134, "Inter": 3135, "OW": 3136, "Ġcourse": 3137, "Ġlate": 3138, "iddle": 3139, "Ġamount": 3140, "ino": 3141, "cul": 3142, "andle": 3143, "_user": 3144, "Ġben": 3145, "ĠCal": 3146, "Ġ$_": 3147, "ĠRep": 3148, "Ġenough": 3149, "Token": 3150, "(j": 3151, "Sc": 3152, "Width": 3153, "now": 3154, "atform": 3155, "Ġlooking": 3156, "Ġhold": 3157, "Module": 3158, "ITY": 3159, "vo": 3160, "ison": 3161, ".Data": 3162, "yc": 3163, "Ġpot": 3164, "ĠTrump": 3165, "idual": 3166, "ides": 3167, "rt": 3168, "Ġproperty": 3169, "ĠĠĠĠĠĠĠĠĠĠĠĠĠĠĠĠĠĠĠĠĠĠĠĠĠĠĠĠĠĠĠĠĠĠĠĠĠĠĠĠĠĠĠ": 3170, "amework": 3171, "go": 3172, "Ġlow": 3173, "Ġpara": 3174, "Ġprice": 3175, "ury": 3176, "Ġtoday": 3177, "roy": 3178, "Ġ'/": 3179, "Ġpolit": 3180, "Ġ''": 3181, "ymb": 3182, "Ph": 3183, "Ġadv": 3184, "Ġattack": 3185, "ĠSte": 3186, "ROM": 3187, "ana": 3188, "Ġmeans": 3189, "Ġstory": 3190, "ids": 3191, "aken": 3192, "Ġmeet": 3193, "Ġmom": 3194, "ĠâĢĺ": 3195, "Ġden": 3196, "obile": 3197, "change": 3198, "ĠĠĠĠĠĠĠĠĠĠĠĠĊ": 3199, "ici": 3200, "na": 3201, "ĠForm": 3202, "Ġsort": 3203, "Select": 3204, "pare": 3205, "Ġthought": 3206, "_con": 3207, "Ġtask": 3208, "ocus": 3209, "ĠDE": 3210, "ĠMin": 3211, "Ġopt": 3212, "umer": 3213, "KE": 3214, "then": 3215, "Ġdet": 3216, "ĠTest": 3217, "ports": 3218, "Ġreview": 3219, "move": 3220, "Ġswitch": 3221, "ERT": 3222, "patch": 3223, "annot": 3224, "ãĤ": 3225, "Ġabove": 3226, "itive": 3227, "Ġquestion": 3228, "ĠQu": 3229, "gle": 3230, "Ġword": 3231, "Ġprovide": 3232, "ĠReturn": 3233, "Ġresearch": 3234, "Ã£o": 3235, "ustr": 3236, "Ġpublish": 3237, "chema": 3238, "}}": 3239, "ĠCON": 3240, "-in": 3241, "allback": 3242, "Ġcover": 3243, "\\\\": 3244, "color": 3245, "ĠIS": 3246, "Ġwhether": 3247, "imate": 3248, "isc": 3249, "Bar": 3250, "Ġdiv": 3251, "Be": 3252, "ourn": 3253, "Ġhaving": 3254, "lem": 3255, "player": 3256, "abs": 3257, "amera": 3258, "ney": 3259, "Ġexc": 3260, "gether": 3261, "plied": 3262, "ao": 3263, "[$": 3264, "Ġ++": 3265, "ipe": 3266, "show": 3267, "/d": 3268, "[:": 3269, "agement": 3270, "lev": 3271, "_ID": 3272, "rary": 3273, "ades": 3274, "_se": 3275, "ause": 3276, "Ġemploy": 3277, "Ġfre": 3278, "Ġ'@": 3279, "Ġcomplet": 3280, "Ġlarge": 3281, "ral": 3282, "\\x": 3283, "Ġfac": 3284, "Ġcreated": 3285, "uper": 3286, ".state": 3287, "Ġhost": 3288, "eneric": 3289, "/b": 3290, "(!": 3291, "while": 3292, "ias": 3293, "BUG": 3294, "Ġrole": 3295, "Reg": 3296, "ĠColor": 3297, "Start": 3298, "top": 3299, "Ġweb": 3300, "Ġdev": 3301, "Ġdeal": 3302, "Integer": 3303, "position": 3304, ".on": 3305, "Ġ(\"": 3306, "Ġproblem": 3307, "sv": 3308, "Ġpress": 3309, "ABLE": 3310, "ATION": 3311, "ĠSee": 3312, "anch": 3313, "Ġthough": 3314, "leep": 3315, "Ġ<!--": 3316, "Ġpoints": 3317, "ĠĠĠĠĠĠĠĠĠĠĠĠĠĠĠĠĠĠĠĠĠĠĠĠĠ": 3318, ".J": 3319, "Ġ::": 3320, "ptr": 3321, "DB": 3322, ".png": 3323, "node": 3324, "soft": 3325, "pond": 3326, "Ġever": 3327, "----------------------------------------------------------------": 3328, "Menu": 3329, "Ġservices": 3330, "pg": 3331, "params": 3332, "Ġactually": 3333, "Ġ\"/": 3334, "Empty": 3335, "Method": 3336, "Ġident": 3337, "unic": 3338, "Ġmillion": 3339, "Ġaff": 3340, "style": 3341, "Ġconc": 3342, "ios": 3343, "ignment": 3344, "ULT": 3345, "Pr": 3346, "Ġunderstand": 3347, "uary": 3348, "Ġhappen": 3349, "Ġserver": 3350, "ĠCo": 3351, "SC": 3352, "Ġles": 3353, "Ġfiles": 3354, "Grid": 3355, "sql": 3356, "Ġoften": 3357, "Ġinfo": 3358, "_tr": 3359, "src": 3360, "ony": 3361, "Ġspace": 3362, "umb": 3363, "Ġpassword": 3364, "Ġstore": 3365, "ĠWhat": 3366, "ged": 3367, "ĠFalse": 3368, "Us": 3369, "swer": 3370, "_index": 3371, "Ġformat": 3372, "most": 3373, "sm": 3374, "New": 3375, "Ġdetails": 3376, "Ġprob": 3377, "ĠAND": 3378, "ilar": 3379, "Ġ${": 3380, "rypt": 3381, "ĠFree": 3382, "_of": 3383, "dated": 3384, "Ġ>>": 3385, "Ġface": 3386, "CTION": 3387, "Ġsave": 3388, "Ġtyp": 3389, "dev": 3390, "(\"#": 3391, "AGE": 3392, "container": 3393, "edit": 3394, "QL": 3395, "Ġitems": 3396, "Ġsocial": 3397, "ien": 3398, "ĠReact": 3399, "Ġmar": 3400, "Ġredu": 3401, "ĠRE": 3402, ".put": 3403, "Ġmajor": 3404, "Cell": 3405, "next": 3406, "Ġexpected": 3407, "Ġyet": 3408, "Ġindiv": 3409, "tributes": 3410, "atis": 3411, "amed": 3412, "Ġfood": 3413, "Source": 3414, "(string": 3415, "ites": 3416, "dr": 3417, "Ġmembers": 3418, "Ġcomb": 3419, "items": 3420, "ĠPer": 3421, "TH": 3422, "=True": 3423, "Ġbar": 3424, "_SE": 3425, "comm": 3426, "(w": 3427, "Ġsend": 3428, "Ġinc": 3429, "unsigned": 3430, "FA": 3431, "Ġparams": 3432, "apping": 3433, "ros": 3434, "ugin": 3435, "fa": 3436, "Ġconnection": 3437, "Ġbecome": 3438, "Mode": 3439, "Ġev": 3440, "Ġdiff": 3441, "ĠUnited": 3442, "Height": 3443, "fully": 3444, "images": 3445, "Ġmakes": 3446, "Ġglobal": 3447, "Ġcontact": 3448, "Ġabs": 3449, "float": 3450, "Ġexcept": 3451, "ĠPol": 3452, "Child": 3453, "typ": 3454, "Ġcertain": 3455, "iÃ³n": 3456, "OUT": 3457, "Ġimpro": 3458, "iles": 3459, "ĠPart": 3460, "values": 3461, "oss": 3462, "/**": 3463, "ilit": 3464, "ĠEvent": 3465, "curity": 3466, "ster": 3467, "Ġcharacter": 3468, "Ġnews": 3469, "Ġ\",": 3470, "Ġdevice": 3471, "cel": 3472, "heet": 3473, "Default": 3474, "@\"": 3475, "click": 3476, "(value": 3477, "ĠAb": 3478, "Ġprevious": 3479, "ERROR": 3480, "ocal": 3481, "Ġmaterial": 3482, "Ġbelow": 3483, "ĠChrist": 3484, "Ġmedia": 3485, "cover": 3486, "ĠUI": 3487, "Ġfail": 3488, "Ġblack": 3489, "Ġcomponent": 3490, "ĠAmerican": 3491, "Ġadded": 3492, "Ġbuy": 3493, "stit": 3494, "Ġcame": 3495, "Ġdelete": 3496, "property": 3497, "oding": 3498, "Ġcard": 3499, "rops": 3500, "Ġhttps": 3501, "Ġroot": 3502, "Ġhandle": 3503, "CC": 3504, "Back": 3505, "emplate": 3506, "Ġgetting": 3507, "_by": 3508, "mail": 3509, "_sh": 3510, "ĠDec": 3511, "(true": 3512, "Ġcomput": 3513, "Ġclaim": 3514, "ĠSub": 3515, "Ġair": 3516, "ops": 3517, "nav": 3518, "ements": 3519, "(id": 3520, "Ġenter": 3521, "anged": 3522, "End": 3523, "Ġlocation": 3524, "Ġnight": 3525, "Ġdoing": 3526, "ĠRed": 3527, "lin": 3528, "Ġpick": 3529, "Ġwatch": 3530, "essages": 3531, "Ġhuman": 3532, "Ġdam": 3533, "pend": 3534, "dir": 3535, "Ġtax": 3536, "Ġgirl": 3537, "reet": 3538, "Ġbox": 3539, "Ġstrong": 3540, "(v": 3541, "rel": 3542, "Ġinterface": 3543, "Ġmsg": 3544, "fect": 3545, "_at": 3546, "Ġhouse": 3547, "Ġtrack": 3548, "je": 3549, "ĠJohn": 3550, "istr": 3551, "(S": 3552, "ube": 3553, "Ġce": 3554, "itted": 3555, "VER": 3556, "*)": 3557, "parent": 3558, "Ġapplication": 3559, "any": 3560, "Ġpack": 3561, "\\u": 3562, "Ġpract": 3563, "Ġsection": 3564, "ctx": 3565, "Ġunsigned": 3566, "ĠOne": 3567, "Ä±": 3568, "iple": 3569, "aid": 3570, "Ñĥ": 3571, "Vector": 3572, "byte": 3573, "Ġwait": 3574, "ĠÃł": 3575, "Ã¥": 3576, "Ġtogether": 3577, "Ġthrows": 3578, "FO": 3579, "'))": 3580, "host": 3581, "ising": 3582, "Ġterms": 3583, "-r": 3584, "Ġapply": 3585, "Ġsession": 3586, "Options": 3587, "uggest": 3588, "Ġothers": 3589, "witter": 3590, "Ġfund": 3591, "Init": 3592, "__(": 3593, "ensor": 3594, "GET": 3595, "Ġseveral": 3596, "ii": 3597, "[j": 3598, "IO": 3599, "Ġtemplate": 3600, "Position": 3601, "Ġecon": 3602, "achine": 3603, "Ġil": 3604, ".spring": 3605, "main": 3606, "elt": 3607, "iment": 3608, "Rec": 3609, "mm": 3610, "ĠUniversity": 3611, "ursor": 3612, "ĠĠĠĠĠĠĠĠĠĠĠĠĠĠĠĠĠĠĠĠ": 3613, "GL": 3614, "icture": 3615, "ithub": 3616, "cer": 3617, "cast": 3618, "From": 3619, "ales": 3620, "Ġsubject": 3621, "password": 3622, "ny": 3623, "Ġesc": 3624, ".write": 3625, "ï¼Į": 3626, "What": 3627, ".H": 3628, "Ġhistory": 3629, "ĠFe": 3630, "Ġindividual": 3631, "unit": 3632, "Ġ-->": 3633, "Ġdu": 3634, "IST": 3635, "Ġusers": 3636, "fs": 3637, "false": 3638, "unt": 3639, "Title": 3640, "Ġmot": 3641, "Ġfuture": 3642, "ached": 3643, "Ġstarted": 3644, "Ġmode": 3645, "Ġ'<": 3646, "_array": 3647, "Ġax": 3648, "ires": 3649, "There": 3650, "ught": 3651, "tml": 3652, "posed": 3653, "icult": 3654, "Ġtook": 3655, "Ġgames": 3656, "Ġ}}": 3657, "Ġproducts": 3658, "Is": 3659, "Ġbad": 3660, "ĠDes": 3661, ".path": 3662, "ĠPost": 3663, "avel": 3664, "(:": 3665, "Ġneeds": 3666, "Ġknown": 3667, "Fl": 3668, "Ġexec": 3669, "Ġseen": 3670, "ume": 3671, "Ġborder": 3672, "Ġlive": 3673, "temp": 3674, "Per": 3675, "Ġvariable": 3676, "iet": 3677, "ĠDef": 3678, "Ġge": 3679, "eme": 3680, "_back": 3681, "first": 3682, "Ġprovided": 3683, "Ġfilename": 3684, "Ġhope": 3685, "uly": 3686, "auto": 3687, "find": 3688, "_string": 3689, "btn": 3690, "itude": 3691, "Attribute": 3692, "Ġyoung": 3693, ".txt": 3694, "Ġwebsite": 3695, "ĠProp": 3696, "Ġey": 3697, "ional": 3698, "ARR": 3699, "ictionary": 3700, "urther": 3701, ".</": 3702, "ALL": 3703, "Ġstudy": 3704, "ili": 3705, "Ġnetwork": 3706, "yl": 3707, "istance": 3708, "OK": 3709, "NU": 3710, "rest": 3711, "ĠST": 3712, "icrosoft": 3713, "Ġlimit": 3714, "Ġcut": 3715, "Ġcou": 3716, "ogn": 3717, "ival": 3718, "Ġwent": 3719, ".z": 3720, "Link": 3721, "Ġfire": 3722, "Ġacross": 3723, "Ġcommunity": 3724, "region": 3725, "NE": 3726, "Ref": 3727, "Ġofficial": 3728, "Ġvisit": 3729, "olve": 3730, "Ġreceived": 3731, "Ġtoken": 3732, "Ġmonths": 3733, "Ġanim": 3734, "Ġparticular": 3735, "styles": 3736, "ico": 3737, "Ġess": 3738, "ĠÃ©": 3739, "ball": 3740, "Ġlearn": 3741, "inding": 3742, "Var": 3743, "Ġdecl": 3744, "(err": 3745, "LECT": 3746, "One": 3747, "pha": 3748, "Ġ~": 3749, "fort": 3750, "asure": 3751, "Ġmind": 3752, "ĠEnd": 3753, "Check": 3754, "Ġquick": 3755, "\"),": 3756, "AND": 3757, "utions": 3758, "Base": 3759, "________": 3760, "Ġcomment": 3761, "INE": 3762, "âĢĻve": 3763, "But": 3764, "ĠEl": 3765, "ĠUs": 3766, "Ġadmin": 3767, "mark": 3768, "ĠName": 3769, "ĠType": 3770, "amic": 3771, "pc": 3772, "loor": 3773, "FT": 3774, "Ġopp": 3775, "cket": 3776, ")->": 3777, "tx": 3778, "Ġpur": 3779, "uel": 3780, "ymbol": 3781, "uation": 3782, "anger": 3783, "Ġbackground": 3784, "ecess": 3785, "efined": 3786, "........": 3787, "Ġdescription": 3788, "Ġrepresent": 3789, "pression": 3790, "rowser": 3791, "Ġseries": 3792, "wards": 3793, "aise": 3794, "Ġhot": 3795, "acity": 3796, "ries": 3797, "actions": 3798, "Create": 3799, "adio": 3800, "amples": 3801, "Ġoriginal": 3802, "ensive": 3803, "font": 3804, "stream": 3805, "server": 3806, "Ġbill": 3807, "ACK": 3808, "ilename": 3809, "Ġframe": 3810, "Edit": 3811, "adius": 3812, "Ġdraw": 3813, "anks": 3814, "Ġdeter": 3815, "Ġcomes": 3816, "_int": 3817, "Ġforeach": 3818, "angle": 3819, "Ġelect": 3820, "pected": 3821, "Header": 3822, "istration": 3823, "False": 3824, "ĠGame": 3825, "Ġfilter": 3826, "Activity": 3827, "Ġlarg": 3828, "inition": 3829, "Ġ\"<": 3830, "ised": 3831, "Ġremove": 3832, "ĠTrans": 3833, "met": 3834, "see": 3835, "Format": 3836, "Command": 3837, "ĠEX": 3838, "None": 3839, "Ġfront": 3840, "ASE": 3841, "ĠRec": 3842, "oundation": 3843, "Ġvo": 3844, "=\\\"": 3845, "(*": 3846, "Change": 3847, ".Write": 3848, "group": 3849, "ients": 3850, "uy": 3851, "****************************************************************": 3852, "Ġdig": 3853, "hr": 3854, "(-": 3855, "Ġgen": 3856, "number": 3857, "vec": 3858, "urope": 3859, "entry": 3860, "LL": 3861, "Ġste": 3862, "Valid": 3863, "'],": 3864, "_param": 3865, "Ġselected": 3866, "Ġaccording": 3867, "ĠDis": 3868, "Ġutil": 3869, "Buffer": 3870, "_error": 3871, "Ġassoci": 3872, "_SIZE": 3873, "Ġwor": 3874, "Ġprintf": 3875, "rag": 3876, "Âł": 3877, "DD": 3878, "ĠVal": 3879, "Ġactiv": 3880, "Eng": 3881, "etime": 3882, "Ġvirtual": 3883, "aign": 3884, "aur": 3885, "ĠPres": 3886, "ĠException": 3887, "Ġanything": 3888, "ĠOff": 3889, "Ġhours": 3890, "Ġwar": 3891, "Args": 3892, "aging": 3893, "Ġmodels": 3894, "ĠTime": 3895, "Ob": 3896, "ams": 3897, "joy": 3898, "Ġearly": 3899, ".read": 3900, "Ġcenter": 3901, "ĠInitial": 3902, "Ġlanguage": 3903, "length": 3904, "xy": 3905, "Ġsn": 3906, "Ġinf": 3907, "Post": 3908, "Ġago": 3909, "Ġeasy": 3910, "_code": 3911, "ĠANY": 3912, "_ch": 3913, "Ġdownload": 3914, "(T": 3915, "aved": 3916, "âĢĵ": 3917, "Ġstudents": 3918, "Ġfig": 3919, "light": 3920, "xx": 3921, "Ġbuffer": 3922, "ĠDep": 3923, "ĠMath": 3924, "ITH": 3925, "Ġvari": 3926, "Ġdue": 3927, "Factory": 3928, "Ġpor": 3929, "Ġep": 3930, "otype": 3931, "Ġcannot": 3932, "Ġwhite": 3933, "<int": 3934, "tern": 3935, "Ġregister": 3936, "Ġpred": 3937, "clus": 3938, "_date": 3939, "Ġauth": 3940, "Ġperiod": 3941, "nown": 3942, "Ġvot": 3943, "Ġscreen": 3944, "'d": 3945, "Types": 3946, "Ġtmp": 3947, "ural": 3948, "Ġbenef": 3949, "_y": 3950, "Ġnet": 3951, "ĠStates": 3952, "ĠNe": 3953, "ĠNOT": 3954, "Ġneg": 3955, "Ġcommon": 3956, "scope": 3957, "Ġcred": 3958, "ges": 3959, "Ġsuggest": 3960, "oom": 3961, "Ġaccept": 3962, "Ġrandom": 3963, "erm": 3964, "ĠVector": 3965, "with": 3966, "TER": 3967, "(str": 3968, "Ġrespons": 3969, "Ġhit": 3970, "grid": 3971, "ria": 3972, "Ġclick": 3973, "undle": 3974, "Case": 3975, "insert": 3976, "Utils": 3977, "Ġ\"\"\"": 3978, "Ġimplement": 3979, "atal": 3980, "tempt": 3981, "template": 3982, "ocr": 3983, "returns": 3984, "Ġplayers": 3985, "users": 3986, "edef": 3987, "ĠThese": 3988, "Ġamong": 3989, "Ġdeb": 3990, "ha": 3991, "Ġcirc": 3992, "Ġanswer": 3993, "Ġwalk": 3994, "Ġtreat": 3995, "ĠGe": 3996, "ĠCreate": 3997, "Ġage": 3998, "Ġreq": 3999, "OST": 4000, "angular": 4001, "Ñı": 4002, "Ġfive": 4003, "Ġdistributed": 4004, "Ġfriend": 4005, "TP": 4006, "Ġclean": 4007, "ows": 4008, "dis": 4009, "Ġwords": 4010, ".io": 4011, "zy": 4012, "Ġheader": 4013, "ĠCheck": 4014, "âĢĻm": 4015, "just": 4016, "holder": 4017, "ĠGNU": 4018, "ĠCol": 4019, "imest": 4020, "entic": 4021, "Ġtre": 4022, "last": 4023, "la": 4024, "ĠYork": 4025, "Lo": 4026, "Ġdiscuss": 4027, "ĠGod": 4028, "Ġissue": 4029, "rew": 4030, "Window": 4031, "Ġland": 4032, "Ġstream": 4033, "ĠPar": 4034, "Ġquality": 4035, "Par": 4036, "_num": 4037, "Ġsal": 4038, "elves": 4039, "ORD": 4040, "(user": 4041, "Ġworks": 4042, "Ġhalf": 4043, "enses": 4044, "vas": 4045, "Ġpolice": 4046, "(\"/": 4047, "ua": 4048, "Ġsimple": 4049, "Address": 4050, "Ġempty": 4051, "esh": 4052, "Update": 4053, "ĠCreated": 4054, "ĠĠĠĠĠĠĠĠĠĠĠĠĠĠĠĠĠĠ": 4055, "Ġagre": 4056, "ĠFROM": 4057, "Ġcook": 4058, "Ġeverything": 4059, "ilities": 4060, ".status": 4061, "Ġrelations": 4062, "extern": 4063, "Ġnothing": 4064, "Ġrunning": 4065, "RI": 4066, "_a": 4067, "por": 4068, ".sub": 4069, "require": 4070, "ĠCity": 4071, "ĠWest": 4072, "Ġmor": 4073, "store": 4074, "Equals": 4075, "oder": 4076, "Ġna": 4077, "Ġ[[": 4078, "Ġ('": 4079, "ĠDon": 4080, "ERS": 4081, "/p": 4082, ".json": 4083, "abor": 4084, "Ġsomeone": 4085, "_text": 4086, ".css": 4087, "ĠSome": 4088, "ato": 4089, "double": 4090, "Ġshare": 4091, "(void": 4092, "_dir": 4093, "Ġur": 4094, "Stack": 4095, "ĠWorld": 4096, ".X": 4097, "stract": 4098, "How": 4099, "icles": 4100, "Ġentry": 4101, "Ġchanges": 4102, "Ġpersonal": 4103, "(A": 4104, "Ġoffset": 4105, "_ptr": 4106, "Ġpie": 4107, "ĠJan": 4108, "-group": 4109, "module": 4110, "Items": 4111, "ĠHowever": 4112, "verage": 4113, "Ġevents": 4114, ".min": 4115, "Ġinvol": 4116, "za": 4117, "Ġwhole": 4118, "Ġneeded": 4119, "Ġlikely": 4120, "rief": 4121, "ORM": 4122, "version": 4123, "Ġfight": 4124, "Ġein": 4125, "Frame": 4126, "gen": 4127, "ĠOut": 4128, "avigation": 4129, "Length": 4130, "illed": 4131, "quence": 4132, "ĠSoftware": 4133, "Ġwriting": 4134, "Ġrate": 4135, "Panel": 4136, "inner": 4137, "Ġ[\"": 4138, "Ġtw": 4139, "cd": 4140, "_state": 4141, "ĠSm": 4142, "ĠMark": 4143, "prot": 4144, "ĠMr": 4145, "method": 4146, "ustomer": 4147, "Icon": 4148, "Ġcorrect": 4149, "(object": 4150, "ĠMore": 4151, "Ġfall": 4152, "Ġvol": 4153, "Ġdevelopment": 4154, "ently": 4155, "Ġsi": 4156, "medi": 4157, "ving": 4158, "PP": 4159, "aker": 4160, "Ġindu": 4161, "Ġelif": 4162, "Ġpret": 4163, "Ġbelieve": 4164, "ns": 4165, "omet": 4166, "ĠIntern": 4167, "Rect": 4168, "So": 4169, ".error": 4170, "Read": 4171, "Ġfeatures": 4172, "Ġminutes": 4173, "---": 4174, "asing": 4175, "cret": 4176, "Ġcollection": 4177, "'.": 4178, "Ġsimilar": 4179, "Ġtaken": 4180, "(\"%": 4181, "Order": 4182, "ĠTH": 4183, "aced": 4184, "Ġisn": 4185, "/j": 4186, "Ġson": 4187, "graph": 4188, "ĠInteger": 4189, "Ġnecess": 4190, "reen": 4191, "Ġum": 4192, "Ġ\\<": 4193, "Ġmoment": 4194, "Ġbring": 4195, "Ġindic": 4196, "ysis": 4197, "Level": 4198, "verse": 4199, "urrenc": 4200, "_test": 4201, "Ġentire": 4202, "Down": 4203, "(result": 4204, "ĠRead": 4205, "Ã¨": 4206, "Mod": 4207, "Ġtrying": 4208, "Ġmember": 4209, "ĠCor": 4210, "ODO": 4211, "-control": 4212, "untime": 4213, "ĠSim": 4214, "Dialog": 4215, "plot": 4216, "_on": 4217, "Ġphys": 4218, "}/": 4219, "Ġnamespace": 4220, "acc": 4221, "Player": 4222, "ARE": 4223, "Ġfoot": 4224, "Ġboard": 4225, "part": 4226, "Ġsus": 4227, "wise": 4228, "ĠMc": 4229, "Ġpush": 4230, "ATA": 4231, "Ġplease": 4232, "ried": 4233, "weet": 4234, "bit": 4235, "ided": 4236, "VE": 4237, "ĠSw": 4238, "UB": 4239, "Ġtypes": 4240, "edia": 4241, "Ġclos": 4242, "acebook": 4243, "When": 4244, "Ġedit": 4245, "igger": 4246, "Ġenerg": 4247, "Container": 4248, "Ġphot": 4249, "ĠCount": 4250, "ĠEurope": 4251, ".Is": 4252, "ĠRuss": 4253, "peed": 4254, "ĠStr": 4255, "Ġpy": 4256, "Ġcult": 4257, "Ġdefined": 4258, "ccount": 4259, "Ġobt": 4260, "Ġthread": 4261, "ille": 4262, "Ġinstead": 4263, "strong": 4264, "ĠSec": 4265, "URE": 4266, "Ġidea": 4267, ".se": 4268, "emy": 4269, "selected": 4270, "Connection": 4271, "acing": 4272, "thread": 4273, ".next": 4274, "Ġcoll": 4275, "Ġfilm": 4276, "istic": 4277, "Ġcompet": 4278, "Ġconn": 4279, "though": 4280, "Ġcompan": 4281, "ocket": 4282, "Ġteach": 4283, "=(": 4284, "Ġphone": 4285, "Ġactive": 4286, "delete": 4287, "tries": 4288, "Ġmo": 4289, "Ġdeath": 4290, "ocol": 4291, "Widget": 4292, "Ġarticle": 4293, "rodu": 4294, "andid": 4295, "Ñĭ": 4296, "ĠCr": 4297, "ka": 4298, "():": 4299, "lood": 4300, "Ġalmost": 4301, "Ġsell": 4302, "rip": 4303, "Unit": 4304, "Ġapplic": 4305, "Ġconnect": 4306, "Ġfeature": 4307, "Ġvia": 4308, "'),": 4309, "Ġlim": 4310, "ĠĠĠĠĠĠĠĠĠĠĠĠĠĠĠĠĠĠĠĠĠĠĠĠĠĠĠĠĠĠĠĠĠĠĠĠĠĠĠĠĠĠĠĠĠĠĠ": 4311, "ĠGu": 4312, "Engine": 4313, "Ġens": 4314, "Ġenvironment": 4315, "block": 4316, "HERE": 4317, "NULL": 4318, "gy": 4319, "tag": 4320, ")).": 4321, "exp": 4322, "Ġcompl": 4323, "Ġinstall": 4324, "Ġcomplete": 4325, "queue": 4326, "atural": 4327, "Ġgeneral": 4328, "thon": 4329, "Ġasked": 4330, "ores": 4331, "(res": 4332, "Ġreserved": 4333, "SP": 4334, "ĠâĢ¦": 4335, "ÅĤ": 4336, "Ġsignific": 4337, "Off": 4338, "ĠĠĠĠĠĠĠĠĠĠĠĠĠĠĠĠĠĠĠĠĠĠĠĠĠĠĠĠĠ": 4339, "ĠAg": 4340, "ĠJust": 4341, "ĠError": 4342, "Ġinfl": 4343, "adata": 4344, "Ġicon": 4345, "asks": 4346, "''": 4347, "?.": 4348, "account": 4349, "Ġ(*": 4350, "rap": 4351, "_var": 4352, "ĠFOR": 4353, "Ġparty": 4354, "ĠYour": 4355, "cat": 4356, "stry": 4357, ".new": 4358, "boot": 4359, "ĠNov": 4360, "Ġvector": 4361, "Ġnormal": 4362, "Ġfurther": 4363, "Ġdatabase": 4364, "attle": 4365, "Ġmusic": 4366, "Ġspeed": 4367, "Ġdoc": 4368, "process": 4369, "IGHT": 4370, ".parse": 4371, "Ġtaking": 4372, "Ġviol": 4373, "ceed": 4374, "ĠAfter": 4375, "Ġforward": 4376, "Ġcrit": 4377, "rot": 4378, "Ġfailed": 4379, "efore": 4380, "Ġconcern": 4381, "oe": 4382, "ba": 4383, "Ġsender": 4384, "Ġterm": 4385, "has": 4386, "=\"#": 4387, "Ġpotential": 4388, "Num": 4389, "Ġpublished": 4390, ".close": 4391, "ĠImage": 4392, "straint": 4393, "UD": 4394, "ĠOb": 4395, "Ġprobably": 4396, "lim": 4397, "olume": 4398, "Ġconsum": 4399, "ague": 4400, "ensions": 4401, "Ġinvestig": 4402, "-year": 4403, "');": 4404, "-sm": 4405, "Ġenjoy": 4406, "orig": 4407, "ering": 4408, "cp": 4409, "leased": 4410, "plements": 4411, "Ġreturns": 4412, "pat": 4413, "BO": 4414, "ĠHouse": 4415, "Ġweight": 4416, "ighb": 4417, "Ġconditions": 4418, "Ġexception": 4419, "description": 4420, "Ġtrad": 4421, "-to": 4422, "Ġ{}": 4423, "Ġmodule": 4424, "END": 4425, ".ap": 4426, "Ġconstructor": 4427, "aves": 4428, "Ġfavor": 4429, "ĠNow": 4430, ";i": 4431, "ĠMain": 4432, "_k": 4433, "eries": 4434, "âĢĻll": 4435, "transform": 4436, "imestamp": 4437, "Pre": 4438, "Ġmer": 4439, ".res": 4440, "stant": 4441, "Location": 4442, "_NAME": 4443, "Ġloss": 4444, "ĠĊĊ": 4445, "net": 4446, "Ġengine": 4447, "Block": 4448, "Ġissues": 4449, "Ġparse": 4450, "ĠBar": 4451, "Ġstay": 4452, "ĠJSON": 4453, "Ġdom": 4454, "airs": 4455, "wner": 4456, "Ġlower": 4457, "ĠDem": 4458, "ufact": 4459, "Ġps": 4460, "Ġperfect": 4461, "RL": 4462, "Ġeduc": 4463, "ls": 4464, "emory": 4465, "uge": 4466, "Ġexact": 4467, ".key": 4468, "alled": 4469, "ech": 4470, "ief": 4471, "\\/": 4472, "oke": 4473, "Ġformer": 4474, "alloc": 4475, "Ġsix": 4476, "ida": 4477, "Ġmargin": 4478, "Ġheart": 4479, "ald": 4480, "pack": 4481, "Ġrather": 4482, "Ġbuilding": 4483, "erman": 4484, "lice": 4485, "Ġquestions": 4486, "izes": 4487, "lege": 4488, "irectory": 4489, "Ġje": 4490, "Ġcas": 4491, "props": 4492, "utf": 4493, "Ġsecurity": 4494, "Ġhowever": 4495, "weight": 4496, "Ġinside": 4497, "Ġpresident": 4498, "Char": 4499, "ĠWITH": 4500, ".map": 4501, "Ġgraph": 4502, "Ġtag": 4503, "_status": 4504, "Ġattempt": 4505, "opp": 4506, "uses": 4507, "Ġround": 4508, ",$": 4509, "Ġfriends": 4510, "Email": 4511, "?>": 4512, "Resource": 4513, "KEY": 4514, "osp": 4515, "ĠNorth": 4516, "ables": 4517, "istrib": 4518, "_class": 4519, "ello": 4520, "That": 4521, "Ðº": 4522, "pecially": 4523, "ĠPresident": 4524, "Ġcampaign": 4525, "Ġalt": 4526, "area": 4527, "Ġchall": 4528, "Ġopport": 4529, ".Con": 4530, "Ġenergy": 4531, "like": 4532, "ington": 4533, ")*": 4534, "yy": 4535, "Ġprofession": 4536, "irth": 4537, "Ġseg": 4538, "Ġhor": 4539, "iers": 4540, "can": 4541, "Ġbehind": 4542, "Product": 4543, "fg": 4544, "ĠSk": 4545, ".jpg": 4546, "?:": 4547, "Ġcallback": 4548, "ÑĮ": 4549, "long": 4550, "MS": 4551, "ATH": 4552, "Ġraise": 4553, "Ġwanted": 4554, "rown": 4555, "utor": 4556, "lt": 4557, "]=": 4558, "eline": 4559, "MA": 4560, "Ġsepar": 4561, "cs": 4562, "semb": 4563, "Dis": 4564, "bserv": 4565, "ĠWill": 4566, "Ġpolicy": 4567, "Ġthird": 4568, "phone": 4569, "Ġbed": 4570, "/g": 4571, ".__": 4572, "ĠInc": 4573, "izing": 4574, ".remove": 4575, "instance": 4576, ".type": 4577, "Ġserv": 4578, "Each": 4579, "Ġhar": 4580, "ĠMessage": 4581, "(key": 4582, "SELECT": 4583, "Pos": 4584, "Ġrecomm": 4585, "Ġtraining": 4586, "ĠEnt": 4587, "ĠChar": 4588, "icht": 4589, "(file": 4590, "Ġprior": 4591, "Game": 4592, "Ġexit": 4593, "Params": 4594, ".core": 4595, "PC": 4596, "nes": 4597, "anced": 4598, "Ġmag": 4599, "Ġrelease": 4600, "Ġshall": 4601, "udent": 4602, "ĠSouth": 4603, "ando": 4604, ":'": 4605, "sk": 4606, "anner": 4607, "Ġoutside": 4608, "ledge": 4609, "ĠRob": 4610, "Ġimm": 4611, "ĠWeb": 4612, "Des": 4613, "BC": 4614, "ancial": 4615, "Dec": 4616, "ferences": 4617, "Ġpurch": 4618, "ĠModel": 4619, "ctor": 4620, "gn": 4621, "_start": 4622, "_un": 4623, ".*": 4624, "ises": 4625, "Ġground": 4626, "Ġunique": 4627, "Ġbeaut": 4628, "{\"": 4629, "Ġpour": 4630, "ĠOct": 4631, "Ġtree": 4632, "sets": 4633, "_res": 4634, "_reg": 4635, "(\"\\": 4636, "Ġbyte": 4637, "Bl": 4638, "Ġdating": 4639, "Ġmatter": 4640, "ĠRem": 4641, "ĠAug": 4642, "ĠLa": 4643, "Ġ$(": 4644, "ournal": 4645, "iam": 4646, "Ġshows": 4647, "write": 4648, "Ġball": 4649, "Ġsimply": 4650, "Ġfast": 4651, "Ġmemory": 4652, "ASS": 4653, "ĠOf": 4654, "oved": 4655, "ante": 4656, "aul": 4657, "istry": 4658, "Ġfit": 4659, "Ġpolitical": 4660, "ancel": 4661, "_.": 4662, "card": 4663, ".current": 4664, "och": 4665, "_image": 4666, "\\t": 4667, "(L": 4668, "Ġindustry": 4669, "coming": 4670, "Ġextra": 4671, "Ġreported": 4672, ".start": 4673, "Ġresources": 4674, "Ġimg": 4675, "flow": 4676, "(null": 4677, "ĠPre": 4678, "Ġwrong": 4679, "interface": 4680, "Parameter": 4681, "ners": 4682, "á»": 4683, "ture": 4684, "ersist": 4685, "ountry": 4686, "Ġseems": 4687, "alance": 4688, "dest": 4689, "Ġmaint": 4690, "Ġunit": 4691, "acters": 4692, "ĠTR": 4693, "iful": 4694, "project": 4695, "Application": 4696, "legate": 4697, "Ġtakes": 4698, "term": 4699, "Ġetc": 4700, "uster": 4701, "Ġappear": 4702, "address": 4703, "Ġfem": 4704, "hs": 4705, "Ġhom": 4706, ",-": 4707, "Ġdifficult": 4708, "Ġcoming": 4709, "Open": 4710, "Ġsettings": 4711, "ĠWar": 4712, "ĠThen": 4713, "Ġautom": 4714, "ĠFoundation": 4715, "Ġquite": 4716, "Description": 4717, "Ġblog": 4718, "iqu": 4719, "PS": 4720, "_field": 4721, "SSION": 4722, "ĠSch": 4723, "ĠLO": 4724, "Ġdescri": 4725, "Ġeveryone": 4726, "Ġpretty": 4727, "Ġlonger": 4728, "Ġmenu": 4729, "Ġcurrently": 4730, "sec": 4731, "Ġrelationship": 4732, "################################": 4733, "ĠMap": 4734, "aset": 4735, "Ġparameters": 4736, "Ġcrush": 4737, "ILITY": 4738, "igration": 4739, "Ġcout": 4740, "total": 4741, "Ġnames": 4742, "ndef": 4743, "\");": 4744, "riend": 4745, "ynamic": 4746, "Ġeffort": 4747, "Ġactual": 4748, "Ġfields": 4749, "OUN": 4750, "ters": 4751, "Ġfix": 4752, "_model": 4753, "Ġcases": 4754, "CA": 4755, "My": 4756, "Interface": 4757, "ĠSE": 4758, "]]": 4759, "alle": 4760, "ĠNational": 4761, "ĠArrayList": 4762, "inline": 4763, ".V": 4764, "ara": 4765, "refix": 4766, "asc": 4767, "Reader": 4768, "ĠÐ¿": 4769, "astic": 4770, "Cl": 4771, "Ġperformance": 4772, "aily": 4773, ".net": 4774, "views": 4775, ".end": 4776, "ayers": 4777, "late": 4778, "ĠApr": 4779, "ederal": 4780, "'])": 4781, "Ġhigher": 4782, "_fl": 4783, "cr": 4784, "alert": 4785, "_node": 4786, "ĠGoogle": 4787, "Ġitself": 4788, "Auth": 4789, "urrency": 4790, "Ġsignificant": 4791, "append": 4792, "Ġrespect": 4793, "strap": 4794, "Ġuna": 4795, "riteria": 4796, "PORT": 4797, ".apache": 4798, "Output": 4799, "Ġprogress": 4800, "Ġmid": 4801, "ĠMicrosoft": 4802, "Ġresource": 4803, "ablish": 4804, "Ġdim": 4805, ".load": 4806, "Ġdirection": 4807, "Ġadditional": 4808, "ĠĠĠĠĠĠĠĠĠĠĠĠĠĠĠĠĠĠĠĠĠĠĠĠ": 4809, "Ġnumbers": 4810, "Ġcompanies": 4811, ".Th": 4812, "Ġsound": 4813, "username": 4814, "Ġstatement": 4815, "Ġalert": 4816, "Ġcontract": 4817, "home": 4818, "_length": 4819, "ev": 4820, ".Ex": 4821, "ï¼ļ": 4822, "\";": 4823, "ĠHigh": 4824, "ĠPoint": 4825, "oph": 4826, "Ġlines": 4827, "ox": 4828, "application": 4829, "Ġsoon": 4830, "ctions": 4831, "inger": 4832, "Ġjoin": 4833, "ĠPe": 4834, "Ġlas": 4835, ".E": 4836, "css": 4837, "/or": 4838, "ĠStart": 4839, "ĠTO": 4840, "Ġsubs": 4841, "conn": 4842, "components": 4843, "DEBUG": 4844, "quare": 4845, "Function": 4846, "endar": 4847, ".index": 4848, "Ġfill": 4849, "ÄĻ": 4850, "Ġchoose": 4851, "how": 4852, "ĠAmerica": 4853, "assets": 4854, "------------": 4855, "ĠValue": 4856, "Ġoffice": 4857, "Ġveh": 4858, "Ġtransform": 4859, "ĠArt": 4860, "Ġinde": 4861, "Ġfn": 4862, "Ġimplements": 4863, "ango": 4864, "plete": 4865, "+\"": 4866, "tmp": 4867, "amily": 4868, "Ġhash": 4869, "missions": 4870, "EST": 4871, "gt": 4872, "ĠĠĠĠĠĠĠĠĠĠĠĠĠĠĠĠĠĠĠĠĠĠ": 4873, "Ġflag": 4874, "Ġparticip": 4875, "den": 4876, "ĠReturns": 4877, "Ġnote": 4878, "Ã¼r": 4879, "pm": 4880, "ideos": 4881, "Ġspecified": 4882, "ĠEN": 4883, "ester": 4884, "olid": 4885, "Ġupon": 4886, "(std": 4887, "Ġ'\\": 4888, "uz": 4889, "Ġvert": 4890, "Ġvict": 4891, "Ġ\"$": 4892, ".k": 4893, "Ġgroups": 4894, "github": 4895, "lang": 4896, "Ġmut": 4897, "TO": 4898, "Ġve": 4899, "ĠPlease": 4900, "access": 4901, "Ġ{\"": 4902, "rea": 4903, "Ġrisk": 4904, "icker": 4905, "oggle": 4906, "ANG": 4907, "Ġwoman": 4908, "Ġgets": 4909, "Ġign": 4910, "ĠId": 4911, "_log": 4912, "ONE": 4913, "Ġevid": 4914, "ĠHar": 4915, "_sub": 4916, "Ġendl": 4917, "Ġincluded": 4918, "ĠAp": 4919, "igr": 4920, "Ġsem": 4921, "ĠBlack": 4922, "doc": 4923, "_table": 4924, "ĠĠĠĠĠĠĠĠĠĠĠĠĠĠĠĠĠĠĠĠĠĠĠĠĠĠĠĠĠĠĠĠĠĠĠĠĠĠĠĠĠĠĠĠĠĠĠĠĠĠĠĠĠĠĠĠĠĠĠĠĠĠĠĠ": 4925, "-up": 4926, "Ġcause": 4927, "Ġ..": 4928, "Ġvan": 4929, "_dict": 4930, "Ġfocus": 4931, "IND": 4932, "CESS": 4933, ".Log": 4934, "Ġmultiple": 4935, "ido": 4936, "Ġregard": 4937, "-M": 4938, "andler": 4939, "ourse": 4940, "Ġdeg": 4941, ".U": 4942, "Ġaddition": 4943, "Ġvarious": 4944, "Ġreceive": 4945, "ÐµÐ½": 4946, "ĠHT": 4947, "Obj": 4948, "DF": 4949, "Ġincrease": 4950, "ĠOpen": 4951, "];": 4952, "Ġcommit": 4953, "ategories": 4954, "atory": 4955, "ship": 4956, "ĠMich": 4957, "Ġhtml": 4958, "romise": 4959, "Ġleave": 4960, "Ġstrateg": 4961, "aven": 4962, "ĠConsole": 4963, "known": 4964, "-n": 4965, "Ġbre": 4966, "Session": 4967, "iance": 4968, "Ġalign": 4969, "typedef": 4970, "_result": 4971, "ĠWHERE": 4972, ".split": 4973, "Ġreading": 4974, "FAULT": 4975, "Ġclo": 4976, "Ġnotice": 4977, "_pr": 4978, "arter": 4979, "Ġlock": 4980, "Ġstandard": 4981, "etic": 4982, "ellow": 4983, "Ġpadding": 4984, "ĠHis": 4985, "Ġstates": 4986, "(P": 4987, "aa": 4988, "Ġinternal": 4989, "ean": 4990, "ĠPRO": 4991, "ĠKey": 4992, "Ġespecially": 4993, "ming": 4994, "Ġcross": 4995, "Ġnational": 4996, "_object": 4997, "filter": 4998, "Ġscript": 4999, ".update": 5000, "_i": 5001, "/core": 5002, "%%%%": 5003, "Ġproblems": 5004, "istor": 5005, "Ġarch": 5006, "Ġwritten": 5007, "Ġmilit": 5008, "MENT": 5009, ".ch": 5010, "cape": 5011, "ĠMus": 5012, "_config": 5013, "ĠAPI": 5014, "foot": 5015, "Ġimages": 5016, "endl": 5017, ".In": 5018, "First": 5019, "Ġplatform": 5020, "Option": 5021, "ste": 5022, "ĠTODO": 5023, "Ġforce": 5024, ".cont": 5025, "ĠDav": 5026, "(B": 5027, "RT": 5028, "ĠBase": 5029, "Ġannounc": 5030, "console": 5031, "ĠPy": 5032, "ds": 5033, ".as": 5034, "Ġprevent": 5035, "apan": 5036, "Ġ{'": 5037, "}</": 5038, "ĠService": 5039, "ĠSen": 5040, "ador": 5041, "profile": 5042, "Top": 5043, "Ġiter": 5044, "po": 5045, "IES": 5046, "JSON": 5047, "IE": 5048, "iant": 5049, "ãĢģ": 5050, "_j": 5051, "ĠSept": 5052, "_map": 5053, "bum": 5054, "ĠHome": 5055, "ians": 5056, "GB": 5057, "Ġliving": 5058, "Ġpattern": 5059, "(input": 5060, "icient": 5061, "Core": 5062, "Ġentity": 5063, "Ġinteg": 5064, "Changed": 5065, "Ġuseful": 5066, ".info": 5067, "Ġtool": 5068, "(item": 5069, "Ġok": 5070, "Ġfeed": 5071, "IX": 5072, "Ã©s": 5073, "ĠNews": 5074, "remove": 5075, "erry": 5076, "ipment": 5077, "ares": 5078, "Do": 5079, "Current": 5080, "ustral": 5081, "ĠÑģ": 5082, "})": 5083, "Ġpopular": 5084, "Ġstre": 5085, "Ġmethods": 5086, "Left": 5087, "cal": 5088, "bsp": 5089, "Ġdir": 5090, "Ġallowed": 5091, "Ġimpact": 5092, "Ġelements": 5093, "Ġprote": 5094, "Ġtrain": 5095, ".tr": 5096, "rs": 5097, "ĠRepublic": 5098, "ĠTask": 5099, "aries": 5100, "(D": 5101, "(get": 5102, "Ġrelated": 5103, "Ġvers": 5104, "Ġsil": 5105, "Ġcmd": 5106, "Ġtechnology": 5107, ".width": 5108, "Float": 5109, "ĠUse": 5110, "Body": 5111, "should": 5112, ".join": 5113, "Font": 5114, "llum": 5115, "ycle": 5116, "ĠBrit": 5117, "Ġmit": 5118, "Ġscale": 5119, "Ġ(_": 5120, "ernel": 5121, "Ġscore": 5122, "/v": 5123, "Ġstudent": 5124, "UC": 5125, ".show": 5126, "Ġaverage": 5127, "Enabled": 5128, "(ex": 5129, "common": 5130, "imation": 5131, "chie": 5132, "river": 5133, "ĠMarch": 5134, "category": 5135, "fin": 5136, "Ġcourt": 5137, "Ð²": 5138, "Server": 5139, "Ġcontainer": 5140, "-st": 5141, "_for": 5142, "Ġparts": 5143, "Ġdecision": 5144, "obs": 5145, "oub": 5146, "mitted": 5147, "Ġsaw": 5148, "Ġapproach": 5149, "ICE": 5150, "Ġsaying": 5151, "Ġanyone": 5152, "meta": 5153, "SD": 5154, "Ġsong": 5155, "display": 5156, "Oper": 5157, "outes": 5158, "Ġchannel": 5159, "Ġchanged": 5160, "Ãª": 5161, "Ġfinally": 5162, "_number": 5163, "Please": 5164, "à¤": 5165, "oring": 5166, "-re": 5167, "Ġkill": 5168, "Ġdrug": 5169, "window": 5170, "Ġconvert": 5171, "ombre": 5172, "Ġways": 5173, "Helper": 5174, "ĠFirst": 5175, "urity": 5176, "ĠWindows": 5177, "ees": 5178, "Ġmat": 5179, "rapper": 5180, "Ġplus": 5181, "anges": 5182, "\"].": 5183, "azon": 5184, "/t": 5185, "lat": 5186, "aste": 5187, "Ġprofile": 5188, "Ġready": 5189, "rote": 5190, "Ġsense": 5191, "Gener": 5192, "ĠConfig": 5193, "omy": 5194, "ĠJune": 5195, "Ġlatest": 5196, "Ġsaf": 5197, "Ġregion": 5198, "Ġdeep": 5199, "witch": 5200, "ĠPark": 5201, "}`": 5202, "ĠFrom": 5203, "II": 5204, "Ġcv": 5205, "Ġreach": 5206, "Ġcounter": 5207, "ĠWork": 5208, "ĠURL": 5209, "ĠUpdate": 5210, "Ġimmedi": 5211, "close": 5212, "ados": 5213, "ferred": 5214, "Ġweeks": 5215, "urg": 5216, "Ġdamage": 5217, "Ġlost": 5218, "ani": 5219, "_lo": 5220, "Ġhimself": 5221, "Ġdog": 5222, "ï¿": 5223, "pir": 5224, "tt": 5225, "Ġpaper": 5226, "Ġthems": 5227, "second": 5228, "Ġstaff": 5229, "ĠInput": 5230, "\"+": 5231, "ĠFacebook": 5232, "Ġalloc": 5233, "Ġsched": 5234, "ACE": 5235, "Ġthemselves": 5236, "ĠComponent": 5237, "Ġdriver": 5238, "ja": 5239, "(path": 5240, "Ġcategory": 5241, "alls": 5242, "pu": 5243, "ĠAction": 5244, "ĠGL": 5245, "istics": 5246, "Ġoil": 5247, "Ġstock": 5248, ">'": 5249, "Ġdead": 5250, "VAL": 5251, "QUE": 5252, "Ġcharg": 5253, "Return": 5254, "Ġful": 5255, "dom": 5256, "Ġrules": 5257, "Ġmodify": 5258, "Ġeval": 5259, "ham": 5260, "atement": 5261, "\\<": 5262, "ula": 5263, "=False": 5264, "RA": 5265, "Ġcontains": 5266, "Ġstack": 5267, "mar": 5268, "Ġundefined": 5269, "Ass": 5270, "ĠChina": 5271, "vey": 5272, "Ġplaying": 5273, ")/": 5274, "actor": 5275, "Ġbottom": 5276, "lier": 5277, "ĠNumber": 5278, "Ġcouple": 5279, "DC": 5280, "ĠSO": 5281, "gor": 5282, "success": 5283, "command": 5284, "Filter": 5285, "ĠOur": 5286, "_item": 5287, "Ġroad": 5288, "Version": 5289, "case": 5290, "urt": 5291, "avior": 5292, "ych": 5293, "sembly": 5294, "ĠProduct": 5295, "Ġheld": 5296, "afe": 5297, "Ġincludes": 5298, "Ġavoid": 5299, "ĠFin": 5300, "ĠMod": 5301, "Ġtab": 5302, "ano": 5303, "Ã±": 5304, "ipping": 5305, "-e": 5306, "Ġinsert": 5307, "target": 5308, "chan": 5309, ".Model": 5310, "IME": 5311, "Ġmachine": 5312, "avy": 5313, "ĠNO": 5314, "ĠInter": 5315, "Ġoperation": 5316, "modal": 5317, "Tag": 5318, "]:": 5319, "Ġproduction": 5320, "Ġareas": 5321, "Ġren": 5322, "_from": 5323, "Ġoperator": 5324, "men": 5325, "apped": 5326, "_per": 5327, "zen": 5328, ".save": 5329, "Ġtor": 5330, "(response": 5331, "Ġcandid": 5332, "Ġconv": 5333, "ailed": 5334, "ĠLib": 5335, "comp": 5336, "ura": 5337, "ï¿½": 5338, "ĠHere": 5339, "Ġargument": 5340, "hood": 5341, "Ġestablish": 5342, "ography": 5343, "ambda": 5344, "Ġsch": 5345, "Ġmovie": 5346, "Ġsec": 5347, "Ġactivity": 5348, "Ø§": 5349, "_all": 5350, "incip": 5351, "Ġprovides": 5352, "Ġsys": 5353, "acket": 5354, "Ġwasn": 5355, "Ġuses": 5356, "ĠFunction": 5357, ".google": 5358, "ĠResult": 5359, "Visible": 5360, "agma": 5361, "elcome": 5362, "ĠSy": 5363, "ĠCent": 5364, "ALSE": 5365, "aciÃ³n": 5366, "EXT": 5367, "Ġlicense": 5368, "ĠLong": 5369, "Ġaccom": 5370, "Ġability": 5371, ".height": 5372, "Active": 5373, "ological": 5374, "oly": 5375, ")),": 5376, ".Se": 5377, "Ġparameter": 5378, "ABILITY": 5379, "ĠGroup": 5380, "ĠItem": 5381, "ining": 5382, "Ġjud": 5383, "ims": 5384, "fix": 5385, "inder": 5386, "agram": 5387, "Ġfunctions": 5388, "Ġexperi": 5389, "ĠEm": 5390, "Ġrot": 5391, "Ġpen": 5392, "ĠAS": 5393, "Ġchoice": 5394, "ĠPage": 5395, "QU": 5396, "antity": 5397, "ÂŃ": 5398, "words": 5399, "Ġflex": 5400, "protected": 5401, "ĠAny": 5402, "Ġcharacters": 5403, "enced": 5404, "ĠJuly": 5405, "iler": 5406, "Card": 5407, "urance": 5408, "Ġrev": 5409, "aly": 5410, "Ġwonder": 5411, "ĠPort": 5412, "Ġlegal": 5413, "role": 5414, "Ġten": 5415, "Ġgoes": 5416, "MP": 5417, "white": 5418, "Ġreference": 5419, "Ġmis": 5420, "ĠProject": 5421, "icks": 5422, ">&": 5423, "CON": 5424, "Ġrepl": 5425, "Ġregular": 5426, "Storage": 5427, "ramework": 5428, "Ġgoal": 5429, "Ġtouch": 5430, "Ġbuilt": 5431, "des": 5432, "Part": 5433, "(re": 5434, "Ġworth": 5435, "hib": 5436, "game": 5437, "ĠÐ²": 5438, "acion": 5439, "ĠWhite": 5440, "(type": 5441, "(`": 5442, "Ġnatural": 5443, "Ġinj": 5444, "Ġcalcul": 5445, "ĠApril": 5446, "Ġassociated": 5447, "~~": 5448, "=[": 5449, "Ġstorage": 5450, "Ġbytes": 5451, "Ġtravel": 5452, "Ġsou": 5453, "Ġpassed": 5454, "!=": 5455, "ascript": 5456, ".open": 5457, "Ġgrid": 5458, "Ġbus": 5459, "Ġrecogn": 5460, "Ab": 5461, "Ġhon": 5462, "ĠCenter": 5463, "Ġprec": 5464, "build": 5465, "HTML": 5466, "ĠSan": 5467, "Ġcountries": 5468, "aled": 5469, "token": 5470, "kt": 5471, "Ġqual": 5472, "Last": 5473, "adow": 5474, "Ġmanufact": 5475, "idad": 5476, "Next": 5477, "xf": 5478, ".a": 5479, "ĠPM": 5480, "erve": 5481, "iting": 5482, "_th": 5483, "ci": 5484, "=None": 5485, "gs": 5486, "Ġlogin": 5487, "atives": 5488, "Äħ": 5489, "Ġill": 5490, "IA": 5491, "children": 5492, "DO": 5493, "Ġlevels": 5494, "Ġ{{": 5495, "Ġlooks": 5496, "Ġ\"#": 5497, "Ġnecessary": 5498, "ĠĠĠĊ": 5499, "cell": 5500, "Entry": 5501, "Ġ'#": 5502, "Ġextrem": 5503, "Selector": 5504, "Ġplaceholder": 5505, "Load": 5506, "Ġreleased": 5507, "ORE": 5508, "Enumer": 5509, "ĠTV": 5510, "SET": 5511, "Press": 5512, "ĠDepartment": 5513, "Ġproperties": 5514, "Ġrespond": 5515, "Search": 5516, "ael": 5517, "Ġrequ": 5518, "ĠBook": 5519, "(st": 5520, "Ġfinancial": 5521, "icket": 5522, "_input": 5523, "Ġthreat": 5524, "(in": 5525, "Strip": 5526, "Ã§Ã£o": 5527, "Ġevidence": 5528, "));": 5529, "ĠBro": 5530, "Ġou": 5531, "buf": 5532, "Script": 5533, "dat": 5534, "Ġrule": 5535, "=\"/": 5536, "Serial": 5537, "Ġstarting": 5538, "[index": 5539, "ae": 5540, "Ġcontrib": 5541, "session": 5542, "_new": 5543, "utable": 5544, "ober": 5545, "Ġ\"./": 5546, "Ġlogger": 5547, "Ġrecently": 5548, "Ġreturned": 5549, "itions": 5550, "Ġseek": 5551, "Ġcommunic": 5552, "Ġ\".": 5553, "Ġusername": 5554, "ECT": 5555, "DS": 5556, "Ġotherwise": 5557, "ĠGerman": 5558, "Adapter": 5559, "ixel": 5560, "Ġsystems": 5561, "Ġdrop": 5562, "Ġstructure": 5563, "encies": 5564, "anning": 5565, "ĠLink": 5566, "ĠResponse": 5567, "Ġstri": 5568, "Å¼": 5569, "ĠDB": 5570, "submit": 5571, "otion": 5572, "(@": 5573, ".test": 5574, "Ġdirectly": 5575, "Ġ\"%": 5576, "ris": 5577, "elta": 5578, "AIL": 5579, "mine": 5580, "ĠĠĠĠĠĠĠĠĠĠĠĠĠĠĠĠĠĠĠĠĠĠĠĠĠĠ": 5581, "(k": 5582, "bon": 5583, "asic": 5584, "pite": 5585, "___": 5586, "Max": 5587, "Ġerrors": 5588, "ĠWhile": 5589, "Ġarguments": 5590, "Ġensure": 5591, "Right": 5592, "-based": 5593, "Web": 5594, "Ġ-=": 5595, "Ġintrodu": 5596, "ĠInst": 5597, "ĠWash": 5598, "ordin": 5599, "join": 5600, "Database": 5601, "Ġgrad": 5602, "Ġusually": 5603, "ITE": 5604, "ĠGo": 5605, "REF": 5606, "Ġip": 5607, "ĠAustral": 5608, "Ġist": 5609, "Ġserious": 5610, "Ġcustomer": 5611, "odo": 5612, "cor": 5613, "Ġdoor": 5614, "ĠWITHOUT": 5615, "Ġplant": 5616, "Ġbegan": 5617, "Ġdistance": 5618, "()).": 5619, "Ġchance": 5620, "Ġord": 5621, "came": 5622, "pragma": 5623, "Ġprotect": 5624, "ĠNode": 5625, "ening": 5626, "Ñĩ": 5627, "Ġroute": 5628, "ĠSchool": 5629, "hi": 5630, "Ġneighb": 5631, "After": 5632, "licit": 5633, "Ġcontr": 5634, "Ġprimary": 5635, "AA": 5636, ".WriteLine": 5637, "utils": 5638, "Ġbi": 5639, "Red": 5640, ".object": 5641, "Ġleaders": 5642, "unities": 5643, "Ġgun": 5644, "onth": 5645, "ĠDev": 5646, "FILE": 5647, "Ġcomments": 5648, "_len": 5649, "arrow": 5650, "amount": 5651, "Range": 5652, "sert": 5653, "Ġupdated": 5654, "ĠMo": 5655, "Ġinform": 5656, "ociety": 5657, "ala": 5658, "Access": 5659, "Ġhab": 5660, "Ġcreat": 5661, "_arg": 5662, "ĠJanuary": 5663, "ĠDay": 5664, "uple": 5665, "document": 5666, "gorith": 5667, "menu": 5668, "ĠOver": 5669, "bb": 5670, ".title": 5671, "_out": 5672, "Ġled": 5673, "uri": 5674, "gl": 5675, "Ġbank": 5676, "MD": 5677, "Ġsample": 5678, "Ġhands": 5679, "ĠVersion": 5680, "Ġoffers": 5681, "Ġshape": 5682, "Ġsleep": 5683, "_point": 5684, "Settings": 5685, "Ġachie": 5686, "Ġsold": 5687, "ota": 5688, "Am": 5689, "Ġsafe": 5690, "Store": 5691, "Ġshared": 5692, "Ġpriv": 5693, "Ġsens": 5694, "){": 5695, "Ġremember": 5696, "shared": 5697, "element": 5698, "Ġshoot": 5699, "Vert": 5700, "cout": 5701, "Ġenv": 5702, "_label": 5703, "run": 5704, "Ġscene": 5705, "(array": 5706, "device": 5707, "_title": 5708, "agon": 5709, "aby": 5710, "Ġbecame": 5711, "boolean": 5712, "Ġpark": 5713, "ĠCode": 5714, "upload": 5715, "riday": 5716, "ĠSeptember": 5717, "Fe": 5718, "Ġsen": 5719, "cing": 5720, "FL": 5721, "Col": 5722, "uts": 5723, "_page": 5724, "inn": 5725, "Ġimplied": 5726, "aling": 5727, "Ġyourself": 5728, "conf": 5729, "Ġaud": 5730, "_init": 5731, ".)": 5732, "Ġwrote": 5733, "NG": 5734, ".Error": 5735, ".for": 5736, "Ġequal": 5737, "ĠRequest": 5738, "Ġserial": 5739, "Ġallows": 5740, "XX": 5741, "Ġmiddle": 5742, "chor": 5743, "Ã¸": 5744, "erval": 5745, "reading": 5746, "ĠAugust": 5747, "Ġquickly": 5748, "Ġweap": 5749, "ĠCG": 5750, "ropri": 5751, "ho": 5752, "Ġcop": 5753, "ĠBig": 5754, "Ġvs": 5755, "Ġfrequ": 5756, "Ġactions": 5757, "Ġproper": 5758, "Ġinn": 5759, "Ġobjects": 5760, "Ġmatrix": 5761, "avascript": 5762, "Ġones": 5763, ".group": 5764, "Ġgreen": 5765, "Ġpaint": 5766, "ools": 5767, "ycl": 5768, "encode": 5769, "olt": 5770, "comment": 5771, ".api": 5772, "Dir": 5773, "Ġune": 5774, "izont": 5775, ".position": 5776, "Ġdesigned": 5777, "_val": 5778, "avi": 5779, "iring": 5780, "tab": 5781, "Ġlayer": 5782, "Ġviews": 5783, "Ġreve": 5784, "rael": 5785, "ĠON": 5786, "rics": 5787, "np": 5788, "Ġcore": 5789, "Main": 5790, "Ġexpert": 5791, "_en": 5792, "Ġ/>": 5793, "utter": 5794, "IAL": 5795, "ails": 5796, "ĠKing": 5797, "ĠMet": 5798, "_end": 5799, "addr": 5800, "ora": 5801, "Ġir": 5802, "Min": 5803, "Ġsurpr": 5804, "Ġrepe": 5805, "Ġdirectory": 5806, "PUT": 5807, "-S": 5808, "Ġelection": 5809, "haps": 5810, ".pre": 5811, "cm": 5812, "Values": 5813, "column": 5814, "ivil": 5815, "inue": 5816, "Ġbeautiful": 5817, "Ġsecret": 5818, "(event": 5819, "Ġchat": 5820, "ums": 5821, "Ġorigin": 5822, "Ġeffects": 5823, "Ġmanagement": 5824, "illa": 5825, "tk": 5826, "Ġsetting": 5827, "ĠCour": 5828, "Ġmassage": 5829, "Ġhappy": 5830, "Ġfinish": 5831, "Ġcamera": 5832, "ĠVer": 5833, "ĠHer": 5834, "(Q": 5835, "cons": 5836, "ita": 5837, "Ġ'.": 5838, "{}": 5839, "Ġstuff": 5840, "ĠAR": 5841, "Task": 5842, "hidden": 5843, "eros": 5844, "IGN": 5845, "atio": 5846, "ĠHealth": 5847, "olute": 5848, "Enter": 5849, "'>": 5850, "ĠTwitter": 5851, "ĠCounty": 5852, "Ġhy": 5853, "fit": 5854, "Ġmilitary": 5855, "Ġsale": 5856, "required": 5857, "non": 5858, "bootstrap": 5859, "hold": 5860, "rim": 5861, "-old": 5862, "ĠDown": 5863, "Ġmention": 5864, "contact": 5865, "_group": 5866, "oday": 5867, "Ġtown": 5868, "Ġsolution": 5869, "uate": 5870, "elling": 5871, "]->": 5872, "otes": 5873, "ental": 5874, "omen": 5875, "ospital": 5876, "ĠSup": 5877, "Ġslow": 5878, "Ġblue": 5879, "ago": 5880, "Ġlives": 5881, "Ġ^": 5882, ".un": 5883, "inst": 5884, "enge": 5885, "Ġcustomers": 5886, "Ġcast": 5887, "udget": 5888, "icens": 5889, "Ġdetermin": 5890, "Selected": 5891, "_pl": 5892, "ueue": 5893, "Ġdark": 5894, "si": 5895, "thern": 5896, "ĠJapan": 5897, "/w": 5898, "PU": 5899, "ĠEast": 5900, "ovie": 5901, "Ġpackage": 5902, "Ġnor": 5903, "Ġapi": 5904, "bot": 5905, "_post": 5906, "ulate": 5907, "Ġclub": 5908, "Ġloop": 5909, "PIO": 5910, "ione": 5911, "shot": 5912, "Initial": 5913, "Ġplayed": 5914, "register": 5915, "rought": 5916, "_max": 5917, "acement": 5918, "match": 5919, "raphics": 5920, "AST": 5921, "Ġexisting": 5922, "Ġcomplex": 5923, "DA": 5924, "mo": 5925, "ito": 5926, "Ġanalysis": 5927, "Ġdeliver": 5928, "ĠĠĠĠĠĠĠĠĠĠĠĠĠĠĠĠĊ": 5929, "idx": 5930, "Ãł": 5931, "ongo": 5932, "ĠEnglish": 5933, "<!--": 5934, "Ġcomputer": 5935, "Ġpas": 5936, "Ġrais": 5937, "Hash": 5938, "Ġmobile": 5939, "Ġowner": 5940, "FIG": 5941, "ĠĠĠĠĠĠĠĠĠĠĠĠĠĠĠĠĠĠĠĠĠĠĠĠĠĠĠĠĠĠĠĠĠĠĠĠĠĠĠĠĠĠĠĠĠĠĠĠĠĠĠ": 5942, "thes": 5943, "Ġattr": 5944, "wd": 5945, ".time": 5946, "awn": 5947, "Ġtreatment": 5948, "ĠAc": 5949, "impl": 5950, "more": 5951, "pass": 5952, "Ġha": 5953, ".from": 5954, "Ġleading": 5955, "FFFF": 5956, "(error": 5957, "atar": 5958, "aders": 5959, "dates": 5960, "Ġzu": 5961, "Ġflow": 5962, "Target": 5963, "Ġinvolved": 5964, "Ġio": 5965, "parse": 5966, "$_": 5967, "hest": 5968, ".int": 5969, "-item": 5970, "asy": 5971, "Sp": 5972, "Ġshift": 5973, "NT": 5974, "Ġtf": 5975, "_TR": 5976, ".web": 5977, "CS": 5978, "Ġ})": 5979, "Ġeyes": 5980, "_z": 5981, "iforn": 5982, "Ġ{@": 5983, "Ġnice": 5984, ".list": 5985, "Ġfloor": 5986, "Ġredirect": 5987, "ĠUK": 5988, "(['": 5989, "Ġwish": 5990, "Ġcapt": 5991, "legal": 5992, "ĠIO": 5993, "Ġstage": 5994, "ĠAfr": 5995, "igen": 5996, "ĠSH": 5997, "Delete": 5998, "ells": 5999, "Ġsolid": 6000, "Ġmeeting": 6001, "Ġworked": 6002, "Ġeditor": 6003, "iny": 6004, "Ð¼": 6005, "_read": 6006, "eff": 6007, "Offset": 6008, "cha": 6009, "USER": 6010, "ipped": 6011, "Ġdict": 6012, "ĠRun": 6013, "Ġang": 6014, "xml": 6015, "imple": 6016, "Ġmedical": 6017, "_token": 6018, "connect": 6019, "Ġhour": 6020, "Ġcontroller": 6021, "_message": 6022, "UID": 6023, "Gr": 6024, "anded": 6025, "Ġbooks": 6026, "Ġspeak": 6027, "aming": 6028, "Ġmount": 6029, "Record": 6030, "ondon": 6031, "Ġfelt": 6032, "idge": 6033, "_pos": 6034, "PR": 6035, "Ġmodern": 6036, "Collection": 6037, "CD": 6038, "ĠLo": 6039, "Ġseconds": 6040, "ibly": 6041, "Ġinternational": 6042, "ooth": 6043, "Writer": 6044, "iate": 6045, "Ġcele": 6046, "ĠBit": 6047, "ivo": 6048, "ivery": 6049, "rd": 6050, "HECK": 6051, "Ġcache": 6052, ".count": 6053, "Ġroll": 6054, "RED": 6055, "Ġsetup": 6056, "izontal": 6057, "models": 6058, "argv": 6059, "Ġconsidered": 6060, "settings": 6061, "ĠRel": 6062, "Ġgrowth": 6063, "Ġmix": 6064, "ĠWashington": 6065, "Ġplt": 6066, "ĠIM": 6067, "áº": 6068, "Ġturned": 6069, "ĠWed": 6070, "Ġ\"-": 6071, "Ġletter": 6072, "ĠĠĠĠĠĠĠĠĠĠĠĠĠĠĠĠĠĠĠĠĠĠĠĠĠĠĠĠ": 6073, "ĠOctober": 6074, "_line": 6075, "Ġattention": 6076, "Ġcollect": 6077, "ĠHash": 6078, "Ġimag": 6079, "Tree": 6080, "Ġsituation": 6081, "ette": 6082, "_no": 6083, "IVE": 6084, "Ġvon": 6085, ".target": 6086, "Ġknowledge": 6087, "Ġdrive": 6088, ".post": 6089, "Ġblood": 6090, "Ġcit": 6091, "primary": 6092, "Ġconfiguration": 6093, "tee": 6094, "Ġphoto": 6095, "isode": 6096, "Trace": 6097, "Ġgave": 6098, "Ġshot": 6099, "ĠAir": 6100, "Ġmother": 6101, "price": 6102, "Ġmorning": 6103, "-x": 6104, "Ġtrade": 6105, "Ġdesc": 6106, "Ġparents": 6107, "ted": 6108, "wer": 6109, "Ġsy": 6110, "ĠKe": 6111, "Parser": 6112, "ancy": 6113, "Ġpiece": 6114, "ifornia": 6115, "ran": 6116, "iding": 6117, "PTION": 6118, "comes": 6119, "/lic": 6120, "El": 6121, "Long": 6122, "Ġprofessional": 6123, "rupt": 6124, "va": 6125, "Ġcompletely": 6126, "Ġpractice": 6127, "Ġselection": 6128, "Rem": 6129, "ini": 6130, "Ġcam": 6131, "REE": 6132, "Ġsites": 6133, "pa": 6134, "ATUS": 6135, "ÑģÑĤ": 6136, "arrant": 6137, "*(": 6138, "ĠFriday": 6139, "sequ": 6140, "Ġreader": 6141, "Ġmessages": 6142, "Ġbuf": 6143, "Ke": 6144, "Ġnov": 6145, "HP": 6146, "Msg": 6147, "align": 6148, "arily": 6149, "Ġ',": 6150, "_with": 6151, "Ġdas": 6152, "Ġheard": 6153, "atomic": 6154, "rial": 6155, ")[": 6156, "Ġdise": 6157, "@end": 6158, "Ġgold": 6159, "Ġfair": 6160, "Ġsales": 6161, "strict": 6162, "save": 6163, "Ġmeasure": 6164, "Ġ\"+": 6165, "ecause": 6166, "ĠTable": 6167, ".param": 6168, "Ġdecided": 6169, "(((": 6170, "INFO": 6171, "Ġopportunity": 6172, "Te": 6173, "ccording": 6174, "ki": 6175, "ĠUN": 6176, "Ġcontain": 6177, "Ġmanager": 6178, "Ġpain": 6179, "ĠFire": 6180, "rome": 6181, "Ġplans": 6182, "Found": 6183, "lay": 6184, "ĠDecember": 6185, "Ġinflu": 6186, "Ãº": 6187, "rench": 6188, "ĠĠĠĠĠĠĠĠĠĠĠĠĠĠĠĠĠĠĠĠĠĠĠĠĠĠĠĠĠĠĠĠĠ": 6189, "azing": 6190, "brief": 6191, "call": 6192, "wood": 6193, "Ġloaded": 6194, "Ġgrand": 6195, "/f": 6196, "imp": 6197, "_U": 6198, "STR": 6199, "âĢ¢": 6200, "Ġcredit": 6201, "orge": 6202, "QUEST": 6203, "Ġdifference": 6204, "ĠPC": 6205, "wargs": 6206, "Ġpub": 6207, "unday": 6208, "Ġfra": 6209, ".max": 6210, "Ġtried": 6211, "annels": 6212, "send": 6213, "Ġreports": 6214, "Ġadult": 6215, "Ġconsist": 6216, "ĠStreet": 6217, "ĠProgram": 6218, "SQL": 6219, "Matrix": 6220, "ouncil": 6221, "-A": 6222, "Ġwhose": 6223, "Ġrelig": 6224, "ĠSex": 6225, "Ġgives": 6226, "none": 6227, "(G": 6228, "-right": 6229, "ĠNovember": 6230, "ellig": 6231, "utive": 6232, "Äĥ": 6233, "overn": 6234, "Ġeasily": 6235, "Ġideas": 6236, "ĠÐ½": 6237, "/css": 6238, "lying": 6239, "elle": 6240, "Can": 6241, "_color": 6242, "Ġpair": 6243, "ngth": 6244, "Ġsplit": 6245, "drop": 6246, "arty": 6247, "ona": 6248, "Ġcapital": 6249, "Ġhear": 6250, "Ġexists": 6251, "emo": 6252, "Run": 6253, "oi": 6254, "Ġparser": 6255, "ĠMethod": 6256, "Ġeducation": 6257, "[k": 6258, "Ġlibrary": 6259, "oded": 6260, "Ġcalls": 6261, "here": 6262, "Rel": 6263, "Ġbrand": 6264, "background": 6265, "ga": 6266, "_params": 6267, "Category": 6268, "ĠIndia": 6269, "_event": 6270, "Ġing": 6271, "Render": 6272, ".cl": 6273, "umpy": 6274, "Ġpet": 6275, "FC": 6276, "ĠAnt": 6277, "Ext": 6278, "Ġcharge": 6279, "ened": 6280, "grad": 6281, "EO": 6282, "Ġdepend": 6283, "frame": 6284, "Ġdf": 6285, "Ġhuge": 6286, "ĠPART": 6287, "eds": 6288, ";;": 6289, "ĠAM": 6290, "Ġbasic": 6291, "ĠLet": 6292, "lich": 6293, "Ġarm": 6294, "Ġstar": 6295, "Ġfederal": 6296, "Work": 6297, "Ġcarry": 6298, "ĠIsrael": 6299, "(obj": 6300, "={{": 6301, "Ġsaved": 6302, "Ġsyn": 6303, "Ġconstant": 6304, "VENT": 6305, "Ġpositive": 6306, "Ġconduct": 6307, "Ġskin": 6308, "Ġearlier": 6309, "Ġlayout": 6310, "ĠIP": 6311, "OUR": 6312, "Ġtim": 6313, "stylesheet": 6314, "_cl": 6315, "ĠCard": 6316, "Ġtemper": 6317, "ĠDavid": 6318, "Ġwants": 6319, "Ġpicture": 6320, "Ġvideos": 6321, "ĠComm": 6322, "isions": 6323, "_MAX": 6324, "Mapping": 6325, "-content": 6326, "ĠEar": 6327, "-de": 6328, "Ġprem": 6329, "bruary": 6330, "Ġcomponents": 6331, "Ġthroughout": 6332, "Ġpull": 6333, "Ġpages": 6334, "ente": 6335, "respond": 6336, "Ġgas": 6337, "criptor": 6338, "Ġedge": 6339, "Ġbound": 6340, "ACT": 6341, "******": 6342, "Ġcreating": 6343, "ĠCH": 6344, "Br": 6345, "+'": 6346, ".co": 6347, "Ġlearning": 6348, ".Length": 6349, "Ġpatients": 6350, "AIN": 6351, "Ġkids": 6352, "Ġcomfort": 6353, "Ġshown": 6354, "ugins": 6355, "ĠBack": 6356, "ella": 6357, "Ġlat": 6358, "Ġdispatch": 6359, "Ġclasses": 6360, ".at": 6361, ".begin": 6362, "Ġsuccessful": 6363, "ban": 6364, "Ġobtain": 6365, "ĠSl": 6366, "Ġlack": 6367, "Thread": 6368, "(size": 6369, "Ġnone": 6370, "_X": 6371, "sort": 6372, "nap": 6373, "pet": 6374, "bin": 6375, "ĠCanada": 6376, "They": 6377, "Ġdans": 6378, "ĠMat": 6379, "Ġhair": 6380, "Ġcu": 6381, "Ġlaws": 6382, "leted": 6383, "ped": 6384, "Ġpow": 6385, "Ġknew": 6386, "_,": 6387, "ĠMag": 6388, "idents": 6389, "Ġ),": 6390, "-center": 6391, "Ġwide": 6392, "ĠAuthor": 6393, "stants": 6394, "Ġjobs": 6395, "Ġmath": 6396, "etimes": 6397, "Boolean": 6398, "Ġscope": 6399, "_is": 6400, "Ġmeas": 6401, "Ġkeys": 6402, "elay": 6403, "Ġexactly": 6404, "ĠPaul": 6405, "mas": 6406, "(len": 6407, "fd": 6408, "Ġ);": 6409, "irit": 6410, "ields": 6411, "oman": 6412, "ĠTop": 6413, "Ġvote": 6414, "Ġmask": 6415, "Ġtheme": 6416, "Ġfine": 6417, "Ġwriter": 6418, "_offset": 6419, "car": 6420, "Ġaltern": 6421, "Ġcopyright": 6422, "Ġdestroy": 6423, "pper": 6424, "Ġgenerate": 6425, "pped": 6426, "âĢĻd": 6427, "ĠĠĠĠĠĠĊ": 6428, "make": 6429, "ĠShow": 6430, "Ġbrowser": 6431, "Ġfavorite": 6432, "Ġcareer": 6433, "Ġhappened": 6434, "(char": 6435, "Ġrecommend": 6436, "Ġliter": 6437, "grade": 6438, "ĠÂ£": 6439, "Phone": 6440, "oms": 6441, "Ġnamed": 6442, "-label": 6443, "ipo": 6444, "ĠOther": 6445, "Ġpanel": 6446, "Ġrock": 6447, "Scale": 6448, "Ð´": 6449, "Ġtrust": 6450, "front": 6451, "Ġdemon": 6452, "Ar": 6453, "Net": 6454, "Ġeconomic": 6455, "footer": 6456, "Ġrace": 6457, "(node": 6458, "ĠOption": 6459, "split": 6460, "Ġphysical": 6461, "ifest": 6462, "Ġremoved": 6463, "Ġlooked": 6464, "';": 6465, "ding": 6466, "gest": 6467, "aturday": 6468, "/licenses": 6469, "Price": 6470, "Ġdro": 6471, "Ġtowards": 6472, "Ġuns": 6473, "ĠCL": 6474, "Ġrows": 6475, "Ġdefine": 6476, ".replace": 6477, "Ġfather": 6478, "ĠDesign": 6479, "assign": 6480, "mut": 6481, "Device": 6482, "Did": 6483, "ometry": 6484, "Ġhistor": 6485, "ĠParam": 6486, "ĠBoolean": 6487, "Ġnature": 6488, "Ġjs": 6489, "Ġnation": 6490, "ih": 6491, "Ġdiscover": 6492, "sem": 6493, "Handle": 6494, "ĠTechn": 6495, "Ġwall": 6496, "{$": 6497, "Ġexam": 6498, ".draw": 6499, "opping": 6500, "Ġnearly": 6501, "Ġcool": 6502, "Ġindepend": 6503, "RES": 6504, "Ġhandler": 6505, "ĠMonday": 6506, "Ġsun": 6507, "Styles": 6508, "ously": 6509, "vest": 6510, "Display": 6511, "(y": 6512, "atically": 6513, "Ġpredict": 6514, "ying": 6515, "Ġsometimes": 6516, "Ġdrink": 6517, "Ġbul": 6518, "ifications": 6519, ".insert": 6520, ".reg": 6521, "Ġtests": 6522, "Alignment": 6523, "Ġalleg": 6524, "Ġattribute": 6525, "ĠNote": 6526, "Ġmyself": 6527, "arts": 6528, "Now": 6529, "Ġinteresting": 6530, "lients": 6531, "Ġpopulation": 6532, "ĠCalifornia": 6533, "\"I": 6534, "Ġgreater": 6535, "uesday": 6536, "Ġthous": 6537, "Ġcosts": 6538, "Ġlaunch": 6539, "ker": 6540, "band": 6541, "ĠPlay": 6542, "Ġband": 6543, ".shape": 6544, "esome": 6545, "article": 6546, ".rf": 6547, "Ġwer": 6548, "Ã¡s": 6549, "embers": 6550, "usr": 6551, "BA": 6552, "ican": 6553, "ett": 6554, "validate": 6555, "ulti": 6556, "Ġimmediately": 6557, "zer": 6558, "Ġfigure": 6559, "oes": 6560, "eller": 6561, "ircle": 6562, "ĠSign": 6563, ".db": 6564, "Ġrank": 6565, "Bytes": 6566, "Ġprojects": 6567, "_rec": 6568, "ULAR": 6569, "API": 6570, "ĠLine": 6571, "Port": 6572, "Ġpoll": 6573, "Ġgiving": 6574, "idence": 6575, "Ġplot": 6576, "icial": 6577, "Ġwarrant": 6578, "ITION": 6579, "ĠDouble": 6580, "Ġbillion": 6581, "gorithm": 6582, "Ġequipment": 6583, "DATE": 6584, "EE": 6585, "Ġple": 6586, "iation": 6587, "Ġheaders": 6588, "Ġproced": 6589, "ĠObama": 6590, "Ġpa": 6591, "ĠBest": 6592, "imately": 6593, ".\\": 6594, "mploy": 6595, "Ġraw": 6596, "_block": 6597, "undred": 6598, "Ġbrought": 6599, "throw": 6600, "created": 6601, "_view": 6602, "CP": 6603, "eps": 6604, "Op": 6605, "Ġ'\"": 6606, "Ġinterview": 6607, "Ġpartial": 6608, "bing": 6609, "Author": 6610, "Book": 6611, "ĠPat": 6612, "uman": 6613, "Users": 6614, "plus": 6615, "ĠDirect": 6616, "venue": 6617, "alpha": 6618, "UCCESS": 6619, "ĠCall": 6620, "imated": 6621, "Ġremain": 6622, "Ġanti": 6623, "ĠLondon": 6624, "Ġsafety": 6625, "oles": 6626, "controller": 6627, "Byte": 6628, "ĠCourt": 6629, "ĠPhil": 6630, "ĠAssoci": 6631, "ena": 6632, "coin": 6633, "reshold": 6634, "Ġbatch": 6635, "entication": 6636, "enty": 6637, "Ġbeginning": 6638, "Ġzero": 6639, "ĠConvert": 6640, "Ġterr": 6641, "Ġpaid": 6642, "Ġincreased": 6643, "catch": 6644, "-size": 6645, "activity": 6646, "equals": 6647, "Ġqueue": 6648, "Ġ\"'": 6649, "ĠInternational": 6650, "ĠfÃ¼r": 6651, "ursday": 6652, "Ġscient": 6653, "allow": 6654, "axis": 6655, "Ġappropri": 6656, "edge": 6657, "Ġidx": 6658, "Success": 6659, "entifier": 6660, ":\\": 6661, "xis": 6662, "Ġmaximum": 6663, "arks": 6664, "Ġbirth": 6665, "(index": 6666, "Ġmaybe": 6667, ".py": 6668, "files": 6669, "Ġlimited": 6670, "_check": 6671, "look": 6672, "plies": 6673, "Ġmovement": 6674, "'].": 6675, "Ġbroad": 6676, "ĠBE": 6677, ".cpp": 6678, "ĠEvery": 6679, "Admin": 6680, "Ġfans": 6681, "pared": 6682, "ĊĠĠĠĠĊ": 6683, "Ġforeign": 6684, "Ġpan": 6685, "Ġtour": 6686, "ĠOrder": 6687, "Ġmoving": 6688, "Ġauf": 6689, "Call": 6690, "cb": 6691, "ÅŁ": 6692, "ventory": 6693, "Ġfully": 6694, "WORD": 6695, "Ġannounced": 6696, "Ġagreed": 6697, "rie": 6698, "Ġearn": 6699, "_link": 6700, ".array": 6701, "(text": 6702, "Ġmaterials": 6703, ",p": 6704, "ffff": 6705, "vg": 6706, "ĠÂ©": 6707, "Ġunless": 6708, "LOG": 6709, "Ġsexual": 6710, "Ġ\\\"": 6711, "-time": 6712, "Ġcoach": 6713, "Ġsupported": 6714, "Ġphotos": 6715, "iform": 6716, ")]": 6717, "rier": 6718, "Ġdialog": 6719, "aver": 6720, "ige": 6721, ")+": 6722, "_idx": 6723, ":[": 6724, "_min": 6725, "ĠCong": 6726, "Ġpressure": 6727, "Ġteams": 6728, "Sign": 6729, "begin": 6730, "rian": 6731, "NESS": 6732, "LS": 6733, "Ġimprove": 6734, "ĠSunday": 6735, "Ġdefinition": 6736, "iger": 6737, "rollers": 6738, "Ġthinking": 6739, "Template": 6740, "-F": 6741, "Ġemerg": 6742, "plates": 6743, "ĠUSA": 6744, "ĠAlso": 6745, "rev": 6746, "Ġenable": 6747, "ĠCO": 6748, "PECT": 6749, "Ġconcept": 6750, ")-": 6751, "ĠâĢ¢": 6752, "Ġsets": 6753, "Ġmeaning": 6754, "emon": 6755, "ĠCons": 6756, "cmp": 6757, "eder": 6758, "anned": 6759, "icensed": 6760, "ĠSuper": 6761, "Ġdaily": 6762, "Ġmulti": 6763, "_u": 6764, "Ġchalleng": 6765, "_mode": 6766, "Ġstrict": 6767, "jo": 6768, "inton": 6769, "(list": 6770, "Only": 6771, ">{": 6772, "Ġvehicle": 6773, "ĠPlayer": 6774, "ĠDel": 6775, "Ġpool": 6776, ".url": 6777, "nesday": 6778, "Local": 6779, "Ġorganization": 6780, "render": 6781, "ĠApplication": 6782, "Ġsummer": 6783, "expected": 6784, "NA": 6785, "Ġrap": 6786, "_obj": 6787, "Ġsurface": 6788, "Ġvariables": 6789, "Ġopin": 6790, "Ð°Ð½": 6791, "Ġworkers": 6792, "vm": 6793, "Co": 6794, "ughter": 6795, "Ġmaster": 6796, "Ġ\"\",": 6797, "Ġstories": 6798, "Ġcelebr": 6799, "inese": 6800, "BS": 6801, "ĠCommand": 6802, "ashboard": 6803, "Ġog": 6804, "kg": 6805, ".style": 6806, "Ġsteps": 6807, "ĠBen": 6808, "(args": 6809, "ĠPerson": 6810, ",y": 6811, "Ġofficials": 6812, "Ġskills": 6813, "vc": 6814, "Ġbuilder": 6815, "Ġgar": 6816, "Account": 6817, "ĠAuth": 6818, "ĠAT": 6819, "nn": 6820, "Ġeffective": 6821, "Ġtools": 6822, "ARD": 6823, "Ġdigital": 6824, "Double": 6825, "ĠFind": 6826, "RC": 6827, "Ġinline": 6828, "/r": 6829, "ARAM": 6830, "ASK": 6831, "Ġintent": 6832, "aight": 6833, "Ġrequests": 6834, ".first": 6835, "Ġdebug": 6836, "Ġspent": 6837, "ÅĽ": 6838, "Ġprincip": 6839, "cludes": 6840, ".use": 6841, "Ġsurv": 6842, "media": 6843, "ĠFebruary": 6844, "ĠMac": 6845, "Ġmissing": 6846, "Ġwife": 6847, "Ġtalking": 6848, "ĠMake": 6849, "Ġcart": 6850, "Ġlocated": 6851, "Enc": 6852, "-a": 6853, "chron": 6854, "Ġcards": 6855, "Ġguy": 6856, "Ġpers": 6857, "ĠYes": 6858, "atever": 6859, "ĠAng": 6860, "olar": 6861, "ĠEven": 6862, "Ġaccur": 6863, "ĠPower": 6864, "ĠGold": 6865, "clear": 6866, "Process": 6867, "Ġrecords": 6868, "Ġkilled": 6869, "Ġpurpose": 6870, "panel": 6871, "JECT": 6872, "ÃŃa": 6873, "Ġexerc": 6874, "WS": 6875, "/L": 6876, "Ġ___": 6877, "Ġsin": 6878, "ĠdÃ©": 6879, "roke": 6880, "Sl": 6881, "ugh": 6882, "ears": 6883, "Ġpointer": 6884, "Ġhop": 6885, "allery": 6886, "Ġobs": 6887, "covery": 6888, "ocity": 6889, "itchen": 6890, "ulations": 6891, "ĠFIT": 6892, "Ġ).": 6893, "straints": 6894, "vention": 6895, "Ġrequires": 6896, "ĠOper": 6897, "ME": 6898, "OUNT": 6899, "allet": 6900, "Ġnorm": 6901, "IRE": 6902, "exas": 6903, "Ġprograms": 6904, "Ġweak": 6905, "'.$": 6906, "uing": 6907, "Ġmil": 6908, "Ġfirm": 6909, "initely": 6910, "apse": 6911, "atisf": 6912, "Ġdemand": 6913, "_mod": 6914, "Ġdescribed": 6915, "Ġplaces": 6916, "VID": 6917, "Ġalone": 6918, "Ġexport": 6919, "Ġvec": 6920, "ĠMax": 6921, "Ġactivities": 6922, "ictures": 6923, "gener": 6924, "Ġma": 6925, "Ĥ¬": 6926, "Ġexpression": 6927, "_content": 6928, "ĠMost": 6929, "Ġtesting": 6930, "EC": 6931, "Ġadjust": 6932, "Ġagree": 6933, "ighest": 6934, "Ġui": 6935, "ĠLaw": 6936, ".Y": 6937, "Ġpod": 6938, "Ġdescribe": 6939, "ĠEuropean": 6940, "-sh": 6941, "Ġconvers": 6942, "ĠAv": 6943, "(ch": 6944, "?\"": 6945, "chen": 6946, "ima": 6947, "Document": 6948, "Ġoperations": 6949, "win": 6950, "Ġscen": 6951, "/h": 6952, "ĠSC": 6953, "Ġexplo": 6954, ":%": 6955, "NAME": 6956, "(var": 6957, "Ġdirector": 6958, "ONG": 6959, "Ġyield": 6960, "Ġfeet": 6961, "ĠSearch": 6962, "ĠIl": 6963, "Ġrestaur": 6964, "duc": 6965, "Ġinteger": 6966, "Ġhighly": 6967, "checked": 6968, "ï¼ī": 6969, "Ġoptim": 6970, "Queue": 6971, "ĠLI": 6972, "itation": 6973, "Ġtransport": 6974, "ission": 6975, "fill": 6976, "usion": 6977, "ĠĠĠĠĠĠĠĠĠĠĠĠĠĠĠĠĠĠĠĠĠĠĠĠĠĠĠĠĠĠ": 6978, "-th": 6979, "upt": 6980, "Ġessential": 6981, "anted": 6982, "Ġbenefits": 6983, "iki": 6984, "Ġgirls": 6985, "iced": 6986, "buffer": 6987, "]+": 6988, "Ġsocket": 6989, "Ġprices": 6990, "ĠFre": 6991, "Ġsat": 6992, "Ġwood": 6993, "ARG": 6994, "ĠAdmin": 6995, "OWN": 6996, "dk": 6997, "Ġreset": 6998, "Ġforms": 6999, "ĠÐ¸": 7000, "ĠTuesday": 7001, "_train": 7002, "orary": 7003, "ategor": 7004, "Ġdt": 7005, "Total": 7006, "construct": 7007, "ilies": 7008, "Ġguys": 7009, "ÐµÑĢ": 7010, "Ġinstruction": 7011, "yled": 7012, "Ġinternet": 7013, "etadata": 7014, "ady": 7015, "faces": 7016, "jection": 7017, "ĠJack": 7018, "Ġrect": 7019, "[-": 7020, "ĠLeg": 7021, "Ġdevices": 7022, "OC": 7023, "oration": 7024, "ertain": 7025, "Ġguard": 7026, "ostream": 7027, "Ġenum": 7028, "voke": 7029, "ĠOk": 7030, "Home": 7031, "(tr": 7032, "ETH": 7033, "Ġdelay": 7034, "Ġpurchase": 7035, "dc": 7036, "Ġaren": 7037, "_once": 7038, "ror": 7039, "draw": 7040, ".run": 7041, "(model": 7042, "lik": 7043, "ĠArg": 7044, ".en": 7045, "Ġfish": 7046, "_fe": 7047, "(X": 7048, "_output": 7049, "??": 7050, "Ġjo": 7051, "andard": 7052, "Ġdoll": 7053, "errors": 7054, "_base": 7055, "Ġleader": 7056, "Ġcompar": 7057, "Ġdoub": 7058, "ĠVis": 7059, "-C": 7060, "ĠStud": 7061, "stitute": 7062, "More": 7063, "ĠDescription": 7064, "ads": 7065, "ĠÐº": 7066, "bind": 7067, "=self": 7068, "employ": 7069, "[n": 7070, ".all": 7071, "-B": 7072, "&&": 7073, "alm": 7074, "Ġculture": 7075, "house": 7076, "Ġsuffer": 7077, "Ġ'%": 7078, "Ġstraight": 7079, "ĠStar": 7080, "udo": 7081, "Ġded": 7082, "ĠCOM": 7083, "Ġconfirm": 7084, "ĠGood": 7085, ".sc": 7086, "________________": 7087, "DR": 7088, "Configuration": 7089, "Ġadvert": 7090, "Ġcouldn": 7091, "stack": 7092, "Kit": 7093, "Ġhous": 7094, "Ġmechan": 7095, "rate": 7096, "Ġaudio": 7097, "cores": 7098, "Ġspot": 7099, "Ġincreasing": 7100, "Ġ##": 7101, ")))": 7102, "points": 7103, "Ġcompared": 7104, "lig": 7105, "Ġbehavior": 7106, "ĠBY": 7107, "ĠAtt": 7108, "craft": 7109, "headers": 7110, "ete": 7111, "Ġdetail": 7112, "ULE": 7113, "ĠCommon": 7114, "ston": 7115, "Ġfresh": 7116, ".example": 7117, "berg": 7118, "Ġmoved": 7119, "ĠSaturday": 7120, "Ġpayload": 7121, "Äĩ": 7122, "Ġbey": 7123, "urer": 7124, "Ġsymbol": 7125, "Ġassum": 7126, "Ġpul": 7127, "Effect": 7128, "Ġhundred": 7129, "Tool": 7130, "aked": 7131, "connection": 7132, "Ġvoice": 7133, "Ġpd": 7134, "Ġtransaction": 7135, "Ġlinks": 7136, "Err": 7137, "ĠIndian": 7138, "TC": 7139, "atalog": 7140, "ni": 7141, "sign": 7142, "ji": 7143, "ya": 7144, "Ġdemonstr": 7145, "ulated": 7146, "Ġinstit": 7147, "Ġboost": 7148, "Ġcells": 7149, "olic": 7150, "ifying": 7151, "ĠDi": 7152, "orrow": 7153, ".execute": 7154, "Ġcollege": 7155, "Your": 7156, "Ġlargest": 7157, ".dis": 7158, "Ġqui": 7159, "Ġindividuals": 7160, "_buffer": 7161, "Ġng": 7162, "SA": 7163, "ĠControl": 7164, "Ġsing": 7165, "Ġsuit": 7166, "SG": 7167, "Ġjump": 7168, "Ġsmart": 7169, "oma": 7170, "ĠExp": 7171, "Ġ'-": 7172, "Ġassist": 7173, "Ġsuccessfully": 7174, "sys": 7175, "ĠCre": 7176, "_ref": 7177, "ĠThursday": 7178, "Ġbur": 7179, "ĠÐ´": 7180, "Ġbeyond": 7181, "Ġnodes": 7182, "Details": 7183, "inct": 7184, "ĠJames": 7185, "Ġaffect": 7186, "exception": 7187, "-se": 7188, "Ġfetch": 7189, "`,": 7190, "}.": 7191, "ĠBO": 7192, "Show": 7193, "Ġrates": 7194, "Ġbon": 7195, "ĠMedia": 7196, "RESS": 7197, "ĠValid": 7198, "acks": 7199, "Ġstudies": 7200, "Me": 7201, "Ġowners": 7202, "Ġgrowing": 7203, "Variable": 7204, "ĠBel": 7205, ".random": 7206, "vement": 7207, "onym": 7208, "(F": 7209, "ĠFALSE": 7210, "Ġtorch": 7211, "(row": 7212, "igo": 7213, "structure": 7214, "Ġcertainly": 7215, "Dep": 7216, "ĠGreen": 7217, "question": 7218, "Ġadding": 7219, "ĠDevelop": 7220, "_def": 7221, "Ġmach": 7222, "=%": 7223, "conds": 7224, "Project": 7225, "Ġreject": 7226, "ĠÎ": 7227, "Ġpoor": 7228, "Ġaware": 7229, "ĠBuild": 7230, "ĠBritish": 7231, "ĠNE": 7232, "Ġnumer": 7233, "rees": 7234, "claim": 7235, "Ġmock": 7236, "Ġom": 7237, "Ġscre": 7238, "OLD": 7239, ".pl": 7240, "eler": 7241, "Ġcorrespond": 7242, "_HE": 7243, "Ġbinary": 7244, "_order": 7245, "ĠSQL": 7246, "Ġadvant": 7247, "Ġprev": 7248, ".[": 7249, "plier": 7250, "arp": 7251, "Ġclosed": 7252, "Ġencour": 7253, "aud": 7254, "Ġdeveloped": 7255, "Ġpermission": 7256, "operator": 7257, "Ġsym": 7258, "atively": 7259, "Ã©e": 7260, "-color": 7261, "ĠGET": 7262, "ky": 7263, "Ġalthough": 7264, "_element": 7265, "................": 7266, "Ġamazing": 7267, "Ġsb": 7268, "ĠDefault": 7269, "Events": 7270, "Ġfailure": 7271, "acle": 7272, "Properties": 7273, "Ġdream": 7274, "Ġdistr": 7275, "Ġau": 7276, "Ġgenerated": 7277, "ĠTeam": 7278, "USE": 7279, "Ġincome": 7280, "Ġeye": 7281, "_not": 7282, "\"],": 7283, "_form": 7284, "Support": 7285, "orders": 7286, "ville": 7287, "ĠWednesday": 7288, "olver": 7289, "Ġoppos": 7290, "isation": 7291, "ola": 7292, "Close": 7293, "<p": 7294, "_width": 7295, "Invalid": 7296, "xb": 7297, "Ġstrugg": 7298, "_action": 7299, "Ġtxt": 7300, "ĠPath": 7301, "alar": 7302, "service": 7303, "ĠMichael": 7304, "Debug": 7305, "okes": 7306, "She": 7307, "Ġguess": 7308, "ĠJava": 7309, "Ġparticularly": 7310, "ĠII": 7311, "Ġdomain": 7312, "Ġreduce": 7313, "-left": 7314, "real": 7315, "Ġappears": 7316, "Ġcomo": 7317, "ĠUnit": 7318, "ĠGovern": 7319, "ali": 7320, "allel": 7321, "ĠJew": 7322, "_I": 7323, "Ġcos": 7324, ".color": 7325, "ĠGlobal": 7326, "Ġtele": 7327, "ben": 7328, "_trans": 7329, "Ġreasons": 7330, "Ġemb": 7331, "ensity": 7332, "lines": 7333, "omin": 7334, "Screen": 7335, "Ð°ÑĤ": 7336, "pects": 7337, "clip": 7338, "foo": 7339, "rent": 7340, "Ġaf": 7341, "Ġdanger": 7342, "iling": 7343, "Names": 7344, "Our": 7345, "Ġdistribution": 7346, "While": 7347, "SL": 7348, "Write": 7349, "Ġgoto": 7350, "Ġcolors": 7351, "Ġpowerful": 7352, "kin": 7353, "Ġdepth": 7354, "ercial": 7355, "ĠCongress": 7356, "ĠMarket": 7357, "Db": 7358, "under": 7359, "ĠLast": 7360, "ÃŁ": 7361, "greg": 7362, "Ġposts": 7363, "otos": 7364, "Don": 7365, "Ġmicro": 7366, "Ġarrest": 7367, "Ð¿": 7368, "Ġ(@": 7369, "ĠHot": 7370, "ĠIndex": 7371, ";&": 7372, "#!": 7373, "ĠNor": 7374, "ĠCap": 7375, "-(": 7376, "Ġinterested": 7377, "pear": 7378, "Ġrent": 7379, "Ġalbum": 7380, "olicy": 7381, ".trans": 7382, ".format": 7383, "phere": 7384, "Ġaxis": 7385, "ĠBusiness": 7386, "ersistence": 7387, "urr": 7388, "Ġminimum": 7389, "endor": 7390, "ĠSD": 7391, "ĠInternet": 7392, "Exp": 7393, "iverse": 7394, "MM": 7395, "Ġobvious": 7396, "Ġbasis": 7397, "Ġscience": 7398, "Ġbudget": 7399, "izations": 7400, "PA": 7401, "Ġflags": 7402, "pret": 7403, "LOCK": 7404, "Ġvariety": 7405, "Ġtruth": 7406, "dt": 7407, "Ġgone": 7408, "Ġbattle": 7409, "ĠSil": 7410, "rf": 7411, "uda": 7412, "ĠCam": 7413, "Ġstation": 7414, "cheme": 7415, "ĠSun": 7416, "Ġfinished": 7417, "Ġshop": 7418, "ĠKore": 7419, "Ġeight": 7420, "ND": 7421, ">,": 7422, "(num": 7423, "Ġmail": 7424, "rey": 7425, "results": 7426, "Ġnav": 7427, "_ids": 7428, "Make": 7429, "Modal": 7430, "ĠLOG": 7431, "ĠSur": 7432, "Ġoverall": 7433, "ĠInformation": 7434, "Ġconstruction": 7435, "_FILE": 7436, "but": 7437, "Ġmedic": 7438, "Ġduration": 7439, "itness": 7440, "agent": 7441, "AV": 7442, "Ġseven": 7443, "olf": 7444, "Ġcalling": 7445, "Ġans": 7446, "orizontal": 7447, ".fl": 7448, "ĠStatus": 7449, "ĠOnline": 7450, "RR": 7451, "ĠRich": 7452, "ĠHill": 7453, "Ġbrain": 7454, "Ġfollowed": 7455, "emic": 7456, "Ġslight": 7457, "Ġinsurance": 7458, "Ġabstract": 7459, "ĠSum": 7460, "owner": 7461, "Non": 7462, "Ġvolume": 7463, "-L": 7464, "ĠDim": 7465, "ĠMart": 7466, "Ġcursor": 7467, "Ġimplementation": 7468, "urred": 7469, "Ġlarger": 7470, "'+": 7471, ".transform": 7472, "Ġupload": 7473, "ĠĠĠĠĠĠĠĠĠĠĠĠĠĠĠĠĠĠĠĠĠĠĠĠĠĠĠĠĠĠĠĠĠĠĠĠĠĠĠĠĠĠĠĠĠĠĠĠĠĠĠĠĠĠĠ": 7474, "Draw": 7475, "nel": 7476, "qrt": 7477, "ĠNetwork": 7478, "Ġtit": 7479, "Axis": 7480, "Ġcompleted": 7481, "Ġmur": 7482, "Ġcolumns": 7483, "xc": 7484, "Ġsupply": 7485, "iminal": 7486, "Ġspr": 7487, "================================================================": 7488, "Ġunits": 7489, "(u": 7490, "mi": 7491, "replace": 7492, "[key": 7493, "antic": 7494, "Ġpayment": 7495, ",B": 7496, "ĠApple": 7497, "gin": 7498, "Required": 7499, "#+": 7500, "lands": 7501, "Ġsqu": 7502, "Ġfactor": 7503, "dec": 7504, "Ġstrength": 7505, "Ġboy": 7506, "Ġbalance": 7507, "Ġsources": 7508, "screen": 7509, "-top": 7510, "ĠAmazon": 7511, "Ġhidden": 7512, "ÐµÑĤ": 7513, "Ġeat": 7514, ".display": 7515, "ĠÂ»": 7516, "Ġtrigger": 7517, "Ġtro": 7518, "Ġclaims": 7519, "ford": 7520, "ĠCompany": 7521, "Ġgift": 7522, ",:": 7523, "_app": 7524, "handle": 7525, "Ġproduce": 7526, "/lib": 7527, "Ġ-*": 7528, "arc": 7529, "ander": 7530, "ĠEngine": 7531, "Ġattributes": 7532, "task": 7533, "<=": 7534, "(N": 7535, "Ġwarm": 7536, "which": 7537, "ĠFore": 7538, "agnost": 7539, "mys": 7540, "Ġtal": 7541, "ĠSal": 7542, "gi": 7543, "ĠPrint": 7544, "ĠTRUE": 7545, "ĠÐ¾": 7546, "Ġflash": 7547, "roperty": 7548, "ĠMill": 7549, "bi": 7550, "contr": 7551, "ĠSam": 7552, "Ġnegative": 7553, "kit": 7554, "Ġsett": 7555, "abe": 7556, "Ġburn": 7557, "Ġsociety": 7558, "Cache": 7559, "ĠSecurity": 7560, ".models": 7561, "_up": 7562, "ceive": 7563, "Ġclients": 7564, "Ġproviding": 7565, "Ġrout": 7566, "material": 7567, "ĠSer": 7568, "ĠOffice": 7569, "Ġ'$": 7570, "Ġfoc": 7571, "Ġexcell": 7572, "Ġcat": 7573, "normal": 7574, "Ġdetermine": 7575, "Ġemployees": 7576, "ĠTexas": 7577, "Ġtraff": 7578, "ĠReport": 7579, "anta": 7580, "ĠBox": 7581, "Ġpartner": 7582, "EB": 7583, "LINE": 7584, "Ġfeeling": 7585, "Ġcivil": 7586, "(float": 7587, "Ġwouldn": 7588, ".init": 7589, ".left": 7590, "-v": 7591, "_level": 7592, "'}": 7593, "AF": 7594, "Ġloading": 7595, "ĠOnly": 7596, "Ġcookies": 7597, "ĠGl": 7598, "CO": 7599, "Ġstrategy": 7600, "Ġship": 7601, "poses": 7602, "Ġsignal": 7603, "Ġalpha": 7604, ".pop": 7605, "Radius": 7606, "Ġreplace": 7607, "_DIR": 7608, "counter": 7609, "bservable": 7610, "ela": 7611, "Weight": 7612, "hash": 7613, "bose": 7614, "fx": 7615, "ĠEmail": 7616, "Ġrefer": 7617, "localhost": 7618, "iques": 7619, "Step": 7620, "Ġahead": 7621, "ĠServices": 7622, "essor": 7623, "Ġpun": 7624, "Ġappropriate": 7625, "akers": 7626, "osen": 7627, "posing": 7628, "Ġagent": 7629, "fc": 7630, "Ġtransfer": 7631, "Ġinvalid": 7632, "ĠResearch": 7633, "Vertex": 7634, "Ġjournal": 7635, "[x": 7636, "ĠWell": 7637, "Spec": 7638, "Ġol": 7639, "Ġspend": 7640, "ĠAustralia": 7641, "Match": 7642, "ĠĠĠĠĠĠĠĠĠĠĠĠĠĠĠĠĠĠĠĠĠĠĠĠĠĠĠĠĠĠĠĠĠĠĠĠĠ": 7643, "ĠMAX": 7644, "izable": 7645, "clusive": 7646, "_valid": 7647, "Ġquarter": 7648, "yan": 7649, "ĠEdit": 7650, "arden": 7651, "=new": 7652, "Ġfrag": 7653, "Bit": 7654, "zi": 7655, "aine": 7656, "udd": 7657, "debug": 7658, "Ġcash": 7659, "Ġeen": 7660, "Ġcommercial": 7661, "ĠVideo": 7662, "loader": 7663, "Ġfixed": 7664, "Ġapplications": 7665, "Ġ_,": 7666, "ĠRussia": 7667, "itect": 7668, "_(": 7669, "ĠBlock": 7670, "Ġsan": 7671, "ĠTom": 7672, "Ġperhaps": 7673, "Ġsig": 7674, "levant": 7675, "Ġcorpor": 7676, "ataset": 7677, "ronic": 7678, "xe": 7679, "Ġeth": 7680, "Some": 7681, "pop": 7682, "Ġtend": 7683, "_and": 7684, "Ġreviews": 7685, "Ġwild": 7686, "Ġdegree": 7687, ".O": 7688, "_args": 7689, "nil": 7690, "Ġdisabled": 7691, "Parent": 7692, "Ġnotes": 7693, "(state": 7694, "istrict": 7695, "Ġlogging": 7696, "ĠMal": 7697, "DM": 7698, "Ġxml": 7699, "ĠRobert": 7700, "elen": 7701, "layout": 7702, "fol": 7703, ",b": 7704, "ĠJer": 7705, "filename": 7706, "Ġfan": 7707, "ĠCustom": 7708, "=\"\"": 7709, "ĠDie": 7710, ".utils": 7711, "Ġtrip": 7712, "MB": 7713, "Ġsoft": 7714, "Ġapplicable": 7715, "Ġupper": 7716, "_al": 7717, "Here": 7718, "wp": 7719, "ĠServer": 7720, "ĠClient": 7721, "Ġchem": 7722, "Ġhighest": 7723, "ĠSelect": 7724, "Ġ\"@": 7725, "ĠWhy": 7726, "Sec": 7727, "heel": 7728, "Operation": 7729, "Ġconnected": 7730, "irmed": 7731, "Ġcitiz": 7732, "ĠChe": 7733, "Ġforces": 7734, "Ġwww": 7735, "Root": 7736, "ANCE": 7737, "Many": 7738, "icip": 7739, "rgan": 7740, "ĠTor": 7741, "ĠPress": 7742, "ĠMor": 7743, "-line": 7744, "uled": 7745, ">\\": 7746, "Ġthus": 7747, "ĠRegister": 7748, "hol": 7749, "ĠChinese": 7750, "Ġposted": 7751, "Ġmagn": 7752, "abilities": 7753, "Ġdisease": 7754, "Ġremains": 7755, "ĠProf": 7756, "-form": 7757, "Ġcin": 7758, "organ": 7759, "icate": 7760, "Ġstress": 7761, "]*": 7762, "Ġ----------------------------------------------------------------": 7763, "_context": 7764, "orry": 7765, "Ġdied": 7766, "mat": 7767, "Ġstarts": 7768, "Ġruns": 7769, "Ġguide": 7770, "Ġwarranty": 7771, "entials": 7772, "dict": 7773, "ĠSize": 7774, "uler": 7775, "Ġresponsible": 7776, "Ġcontaining": 7777, "ĠPrice": 7778, "||": 7779, "FS": 7780, "Ġemp": 7781, "Ġsuff": 7782, "pth": 7783, "Ġdefinitely": 7784, "pute": 7785, "Ġmarketing": 7786, "ĠWH": 7787, "ĠSie": 7788, "+=": 7789, "OLOR": 7790, "Ġconsult": 7791, "Ġsigned": 7792, "Ġsequence": 7793, "lee": 7794, "Ġrequirements": 7795, "hy": 7796, "Express": 7797, "MT": 7798, "sey": 7799, "Ġult": 7800, "elligence": 7801, "Ġanaly": 7802, "Ġdress": 7803, "engine": 7804, "ĠGreat": 7805, "ĠAndroid": 7806, "ĠAlex": 7807, "mode": 7808, "Dictionary": 7809, ".Date": 7810, "VICE": 7811, "Ġfamilies": 7812, "ĠRussian": 7813, "ĠTimes": 7814, ".call": 7815, "$(": 7816, "Profile": 7817, "Ġfolder": 7818, "ches": 7819, "Ġlegis": 7820, "_row": 7821, "unes": 7822, "ÙĦ": 7823, "agen": 7824, "ĠHand": 7825, "Iter": 7826, "Ġbiggest": 7827, "oreach": 7828, "Ġpolic": 7829, "Ġpermissions": 7830, "Ġshowed": 7831, "ĠElement": 7832, "Ġtopic": 7833, "âĢĶâĢĶ": 7834, "road": 7835, "ĠBank": 7836, "record": 7837, "Ġpartners": 7838, "ĠRef": 7839, "essions": 7840, "Ġassess": 7841, "UST": 7842, "ĠParty": 7843, "produ": 7844, "LC": 7845, "Ġul": 7846, ".form": 7847, "hide": 7848, "copy": 7849, "UTF": 7850, "ĠLin": 7851, "una": 7852, "ugar": 7853, "Ġadministration": 7854, "Ġopening": 7855, "Ġscan": 7856, "Ġcontinued": 7857, "component": 7858, ".sp": 7859, "Ġhappens": 7860, "ummy": 7861, "ĠPR": 7862, "ĠDownload": 7863, "Loading": 7864, "di": 7865, "Ġwaiting": 7866, "Tab": 7867, "Ġeconomy": 7868, "ĠFrench": 7869, "txt": 7870, "Ġfant": 7871, "SH": 7872, "Ġnumpy": 7873, "Ġstreet": 7874, "Ġmale": 7875, "anging": 7876, "ĠBill": 7877, "Ġpreviously": 7878, "BI": 7879, "ĠSecret": 7880, "Ġmist": 7881, "ĠField": 7882, "ups": 7883, "ĠProcess": 7884, "Ġkept": 7885, "ĠOT": 7886, "Ġtraditional": 7887, ".i": 7888, "amin": 7889, "Ġhelps": 7890, "Any": 7891, "origin": 7892, "ilters": 7893, "ju": 7894, "desc": 7895, "ĠAccount": 7896, "ktop": 7897, "olly": 7898, "Ġfs": 7899, "Ġê": 7900, "Ġut": 7901, "Ġcentral": 7902, "(test": 7903, "Ġsatisf": 7904, "GR": 7905, "ĠFull": 7906, "Ġheat": 7907, "iber": 7908, "Ġonto": 7909, "mos": 7910, "Schema": 7911, "Ġfactory": 7912, "aws": 7913, "Statement": 7914, "(target": 7915, ".be": 7916, "Ġguest": 7917, "Ġmal": 7918, "ARY": 7919, "Ġreached": 7920, "Ġmouse": 7921, "Ġchallenge": 7922, "ĠTem": 7923, "Ġextract": 7924, "_TO": 7925, "Ġseparate": 7926, "Ġmir": 7927, "help": 7928, "Ġcapacity": 7929, "ĠProperty": 7930, "kan": 7931, "ĠLight": 7932, ".parent": 7933, "Ġunderstanding": 7934, "Ġeasier": 7935, "Ġ|=": 7936, "Ġenh": 7937, "Ġfat": 7938, "amm": 7939, "-of": 7940, "ils": 7941, "ĠOh": 7942, "Ġpsych": 7943, "Ġ$.": 7944, "inds": 7945, "Ġrelative": 7946, "shop": 7947, "short": 7948, "ĠSand": 7949, "uestion": 7950, "Ġfear": 7951, ".context": 7952, "Ġschools": 7953, "Ġserve": 7954, "zone": 7955, "_db": 7956, "Ġmajority": 7957, "example": 7958, "Ġlang": 7959, "Register": 7960, "endo": 7961, "Ġprocessing": 7962, "_template": 7963, "-user": 7964, "Ġeg": 7965, "COM": 7966, "ĠBlue": 7967, "iro": 7968, "Ġremote": 7969, "ĠIT": 7970, "#!/": 7971, "Ġredistrib": 7972, "raz": 7973, "ĠSince": 7974, "ĠTur": 7975, "Background": 7976, "===": 7977, "Ġreflect": 7978, "Ġpros": 7979, "cmd": 7980, "Ġwhom": 7981, "Compat": 7982, "ĠAre": 7983, "Identifier": 7984, "ĠThom": 7985, "gu": 7986, "Ġmonitor": 7987, "rm": 7988, "Ġpatient": 7989, "verter": 7990, "Ġgain": 7991, "Inst": 7992, "Ġdies": 7993, "Area": 7994, "_filter": 7995, "Ġgrat": 7996, "Ġreality": 7997, "ordinate": 7998, "olved": 7999, "Contact": 8000, "Ġcompliance": 8001, "_or": 8002, "ĠVar": 8003, "dl": 8004, "Ġappend": 8005, "GER": 8006, "(max": 8007, ".render": 8008, "Ġdynamic": 8009, "ordinates": 8010, "_options": 8011, "_column": 8012, "Ġbatter": 8013, "space": 8014, "La": 8015, "ĠSource": 8016, "/bin": 8017, "Ġdos": 8018, "ĠBoard": 8019, "ĠThread": 8020, "ĠAL": 8021, "ĠMer": 8022, "Ġmiles": 8023, "_header": 8024, "ETHOD": 8025, "izz": 8026, "Ġbenefit": 8027, "Ġintegr": 8028, "(current": 8029, "ulo": 8030, ".default": 8031, "ĠDiv": 8032, "Ġton": 8033, "oth": 8034, "ervation": 8035, "edom": 8036, "Ġbaby": 8037, "ceived": 8038, ".top": 8039, "riority": 8040, "ĠLocal": 8041, "riage": 8042, "Ġattacks": 8043, "Ġhospital": 8044, "Ġfemale": 8045, "ĠFlor": 8046, "Ġchain": 8047, "ashion": 8048, "Save": 8049, "Ġfarm": 8050, "Ġknows": 8051, "Ġgenerally": 8052, "ipeline": 8053, "Ġmeant": 8054, "encia": 8055, "Ġnicht": 8056, "Ġcontents": 8057, "PM": 8058, "chedule": 8059, "(line": 8060, "CG": 8061, "job": 8062, "ĠReal": 8063, "uer": 8064, "firm": 8065, "ĠØ": 8066, "etro": 8067, "Ġspeech": 8068, "Ġthr": 8069, "foreach": 8070, "Ġwarn": 8071, "Ġheavy": 8072, "Ne": 8073, "Ġinvestigation": 8074, "Math": 8075, "-title": 8076, "Ġchurch": 8077, "Ġdespite": 8078, "chain": 8079, "Ġwhatever": 8080, "arian": 8081, "fn": 8082, "Ġmeta": 8083, "UFF": 8084, "Ġregarding": 8085, "mes": 8086, "ĠIntent": 8087, "Ġresolve": 8088, "poss": 8089, "ira": 8090, "force": 8091, "oice": 8092, "Ã¢": 8093, "Ġpm": 8094, "Ġupdates": 8095, "Arr": 8096, "ĠÑ": 8097, "testing": 8098, "Ġtoward": 8099, "ntax": 8100, "Ġlisten": 8101, "Ġgoals": 8102, "Dr": 8103, "Ġrare": 8104, "Ġtrail": 8105, "Keys": 8106, "Cal": 8107, "Car": 8108, "ĠPeople": 8109, "classes": 8110, "Reference": 8111, "emb": 8112, "activ": 8113, "Ġprim": 8114, "redict": 8115, "Ġrad": 8116, "Ġspread": 8117, "Ġclock": 8118, "Ġvir": 8119, "editor": 8120, "Ġefforts": 8121, "Ġbranch": 8122, "Ġindust": 8123, "Ġmotor": 8124, "Ġamb": 8125, "Ġdatetime": 8126, "ĠChristian": 8127, "ĠAmericans": 8128, "full": 8129, "Ġfmt": 8130, ".main": 8131, "Ġcaused": 8132, "_update": 8133, "ĠContent": 8134, "ATCH": 8135, "Ġbath": 8136, "ĠEach": 8137, "Ġradio": 8138, "achment": 8139, "uzz": 8140, "Ġrestrict": 8141, "abin": 8142, "ĠLoad": 8143, "Ġextension": 8144, "Ġessay": 8145, "Ġhat": 8146, "aviour": 8147, "Ġoffered": 8148, "Ġvill": 8149, "(double": 8150, "bc": 8151, "_free": 8152, "ĠMiss": 8153, "ĠBer": 8154, "ĠLike": 8155, "Ġhelped": 8156, "Ġspirit": 8157, "ĠApache": 8158, "ws": 8159, "Ġtherefore": 8160, "(params": 8161, "_img": 8162, "Ġpeace": 8163, "Ġincor": 8164, "Ġminor": 8165, "ipes": 8166, "city": 8167, "trie": 8168, ".base": 8169, "_frame": 8170, "Ġopened": 8171, "LY": 8172, "nu": 8173, "tf": 8174, "margin": 8175, "Ġpi": 8176, "Ġeq": 8177, "bd": 8178, "Fields": 8179, "ĠTree": 8180, "Ġban": 8181, "istan": 8182, "ĊĠĠĠĠĠĠĠĠĊ": 8183, "Ġproduced": 8184, "system": 8185, "Mark": 8186, "_hash": 8187, "Ġbg": 8188, "Ġconstit": 8189, "ĠLeague": 8190, "Ġmission": 8191, "_format": 8192, "clusion": 8193, "!\"": 8194, "Ð·": 8195, "break": 8196, "Ġther": 8197, "Transform": 8198, "Ġfootball": 8199, "-link": 8200, "route": 8201, ".auth": 8202, "Ġbag": 8203, "overs": 8204, "Ġenabled": 8205, "Ġrac": 8206, "(I": 8207, "CR": 8208, "ancing": 8209, "Ġmanaged": 8210, "_q": 8211, "Ġmac": 8212, "ĠAuto": 8213, "amente": 8214, "Ġ'',": 8215, "Ġpin": 8216, ".item": 8217, "acking": 8218, "Ġoccas": 8219, "person": 8220, "Ġti": 8221, "Ġhaven": 8222, "Ġglass": 8223, "ĠSimple": 8224, "Print": 8225, "Ġsurround": 8226, "NO": 8227, "ĠMany": 8228, "Ġ\"_": 8229, "Ġweekend": 8230, "Ġsomew": 8231, ".params": 8232, "small": 8233, "ATED": 8234, "Ġplugin": 8235, "fields": 8236, "ĠInitialize": 8237, "oon": 8238, "atile": 8239, "ye": 8240, "Ġvous": 8241, "Ġolder": 8242, "Ġgam": 8243, "Ġextremely": 8244, "Ġhet": 8245, "enum": 8246, "ĠSET": 8247, "Ġtimer": 8248, "/index": 8249, "Ġcritical": 8250, "Rows": 8251, "_argument": 8252, "Ġexecute": 8253, "Ġshowing": 8254, ".xml": 8255, "-list": 8256, "Role": 8257, "_method": 8258, "that": 8259, "cher": 8260, "ĠâĨ": 8261, "XT": 8262, "Ġthousands": 8263, "Ġresp": 8264, "_price": 8265, "olut": 8266, "Ag": 8267, "ĠTwo": 8268, "Ġbecomes": 8269, "Ġhus": 8270, "theme": 8271, "urb": 8272, "ARN": 8273, "Ġlose": 8274, "Lower": 8275, "Ġvel": 8276, "Ġdefense": 8277, "condition": 8278, "Ġbes": 8279, "Ġdry": 8280, "Ġscroll": 8281, "Ð¾ÑĢ": 8282, "ĠRest": 8283, "Where": 8284, "oods": 8285, "ĠJes": 8286, "Ġwire": 8287, "Ġstrings": 8288, "gment": 8289, "Ġmatches": 8290, "Ġelectric": 8291, "Ġexcellent": 8292, "ĠCouncil": 8293, "idade": 8294, "Ġwx": 8295, "push": 8296, "_entry": 8297, "Ġtasks": 8298, "Ġrich": 8299, "sa": 8300, "ĠSmith": 8301, "UNCTION": 8302, "Pointer": 8303, "pective": 8304, "Ġwidget": 8305, "ista": 8306, "Ġagency": 8307, "Ġsich": 8308, "ologies": 8309, "Ġtrial": 8310, "alysis": 8311, ".check": 8312, "ARK": 8313, "about": 8314, "(val": 8315, "Ġplaced": 8316, "Ġdan": 8317, ".equal": 8318, "Ġweather": 8319, "Ġdestination": 8320, "iece": 8321, "Ġprovider": 8322, ".last": 8323, "plex": 8324, "Note": 8325, "ĠpÃ¥": 8326, "Ġplanning": 8327, "attribute": 8328, "PRO": 8329, "atches": 8330, "Ġ<-": 8331, "Ġseeing": 8332, "Ġcancel": 8333, "_ind": 8334, ".keys": 8335, "Ġvisual": 8336, "ĠCurrent": 8337, "ĠCollege": 8338, "ĠRock": 8339, "Ġagreement": 8340, "ĠStore": 8341, "oving": 8342, "Ġcorner": 8343, "ISE": 8344, "Fin": 8345, "Ġprotection": 8346, "Ġfi": 8347, "Play": 8348, "plugin": 8349, ")}": 8350, ".frame": 8351, "-z": 8352, "Ġtransition": 8353, "igin": 8354, "Ġcandidate": 8355, "ĠUnion": 8356, "_values": 8357, "(map": 8358, "cle": 8359, "Ġtrend": 8360, "wide": 8361, "aren": 8362, "Loc": 8363, "UTH": 8364, "ĠBay": 8365, "Ġsmaller": 8366, "ius": 8367, "well": 8368, "Ġcriminal": 8369, "Ġconflic": 8370, "bert": 8371, "Ġinvestment": 8372, "custom": 8373, "ĠSession": 8374, "_write": 8375, "ania": 8376, "ĠMass": 8377, "Ġviolence": 8378, "Argument": 8379, "Ġbelong": 8380, "_function": 8381, "Ġenemy": 8382, "ema": 8383, "ĠAddress": 8384, ".empty": 8385, "Ġinner": 8386, "ĠContact": 8387, "ĠCA": 8388, "lot": 8389, "Ġpictures": 8390, "ĠSupport": 8391, "_names": 8392, "Layer": 8393, "ĠClick": 8394, "Sum": 8395, "Ã¦": 8396, "ĠLook": 8397, "uous": 8398, "Lib": 8399, "team": 8400, "EP": 8401, "hat": 8402, "override": 8403, "apsed": 8404, "Ġlabels": 8405, "quis": 8406, "ĠStream": 8407, "ĠCommit": 8408, "(root": 8409, "\"}": 8410, "Ġangle": 8411, "ĠBecause": 8412, "%%%%%%%%": 8413, "Ġaim": 8414, "Ġstick": 8415, "agraph": 8416, "answer": 8417, "Ġclin": 8418, "ĠIsl": 8419, ".ext": 8420, "ĠINT": 8421, "Ġstyles": 8422, "Ġborn": 8423, "Ġscr": 8424, "Ġexpand": 8425, "Ġraised": 8426, "ILL": 8427, "------------------------------------------------": 8428, ">)": 8429, "_char": 8430, "resource": 8431, "Ġepisode": 8432, "Ġ'_": 8433, "ĠEs": 8434, "ĠEarth": 8435, "ÂłÂł": 8436, "UPDATE": 8437, "ĠSou": 8438, "uis": 8439, "types": 8440, "Ġmas": 8441, "Ġfav": 8442, "Ġconstruct": 8443, "_rate": 8444, "eras": 8445, "roperties": 8446, "Ġexternal": 8447, "Ġapplied": 8448, "Ġprefix": 8449, "oted": 8450, "lers": 8451, "Ġcold": 8452, "ĠSP": 8453, "ĠChurch": 8454, "ĠOutput": 8455, "losed": 8456, "ificate": 8457, "operation": 8458, "herit": 8459, ".env": 8460, "_err": 8461, "osh": 8462, "Direction": 8463, "Cancel": 8464, "ĠFrank": 8465, "Ġfinding": 8466, "Ġrouter": 8467, "ses": 8468, "Ġcrow": 8469, "=='": 8470, "Ġsand": 8471, "Ġrid": 8472, "iture": 8473, "Ġentre": 8474, "Ġobserv": 8475, "Ġvac": 8476, "-T": 8477, "Art": 8478, "night": 8479, "Ġexchange": 8480, "Ġdistrict": 8481, "Ġdepartment": 8482, "Ġdocuments": 8483, "Ġcentury": 8484, "ĠNext": 8485, "Host": 8486, "Ġsusp": 8487, "-P": 8488, "rend": 8489, ".em": 8490, "uite": 8491, "isters": 8492, "ĠAnn": 8493, "wt": 8494, "ati": 8495, "ĠHTML": 8496, "when": 8497, "Directory": 8498, "Ġshut": 8499, "<a": 8500, "edy": 8501, "Ġhealthy": 8502, "Ġtemperature": 8503, "ĠGen": 8504, "Ġmetal": 8505, "Ġsubmit": 8506, "ĠDO": 8507, "Ġattract": 8508, "ĠWord": 8509, "Ġll": 8510, "Ġseemed": 8511, "ko": 8512, "IED": 8513, "Ġlabor": 8514, "Ġasset": 8515, "you": 8516, "Ġcars": 8517, "ĠColumn": 8518, "ĠrÃ©": 8519, "Ġsquare": 8520, "âĢĿ,": 8521, "apes": 8522, "Ġthanks": 8523, "Ġtick": 8524, "Ġexperiment": 8525, "Ġprison": 8526, "tree": 8527, "-text": 8528, "-width": 8529, "fast": 8530, "-body": 8531, "-header": 8532, "Ġguar": 8533, "crete": 8534, "ĠTim": 8535, "Ġclearly": 8536, "ĠRepublican": 8537, "Ġjustify": 8538, "Ð¸ÑĤ": 8539, "cache": 8540, "Ġpresence": 8541, "Ġfactors": 8542, "Ġemployee": 8543, "]))": 8544, "Member": 8545, "Ġselector": 8546, "bor": 8547, "ĠMex": 8548, "utex": 8549, "_tag": 8550, "ailure": 8551, "ĠNet": 8552, "Ġreli": 8553, "EG": 8554, "Ġfprintf": 8555, "Ġteen": 8556, "loss": 8557, "Ġleaving": 8558, "Ġbeat": 8559, "Ġminute": 8560, "Ġredistribute": 8561, "Constants": 8562, "Ġcancer": 8563, "/{": 8564, "BL": 8565, "Ġspan": 8566, "ĠChild": 8567, "Center": 8568, "Ġearth": 8569, "YS": 8570, "ĠLevel": 8571, "Ġsea": 8572, "illing": 8573, "ĠĠĠĠĊĠĠĠĠĊ": 8574, "ĠLabel": 8575, "ĠEst": 8576, "(arg": 8577, "cos": 8578, "Failed": 8579, "swers": 8580, "Editor": 8581, "ront": 8582, "ĠMP": 8583, "expr": 8584, "ĠLife": 8585, "Ġ??": 8586, "Ã¶r": 8587, "Ġattend": 8588, "ĠQue": 8589, "Ġspecies": 8590, "-D": 8591, "Ġaus": 8592, "Struct": 8593, "Ġadvantage": 8594, "oston": 8595, "-block": 8596, "initial": 8597, "CRE": 8598, "Ġtruly": 8599, "Ġcompare": 8600, "Ġspect": 8601, "Full": 8602, "bes": 8603, "Ġvisible": 8604, "Ġmess": 8605, "stances": 8606, "Ġcloud": 8607, "_version": 8608, "Ġfurn": 8609, "icago": 8610, "LOW": 8611, "Ġtraffic": 8612, "Ġfol": 8613, "rypto": 8614, "Ġdeclar": 8615, "Ġslot": 8616, "ĠExt": 8617, "ĠEngland": 8618, "ĠUnder": 8619, "Ġta": 8620, "letter": 8621, "Ġofficer": 8622, "ĠDonald": 8623, "Yes": 8624, "ĠUSE": 8625, "mployee": 8626, "Ġopinion": 8627, "ĠAut": 8628, "border": 8629, "Ġadvice": 8630, "Ġautomatically": 8631, "isco": 8632, "Ġmm": 8633, "aml": 8634, "Ġinitialize": 8635, "Ġ({": 8636, "Ġgeneration": 8637, "Ġbits": 8638, "clipse": 8639, "Ġunf": 8640, "utors": 8641, "plt": 8642, "Ġdelta": 8643, "isis": 8644, "<br": 8645, "Ġlimitations": 8646, "Ġended": 8647, "ĠMad": 8648, "ilm": 8649, "These": 8650, "Ġchart": 8651, "Ġindependent": 8652, "Year": 8653, "Ġinstr": 8654, "Ġtags": 8655, "AVE": 8656, "ĠArch": 8657, "stop": 8658, "Progress": 8659, "Ġmi": 8660, "Ġlearned": 8661, "Ge": 8662, "Ġhotel": 8663, "SM": 8664, "TYPE": 8665, "Ġcy": 8666, "ERSION": 8667, "unately": 8668, "limit": 8669, "sel": 8670, "Ġmovies": 8671, "Ġsteel": 8672, "oz": 8673, "gb": 8674, "ĠCamp": 8675, "site": 8676, "PLE": 8677, ".right": 8678, "ĠCore": 8679, "Ġmixed": 8680, "step": 8681, "Ġputs": 8682, "super": 8683, "lyph": 8684, "ĠColors": 8685, ".str": 8686, "Ġinnov": 8687, "Ġdeck": 8688, "apers": 8689, "](": 8690, "continue": 8691, "spec": 8692, "ĠRoad": 8693, "ASH": 8694, "iliar": 8695, "Ġcontinues": 8696, "Ġappoint": 8697, "ĠVir": 8698, "Ġbin": 8699, "}\",": 8700, "going": 8701, "each": 8702, "BD": 8703, "ĠAccess": 8704, "Doc": 8705, "ĠManagement": 8706, "BER": 8707, "asket": 8708, "Ġestablished": 8709, "socket": 8710, "INS": 8711, "READ": 8712, "_height": 8713, "ĠFont": 8714, "Ġneighbor": 8715, "lor": 8716, "Ġgather": 8717, "Ġidentity": 8718, "Ġfab": 8719, "padding": 8720, "ĠRoute": 8721, "Ã´": 8722, "Ġforced": 8723, "resents": 8724, "_left": 8725, "ĠHam": 8726, "Ġeventually": 8727, "acer": 8728, "pub": 8729, "Ġtra": 8730, "unique": 8731, "del": 8732, "ĠFlorida": 8733, "ĠClean": 8734, "xa": 8735, "ĠÂ·": 8736, "Ġvalidate": 8737, "Visual": 8738, "Expression": 8739, "_func": 8740, "member": 8741, "trl": 8742, "vin": 8743, "owl": 8744, "ifies": 8745, "ĠContext": 8746, "Ġofficers": 8747, "/n": 8748, "sn": 8749, "undefined": 8750, ".items": 8751, "amage": 8752, "Ġaccounts": 8753, "Section": 8754, "icians": 8755, "Ġadvis": 8756, "(is": 8757, "[:,": 8758, "ĠFrance": 8759, "Func": 8760, "icious": 8761, "Ġtok": 8762, "Channel": 8763, "ĠAD": 8764, "Ġtimeout": 8765, "lemma": 8766, "reme": 8767, "uj": 8768, ".Al": 8769, "uclear": 8770, "(os": 8771, "fetch": 8772, "Ġbal": 8773, "Ġguid": 8774, "-align": 8775, "ĠWrite": 8776, "ĠOnce": 8777, "Ġpitch": 8778, "CF": 8779, "bytes": 8780, "ĠCommission": 8781, "Ġincred": 8782, "PER": 8783, "_response": 8784, "ĠLos": 8785, "parser": 8786, "Ġassume": 8787, "ĠToken": 8788, "_position": 8789, "Ġnom": 8790, "-term": 8791, "Ġremaining": 8792, "iostream": 8793, "Ġpieces": 8794, "apy": 8795, "ĠLess": 8796, "range": 8797, "umbn": 8798, "prise": 8799, "_option": 8800, "Impl": 8801, "kwargs": 8802, "Ġbusinesses": 8803, "Alert": 8804, "Ġparties": 8805, "ĠContainer": 8806, "ĠPrivate": 8807, "ĠPlan": 8808, "Ġregistered": 8809, "Ġjour": 8810, "acker": 8811, "/>": 8812, "chat": 8813, "sect": 8814, "Ġcreation": 8815, "olutely": 8816, "Ġinstant": 8817, "Ġdelivery": 8818, "icken": 8819, "yes": 8820, "ĠFranc": 8821, "bling": 8822, "enda": 8823, "[(": 8824, "_range": 8825, "ĠĠĠĠĠĠĠĠĠĠĠĠĠĠĠĠĠĠĠĠĠĠĠĠĠĠĠĠĠĠĠĠĠĠ": 8826, "Ġschedule": 8827, "Conn": 8828, "Ġthank": 8829, "xd": 8830, "Ġhook": 8831, "Ġdocumentation": 8832, "Parameters": 8833, "Hello": 8834, "vt": 8835, "Ġarticles": 8836, "Ġwest": 8837, "defined": 8838, "okens": 8839, "ĠVAL": 8840, ".file": 8841, "reset": 8842, "Ġmys": 8843, "ĠMA": 8844, "]),": 8845, "Ġcities": 8846, "related": 8847, "Ġappeared": 8848, "Ġwid": 8849, "ĠIns": 8850, "Ġdecre": 8851, "ĠLou": 8852, "(time": 8853, "ĠThank": 8854, "Ġmentioned": 8855, "ounce": 8856, "ĠTry": 8857, "ĠWall": 8858, "/images": 8859, "ĠMenu": 8860, "ĠEr": 8861, "Ġcritic": 8862, "ĠYear": 8863, "(param": 8864, "Ġflo": 8865, "NN": 8866, "ooter": 8867, "ĠAff": 8868, "rooms": 8869, "Ġhyp": 8870, "global": 8871, "Ġavec": 8872, "Ġcompletion": 8873, "Ġcond": 8874, "onymous": 8875, "(temp": 8876, "Ġstars": 8877, "Ġrelevant": 8878, "Ġcovered": 8879, "Ġelim": 8880, "_types": 8881, "Ġtu": 8882, "Ġsecure": 8883, "Ġstored": 8884, "]/": 8885, "xF": 8886, "ĠController": 8887, "Ġmigr": 8888, "MI": 8889, "ĠDen": 8890, "Ġannual": 8891, "-and": 8892, "Ġcrime": 8893, "bel": 8894, "Ġkitchen": 8895, "@g": 8896, "_ph": 8897, "ournament": 8898, "ĠSocial": 8899, "ĠSpecial": 8900, "Ġtail": 8901, "Ġunknown": 8902, "ded": 8903, "Ġapprec": 8904, "(db": 8905, "cf": 8906, "Ġassign": 8907, "-out": 8908, "ĠMont": 8909, "dp": 8910, "Ġstone": 8911, "-primary": 8912, ".grid": 8913, "Results": 8914, "azz": 8915, "Ġdaughter": 8916, "Ġcurr": 8917, "Ġlin": 8918, "Ġsouth": 8919, "forms": 8920, "ĠOUT": 8921, "lette": 8922, "aks": 8923, "igure": 8924, "ĠEU": 8925, "variable": 8926, "Ġbrief": 8927, "ĠScott": 8928, "Ġconference": 8929, "anda": 8930, "oral": 8931, "Ġeine": 8932, "ORS": 8933, "Ġris": 8934, "Ġgender": 8935, "estic": 8936, "License": 8937, "(out": 8938, "Ġms": 8939, "See": 8940, "Ġwilling": 8941, "aze": 8942, "Ġsports": 8943, "Ġyes": 8944, "lu": 8945, "Ġpurs": 8946, "/javascript": 8947, "-pro": 8948, "_product": 8949, "Ġdriving": 8950, "ĠÄ": 8951, "Ġpropos": 8952, "ultip": 8953, "uplic": 8954, "Ġapprox": 8955, "(cl": 8956, "Ġwear": 8957, "Ġreply": 8958, "asset": 8959, "Ġice": 8960, "Ġtx": 8961, "kr": 8962, "ĠGermany": 8963, "ĠGeorge": 8964, "Ġcb": 8965, "Move": 8966, "Ġpoly": 8967, "voice": 8968, "}\"": 8969, "Ġanimal": 8970, "Av": 8971, "ĠLocation": 8972, "Ġnative": 8973, "Ġmais": 8974, ",int": 8975, "Ġprepar": 8976, "Ġinterval": 8977, "plementation": 8978, "Ġbug": 8979, ">\"": 8980, "stat": 8981, "Ġfaith": 8982, "Ġrom": 8983, "prev": 8984, "ĠElect": 8985, "Find": 8986, "Ġgod": 8987, "otor": 8988, "original": 8989, "Ġpositions": 8990, "Ġweapons": 8991, "Ġcoff": 8992, "Ġpurposes": 8993, "pol": 8994, "Ġimpress": 8995, "Ġanimals": 8996, "(np": 8997, "Ġmurder": 8998, "Ġ``": 8999, "flag": 9000, "Ġsolutions": 9001, "ĠActive": 9002, "Ġbright": 9003, ".date": 9004, "Ġsitu": 9005, "ï¼Ī": 9006, ".ID": 9007, "Ġsie": 9008, "akt": 9009, "Space": 9010, ".dat": 9011, "han": 9012, "azine": 9013, "ĠZe": 9014, "Ġcrash": 9015, "(/": 9016, ">=": 9017, "Ð±": 9018, "iva": 9019, "ĠLat": 9020, "_ext": 9021, "Initialize": 9022, "OPY": 9023, "Ġreverse": 9024, "_dis": 9025, "'][": 9026, "Ġprompt": 9027, "onto": 9028, "ĠJournal": 9029, ")\"": 9030, "lets": 9031, "phan": 9032, "Will": 9033, "Ġafford": 9034, "Ġskill": 9035, "NC": 9036, "TS": 9037, "Just": 9038, "iteral": 9039, "YP": 9040, "Ġwind": 9041, "Ġwarning": 9042, "ĠWater": 9043, "Ġdraft": 9044, "Ġcm": 9045, "Ġsam": 9046, "Ġholding": 9047, "zip": 9048, "ĠScience": 9049, "Ġsupposed": 9050, "Gen": 9051, "Ġdiet": 9052, "<h": 9053, "ĠPass": 9054, "vi": 9055, "Ġhusband": 9056, "ï¿½ï¿½": 9057, "note": 9058, "ĠAbout": 9059, "ĠInstitute": 9060, "Ġclimate": 9061, "Ġnut": 9062, "ested": 9063, "Ġapparent": 9064, "Ġholds": 9065, "fi": 9066, "news": 9067, "CM": 9068, "video": 9069, "DITION": 9070, "ping": 9071, "Ġsenior": 9072, "wa": 9073, "_default": 9074, "ĠDatabase": 9075, "rep": 9076, "ESS": 9077, "nergy": 9078, "_mask": 9079, "Ġrise": 9080, "Ġkernel": 9081, ".Q": 9082, "Ġoffering": 9083, "decl": 9084, "ĠCS": 9085, "Ġlisted": 9086, "Ġmostly": 9087, "enger": 9088, "Ġblocks": 9089, "olo": 9090, "Ġgoverning": 9091, "\\F": 9092, "Ġconcent": 9093, "Ġmb": 9094, "Ġoccurred": 9095, "Ġchanging": 9096, "Scene": 9097, "Beh": 9098, "\"The": 9099, "Ġtile": 9100, "ĠAssociation": 9101, "alty": 9102, "_ad": 9103, "odies": 9104, "iated": 9105, "Ġprepared": 9106, "possible": 9107, "Ġmort": 9108, "TEST": 9109, "Ġignore": 9110, "Ġcalc": 9111, "Ġrs": 9112, "Ġsz": 9113, "ĠTHIS": 9114, "Ġcanvas": 9115, "java": 9116, "Ġdut": 9117, ".input": 9118, "Ġaux": 9119, "Sup": 9120, "Ġartist": 9121, "Vec": 9122, "etween": 9123, "ĠCategory": 9124, "Ġ[-": 9125, "ĠJul": 9126, "Ġring": 9127, ".ed": 9128, "YY": 9129, "Let": 9130, "TextField": 9131, "Ġflat": 9132, "_print": 9133, "ĠOTHER": 9134, "adian": 9135, "Ġchecked": 9136, "ele": 9137, "Align": 9138, "standing": 9139, "Ġ[],": 9140, "Ġlab": 9141, "ucky": 9142, "ĠChristmas": 9143, "(image": 9144, "Ġlots": 9145, "Ġslightly": 9146, "(final": 9147, "erge": 9148, "ĠRight": 9149, "Ġaward": 9150, "ĠOS": 9151, "Ġptr": 9152, "oves": 9153, "icated": 9154, "Ġmanage": 9155, "oliday": 9156, "Amount": 9157, "Nav": 9158, "wrap": 9159, "BB": 9160, "Ġwatching": 9161, "arios": 9162, "Ġoptional": 9163, "_K": 9164, "ĠAP": 9165, "ĠRev": 9166, "(o": 9167, ",c": 9168, "umin": 9169, "etailed": 9170, "ĠHy": 9171, "Ġblank": 9172, "agger": 9173, "ĠSelf": 9174, "()[": 9175, ".make": 9176, "earn": 9177, "channel": 9178, "blem": 9179, "_sp": 9180, "icing": 9181, "ez": 9182, "Ġtheory": 9183, "ĠTer": 9184, ",n": 9185, "logo": 9186, "ĠHTTP": 9187, "()))": 9188, "World": 9189, "Ġpython": 9190, "Ġlif": 9191, "Ġtrav": 9192, "Ġconven": 9193, "company": 9194, "ĠClub": 9195, "Ver": 9196, "Ġzone": 9197, "products": 9198, "ĠEduc": 9199, "Ġverify": 9200, "ĠMil": 9201, "ono": 9202, "ENCE": 9203, "Ġpacket": 9204, "Ġcer": 9205, "Ġenumer": 9206, "Ġpars": 9207, "formed": 9208, "Ġoccup": 9209, "tre": 9210, "Ġexercise": 9211, "Day": 9212, "_sum": 9213, "Ġasking": 9214, "aption": 9215, "Ġorders": 9216, "Ġspending": 9217, "ĠERR": 9218, "ĠUtil": 9219, "\\'": 9220, "?)": 9221, "Ġemot": 9222, "Ġinfluence": 9223, "ĠAfrica": 9224, "atters": 9225, "Ùħ": 9226, "Ġchief": 9227, "Ġtom": 9228, "cluded": 9229, "serial": 9230, ".Type": 9231, "aped": 9232, "Ġpolicies": 9233, "-ex": 9234, "-tr": 9235, "blank": 9236, "merce": 9237, "Ġcoverage": 9238, "Ġrc": 9239, "_matrix": 9240, "_box": 9241, "Ġcharges": 9242, "ĠBoston": 9243, "Pe": 9244, "Ġcircum": 9245, "Ġfilled": 9246, "Ġnorth": 9247, "Ġtermin": 9248, "Ġ[âĢ¦": 9249, "IRECT": 9250, "Ġber": 9251, "retch": 9252, ".code": 9253, "_col": 9254, "ĠGovernment": 9255, "ĠLord": 9256, "asi": 9257, "Exec": 9258, "Ġdiscussion": 9259, "enance": 9260, "outube": 9261, "typeof": 9262, "Ġserved": 9263, "ĠPut": 9264, "Ġsweet": 9265, "Before": 9266, "ategy": 9267, ".of": 9268, "ĠMaterial": 9269, "Sort": 9270, "ONT": 9271, "igital": 9272, "Why": 9273, "Ġsust": 9274, "abet": 9275, "Ġsegment": 9276, "ĠMuslim": 9277, "cut": 9278, "ĠMary": 9279, "Ġloved": 9280, "Ġlie": 9281, "ĠJO": 9282, "month": 9283, "Ġprime": 9284, "ti": 9285, "ĠCarol": 9286, "Use": 9287, "ĠPop": 9288, "ĠSave": 9289, "Interval": 9290, "execute": 9291, "dy": 9292, "ĠIran": 9293, "_cont": 9294, "Ġphase": 9295, "checkbox": 9296, "week": 9297, "Ġhide": 9298, "Ġtil": 9299, "Ġju": 9300, "Custom": 9301, "burg": 9302, "/M": 9303, "TON": 9304, "Ġquant": 9305, "Ġrub": 9306, "ixels": 9307, "Ġinstalled": 9308, "Ġdump": 9309, "Ġproperly": 9310, "Ġdecide": 9311, "apply": 9312, "Has": 9313, "Ġkeeping": 9314, "Ġcitizens": 9315, "Ġjoint": 9316, "pool": 9317, "_op": 9318, "Ġweapon": 9319, "gnore": 9320, "ĠExec": 9321, "otten": 9322, "ĠMS": 9323, "Ġ(-": 9324, "ĠReview": 9325, "Ġexamples": 9326, "Ġtight": 9327, "!(": 9328, "DP": 9329, "Ġphotograph": 9330, "URI": 9331, "Ã©t": 9332, "low": 9333, "ĠGrand": 9334, "Ġmaintain": 9335, "Ġnums": 9336, "Ġzip": 9337, "ials": 9338, "peg": 9339, "ĠBuffer": 9340, "~~~~": 9341, "rastructure": 9342, "ĠPL": 9343, "uen": 9344, "obby": 9345, "Ġpic": 9346, "Ġseed": 9347, "Ġexperienced": 9348, "Ġodd": 9349, "Ġkick": 9350, "Ġprocedure": 9351, "-on": 9352, ",j": 9353, "ĠAlthough": 9354, "accept": 9355, "Blue": 9356, "layer": 9357, "available": 9358, "Ġends": 9359, ".table": 9360, "Ġdataset": 9361, "bus": 9362, "Ġexplain": 9363, "(pro": 9364, "ĠCommittee": 9365, "Ġnoted": 9366, "Dim": 9367, "stdio": 9368, "_source": 9369, "ĠWeek": 9370, "ĠEdge": 9371, "Ġoperating": 9372, "Ġeste": 9373, "ipl": 9374, "agination": 9375, "Ġproceed": 9376, "Ġanimation": 9377, "ĠWatch": 9378, "iat": 9379, "Ġoppon": 9380, "/A": 9381, "Report": 9382, "Ġsounds": 9383, "Ġbund": 9384, ".pr": 9385, "(tmp": 9386, "Ġkid": 9387, "Ġyang": 9388, "ÑĨ": 9389, "math": 9390, "@gmail": 9391, "redients": 9392, "Ġvent": 9393, "avigate": 9394, "Look": 9395, "Ġreligious": 9396, "Ġrand": 9397, "rio": 9398, "_ip": 9399, "uan": 9400, "iciency": 9401, "ĠChange": 9402, "ĠEntity": 9403, "ĠRet": 9404, "plan": 9405, "Ã©n": 9406, "uries": 9407, "train": 9408, "Definition": 9409, "============": 9410, "zz": 9411, "Animation": 9412, "ĠOK": 9413, ".bl": 9414, "_score": 9415, "Ġacad": 9416, "Ġrefresh": 9417, "amento": 9418, "pid": 9419, "tc": 9420, "Ġtips": 9421, "Ġhomes": 9422, "Ġfuel": 9423, "âĸ": 9424, "ĠRoom": 9425, "_attr": 9426, "ĠMount": 9427, "ĠEv": 9428, "arser": 9429, "_top": 9430, "eah": 9431, "ĠDelete": 9432, "uke": 9433, "Ġusage": 9434, "aria": 9435, "_dev": 9436, "Ġtexture": 9437, "Ġconversation": 9438, "eper": 9439, "done": 9440, "ĠSecond": 9441, "Ġshooting": 9442, "_pre": 9443, "Components": 9444, "__,": 9445, "stitution": 9446, "Ġpresented": 9447, "Ġwa": 9448, "oker": 9449, "iner": 9450, "Ġbecoming": 9451, "Ġincident": 9452, "Att": 9453, "Ġrevealed": 9454, "forc": 9455, "Ġboot": 9456, ".page": 9457, "Photo": 9458, "Ġspring": 9459, ".\",": 9460, "ĠDictionary": 9461, "Ġlocations": 9462, "Ġsamples": 9463, "ĠBrown": 9464, "Ġstats": 9465, "quality": 9466, "Ñħ": 9467, "-dis": 9468, "Ġhelping": 9469, "Ġped": 9470, "(se": 9471, "ĠWho": 9472, "alian": 9473, "internal": 9474, "Ġft": 9475, "->{": 9476, "Ġmine": 9477, "Ġsector": 9478, "Ġgro": 9479, "Ġopportunities": 9480, "ĠÃ¼": 9481, "Ġmp": 9482, "Ġalleged": 9483, "Ġdoubt": 9484, "Mouse": 9485, "About": 9486, "_part": 9487, "Ġchair": 9488, "Ġstopped": 9489, "loop": 9490, "entities": 9491, "Ġapps": 9492, "ansion": 9493, "Ġmental": 9494, "ĠĠĠĠĠĠĠĠĠĠĠĠĠĠĠĠĠĠĠĠĠĠĠĠĠĠĠĠĠĠĠĠĠĠĠĠĠĠĠĠĠ": 9495, "FR": 9496, "Ġdefend": 9497, "care": 9498, "Ġideal": 9499, "urface": 9500, "Ġele": 9501, "ulator": 9502, "ĠRights": 9503, "anguages": 9504, "Ġfunds": 9505, "Ġadapt": 9506, "Attributes": 9507, "Ġdeploy": 9508, "opts": 9509, "Ġvalidation": 9510, "Ġconcerns": 9511, "uce": 9512, ".num": 9513, "ulture": 9514, "ila": 9515, "Ġcup": 9516, "Ġpure": 9517, "asm": 9518, "MO": 9519, "Ġcs": 9520, "Ġstores": 9521, "Ġcommunication": 9522, "mem": 9523, "_right": 9524, "Sheet": 9525, "Ġidentify": 9526, "enerated": 9527, "ordered": 9528, "Ġ\"[": 9529, "Ġswe": 9530, "Condition": 9531, "ĠAccording": 9532, "Ġprepare": 9533, "Ġrob": 9534, "Pool": 9535, "Ġsport": 9536, "rv": 9537, "Ġalternative": 9538, "ĠChicago": 9539, "ipher": 9540, "ische": 9541, "ĠDirector": 9542, "kl": 9543, "ĠWil": 9544, "keys": 9545, "Ġwelcome": 9546, "king": 9547, "ĠManager": 9548, "Ġcaught": 9549, "Score": 9550, "Ġsurvey": 9551, "hab": 9552, "Headers": 9553, "ADER": 9554, "Ġdecor": 9555, "Ġturns": 9556, "Ġradius": 9557, "errupt": 9558, "Cor": 9559, "Ġmel": 9560, "Ġintr": 9561, "(q": 9562, "ĠAC": 9563, "amos": 9564, "MAX": 9565, "ĠGrid": 9566, "ĠJesus": 9567, "ĠĠĠĠĠĠĠĠĠĠĠĠĠĠĠĠĠĠĠĠĠĠĠĠĠĠĠĠĠĠĠĠĠĠĠĠ": 9568, "Ġts": 9569, "Ġlinked": 9570, "free": 9571, "ĠQt": 9572, "Ġfaster": 9573, "ctr": 9574, "_J": 9575, "DT": 9576, "Ġcombination": 9577, "Ġintended": 9578, "-the": 9579, "-type": 9580, "ectors": 9581, "ami": 9582, "uting": 9583, "Ġuma": 9584, "XML": 9585, "UCT": 9586, "Ap": 9587, "ĠRandom": 9588, "Ġran": 9589, ".sort": 9590, "Ġsorted": 9591, ".Un": 9592, "itory": 9593, "Ġpriority": 9594, "ĠGal": 9595, "ĠOld": 9596, "hot": 9597, "ĠDisplay": 9598, "(sub": 9599, "_Y": 9600, "ĠCare": 9601, "loading": 9602, "Kind": 9603, ",,": 9604, "rase": 9605, "_replace": 9606, "ĠRT": 9607, "Ġentered": 9608, "gers": 9609, "Ġich": 9610, "(start": 9611, "/app": 9612, "Ġbrother": 9613, "Memory": 9614, "Ġutf": 9615, "prec": 9616, "Ġnavigation": 9617, "ORK": 9618, "Ġdst": 9619, "Detail": 9620, "Ġaudience": 9621, "Ġdur": 9622, "Ġcluster": 9623, "unched": 9624, "Ġ],": 9625, "Ġcomfortable": 9626, ".values": 9627, "ĠTotal": 9628, "Ġsnap": 9629, "Ġstandards": 9630, "Ġperformed": 9631, "hand": 9632, "Ġphil": 9633, "ibr": 9634, "trim": 9635, "Ġforget": 9636, "Ġdoctor": 9637, "icons": 9638, ",s": 9639, "ĠOp": 9640, "Sm": 9641, "Stop": 9642, "Comment": 9643, "Person": 9644, "rb": 9645, "LOB": 9646, "ĠĠĠĠĠĠĠĠĠĠĠĠĠĠĠĠĠĠĠĠĊ": 9647, "ĠCentral": 9648, "ICK": 9649, "Ġputting": 9650, "Ġmd": 9651, "ĠLove": 9652, "Program": 9653, "Border": 9654, "oor": 9655, "Ġallowing": 9656, "after": 9657, "Ġentries": 9658, "ĠMaybe": 9659, "]).": 9660, "ĠShort": 9661, ")\\": 9662, "friend": 9663, "Ġprefer": 9664, "osis": 9665, "Ġskip": 9666, "Ġcompetition": 9667, "_match": 9668, "lications": 9669, "Ġals": 9670, "\"We": 9671, "_eq": 9672, "lan": 9673, "_search": 9674, "ĠMusic": 9675, "asis": 9676, "Ġbind": 9677, "ĠIsland": 9678, "rum": 9679, "(E": 9680, "Ġseat": 9681, "Video": 9682, "Ġack": 9683, "reek": 9684, "Ġrating": 9685, "Ġrestaurant": 9686, "DEX": 9687, "pping": 9688, "uality": 9689, "Ġleague": 9690, "Ġfocused": 9691, "$data": 9692, "Ġabsolute": 9693, "Ġtells": 9694, "Ang": 9695, "Ġcommunities": 9696, "Ġhonest": 9697, "oking": 9698, "Ġapart": 9699, "arity": 9700, "/$": 9701, "_module": 9702, "ĠEnc": 9703, ".an": 9704, "Cre": 9705, "Ġshock": 9706, "ĠArab": 9707, "IENT": 9708, "/re": 9709, "Ġretrie": 9710, "isa": 9711, "ĠOrgan": 9712, ".graph": 9713, "Enum": 9714, "Ġpossibly": 9715, "ĠJapanese": 9716, "Ġcraft": 9717, "ĠPlace": 9718, "Ġtalent": 9719, "Ġfunding": 9720, "Ġconfirmed": 9721, "Ġcycle": 9722, "/x": 9723, "GE": 9724, "Ġhearing": 9725, "Ġplants": 9726, "Ġmouth": 9727, "pages": 9728, "oria": 9729, "ĠRemove": 9730, "_total": 9731, "Ġod": 9732, "ollapse": 9733, "door": 9734, "Ġbought": 9735, "Ġaddr": 9736, "ARCH": 9737, "_dim": 9738, "dden": 9739, "Ġdecades": 9740, "Ġversions": 9741, "fire": 9742, "Ġmoves": 9743, "fb": 9744, "Ġcoffee": 9745, ".connect": 9746, "ĠRow": 9747, "Ġschema": 9748, "Scope": 9749, "-Type": 9750, "Ġfighting": 9751, "Ġretail": 9752, "Ġmodified": 9753, "TF": 9754, "Files": 9755, "nie": 9756, "_command": 9757, "stone": 9758, "ĠÑĤ": 9759, "Ġbond": 9760, "ĠDevelopment": 9761, "Ġpt": 9762, "FORM": 9763, "plet": 9764, "Ġidentified": 9765, "cpp": 9766, "Ġcoding": 9767, "oked": 9768, "ĠMaster": 9769, "IDTH": 9770, "Ġresidents": 9771, "redit": 9772, "ĠPhoto": 9773, "=-": 9774, "unte": 9775, "ateur": 9776, "ĠSing": 9777, "Ġsheet": 9778, ".val": 9779, "orse": 9780, "Ġhers": 9781, "Ġdetermined": 9782, "Common": 9783, "Ġwed": 9784, "PH": 9785, "ĠAtl": 9786, "cred": 9787, "Ġmes": 9788, "Ġadvanced": 9789, ".java": 9790, "Go": 9791, "kill": 9792, "fp": 9793, "Ġpal": 9794, "Ġtruck": 9795, "Ġcombined": 9796, "Ġ\"${": 9797, "ĠCorpor": 9798, "Ġjoined": 9799, "ĠJose": 9800, "ĠCup": 9801, "uns": 9802, "levision": 9803, "Ġbroken": 9804, "Ġmarriage": 9805, "ĠWestern": 9806, "Ġrepresents": 9807, "ĠTitle": 9808, "Ġss": 9809, "iento": 9810, "Ġabsolutely": 9811, "Ġsmooth": 9812, "ĠUnless": 9813, "Word": 9814, "Ġmerge": 9815, "igan": 9816, "ĠVol": 9817, "Ġnn": 9818, "ĠÐ·": 9819, "Ġseeking": 9820, "Single": 9821, ".this": 9822, "Ġkom": 9823, "bound": 9824, ";\"": 9825, "_df": 9826, "Ġinjury": 9827, "(H": 9828, "Ġissued": 9829, "Ġpatch": 9830, "Ġleaves": 9831, "Ġadopt": 9832, "FileName": 9833, "Ġexecutive": 9834, "ĠByte": 9835, "Ġnu": 9836, "outing": 9837, "cluding": 9838, "-R": 9839, "Ġsubstant": 9840, "ĠBUT": 9841, "Ġtechnical": 9842, "Ġtwice": 9843, "ĠmÃ¡s": 9844, "Ġunivers": 9845, "yr": 9846, "Ġdrag": 9847, "ĠDC": 9848, "Ġsed": 9849, "Ġbot": 9850, "ĠPal": 9851, "ĠHall": 9852, "forcement": 9853, "Ġauch": 9854, ".mod": 9855, "notation": 9856, "_files": 9857, ".line": 9858, "_flag": 9859, "[name": 9860, "Ġresolution": 9861, "Ġbott": 9862, "ende": 9863, "(arr": 9864, "Free": 9865, "ĠDistrict": 9866, "PEC": 9867, ":-": 9868, "ĠJo": 9869, "ĠĠĠĠĠĊ": 9870, "ĠRiver": 9871, "_rows": 9872, "Ġhelpful": 9873, "Ġmassive": 9874, "Ġmeasures": 9875, "ĠRuntime": 9876, "Ġworry": 9877, "ĠSpec": 9878, "Ġworse": 9879, "(filename": 9880, "Ġlay": 9881, "Ġmagic": 9882, "ĠTheir": 9883, "oul": 9884, "ĠWhere": 9885, "Ġsudden": 9886, "Ġdefe": 9887, "Ġbinding": 9888, "Ġflight": 9889, "ĠWomen": 9890, "ĠPolicy": 9891, "Ġdrugs": 9892, "ishing": 9893, "ĠMel": 9894, "peat": 9895, "tor": 9896, "Ġproposed": 9897, "Ġstated": 9898, "Ġeast": 9899, "_desc": 9900, "Ġwinning": 9901, "folio": 9902, "ĠPan": 9903, "ĠAnge": 9904, "Ġcopies": 9905, "LM": 9906, "Ġvm": 9907, "Ġdictionary": 9908, "Seg": 9909, "elines": 9910, "ĠSend": 9911, "Ġiron": 9912, "ĠFort": 9913, "Ġdebate": 9914, "eq": 9915, "acher": 9916, "lf": 9917, "Ġlawy": 9918, "ÄŁ": 9919, "ĠMen": 9920, "Ġtrim": 9921, "(NULL": 9922, "Ġ!!": 9923, "Ġpad": 9924, "Ġfollows": 9925, "requ": 9926, "ĠEp": 9927, ".github": 9928, "(img": 9929, "eto": 9930, "('\\": 9931, "Services": 9932, "umbnail": 9933, "_main": 9934, "pleted": 9935, "fortunately": 9936, "Ġwindows": 9937, "Ġplane": 9938, "ĠConnection": 9939, "uard": 9940, "}\\": 9941, "==\"": 9942, "andon": 9943, "ĠRoy": 9944, "west": 9945, "iginal": 9946, "emies": 9947, "itz": 9948, "ĠPeter": 9949, "Ġtough": 9950, "Ġreduced": 9951, "Ġcalculate": 9952, "Ġrapid": 9953, "customer": 9954, "Ġefficient": 9955, "Ġmedium": 9956, "Ġfell": 9957, "ĠCas": 9958, "Ġfeedback": 9959, "Speed": 9960, "(output": 9961, "aje": 9962, "Ġcategories": 9963, "Ġfee": 9964, "};": 9965, "Ġdeleted": 9966, "reh": 9967, "Ġproof": 9968, "Desc": 9969, "Build": 9970, "Ġsides": 9971, "-%": 9972, "ĠĠĠĠĠĠĠĠĠĠĠĠĠĠĠĠĠĠĠĠĠĠĠĠĠĠĠĠĠĠĠĠĠĠĠĠĠĠ": 9973, "Ø±": 9974, ".match": 9975, "Ġfeels": 9976, "Ġachieve": 9977, "Ġclim": 9978, "ĠCD": 9979, "Ġteacher": 9980, "_current": 9981, "bn": 9982, "isting": 9983, "Enable": 9984, "GEN": 9985, "Ġtv": 9986, "Ġsock": 9987, "Ġplays": 9988, "Ġdiscount": 9989, "ĠKE": 9990, "ĠDebug": 9991, "Fore": 9992, "Ġappearance": 9993, "Mon": 9994, "Ġstyled": 9995, "ĠHuman": 9996, "iot": 9997, "ĠHistory": 9998, "Ġsac": 9999, "ĠCollection": 10000, "Ġrecommended": 10001, "Ġorganizations": 10002, "Ġdiscovered": 10003, "cohol": 10004, "adas": 10005, "ĠThomas": 10006, "May": 10007, "Ġconserv": 10008, "Ġdomin": 10009, "ĠFollow": 10010, "ĠSection": 10011, "ĠThanks": 10012, "Username": 10013, "Ġrecipe": 10014, "Ġwonderful": 10015, "_if": 10016, "orno": 10017, "Ġru": 10018, "_target": 10019, "à¦": 10020, "Ġinputs": 10021, "Ġfif": 10022, "Ġvision": 10023, "cy": 10024, "ĠSeries": 10025, "Ġtrading": 10026, "Ġmarker": 10027, "Begin": 10028, "Ġtypically": 10029, "Ġcauses": 10030, "Ġdetect": 10031, "country": 10032, "appy": 10033, "Ġcref": 10034, "ĠLE": 10035, "reader": 10036, "Ġadministr": 10037, "Ãµ": 10038, "ucket": 10039, "Ġfashion": 10040, ".char": 10041, "izar": 10042, "Ġdisable": 10043, "Ġsuc": 10044, "ĠLive": 10045, "issue": 10046, "Ġmetadata": 10047, "flags": 10048, "Ġcommitted": 10049, "Ġva": 10050, "Ġrough": 10051, "Ġhighlight": 10052, "_vars": 10053, "VO": 10054, "Ġencoding": 10055, "-Z": 10056, "_sign": 10057, "Ġrain": 10058, "reatest": 10059, "ĠEND": 10060, "Selection": 10061, "Ġcandidates": 10062, "Ġsav": 10063, "Ġdecisions": 10064, "Ġcollabor": 10065, "ridge": 10066, "feed": 10067, "ression": 10068, "Ġpersons": 10069, "VM": 10070, "ega": 10071, "According": 10072, "acked": 10073, "Ġdollars": 10074, "_loss": 10075, "ĠCost": 10076, "Ġauthority": 10077, ".rec": 10078, "Ġspokes": 10079, "ĠToday": 10080, "istant": 10081, "ĠHead": 10082, "âĢĿ.": 10083, "ertainment": 10084, "cean": 10085, "culate": 10086, "Ġven": 10087, "However": 10088, "_arr": 10089, "Ġtokens": 10090, "Graph": 10091, "ĠJud": 10092, "ĠVirgin": 10093, "ĠSerial": 10094, "unning": 10095, "agers": 10096, ".csv": 10097, "Ġdeveloping": 10098, "Ġinstructions": 10099, "Ġpromise": 10100, "Ġrequested": 10101, "/\"": 10102, "uilt": 10103, "-day": 10104, "Ġintelligence": 10105, "ĠObservable": 10106, "ĠHard": 10107, "Bool": 10108, "idential": 10109, "Ġselling": 10110, "CI": 10111, "AGES": 10112, "tle": 10113, "bur": 10114, "RY": 10115, "Ġbigger": 10116, "Ġrat": 10117, "Ġfamous": 10118, "Ġexplained": 10119, "Ġnuclear": 10120, "-N": 10121, "Ġcrisis": 10122, "ĠEnter": 10123, "Ġanswers": 10124, "/pl": 10125, "Ġsequ": 10126, "_next": 10127, "mask": 10128, "Ġstanding": 10129, "Ġplenty": 10130, "ĠCross": 10131, "dro": 10132, "ĠCast": 10133, "=true": 10134, "ĠChris": 10135, "icio": 10136, "ĠMike": 10137, "Decimal": 10138, "Len": 10139, "URN": 10140, "Ġauthorities": 10141, "Resources": 10142, "-H": 10143, "Bottom": 10144, "_qu": 10145, "puter": 10146, "esterday": 10147, "since": 10148, "Ġfamiliar": 10149, ",i": 10150, "VC": 10151, "Ġment": 10152, ",C": 10153, "Ġfreedom": 10154, "Ġroutes": 10155, "ĠBuy": 10156, "Ġcommands": 10157, "Ġmesh": 10158, "/C": 10159, "ĠSettings": 10160, "-style": 10161, "Ġwitness": 10162, "Ġcle": 10163, "Ġunion": 10164, "aret": 10165, "Ġthoughts": 10166, "Ġ----": 10167, "_process": 10168, "ingly": 10169, "UES": 10170, "_open": 10171, "ĠVec": 10172, "Ġreward": 10173, "/:": 10174, "Ġnie": 10175, "Changes": 10176, "Month": 10177, "ï¼Ł": 10178, "Ġexecution": 10179, "Ġbeach": 10180, "/'": 10181, "Ġabort": 10182, "ĠSingle": 10183, "Ġdp": 10184, "ĠMa": 10185, "ĠPet": 10186, "%)": 10187, "rand": 10188, "Rule": 10189, "Ġhel": 10190, "Ġquiet": 10191, "Ġratio": 10192, "osoph": 10193, "ĠIL": 10194, "Ġadvent": 10195, "cap": 10196, ";</": 10197, "ĠUSB": 10198, "Driver": 10199, "Ġours": 10200, "ĠJohnson": 10201, ".K": 10202, ".q": 10203, "/common": 10204, "ĠPDF": 10205, "acts": 10206, "ĠQuery": 10207, "Ġprocesses": 10208, "imo": 10209, "Ġadds": 10210, "Ġentirely": 10211, "Ġwash": 10212, "Ġanimated": 10213, "Ġprofit": 10214, "encing": 10215, "/S": 10216, "ĠSym": 10217, "Ġmanual": 10218, "Download": 10219, "Ġmotion": 10220, "-bottom": 10221, "PG": 10222, "(:,": 10223, "Ġera": 10224, "Ġho": 10225, "ĠJim": 10226, "quir": 10227, "Ã¡n": 10228, "DER": 10229, "Ġexpensive": 10230, "_co": 10231, "Bounds": 10232, "Well": 10233, "ĠâĨĴ": 10234, "names": 10235, "ĠVi": 10236, "Ġ*=": 10237, "ĠPS": 10238, "Ġdangerous": 10239, "[p": 10240, "OME": 10241, "Other": 10242, "Points": 10243, "heading": 10244, "Ġcurrency": 10245, "Ġpercentage": 10246, "Ġclassic": 10247, "thead": 10248, "ĠMO": 10249, "FE": 10250, "Idx": 10251, "ĠÃ¨": 10252, "Ġaccident": 10253, "Ġvariant": 10254, "Ġmyst": 10255, "ĠLand": 10256, "ĠBre": 10257, "Ġharm": 10258, "ĠAcc": 10259, "Ġcharged": 10260, "iones": 10261, "arry": 10262, "ĠLanguage": 10263, "Ġwalking": 10264, "ifer": 10265, "Ġleadership": 10266, "ynam": 10267, "Ġtimestamp": 10268, "ipt": 10269, "ĠHas": 10270, "REFER": 10271, "ĠIts": 10272, "Ġlistener": 10273, "UTE": 10274, "Ġexperiences": 10275, "Ġcreates": 10276, "RS": 10277, "cart": 10278, "black": 10279, "Ġchoices": 10280, "war": 10281, "Ġ'''": 10282, "Ġordered": 10283, "Ġevening": 10284, "Ġpil": 10285, "Ġtun": 10286, "ĠBad": 10287, "random": 10288, "Ġexplicit": 10289, "Ġarrived": 10290, "Ġfly": 10291, "Ġeconom": 10292, "-mail": 10293, "Ġlists": 10294, "Ġarchitect": 10295, "ĠPay": 10296, "Ġds": 10297, "ĠSol": 10298, "Ġvehicles": 10299, "Hz": 10300, "-com": 10301, "Ġking": 10302, "_equal": 10303, "ĠHelp": 10304, "Ġabuse": 10305, "Ġextr": 10306, "Ġchemical": 10307, "Ġorient": 10308, "Ġbreath": 10309, "ĠSpace": 10310, "wait": 10311, "DED": 10312, "igma": 10313, "Ġentr": 10314, "Ġsob": 10315, "-name": 10316, "Ġaffected": 10317, "ika": 10318, "Ġcoal": 10319, "_work": 10320, "Ġhundreds": 10321, "Ġpolitics": 10322, "subject": 10323, "Ġconsumer": 10324, "ANGE": 10325, "Ġrepeated": 10326, "Send": 10327, "Ġprotocol": 10328, "Ġleads": 10329, "useum": 10330, "Every": 10331, "Import": 10332, "(count": 10333, "Ġchallenges": 10334, "Ġnovel": 10335, "Ġdepart": 10336, "bits": 10337, "oting": 10338, "(\\": 10339, "Ġcreative": 10340, "Ġbuff": 10341, "Ġintroduced": 10342, "usic": 10343, "modules": 10344, "Are": 10345, "-doc": 10346, "language": 10347, "Ġtod": 10348, "omething": 10349, "Ġhun": 10350, "aters": 10351, "Intent": 10352, "Ġimplemented": 10353, "ĠCase": 10354, "Children": 10355, "Ġnotification": 10356, "Renderer": 10357, "Wrapper": 10358, "Objects": 10359, "tl": 10360, ".row": 10361, "Ġforg": 10362, "Ġpermit": 10363, "Ġtargets": 10364, "ĠIF": 10365, "Ġtip": 10366, "sex": 10367, "Ġsupports": 10368, "Ġfold": 10369, "photo": 10370, "Ġgoogle": 10371, "Ġsharing": 10372, "Ġgoods": 10373, "vs": 10374, "ĠDan": 10375, "Rate": 10376, "ĠMartin": 10377, "Ġmanner": 10378, "lie": 10379, ".The": 10380, "Internal": 10381, "RIGHT": 10382, "Ġ'{": 10383, "Ġcontrols": 10384, "Mat": 10385, "Ġmand": 10386, "Ġextended": 10387, "Ok": 10388, "Ġembed": 10389, "Ġplanet": 10390, "ĠNon": 10391, "-ch": 10392, ")\",": 10393, "epar": 10394, "Ġbelieved": 10395, "ĠEnvironment": 10396, "ĠFriend": 10397, "-res": 10398, "Ġhandling": 10399, "nic": 10400, "-level": 10401, "scri": 10402, "BE": 10403, "ungen": 10404, "Ġalter": 10405, "[idx": 10406, "Pop": 10407, "cam": 10408, "Ġ(((": 10409, "Ġshipping": 10410, "Ġbattery": 10411, "MC": 10412, "Ġimpl": 10413, "otation": 10414, "ĠLab": 10415, "ĠGames": 10416, "ray": 10417, "Extra": 10418, "Two": 10419, "ĠLes": 10420, "Â°": 10421, "Ġcharset": 10422, "Ġjourney": 10423, "eting": 10424, "âĶ": 10425, "Ġdin": 10426, "Ġperman": 10427, "Ġsolve": 10428, "Ġlaunched": 10429, "Ġnine": 10430, "Ġsending": 10431, "Ġtelling": 10432, "ĠMatrix": 10433, "eric": 10434, "Ġgrab": 10435, ".u": 10436, "ĠLibrary": 10437, "Ġdebt": 10438, "INK": 10439, "Ġfrequency": 10440, ".ad": 10441, "Ġnegot": 10442, "ĠAfrican": 10443, "sender": 10444, "Å¡": 10445, "Global": 10446, "Ġexperts": 10447, "Ġdepending": 10448, "gray": 10449, "Ġjudge": 10450, "Ġsentence": 10451, "losure": 10452, "Ac": 10453, "Ġtrace": 10454, "Edge": 10455, "Ġfriendly": 10456, "Ġconcerned": 10457, "blog": 10458, "Ġclaimed": 10459, "}'": 10460, "integer": 10461, "_tree": 10462, "xi": 10463, "Ġaccepted": 10464, "_one": 10465, "ĠEducation": 10466, "ublished": 10467, "gon": 10468, "appoint": 10469, "outs": 10470, "Ġmining": 10471, "Ġsongs": 10472, "Ġherself": 10473, "Ġgranted": 10474, "Ġpassion": 10475, "ĠLake": 10476, "Ġloan": 10477, "uent": 10478, "chant": 10479, "Ġdetailed": 10480, "except": 10481, "_cmd": 10482, "ĠHE": 10483, "Related": 10484, "zt": 10485, "Ġspecifically": 10486, "Static": 10487, "Ġcarried": 10488, "ANS": 10489, "Created": 10490, "Ġcul": 10491, "]-": 10492, "FP": 10493, "Ġsitting": 10494, "Ġ\"\")": 10495, "ĠEqu": 10496, "kins": 10497, "ancer": 10498, "ogen": 10499, "Ġvoters": 10500, "ĠProt": 10501, "bsites": 10502, "oster": 10503, "Ġarms": 10504, "avity": 10505, "Ġvul": 10506, "Ġhousing": 10507, "Ġbear": 10508, "_iter": 10509, "pired": 10510, "Ġmarkets": 10511, "ĠStudent": 10512, "Ġticket": 10513, "Ġmillions": 10514, ")=": 10515, "Ġrecover": 10516, "ĠForce": 10517, "ĠBoth": 10518, "Ġvictim": 10519, "ĠDisc": 10520, "report": 10521, "Ġfourth": 10522, "ĠAssembly": 10523, "/user": 10524, "textarea": 10525, "Ġath": 10526, "Ġ([": 10527, "Ġchannels": 10528, "choice": 10529, "LOBAL": 10530, "exec": 10531, "emale": 10532, "Ġelem": 10533, "_le": 10534, "Ġresponsibility": 10535, "ĠTw": 10536, "ICATION": 10537, "Ġelseif": 10538, "Ġfo": 10539, "asts": 10540, "Ġtreated": 10541, "sen": 10542, "ĠVict": 10543, "sumer": 10544, "Ġast": 10545, ">{{": 10546, "ĠResource": 10547, "ĠStandard": 10548, "ĠPrem": 10549, "updated": 10550, "ivalent": 10551, "Ġassets": 10552, "_temp": 10553, "Ġinterests": 10554, "Ġhardware": 10555, "ĠRom": 10556, "ĠShare": 10557, "Ġ*,": 10558, "ĠTake": 10559, "ĠImages": 10560, "ĠJun": 10561, "Ġliqu": 10562, "Ġworst": 10563, "ymbols": 10564, "Ġdrivers": 10565, "ĠDocument": 10566, "eno": 10567, "ĠTechnology": 10568, "Ġapproved": 10569, "umps": 10570, "Ġsnow": 10571, "formance": 10572, "uits": 10573, "ÙĨ": 10574, "Ġdifferences": 10575, "ĠPs": 10576, "Ġtodo": 10577, "Ġsel": 10578, "urers": 10579, "invalid": 10580, "Ġtweet": 10581, "Ġresearchers": 10582, "Ġsprintf": 10583, "ĠRO": 10584, "Ġpel": 10585, "Ġillegal": 10586, "dialog": 10587, "lg": 10588, "Ġhero": 10589, "final": 10590, "Ġpp": 10591, "Ġci": 10592, "Ġsuggested": 10593, "pdf": 10594, "aching": 10595, "ĠRo": 10596, "ĠProperties": 10597, "ĠSi": 10598, "Ġbuying": 10599, "Ġmu": 10600, "Ġlands": 10601, "ifiers": 10602, "ĠFILE": 10603, "ROUP": 10604, "Ġholder": 10605, "ĠSon": 10606, "Ġsympt": 10607, ")?": 10608, "Ġargc": 10609, "Ġfort": 10610, "Ġcasino": 10611, "_category": 10612, "Ġforum": 10613, "prefix": 10614, "apture": 10615, "Tube": 10616, "ems": 10617, "imize": 10618, "aus": 10619, "course": 10620, "ATOR": 10621, "()),": 10622, "INGS": 10623, "Ġacknow": 10624, "ĠKorea": 10625, "pling": 10626, "Ġworker": 10627, "hal": 10628, "ĠRichard": 10629, "Elements": 10630, "star": 10631, "Ġrelationships": 10632, "Ġcheap": 10633, "ACH": 10634, "ĠXML": 10635, ",&": 10636, "ĠLouis": 10637, "Ġride": 10638, "Ġchunk": 10639, "[s": 10640, "Ġchosen": 10641, "_[": 10642, "/(": 10643, "ĠJeff": 10644, "_sl": 10645, "priv": 10646, "ĠCanadian": 10647, "Ġunable": 10648, "Ġnos": 10649, "high": 10650, "Ġlift": 10651, "fun": 10652, "(){": 10653, "elly": 10654, "_as": 10655, "Ġradi": 10656, "ĠAngeles": 10657, "ĠSpan": 10658, "itors": 10659, "Ġmigration": 10660, "AK": 10661, "Oh": 10662, "Â®": 10663, "ĠGT": 10664, "Ġadvance": 10665, "ĠStyle": 10666, "ection": 10667, "Ñİ": 10668, "rog": 10669, "Ġshopping": 10670, "ĠRect": 10671, "OU": 10672, "Ġsubstantial": 10673, "Ġpregn": 10674, "Ġpromote": 10675, "IEW": 10676, "Ġsigns": 10677, "/.": 10678, "Ġletters": 10679, "Board": 10680, "ctrl": 10681, "\"\\": 10682, "ĠJones": 10683, "Ġvertex": 10684, "Ġja": 10685, "Ġaffili": 10686, "Ġwealth": 10687, "Ġsignificantly": 10688, "Ġec": 10689, "Ġxs": 10690, "actual": 10691, ".per": 10692, "_step": 10693, "mac": 10694, "Ġtransl": 10695, "ĠĠĠĠĠĠĠĠĠĠĠĠĠĠĠĠĠĠĠĠĠĠĠĠĠĠĠĠĠĠĠĠĠĠĠĠĠĠĠĠĠĠĠĠĠĠĠĠĠĠĠĠĠĠĠĠĠĠĠ": 10696, "Iterator": 10697, "Ġoch": 10698, "agnostic": 10699, "ĠDuring": 10700, "ĠDEFAULT": 10701, "Ġtill": 10702, "Ġsignature": 10703, "Ġbird": 10704, "ĠOl": 10705, "ĠIr": 10706, "HS": 10707, "Ġelev": 10708, "Ġmt": 10709, "ĠNav": 10710, "Ġrelax": 10711, "Ġplate": 10712, "ITEM": 10713, "(date": 10714, "Ġgrade": 10715, "iences": 10716, "High": 10717, "ĠDIS": 10718, "disabled": 10719, "QUI": 10720, "Ġnoise": 10721, "aux": 10722, "ĠUP": 10723, "osa": 10724, "Ġvoc": 10725, "Ġ))": 10726, "ocom": 10727, "Lock": 10728, ",d": 10729, "ĠDraw": 10730, "Ġ\"(": 10731, "Ġvisited": 10732, "ĠâĪ": 10733, "Ġsucceed": 10734, "Ġimpossible": 10735, "aire": 10736, "ĠTurn": 10737, "Ġdish": 10738, "FG": 10739, "Ġsensor": 10740, "ANN": 10741, "aba": 10742, "Ġsurg": 10743, "Ġfp": 10744, "_an": 10745, "-J": 10746, "-G": 10747, "ĠJob": 10748, "Convert": 10749, "ĠKEY": 10750, "Ġauthors": 10751, "\\r": 10752, "Ġ-*-": 10753, "flex": 10754, "Ġsoc": 10755, "Ret": 10756, "Ġsalt": 10757, "ĠClear": 10758, "(page": 10759, "Ġrooms": 10760, "conv": 10761, "#{": 10762, "ĠArea": 10763, "hen": 10764, "Ġbegins": 10765, "-y": 10766, "Ġexcited": 10767, "Ġignored": 10768, "Ġbonus": 10769, "student": 10770, "ĠMember": 10771, "Ġrelatively": 10772, "ĠLow": 10773, "ĠProdu": 10774, "ateway": 10775, "posure": 10776, "Ġthick": 10777, "aniel": 10778, "Extension": 10779, "Il": 10780, "eed": 10781, "LOC": 10782, ".im": 10783, "Ġconflict": 10784, "uv": 10785, "iser": 10786, "Ġwave": 10787, "Mar": 10788, "ĠCommunity": 10789, "iche": 10790, "ĠNothing": 10791, "[m": 10792, "ĠLee": 10793, "riends": 10794, "Ã¨re": 10795, "!!!": 10796, "anz": 10797, ".result": 10798, "ĠSK": 10799, "Ġdemocr": 10800, "\"It": 10801, "razy": 10802, "aser": 10803, "vertex": 10804, "Warning": 10805, "argo": 10806, "Ġactor": 10807, "ĠInstead": 10808, "ĠUsing": 10809, "Self": 10810, "Ġspeaking": 10811, "ĠParis": 10812, ".node": 10813, "ĠFood": 10814, "EIF": 10815, "ĠBi": 10816, "ĠIB": 10817, "Ġuniversity": 10818, "ĠHeader": 10819, "Copy": 10820, "etc": 10821, "rical": 10822, "Ġ>>>": 10823, "books": 10824, "Ġalgorithm": 10825, "Ġ'__": 10826, "Ġnumerous": 10827, "Share": 10828, "Have": 10829, "Ġrecru": 10830, "Ġprove": 10831, "health": 10832, "Ġdecimal": 10833, "Ġcommission": 10834, "xC": 10835, "Ġsummary": 10836, "atted": 10837, "Ġcloser": 10838, "finished": 10839, "ĠWood": 10840, "ku": 10841, "_items": 10842, "Flag": 10843, "Ġconfidence": 10844, "ĠFederal": 10845, "Ġcompat": 10846, "Ġvertical": 10847, "Ð¹": 10848, "Ã¨s": 10849, "IDE": 10850, ":\",": 10851, "ĠWay": 10852, "ÑĪ": 10853, "Temp": 10854, "ĠSTR": 10855, "ritten": 10856, "Sync": 10857, "ĠAV": 10858, "ĠCEO": 10859, "ĠGuid": 10860, "Ġenvironmental": 10861, "Ġcorresponding": 10862, "Ġjustice": 10863, "ĠJS": 10864, "Ġlived": 10865, "gar": 10866, "ĠGraph": 10867, "ĠStat": 10868, "ĠiPhone": 10869, ".al": 10870, "ĠHD": 10871, "Ġoccur": 10872, "Ġthreshold": 10873, "REG": 10874, "Meta": 10875, "Å¾": 10876, "Ġcum": 10877, ".gnu": 10878, "Ã«": 10879, "Ġobtained": 10880, "Ġcomplaint": 10881, "Ġeating": 10882, "Ġtar": 10883, "Ġopts": 10884, "(to": 10885, "Pass": 10886, "Ġplastic": 10887, "tility": 10888, "ĠWin": 10889, "pile": 10890, "ĠGar": 10891, "Ġquantity": 10892, "_last": 10893, "Ġgreatest": 10894, "ĠUsed": 10895, "ĠHP": 10896, "riting": 10897, "SION": 10898, "blue": 10899, "domain": 10900, "Ġscores": 10901, "Normal": 10902, "Then": 10903, "***": 10904, "dist": 10905, "lon": 10906, "Ġhate": 10907, "shal": 10908, "database": 10909, "Ġpand": 10910, "Ġlogic": 10911, "=false": 10912, "bg": 10913, "ĠConfiguration": 10914, "Ġnur": 10915, "OG": 10916, "Ġmarried": 10917, ":+": 10918, "Ġdropped": 10919, "Ġregistration": 10920, "ultiple": 10921, "izers": 10922, "shape": 10923, ".copy": 10924, "Ġwearing": 10925, "ĠCath": 10926, "Ġdedicated": 10927, "Ġadvoc": 10928, "ĠFamily": 10929, "Ġstatements": 10930, "ematic": 10931, "Ġmotiv": 10932, "ĠHave": 10933, "Ġblow": 10934, "Job": 10935, "cert": 10936, "_vector": 10937, "install": 10938, "ĠCOPY": 10939, "embed": 10940, "DIR": 10941, "ĠSpring": 10942, "Ġexhib": 10943, "cdn": 10944, "ĠComment": 10945, "ĠOptional": 10946, "ĠDark": 10947, "(pos": 10948, "ĠShould": 10949, "Ġcentre": 10950, "Ã³w": 10951, "Ġtrouble": 10952, "ENER": 10953, "Ġns": 10954, "uling": 10955, "ĠMexico": 10956, "ĠNY": 10957, "Ġlic": 10958, "Mr": 10959, "-fl": 10960, "ĠCustomer": 10961, "idi": 10962, "rible": 10963, "Ġsizes": 10964, "validation": 10965, "ĠJon": 10966, "Nodes": 10967, "Ġfragment": 10968, "Ġspoke": 10969, "Ġwaste": 10970, "Join": 10971, "Ġillustr": 10972, "eli": 10973, "cient": 10974, "Ġaid": 10975, "Ġpassing": 10976, "Ġfaces": 10977, "Shape": 10978, "_Z": 10979, "iti": 10980, "Ġalle": 10981, "Ġrobot": 10982, "ĠĠĠĠĠĠĠĊ": 10983, "ĠSpe": 10984, "Ġreceiving": 10985, "ĠDetails": 10986, "Ġ\")": 10987, "mg": 10988, "Ġcomparison": 10989, "*,": 10990, "ĠFound": 10991, "(U": 10992, "/F": 10993, "Ġxxx": 10994, "Network": 10995, "ders": 10996, "Ġcapture": 10997, "Ġcorre": 10998, "ĠLtd": 10999, "ĠAdv": 11000, "[@": 11001, "Ġclip": 11002, "Mill": 11003, "ĠProfile": 11004, "Ġendif": 11005, "Ġoblig": 11006, "describe": 11007, "riterion": 11008, "LD": 11009, "ered": 11010, "Ġfavour": 11011, "score": 11012, "ĠFilter": 11013, "attributes": 11014, "Ġchecks": 11015, "ĠPlus": 11016, "Ġscientific": 11017, "Ġprivacy": 11018, "Head": 11019, "Ġfeat": 11020, "Ġdegrees": 11021, "ĠPale": 11022, "Ġfilms": 11023, "ĠAudio": 11024, "ĠTag": 11025, "ĠEnergy": 11026, "itar": 11027, "parator": 11028, "Ġfellow": 11029, "ĠTri": 11030, "ĠDAM": 11031, "cloud": 11032, "ĠAcad": 11033, "Ġreb": 11034, "Ð½Ñĭ": 11035, "ĠBur": 11036, "Ġhex": 11037, "Console": 11038, "ctl": 11039, "ousel": 11040, "ĠWilliam": 11041, "Ġaz": 11042, "Ġpractices": 11043, "Ġanywhere": 11044, "ĠPosition": 11045, "iams": 11046, "placeholder": 11047, "Ġoder": 11048, "mond": 11049, "events": 11050, "?âĢĿ": 11051, "Ġattached": 11052, "ĠnÃ£o": 11053, "Ġestate": 11054, ".action": 11055, "Ġfigures": 11056, "Ġsubscri": 11057, "nam": 11058, ".plot": 11059, "noon": 11060, "Character": 11061, ".tab": 11062, "Ġwinter": 11063, "ĠVariable": 11064, "Ġtrees": 11065, "Ġproud": 11066, "(V": 11067, "_load": 11068, "Ġhier": 11069, "ĠEcon": 11070, "Ġfd": 11071, "Ġvictims": 11072, "Rest": 11073, "iana": 11074, "Ġfake": 11075, "Ġsad": 11076, "Ġble": 11077, "Prot": 11078, "Ġbuttons": 11079, "Ġtelevision": 11080, "Ġlogo": 11081, "extension": 11082, "stein": 11083, "aciones": 11084, "Ġsimp": 11085, "Ġrecorded": 11086, "Ġbrings": 11087, "Ġprincipal": 11088, "Ġfees": 11089, "(source": 11090, "kdir": 11091, "Ġcorrectly": 11092, "fil": 11093, "Ġwel": 11094, "Pair": 11095, "scale": 11096, "verify": 11097, "[c": 11098, "Ġ---": 11099, "Ġescape": 11100, "ikes": 11101, "ician": 11102, "Ġchapter": 11103, "ĠTYPE": 11104, "Ġshadow": 11105, "Ġawesome": 11106, "WE": 11107, "Ġlambda": 11108, "Ġdistinct": 11109, "Ġbare": 11110, "-off": 11111, "Ġcolour": 11112, "olec": 11113, "aga": 11114, ".fill": 11115, "Ġadj": 11116, "(position": 11117, "Short": 11118, "Ġtotally": 11119, "VD": 11120, "ĠTre": 11121, "_ep": 11122, "vements": 11123, "ĠSolution": 11124, "Ġfundament": 11125, "Follow": 11126, "Ġfacility": 11127, "Ġhappening": 11128, "OF": 11129, "Span": 11130, "ĠÂ«": 11131, "iden": 11132, "Ġexceed": 11133, "Ġcp": 11134, "Ġhasn": 11135, "Ġpri": 11136, "Ġconsequ": 11137, "nen": 11138, "ĠINTO": 11139, "Ignore": 11140, "ĠFuture": 11141, "Ġcarbon": 11142, "ĠSteel": 11143, "fmt": 11144, "okie": 11145, "Ġspl": 11146, "(title": 11147, "-info": 11148, "Ġdeals": 11149, "ea": 11150, "Div": 11151, "Ġtested": 11152, "_return": 11153, "upported": 11154, "ĠCook": 11155, "Ġpaying": 11156, "ĠIll": 11157, "Ġarrested": 11158, "ĠPrime": 11159, "_callback": 11160, "driver": 11161, "Once": 11162, "abb": 11163, "ĠSets": 11164, "Ġcc": 11165, "Ġshell": 11166, "alo": 11167, "(log": 11168, "ctors": 11169, ")</": 11170, "Ġneighborhood": 11171, "ailability": 11172, "vol": 11173, "Ġyouth": 11174, "Ġtechniques": 11175, "ĠSchema": 11176, "uh": 11177, "mente": 11178, "Ġrepository": 11179, "imm": 11180, "Ġcookie": 11181, "JS": 11182, ":{": 11183, "Complete": 11184, "Since": 11185, "Ġlaugh": 11186, "enable": 11187, "ĠDoes": 11188, "ĠWalk": 11189, "what": 11190, "kes": 11191, "Ġmultip": 11192, "iments": 11193, "eur": 11194, "Ġvictory": 11195, "Generator": 11196, "ĠMos": 11197, "rovers": 11198, "Ġcompute": 11199, "Ġproviders": 11200, "ĠMedic": 11201, "LP": 11202, "Ġveter": 11203, "sters": 11204, "umeric": 11205, "Ġreplaced": 11206, "-free": 11207, "Ġmatching": 11208, "ĠEditor": 11209, "=${": 11210, "ĠSaf": 11211, "Ġsind": 11212, ".edu": 11213, "ĠNFL": 11214, "aya": 11215, "Ġdogs": 11216, "Ġdesire": 11217, "ĠMiddle": 11218, "Cart": 11219, "Theme": 11220, "Ġmob": 11221, "Ġdisplayed": 11222, "igit": 11223, "Ġadults": 11224, "\"\"\"": 11225, "Ġdelivered": 11226, "visible": 11227, "<<<": 11228, "ĠGO": 11229, "scroll": 11230, "xE": 11231, "Ġassigned": 11232, "ĠBool": 11233, "Ġwp": 11234, "Ġcombat": 11235, "ĠHaw": 11236, ".-": 11237, "Ġsupporting": 11238, "ircraft": 11239, "Ġspin": 11240, "ĠCR": 11241, ".my": 11242, "à¥": 11243, "tpl": 11244, "Ġspaces": 11245, "?,": 11246, "Ġpatterns": 11247, "-box": 11248, "Ġframework": 11249, "/%": 11250, "(long": 11251, "Ġteaching": 11252, "ARNING": 11253, "_keys": 11254, "Ġtables": 11255, "inations": 11256, "-weight": 11257, "radio": 11258, "ĠPac": 11259, "ring": 11260, "Ġquote": 11261, "anna": 11262, "Ġwerden": 11263, "Ġcream": 11264, "Ġmachines": 11265, "-k": 11266, "Ġstim": 11267, "ĠStock": 11268, "rick": 11269, "Ġimportance": 11270, "rx": 11271, "Ãµes": 11272, "ÙĪ": 11273, "Ġstroke": 11274, "agra": 11275, "Ġtaste": 11276, "Thanks": 11277, "ĠRequired": 11278, "ova": 11279, "Media": 11280, "(base": 11281, "ĠfileName": 11282, "Checked": 11283, "Ġinterrupt": 11284, "python": 11285, "pair": 11286, "Ġcircle": 11287, "Ġiniti": 11288, "_stream": 11289, "Ġcompreh": 11290, "learn": 11291, "Public": 11292, "Ġhumans": 11293, "Ġbringing": 11294, "ographic": 11295, "_layer": 11296, "-like": 11297, "Ġvotes": 11298, "Ġdesired": 11299, "Mask": 11300, "Ġrelation": 11301, "Help": 11302, "Ġinspir": 11303, "ĠMono": 11304, "ometimes": 11305, "Ġrotation": 11306, "/test": 11307, "INSERT": 11308, "Star": 11309, "phy": 11310, "Ġincreases": 11311, "_close": 11312, "aza": 11313, "TEXT": 11314, "ĠÃ¤": 11315, "ĠVan": 11316, "Ġlights": 11317, "ĠGuide": 11318, "Ġdates": 11319, "aman": 11320, "Ġpaths": 11321, ".edit": 11322, "dx": 11323, "Ġreaction": 11324, "ĠBeach": 11325, "Environment": 11326, "interest": 11327, "Ġreaders": 11328, "Ġdomestic": 11329, "Ġfiled": 11330, "City": 11331, "Ġmapping": 11332, "ĠDES": 11333, "Ġrepair": 11334, "tics": 11335, "ixture": 11336, "Ġnombre": 11337, "zo": 11338, "ĠCarolina": 11339, "ĠDer": 11340, "Ġgest": 11341, "Ġhist": 11342, "resources": 11343, "Ġorphan": 11344, "ĠInvest": 11345, "ĠRoman": 11346, "Ġcultural": 11347, "feature": 11348, "pts": 11349, "bt": 11350, "Ġdot": 11351, "Ġdiam": 11352, "uspend": 11353, "Ġsurprise": 11354, "abil": 11355, "Ġvirt": 11356, "Ġbomb": 11357, "aron": 11358, "Ġvast": 11359, "Real": 11360, "epend": 11361, "icted": 11362, "Ġpicked": 11363, "ĠFL": 11364, ".zeros": 11365, "sup": 11366, "Microsoft": 11367, "services": 11368, "agic": 11369, "iveness": 11370, "Ġpdf": 11371, "Ġroles": 11372, "ras": 11373, "Ġindustrial": 11374, "Ġfacilities": 11375, "Ġni": 11376, "Ġba": 11377, "Ġcls": 11378, "Customer": 11379, "Ġimagine": 11380, "Ġexports": 11381, "Ġmad": 11382, "(de": 11383, "Ġfro": 11384, "hus": 11385, "Ġcommittee": 11386, ",x": 11387, "Ġdivision": 11388, "optional": 11389, "ĠPhys": 11390, "ingu": 11391, "Ġsync": 11392, "ĠNa": 11393, "OLUM": 11394, "itÃ©": 11395, "Ġidentifier": 11396, "owed": 11397, "Ġextent": 11398, "Ġhur": 11399, "VA": 11400, "clar": 11401, "Ġedges": 11402, "Criteria": 11403, "Ġindeed": 11404, "inherit": 11405, "ĠNight": 11406, "Ġreporting": 11407, "Ġencounter": 11408, "Ġkinds": 11409, "_pred": 11410, "Ġconsidering": 11411, ".(": 11412, "Ġprotein": 11413, "Typ": 11414, "gricult": 11415, "ĠBall": 11416, "ĠEss": 11417, "ĠRub": 11418, "ulp": 11419, "ĠĠĠĠĠĠĠĠĠĠĠĠĠĠĠĠĠĠĠĠĠĠĠĠĠĠĠĠĠĠĠĠĠĠĠĠĠĠĠĠ": 11420, "itud": 11421, "iente": 11422, "Ġspell": 11423, "ĠJoe": 11424, "ENTER": 11425, "itan": 11426, "Ġmatters": 11427, "Ġemergency": 11428, "uated": 11429, "ĠChat": 11430, "arker": 11431, "iper": 11432, "Ġscheme": 11433, "Ġ*(": 11434, "ceiver": 11435, ".column": 11436, "Ġmarked": 11437, "Ġbodies": 11438, "Gap": 11439, "ĠPOST": 11440, "Ġcorporate": 11441, "Ġdimension": 11442, "Ġcontrast": 11443, "erview": 11444, "ĠERROR": 11445, "Ġcapable": 11446, "Ġadvertising": 11447, "ĠPA": 11448, "ĠFrancisco": 11449, "Ġfacing": 11450, "git": 11451, "Ġbeer": 11452, "Ġsky": 11453, "download": 11454, "ĠCur": 11455, "mc": 11456, "anny": 11457, ".floor": 11458, "Ġcriteria": 11459, "Ġaspect": 11460, "Ġbundle": 11461, "Could": 11462, "Ġtank": 11463, "-id": 11464, "Ġhurt": 11465, "Ġbroadcast": 11466, "ownt": 11467, "Cap": 11468, "Ġalcohol": 11469, "ĠColl": 11470, "ĠHelper": 11471, "ĠAf": 11472, ".method": 11473, "Ġplanned": 11474, "pler": 11475, "ĠSite": 11476, "Ġresc": 11477, "oment": 11478, "ĠJavaScript": 11479, "Ġrhs": 11480, "eres": 11481, "(\",": 11482, "ifi": 11483, "Ġparking": 11484, "Ġisland": 11485, "Ġsister": 11486, "Constraints": 11487, "ĠAust": 11488, "dim": 11489, "_points": 11490, "Ġgap": 11491, "_active": 11492, "Ġvoor": 11493, "ĠPO": 11494, "Bag": 11495, "-scale": 11496, "lambda": 11497, "rule": 11498, "Ġowned": 11499, "ĠMedical": 11500, "entries": 11501, "Ġsolar": 11502, "Ġresulting": 11503, "Ġestimated": 11504, "Ġimproved": 11505, "Duration": 11506, "$.": 11507, "Actions": 11508, "Like": 11509, ",(": 11510, "%s": 11511, "Ġpixel": 11512, "Ġadapter": 11513, "Ġrevenue": 11514, "ogram": 11515, "ĠLA": 11516, "ĠMachine": 11517, "ĠØ§": 11518, "Ġfle": 11519, "Ġbike": 11520, "Ġdisp": 11521, "Ġconsistent": 11522, "aÃ§Ã£o": 11523, "gender": 11524, "ĠThose": 11525, "perience": 11526, "Ġrush": 11527, "Ġneck": 11528, "_mem": 11529, "_first": 11530, "CB": 11531, "Ġseq": 11532, "har": 11533, "Ġhits": 11534, "ĠâĤ¬": 11535, "Ġcontained": 11536, "rient": 11537, "water": 11538, "ĠVirginia": 11539, "ĠArm": 11540, "Ġ./": 11541, "Â»": 11542, "_root": 11543, "Ġassistance": 11544, "[],": 11545, "sync": 11546, "Ġveget": 11547, "escape": 11548, "icer": 11549, "boost": 11550, "ĠFloat": 11551, "-W": 11552, "*>": 11553, ".pos": 11554, "Ġboys": 11555, "Ġagents": 11556, "ĠArmy": 11557, "Ġhint": 11558, "vision": 11559, "Ġtech": 11560, "ĠConnect": 11561, "Ġlegend": 11562, "ĠBet": 11563, "Subject": 11564, "Ġlit": 11565, "Remove": 11566, "Ġ\":": 11567, "ĠFinal": 11568, "pearance": 11569, "Ġparticipants": 11570, "ĠPython": 11571, "Ġbusy": 11572, "iel": 11573, "vertices": 11574, "ĠClose": 11575, "Img": 11576, "ĠCorporation": 11577, "timestamp": 11578, "Ġextend": 11579, "Ġwebsites": 11580, "Ġpossibility": 11581, "Ð¾ÑĤ": 11582, "ĠkÃ¶": 11583, "Ġmeat": 11584, "Ġrepresentation": 11585, ".apply": 11586, "ĠValley": 11587, "ĠSuccess": 11588, "Hi": 11589, "Ġnob": 11590, "_select": 11591, "geo": 11592, "Ġturning": 11593, "Ġfabric": 11594, "Ġperspective": 11595, "ĠSn": 11596, "Thank": 11597, ";j": 11598, "Ġfacts": 11599, "Ġunt": 11600, "################################################################": 11601, "-end": 11602, "ĠHen": 11603, "ĠÐ½Ð°": 11604, "ĠInfo": 11605, "Ġconducted": 11606, "ĠÃ¥": 11607, "OURCE": 11608, "Ġwine": 11609, "John": 11610, "ĠAge": 11611, "ounded": 11612, "Ġrealize": 11613, "Ġ];": 11614, "Ġsubsequ": 11615, ",m": 11616, "iano": 11617, "Ġaccompl": 11618, "isp": 11619, ".std": 11620, "ĠBed": 11621, "BR": 11622, "keep": 11623, "ĠALL": 11624, "Ġisol": 11625, "amma": 11626, "Package": 11627, "Ġoccasion": 11628, "strip": 11629, "istribution": 11630, "Colors": 11631, "aler": 11632, "Ġtid": 11633, "ĠLED": 11634, "ĠLinked": 11635, "ĠCart": 11636, "Ġkilling": 11637, "ĠPHP": 11638, "fection": 11639, "Ġinstances": 11640, "cv": 11641, "\"/>": 11642, "Ġsf": 11643, "Ġtaxes": 11644, "_location": 11645, "ĠBitcoin": 11646, "uable": 11647, "rank": 11648, "ignore": 11649, "track": 11650, "ÐºÐ°": 11651, "Ġshouldn": 11652, "ĠOP": 11653, "Ġkm": 11654, "Ġhelper": 11655, "_head": 11656, "ĠWhether": 11657, "oco": 11658, "_bl": 11659, "Ġstatistics": 11660, "Ġbeauty": 11661, "Ġtog": 11662, "tip": 11663, "Ġcsv": 11664, "weak": 11665, "Ġlikes": 11666, "Äį": 11667, "Ġrepeat": 11668, "Ġapartment": 11669, "Ġemph": 11670, "Ġvit": 11671, "Even": 11672, "uten": 11673, "Ġcircumstances": 11674, "bian": 11675, "Ġsugar": 11676, "Windows": 11677, "Ġobserved": 11678, "/data": 11679, "Ġcalendar": 11680, "Ġstrike": 11681, "ĠRES": 11682, "_sc": 11683, "orem": 11684, "(z": 11685, "power": 11686, "etect": 11687, "ĠSat": 11688, ".description": 11689, "Ġgang": 11690, "ĠSports": 11691, "ongs": 11692, "ĠBundle": 11693, ".sum": 11694, "once": 11695, "Ġexplore": 11696, "Ġapproximately": 11697, "Ġlosing": 11698, "thesis": 11699, "ĠFund": 11700, "Ġdiagn": 11701, "properties": 11702, "Ġcnt": 11703, "cedure": 11704, "Ġyy": 11705, "Ġgrant": 11706, "ĠCONFIG": 11707, "UND": 11708, "Ġglob": 11709, "Ġdire": 11710, "uffle": 11711, "Ġauthentic": 11712, "Ġdecade": 11713, "ĠImport": 11714, "Ġoriginally": 11715, "Ġindicate": 11716, "Ġourselves": 11717, "Sw": 11718, ".lbl": 11719, "enerate": 11720, "Ġbasically": 11721, "ĠHom": 11722, "ĠBritain": 11723, "ĠKar": 11724, "Ġmodal": 11725, "isi": 11726, "Ġsuggests": 11727, "Ġdtype": 11728, "Ġtur": 11729, "bf": 11730, "Ġconnections": 11731, "ĠBefore": 11732, "isted": 11733, "mouse": 11734, "Ġpulled": 11735, "Ġlegislation": 11736, "Ġforth": 11737, "pad": 11738, "ego": 11739, ".Now": 11740, "Ġexciting": 11741, "Ġcompr": 11742, "Ġshares": 11743, "Ġrig": 11744, "green": 11745, "_vec": 11746, "Ġenumerate": 11747, "Auto": 11748, "icator": 11749, "ĠRay": 11750, "asse": 11751, "Ġholiday": 11752, "gun": 11753, "Ġwrapper": 11754, "seq": 11755, "ĠYoung": 11756, "license": 11757, "serve": 11758, "^(": 11759, "iders": 11760, "'S": 11761, "pin": 11762, "Ġreasonable": 11763, "ampion": 11764, "ĠSociety": 11765, "Ġbei": 11766, "erves": 11767, "rad": 11768, "ĠFox": 11769, "_images": 11770, "Ġwheel": 11771, "')[": 11772, "Ġcfg": 11773, "(By": 11774, "Ġvary": 11775, "Ġproxy": 11776, "ĠAnother": 11777, "ĠPen": 11778, "Ġchecking": 11779, "Ġjest": 11780, "Origin": 11781, "ugs": 11782, "oir": 11783, "><!--": 11784, "Ġexpressed": 11785, "Ġmoder": 11786, "Ġagencies": 11787, "-hidden": 11788, "iously": 11789, "ĠRod": 11790, "Ġsole": 11791, "Med": 11792, "Ġpc": 11793, "bal": 11794, "Example": 11795, "ĠSale": 11796, "Ġstrip": 11797, "ĠComp": 11798, "Ġpresidential": 11799, "Most": 11800, "putation": 11801, "(ref": 11802, "ĠFour": 11803, "_filename": 11804, "Ġenforcement": 11805, "Ø¯": 11806, "ĠGeorg": 11807, "weights": 11808, "/l": 11809, "Ġaggress": 11810, "Ġdrawing": 11811, "andy": 11812, "-j": 11813, "aka": 11814, "href": 11815, "Ġteachers": 11816, "_Q": 11817, "(it": 11818, "ĠMB": 11819, "Ġtemporary": 11820, "stra": 11821, "(label": 11822, "oup": 11823, "Ġtopics": 11824, "Ġportion": 11825, "idos": 11826, "ĠJewish": 11827, "Ġrecovery": 11828, "Ġstands": 11829, "#[": 11830, "Ġafternoon": 11831, "ĠArticle": 11832, "Ġexplan": 11833, "ĠPak": 11834, "Ġik": 11835, "+(": 11836, "lag": 11837, "Ġdisk": 11838, "Ġcontrovers": 11839, "asp": 11840, "Ġwie": 11841, "ĠAustralian": 11842, "ĠYouTube": 11843, "contains": 11844, "duce": 11845, "ĠMatt": 11846, "atern": 11847, "Ġvolunte": 11848, "Ġnewsp": 11849, "VP": 11850, "oltip": 11851, "Ġdelegate": 11852, "Ġaccurate": 11853, "ĠExample": 11854, "%,": 11855, "ĠDaily": 11856, "Ġcabin": 11857, "ĠSW": 11858, "Ġlimits": 11859, "kip": 11860, "Ġarmy": 11861, "Ġending": 11862, "Ġboss": 11863, "ĠDialog": 11864, "Also": 11865, "ordan": 11866, "rowse": 11867, "-min": 11868, "Ġ\"&": 11869, "_loc": 11870, "UX": 11871, "Ġdevelopers": 11872, "Ġaccuracy": 11873, "Ġmaintenance": 11874, "Ġheav": 11875, "Ġfilters": 11876, "Ġnarr": 11877, "ĠEmp": 11878, "ĠMobile": 11879, ".output": 11880, ".col": 11881, "Material": 11882, "uma": 11883, "Ġconsumers": 11884, "shift": 11885, "Ġpued": 11886, "Ġmini": 11887, "collection": 11888, "Ġkan": 11889, ".center": 11890, "History": 11891, "Ġbench": 11892, "());": 11893, "itories": 11894, "Ġcrowd": 11895, "_call": 11896, "Ġpowers": 11897, "-E": 11898, "Ġdismiss": 11899, "Ġtalks": 11900, "ĠChannel": 11901, "forward": 11902, "_control": 11903, "/src": 11904, "iest": 11905, "************************": 11906, "Ġbeta": 11907, "(color": 11908, "Ġeffectively": 11909, "Camera": 11910, "sd": 11911, "ussy": 11912, "Dict": 11913, "ĠEffect": 11914, "ibilities": 11915, "Ġreturning": 11916, "ĠFar": 11917, "Ġmodules": 11918, "ilation": 11919, "Ġ(%": 11920, "Ġstorm": 11921, "onna": 11922, "ĠEXP": 11923, "Ġspons": 11924, "Ġdispl": 11925, "ĠĠĠĠĠĠĠĠĠĠĠĠĠĠĠĠĠĠĠĠĠĠĠĠĠĠĠĠĠĠĠĠĠĠĠĠĠĠĠĠĠĠĠĠĠ": 11926, "fall": 11927, "_US": 11928, "etrics": 11929, "Ġhandles": 11930, "TL": 11931, "_amount": 11932, "owa": 11933, "brand": 11934, "ĠTool": 11935, "Ġusual": 11936, ".Z": 11937, "crement": 11938, "adium": 11939, "stock": 11940, "Ġserving": 11941, "ĠBon": 11942, "Ġlinear": 11943, "ĠTarget": 11944, "ĠRadio": 11945, "HL": 11946, "omatic": 11947, "agues": 11948, "inity": 11949, "diff": 11950, "quot": 11951, "Ġsymptoms": 11952, "[_": 11953, "ĠBul": 11954, "ĠFeb": 11955, "undo": 11956, "Ð¸Ñģ": 11957, "tras": 11958, "ĠPenn": 11959, "ĠSupreme": 11960, "}>": 11961, "ĠKim": 11962, "Ġga": 11963, "Ġartists": 11964, "ĠAbstract": 11965, "Ġham": 11966, "oval": 11967, "Ġcha": 11968, "aten": 11969, "Fixed": 11970, "Ġvulner": 11971, "ĠParameters": 11972, "quantity": 11973, "Ġya": 11974, "Ġsoul": 11975, "Ġsolo": 11976, "Ġpairs": 11977, "ĠGre": 11978, "_word": 11979, "ĠCC": 11980, "Ġgi": 11981, "zie": 11982, "Ġscheduled": 11983, "rotation": 11984, "gypt": 11985, "ulous": 11986, "ĠEll": 11987, "<!": 11988, "lp": 11989, "aha": 11990, "Copyright": 11991, "Ġdram": 11992, "Ġdiagram": 11993, "ĠMem": 11994, "Ġgarden": 11995, "Comp": 11996, "Ġattempts": 11997, "uffix": 11998, "Ġphilosoph": 11999, "_rel": 12000, "Ġsv": 12001, ".second": 12002, "anto": 12003, "ĠTele": 12004, "_local": 12005, "Ġaspects": 12006, "IBLE": 12007, "Ġrail": 12008, "Ġwidely": 12009, "ashed": 12010, "iar": 12011, "inf": 12012, "upper": 12013, "_results": 12014, "issing": 12015, "Ġequivalent": 12016, "Ġty": 12017, "Ġpotentially": 12018, "ĠRecord": 12019, "resentation": 12020, "ounding": 12021, "Ġreligion": 12022, "Ġconsc": 12023, "ĠLim": 12024, ".am": 12025, "Html": 12026, "PATH": 12027, "_spec": 12028, "orted": 12029, "idades": 12030, "_shape": 12031, "Ġkeeps": 12032, "ĠLoc": 12033, "ori": 12034, "ĠTEST": 12035, "unicip": 12036, "Ġregions": 12037, "Ġbelieves": 12038, "/en": 12039, "posite": 12040, "{'": 12041, "prepare": 12042, "_const": 12043, "sample": 12044, "ĠWilliams": 12045, "ĠAndrew": 12046, "Ġlayers": 12047, "azy": 12048, "ĠKn": 12049, "Ġacid": 12050, "ĠAsia": 12051, "Ġexcess": 12052, "Ġkeyboard": 12053, "ensus": 12054, "Ġcrew": 12055, "Ġmissed": 12056, "master": 12057, "ĠWild": 12058, "Ġnewly": 12059, "Ġwinner": 12060, "Ġstub": 12061, "icode": 12062, "Domain": 12063, "ĠSar": 12064, "Ġforest": 12065, "LED": 12066, "claimer": 12067, "ĠWindow": 12068, "Ġresistance": 12069, "ĠRyan": 12070, "Ġpipe": 12071, "Ġcoast": 12072, "DEF": 12073, "exit": 12074, "Ġultimately": 12075, "imitive": 12076, "ĠKeep": 12077, "Ġhistorical": 12078, "Ġanyway": 12079, "ĠJackson": 12080, "ocker": 12081, "ERN": 12082, "yntax": 12083, "ERY": 12084, "isms": 12085, "Ġcn": 12086, "Ġoccurs": 12087, "Ġ;;": 12088, "AE": 12089, "/img": 12090, "Ġyesterday": 12091, "-default": 12092, "Ġtiny": 12093, "Ġproc": 12094, "Ġalive": 12095, "ĠREG": 12096, ".th": 12097, "earing": 12098, "<link": 12099, "Folder": 12100, "abc": 12101, "Ð½Ð¾": 12102, "Ġnoticed": 12103, "Ġedition": 12104, "imator": 12105, "Ġyards": 12106, "Ġverbose": 12107, "Ð»Ñı": 12108, "ĠMid": 12109, "Ã©es": 12110, "Ġglo": 12111, "Ġbuildings": 12112, "Ġze": 12113, "ĠIter": 12114, "Ġtube": 12115, "ĠPot": 12116, "\\M": 12117, "bridge": 12118, "ĠScript": 12119, "ĠModule": 12120, "Ġvacc": 12121, "Ġinstallation": 12122, "vy": 12123, "ĠSM": 12124, ".total": 12125, "bat": 12126, "Ġfinds": 12127, "Ġatmos": 12128, "izard": 12129, "Ġreplacement": 12130, "licated": 12131, "Ġlogged": 12132, "ĠLeft": 12133, "_Type": 12134, "tm": 12135, "Pad": 12136, "Ġhousehold": 12137, "Ġrele": 12138, "Ġproposal": 12139, "::::": 12140, "Ġinfrastructure": 12141, "/html": 12142, "Ġads": 12143, "izza": 12144, "Ġmg": 12145, "ctrine": 12146, "<html": 12147, "-image": 12148, "<m": 12149, "Ġcann": 12150, "oose": 12151, "Ġyellow": 12152, ".exp": 12153, "away": 12154, "Ġopposition": 12155, "ĠAgain": 12156, "ĠHandle": 12157, "Ġexclusive": 12158, "inar": 12159, "Ã©r": 12160, "ĠCODE": 12161, "emporary": 12162, "Ġreact": 12163, "pipe": 12164, "cz": 12165, "Ġlargely": 12166, "Ġdiss": 12167, "axy": 12168, "esis": 12169, "ĠRen": 12170, "Ġcorn": 12171, "days": 12172, "Ġfruit": 12173, "Insert": 12174, "_enc": 12175, "Est": 12176, "_dec": 12177, "ĠLuc": 12178, "ĠÃ¼ber": 12179, "parameters": 12180, "express": 12181, "Unknown": 12182, "Ġrevolution": 12183, ".address": 12184, "Ġuniform": 12185, "ĠPack": 12186, "lar": 12187, "Ġdepends": 12188, "Validation": 12189, "confirm": 12190, "Owner": 12191, "Ġtrib": 12192, "het": 12193, "ĠIde": 12194, "ansas": 12195, "Language": 12196, "uet": 12197, "ĠPo": 12198, "ĠSteve": 12199, "Ġcontest": 12200, "Ġapparently": 12201, "Ġfrequently": 12202, "Ġtradition": 12203, "ocolate": 12204, "SI": 12205, "ĠArgument": 12206, "Focus": 12207, "erte": 12208, "ĠLayout": 12209, "Ġdx": 12210, "Ġgenerator": 12211, "ĠWait": 12212, "Policy": 12213, "lights": 12214, "Py": 12215, "Ġbedroom": 12216, "eda": 12217, "raid": 12218, "Ġancient": 12219, "Ġpump": 12220, "Ġdw": 12221, "Ġspecify": 12222, "(status": 12223, "Ġremark": 12224, "lymp": 12225, "antee": 12226, "ernet": 12227, "inent": 12228, "ĠRender": 12229, "dm": 12230, "ĠMemory": 12231, "rich": 12232, "ĠTools": 12233, "Ġkne": 12234, "Ġperm": 12235, "bad": 12236, "Ġdinner": 12237, "Feature": 12238, "Ġreferred": 12239, "Ġneither": 12240, "Ġcounty": 12241, "Ġ\"{": 12242, "Ġtack": 12243, "ĠUSER": 12244, "Ġrenew": 12245, "``": 12246, "Ġbrown": 12247, "Errors": 12248, "erto": 12249, "Ġsustain": 12250, "SO": 12251, "letes": 12252, "ĠInvalid": 12253, "unge": 12254, "Ġexistence": 12255, "erra": 12256, "ĊĠĠĊ": 12257, "utorial": 12258, "pay": 12259, "charge": 12260, "ĠIre": 12261, "atest": 12262, "Ġexplos": 12263, "Ġfired": 12264, "NER": 12265, "ĠTy": 12266, "icion": 12267, "Ġobviously": 12268, "ĠColum": 12269, "Ġ'+": 12270, "ĠDevice": 12271, "-related": 12272, "Ġvor": 12273, "ĠLesser": 12274, "Ġupgrade": 12275, "Light": 12276, "Ġcodes": 12277, "Ġwrites": 12278, "food": 12279, "ĠÃ©t": 12280, "@section": 12281, "Ġtracks": 12282, "Ġseriously": 12283, "cht": 12284, "Ġimmediate": 12285, "Ġscientists": 12286, "Ġ{$": 12287, "_ne": 12288, "Ġaccommod": 12289, "ĠHarry": 12290, "Ġsight": 12291, "ersistent": 12292, "ĠÑĥ": 12293, "-input": 12294, "Ġcoordinates": 12295, "Â·": 12296, "Welcome": 12297, ".conf": 12298, "Ġgrew": 12299, "Ġbold": 12300, "ĠCPU": 12301, "(my": 12302, "Ġperfectly": 12303, "Ġmoments": 12304, "ĠMovie": 12305, "-data": 12306, "ystal": 12307, "ĠScreen": 12308, "Ġdisap": 12309, "Ġreduction": 12310, "Ġgeneric": 12311, "Ġdy": 12312, "aller": 12313, "Ġcurl": 12314, "ĠBody": 12315, "Ġbanks": 12316, ",t": 12317, "avg": 12318, "Ġevil": 12319, "Ġmanufacturer": 12320, "Ġreceiver": 12321, "Columns": 12322, "Ġingredients": 12323, "ques": 12324, "Ġslowly": 12325, "ĠTown": 12326, "ĠCell": 12327, "_normal": 12328, "_prefix": 12329, "ĠAlert": 12330, "(\"{": 12331, "Ã¤r": 12332, "ĠMD": 12333, "Ġcourses": 12334, "athan": 12335, "occ": 12336, "ĠSER": 12337, "esign": 12338, "=['": 12339, "]}": 12340, ".font": 12341, "ĠInstagram": 12342, "ĠBorder": 12343, "oda": 12344, "Ġhall": 12345, "Ġrum": 12346, "Ġsaving": 12347, "_down": 12348, "Random": 12349, "Ġopposite": 12350, "Room": 12351, "YES": 12352, "Ġenjoyed": 12353, "_run": 12354, "Clear": 12355, "âĢĺ": 12356, "ĠFord": 12357, "onic": 12358, "\"])": 12359, "_auth": 12360, "Ġsufficient": 12361, "LES": 12362, "Ġphen": 12363, "Ġoh": 12364, "_csv": 12365, "Ġroutine": 12366, "aylor": 12367, "Ġbasket": 12368, "rypted": 12369, "Sim": 12370, "ĠShop": 12371, "Ġstudio": 12372, "atos": 12373, "(W": 12374, "[string": 12375, "Ã¤t": 12376, "oga": 12377, "Ġshr": 12378, "Ġsick": 12379, "Another": 12380, "Ġdoors": 12381, "_NE": 12382, "ĠTHREE": 12383, ".order": 12384, "razil": 12385, "Ġmaps": 12386, "translate": 12387, "Ġnearby": 12388, "Ġnach": 12389, "LOAT": 12390, "batch": 12391, "Ġlux": 12392, "ashes": 12393, "angers": 12394, "Ġacts": 12395, "inv": 12396, "ccion": 12397, "Ġretain": 12398, "utch": 12399, "Ġknowing": 12400, "Ġrepresenting": 12401, "NOT": 12402, "png": 12403, "Contract": 12404, "Ġtrick": 12405, "ĠEdition": 12406, "uplicate": 12407, "Ġcontrolled": 12408, "cfg": 12409, "Ġmilk": 12410, "White": 12411, "Sequence": 12412, "awa": 12413, "Ġdiscussed": 12414, "ĠBush": 12415, "ĠYES": 12416, "tags": 12417, "Ġtact": 12418, "Ġsid": 12419, "$$": 12420, "ĠEnum": 12421, "Ġframes": 12422, "});": 12423, "Ġregul": 12424, "Region": 12425, "fff": 12426, "Ġcro": 12427, "(com": 12428, "=\"+": 12429, "Student": 12430, "Ġdisappoint": 12431, "RESULT": 12432, "Counter": 12433, "Ġbutter": 12434, "ĠHa": 12435, "ĠDigital": 12436, "Ġbid": 12437, "ingers": 12438, "ĠCountry": 12439, "/k": 12440, "dating": 12441, ":#": 12442, "ĠDATA": 12443, "ynchron": 12444, "_body": 12445, "Ġvalor": 12446, "ipient": 12447, "oft": 12448, "UBL": 12449, "docs": 12450, "Ġsynchron": 12451, "Ġformed": 12452, "ruption": 12453, "Ġlista": 12454, "Ġvillage": 12455, "Ġknock": 12456, "ocs": 12457, "\"{": 12458, "Ġtransactions": 12459, "Ġhabit": 12460, "ĠJe": 12461, "eden": 12462, "Ġaircraft": 12463, "irk": 12464, "ĠAB": 12465, "Ġfairly": 12466, ".inter": 12467, "Ġinstrument": 12468, "(min": 12469, "Ġot": 12470, "Ġcolle": 12471, "=s": 12472, "Ġids": 12473, "ĠMatch": 12474, "ijn": 12475, "zero": 12476, "Ġnetworks": 12477, ".gov": 12478, "Ġintel": 12479, "Ġsections": 12480, "outine": 12481, "(dir": 12482, "ĠBlog": 12483, "Ġbridge": 12484, "ĠCV": 12485, "convert": 12486, "ĠBern": 12487, "eval": 12488, "(set": 12489, "tool": 12490, "Ġpayments": 12491, "Behaviour": 12492, "Ġconcrete": 12493, "Ġelig": 12494, "Ġacceler": 12495, "Ġhole": 12496, "_o": 12497, "Ġgraphics": 12498, "Own": 12499, "onder": 12500, "Ġpackages": 12501, "/a": 12502, "ĠKnow": 12503, "Ġduty": 12504, "Wait": 12505, "Ð½Ð°": 12506, "[t": 12507, "Mesh": 12508, "Ġongoing": 12509, "Ġtan": 12510, "Ġinterpret": 12511, "asters": 12512, "QUAL": 12513, "Ġlegs": 12514, "-file": 12515, "ĠSaint": 12516, "Ġprohib": 12517, ":=": 12518, "linux": 12519, "Ġblo": 12520, "otic": 12521, "_exp": 12522, "ĠStop": 12523, "aping": 12524, "_push": 12525, "Ġease": 12526, "strcmp": 12527, "oli": 12528, "Ġextreme": 12529, "Ġprofessor": 12530, "Images": 12531, "Ġaddresses": 12532, "plemented": 12533, "Ġincorpor": 12534, "ĠDa": 12535, "IRST": 12536, "Ġdiscrim": 12537, "Ġcompens": 12538, "gregate": 12539, "ancell": 12540, "aches": 12541, "ĠCriteria": 12542, "Ġsecondary": 12543, "Watch": 12544, "ĠSem": 12545, "ĠMcC": 12546, "Ġacademic": 12547, "Upper": 12548, "utral": 12549, "ĠDog": 12550, "aded": 12551, "Ġderived": 12552, "ĠKen": 12553, "Ġtypical": 12554, "ĠBob": 12555, "Ġbounds": 12556, "ĠSeason": 12557, "Ġcrazy": 12558, "ĠĠĠĠĠĠĠĠĠĠĠĠĠĠĠĠĠĠĠĠĠĠĠĠĠĠĠĠĠĠĠĠĠĠĠĠĠĠĠĠĠĠ": 12559, "ĠMir": 12560, "Ġemotional": 12561, ",v": 12562, "cn": 12563, "/st": 12564, "onom": 12565, "Ġdeclared": 12566, ">.": 12567, "ailing": 12568, "Ġnormally": 12569, "evin": 12570, "likely": 12571, "Ġpointed": 12572, "ĠStack": 12573, "Ġwalls": 12574, "mean": 12575, "Ġlistening": 12576, "adv": 12577, "Ġswap": 12578, "IFT": 12579, "Øª": 12580, ".argv": 12581, "uls": 12582, "notations": 12583, "Ġemails": 12584, "ĠUkr": 12585, "asta": 12586, "ĠThus": 12587, "ĠStone": 12588, "Ġappeal": 12589, ".âĢĻ": 12590, "Ġregulations": 12591, "Preferences": 12592, "ĠPhone": 12593, "ulf": 12594, "ĠDR": 12595, "Ġtechnologies": 12596, "Ġparagraph": 12597, "Ġnecessarily": 12598, "Ġunderst": 12599, "Ġfinger": 12600, "pressed": 12601, "-by": 12602, "iffer": 12603, "watch": 12604, "ĠBa": 12605, "AIM": 12606, "Ġweights": 12607, "ĠRon": 12608, "')}}": 12609, "periment": 12610, "xic": 12611, "ĠCamera": 12612, "aurant": 12613, "Prefix": 12614, "Ġinstitutions": 12615, ":int": 12616, "Ġexposure": 12617, "pattern": 12618, "ĠLinux": 12619, ".number": 12620, "redient": 12621, "\"},": 12622, "Ġelectronic": 12623, "rong": 12624, "erd": 12625, "rait": 12626, "ĠOhio": 12627, "Ġcontinuing": 12628, "ĠTemplate": 12629, "ĠEth": 12630, "sz": 12631, "/env": 12632, "Env": 12633, "%.": 12634, "arters": 12635, ")((": 12636, "ĠTABLE": 12637, "ĠÃ®": 12638, "perature": 12639, "progress": 12640, "Pres": 12641, "implementation": 12642, "Ġbien": 12643, "Ġstreets": 12644, "News": 12645, "###": 12646, ":/": 12647, "Ġcutting": 12648, "xB": 12649, "ressed": 12650, "lab": 12651, "Ġcausing": 12652, "bra": 12653, "illy": 12654, "pletion": 12655, "will": 12656, "_bar": 12657, "Ġstructures": 12658, "ĠImp": 12659, "ÛĮ": 12660, "Ġ<>": 12661, "Ġ----------------": 12662, ".dir": 12663, "Ġplain": 12664, "Ġpeer": 12665, "gg": 12666, "oints": 12667, "Ġsomewhat": 12668, "Ġwet": 12669, "Ġemployment": 12670, "Ġtickets": 12671, "irms": 12672, "Ġtuple": 12673, "sis": 12674, "rig": 12675, "Ġconversion": 12676, "Ġges": 12677, "Ġconfigure": 12678, "egr": 12679, "ĠCa": 12680, "Black": 12681, "Ġmagazine": 12682, "AW": 12683, "osing": 12684, "Ġbroke": 12685, "Ġdestroyed": 12686, "Ġapproval": 12687, "-dom": 12688, "ĠIII": 12689, "Ġdesigns": 12690, "Ġcrushing": 12691, "Ġconsent": 12692, "dirname": 12693, "omp": 12694, "Ġcrypt": 12695, "?(": 12696, "orough": 12697, ".o": 12698, "amsung": 12699, "erring": 12700, "Google": 12701, "_pair": 12702, "remarks": 12703, "Ġgear": 12704, "Fill": 12705, "life": 12706, "Ġsuitable": 12707, "Ġsurprised": 12708, "Ġmanifest": 12709, "atten": 12710, "Ġfrustr": 12711, "ovement": 12712, "Ġii": 12713, "Ġexpansion": 12714, "igs": 12715, "Parse": 12716, "Rob": 12717, "_layout": 12718, "Ġtranslation": 12719, "ĠBeaut": 12720, "Best": 12721, "Ġliquid": 12722, "ITS": 12723, "Ġprod": 12724, "Ġoperate": 12725, "Ġnatur": 12726, "argument": 12727, "ĠCentre": 12728, "Ġ\"--": 12729, "locale": 12730, "_seq": 12731, "Ġupcoming": 12732, "Chart": 12733, "ĠDivision": 12734, "Ġclinical": 12735, "Company": 12736, "Separ": 12737, "las": 12738, "ĠHun": 12739, ":s": 12740, "Ġheading": 12741, "[id": 12742, "bia": 12743, "Ġstretch": 12744, "icide": 12745, "Ġreprodu": 12746, "legend": 12747, "enders": 12748, "Ġresponses": 12749, "Ġont": 12750, "ritical": 12751, "ĠLi": 12752, "ĠThree": 12753, "jax": 12754, "Ġâĸ": 12755, "Ġcovers": 12756, "-.": 12757, "Ġfails": 12758, "includes": 12759, "Ġfault": 12760, "Ġly": 12761, "Ã±o": 12762, "ĠPur": 12763, "ĠAsian": 12764, "_batch": 12765, "vl": 12766, "Ġgiant": 12767, "ĠManual": 12768, "ĠCopy": 12769, "Health": 12770, "Ġtwe": 12771, "_labels": 12772, "Ġcollected": 12773, "Ġfurniture": 12774, "Ġdealing": 12775, "Controls": 12776, "cks": 12777, "Ġchose": 12778, "âĶĢ": 12779, "odd": 12780, "SR": 12781, "ÙĬ": 12782, "Ġaccord": 12783, "ĠMove": 12784, "ĠMode": 12785, "Ġthreads": 12786, "++++": 12787, "ĠOptions": 12788, "ĠDid": 12789, "ucc": 12790, ".abs": 12791, "ĠWal": 12792, "erior": 12793, "Ġmainly": 12794, "ĠDriver": 12795, "Ġcounts": 12796, "eam": 12797, "Ġ&=": 12798, "Question": 12799, "ĠAli": 12800, "Ġanymore": 12801, "detail": 12802, "tail": 12803, "Ġmile": 12804, "ĠFair": 12805, "Ġsorry": 12806, "Ġsurrounding": 12807, "Ġadm": 12808, "Dev": 12809, "ĠSound": 12810, "ĠAsh": 12811, "FD": 12812, "Team": 12813, "ubble": 12814, "Ġasc": 12815, "Ġintention": 12816, "Acc": 12817, "chi": 12818, "usters": 12819, "Ġinspired": 12820, "seg": 12821, "CLU": 12822, "Ġmanip": 12823, "Metadata": 12824, "Connect": 12825, "ĠBeh": 12826, "Ġfindings": 12827, "Ġassembly": 12828, "world": 12829, "Ġremained": 12830, "(.": 12831,
[...]
