{"version": "1.0", "truncation": null, "padding": null, "added_tokens": [{"id": 65510, "content": "<|endoftext|>", "single_word": false, "lstrip": false, "rstrip": false, "normalized": false, "special": true}, {"id": 65511, "content": "<|im_start|>", "single_word": false, "lstrip": false, "rstrip": false, "normalized": false, "special": true}, {"id": 65512, "content": "<|im_end|>", "single_word": false, "lstrip": false, "rstrip": false, "normalized": false, "special": true}, {"id": 65513, "content": "<|object_ref_start|>", "normalized": false, "lstrip": false, "rstrip": false, "single_word": false, "special": true}, {"id": 65514, "content": "<|object_ref_end|>", "normalized": false, "lstrip": false, "rstrip": false, "single_word": false, "special": true}, {"id": 65515, "content": "<|box_start|>", "normalized": false, "lstrip": false, "rstrip": false, "single_word": false, "special": true}, {"id": 65516, "content": "<|box_end|>", "normalized": false, "lstrip": false, "rstrip": false, "single_word": false, "special": true}, {"id": 65517, "content": "<|quad_start|>", "normalized": false, "lstrip": false, "rstrip": false, "single_word": false, "special": true}, {"id": 65518, "content": "<|quad_end|>", "normalized": false, "lstrip": false, "rstrip": false, "single_word": false, "special": true}, {"id": 65519, "content": "<|vision_start|>", "normalized": false, "lstrip": false, "rstrip": false, "single_word": false, "special": true}, {"id": 65520, "content": "<|vision_end|>", "normalized": false, "lstrip": false, "rstrip": false, "single_word": false, "special": true}, {"id": 65521, "content": "<|vision_pad|>", "normalized": false, "lstrip": false, "rstrip": false, "single_word": false, "special": true}, {"id": 65522, "content": "<|image_pad|>", "normalized": false, "lstrip": false, "rstrip": false, "single_word": false, "special": true}, {"id": 65523, "content": "<|video_pad|>", "normalized": false, "lstrip": false, "rstrip": false, "single_word": false, "special": true}, {"id": 65524, "content": "<tool_call>", "lstrip": false, "normalized": false, "rstrip": false, "single_word": false, "special": false}, {"id": 65525, "content": "</tool_call>", "lstrip": false, "normalized": false, "rstrip": false, "single_word": false, "special": false}, {"id": 65526, "content": "<|fim_prefix|>", "lstrip": false, "normalized": false, "rstrip": false, "single_word": false, "special": false}, {"id": 65527, "content": "<|fim_middle|>", "lstrip": false, "normalized": false, "rstrip": false, "single_word": false, "special": false}, {"id": 65528, "content": "<|fim_suffix|>", "lstrip": false, "normalized": false, "rstrip": false, "single_word": false, "special": false}, {"id": 65529, "content": "<|fim_pad|>", "lstrip": false, "normalized": false, "rstrip": false, "single_word": false, "special": false}, {"id": 65530, "content": "<|repo_name|>", "lstrip": false, "normalized": false, "rstrip": false, "single_word": false, "special": false}, {"id": 65531, "content": "<|file_sep|>", "lstrip": false, "normalized": false, "rstrip": false, "single_word": false, "special": false}, {"id": 65532, "content": "<tool_response>", "lstrip": false, "normalized": false, "rstrip": false, "single_word": false, "special": false}, {"id": 65533, "content": "</tool_response>", "lstrip": false, "normalized": false, "rstrip": false, "single_word": false, "special": false}, {"id": 65534, "content": "<think>", "lstrip": false, "normalized": false, "rstrip": false, "single_word": false, "special": false}, {"id": 65535, "content": "</think>", "lstrip": false, "normalized": false, "rstrip": false, "single_word": false, "special": false}], "normalizer": {"type": "NFC"}, "pre_tokenizer": {"type": "Sequence", "pretokenizers": [{"type": "Split", "pattern": {"Regex": "(?i:'s|'t|'re|'ve|'m|'ll|'d)|[^\\r\\n\\p{L}\\p{N}]?[\\p{L}\\p{M}]+|\\p{N}| ?[^\\s\\p{L}\\p{M}\\p{N}]+[\\r\\n]*|\\s*[\\r\\n]+|\\s+(?!\\S)|\\s+"}, "behavior": "Isolated", "invert": false}, {"type": "ByteLevel", "add_prefix_space": false, "trim_offsets": false, "use_regex": false}]}, "post_processor": {"type": "ByteLevel", "add_prefix_space": false, "trim_offsets": false, "use_regex": false}, "decoder": {"type": "ByteLevel", "add_prefix_space": false, "trim_offsets": false, "use_regex": false}, "model": {"type": "BPE", "dropout": null, "unk_token": null, "continuing_subword_prefix": "", "end_of_word_suffix": "", "fuse_unk": false, "byte_fallback": false, "ignore_merges": false, "vocab": {"!": 0, "\"": 1, "#": 2, "$": 3, "%": 4, "&": 5, "'": 6, "(": 7, ")": 8, "*": 9, "+": 10, ",": 11, "-": 12, ".": 13, "/": 14, "0": 15, "1": 16, "2": 17, "3": 18, "4": 19, "5": 20, "6": 21, "7": 22, "8": 23, "9": 24, ":": 25, ";": 26, "<": 27, "=": 28, ">": 29, "?": 30, "@": 31, "A": 32, "B": 33, "C": 34, "D": 35, "E": 36, "F": 37, "G": 38, "H": 39, "I": 40, "J": 41, "K": 42, "L": 43, "M": 44, "N": 45, "O": 46, "P": 47, "Q": 48, "R": 49, "S": 50, "T": 51, "U": 52, "V": 53, "W": 54, "X": 55, "Y": 56, "Z": 57, "[": 58, "\\": 59, "]": 60, "^": 61, "_": 62, "`": 63, "a": 64, "b": 65, "c": 66, "d": 67, "e": 68, "f": 69, "g": 70, "h": 71, "i": 72, "j": 73, "k": 74, "l": 75, "m": 76, "n": 77, "o": 78, "p": 79, "q": 80, "r": 81, "s": 82, "t": 83, "u": 84, "v": 85, "w": 86, "x": 87, "y": 88, "z": 89, "{": 90, "|": 91, "}": 92, "~": 93, "¡": 94, "¢": 95, "£": 96, "¤": 97, "¥": 98, "¦": 99, "§": 100, "¨": 101, "©": 102, "ª": 103, "«": 104, "¬": 105, "®": 106, "¯": 107, "°": 108, "±": 109, "²": 110, "³": 111, "´": 112, "µ": 113, "¶": 114, "·": 115, "¸": 116, "¹": 117, "º": 118, "»": 119, "¼": 120, "½": 121, "¾": 122, "¿": 123, "À": 124, "Á": 125, "Â": 126, "Ã": 127, "Ä": 128, "Å": 129, "Æ": 130, "Ç": 131, "È": 132, "É": 133, "Ê": 134, "Ë": 135, "Ì": 136, "Í": 137, "Î": 138, "Ï": 139, "Ð": 140, "Ñ": 141, "Ò": 142, "Ó": 143, "Ô": 144, "Õ": 145, "Ö": 146, "×": 147, "Ø": 148, "Ù": 149, "Ú": 150, "Û": 151, "Ü": 152, "Ý": 153, "Þ": 154, "ß": 155, "à": 156, "á": 157, "â": 158, "ã": 159, "ä": 160, "å": 161, "æ": 162, "ç": 163, "è": 164, "é": 165, "ê": 166, "ë": 167, "ì": 168, "í": 169, "î": 170, "ï": 171, "ð": 172, "ñ": 173, "ò": 174, "ó": 175, "ô": 176, "õ": 177, "ö": 178, "÷": 179, "ø": 180, "ù": 181, "ú": 182, "û": 183, "ü": 184, "ý": 185, "þ": 186, "ÿ": 187, "Ā": 188, "ā": 189, "Ă": 190, "ă": 191, "Ą": 192, "ą": 193, "Ć": 194, "ć": 195, "Ĉ": 196, "ĉ": 197, "Ċ": 198, "ċ": 199, "Č": 200, "č": 201, "Ď": 202, "ď": 203, "Đ": 204, "đ": 205, "Ē": 206, "ē": 207, "Ĕ": 208, "ĕ": 209, "Ė": 210, "ė": 211, "Ę": 212, "ę": 213, "Ě": 214, "ě": 215, "Ĝ": 216, "ĝ": 217, "Ğ": 218, "ğ": 219, "Ġ": 220, "ġ": 221, "Ģ": 222, "ģ": 223, "Ĥ": 224, "ĥ": 225, "Ħ": 226, "ħ": 227, "Ĩ": 228, "ĩ": 229, "Ī": 230, "ī": 231, "Ĭ": 232, "ĭ": 233, "Į": 234, "į": 235, "İ": 236, "ı": 237, "Ĳ": 238, "ĳ": 239, "Ĵ": 240, "ĵ": 241, "Ķ": 242, "ķ": 243, "ĸ": 244, "Ĺ": 245, "ĺ": 246, "Ļ": 247, "ļ": 248, "Ľ": 249, "ľ": 250, "Ŀ": 251, "ŀ": 252, "Ł": 253, "ł": 254, "Ń": 255, "ĠĠ": 256, "ĠĠĠĠ": 257, "in": 258, "Ġt": 259, "ĠĠĠĠĠĠĠĠ": 260, "er": 261, "ĠĠĠ": 262, "on": 263, "Ġa": 264, "re": 265, "at": 266, "st": 267, "en": 268, "or": 269, "Ġth": 270, "ĊĊ": 271, "Ġc": 272, "le": 273, "Ġs": 274, "it": 275, "an": 276, "ar": 277, "al": 278, "Ġthe": 279, "Ġp": 280, "Ġf": 281, "ou": 282, "Ġ=": 283, "is": 284, "ĠĠĠĠĠĠĠ": 285, "ing": 286, "es": 287, "Ġw": 288, "ion": 289, "ed": 290, "ic": 291, "Ġb": 292, "Ġd": 293, "et": 294, "Ġm": 295, "Ġo": 296, "ro": 297, "as": 298, "el": 299, "ct": 300, "nd": 301, "Ġin": 302, "Ġh": 303, "ent": 304, "id": 305, "Ġn": 306, "am": 307, "ĠĠĠĠĠĠĠĠĠĠĠ": 308, "Ġto": 309, "Ġre": 310, "--": 311, "Ġ{": 312, "Ġof": 313, "om": 314, "im": 315, "čĊ": 316, "Ġ(": 317, "il": 318, "//": 319, "Ġand": 320, "ur": 321, "se": 322, "Ġl": 323, "ex": 324, "ĠS": 325, "ad": 326, "Ġ\"": 327, "ch": 328, "ut": 329, "if": 330, "**": 331, "Ġ}": 332, "em": 333, "ol": 334, "ĠĠĠĠĠĠĠĠĠĠĠĠĠĠĠĠ": 335, "th": 336, "Ġg": 337, "ig": 338, "iv": 339, "ce": 340, "od": 341, "Ġv": 342, "ate": 343, "ĠT": 344, "ag": 345, "ay": 346, "Ġ*": 347, "ot": 348, "us": 349, "ĠC": 350, "Ġst": 351, "ĠI": 352, "un": 353, "ul": 354, "ue": 355, "ĠA": 356, "ow": 357, "Ġ'": 358, "ew": 359, "Ġ<": 360, "ation": 361, "()": 362, "Ġfor": 363, "ab": 364, "ort": 365, "um": 366, "ame": 367, "Ġis": 368, "pe": 369, "tr": 370, "ck": 371, "âĢ": 372, "Ġy": 373, "ist": 374, "----": 375, "he": 376, "Ġe": 377, "lo": 378, "ĠM": 379, "Ġbe": 380, "ers": 381, "Ġon": 382, "Ġcon": 383, "ap": 384, "ub": 385, "ĠP": 386, "ĠĠĠĠĠĠĠĠĠĠĠĠĠĠĠ": 387, "ass": 388, "int": 389, "ly": 390, "urn": 391, "Ġ$": 392, "av": 393, "port": 394, "ir": 395, "->": 396, "nt": 397, "ction": 398, "end": 399, "Ġde": 400, "ith": 401, "out": 402, "turn": 403, "our": 404, "ĠĠĠĠĠ": 405, "lic": 406, "res": 407, "pt": 408, "==": 409, "Ġthis": 410, "Ġwh": 411, "Ġif": 412, "ĠD": 413, "ver": 414, "age": 415, "ĠB": 416, "ht": 417, "ext": 418, "=\"": 419, "Ġthat": 420, "****": 421, "ĠR": 422, "Ġit": 423, "ess": 424, "ĠF": 425, "Ġr": 426, "os": 427, "and": 428, "Ġas": 429, "ect": 430, "ke": 431, "rom": 432, "Ġ//": 433, "con": 434, "ĠL": 435, "(\"": 436, "qu": 437, "lass": 438, "Ġwith": 439, "iz": 440, "de": 441, "ĠN": 442, "Ġal": 443, "op": 444, "up": 445, "get": 446, "ile": 447, "Ġan": 448, "ata": 449, "ore": 450, "ri": 451, "Ġpro": 452, "ter": 453, "ain": 454, "ĠW": 455, "ĠE": 456, "Ġcom": 457, "Ġreturn": 458, "art": 459, "ĠH": 460, "ack": 461, "import": 462, "ublic": 463, "Ġor": 464, "est": 465, "ment": 466, "ĠG": 467, "able": 468, "Ġ-": 469, "ine": 470, "ill": 471, "ind": 472, "ere": 473, "::": 474, "ity": 475, "Ġ+": 476, "Ġtr": 477, "elf": 478, "ight": 479, "('": 480, "orm": 481, "ult": 482, "str": 483, "..": 484, "\",": 485, "Ġyou": 486, "ype": 487, "pl": 488, "Ġnew": 489, "Ġj": 490, "ĠĠĠĠĠĠĠĠĠĠĠĠĠĠĠĠĠĠĠ": 491, "Ġfrom": 492, "Ġex": 493, "ĠO": 494, "ld": 495, "Ġ[": 496, "oc": 497, "Ġse": 498, "Ġle": 499, "--------": 500, ".s": 501, "',": 502, "ant": 503, "Ġat": 504, "ase": 505, ".c": 506, "Ġch": 507, "</": 508, "ave": 509, "ang": 510, "Ġare": 511, "Ġint": 512, "âĢĻ": 513, "_t": 514, "ert": 515, "ial": 516, "act": 517, "ive": 518, "ode": 519, "ost": 520, "Ġclass": 521, "Ġnot": 522, "og": 523, "ord": 524, "alue": 525, "all": 526, "ff": 527, "ont": 528, "ime": 529, "are": 530, "ĠU": 531, "Ġpr": 532, "Ġ:": 533, "ies": 534, "ize": 535, "ure": 536, "Ġby": 537, "ire": 538, ".p": 539, "Ġsh": 540, "ice": 541, "ast": 542, "ption": 543, "tring": 544, "ok": 545, "__": 546, "cl": 547, "##": 548, "Ġhe": 549, "ard": 550, ").": 551, "Ġ@": 552, "iew": 553, "Ġwas": 554, "ip": 555, "this": 556, "Ġu": 557, "ĠThe": 558, "ide": 559, "ace": 560, "ib": 561, "ac": 562, "rou": 563, "Ġwe": 564, "ject": 565, "Ġpublic": 566, "ak": 567, "ve": 568, "ath": 569, "oid": 570, "Ġ=>": 571, "ust": 572, "que": 573, "Ġres": 574, "))": 575, "'s": 576, "Ġk": 577, "ans": 578, "yst": 579, "unction": 580, "********": 581, "Ġi": 582, "Ġus": 583, "pp": 584, "one": 585, "ail": 586, "====": 587, "name": 588, "Ġstr": 589, "Ġ/": 590, "Ġ&": 591, "ach": 592, "div": 593, "ystem": 594, "ell": 595, "Ġhave": 596, "err": 597, "ould": 598, "ull": 599, "pon": 600, "ĠJ": 601, "_p": 602, "Ġ==": 603, "ign": 604, "St": 605, "Ġpl": 606, "form": 607, "put": 608, "ount": 609, "dd": 610, "ite": 611, "Ġget": 612, "rr": 613, "ome": 614, "ĠâĢ": 615, "aram": 616, "cc": 617, "Ġ*/": 618, "ER": 619, "In": 620, "les": 621, "_s": 622, "ong": 623, "ie": 624, "Ġcan": 625, "ĠV": 626, "erv": 627, "pr": 628, "Ġun": 629, "row": 630, "ber": 631, "Ġdo": 632, "ll": 633, "Ġel": 634, "Ġself": 635, "ated": 636, "ary": 637, "Ġ.": 638, "']": 639, "ud": 640, "Ġen": 641, "ĠTh": 642, "ĠĠĠĠĠĠĠĠĠĠĠĠĠĠĠĠĠĠĠĠĠĠĠ": 643, "te": 644, "_c": 645, "uct": 646, "Ġab": 647, "ork": 648, ".get": 649, "Ġ#": 650, "aw": 651, "ress": 652, "ob": 653, "Name": 654, "app": 655, "['": 656, "Ġall": 657, "ory": 658, "ition": 659, "ance": 660, "ear": 661, "Ġcont": 662, "vent": 663, "ia": 664, "Ġwill": 665, "IN": 666, "ĠĠĠĠĠĠĠĠĠ": 667, "return": 668, "Ġ</": 669, "data": 670, "Re": 671, "ple": 672, "ild": 673, "ther": 674, "Ġyour": 675, "($": 676, "Ġout": 677, "),": 678, "Ġhas": 679, "String": 680, "so": 681, "Ġup": 682, "ax": 683, "Ġdef": 684, "Ġbo": 685, "ge": 686, "alse": 687, "ON": 688, "per": 689, "ich": 690, "Ġbut": 691, "ĠĊ": 692, "Ġ_": 693, "_m": 694, "add": 695, "quest": 696, "odel": 697, "self": 698, "ery": 699, "ft": 700, "ens": 701, "////": 702, "ake": 703, ".C": 704, "Ġgo": 705, "Ġfunction": 706, "ĠK": 707, "ivate": 708, "Ġim": 709, "Ġconst": 710, ".t": 711, "Ġvoid": 712, "Ġset": 713, "ĠSystem": 714, "cri": 715, "li": 716, ".m": 717, "ally": 718, "set": 719, "ep": 720, "âĢĻs": 721, "bo": 722, "def": 723, "Ġme": 724, "Ġ!": 725, "atch": 726, "\">": 727, "ec": 728, "ĠIn": 729, "ph": 730, "Ġ|": 731, "_f": 732, "Ġvar": 733, "ence": 734, "Id": 735, "ree": 736, "ink": 737, "lect": 738, "ug": 739, "eth": 740, "Ġelse": 741, "----------------": 742, "cont": 743, "Ġso": 744, "atic": 745, "Ġlo": 746, "pro": 747, "ton": 748, "ss": 749, "own": 750, "abel": 751, "oint": 752, "ous": 753, "eld": 754, "ST": 755, "The": 756, "ĠĠĠĠĠĠĠĠĠĠĠĠĠĠĠĠĠĠĠĠĠĠĠĠĠĠĠĠĠĠĠĠ": 757, "RE": 758, "\":": 759, "olor": 760, "tp": 761, "eg": 762, "key": 763, "ude": 764, "ĠSt": 765, "ound": 766, "Ġar": 767, "ener": 768, "ser": 769, "bject": 770, "essage": 771, "fer": 772, "Ġmore": 773, "ations": 774, "ents": 775, "Ġhis": 776, "Ġthey": 777, ".S": 778, "ĠY": 779, "use": 780, "ne": 781, "ish": 782, "old": 783, "_d": 784, "io": 785, "ield": 786, "Ġper": 787, "Cont": 788, "ings": 789, "####": 790, "Ġdata": 791, "Ġsa": 792, "ef": 793, "fo": 794, "Ġone": 795, "eng": 796, "Ġdis": 797, "AT": 798, "Ġname": 799, "Ġtrue": 800, "val": 801, "led": 802, ".f": 803, "Ġne": 804, "Ġend": 805, ".T": 806, "cre": 807, "ark": 808, "log": 809, "Ex": 810, "error": 811, "_id": 812, "urre": 813, "ange": 814, "Ġnull": 815, "rray": 816, "Ġmy": 817, "pan": 818, "ict": 819, "ator": 820, "View": 821, "List": 822, "âĢĿ": 823, "Ġpre": 824, "Ġx": 825, "clude": 826, "arg": 827, "ov": 828, ".h": 829, "Ġ>": 830, "Ġtheir": 831, "')": 832, "irst": 833, "ick": 834, "gh": 835, "LE": 836, "OR": 837, "Ġprivate": 838, "tem": 839, "čĊčĊ": 840, "user": 841, "Ġ)": 842, "com": 843, ".A": 844, "Ġid": 845, "read": 846, "Ġwho": 847, "_b": 848, "Ġtime": 849, "Ġman": 850, "ry": 851, "========": 852, "roup": 853, "rop": 854, "public": 855, "vel": 856, "umber": 857, "ble": 858, "Ġwhich": 859, "****************": 860, "Ġany": 861, "Ġfalse": 862, "we": 863, "Ġvalue": 864, "Ġli": 865, "\")": 866, "nder": 867, "gr": 868, "Ġno": 869, "param": 870, "fig": 871, ".com": 872, "Ġapp": 873, "_l": 874, "ions": 875, ".D": 876, "ĠCh": 877, "Ġabout": 878, "Ġadd": 879, "Ġsu": 880, "Ġstring": 881, "ID": 882, "Ġover": 883, "string": 884, ".l": 885, "ource": 886, "_C": 887, "Ġqu": 888, "ĠString": 889, "ca": 890, "SE": 891, "Ġro": 892, "sh": 893, "ual": 894, "Type": 895, "son": 896, "new": 897, "ern": 898, "Ġag": 899, "AR": 900, "].": 901, "Ġ?": 902, "ical": 903, "Ġdes": 904, "uth": 905, "ix": 906, "ays": 907, "Ġtype": 908, "'t": 909, "ault": 910, "Ġinter": 911, "var": 912, ".b": 913, "Ġpart": 914, ".d": 915, "urrent": 916, "IT": 917, "EN": 918, "enc": 919, "(f": 920, "ra": 921, "value": 922, "cho": 923, "utton": 924, "ose": 925, "Ġ!=": 926, "ater": 927, "Ã©": 928, "reate": 929, "oll": 930, "pos": 931, "yle": 932, "ng": 933, "AL": 934, "using": 935, "ames": 936, "ates": 937, "ely": 938, "Ġwork": 939, "Ġem": 940, "inal": 941, "Ġsp": 942, "Ġwhen": 943, ".set": 944, "ĠĠĠĠĠĠ": 945, "to": 946, "quire": 947, "indow": 948, "lement": 949, "pect": 950, "ash": 951, "[i": 952, "Ġuse": 953, ".F": 954, "pec": 955, "Ġad": 956, "ove": 957, "ception": 958, "ength": 959, "include": 960, "ader": 961, "ĠĠĠĠĠĠĠĠĠĠĠĠĠĠĠĠĠĠĠĠĠĠĠĠĠĠĠ": 962, "atus": 963, "Th": 964, "itle": 965, "rit": 966, "void": 967, "().": 968, "Ġoff": 969, "Ġother": 970, "Ġ&&": 971, "ms": 972, "Ġbeen": 973, "Ġte": 974, "ml": 975, "co": 976, "nc": 977, "ervice": 978, "Ġ%": 979, "ann": 980, "ade": 981, "lock": 982, "const": 983, "ponse": 984, "Ġsup": 985, "++": 986, "date": 987, "Ġacc": 988, "Ġhad": 989, "Ġbu": 990, "ĠRe": 991, "Ġwere": 992, "Ġfile": 993, "Ġwould": 994, "ĠâĢľ": 995, "ven": 996, "iss": 997, "Ġour": 998, "class": 999, "raw": 1000, "Ġyear": 1001, "Data": 1002, "Ġval": 1003, "Ġsome": 1004, "fter": 1005, "ys": 1006, "Ġ///": 1007, "round": 1008, "view": 1009, "Ġpe": 1010, "Ġthere": 1011, "Ġsaid": 1012, "du": 1013, "of": 1014, "line": 1015, "/*": 1016, "duct": 1017, "Ġher": 1018, "ĠĠĠĠĠĠĠĠĠĠĠĠĠ": 1019, "Res": 1020, "Ġco": 1021, "Ġcomm": 1022, "ise": 1023, "min": 1024, "ĠĠĠĠĊ": 1025, "#include": 1026, "ethod": 1027, ".P": 1028, "ute": 1029, "Ġass": 1030, "Int": 1031, "ask": 1032, "loc": 1033, "Ġlike": 1034, "ody": 1035, "Ġlet": 1036, "load": 1037, "Ġam": 1038, "rol": 1039, "Ġgr": 1040, "yp": 1041, "Ġalso": 1042, "ĠIt": 1043, "url": 1044, "ific": 1045, "ors": 1046, "_P": 1047, "_n": 1048, "igh": 1049, "Ġthan": 1050, "Com": 1051, "AN": 1052, "UL": 1053, "ating": 1054, "ĠThis": 1055, "ref": 1056, "_S": 1057, "Ġstatic": 1058, "roll": 1059, "Ġjust": 1060, "Ġresult": 1061, "ian": 1062, "idth": 1063, "Ġthem": 1064, "der": 1065, "reak": 1066, "Con": 1067, "://": 1068, "ule": 1069, "...": 1070, "arch": 1071, "ement": 1072, "Ġ<<": 1073, "ush": 1074, "ense": 1075, "arr": 1076, "Ġinto": 1077, "cess": 1078, "amp": 1079, "ied": 1080, "ument": 1081, "Ġ\\": 1082, "],": 1083, "wo": 1084, "als": 1085, "Ġwhat": 1086, "anc": 1087, "Value": 1088, "='": 1089, "olum": 1090, "Ġpos": 1091, "ages": 1092, "ayer": 1093, "Ġsc": 1094, "ues": 1095, "_T": 1096, "Ġlist": 1097, "(s": 1098, "Ġcase": 1099, "Ch": 1100, "////////": 1101, "ponent": 1102, "Ġz": 1103, "Ġkn": 1104, "let": 1105, "DE": 1106, "red": 1107, "Ġfe": 1108, "Ġ,": 1109, "(t": 1110, "Ġfirst": 1111, "word": 1112, "Ġimport": 1113, "Ġact": 1114, "Ġchar": 1115, "CT": 1116, "ĠTr": 1117, "ople": 1118, "={": 1119, "ient": 1120, "cent": 1121, ".j": 1122, "lection": 1123, "Ġonly": 1124, "Ġprint": 1125, "mer": 1126, ".W": 1127, "ock": 1128, "Ġ--": 1129, "Text": 1130, "Ġop": 1131, "ank": 1132, "Ġits": 1133, "Ġback": 1134, "[\"": 1135, "Ġneed": 1136, "Ġcl": 1137, "Ġsub": 1138, "Ġla": 1139, "((": 1140, ".\"": 1141, "Object": 1142, "Ġstart": 1143, "file": 1144, "(self": 1145, "ner": 1146, "ey": 1147, "Ġuser": 1148, "Ġent": 1149, "ĠCom": 1150, "its": 1151, "ĠCon": 1152, "ouble": 1153, "ower": 1154, "item": 1155, "very": 1156, "ĠWe": 1157, "lick": 1158, "ĠQ": 1159, "php": 1160, "ttp": 1161, "':": 1162, "ics": 1163, "Ġunder": 1164, ".L": 1165, ");": 1166, "ices": 1167, "Ġreg": 1168, "SS": 1169, "Ġthen": 1170, "reat": 1171, "ious": 1172, ".G": 1173, "ek": 1174, "irect": 1175, "heck": 1176, "cript": 1177, "ning": 1178, "ĠUn": 1179, "Ġmay": 1180, "ĠWh": 1181, "Bo": 1182, "Item": 1183, "struct": 1184, ".st": 1185, "ream": 1186, "ible": 1187, "loat": 1188, "Ġorg": 1189, "und": 1190, "sum": 1191, "_in": 1192, "../": 1193, "_M": 1194, "Ġhow": 1195, "rite": 1196, "To": 1197, "ww": 1198, "Ġpeople": 1199, "index": 1200, ".n": 1201, "http": 1202, "(m": 1203, "ector": 1204, "Ġind": 1205, "Ġjav": 1206, "ĠHe": 1207, "_st": 1208, "ful": 1209, "ole": 1210, "Ġshould": 1211, "opy": 1212, "elp": 1213, "ier": 1214, "_name": 1215, "erson": 1216, "ION": 1217, "ote": 1218, "Ġtest": 1219, "Ġbet": 1220, "rror": 1221, "ular": 1222, "ãĢ": 1223, "ĠÐ": 1224, "bs": 1225, "ting": 1226, "Ġmake": 1227, "Tr": 1228, "Ġafter": 1229, "arget": 1230, "RO": 1231, "olumn": 1232, "rc": 1233, "_re": 1234, "define": 1235, "Ġright": 1236, "right": 1237, "day": 1238, "Ġlong": 1239, "[]": 1240, "(p": 1241, "td": 1242, "cond": 1243, "ĠPro": 1244, "Ġrem": 1245, "ptions": 1246, "vid": 1247, ".g": 1248, "Ġext": 1249, "Ġ__": 1250, "pace": 1251, "mp": 1252, "Ġmin": 1253, "stance": 1254, "air": 1255, "action": 1256, "wh": 1257, "type": 1258, "util": 1259, "ait": 1260, "<?": 1261, "IC": 1262, "text": 1263, "Ġph": 1264, "Ġfl": 1265, ".M": 1266, "ccess": 1267, "br": 1268, "fore": 1269, "ersion": 1270, ".re": 1271, "ateg": 1272, "Ġloc": 1273, "ins": 1274, "-s": 1275, "trib": 1276, "ĠInt": 1277, "Ġarray": 1278, ",\"": 1279, "Pro": 1280, "(c": 1281, "ession": 1282, "Ġshe": 1283, "\"]": 1284, "aph": 1285, "Ġexp": 1286, "erty": 1287, "ĠSe": 1288, "Ġpar": 1289, "unc": 1290, "ET": 1291, "Ġread": 1292, "print": 1293, "Ġrel": 1294, "Ġform": 1295, "Ġdr": 1296, "Exception": 1297, "input": 1298, "Ġtrans": 1299, "########": 1300, "order": 1301, "By": 1302, "Ġaw": 1303, "ities": 1304, "uff": 1305, "play": 1306, ".add": 1307, "ĠâĢĵ": 1308, "Ġwant": 1309, "Ġcomp": 1310, "ments": 1311, "Ġ||": 1312, "az": 1313, "be": 1314, "Ġnumber": 1315, "Ġrequire": 1316, "ĠEx": 1317, "Ġcol": 1318, "Ġkey": 1319, "ember": 1320, "Ġtwo": 1321, "Ġsize": 1322, "Ġwhere": 1323, "UT": 1324, "result": 1325, "ĠĠĠĠĠĠĠĠĠĠĠĠĠĠĠĠĠĠĠĠĠĠĠĠĠĠĠĠĠĠĠ": 1326, "ough": 1327, "orld": 1328, "ood": 1329, "uch": 1330, "ative": 1331, "ger": 1332, "arent": 1333, "Ġ/*": 1334, "Ġarg": 1335, "Ġwhile": 1336, "(this": 1337, "Ġrec": 1338, "Ġdif": 1339, "State": 1340, "Ġspec": 1341, "ride": 1342, "_F": 1343, "Ġlook": 1344, "AM": 1345, "ility": 1346, "eter": 1347, "âĢĻt": 1348, "ĊĊĊ": 1349, "ayout": 1350, "--------------------------------": 1351, "ager": 1352, "Ġcould": 1353, "Ġbr": 1354, "ends": 1355, "ures": 1356, "Ġknow": 1357, "ets": 1358, "ĠIf": 1359, "ĠSh": 1360, ".w": 1361, "back": 1362, "Ġser": 1363, "Ġ+=": 1364, "Ġfr": 1365, "Ġhand": 1366, "Ind": 1367, "ULL": 1368, "Im": 1369, "Ġmost": 1370, "Ġtry": 1371, "Ġnow": 1372, "rough": 1373, "ackage": 1374, "Ġhim": 1375, "._": 1376, "ify": 1377, "Ġbreak": 1378, "ren": 1379, "#define": 1380, "itt": 1381, "Ġap": 1382, "(n": 1383, "ĠYou": 1384, "-m": 1385, "Ġevery": 1386, "ustom": 1387, "lient": 1388, "ocument": 1389, "cription": 1390, "Error": 1391, "-b": 1392, "Ð¾": 1393, "][": 1394, "trans": 1395, "Ġpoint": 1396, "Ġstd": 1397, "Ġfil": 1398, "Time": 1399, "Ġmod": 1400, "Ġ->": 1401, "Ġerror": 1402, "ah": 1403, "Ġtext": 1404, "roller": 1405, "lose": 1406, "ql": 1407, "Ġpol": 1408, "></": 1409, "Ġshow": 1410, "User": 1411, "ased": 1412, "Ġfind": 1413, "Ð°": 1414, "ED": 1415, "span": 1416, "enu": 1417, "Ġcurrent": 1418, "Ġused": 1419, "cept": 1420, "clud": 1421, "Ġplay": 1422, "Ġlog": 1423, "ution": 1424, "fl": 1425, "Ġsee": 1426, "indows": 1427, "Ġhelp": 1428, "Ġthese": 1429, "Ġpass": 1430, "Ġdown": 1431, "Ġeven": 1432, "ason": 1433, "uild": 1434, "from": 1435, "(d": 1436, "Ġbl": 1437, "label": 1438, "else": 1439, "Ðµ": 1440, "Ġ(!": 1441, "ized": 1442, "(),": 1443, "Ġob": 1444, "Ġitem": 1445, "ump": 1446, "UR": 1447, "orn": 1448, "Ġdon": 1449, "Se": 1450, "man": 1451, "ample": 1452, "tn": 1453, "================": 1454, "He": 1455, "gram": 1456, "Ġdid": 1457, "wn": 1458, "_h": 1459, "iver": 1460, "Ġsm": 1461, "Ġthrough": 1462, "ĠAn": 1463, "che": 1464, "Ġinv": 1465, "ouse": 1466, "Ġes": 1467, "ĠNew": 1468, "export": 1469, "mary": 1470, "uto": 1471, "ler": 1472, "Ġlast": 1473, "Ġevent": 1474, "try": 1475, "ï¼": 1476, "ily": 1477, "igned": 1478, "ines": 1479, "ollow": 1480, "icense": 1481, "sole": 1482, "lear": 1483, "(int": 1484, "Ġagain": 1485, "Ġhigh": 1486, "html": 1487, "Index": 1488, "uthor": 1489, "Ġline": 1490, "Event": 1491, "_D": 1492, "Ġdoes": 1493, "itial": 1494, "Ġcr": 1495, "ars": 1496, "Ġtem": 1497, "cause": 1498, "face": 1499, "Ġ`": 1500, "_A": 1501, "Button": 1502, "ature": 1503, "ected": 1504, "ES": 1505, "ister": 1506, "ĉĊ": 1507, "Ġbefore": 1508, "ale": 1509, "other": 1510, "Ġbecause": 1511, "roid": 1512, "Ġed": 1513, "ik": 1514, "reg": 1515, "ĠDe": 1516, "Ġdist": 1517, "Ġstate": 1518, "Ġcons": 1519, "rint": 1520, "att": 1521, "Ġhere": 1522, "ined": 1523, "Ġfinal": 1524, "Ġ\"\"": 1525, "Key": 1526, "LO": 1527, "Ġdel": 1528, "pty": 1529, "thing": 1530, "ĠAnd": 1531, "Ġrun": 1532, "ĠX": 1533, "ym": 1534, ".app": 1535, "Ġvery": 1536, "ces": 1537, "_N": 1538, "ared": 1539, "ward": 1540, "list": 1541, "ited": 1542, "olog": 1543, "itch": 1544, "Box": 1545, "ife": 1546, "Ġac": 1547, "Ġmodel": 1548, "Ġmon": 1549, "Ġway": 1550, "lete": 1551, "Ġcall": 1552, "Ġatt": 1553, "Ġcal": 1554, "vert": 1555, "Ġdec": 1556, "lease": 1557, "oun": 1558, "fr": 1559, "formation": 1560, "etail": 1561, "Ġnum": 1562, "aj": 1563, "query": 1564, "Ġwell": 1565, "Ġobject": 1566, "ĠAs": 1567, "Ġyears": 1568, "Color": 1569, "IS": 1570, "Ġdefault": 1571, "Wh": 1572, "Ġins": 1573, "aint": 1574, "Ġjava": 1575, "Ġsim": 1576, "ĠAr": 1577, "mon": 1578, "til": 1579, "):": 1580, "Set": 1581, "atter": 1582, "Ġview": 1583, "Ġpres": 1584, "array": 1585, "We": 1586, "At": 1587, "Ġbel": 1588, "Ġmany": 1589, "Man": 1590, "ender": 1591, "Ġbeing": 1592, "Ġgood": 1593, "ational": 1594, "ware": 1595, ".log": 1596, "Ġusing": 1597, "_B": 1598, "Ġ:=": 1599, "_w": 1600, "ists": 1601, "lish": 1602, "Ġstud": 1603, "ĠAl": 1604, "Ġgu": 1605, "config": 1606, "uring": 1607, "time": 1608, "oken": 1609, "amespace": 1610, "Ġrequest": 1611, "Ġchild": 1612, "ĠÃ": 1613, "lob": 1614, "Ġparam": 1615, "Ġecho": 1616, "function": 1617, "********************************": 1618, "ps": 1619, "Element": 1620, "alk": 1621, "lication": 1622, "by": 1623, "Size": 1624, "rawing": 1625, "Ġperson": 1626, "ĠĠĠĠĠĠĠĠĠĠĠĠĠĠĠĠĠ": 1627, "\\n": 1628, "object": 1629, "ince": 1630, "En": 1631, "File": 1632, "uf": 1633, "ffect": 1634, "AC": 1635, "Ġstyle": 1636, "summary": 1637, "Ġque": 1638, "_r": 1639, "Ġ($": 1640, "Model": 1641, "ident": 1642, "Ġmethod": 1643, "IL": 1644, "ott": 1645, "less": 1646, "ING": 1647, "Ġ()": 1648, "Ġexpect": 1649, "ync": 1650, "package": 1651, "urs": 1652, "Ġprot": 1653, "./": 1654, "pre": 1655, "ma": 1656, "Ġsur": 1657, "Ġfound": 1658, "Info": 1659, "par": 1660, "imes": 1661, ".e": 1662, "ains": 1663, "Ġpost": 1664, "-d": 1665, "olean": 1666, "Ġsl": 1667, "PE": 1668, "Ġsuch": 1669, "select": 1670, "ainer": 1671, "Ġthink": 1672, "Ġdiffer": 1673, ".r": 1674, "FF": 1675, "ool": 1676, "plate": 1677, "qual": 1678, "ĠFor": 1679, "Ġmuch": 1680, "uc": 1681, "(new": 1682, "odule": 1683, "Ġsom": 1684, "Ġhttp": 1685, "ĠList": 1686, "Ġcount": 1687, "Ġinst": 1688, "char": 1689, "mit": 1690, ".id": 1691, "aking": 1692, "Ġgener": 1693, "px": 1694, "vice": 1695, "_data": 1696, "ĠNULL": 1697, "idd": 1698, "ãĢĤ": 1699, "Ġmed": 1700, "org": 1701, "ider": 1702, "ache": 1703, "work": 1704, "Ġcheck": 1705, "ween": 1706, "Ġ((": 1707, "the": 1708, "ants": 1709, "><": 1710, ".B": 1711, "-c": 1712, "Ġopen": 1713, "Ġest": 1714, "ĠĠĠĠĠĠĠĠĊ": 1715, "Ġnext": 1716, "IM": 1717, "ÑĤ": 1718, "OT": 1719, "Ã³": 1720, "Ġfollow": 1721, "content": 1722, "ĠĠĠĠĠĠĠĠĠĠĠĠ": 1723, "Ġinclud": 1724, "HE": 1725, "ĠRes": 1726, "Ġhref": 1727, "Ð¸": 1728, "Ġcar": 1729, "ypes": 1730, "image": 1731, "Un": 1732, "Ġbool": 1733, "AD": 1734, "Ġgame": 1735, "rows": 1736, "*/": 1737, "velop": 1738, "Ġpath": 1739, "ision": 1740, "Ġeach": 1741, "ĠPl": 1742, "_type": 1743, "Path": 1744, "nection": 1745, "Ġav": 1746, "').": 1747, "Ġsupport": 1748, "ENT": 1749, "rem": 1750, "\").": 1751, "Ġown": 1752, "Ġcor": 1753, "count": 1754, "miss": 1755, "ually": 1756, "Ġmem": 1757, "std": 1758, "ience": 1759, "search": 1760, "Form": 1761, "Ġsex": 1762, "ename": 1763, "Ġsign": 1764, "Ġet": 1765, "ĠĠĠĠĠĠĠĠĠĠ": 1766, "','": 1767, "ĠApp": 1768, "Ġthose": 1769, "off": 1770, "Ġerr": 1771, "Ġsystem": 1772, "Ġbest": 1773, "code": 1774, "Ġsame": 1775, "Ġdi": 1776, "uss": 1777, "Ġcreate": 1778, "ather": 1779, "Array": 1780, ".in": 1781, "fe": 1782, "Service": 1783, "UN": 1784, "ats": 1785, "ĠZ": 1786, "alth": 1787, "Ġmade": 1788, "true": 1789, "AB": 1790, "Ġmark": 1791, "rid": 1792, "ified": 1793, "yn": 1794, "press": 1795, "Ġgroup": 1796, "Ġfin": 1797, "ĠLicense": 1798, "Field": 1799, "eger": 1800, "Ġworld": 1801, "iness": 1802, "ty": 1803, "Ġprocess": 1804, "(b": 1805, "Ġcre": 1806, "arn": 1807, "ives": 1808, "Ġmain": 1809, "ideo": 1810, "_g": 1811, "AG": 1812, "valid": 1813, "img": 1814, "PI": 1815, "Ġcolor": 1816, "Ġreport": 1817, "Ġtake": 1818, "rib": 1819, "OM": 1820, "Ġday": 1821, "Request": 1822, "Ġsk": 1823, "bers": 1824, ".Add": 1825, "oot": 1826, "Image": 1827, "Ġcomple": 1828, "ollection": 1829, "Ġtop": 1830, "Ġfree": 1831, "AS": 1832, "De": 1833, "ĠOn": 1834, "IG": 1835, "eta": 1836, "Date": 1837, "Ġaction": 1838, "Over": 1839, "itor": 1840, "ĠĠĠĠĠĠĠĠĠĠĠĠĠĠĠĠĠĠĠĠĠĠĠĠĠĠĠĠĠĠĠĠĠĠĠ": 1841, "not": 1842, "Ġindex": 1843, "her": 1844, "icon": 1845, "On": 1846, "ivity": 1847, "mand": 1848, "OL": 1849, "Ġreal": 1850, "Ġmax": 1851, "land": 1852, "....": 1853, "raph": 1854, "Ġbuild": 1855, "leg": 1856, "assword": 1857, "âĢ¦": 1858, "ook": 1859, "uck": 1860, "Ġmessage": 1861, "test": 1862, "ivers": 1863, "Ġinput": 1864, "Ġart": 1865, "Ġbetween": 1866, "Get": 1867, "enter": 1868, "ground": 1869, "ene": 1870, "Ã¡": 1871, ".length": 1872, "Node": 1873, "(i": 1874, "Class": 1875, "for": 1876, "ĠâĢĶ": 1877, "ten": 1878, "oin": 1879, "Ġke": 1880, "ui": 1881, "ĠIN": 1882, "Ġtable": 1883, "sub": 1884, "ĠLe": 1885, "Ġhead": 1886, "Ġmust": 1887, "////////////////": 1888, ".util": 1889, "Context": 1890, "Ġorder": 1891, "Ġmov": 1892, "over": 1893, "Ġcontin": 1894, "Ġsay": 1895, "static": 1896, ".Text": 1897, "pany": 1898, "Ġter": 1899, "head": 1900, "rg": 1901, "Ġproduct": 1902, "This": 1903, ".âĢĿ": 1904, "ĠBut": 1905, "loy": 1906, "Ġdouble": 1907, "sg": 1908, "Ġplace": 1909, ".x": 1910, "message": 1911, "Ġinformation": 1912, "private": 1913, "Ġoper": 1914, "ced": 1915, "db": 1916, "\"></": 1917, "Param": 1918, "icle": 1919, "Ġweek": 1920, "Ġprop": 1921, "table": 1922, "idget": 1923, "place": 1924, "Prop": 1925, "ĠAll": 1926, "els": 1927, "box": 1928, ".R": 1929, "ĠTo": 1930, "iter": 1931, "Sh": 1932, "uration": 1933, "older": 1934, "_list": 1935, "come": 1936, "Ġsw": 1937, "ization": 1938, "bl": 1939, "Ġprogram": 1940, "(e": 1941, "ape": 1942, "check": 1943, "Ġund": 1944, "ategory": 1945, "ags": 1946, "Ġresponse": 1947, "US": 1948, "request": 1949, "Ġstruct": 1950, "escription": 1951, "Ġcode": 1952, "_H": 1953, "uffer": 1954, "Ġwithout": 1955, "lobal": 1956, "Manager": 1957, "ilter": 1958, "PO": 1959, "option": 1960, "Ġsol": 1961, "Ġ===": 1962, "akes": 1963, "Controller": 1964, "Message": 1965, "Ġref": 1966, "ever": 1967, "ĠSo": 1968, "aining": 1969, ".append": 1970, "Ġstill": 1971, "Ġprovid": 1972, "Ġassert": 1973, "med": 1974, "Ġcap": 1975, "usiness": 1976, "Ġrep": 1977, "tings": 1978, "ved": 1979, ".N": 1980, "api": 1981, "OD": 1982, "Ġfield": 1983, "iven": 1984, "oto": 1985, "âĢľ": 1986, "col": 1987, "(x": 1988, "ght": 1989, "Result": 1990, "Code": 1991, ".is": 1992, "link": 1993, "Ġcour": 1994, "An": 1995, "Ġteam": 1996, "ift": 1997, "Ġsecond": 1998, "Ġgoing": 1999, "Ġrange": 2000, "_E": 2001, "ness": 2002, "Ġfam": 2003, "Ġnil": 2004, "ĠCont": 2005, "ailable": 2006, "utes": 2007, "atab": 2008, "Ġfact": 2009, "Ġvis": 2010, "(&": 2011, "ĠAN": 2012, "Al": 2013, "title": 2014, "Ġandroid": 2015, "CE": 2016, "\\\"": 2017, "irt": 2018, "Ġwrit": 2019, "Ð½": 2020, "ftware": 2021, "ond": 2022, "Ġret": 2023, "osition": 2024, "Ġhome": 2025, "Ġleft": 2026, "args": 2027, "meric": 2028, "Ġdirect": 2029, "oci": 2030, "Pl": 2031, "As": 2032, "ret": 2033, "ado": 2034, "Of": 2035, "chn": 2036, "ĠGet": 2037, "ee": 2038, "ross": 2039, "();": 2040, "____": 2041, ".ph": 2042, "It": 2043, "oute": 2044, "Ġexper": 2045, "chool": 2046, "www": 2047, "},": 2048, "Ġallow": 2049, "ĠÂ": 2050, "())": 2051, "size": 2052, "ism": 2053, "ai": 2054, "tract": 2055, "ane": 2056, "context": 2057, "Ġbeg": 2058, "CH": 2059, "Ġpage": 2060, "hip": 2061, "no": 2062, "core": 2063, "sp": 2064, "Ġdifferent": 2065, "iable": 2066, "ĠMe": 2067, "_IN": 2068, "button": 2069, "ĠIs": 2070, "ervices": 2071, "Ġca": 2072, "Ġaround": 2073, "App": 2074, "ration": 2075, "Ġrece": 2076, "Ġreally": 2077, "Ġimage": 2078, "Ġtarget": 2079, "Ġdep": 2080, "opyright": 2081, "tra": 2082, "ingle": 2083, "ital": 2084, "Layout": 2085, "Ġboth": 2086, "Override": 2087, "arm": 2088, "=>": 2089, "aterial": 2090, "iled": 2091, "Ġput": 2092, "Qu": 2093, "ÑĢ": 2094, "ung": 2095, "map": 2096, "Ġlevel": 2097, "Component": 2098, "book": 2099, "creen": 2100, "_RE": 2101, "Ġconfig": 2102, "ãģ": 2103, "Or": 2104, ".data": 2105, "Ġdocument": 2106, "\",\"": 2107, "tribute": 2108, "ux": 2109, "Log": 2110, "ference": 2111, "post": 2112, "_e": 2113, "Ġlocal": 2114, "andom": 2115, "assert": 2116, "Val": 2117, "lected": 2118, "ina": 2119, "atabase": 2120, "Add": 2121, "Ġcontent": 2122, ".print": 2123, "signed": 2124, "ric": 2125, "Ġfa": 2126, "-f": 2127, "ived": 2128, "Ġquest": 2129, ".ex": 2130, "Ġfloat": 2131, "Ġdevelop": 2132, "Map": 2133, "ading": 2134, "Ġposs": 2135, "UE": 2136, "namespace": 2137, "_O": 2138, ".Get": 2139, ">(": 2140, "json": 2141, "etails": 2142, "Ġtoo": 2143, "Ġextends": 2144, "ĠNone": 2145, "Ġfore": 2146, "(String": 2147, "format": 2148, "Ġgreat": 2149, "inter": 2150, "cale": 2151, "Ñģ": 2152, "ron": 2153, "iving": 2154, "Ent": 2155, "ency": 2156, "xt": 2157, "oy": 2158, "Ġmonth": 2159, "Ġhapp": 2160, "Ġsuper": 2161, "bar": 2162, "default": 2163, "_de": 2164, "ords": 2165, "ln": 2166, "ĠInd": 2167, "ases": 2168, "Ġtitle": 2169, "Ġcontext": 2170, "oh": 2171, "-p": 2172, "Em": 2173, "Ġmet": 2174, "Test": 2175, "Ġlife": 2176, "_v": 2177, "ĠUS": 2178, "UI": 2179, "ocation": 2180, "md": 2181, "Ġ]": 2182, "sw": 2183, "Ġincre": 2184, "script": 2185, "ential": 2186, "ways": 2187, ".de": 2188, "Ġsrc": 2189, "Ġcatch": 2190, "ĠAmeric": 2191, "ĠĠĠĠĠĠĠĠĠĠĠĠĠĠ": 2192, "Ġpay": 2193, "plit": 2194, "âĢĶ": 2195, "Ġcoun": 2196, "obj": 2197, ".php": 2198, "Ġchange": 2199, "ething": 2200, "'re": 2201, "aster": 2202, "los": 2203, "lation": 2204, "ĠĠĊ": 2205, "Le": 2206, "Ã¤": 2207, "({": 2208, "ready": 2209, "ĠNo": 2210, "Ġposition": 2211, "Ġold": 2212, "Ġbook": 2213, "abled": 2214, "bug": 2215, "Hand": 2216, "isplay": 2217, "aving": 2218, "Ġgover": 2219, "Ġversion": 2220, "System": 2221, "nect": 2222, "response": 2223, "Style": 2224, "Up": 2225, "angu": 2226, "Ġthree": 2227, "init": 2228, "ero": 2229, "Ġlaw": 2230, "endif": 2231, "Ġbase": 2232, "email": 2233, "(l": 2234, "_V": 2235, "Ġconf": 2236, "ATE": 2237, "Ġduring": 2238, "tes": 2239, "Ġconsole": 2240, "ĠPr": 2241, "Ġspe": 2242, "ves": 2243, "path": 2244, "ialog": 2245, "dition": 2246, "_to": 2247, "ards": 2248, "Ġagainst": 2249, "etwork": 2250, "ĠPh": 2251, "_L": 2252, "cur": 2253, "imit": 2254, "With": 2255, "Ġpower": 2256, "ium": 2257, "Ġwom": 2258, "left": 2259, "ources": 2260, "atri": 2261, "ĠIm": 2262, "ĠMan": 2263, "orth": 2264, "${": 2265, "quals": 2266, "ese": 2267, "_size": 2268, "Ġiss": 2269, "otal": 2270, "-g": 2271, "ique": 2272, "rame": 2273, "Ġwidth": 2274, "erg": 2275, ")(": 2276, "ittle": 2277, "TR": 2278, "ĠThey": 2279, "ences": 2280, "rl": 2281, "ons": 2282, "Ġlabel": 2283, ".y": 2284, "-t": 2285, "update": 2286, "anel": 2287, "sc": 2288, ".to": 2289, "Ġproject": 2290, "Ã¼": 2291, "Ġelement": 2292, "Ġsuccess": 2293, ".sh": 2294, "ram": 2295, "ched": 2296, "Ġdate": 2297, "Ġtot": 2298, "_ST": 2299, "All": 2300, "ification": 2301, "Ġtri": 2302, "chem": 2303, "my": 2304, "Ġbig": 2305, "ĠAd": 2306, "ĠAt": 2307, "ots": 2308, "num": 2309, "Act": 2310, "Ġmap": 2311, "era": 2312, "cope": 2313, ".$": 2314, ",âĢĿ": 2315, "Ġpop": 2316, "Ġfew": 2317, "Ġlen": 2318, "uid": 2319, "eters": 2320, "ules": 2321, "ÃŃ": 2322, "source": 2323, "https": 2324, "Ġdem": 2325, "Ġear": 2326, "################": 2327, "Ġmatch": 2328, "ories": 2329, "aces": 2330, "ĠCl": 2331, "Ġnode": 2332, "irc": 2333, "local": 2334, "unity": 2335, "Ġanother": 2336, "<<": 2337, "ogle": 2338, "Ġsit": 2339, "ework": 2340, "TE": 2341, ".I": 2342, "NS": 2343, "ology": 2344, "ought": 2345, ">>": 2346, "Ġcare": 2347, "state": 2348, "Ġeffect": 2349, "++)": 2350, "_file": 2351, "ending": 2352, "Line": 2353, "For": 2354, "ior": 2355, "ĠSc": 2356, "Ġfun": 2357, ".Size": 2358, "])": 2359, "start": 2360, "vious": 2361, "Ġ},": 2362, "ours": 2363, "Ġleg": 2364, "Ġservice": 2365, "Ġsince": 2366, "iron": 2367, "Label": 2368, "Ġnon": 2369, "Ġlos": 2370, "iction": 2371, "Ġfull": 2372, "acter": 2373, "board": 2374, "gress": 2375, "Ġturn": 2376, "ither": 2377, ".size": 2378, "Ġbody": 2379, "resh": 2380, "eturn": 2381, "(_": 2382, "yles": 2383, "ormal": 2384, "pi": 2385, "Ġsomething": 2386, "!--": 2387, "uint": 2388, "Ġprodu": 2389, "Ġstand": 2390, "Ġproble": 2391, "Ġavailable": 2392, "mt": 2393, "ĠBl": 2394, "Ġ...": 2395, "Ġblock": 2396, "Input": 2397, "Ġkeep": 2398, "Count": 2399, "open": 2400, "Ġ['": 2401, "Ġthrow": 2402, "uilder": 2403, "Action": 2404, "Ġthings": 2405, "True": 2406, "Ġurl": 2407, "ĠBo": 2408, "printf": 2409, "Ġred": 2410, "js": 2411, ".create": 2412, "ĠOr": 2413, "Status": 2414, "Instance": 2415, "Ġcontrol": 2416, "Ġcome": 2417, "Ġcustom": 2418, "location": 2419, "model": 2420, "ĠčĊ": 2421, "Ġsource": 2422, "Ġeas": 2423, ".out": 2424, "oney": 2425, "Ġawait": 2426, "Ġpartic": 2427, "AP": 2428, "ublish": 2429, "odes": 2430, "_pro": 2431, "ply": 2432, "riter": 2433, "Ġprov": 2434, "Ġmill": 2435, "HT": 2436, "Ġchang": 2437, "Ġask": 2438, "ĠĠĠĠĠĠĠĠĠĠĠĠĠĠĠĠĠĠĠĠĠ": 2439, "Ġoutput": 2440, "Ġemail": 2441, ".push": 2442, "ination": 2443, "atrix": 2444, "Table": 2445, "uccess": 2446, "ĠĠĠĠĠĠĠĠĠĠĠĠĠĠĠĠĠĠĠĠĠĠĠĠĠĠĠĠĠĠĠĠĠĠĠĠĠĠĠ": 2447, "Ġdisc": 2448, "([": 2449, "Ġbusiness": 2450, "height": 2451, ".html": 2452, "ta": 2453, "field": 2454, "Ġrequired": 2455, "_R": 2456, "Ġgovern": 2457, "lex": 2458, ".,": 2459, "ĠSet": 2460, "urch": 2461, "///": 2462, "ts": 2463, "af": 2464, "Ġmight": 2465, "istory": 2466, "Str": 2467, "Ġnever": 2468, "Response": 2469, "arse": 2470, "ada": 2471, "ĠHow": 2472, "Ġ*)": 2473, "Ġ;": 2474, "Ġhard": 2475, "Ad": 2476, "Ġintern": 2477, "used": 2478, "(data": 2479, "mod": 2480, "annel": 2481, "Ġnp": 2482, "ugg": 2483, "Ġcalled": 2484, "body": 2485, "Ġcho": 2486, "(r": 2487, "_set": 2488, "ird": 2489, "Ġ>=": 2490, "Ġoptions": 2491, "ĠGener": 2492, "Ġheight": 2493, "Point": 2494, "You": 2495, "ety": 2496, "Click": 2497, "Ġsmall": 2498, "Ġide": 2499, "Ġaccess": 2500, "anguage": 2501, "Ġprotected": 2502, "Ġjob": 2503, "ĠThere": 2504, "Def": 2505, "Ġaddress": 2506, "Ġuint": 2507, "Not": 2508, "oo": 2509, "aps": 2510, "<div": 2511, "ained": 2512, "atur": 2513, "Ġsum": 2514, "-w": 2515, "ĠDate": 2516, "Ġlittle": 2517, "Ġfri": 2518, "YPE": 2519, "Ġport": 2520, "eh": 2521, "pring": 2522, "_path": 2523, "Ġstatus": 2524, "aim": 2525, "bool": 2526, "Ġappe": 2527, "Ġos": 2528, ".name": 2529, "ension": 2530, "_G": 2531, "Ġupdate": 2532, "Config": 2533, "aff": 2534, "ERR": 2535, "Ġ<=": 2536, "ately": 2537, "uction": 2538, "ĠTe": 2539, "Ġlink": 2540, "ĠUser": 2541, ".find": 2542, ".org": 2543, "me": 2544, "Ġgiven": 2545, "Out": 2546, "#endif": 2547, "Ġbetter": 2548, "Page": 2549, "Ġfeel": 2550, "enn": 2551, "ML": 2552, "Ġalready": 2553, "Ġincluding": 2554, "oogle": 2555, "ru": 2556, "ically": 2557, "prop": 2558, "lean": 2559, "outer": 2560, "Ġalways": 2561, "ording": 2562, "If": 2563, "orage": 2564, "Ġparent": 2565, "vis": 2566, "Ġgot": 2567, "stand": 2568, "Ġless": 2569, "/s": 2570, "ĠAss": 2571, "apt": 2572, "ired": 2573, "ĠAdd": 2574, "Ġaccount": 2575, "ploy": 2576, "Ġder": 2577, "resent": 2578, "Ġlot": 2579, "Ġvalid": 2580, "Ġbit": 2581, "ponents": 2582, "Ġfollowing": 2583, "_ex": 2584, "SON": 2585, "Ġsure": 2586, "ocial": 2587, "Ġprom": 2588, "erties": 2589, "header": 2590, ".pro": 2591, "Ġboolean": 2592, "Ġsearch": 2593, "ken": 2594, "Ġorig": 2595, "Ġer": 2596, "Ed": 2597, "EM": 2598, "aut": 2599, "ling": 2600, "ality": 2601, "bed": 2602, "ether": 2603, "posit": 2604, "Ġinvest": 2605, "ĠOR": 2606, "Ġsays": 2607, "mission": 2608, "AME": 2609, "Ġtemp": 2610, "oad": 2611, "Ġrest": 2612, "info": 2613, "Ġinterest": 2614, "Arg": 2615, "Ġperform": 2616, "pons": 2617, "ĠView": 2618, "Ġver": 2619, "lib": 2620, "(const": 2621, "Util": 2622, "arge": 2623, "Ġmult": 2624, "Ġdie": 2625, "Ġsite": 2626, "../../": 2627, "EL": 2628, "Ġvalues": 2629, "pen": 2630, "No": 2631, "icro": 2632, "Ġbeh": 2633, "Ġ'./": 2634, "acy": 2635, "rec": 2636, "\"))": 2637, "Content": 2638, "_W": 2639, "plement": 2640, "Ġwon": 2641, "Ġvideo": 2642, "adi": 2643, "point": 2644, "%%": 2645, "Ġgl": 2646, "erved": 2647, "viron": 2648, "IF": 2649, "uted": 2650, "ãĥ": 2651, "'m": 2652, "Ġcert": 2653, "Ġprof": 2654, "Ġcell": 2655, "ari": 2656, "Ġplayer": 2657, "ais": 2658, "Ġcost": 2659, "Ġhum": 2660, "(R": 2661, "Ġoffic": 2662, "ks": 2663, ".text": 2664, "atures": 2665, "Ġtotal": 2666, "ope": 2667, "Ġstat": 2668, "UM": 2669, "Ġload": 2670, "ights": 2671, "Ġclear": 2672, "uro": 2673, "Ġtechn": 2674, "upport": 2675, "IR": 2676, "Ġrow": 2677, "Ġseem": 2678, "Ġq": 2679, "Ġshort": 2680, "ĠNot": 2681, "ipp": 2682, "Group": 2683, "section": 2684, "max": 2685, "irl": 2686, "Ġoverride": 2687, "Ġcompany": 2688, "Ġdone": 2689, "Ġgre": 2690, ".Re": 2691, "Ġbelie": 2692, "rist": 2693, "Ġhealth": 2694, "ANT": 2695, "ĠBe": 2696, ".value": 2697, "ĠGr": 2698, "ottom": 2699, "Ġargs": 2700, "PT": 2701, "status": 2702, "func": 2703, "uments": 2704, "-h": 2705, "Number": 2706, "ĠLog": 2707, "erver": 2708, "ament": 2709, "Ġobj": 2710, "inc": 2711, "Ġchildren": 2712, "icy": 2713, "IZ": 2714, "ands": 2715, "ably": 2716, "Ġdistrib": 2717, "Ġcur": 2718, "erial": 2719, "Ġdays": 2720, "reated": 2721, "rect": 2722, "-l": 2723, "irm": 2724, "idden": 2725, "omb": 2726, "Ġinitial": 2727, ".js": 2728, "Ġâ": 2729, "Query": 2730, "Ġonline": 2731, "imal": 2732, ".con": 2733, "au": 2734, "Url": 2735, "control": 2736, "irection": 2737, "Ġinstance": 2738, "ORT": 2739, "ĠFr": 2740, "where": 2741, "Ġorgan": 2742, "apter": 2743, "Ġreason": 2744, "options": 2745, "ĠMar": 2746, "(a": 2747, "Ġwithin": 2748, "ODE": 2749, "_DE": 2750, "admin": 2751, "ended": 2752, "Ġdesign": 2753, "ĠData": 2754, "une": 2755, "ĠFile": 2756, "root": 2757, "Ġcent": 2758, "Ġarr": 2759, "_add": 2760, "len": 2761, "page": 2762, ",'": 2763, "_str": 2764, "Ġbro": 2765, "ability": 2766, "outh": 2767, "/c": 2768, "pose": 2769, "irtual": 2770, "earch": 2771, "_url": 2772, "argin": 2773, "Ġschool": 2774, "ava": 2775, "Ġconsider": 2776, ".label": 2777, "ĠArray": 2778, "web": 2779, "opt": 2780, ".println": 2781, "ulation": 2782, "Ġfunc": 2783, "PL": 2784, "Ġ\"\\": 2785, "ĠText": 2786, "actory": 2787, "(function": 2788, "null": 2789, "Ġeng": 2790, "down": 2791, "Ġinclude": 2792, "ĠEn": 2793, "ĠDr": 2794, "Ġdb": 2795, "!!": 2796, "side": 2797, "Ġinit": 2798, "quired": 2799, "ĠShe": 2800, "Column": 2801, "react": 2802, "Ġann": 2803, "Ġstop": 2804, "Ġlater": 2805, "ĠThat": 2806, "ention": 2807, "df": 2808, "UG": 2809, "ILE": 2810, "Ġclient": 2811, "raft": 2812, "ffer": 2813, "POST": 2814, "elper": 2815, "Ġlove": 2816, "quote": 2817, "oud": 2818, "Ġjson": 2819, "Ġable": 2820, "Ġmen": 2821, "AX": 2822, "ĠCopyright": 2823, "Ã¶": 2824, "avig": 2825, "req": 2826, "Client": 2827, ".Com": 2828, "erc": 2829, "ilt": 2830, "pecial": 2831, "_com": 2832, "room": 2833, ".Name": 2834, "Ġgive": 2835, "amb": 2836, "ike": 2837, "Ġcondition": 2838, "client": 2839, "ators": 2840, ":\"": 2841, "Ġcopy": 2842, "uture": 2843, "iversity": 2844, "ernal": 2845, "{{": 2846, "ĠCan": 2847, "ounc": 2848, "do": 2849, "Ġocc": 2850, "Ġappro": 2851, "thers": 2852, "ze": 2853, "Ġeither": 2854, "ĠFl": 2855, "Ġimportant": 2856, "Ġlead": 2857, "attr": 2858, "ART": 2859, "Equal": 2860, "Ġda": 2861, "etch": 2862, "entity": 2863, "Ġfamily": 2864, "adding": 2865, "Ġoption": 2866, "Ġexist": 2867, "ica": 2868, "ĠObject": 2869, "'ve": 2870, "vers": 2871, "itional": 2872, "output": 2873, "ĠTrue": 2874, "ĠOF": 2875, "_time": 2876, "Ġoffer": 2877, "HER": 2878, "egin": 2879, "\"\"": 2880, "Ġwater": 2881, "Ġche": 2882, "ĠMy": 2883, "ored": 2884, "Ġstep": 2885, "ances": 2886, "CK": 2887, "AY": 2888, "à¸": 2889, "struction": 2890, "(C": 2891, "ouch": 2892, "Stream": 2893, "active": 2894, "ama": 2895, "Entity": 2896, "product": 2897, "Ġgovernment": 2898, "ĠID": 2899, "ajor": 2900, "And": 2901, "Ġdisplay": 2902, "Ð»": 2903, "Ġtimes": 2904, "Ġfour": 2905, "Ġfar": 2906, "Ġpresent": 2907, "ĠNS": 2908, "uest": 2909, "Ġbas": 2910, "echo": 2911, "child": 2912, "ifier": 2913, "Handler": 2914, "Ġlib": 2915, "Property": 2916, "translation": 2917, "Ġroom": 2918, "Ġonce": 2919, "Ġ[]": 2920, "center": 2921, "================================": 2922, "Ġresults": 2923, "Ġcontinue": 2924, "Ġtalk": 2925, "_get": 2926, "Ġgrow": 2927, ".sw": 2928, "eb": 2929, "ĠPublic": 2930, "OP": 2931, "ecute": 2932, "ols": 2933, "Ġ**": 2934, "Ġmass": 2935, "ured": 2936, ".class": 2937, "omic": 2938, "Ġmean": 2939, "ips": 2940, "Ġaut": 2941, "Ġuntil": 2942, "Ġmarket": 2943, "Ġarea": 2944, "uit": 2945, "Ġlength": 2946, "ĠWith": 2947, "structor": 2948, "event": 2949, "\"><": 2950, "ĠSp": 2951, "IV": 2952, "Ġmus": 2953, "iff": 2954, "Ġkind": 2955, "author": 2956, "ounds": 2957, "mb": 2958, "_key": 2959, "width": 2960, "pository": 2961, "Ġlight": 2962, "uk": 2963, "Row": 2964, "ohn": 2965, "alf": 2966, "vironment": 2967, "apper": 2968, "ollections": 2969, "Ġside": 2970, "_info": 2971, "Ġexample": 2972, "imary": 2973, "Ġwr": 2974, "Ġcamp": 2975, "cribe": 2976, "\"/": 2977, "Ġmiss": 2978, "way": 2979, "Ġbased": 2980, "Ġplan": 2981, "Vis": 2982, "omain": 2983, "unk": 2984, "Ġaway": 2985, "UP": 2986, "<T": 2987, "OS": 2988, "iod": 2989, "ĠMon": 2990, "âĢĻre": 2991, "Ġlik": 2992, "Ã§": 2993, "ively": 2994, ".v": 2995, "imer": 2996, "izer": 2997, "Sub": 2998, "Ġbutton": 2999, "ĠUp": 3000, "Ġexperience": 3001, "CL": 3002, "Ġrender": 3003, "_value": 3004, "Ġnear": 3005, "URL": 3006, "alt": 3007, "Ġcountry": 3008, "ibility": 3009, "ead": 3010, "Ġauthor": 3011, "Ġspecific": 3012, "base": 3013, "(name": 3014, "ones": 3015, "ĠDo": 3016, "Ġalong": 3017, "year": 3018, "Ġexpress": 3019, ".'": 3020, "env": 3021, "Ġbegin": 3022, "Ġsoftware": 3023, "Ġimp": 3024, "Ġwin": 3025, "Ã³n": 3026, "Ġthing": 3027, "Trans": 3028, "ĠTHE": 3029, "Ġ<?": 3030, "Ġwhy": 3031, "Ġdoesn": 3032, "ij": 3033, "ging": 3034, "Ġsingle": 3035, "offset": 3036, "arning": 3037, "ograph": 3038, "ley": 3039, "_count": 3040, "Ġanal": 3041, "create": 3042, "/m": 3043, "ĠReg": 3044, "unch": 3045, "=$": 3046, "isk": 3047, "Ġrights": 3048, "(M": 3049, "aper": 3050, ".model": 3051, "Ġpo": 3052, "empty": 3053, "artment": 3054, "Ġant": 3055, "ĠWhen": 3056, "Ġwomen": 3057, "ĠEd": 3058, "Ġseason": 3059, "Ġdest": 3060, "Ã£": 3061, "(h": 3062, "Ġpossible": 3063, "Ġsever": 3064, "Ġdidn": 3065, "Ġsent": 3066, "Ġenc": 3067, "Ġcommand": 3068, "_x": 3069, "Ġrecent": 3070, "olution": 3071, "vector": 3072, "ĠBy": 3073, "ĠMay": 3074, "ĠAct": 3075, "Ġmoney": 3076, "INT": 3077, "bsite": 3078, "sl": 3079, "attern": 3080, "ĠClass": 3081, "Ġtold": 3082, "udio": 3083, "current": 3084, "Ġequ": 3085, "Ġauto": 3086, "ĠState": 3087, "da": 3088, "msg": 3089, "Ġworking": 3090, "Ġquery": 3091, "ĠBr": 3092, "Ġwindow": 3093, "auth": 3094, "only": 3095, "Ġleast": 3096, "agn": 3097, "Ġexpl": 3098, "itter": 3099, "aring": 3100, "Ġcolumn": 3101, "ĠGeneral": 3102, "\":\"": 3103, "eral": 3104, "rior": 3105, "Ġrecord": 3106, "IB": 3107, "EX": 3108, "Ġdat": 3109, "Ġmaking": 3110, "ued": 3111, "ĠCar": 3112, "emp": 3113, "\".": 3114, "ĠMed": 3115, "Ġclose": 3116, "Ġpercent": 3117, "Ġpast": 3118, "(g": 3119, ":(": 3120, "Ġwrite": 3121, "Ġmove": 3122, "Ġpat": 3123, "Control": 3124, ".To": 3125, "Ġvi": 3126, "inate": 3127, "'ll": 3128, "aged": 3129, "Null": 3130, "Ġspecial": 3131, "IZE": 3132, "Ġcity": 3133, "ĠEng": 3134, "ixed": 3135, "inary": 3136, "py": 3137, "Ġeff": 3138, "ario": 3139, "Ġtell": 3140, "avor": 3141, "Ġselect": 3142, "level": 3143, "imum": 3144, "oper": 3145, "Builder": 3146, "IP": 3147, "esc": 3148, "Ġfont": 3149, "ĠAm": 3150, "ished": 3151, "ills": 3152, "Inter": 3153, "OW": 3154, "Ġcourse": 3155, "Ġlate": 3156, "iddle": 3157, "Ġamount": 3158, "Ġasync": 3159, "ino": 3160, "cul": 3161, "andle": 3162, "_user": 3163, "Ġben": 3164, "ĠCal": 3165, "Ġ$_": 3166, "ĠRep": 3167, "Ġenough": 3168, "Token": 3169, ".user": 3170, "(j": 3171, "Sc": 3172, "Width": 3173, "now": 3174, "atform": 3175, "Ġlooking": 3176, "Ġhold": 3177, "Module": 3178, "ITY": 3179, "vo": 3180, "ison": 3181, ".Data": 3182, "yc": 3183, "Ġpot": 3184, "ĠTrump": 3185, "idual": 3186, "ides": 3187, "rt": 3188, "Ġproperty": 3189, "ĠĠĠĠĠĠĠĠĠĠĠĠĠĠĠĠĠĠĠĠĠĠĠĠĠĠĠĠĠĠĠĠĠĠĠĠĠĠĠĠĠĠĠ": 3190, "amework": 3191, "go": 3192, "Ġlow": 3193, "Ġpara": 3194, "Ġprice": 3195, "ury": 3196, "Ġtoday": 3197, "roy": 3198, "Ġ'/": 3199, "Ġpolit": 3200, "Ġ''": 3201, "ymb": 3202, "Ph": 3203, "Ġadv": 3204, "Ġattack": 3205, "ĠSte": 3206, "ROM": 3207, "ana": 3208, "Ġmeans": 3209, "Ġstory": 3210, "ids": 3211, "aken": 3212, "Ġmeet": 3213, "Ġmom": 3214, "ĠâĢĺ": 3215, "Ġ?>": 3216, "Ġden": 3217, "obile": 3218, "change": 3219, "ĠĠĠĠĠĠĠĠĠĠĠĠĊ": 3220, "ici": 3221, "na": 3222, "ĠForm": 3223, "Ġsort": 3224, "Select": 3225, "pare": 3226, "Ġthought": 3227, "_con": 3228, "Ġtask": 3229, "ocus": 3230, "ĠDE": 3231, "ĠMin": 3232, "Ġopt": 3233, "umer": 3234, "KE": 3235, "then": 3236, "Ġdet": 3237, "ĠTest": 3238, "ports": 3239, "Ġreview": 3240, "('/": 3241, "move": 3242, "Ġswitch": 3243, "ERT": 3244, "patch": 3245, "annot": 3246, "ãĤ": 3247, "Ġabove": 3248, "itive": 3249, "Ġquestion": 3250, "ĠQu": 3251, "gle": 3252, "Ġword": 3253, "Ġprovide": 3254, "ĠReturn": 3255, "Ġresearch": 3256, "Ã£o": 3257, "ustr": 3258, "Ġpublish": 3259, "chema": 3260, "}}": 3261, "ĠCON": 3262, "-in": 3263, "allback": 3264, "Ġcover": 3265, "\\\\": 3266, "color": 3267, "ĠIS": 3268, "Ġwhether": 3269, "imate": 3270, "isc": 3271, "Bar": 3272, "Ġdiv": 3273, "Be": 3274, "ourn": 3275, "Ġhaving": 3276, "lem": 3277, "player": 3278, "abs": 3279, "amera": 3280, "ney": 3281, "Ġexc": 3282, "gether": 3283, "plied": 3284, "ao": 3285, "[$": 3286, "Ġ++": 3287, "ipe": 3288, "show": 3289, "/d": 3290, "[:": 3291, "agement": 3292, "lev": 3293, "_ID": 3294, "rary": 3295, "ades": 3296, "_se": 3297, "ause": 3298, "Ġemploy": 3299, "Ġfre": 3300, "Ġ'@": 3301, "Ġcomplet": 3302, "Ġlarge": 3303, "ral": 3304, "\\x": 3305, "Ġfac": 3306, "<String": 3307, "Ġcreated": 3308, "uper": 3309, ".state": 3310, "Ġhost": 3311, "eneric": 3312, "/b": 3313, "(!": 3314, "while": 3315, "ias": 3316, "BUG": 3317, "Ġrole": 3318, "Reg": 3319, "ĠColor": 3320, "Start": 3321, "top": 3322, "Ġweb": 3323, "Ġdev": 3324, "Ġdeal": 3325, "Integer": 3326, "position": 3327, ".on": 3328, "Ġ(\"": 3329, "Ġproblem": 3330, "sv": 3331, "Ġpress": 3332, "ABLE": 3333, "ATION": 3334, "ĠSee": 3335, "anch": 3336, "Ġthough": 3337, "leep": 3338, "Ġ<!--": 3339, "Ġpoints": 3340, "ĠĠĠĠĠĠĠĠĠĠĠĠĠĠĠĠĠĠĠĠĠĠĠĠĠ": 3341, ".J": 3342, "Ġ::": 3343, "ptr": 3344, "DB": 3345, ".png": 3346, "node": 3347, "soft": 3348, "pond": 3349, "Ġever": 3350, "----------------------------------------------------------------": 3351, "Menu": 3352, "('#": 3353, "Ġservices": 3354, "pg": 3355, "params": 3356, "Ġactually": 3357, "Ġ\"/": 3358, "Empty": 3359, "Method": 3360, "Ġident": 3361, "unic": 3362, "Ġmillion": 3363, "Ġaff": 3364, "style": 3365, "Ġconc": 3366, "ios": 3367, "ignment": 3368, "ULT": 3369, "Pr": 3370, "Ġunderstand": 3371, "uary": 3372, "Ġhappen": 3373, "Ġserver": 3374, "ĠCo": 3375, "SC": 3376, "Ġles": 3377, "Ġfiles": 3378, "Grid": 3379, "sql": 3380, "Ġoften": 3381, "Ġinfo": 3382, "_tr": 3383, "src": 3384, "ony": 3385, "Ġspace": 3386, "umb": 3387, "Ġpassword": 3388, "Ġstore": 3389, "ĠWhat": 3390, "ged": 3391, "ĠFalse": 3392, "Us": 3393, "swer": 3394, "_index": 3395, "Ġformat": 3396, "most": 3397, "sm": 3398, "New": 3399, "Ġdetails": 3400, "Ġprob": 3401, "ĠAND": 3402, "ilar": 3403, "Ġ${": 3404, "rypt": 3405, "ĠFree": 3406, "_of": 3407, "(false": 3408, "dated": 3409, "Ġ>>": 3410, "Ġface": 3411, "CTION": 3412, "Ġsave": 3413, "Ġtyp": 3414, "dev": 3415, "(\"#": 3416, "AGE": 3417, "container": 3418, "edit": 3419, "QL": 3420, "Ġitems": 3421, "Ġsocial": 3422, "ien": 3423, "ĠReact": 3424, "Ġmar": 3425, "Ġredu": 3426, "ĠRE": 3427, ".put": 3428, "Ġmajor": 3429, "Cell": 3430, "next": 3431, "Ġexpected": 3432, "Ġyet": 3433, "Ġindiv": 3434, "tributes": 3435, "atis": 3436, "amed": 3437, "Ġfood": 3438, "Source": 3439, "(string": 3440, "ites": 3441, "dr": 3442, "Ġmembers": 3443, "Ġcomb": 3444, "items": 3445, "ĠPer": 3446, "TH": 3447, "=True": 3448, "Ġbar": 3449, "_SE": 3450, "comm": 3451, "(w": 3452, "Ġsend": 3453, "Ġinc": 3454, "unsigned": 3455, "FA": 3456, "Ġparams": 3457, "apping": 3458, "ros": 3459, "ugin": 3460, "fa": 3461, "Ġconnection": 3462, "Ġbecome": 3463, "Mode": 3464, "Ġev": 3465, "Ġdiff": 3466, "ĠUnited": 3467, "Height": 3468, "fully": 3469, "images": 3470, "Ġmakes": 3471, "Ġglobal": 3472, "Ġcontact": 3473, "Ġabs": 3474, "float": 3475, "Ġexcept": 3476, "ĠPol": 3477, "Child": 3478, "typ": 3479, "Ġcertain": 3480, "iÃ³n": 3481, "OUT": 3482, "Ġimpro": 3483, "iles": 3484, "ĠPart": 3485, "values": 3486, "oss": 3487, "/**": 3488, "ilit": 3489, "ĠEvent": 3490, "curity": 3491, "ster": 3492, "Ġcharacter": 3493, "Ġnews": 3494, "Ġ\",": 3495, "Ġdevice": 3496, "cel": 3497, "login": 3498, "heet": 3499, "Default": 3500, "@\"": 3501, "click": 3502, "(value": 3503, "ĠAb": 3504, "Ġprevious": 3505, "ERROR": 3506, "ocal": 3507, "Ġmaterial": 3508, "Ġbelow": 3509, "ĠChrist": 3510, "Ġmedia": 3511, "cover": 3512, "ĠUI": 3513, "Ġfail": 3514, "Ġblack": 3515, "Ġcomponent": 3516, "ĠAmerican": 3517, "Ġadded": 3518, "Ġbuy": 3519, "stit": 3520, "Ġcame": 3521, "Ġdelete": 3522, "property": 3523, "oding": 3524, "Ġcard": 3525, "rops": 3526, "Ġhttps": 3527, "Ġroot": 3528, "Ġhandle": 3529, "CC": 3530, "Back": 3531, "emplate": 3532, "Ġgetting": 3533, "_by": 3534, "mail": 3535, "_sh": 3536, "ĠDec": 3537, "(true": 3538, "Ġcomput": 3539, "Ġclaim": 3540, "ĠSub": 3541, "Ġair": 3542, "ops": 3543, "nav": 3544, "ements": 3545, "(id": 3546, "Ġenter": 3547, "anged": 3548, "End": 3549, "Ġlocation": 3550, "Ġnight": 3551, "Ġdoing": 3552, "ĠRed": 3553, "lin": 3554, "vider": 3555, "Ġpick": 3556, "Ġwatch": 3557, "essages": 3558, "Ġhuman": 3559, "Ġdam": 3560, "pend": 3561, "dir": 3562, "Ġtax": 3563, "Ġgirl": 3564, "reet": 3565, "Ġbox": 3566, "Ġstrong": 3567, "(v": 3568, "rel": 3569, "Ġinterface": 3570, "Ġmsg": 3571, "fect": 3572, "_at": 3573, "Ġhouse": 3574, "Ġtrack": 3575, "je": 3576, "ĠJohn": 3577, "istr": 3578, "(S": 3579, "ube": 3580, "Ġce": 3581, "itted": 3582, "VER": 3583, "*)": 3584, "parent": 3585, "Ġapplication": 3586, "any": 3587, "Ġpack": 3588, "\\u": 3589, "Ġpract": 3590, "Ġsection": 3591, "ctx": 3592, "Ġunsigned": 3593, "ĠOne": 3594, "Ä±": 3595, "iple": 3596, "aid": 3597, "Ñĥ": 3598, "Vector": 3599, "byte": 3600, "Ġwait": 3601, "ĠÃł": 3602, "Ã¥": 3603, "Ġtogether": 3604, "Ġthrows": 3605, "FO": 3606, "'))": 3607, "host": 3608, "ising": 3609, ".view": 3610, "Ġterms": 3611, "framework": 3612, "-r": 3613, "Ġapply": 3614, "Ġsession": 3615, "Options": 3616, "uggest": 3617, "Ġothers": 3618, "witter": 3619, "Ġfund": 3620, "Init": 3621, "__(": 3622, "ensor": 3623, "GET": 3624, "Ġseveral": 3625, "ii": 3626, "[j": 3627, "IO": 3628, "Ġtemplate": 3629, "Position": 3630, "Ġecon": 3631, "achine": 3632, "Ġil": 3633, ".spring": 3634, "main": 3635, "elt": 3636, "iment": 3637, "Rec": 3638, "mm": 3639, "ĠUniversity": 3640, "ursor": 3641, "ĠĠĠĠĠĠĠĠĠĠĠĠĠĠĠĠĠĠĠĠ": 3642, "GL": 3643, "icture": 3644, "ithub": 3645, "cer": 3646, "cast": 3647, "From": 3648, "ales": 3649, "Ġsubject": 3650, "password": 3651, "ny": 3652, "Ġesc": 3653, ".write": 3654, "ï¼Į": 3655, "What": 3656, ".H": 3657, "Ġhistory": 3658, "ĠFe": 3659, "Ġindividual": 3660, "unit": 3661, "Ġ-->": 3662, "Ġdu": 3663, "IST": 3664, "Ġusers": 3665, "fs": 3666, "false": 3667, "unt": 3668, "Title": 3669, "Ġmot": 3670, "Ġfuture": 3671, "ached": 3672, "Ġstarted": 3673, "Ġmode": 3674, "Ġ'<": 3675, "_array": 3676, "Ġax": 3677, "ires": 3678, "There": 3679, "ught": 3680, "tml": 3681, "posed": 3682, "icult": 3683, "Ġtook": 3684, "Ġgames": 3685, "Ġ}}": 3686, "Ġproducts": 3687, "Is": 3688, "Ġbad": 3689, "ĠDes": 3690, ".path": 3691, "ĠPost": 3692, "avel": 3693, "(:": 3694, "Ġneeds": 3695, "Ġknown": 3696, "Fl": 3697, "Ġexec": 3698, "Ġseen": 3699, "ume": 3700, "Ġborder": 3701, "Ġlive": 3702, "temp": 3703, "Per": 3704, "Ġvariable": 3705, "iet": 3706, "ĠDef": 3707, "Ġge": 3708, "eme": 3709, "_back": 3710, "first": 3711, "Ġprovided": 3712, "////////////////////////////////": 3713, "Ġfilename": 3714, "Ġhope": 3715, "uly": 3716, "auto": 3717, "find": 3718, "_string": 3719, "btn": 3720, "itude": 3721, "Attribute": 3722, "Ġyoung": 3723, ".txt": 3724, "Ġwebsite": 3725, "ĠProp": 3726, "Ġey": 3727, "ional": 3728, "ARR": 3729, "ictionary": 3730, "urther": 3731, ".</": 3732, "ALL": 3733, "Ġstudy": 3734, "ili": 3735, "Ġnetwork": 3736, "yl": 3737, "istance": 3738, "OK": 3739, "NU": 3740, "rest": 3741, "ĠST": 3742, "icrosoft": 3743, "Ġlimit": 3744, "Ġcut": 3745, "Ġcou": 3746, "ogn": 3747, "Ġsizeof": 3748, "ival": 3749, "Ġwent": 3750, ".z": 3751, "Link": 3752, "Ġfire": 3753, "Ġacross": 3754, "Ġcommunity": 3755, "region": 3756, "NE": 3757, "Ref": 3758, "Ġofficial": 3759, "Ġvisit": 3760, "olve": 3761, "Ġreceived": 3762, "Ġtoken": 3763, "Ġmonths": 3764, "Ġanim": 3765, "Ġparticular": 3766, "styles": 3767, "ico": 3768, "Ġess": 3769, "ĠÃ©": 3770, "ball": 3771, "Ġlearn": 3772, "inding": 3773, "Var": 3774, "Ġdecl": 3775, "(err": 3776, "LECT": 3777, "One": 3778, "pha": 3779, "Ġ~": 3780, "fort": 3781, "asure": 3782, "Ġmind": 3783, "ĠEnd": 3784, "Check": 3785, "Ġquick": 3786, "\"),": 3787, "AND": 3788, "utions": 3789, "Base": 3790, "________": 3791, "Ġcomment": 3792, "INE": 3793, "âĢĻve": 3794, "But": 3795, "ĠEl": 3796, "ĠUs": 3797, "Ġadmin": 3798, "mark": 3799, "ĠName": 3800, "ĠType": 3801, "amic": 3802, "pc": 3803, "loor": 3804, "FT": 3805, "Ġopp": 3806, "cket": 3807, ")->": 3808, "tx": 3809, "Ġpur": 3810, "uel": 3811, "ymbol": 3812, "uation": 3813, "anger": 3814, "Ġbackground": 3815, "ecess": 3816, "efined": 3817, "........": 3818, "Ġdescription": 3819, "Ġrepresent": 3820, "pression": 3821, "rowser": 3822, "Ġseries": 3823, "wards": 3824, "aise": 3825, "Ġhot": 3826, "acity": 3827, "ries": 3828, "actions": 3829, "Create": 3830, "adio": 3831, "amples": 3832, "Ġoriginal": 3833, "ensive": 3834, "font": 3835, "stream": 3836, "server": 3837, "Ġbill": 3838, "ACK": 3839, "ilename": 3840, "Ġframe": 3841, "Edit": 3842, "adius": 3843, "Ġdraw": 3844, "anks": 3845, "Ġdeter": 3846, "Ġcomes": 3847, "_int": 3848, "Ġforeach": 3849, "angle": 3850, "Ġelect": 3851, "pected": 3852, "Header": 3853, "istration": 3854, "False": 3855, "ĠGame": 3856, "Ġfilter": 3857, "Activity": 3858, "Ġlarg": 3859, "inition": 3860, "Ġ\"<": 3861, "ised": 3862, "Ġremove": 3863, "ĠTrans": 3864, "met": 3865, "see": 3866, "Format": 3867, "Command": 3868, "ĠEX": 3869, "None": 3870, "Ġfront": 3871, "ASE": 3872, "ĠRec": 3873, "oundation": 3874, "Ġvo": 3875, "=\\\"": 3876, "(*": 3877, "Change": 3878, ".Write": 3879, "group": 3880, "ients": 3881, "uy": 3882, "****************************************************************": 3883, "Ġdig": 3884, "hr": 3885, "(-": 3886, "Ġgen": 3887, "number": 3888, "vec": 3889, "urope": 3890, "entry": 3891, "LL": 3892, "Ġste": 3893, "Valid": 3894, "'],": 3895, "_param": 3896, "Ġselected": 3897, "Ġaccording": 3898, "ĠDis": 3899, "Ġutil": 3900, "Buffer": 3901, "_error": 3902, "Ġassoci": 3903, "_SIZE": 3904, "Ġwor": 3905, "Ġprintf": 3906, "rag": 3907, "Âł": 3908, "DD": 3909, "ĠVal": 3910, "Ġactiv": 3911, "Eng": 3912, "etime": 3913, "Ġvirtual": 3914, "aign": 3915, "aur": 3916, "ĠPres": 3917, "ĠException": 3918, "Ġanything": 3919, "ĠOff": 3920, "Ġhours": 3921, "Ġwar": 3922, "Args": 3923, "aging": 3924, "Ġmodels": 3925, "ĠTime": 3926, "Ob": 3927, "ams": 3928, "joy": 3929, "Ġearly": 3930, ".read": 3931, "Ġcenter": 3932, "ĠInitial": 3933, "Ġlanguage": 3934, "length": 3935, "xy": 3936, "Ġsn": 3937, "Ġinf": 3938, "Post": 3939, "Ġago": 3940, "Ġeasy": 3941, "_code": 3942, "ĠANY": 3943, "_ch": 3944, "Ġdownload": 3945, "(T": 3946, "aved": 3947, "âĢĵ": 3948, "Ġstudents": 3949, "Ġfig": 3950, "light": 3951, "xx": 3952, "Ġbuffer": 3953, "ĠDep": 3954, "ĠMath": 3955, "ITH": 3956, "Ġvari": 3957, "Ġdue": 3958, "Factory": 3959, "Ġpor": 3960, "Ġep": 3961, "otype": 3962, "Ġcannot": 3963, "Ġwhite": 3964, "<int": 3965, "tern": 3966, "Ġregister": 3967, "Ġpred": 3968, "clus": 3969, "_date": 3970, "Ġ/**": 3971, "Ġauth": 3972, "Ġperiod": 3973, "nown": 3974, "Ġvot": 3975, "Ġscreen": 3976, "'d": 3977, "Types": 3978, "Ġtmp": 3979, "ural": 3980, "Ġbenef": 3981, "_y": 3982, "Ġnet": 3983, "ĠStates": 3984, "']['": 3985, "ĠNe": 3986, "ĠNOT": 3987, "Ġneg": 3988, "Ġcommon": 3989, "scope": 3990, "Ġcred": 3991, "ges": 3992, "_TYPE": 3993, "Ġsuggest": 3994, "oom": 3995, "Ġaccept": 3996, "Ġrandom": 3997, "erm": 3998, "ĠVector": 3999, "with": 4000, "TER": 4001, "(str": 4002, "Ġrespons": 4003, "Ġhit": 4004, "grid": 4005, "ria": 4006, "Ġclick": 4007, "undle": 4008, "Case": 4009, "insert": 4010, "Utils": 4011, "Ġ\"\"\"": 4012, "Ġimplement": 4013, "atal": 4014, "tempt": 4015, "template": 4016, "ocr": 4017, "returns": 4018, "Ġplayers": 4019, "users": 4020, "edef": 4021, "ĠThese": 4022, "Ġamong": 4023, "Ġdeb": 4024, "ha": 4025, "Ġcirc": 4026, "Ġanswer": 4027, "Ġwalk": 4028, "Ġtreat": 4029, "ĠGe": 4030, "ĠCreate": 4031, "Ġage": 4032, "Ġreq": 4033, "OST": 4034, "angular": 4035, "Ñı": 4036, "Ġfive": 4037, "Ġdistributed": 4038, "Ġfriend": 4039, "TP": 4040, "Ġclean": 4041, "ows": 4042, "dis": 4043, "Ġwords": 4044, ".io": 4045, "zy": 4046, "Ġheader": 4047, "ĠCheck": 4048, "âĢĻm": 4049, "just": 4050, "holder": 4051, "ĠGNU": 4052, "ĠCol": 4053, "imest": 4054, "entic": 4055, "Ġtre": 4056, "last": 4057, "la": 4058, "ĠYork": 4059, "Lo": 4060, "Ġdiscuss": 4061, "ĠGod": 4062, "Ġissue": 4063, "rew": 4064, "Window": 4065, "Ġland": 4066, "Ġstream": 4067, "ĠPar": 4068, "Ġquality": 4069, "Par": 4070, "_num": 4071, "Ġsal": 4072, "elves": 4073, "ORD": 4074, "(user": 4075, "Ġworks": 4076, "Ġhalf": 4077, "enses": 4078, "vas": 4079, "Ġpolice": 4080, "(\"/": 4081, "ua": 4082, "Ġsimple": 4083, "Address": 4084, "Ġempty": 4085, "esh": 4086, "Update": 4087, "ĠCreated": 4088, "('.": 4089, "ĠĠĠĠĠĠĠĠĠĠĠĠĠĠĠĠĠĠ": 4090, "Ġagre": 4091, "ĠFROM": 4092, "Ġcook": 4093, "Ġeverything": 4094, "ilities": 4095, ".status": 4096, "Ġrelations": 4097, "extern": 4098, "Ġnothing": 4099, "Ġrunning": 4100, "RI": 4101, "_a": 4102, "por": 4103, ".sub": 4104, "require": 4105, "ĠCity": 4106, "ĠWest": 4107, "Ġmor": 4108, "store": 4109, "Equals": 4110, "oder": 4111, "Ġna": 4112, "Ġ[[": 4113, "Ġ('": 4114, "ĠDon": 4115, "ERS": 4116, "/p": 4117, ".json": 4118, "abor": 4119, "Ġsomeone": 4120, "_text": 4121, ".css": 4122, "ĠSome": 4123, "ato": 4124, "double": 4125, "Ġshare": 4126, "(void": 4127, "_dir": 4128, "Ġur": 4129, "Stack": 4130, "ĠWorld": 4131, ".X": 4132, "stract": 4133, "How": 4134, "icles": 4135, "Ġentry": 4136, "Ġchanges": 4137, "Ġpersonal": 4138, "(A": 4139, "Ġoffset": 4140, "_ptr": 4141, "Ġpie": 4142, "ĠJan": 4143, "-group": 4144, "module": 4145, "Items": 4146, "ĠHowever": 4147, "verage": 4148, "Ġevents": 4149, ".min": 4150, "Ġinvol": 4151, "za": 4152, "Ġwhole": 4153, "Ġneeded": 4154, "Ġlikely": 4155, "rief": 4156, "ORM": 4157, "version": 4158, "Ġfight": 4159, "Ġein": 4160, "Frame": 4161, "gen": 4162, "ĠOut": 4163, "avigation": 4164, "Length": 4165, "illed": 4166, "quence": 4167, "ĠSoftware": 4168, "Ġwriting": 4169, "Ġrate": 4170, "Panel": 4171, "inner": 4172, "Ġ[\"": 4173, "Ġtw": 4174, "cd": 4175, "_state": 4176, "ĠSm": 4177, "ĠMark": 4178, "prot": 4179, "ĠMr": 4180, "method": 4181, "ustomer": 4182, "Icon": 4183, "Ġcorrect": 4184, "(object": 4185, "ĠMore": 4186, "Ġfall": 4187, "Ġvol": 4188, "Ġdevelopment": 4189, "ently": 4190, "Ġsi": 4191, "medi": 4192, "ving": 4193, "PP": 4194, "aker": 4195, "Ġindu": 4196, "Ġelif": 4197, "Ġpret": 4198, "Ġbelieve": 4199, "ns": 4200, "omet": 4201, "ĠIntern": 4202, "Rect": 4203, "So": 4204, ".error": 4205, "Read": 4206, "Ġfeatures": 4207, "Ġminutes": 4208, "---": 4209, "asing": 4210, "cret": 4211, "Ġcollection": 4212, "'.": 4213, "Ġsimilar": 4214, "Ġtaken": 4215, "(\"%": 4216, "Order": 4217, "-md": 4218, "ĠTH": 4219, "aced": 4220, "Ġisn": 4221, "/j": 4222, "Ġson": 4223, "graph": 4224, "ĠInteger": 4225, "Ġnecess": 4226, "reen": 4227, "Ġum": 4228, "Ġ\\<": 4229, "Ġmoment": 4230, "Ġbring": 4231, "Ġindic": 4232, "ysis": 4233, "Level": 4234, "verse": 4235, "urrenc": 4236, "_test": 4237, "Ġentire": 4238, "Down": 4239, "(result": 4240, "ĠRead": 4241, "Ã¨": 4242, "Mod": 4243, "Ġtrying": 4244, "Ġmember": 4245, "ĠCor": 4246, "ODO": 4247, "-control": 4248, "untime": 4249, "ĠSim": 4250, "Dialog": 4251, "plot": 4252, "_on": 4253, "Ġphys": 4254, "}/": 4255, "Ġnamespace": 4256, "acc": 4257, "Player": 4258, "ARE": 4259, "Ġfoot": 4260, "Ġboard": 4261, "part": 4262, "Ġsus": 4263, "wise": 4264, "ĠMc": 4265, "Ġpush": 4266, "ATA": 4267, "Ġplease": 4268, "ried": 4269, "weet": 4270, "bit": 4271, "ided": 4272, "VE": 4273, "ĠSw": 4274, "UB": 4275, "Ġtypes": 4276, "edia": 4277, "Ġclos": 4278, "acebook": 4279, "When": 4280, "Ġedit": 4281, "igger": 4282, "Ġenerg": 4283, "Container": 4284, "Ġphot": 4285, "ĠCount": 4286, "ĠEurope": 4287, ".Is": 4288, "ĠRuss": 4289, "peed": 4290, "ĠStr": 4291, "Ġpy": 4292, "Ġcult": 4293, "Ġdefined": 4294, "ccount": 4295, "Ġobt": 4296, "Ġthread": 4297, "ille": 4298, "Ġinstead": 4299, "strong": 4300, "ĠSec": 4301, "URE": 4302, "Ġidea": 4303, ".se": 4304, "emy": 4305, "selected": 4306, "Connection": 4307, "acing": 4308, "thread": 4309, ".next": 4310, "Ġcoll": 4311, "Ġfilm": 4312, "istic": 4313, "Ġcompet": 4314, "Ġconn": 4315, "though": 4316, "Ġcompan": 4317, "ocket": 4318, "Ġteach": 4319, "=(": 4320, "Ġphone": 4321, "Ġactive": 4322, "delete": 4323, "tries": 4324, "Ġmo": 4325, "Ġdeath": 4326, "ocol": 4327, "Widget": 4328, "Ġarticle": 4329, "rodu": 4330, "andid": 4331, "Ñĭ": 4332, "ĠCr": 4333, "ka": 4334, "():": 4335, "lood": 4336, "Ġalmost": 4337, "Ġsell": 4338, "ervlet": 4339, "rip": 4340, "Unit": 4341, "Ġapplic": 4342, "Ġconnect": 4343, "Ġfeature": 4344, "Ġvia": 4345, "'),": 4346, "Ġlim": 4347, "ĠĠĠĠĠĠĠĠĠĠĠĠĠĠĠĠĠĠĠĠĠĠĠĠĠĠĠĠĠĠĠĠĠĠĠĠĠĠĠĠĠĠĠĠĠĠĠ": 4348, "ĠGu": 4349, "Engine": 4350, "Ġens": 4351, "Ġenvironment": 4352, "block": 4353, "HERE": 4354, "NULL": 4355, "gy": 4356, "tag": 4357, ")).": 4358, "exp": 4359, "Ġcompl": 4360, "Ġinstall": 4361, "Ġcomplete": 4362, "queue": 4363, "atural": 4364, "Ġgeneral": 4365, "thon": 4366, "Ġasked": 4367, "ores": 4368, "(res": 4369, "Ġreserved": 4370, "SP": 4371, "ĠâĢ¦": 4372, "ÅĤ": 4373, "Ġsignific": 4374, "Off": 4375, "ĠĠĠĠĠĠĠĠĠĠĠĠĠĠĠĠĠĠĠĠĠĠĠĠĠĠĠĠĠ": 4376, "ĠAg": 4377, "ĠJust": 4378, "ĠError": 4379, "Ġinfl": 4380, "adata": 4381, "Ġicon": 4382, "asks": 4383, "''": 4384, "_LO": 4385, "?.": 4386, "account": 4387, "Ġ(*": 4388, "rap": 4389, "_var": 4390, "ĠFOR": 4391, "Ġparty": 4392, "ĠYour": 4393, "cat": 4394, "stry": 4395, ".new": 4396, "boot": 4397, "ĠNov": 4398, "Ġvector": 4399, "Ġnormal": 4400, "Ġfurther": 4401, "Repository": 4402, "Ġdatabase": 4403, "attle": 4404, "Ġmusic": 4405, "Ġspeed": 4406, "Ġdoc": 4407, "process": 4408, "IGHT": 4409, ".parse": 4410, "Ġtaking": 4411, "Ġviol": 4412, "ceed": 4413, "ĠAfter": 4414, "Ġforward": 4415, "Ġcrit": 4416, "rot": 4417, "Ġfailed": 4418, "efore": 4419, "Ġconcern": 4420, "oe": 4421, "ba": 4422, "Ġsender": 4423, "Ġterm": 4424, "has": 4425, "=\"#": 4426, "Ġpotential": 4427, "Num": 4428, "Ġpublished": 4429, ".close": 4430, "ĠImage": 4431, "straint": 4432, "UD": 4433, "ĠOb": 4434, "Ġprobably": 4435, "lim": 4436, "olume": 4437, "Ġconsum": 4438, "ague": 4439, "ensions": 4440, "Ġinvestig": 4441, "-year": 4442, "');": 4443, "-sm": 4444, "Ġenjoy": 4445, "orig": 4446, "ering": 4447, "cp": 4448, "leased": 4449, "plements": 4450, "Ġreturns": 4451, "pat": 4452, "BO": 4453, "ĠHouse": 4454, "Ġweight": 4455, "ighb": 4456, "Ġconditions": 4457, "Ġexception": 4458, "description": 4459, "Ġtrad": 4460, "-to": 4461, "Ġ{}": 4462, "Ġmodule": 4463, "END": 4464, ".ap": 4465, "Ġconstructor": 4466, "aves": 4467, "Ġfavor": 4468, "ĠNow": 4469, ";i": 4470, "ĠMain": 4471, "_k": 4472, "eries": 4473, "âĢĻll": 4474, "transform": 4475, "imestamp": 4476, "Pre": 4477, "Ġmer": 4478, ".res": 4479, "stant": 4480, "Location": 4481, "_NAME": 4482, "Ġloss": 4483, "ĠĊĊ": 4484, "net": 4485, "Ġengine": 4486, "Block": 4487, "Ġissues": 4488, "Ġparse": 4489, "ĠBar": 4490, "Ġstay": 4491, "ĠJSON": 4492, "Ġdom": 4493, "airs": 4494, "wner": 4495, "Ġlower": 4496, "ĠDem": 4497, "ufact": 4498, "Ġps": 4499, "Ġperfect": 4500, "RL": 4501, "Ġeduc": 4502, "ls": 4503, "emory": 4504, "ARRANT": 4505, "uge": 4506, "Ġexact": 4507, ".key": 4508, "alled": 4509, "ech": 4510, "ief": 4511, "\\/": 4512, "oke": 4513, "Ġformer": 4514, "alloc": 4515, "Ġsix": 4516, "ida": 4517, "Ġmargin": 4518, "Ġheart": 4519, "ald": 4520, "pack": 4521, "ĠWARRANT": 4522, "Ġrather": 4523, "Ġbuilding": 4524, "erman": 4525, "lice": 4526, "Ġquestions": 4527, "izes": 4528, "lege": 4529, "irectory": 4530, "Ġje": 4531, "Ġcas": 4532, "props": 4533, "utf": 4534, "Ġsecurity": 4535, "Ġhowever": 4536, "weight": 4537, "Ġinside": 4538, "Ġpresident": 4539, "Char": 4540, "ĠWITH": 4541, ".map": 4542, "Ġgraph": 4543, "Ġtag": 4544, "_status": 4545, "Ġattempt": 4546, "opp": 4547, "uses": 4548, "Ġround": 4549, ",$": 4550, "Ġfriends": 4551, "Email": 4552, "?>": 4553, "Resource": 4554, "KEY": 4555, "osp": 4556, "ĠNorth": 4557, "ables": 4558, "istrib": 4559, "_class": 4560, "ello": 4561, "That": 4562, "Ðº": 4563, "pecially": 4564, "ĠPresident": 4565, "Ġcampaign": 4566, "Ġalt": 4567, "area": 4568, "Ġchall": 4569, "Ġopport": 4570, ".Con": 4571, "Ġenergy": 4572, "like": 4573, ".string": 4574, "ington": 4575, ")*": 4576, "yy": 4577, "Ġprofession": 4578, "irth": 4579, "Ġseg": 4580, "Ġhor": 4581, "iers": 4582, "can": 4583, "Ġbehind": 4584, "Product": 4585, "fg": 4586, "ĠSk": 4587, ".jpg": 4588, "?:": 4589, "Ġcallback": 4590, "ÑĮ": 4591, "long": 4592, "MS": 4593, "ATH": 4594, "Ġraise": 4595, "Ġwanted": 4596, "rown": 4597, "utor": 4598, "lt": 4599, "]=": 4600, "eline": 4601, "MA": 4602, "Ġsepar": 4603, "cs": 4604, "semb": 4605, "Dis": 4606, "bserv": 4607, "ĠWill": 4608, "Ġpolicy": 4609, "Ġthird": 4610, "phone": 4611, "Ġbed": 4612, "/g": 4613, ".__": 4614, "ĠInc": 4615, "izing": 4616, ".remove": 4617, "instance": 4618, ".type": 4619, "Ġserv": 4620, "Each": 4621, "Ġhar": 4622, "ĠMessage": 4623, "(key": 4624, "SELECT": 4625, "Pos": 4626, "Ġrecomm": 4627, "Ġtraining": 4628, "ĠEnt": 4629, "ĠChar": 4630, "icht": 4631, "(file": 4632, "Ġprior": 4633, "Game": 4634, "Ġexit": 4635, "Params": 4636, ".core": 4637, "PC": 4638, "nes": 4639, "anced": 4640, "Password": 4641, "Ġmag": 4642, "Ġrelease": 4643, "Ġshall": 4644, "udent": 4645, "ĠSouth": 4646, "ando": 4647, ":'": 4648, "sk": 4649, "anner": 4650, "isset": 4651, "Ġoutside": 4652, "ledge": 4653, "ĠRob": 4654, "Ġimm": 4655, "ĠWeb": 4656, "Des": 4657, "BC": 4658, "ancial": 4659, "Route": 4660, "Dec": 4661, "ferences": 4662, "Ġpurch": 4663, "ĠModel": 4664, "ctor": 4665, "gn": 4666, "_start": 4667, "_un": 4668, ".*": 4669, "ises": 4670, "Ġground": 4671, "Ġunique": 4672, "Ġbeaut": 4673, "{\"": 4674, "Ġpour": 4675, "ĠOct": 4676, "Ġtree": 4677, "sets": 4678, "_res": 4679, "_reg": 4680, "(\"\\": 4681, "Ġbyte": 4682, "Bl": 4683, "Ġdating": 4684, "Ġmatter": 4685, "ĠRem": 4686, "ĠAug": 4687, "ĠLa": 4688, "Ġ$(": 4689, "ournal": 4690, "iam": 4691, "Ġshows": 4692, "write": 4693, "Ġball": 4694, "Ġsimply": 4695, "Ġfast": 4696, "Ġmemory": 4697, "ASS": 4698, "ĠOf": 4699, "oved": 4700, "ante": 4701, "aul": 4702, "istry": 4703, "Ġfit": 4704, "Ġpolitical": 4705, "ancel": 4706, "_.": 4707, "card": 4708, ".current": 4709, "och": 4710, "_image": 4711, "\\t": 4712, "(L": 4713, "Ġindustry": 4714, "coming": 4715, "Ġextra": 4716, "Ġreported": 4717, ".start": 4718, "Ġresources": 4719, "Ġimg": 4720, "flow": 4721, "_EX": 4722, "(null": 4723, "ĠPre": 4724, "Ġwrong": 4725, "interface": 4726, "Parameter": 4727, "ners": 4728, "á»": 4729, "ture": 4730, "ersist": 4731, "ountry": 4732, "Ġseems": 4733, "alance": 4734, "dest": 4735, "Ġmaint": 4736, "Ġunit": 4737, "acters": 4738, "ĠTR": 4739, "iful": 4740, "project": 4741, "Application": 4742, "legate": 4743, "Ġtakes": 4744, "term": 4745, "Ġetc": 4746, "uster": 4747, "Ġappear": 4748, "address": 4749, "Ġfem": 4750, "hs": 4751, "Ġhom": 4752, ",-": 4753, "Ġdifficult": 4754, "Ġcoming": 4755, "Open": 4756, "Ġsettings": 4757, "ĠWar": 4758, "ĠThen": 4759, "Ġautom": 4760, "ĠFoundation": 4761, "Ġquite": 4762, "Description": 4763, "Ġblog": 4764, "iqu": 4765, "PS": 4766, "_field": 4767, "SSION": 4768, "ĠSch": 4769, "ĠLO": 4770, "Ġdescri": 4771, "Ġeveryone": 4772, "Ġpretty": 4773, "Ġlonger": 4774, "Ġmenu": 4775, "Ġcurrently": 4776, "sec": 4777, "Ġrelationship": 4778, "################################": 4779, "ĠMap": 4780, "aset": 4781, "Ġparameters": 4782, "Ġcrush": 4783, "ILITY": 4784, "igration": 4785, "Ġcout": 4786, "total": 4787, "Ġnames": 4788, "ndef": 4789, "\");": 4790, "riend": 4791, "ynamic": 4792, "Ġeffort": 4793, "Ġactual": 4794, "Ġfields": 4795, "OUN": 4796, "ters": 4797, "Ġfix": 4798, "_model": 4799, "Ġcases": 4800, "CA": 4801, "My": 4802, "Interface": 4803, "ĠSE": 4804, "]]": 4805, "alle": 4806, "ĠNational": 4807, "ĠArrayList": 4808, "inline": 4809, ".V": 4810, "ara": 4811, "refix": 4812, "asc": 4813, "Reader": 4814, "ĠÐ¿": 4815, "astic": 4816, "Cl": 4817, "Ġperformance": 4818, "aily": 4819, ".toString": 4820, ".net": 4821, "views": 4822, ".end": 4823, "ayers": 4824, "late": 4825, "ĠApr": 4826, "ederal": 4827, "'])": 4828, ".body": 4829, "Ġhigher": 4830, "_fl": 4831, "cr": 4832, "alert": 4833, "_node": 4834, "ĠGoogle": 4835, "Ġitself": 4836, "Auth": 4837, "urrency": 4838, "Ġsignificant": 4839, "append": 4840, "Ġrespect": 4841, "strap": 4842, "Ġuna": 4843, "riteria": 4844, "PORT": 4845, ".apache": 4846, "Output": 4847, "Ġprogress": 4848, "Ġmid": 4849, "ĠMicrosoft": 4850, "Ġresource": 4851, "ablish": 4852, "Ġdim": 4853, ".load": 4854, "Ġdirection": 4855, "Ġadditional": 4856, "ĠĠĠĠĠĠĠĠĠĠĠĠĠĠĠĠĠĠĠĠĠĠĠĠ": 4857, "Ġnumbers": 4858, "Ġcompanies": 4859, ".Th": 4860, "Ġsound": 4861, "username": 4862, "Ġstatement": 4863, "Ġalert": 4864, "Ġcontract": 4865, "home": 4866, "_length": 4867, "ev": 4868, ".Ex": 4869, "ï¼ļ": 4870, "\";": 4871, "ĠHigh": 4872, "ĠPoint": 4873, "oph": 4874, "Ġlines": 4875, "ox": 4876, "application": 4877, "Ġsoon": 4878, "ctions": 4879, "inger": 4880, "Ġjoin": 4881, "ĠPe": 4882, "Ġlas": 4883, ".E": 4884, "css": 4885, "/or": 4886, "ĠStart": 4887, "ĠTO": 4888, "Ġsubs": 4889, "conn": 4890, "components": 4891, "DEBUG": 4892, "quare": 4893, "Function": 4894, "endar": 4895, ".index": 4896, "Ġfill": 4897, "ÄĻ": 4898, "Ġchoose": 4899, "how": 4900, "ĠAmerica": 4901, "assets": 4902, "------------": 4903, "ĠValue": 4904, "Ġoffice": 4905, "Ġveh": 4906, "Ġtransform": 4907, "ĠArt": 4908, "Ġinde": 4909, "Ġfn": 4910, "Ġimplements": 4911, "ango": 4912, "plete": 4913, "+\"": 4914, "tmp": 4915, "amily": 4916, "Ġhash": 4917, "missions": 4918, "EST": 4919, "gt": 4920, "Provider": 4921, "ĠĠĠĠĠĠĠĠĠĠĠĠĠĠĠĠĠĠĠĠĠĠ": 4922, "Ġflag": 4923, "Ġparticip": 4924, "den": 4925, "ĠReturns": 4926, "Ġnote": 4927, "Ã¼r": 4928, "pm": 4929, "ideos": 4930, "Ġspecified": 4931, "ĠEN": 4932, "ester": 4933, "olid": 4934, "Ġupon": 4935, "(std": 4936, "Ġ'\\": 4937, "uz": 4938, "Ġvert": 4939, "Ġvict": 4940, "Ġ\"$": 4941, ".k": 4942, "Ġgroups": 4943, "github": 4944, "lang": 4945, "Ġmut": 4946, "TO": 4947, "Ġve": 4948, "ĠPlease": 4949, "access": 4950, "Ġ{\"": 4951, "rea": 4952, "Ġrisk": 4953, "icker": 4954, "oggle": 4955, "ANG": 4956, "Ġwoman": 4957, "Ġgets": 4958, "Ġign": 4959, "ĠId": 4960, "_log": 4961, "ONE": 4962, "Ġevid": 4963, "ĠHar": 4964, "_sub": 4965, "Ġendl": 4966, "Ġincluded": 4967, "ĠAp": 4968, "igr": 4969, "Ġsem": 4970, "ĠBlack": 4971, "doc": 4972, "_table": 4973, "ĠĠĠĠĠĠĠĠĠĠĠĠĠĠĠĠĠĠĠĠĠĠĠĠĠĠĠĠĠĠĠĠĠĠĠĠĠĠĠĠĠĠĠĠĠĠĠĠĠĠĠĠĠĠĠĠĠĠĠĠĠĠĠĠ": 4974, "-up": 4975, "Ġcause": 4976, "Ġ..": 4977, "Ġvan": 4978, "_dict": 4979, "Ġfocus": 4980, "IND": 4981, "CESS": 4982, ".Log": 4983, "Ġmultiple": 4984, "ido": 4985, "Ġregard": 4986, "-M": 4987, "andler": 4988, "ourse": 4989, "Ġdeg": 4990, ".U": 4991, "Ġaddition": 4992, "Ġvarious": 4993, "Ġreceive": 4994, "ÐµÐ½": 4995, "ĠHT": 4996, "Obj": 4997, "DF": 4998, "Ġincrease": 4999, "ĠOpen": 5000, "];": 5001, "Ġcommit": 5002, "ategories": 5003, "atory": 5004, "ship": 5005, "ĠMich": 5006, "Ġhtml": 5007, "romise": 5008, "Ġleave": 5009, "Ġstrateg": 5010, "aven": 5011, "ĠConsole": 5012, "known": 5013, "-n": 5014, "_LE": 5015, "Ġbre": 5016, "Session": 5017, "iance": 5018, "Ġalign": 5019, "typedef": 5020, "_result": 5021, "ĠWHERE": 5022, ".split": 5023, "Ġreading": 5024, "FAULT": 5025, "Ġclo": 5026, "Ġnotice": 5027, "_pr": 5028, "arter": 5029, "Ġlock": 5030, "Ġstandard": 5031, "etic": 5032, "ellow": 5033, "Ġpadding": 5034, "ĠHis": 5035, "Ġstates": 5036, "_cast": 5037, "(P": 5038, "aa": 5039, "Ġinternal": 5040, "ean": 5041, "ĠPRO": 5042, "ĠKey": 5043, "Ġespecially": 5044, "ming": 5045, "Ġcross": 5046, "Ġnational": 5047, "_object": 5048, "filter": 5049, "Ġscript": 5050, ".update": 5051, "_i": 5052, "ĠAssert": 5053, "/core": 5054, "%%%%": 5055, "Ġproblems": 5056, "istor": 5057, "Ġ.=": 5058, "Ġarch": 5059, "Ġwritten": 5060, "Ġmilit": 5061, "MENT": 5062, ".ch": 5063, "cape": 5064, "ĠMus": 5065, "_config": 5066, "ĠAPI": 5067, "foot": 5068, "Ġimages": 5069, "endl": 5070, ".In": 5071, "First": 5072, "Ġplatform": 5073, "Option": 5074, "ste": 5075, "ĠTODO": 5076, "Ġforce": 5077, ".cont": 5078, "ĠDav": 5079, "Ptr": 5080, "(B": 5081, "RT": 5082, "ĠBase": 5083, "]['": 5084, "Ġannounc": 5085, "console": 5086, "ĠPy": 5087, "ds": 5088, ".as": 5089, "Ġprevent": 5090, "apan": 5091, "Ġ{'": 5092, "}</": 5093, "ĠService": 5094, "ĠSen": 5095, "ador": 5096, "profile": 5097, "Top": 5098, "Ġiter": 5099, "po": 5100, "IES": 5101, "JSON": 5102, "IE": 5103, "iant": 5104, "ãĢģ": 5105, "_j": 5106, "ĠSept": 5107, "_map": 5108, "bum": 5109, "ĠHome": 5110, "ians": 5111, "GB": 5112, "Ġliving": 5113, "Ġpattern": 5114, "(input": 5115, "icient": 5116, "Core": 5117, "Ġentity": 5118, "Ġinteg": 5119, "Changed": 5120, "Ġuseful": 5121, ".info": 5122, "Ġtool": 5123, "(item": 5124, "Ġok": 5125, "Ġfeed": 5126, "IX": 5127, "Ã©s": 5128, "ĠNews": 5129, "remove": 5130, "erry": 5131, "ipment": 5132, "ares": 5133, "Do": 5134, "Current": 5135, ".content": 5136, "ustral": 5137, "ĠÑģ": 5138, "})": 5139, "Ġpopular": 5140, "Ġstre": 5141, "Ġmethods": 5142, "Left": 5143, "cal": 5144, "bsp": 5145, "Ġdir": 5146, "Ġallowed": 5147, "Ġimpact": 5148, ".config": 5149, "Ġelements": 5150, "Ġprote": 5151, "Ġtrain": 5152, ".tr": 5153, "rs": 5154, "ĠRepublic": 5155, "ĠTask": 5156, "aries": 5157, "(D": 5158, "(get": 5159, "Ġrelated": 5160, "Ġvers": 5161, "Ġsil": 5162, "Ġcmd": 5163, "Ġtechnology": 5164, ".width": 5165, "Float": 5166, "ĠUse": 5167, "Body": 5168, "should": 5169, ".join": 5170, "Font": 5171, "llum": 5172, "ycle": 5173, "ĠBrit": 5174, "Ġmit": 5175, "Ġscale": 5176, "Ġ(_": 5177, "ernel": 5178, "Ġscore": 5179, "/v": 5180, "Ġstudent": 5181, "UC": 5182, ".show": 5183, "Ġaverage": 5184, "Enabled": 5185, "(ex": 5186, "common": 5187, "imation": 5188, "chie": 5189, "river": 5190, "ĠMarch": 5191, "category": 5192, "fin": 5193, "Ġcourt": 5194, "Ð²": 5195, "Server": 5196, "Ġcontainer": 5197, "-st": 5198, "_for": 5199, "Ġparts": 5200, "Ġdecision": 5201, "obs": 5202, "oub": 5203, "mitted": 5204, "Ġsaw": 5205, "Ġapproach": 5206, "ICE": 5207, "Ġsaying": 5208, "Ġanyone": 5209, "meta": 5210, "SD": 5211, "Ġsong": 5212, "display": 5213, "Oper": 5214, "outes": 5215, "Ġchannel": 5216, "Ġchanged": 5217, "Ãª": 5218, "Ġfinally": 5219, "_number": 5220, "Please": 5221, "à¤": 5222, "oring": 5223, "-re": 5224, "Ġkill": 5225, "Ġdrug": 5226, "window": 5227, "Ġconvert": 5228, "ombre": 5229, "Ġways": 5230, "Helper": 5231, "ĠFirst": 5232, "(__": 5233, "urity": 5234, "ĠWindows": 5235, "ees": 5236, "Ġmat": 5237, "rapper": 5238, "Ġplus": 5239, "anges": 5240, "\"].": 5241, "azon": 5242, "/t": 5243, "lat": 5244, "aste": 5245, "Ġprofile": 5246, "Ġready": 5247, "rote": 5248, "Ġsense": 5249, "Gener": 5250, "ĠConfig": 5251, "omy": 5252, "ĠJune": 5253, "Ġlatest": 5254, "Ġsaf": 5255, "Ġregion": 5256, "Ġdeep": 5257, "witch": 5258, "ĠPark": 5259, "}`": 5260, "ĠFrom": 5261, "II": 5262, "Ġcv": 5263, "Ġreach": 5264, "Ġcounter": 5265, "ĠWork": 5266, "ĠURL": 5267, "ĠUpdate": 5268, "Ġimmedi": 5269, "close": 5270, "ados": 5271, "ferred": 5272, "Ġweeks": 5273, "urg": 5274, "Ġdamage": 5275, "Ġlost": 5276, "ani": 5277, "_lo": 5278, "Ġhimself": 5279, "Ġdog": 5280, "ï¿": 5281, "pir": 5282, "tt": 5283, "Ġpaper": 5284, "Ġthems": 5285, "second": 5286, "Ġstaff": 5287, "ĠInput": 5288, "\"+": 5289, "ĠFacebook": 5290, "Ġalloc": 5291, "Ġsched": 5292, "ACE": 5293, "Ġthemselves": 5294, "ĠComponent": 5295, "Ġdriver": 5296, "ja": 5297, "(path": 5298, "Ġcategory": 5299, "alls": 5300, "pu": 5301, "ĠAction": 5302, "ĠGL": 5303, "istics": 5304, "Ġoil": 5305, "Ġstock": 5306, ">'": 5307, "Ġdead": 5308, "VAL": 5309, "QUE": 5310, "************************************************************************": 5311, "Ġcharg": 5312, "Return": 5313, "Ġful": 5314, "dom": 5315, "Ġrules": 5316, "Ġmodify": 5317, "Ġeval": 5318, "ham": 5319, "atement": 5320, "\\<": 5321, "ula": 5322, "=False": 5323, "RA": 5324, "Ġcontains": 5325, "Ġstack": 5326, "mar": 5327, "Ġundefined": 5328, "Ass": 5329, "ĠChina": 5330, "vey": 5331, "Ġplaying": 5332, ")/": 5333, "actor": 5334, "Ġbottom": 5335, "lier": 5336, "ĠNumber": 5337, "Ġcouple": 5338, "DC": 5339, "ĠSO": 5340, "gor": 5341, "success": 5342, "command": 5343, "Filter": 5344, "ĠOur": 5345, "_item": 5346, "Ġctx": 5347, "Ġroad": 5348, "Version": 5349, "case": 5350, "urt": 5351, "avior": 5352, "ych": 5353, "sembly": 5354, "ĠProduct": 5355, "Ġheld": 5356, "afe": 5357, "Ġincludes": 5358, "Ġavoid": 5359, "ĠFin": 5360, "ĠMod": 5361, "Ġtab": 5362, "ano": 5363, "Ã±": 5364, "ipping": 5365, "-e": 5366, "Ġinsert": 5367, "target": 5368, "chan": 5369, ".Model": 5370, "IME": 5371, "Ġmachine": 5372, "avy": 5373, "ĠNO": 5374, "ĠInter": 5375, "Ġoperation": 5376, "modal": 5377, "Tag": 5378, "]:": 5379, "Ġproduction": 5380, "Ġareas": 5381, "Ġren": 5382, "_from": 5383, "nbsp": 5384, "Ġoperator": 5385, "men": 5386, "apped": 5387, "_per": 5388, "zen": 5389, "(\".": 5390, ".save": 5391, "Ġtor": 5392, "(response": 5393, "Ġcandid": 5394, "Ġconv": 5395, "ailed": 5396, "ĠLib": 5397, "comp": 5398, "ura": 5399, "ï¿½": 5400, "ĠHere": 5401, "Ġargument": 5402, "hood": 5403, "Ġestablish": 5404, "ography": 5405, "ambda": 5406, "Ġsch": 5407, "Ġmovie": 5408, "Ġsec": 5409, "Ġactivity": 5410, "Ø§": 5411, "Ġsql": 5412, "_all": 5413, "incip": 5414, "Ġprovides": 5415, "Ġsys": 5416, "acket": 5417, "Ġwasn": 5418, "Ġuses": 5419, "ĠFunction": 5420, ".google": 5421, "ĠResult": 5422, "Visible": 5423, "agma": 5424, "elcome": 5425, "ĠSy": 5426, "ĠCent": 5427, "ALSE": 5428, "aciÃ³n": 5429, "EXT": 5430, "Ġlicense": 5431, "ĠLong": 5432, "Ġaccom": 5433, "Ġability": 5434, ".height": 5435, "Active": 5436, "ological": 5437, "oly": 5438, ")),": 5439, ".Se": 5440, "Ġparameter": 5441, "ABILITY": 5442, "ĠGroup": 5443, "ĠItem": 5444, "ining": 5445, "Ġjud": 5446, "ims": 5447, "fix": 5448, "inder": 5449, "agram": 5450, "Ġfunctions": 5451, "Ġexperi": 5452, "ĠEm": 5453, "Ġrot": 5454, "Ġpen": 5455, "ĠAS": 5456, "Ġchoice": 5457, "ĠPage": 5458, "QU": 5459, "antity": 5460, "ÂŃ": 5461, "words": 5462, "Ġreadonly": 5463, "Ġflex": 5464, "protected": 5465, "ĠAny": 5466, "Ġcharacters": 5467, "enced": 5468, "ĠJuly": 5469, "iler": 5470, "Card": 5471, "urance": 5472, "Ġrev": 5473, ".event": 5474, "aly": 5475, "Ġwonder": 5476, "ĠPort": 5477, "Ġlegal": 5478, "role": 5479, "Ġten": 5480, "Ġgoes": 5481, "MP": 5482, "white": 5483, "Ġreference": 5484, "Ġmis": 5485, "ĠProject": 5486, "icks": 5487, ">&": 5488, "CON": 5489, "Ġrepl": 5490, "Ġregular": 5491, "Storage": 5492, "ramework": 5493, "Ġgoal": 5494, "Ġtouch": 5495, "Ġbuilt": 5496, "des": 5497, "Part": 5498, "(re": 5499, "Ġworth": 5500, "hib": 5501, "game": 5502, "ĠÐ²": 5503, "acion": 5504, "ĠWhite": 5505, "(type": 5506, "(`": 5507, "Ġnatural": 5508, "Ġinj": 5509, "Ġcalcul": 5510, "ĠApril": 5511, "Ġassociated": 5512, "~~": 5513, "=[": 5514, "Ġstorage": 5515, "Ġbytes": 5516, "Ġtravel": 5517, "Ġsou": 5518, "Ġpassed": 5519, "!=": 5520, "ascript": 5521, ".open": 5522, "Ġgrid": 5523, "Ġbus": 5524, "Ġrecogn": 5525, "Ab": 5526, "Ġhon": 5527, "ĠCenter": 5528, "Ġprec": 5529, "build": 5530, "HTML": 5531, "ĠSan": 5532, "Ġcountries": 5533, "aled": 5534, "token": 5535, "kt": 5536, "Ġqual": 5537, "Last": 5538, "adow": 5539, "Ġmanufact": 5540, "idad": 5541, "jango": 5542, "Next": 5543, "xf": 5544, ".a": 5545, "ĠPM": 5546, "erve": 5547, "iting": 5548, "_th": 5549, "ci": 5550, "=None": 5551, "gs": 5552, "Ġlogin": 5553, "atives": 5554, "Äħ": 5555, "Ġill": 5556, "IA": 5557, "children": 5558, "DO": 5559, "Ġlevels": 5560, "Ġ{{": 5561, "Ġlooks": 5562, "Ġ\"#": 5563, "ToString": 5564, "Ġnecessary": 5565, "ĠĠĠĊ": 5566, "cell": 5567, "Entry": 5568, "Ġ'#": 5569, "Ġextrem": 5570, "Selector": 5571, "Ġplaceholder": 5572, "Load": 5573, "Ġreleased": 5574, "ORE": 5575, "Enumer": 5576, "ĠTV": 5577, "SET": 5578, "inq": 5579, "Press": 5580, "ĠDepartment": 5581, "Ġproperties": 5582, "Ġrespond": 5583, "Search": 5584, "ael": 5585, "Ġrequ": 5586, "ĠBook": 5587, "(st": 5588, "Ġfinancial": 5589, "icket": 5590, "_input": 5591, "Ġthreat": 5592, "(in": 5593, "Strip": 5594, "Ã§Ã£o": 5595, "Ġevidence": 5596, "));": 5597, "ĠBro": 5598, "Ġou": 5599, "buf": 5600, "Script": 5601, "dat": 5602, "Ġrule": 5603, "=\"/": 5604, "Serial": 5605, "Ġstarting": 5606, "[index": 5607, "ae": 5608, "Ġcontrib": 5609, "session": 5610, "_new": 5611, "utable": 5612, "ober": 5613, "Ġ\"./": 5614, "Ġlogger": 5615, "Ġrecently": 5616, "Ġreturned": 5617, "itions": 5618, "Ġseek": 5619, "Ġcommunic": 5620, "Ġ\".": 5621, "Ġusername": 5622, "ECT": 5623, "DS": 5624, "Ġotherwise": 5625, "ĠGerman": 5626, "Adapter": 5627, "ixel": 5628, "Ġsystems": 5629, "Ġdrop": 5630, "Ġstructure": 5631, "encies": 5632, "anning": 5633, "ĠLink": 5634, "ĠResponse": 5635, "Ġstri": 5636, "Å¼": 5637, "ĠDB": 5638, "android": 5639, "submit": 5640, "otion": 5641, "(@": 5642, ".test": 5643, "Ġdirectly": 5644, "Ġ\"%": 5645, "ris": 5646, "elta": 5647, "AIL": 5648, "mine": 5649, "ĠĠĠĠĠĠĠĠĠĠĠĠĠĠĠĠĠĠĠĠĠĠĠĠĠĠ": 5650, "(k": 5651, "bon": 5652, "asic": 5653, "pite": 5654, "___": 5655, "Max": 5656, "Ġerrors": 5657, "ĠWhile": 5658, "Ġarguments": 5659, "Ġensure": 5660, "Right": 5661, "-based": 5662, "Web": 5663, "Ġ-=": 5664, "Ġintrodu": 5665, "ĠInst": 5666, "ĠWash": 5667, "ordin": 5668, "join": 5669, "Database": 5670, "Ġgrad": 5671, "Ġusually": 5672, "ITE": 5673, "ĠGo": 5674, "REF": 5675, "Ġip": 5676, "ĠAustral": 5677, "Ġist": 5678, "Ġserious": 5679, "Ġcustomer": 5680, "odo": 5681, "cor": 5682, "Ġdoor": 5683, "ĠWITHOUT": 5684, "Ġplant": 5685, "Ġbegan": 5686, "Ġdistance": 5687, "()).": 5688, "Ġchance": 5689, "Ġord": 5690, "came": 5691, "pragma": 5692, "Ġprotect": 5693, "ragment": 5694, "ĠNode": 5695, "ening": 5696, "Ñĩ": 5697, "Ġroute": 5698, "ĠSchool": 5699, "hi": 5700, "Ġneighb": 5701, "After": 5702, "licit": 5703, "Ġcontr": 5704, "Ġprimary": 5705, "AA": 5706, ".WriteLine": 5707, "utils": 5708, "Ġbi": 5709, "Red": 5710, ".object": 5711, "Ġleaders": 5712, "unities": 5713, "Ġgun": 5714, "onth": 5715, "ĠDev": 5716, "FILE": 5717, "Ġcomments": 5718, "_len": 5719, "arrow": 5720, "amount": 5721, "Range": 5722, "sert": 5723, "Ġupdated": 5724, "ĠMo": 5725, "Ġinform": 5726, "ociety": 5727, "ala": 5728, "Access": 5729, "Ġhab": 5730, "Ġcreat": 5731, "_arg": 5732, "ĠJanuary": 5733, "ĠDay": 5734, "uple": 5735, "document": 5736, "gorith": 5737, "menu": 5738, "ĠOver": 5739, "bb": 5740, ".title": 5741, "_out": 5742, "Ġled": 5743, "uri": 5744, "gl": 5745, "Ġbank": 5746, "ayment": 5747, "MD": 5748, "Ġsample": 5749, "Ġhands": 5750, "ĠVersion": 5751, "uario": 5752, "Ġoffers": 5753, "Ġshape": 5754, "Ġsleep": 5755, "_point": 5756, "Settings": 5757, "Ġachie": 5758, "Ġsold": 5759, "ota": 5760, "Am": 5761, "Ġsafe": 5762, "Store": 5763, "Ġshared": 5764, "Ġpriv": 5765, "_VAL": 5766, "Ġsens": 5767, "){": 5768, "Ġremember": 5769, "shared": 5770, "element": 5771, "Ġshoot": 5772, "Vert": 5773, "cout": 5774, "Ġenv": 5775, "_label": 5776, "run": 5777, "Ġscene": 5778, "(array": 5779, "device": 5780, "_title": 5781, "agon": 5782, "aby": 5783, "Ġbecame": 5784, "boolean": 5785, "Ġpark": 5786, "ĠCode": 5787, "upload": 5788, "riday": 5789, "ĠSeptember": 5790, "Fe": 5791, "Ġsen": 5792, "cing": 5793, "FL": 5794, "Col": 5795, "uts": 5796, "_page": 5797, "inn": 5798, "Ġimplied": 5799, "aling": 5800, "Ġyourself": 5801, ".Count": 5802, "conf": 5803, "Ġaud": 5804, "_init": 5805, ".)": 5806, "Ġwrote": 5807, "NG": 5808, ".Error": 5809, ".for": 5810, "Ġequal": 5811, "ĠRequest": 5812, "Ġserial": 5813, "Ġallows": 5814, "XX": 5815, "Ġmiddle": 5816, "chor": 5817, "Ã¸": 5818, "erval": 5819, "reading": 5820, "ĠAugust": 5821, "Ġquickly": 5822, "Ġweap": 5823, "ĠCG": 5824, "ropri": 5825, "ho": 5826, "Ġcop": 5827, "ĠBig": 5828, "Ġvs": 5829, "Ġfrequ": 5830, ".Value": 5831, "Ġactions": 5832, "Ġproper": 5833, "Ġinn": 5834, "Ġobjects": 5835, "Ġmatrix": 5836, "avascript": 5837, "Ġones": 5838, ".group": 5839, "Ġgreen": 5840, "Ġpaint": 5841, "ools": 5842, "ycl": 5843, "encode": 5844, "olt": 5845, "comment": 5846, ".api": 5847, "Dir": 5848, "Ġune": 5849, "izont": 5850, ".position": 5851, "Ġdesigned": 5852, "_val": 5853, "avi": 5854, "iring": 5855, "tab": 5856, "Ġlayer": 5857, "Ġviews": 5858, "Ġreve": 5859, "rael": 5860, "ĠON": 5861, "rics": 5862, "np": 5863, "Ġcore": 5864, "Main": 5865, "Ġexpert": 5866, "_en": 5867, "Ġ/>": 5868, "utter": 5869, "IAL": 5870, "ails": 5871, "ĠKing": 5872, "ĠMet": 5873, "_end": 5874, "addr": 5875, "ora": 5876, "Ġir": 5877, "Min": 5878, "Ġsurpr": 5879, "Ġrepe": 5880, "Ġdirectory": 5881, "PUT": 5882, "-S": 5883, "Ġelection": 5884, "haps": 5885, ".pre": 5886, "cm": 5887, "Values": 5888, "column": 5889, "ivil": 5890, "Login": 5891, "inue": 5892, "Ġbeautiful": 5893, "Ġsecret": 5894, "(event": 5895, "Ġchat": 5896, "ums": 5897, "Ġorigin": 5898, "Ġeffects": 5899, "Ġmanagement": 5900, "illa": 5901, "tk": 5902, "Ġsetting": 5903, "ĠCour": 5904, "Ġmassage": 5905, "Ġhappy": 5906, "Ġfinish": 5907, "Ġcamera": 5908, "ĠVer": 5909, "ĠDemocr": 5910, "ĠHer": 5911, "(Q": 5912, "cons": 5913, "ita": 5914, "Ġ'.": 5915, "{}": 5916, "Ġstuff": 5917, "ĠAR": 5918, "Task": 5919, "hidden": 5920, "eros": 5921, "IGN": 5922, "atio": 5923, "ĠHealth": 5924, "olute": 5925, "Enter": 5926, "'>": 5927, "ĠTwitter": 5928, "ĠCounty": 5929, "Ġhy": 5930, "fit": 5931, "Ġmilitary": 5932, "Ġsale": 5933, "required": 5934, "non": 5935, "bootstrap": 5936, "hold": 5937, "rim": 5938, "-old": 5939, "ĠDown": 5940, "Ġmention": 5941, "contact": 5942, "_group": 5943, "oday": 5944, "Ġtown": 5945, "Ġsolution": 5946, "uate": 5947, "elling": 5948, "]->": 5949, "otes": 5950, "ental": 5951, "omen": 5952, "ospital": 5953, "ĠSup": 5954, "_EN": 5955, "Ġslow": 5956, "Ġblue": 5957, "ago": 5958, "Ġlives": 5959, "Ġ^": 5960, ".un": 5961, "inst": 5962, "enge": 5963, "Ġcustomers": 5964, "Ġcast": 5965, "udget": 5966, "ï¼ģ": 5967, "icens": 5968, "Ġdetermin": 5969, "Selected": 5970, "_pl": 5971, "ueue": 5972, "Ġdark": 5973, "si": 5974, "thern": 5975, "ĠJapan": 5976, "/w": 5977, "PU": 5978, "ĠEast": 5979, "ovie": 5980, "Ġpackage": 5981, "Ġnor": 5982, "Ġapi": 5983, "bot": 5984, "_post": 5985, "ulate": 5986, "Ġclub": 5987, "Ġloop": 5988, "PIO": 5989, "ione": 5990, "shot": 5991, "Initial": 5992, "Ġplayed": 5993, "register": 5994, "rought": 5995, "_max": 5996, "acement": 5997, "match": 5998, "raphics": 5999, "AST": 6000, "Ġexisting": 6001, "Ġcomplex": 6002, "DA": 6003, ".Ch": 6004, "mo": 6005, "ito": 6006, "Ġanalysis": 6007, "Ġdeliver": 6008, "ĠĠĠĠĠĠĠĠĠĠĠĠĠĠĠĠĊ": 6009, "idx": 6010, "Ãł": 6011, "ongo": 6012, "ĠEnglish": 6013, "<!--": 6014, "Ġcomputer": 6015, "ENSE": 6016, "Ġpas": 6017, "Ġrais": 6018, "Hash": 6019, "Ġmobile": 6020, "Ġowner": 6021, "FIG": 6022, "ĠĠĠĠĠĠĠĠĠĠĠĠĠĠĠĠĠĠĠĠĠĠĠĠĠĠĠĠĠĠĠĠĠĠĠĠĠĠĠĠĠĠĠĠĠĠĠĠĠĠĠ": 6023, "thes": 6024, "Ġattr": 6025, "wd": 6026, ".time": 6027, "awn": 6028, "Ġtreatment": 6029, "ĠAc": 6030, "impl": 6031, "more": 6032, "pass": 6033, "Ġha": 6034, ".from": 6035, "Ġleading": 6036, "FFFF": 6037, "(error": 6038, ".ui": 6039, "atar": 6040, "aders": 6041, "dates": 6042, "Ġzu": 6043, "Ġflow": 6044, "Target": 6045, "Ġinvolved": 6046, "Ġio": 6047, "parse": 6048, "$_": 6049, "hest": 6050, ".int": 6051, "-item": 6052, "asy": 6053, "Sp": 6054, "Ġshift": 6055, "NT": 6056, "Ġtf": 6057, "_TR": 6058, ".web": 6059, "CS": 6060, "Ġ})": 6061, "Ġeyes": 6062, "_z": 6063, "iforn": 6064, "Ġ{@": 6065, "Ġnice": 6066, ".list": 6067, "Ġfloor": 6068, "Ġredirect": 6069, "ĠUK": 6070, "(['": 6071, "Ġwish": 6072, "Ġcapt": 6073, "legal": 6074, "ĠIO": 6075, "Ġstage": 6076, "ĠAfr": 6077, "igen": 6078, "ĠSH": 6079, "Delete": 6080, "ells": 6081, "Ġsolid": 6082, "Ġmeeting": 6083, "Ġworked": 6084, "Ġeditor": 6085, "iny": 6086, "Ð¼": 6087, "_read": 6088, "eff": 6089, "Offset": 6090, "cha": 6091, "USER": 6092, "ipped": 6093, "Ġdict": 6094, "ĠRun": 6095, "Ġang": 6096, "xml": 6097, "imple": 6098, "Ġmedical": 6099, "_token": 6100, "connect": 6101, "Ġhour": 6102, "Ġcontroller": 6103, "_message": 6104, "UID": 6105, "Gr": 6106, "anded": 6107, "_CH": 6108, "Ġbooks": 6109, "Ġspeak": 6110, "aming": 6111, "Ġmount": 6112, "Record": 6113, "ondon": 6114, "Ġfelt": 6115, "idge": 6116, "_pos": 6117, "PR": 6118, "Ġmodern": 6119, "Collection": 6120, "_msg": 6121, "CD": 6122, "ĠLo": 6123, "Ġseconds": 6124, "ibly": 6125, "Ġinternational": 6126, "ooth": 6127, "Writer": 6128, "iate": 6129, "Ġcele": 6130, "ĠBit": 6131, "ivo": 6132, "ivery": 6133, "rd": 6134, "HECK": 6135, "Ġcache": 6136, ".count": 6137, "Ġroll": 6138, "RED": 6139, "Ġsetup": 6140, "izontal": 6141, "models": 6142, "argv": 6143, "Ġconsidered": 6144, "settings": 6145, "ĠRel": 6146, "Ġgrowth": 6147, "Ġmix": 6148, "ĠWashington": 6149, "Ġplt": 6150, "ĠIM": 6151, "áº": 6152, "Ġturned": 6153, "ĠWed": 6154, "(url": 6155, "Ġ\"-": 6156, "Ġletter": 6157, "ĠĠĠĠĠĠĠĠĠĠĠĠĠĠĠĠĠĠĠĠĠĠĠĠĠĠĠĠ": 6158, "ĠOctober": 6159, "_line": 6160, "Ġattention": 6161, "Ġcollect": 6162, "ĠHash": 6163, "Ġimag": 6164, "Tree": 6165, "Ġsituation": 6166, "ette": 6167, "_no": 6168, "IVE": 6169, "Ġvon": 6170, ".target": 6171, "Ġknowledge": 6172, "Ġdrive": 6173, ".post": 6174, "Ġblood": 6175, "Ġcit": 6176, "primary": 6177, "Ġconfiguration": 6178, "tee": 6179, "Ġphoto": 6180, "isode": 6181, "Trace": 6182, "Ġgave": 6183, "Ġshot": 6184, "ĠAir": 6185, "Ġmother": 6186, "price": 6187, "Ġmorning": 6188, "-x": 6189, "Ġtrade": 6190, "Ġdesc": 6191, "Ġparents": 6192, "ted": 6193, "wer": 6194, "Ġsy": 6195, "ĠKe": 6196, "Parser": 6197, "ancy": 6198, "Ġpiece": 6199, "ifornia": 6200, "toString": 6201, "ran": 6202, "iding": 6203, "PTION": 6204, "comes": 6205, "/lic": 6206, "El": 6207, "Long": 6208, "Ġprofessional": 6209, "rupt": 6210, "va": 6211, "Ġcompletely": 6212, "Ġpractice": 6213, "Ġselection": 6214, "Rem": 6215, "ini": 6216, "Ġcam": 6217, "REE": 6218, "Ġsites": 6219, "pa": 6220, "ATUS": 6221, "ÑģÑĤ": 6222, "arrant": 6223, "*(": 6224, "ĠButton": 6225, "ĠFriday": 6226, "sequ": 6227, "Ġreader": 6228, "Ġmessages": 6229, "Ġbuf": 6230, "Ke": 6231, "Ġnov": 6232, "HP": 6233, "Msg": 6234, "align": 6235, "arily": 6236, "Ġ',": 6237, "_with": 6238, "Ġdas": 6239, "Ġheard": 6240, "atomic": 6241, "rial": 6242, ")[": 6243, "Ġdise": 6244, "@end": 6245, "Ġgold": 6246, "Ġfair": 6247, "Ġsales": 6248, "strict": 6249, "save": 6250, "Ġmeasure": 6251, "Ġ\"+": 6252, "ecause": 6253, "ĠTable": 6254, ".param": 6255, "Ġdecided": 6256, "(((": 6257, "INFO": 6258, "Ġopportunity": 6259, "Te": 6260, "ccording": 6261, "ki": 6262, "ĠUN": 6263, "Ġcontain": 6264, "Ġmanager": 6265, "Ġpain": 6266, "ĠFire": 6267, "rome": 6268, "Ġplans": 6269, "Found": 6270, "lay": 6271, "ĠDecember": 6272, "Ġinflu": 6273, "Ãº": 6274, "rench": 6275, "ĠĠĠĠĠĠĠĠĠĠĠĠĠĠĠĠĠĠĠĠĠĠĠĠĠĠĠĠĠĠĠĠĠ": 6276, "azing": 6277, "brief": 6278, "call": 6279, "wood": 6280, "Ġloaded": 6281, "Ġgrand": 6282, "/f": 6283, "imp": 6284, "_U": 6285, "STR": 6286, "âĢ¢": 6287, "Ġcredit": 6288, "orge": 6289, "QUEST": 6290, "Ġdifference": 6291, "ĠPC": 6292, "wargs": 6293, "Ġpub": 6294, "unday": 6295, "Ġfra": 6296, ".max": 6297, "Ġtried": 6298, "annels": 6299, "send": 6300, "Ġreports": 6301, "Ġadult": 6302, "Ġconsist": 6303, "ĠStreet": 6304, "ĠProgram": 6305, "SQL": 6306, "Matrix": 6307, "ouncil": 6308, "-A": 6309, "Ġwhose": 6310, "Ġrelig": 6311, "ĠSex": 6312, "Ġgives": 6313, "none": 6314, "(G": 6315, "-right": 6316, "ĠNovember": 6317, "ellig": 6318, "utive": 6319, "Äĥ": 6320, "overn": 6321, "Ġeasily": 6322, "Ġideas": 6323, "ĠÐ½": 6324, "/css": 6325, "lying": 6326, "elle": 6327, "Can": 6328, "_color": 6329, "Ġpair": 6330, "ngth": 6331, "Ġsplit": 6332, "drop": 6333, "arty": 6334, "ona": 6335, "Ġcapital": 6336, "Ġhear": 6337, "Ġexists": 6338, "emo": 6339, "Run": 6340, "oi": 6341, "Ġparser": 6342, "ĠMethod": 6343, "Ġeducation": 6344, "[k": 6345, "Ġlibrary": 6346, "oded": 6347, "Ġcalls": 6348, "here": 6349, "Rel": 6350, "Ġbrand": 6351, "background": 6352, "ga": 6353, "_address": 6354, "_params": 6355, "Category": 6356, "ĠIndia": 6357, "_event": 6358, "Ġing": 6359, "Render": 6360, ".cl": 6361, "umpy": 6362, "Ġpet": 6363, "FC": 6364, "ĠAnt": 6365, "Ext": 6366, "Ġcharge": 6367, "ened": 6368, "grad": 6369, "EO": 6370, "Ġdepend": 6371, "frame": 6372, "Ġdf": 6373, "Ġhuge": 6374, "ĠPART": 6375, "eds": 6376, ";;": 6377, "ĠAM": 6378, "Ġbasic": 6379, "ĠLet": 6380, "lich": 6381, "Ġarm": 6382, "Ġstar": 6383, "Ġfederal": 6384, "Work": 6385, "Ġcarry": 6386, "ĠIsrael": 6387, "(obj": 6388, "={{": 6389, "Ġsaved": 6390, "Ġsyn": 6391, "Ġconstant": 6392, "VENT": 6393, "Ġpositive": 6394, "Ġconduct": 6395, "Ġskin": 6396, "Ġearlier": 6397, "Ġlayout": 6398, "ĠIP": 6399, "OUR": 6400, "Ġtim": 6401, "stylesheet": 6402, "_cl": 6403, "ĠCard": 6404, "Ġtemper": 6405, "ĠDavid": 6406, "Ġwants": 6407, "Ġpicture": 6408, "Ġvideos": 6409, "ĠComm": 6410, "isions": 6411, "_MAX": 6412, "Mapping": 6413, "-content": 6414, "ĠEar": 6415, "-de": 6416, "Ġprem": 6417, "bruary": 6418, "Ġcomponents": 6419, "Ġthroughout": 6420, "Ġpull": 6421, "Ġpages": 6422, "ente": 6423, "respond": 6424, "Ġgas": 6425, "criptor": 6426, "Ġedge": 6427, "Ġbound": 6428, "ACT": 6429, "******": 6430, "Ġcreating": 6431, "ĠCH": 6432, "Br": 6433, "+'": 6434, ".co": 6435, "Ġlearning": 6436, ".Length": 6437, "Ġpatients": 6438, "AIN": 6439, "Ġkids": 6440, "Ġcomfort": 6441, "Ġshown": 6442, "ugins": 6443, "ĠBack": 6444, "ella": 6445, "_CL": 6446, "Ġlat": 6447, "Ġdispatch": 6448, "Ġclasses": 6449, ".at": 6450, ".begin": 6451, "Ġsuccessful": 6452, "ban": 6453, "Ġobtain": 6454, "ĠSl": 6455, "Ġlack": 6456, "iterator": 6457, "Thread": 6458, "(size": 6459, "Ġnone": 6460, ".has": 6461, "_X": 6462, "sort": 6463, "nap": 6464, "pet": 6465, "bin": 6466, "ĠCanada": 6467, "They": 6468, "Ġdans": 6469, "ĠMat": 6470, "Ġhair": 6471, "Ġcu": 6472, "Ġlaws": 6473, "leted": 6474, "ped": 6475, "Ġpow": 6476, "Ġknew": 6477, "_COM": 6478, "_,": 6479, "ĠMag": 6480, "idents": 6481, "Ġ),": 6482, "-center": 6483, "Ġwide": 6484, "ĠAuthor": 6485, "stants": 6486, "Ġjobs": 6487, "Ġmath": 6488, "etimes": 6489, "Boolean": 6490, "Ġscope": 6491, "_is": 6492, "Ġmeas": 6493, "Ġkeys": 6494, "elay": 6495, "Ġexactly": 6496, "ĠPaul": 6497, "mas": 6498, "(len": 6499, "fd": 6500, "Ġ);": 6501, "irit": 6502, "ields": 6503, "oman": 6504, "ĠTop": 6505, "Ġvote": 6506, "Ġmask": 6507, "Ġtheme": 6508, "Ġprops": 6509, "Ġfine": 6510, "Ġwriter": 6511, "_offset": 6512, "car": 6513, "Ġaltern": 6514, "Ġcopyright": 6515, "Ġdestroy": 6516, "pper": 6517, "Ġgenerate": 6518, "pped": 6519, "âĢĻd": 6520, "ĠĠĠĠĠĠĊ": 6521, "make": 6522, "ĠShow": 6523, "Ġbrowser": 6524, "Ġfavorite": 6525, "Ġcareer": 6526, "Ġhappened": 6527, "(char": 6528, "Ġrecommend": 6529, "Ġliter": 6530, ".filter": 6531, "grade": 6532, "ĠÂ£": 6533, "Phone": 6534, "oms": 6535, "Ġnamed": 6536, "-label": 6537, "ipo": 6538, "ĠOther": 6539, "Ġpanel": 6540, "Ġrock": 6541, "Scale": 6542, "Ð´": 6543, "Ġtrust": 6544, "front": 6545, "Ġdemon": 6546, "Ar": 6547, "Net": 6548, "Ġeconomic": 6549, "footer": 6550, "Ġrace": 6551, "(node": 6552, "ĠOption": 6553, "split": 6554, "Ġphysical": 6555, "ifest": 6556, "Ġremoved": 6557, "Ġlooked": 6558, "';": 6559, "ding": 6560, "gest": 6561, "aturday": 6562, "/licenses": 6563, "Price": 6564, "Ġdro": 6565, "Ġtowards": 6566, "Ġuns": 6567, "ĠCL": 6568, "Ġrows": 6569, "Ġdefine": 6570, ".replace": 6571, "Ġfather": 6572, "ĠDesign": 6573, "assign": 6574, "mut": 6575, "Device": 6576, "Did": 6577, "ometry": 6578, "ayload": 6579, "Ġhistor": 6580, "ĠParam": 6581, "ĠBoolean": 6582, "Ġnature": 6583, "Ġjs": 6584, "Ġnation": 6585, "ih": 6586, "Ġdiscover": 6587, "sem": 6588, "Handle": 6589, "ĠTechn": 6590, "Ġwall": 6591, "{$": 6592, "Ġ\"../": 6593, "Ġexam": 6594, ".draw": 6595, "opping": 6596, "Ġnearly": 6597, "Ġcool": 6598, "Ġindepend": 6599, "RES": 6600, "Ġhandler": 6601, "ĠMonday": 6602, "Ġsun": 6603, "Styles": 6604, "ously": 6605, "Ġĉ": 6606, "vest": 6607, "Display": 6608, "(y": 6609, "atically": 6610, "Ġpredict": 6611, "ying": 6612, "Ġsometimes": 6613, "Ġdrink": 6614, "Ġbul": 6615, "ifications": 6616, ".insert": 6617, ".reg": 6618, "Ġtests": 6619, "Alignment": 6620, "Ġalleg": 6621, "Ġattribute": 6622, "ĠNote": 6623, "Ġmyself": 6624, "arts": 6625, "Now": 6626, "Ġinteresting": 6627, "lients": 6628, "Ġpopulation": 6629, "ĠCalifornia": 6630, "\"I": 6631, "Ġgreater": 6632, "uesday": 6633, "Ġthous": 6634, "Ġcosts": 6635, "Ġlaunch": 6636, "ker": 6637, "band": 6638, "ĠPlay": 6639, "Ġband": 6640, ".shape": 6641, "esome": 6642, "article": 6643, ".rf": 6644, "Ġwer": 6645, "Ã¡s": 6646, "embers": 6647, "usr": 6648, "BA": 6649, "ican": 6650, "ett": 6651, "validate": 6652, "ulti": 6653, "Ġimmediately": 6654, "zer": 6655, "Ġfigure": 6656, "oes": 6657, "eller": 6658, "ircle": 6659, "ĠSign": 6660, ".db": 6661, "Ġrank": 6662, "Bytes": 6663, "Ġprojects": 6664, "_rec": 6665, "ULAR": 6666, "API": 6667, "ĠLine": 6668, "Port": 6669, "Ġpoll": 6670, "Ġgiving": 6671, "idence": 6672, "Ġplot": 6673, "icial": 6674, "Ġwarrant": 6675, "ITION": 6676, "ĠDouble": 6677, "Ġbillion": 6678, "gorithm": 6679, "Ġequipment": 6680, "DATE": 6681, "EE": 6682, "Ġple": 6683, "iation": 6684, "Ġheaders": 6685, "Ġproced": 6686, "ĠObama": 6687, "Ġpa": 6688, "ĠBest": 6689, "imately": 6690, ".\\": 6691, "mploy": 6692, "Ġraw": 6693, "_block": 6694, "undred": 6695, "Ġbrought": 6696, "throw": 6697, "created": 6698, "_view": 6699, "CP": 6700, "eps": 6701, "Op": 6702, "Ġ'\"": 6703, "Ġinterview": 6704, "Ġpartial": 6705, "bing": 6706, "Author": 6707, "Book": 6708, "ĠPat": 6709, "uman": 6710, "Users": 6711, "plus": 6712, "ĠDirect": 6713, "venue": 6714, "alpha": 6715, "UCCESS": 6716, "ĠCall": 6717, "imated": 6718, "Ġremain": 6719, "Ġanti": 6720, "ĠLondon": 6721, "Ġsafety": 6722, "POSE": 6723, "oles": 6724, "controller": 6725, "Byte": 6726, "ĠCourt": 6727, "ĠPhil": 6728, "ĠAssoci": 6729, "ena": 6730, "coin": 6731, "reshold": 6732, "Ġbatch": 6733, "entication": 6734, "enty": 6735, "Ġbeginning": 6736, "Ġzero": 6737, "ĠConvert": 6738, "Ġterr": 6739, "Ġpaid": 6740, "Ġincreased": 6741, "catch": 6742, "-size": 6743, "activity": 6744, "equals": 6745, "Ġqueue": 6746, "Ġ\"'": 6747, "ĠInternational": 6748, "ĠfÃ¼r": 6749, "ursday": 6750, "Ġscient": 6751, "allow": 6752, "axis": 6753, "Ġappropri": 6754, "edge": 6755, "Ġidx": 6756, "Success": 6757, "entifier": 6758, ":\\": 6759, "xis": 6760, "Ġmaximum": 6761, "arks": 6762, "Ġbirth": 6763, "(index": 6764, "Ġmaybe": 6765, ".py": 6766, "files": 6767, "Ġlimited": 6768, "_check": 6769, "look": 6770, "plies": 6771, "Ġmovement": 6772, "'].": 6773, "Ġbroad": 6774, "ĠBE": 6775, ".cpp": 6776, "ĠEvery": 6777, "Admin": 6778, "Ġfans": 6779, "pared": 6780, "ĊĠĠĠĠĊ": 6781, "Ġforeign": 6782, "Ġpan": 6783, "Ġtour": 6784, "ĠOrder": 6785, "Ġmoving": 6786, "Ġauf": 6787, "Call": 6788, "cb": 6789, "ÅŁ": 6790, "ventory": 6791, "Ġfully": 6792, "WORD": 6793, "Ġannounced": 6794, "Ġagreed": 6795, "rie": 6796, "Ġearn": 6797, "_link": 6798, ".array": 6799, "(text": 6800, "Ġmaterials": 6801, ",p": 6802, "ffff": 6803, "vg": 6804, "ĠÂ©": 6805, "Ġunless": 6806, "LOG": 6807, "Ġsexual": 6808, "Ġ\\\"": 6809, "-time": 6810, "Ġcoach": 6811, "Ġsupported": 6812, "Ġphotos": 6813, "iform": 6814, ")]": 6815, "rier": 6816, "Ġdialog": 6817, "aver": 6818, "ige": 6819, ")+": 6820, "_idx": 6821, ":[": 6822, "_min": 6823, "ĠCong": 6824, "Ġpressure": 6825, "Ġteams": 6826, "Sign": 6827, "begin": 6828, "rian": 6829, "NESS": 6830, "LS": 6831, "Ġimprove": 6832, "ĠSunday": 6833, "Ġdefinition": 6834, "iger": 6835, "rollers": 6836, "Ġthinking": 6837, "Template": 6838, "-F": 6839, "Ġemerg": 6840, "plates": 6841, "ĠUSA": 6842, "ĠAlso": 6843, "rev": 6844, "Ġenable": 6845, "ĠCO": 6846, "PECT": 6847, "Ġconcept": 6848, ")-": 6849, "ĠâĢ¢": 6850, "Ġsets": 6851, "Ġmeaning": 6852, "emon": 6853, "ĠCons": 6854, "cmp": 6855, "eder": 6856, "anned": 6857, "icensed": 6858, "ĠSuper": 6859, "Ġdaily": 6860, "Ġmulti": 6861, "_u": 6862, "Ġchalleng": 6863, "_mode": 6864, "Ġstrict": 6865, "jo": 6866, "inton": 6867, "(list": 6868, "Only": 6869, ">{": 6870, "Ġvehicle": 6871, "ĠPlayer": 6872, "ĠDel": 6873, "Ġpool": 6874, ".url": 6875, "nesday": 6876, "Local": 6877, "Ġorganization": 6878, "render": 6879, "ĠApplication": 6880, "Ġsummer": 6881, "expected": 6882, "NA": 6883, "Ġrap": 6884, "_obj": 6885, "Ġsurface": 6886, "ĠPUR": 6887, "Ġvariables": 6888, "Ġopin": 6889, ".back": 6890, "Ð°Ð½": 6891, "Ġworkers": 6892, "vm": 6893, "Co": 6894, "ughter": 6895, "Ġmaster": 6896, "Ġ\"\",": 6897, "Ġstories": 6898, "Ġcelebr": 6899, "inese": 6900, "BS": 6901, "ĠCommand": 6902, "ashboard": 6903, "Ġog": 6904, "kg": 6905, ".image": 6906, ".style": 6907, "Ġsteps": 6908, "ĠBen": 6909, "(args": 6910, "ĠPerson": 6911, ",y": 6912, "Ġofficials": 6913, "Ġskills": 6914, "vc": 6915, "Ġbuilder": 6916, "Ġgar": 6917, "Account": 6918, "ĠAuth": 6919, "ĠAT": 6920, "nn": 6921, ".Int": 6922, "SSERT": 6923, "Ġeffective": 6924, "LETE": 6925, "Ġtools": 6926, "ARD": 6927, "Ġdigital": 6928, "Double": 6929, "ĠFind": 6930, "RC": 6931, "Ġinline": 6932, "/r": 6933, "ARAM": 6934, "ASK": 6935, "Ġintent": 6936, "aight": 6937, "Ġrequests": 6938, ".first": 6939, "Ġdebug": 6940, "Ġspent": 6941, "ÅĽ": 6942, "Ġprincip": 6943, "cludes": 6944, ".use": 6945, "Ġsurv": 6946, "media": 6947, "ĠFebruary": 6948, "ĠMac": 6949, "Ġmissing": 6950, "Ġwife": 6951, "Ġtalking": 6952, "ĠMake": 6953, "Ġcart": 6954, "Ġlocated": 6955, "Enc": 6956, "-a": 6957, "chron": 6958, "Ġcards": 6959, "Ġguy": 6960, "Ġpers": 6961, "ĠYes": 6962, "atever": 6963, "ĠAng": 6964, "olar": 6965, "ĠEven": 6966, "Ġaccur": 6967, "ĠPower": 6968, "ĠGold": 6969, "clear": 6970, "Process": 6971, "Ġrecords": 6972, "Ġkilled": 6973, ".clear": 6974, "Ġpurpose": 6975, "panel": 6976, "JECT": 6977, "ÃŃa": 6978, "Ġexerc": 6979, "WS": 6980, "/L": 6981, "Ġ___": 6982, "Ġsin": 6983, "ĠdÃ©": 6984, ".delete": 6985, "roke": 6986, "Sl": 6987, "ugh": 6988, "ears": 6989, "Ġpointer": 6990, "Ġhop": 6991, "allery": 6992, "Ġobs": 6993, "covery": 6994, "ocity": 6995, "itchen": 6996, "ulations": 6997, "ĠFIT": 6998, "Ġ).": 6999, "straints": 7000, "vention": 7001, "Ġrequires": 7002, "ĠOper": 7003, "ME": 7004, "OUNT": 7005, "allet": 7006, "Ġnorm": 7007, "IRE": 7008, "exas": 7009, "Ġprograms": 7010, "Ġweak": 7011, "'.$": 7012, "uing": 7013, "Ġmil": 7014, "Ġfirm": 7015, "initely": 7016, "_VALUE": 7017, "apse": 7018, "atisf": 7019, "Ġdemand": 7020, "_mod": 7021, "Ġdescribed": 7022, "Ġplaces": 7023, "VID": 7024, "Ġalone": 7025, "Ġexport": 7026, "Ġvec": 7027, "ĠMax": 7028, "Ġactivities": 7029, "ictures": 7030, "gener": 7031, "Ġma": 7032, "Ĥ¬": 7033, "Ġexpression": 7034, "_content": 7035, "ĠMost": 7036, "Ġtesting": 7037, "EC": 7038, "Ġadjust": 7039, "Ġagree": 7040, "ighest": 7041, "Ġui": 7042, "ĠLaw": 7043, ".Y": 7044, "Ġpod": 7045, "Ġdescribe": 7046, "ĠEuropean": 7047, "-sh": 7048, "ĠPURPOSE": 7049, "ORY": 7050, "Ġconvers": 7051, "ĠAv": 7052, "(ch": 7053, "?\"": 7054, "chen": 7055, "ima": 7056, "Document": 7057, "Ġoperations": 7058, "win": 7059, "Ġscen": 7060, "/h": 7061, "ĠSC": 7062, "Ġexplo": 7063, ":%": 7064, "NAME": 7065, "(var": 7066, "Ġdirector": 7067, "ONG": 7068, "Ġyield": 7069, "Ġfeet": 7070, "ĠSearch": 7071, "ĠIl": 7072, "Ġrestaur": 7073, "duc": 7074, "Ġinteger": 7075, "Ġhighly": 7076, "checked": 7077, "ĠPARTIC": 7078, "ï¼ī": 7079, "Ġoptim": 7080, "Queue": 7081, "ĠLI": 7082, "itation": 7083, "Ġtransport": 7084, "ission": 7085, "fill": 7086, "usion": 7087, "ĠĠĠĠĠĠĠĠĠĠĠĠĠĠĠĠĠĠĠĠĠĠĠĠĠĠĠĠĠĠ": 7088, "-th": 7089, "upt": 7090, "Ġessential": 7091, "anted": 7092, "Ġbenefits": 7093, "iki": 7094, "Ġgirls": 7095, "iced": 7096, "buffer": 7097, "]+": 7098, "Ġsocket": 7099, "Ġprices": 7100, "ĠFre": 7101, "Ġsat": 7102, "Ġwood": 7103, "ARG": 7104, "ĠAdmin": 7105, "OWN": 7106, "dk": 7107, "Ġreset": 7108, "Ġforms": 7109, "ĠÐ¸": 7110, "ĠTuesday": 7111, "_train": 7112, "orary": 7113, "ategor": 7114, "Ġdt": 7115, "Total": 7116, "construct": 7117, "ilies": 7118, "Ġguys": 7119, "ÐµÑĢ": 7120, "Ġinstruction": 7121, "yled": 7122, "Ġinternet": 7123, "etadata": 7124, "ady": 7125, "faces": 7126, "jection": 7127, "ĠJack": 7128, "Ġrect": 7129, "[-": 7130, "ĠLeg": 7131, "Ġdevices": 7132, "OC": 7133, "oration": 7134, "ertain": 7135, "Ġguard": 7136, "ostream": 7137, "Ġenum": 7138, ".layout": 7139, "voke": 7140, "ĠOk": 7141, "Home": 7142, "(tr": 7143, "ETH": 7144, "Ġdelay": 7145, "Ġpurchase": 7146, "dc": 7147, "Ġaren": 7148, "_once": 7149, "ror": 7150, "draw": 7151, ".run": 7152, "(model": 7153, "lik": 7154, "ĠArg": 7155, ".en": 7156, "Ġfish": 7157, "_fe": 7158, "(X": 7159, "_output": 7160, "??": 7161, "Ġjo": 7162, "andard": 7163, "Ġdoll": 7164, "errors": 7165, "_base": 7166, "ĠPARTICULAR": 7167, "Ġleader": 7168, "Ġcompar": 7169, "Ġdoub": 7170, "ĠVis": 7171, "-C": 7172, "ĠStud": 7173, "stitute": 7174, "More": 7175, "ĠDescription": 7176, "WARE": 7177, "ads": 7178, "ĠÐº": 7179, "bind": 7180, "=self": 7181, "employ": 7182, "[n": 7183, ".all": 7184, "-B": 7185, "&&": 7186, "alm": 7187, "Ġculture": 7188, "house": 7189, "Ġsuffer": 7190, "Ġ'%": 7191, "Ġstraight": 7192, "ĠStar": 7193, "udo": 7194, "Ġded": 7195, "ĠCOM": 7196, "Ġconfirm": 7197, "ĠGood": 7198, ".sc": 7199, "________________": 7200, "DR": 7201, "Configuration": 7202, "Ġadvert": 7203, "Ġcouldn": 7204, "stack": 7205, "Kit": 7206, "Ġhous": 7207, "Ġmechan": 7208, "rate": 7209, "Ġaudio": 7210, "cores": 7211, "Ġspot": 7212, "Ġincreasing": 7213, "Ġ##": 7214, ")))": 7215, "points": 7216, "Ġcompared": 7217, "lig": 7218, "Ġbehavior": 7219, "ĠBY": 7220, "ĠAtt": 7221, "craft": 7222, "headers": 7223, "ete": 7224, "Ġdetail": 7225, "ULE": 7226, "ĠCommon": 7227, "ston": 7228, "ĠFITNESS": 7229, "Ġfresh": 7230, ".example": 7231, "berg": 7232, "Ġmoved": 7233, "ĠSaturday": 7234, "Ġpayload": 7235, "Äĩ": 7236, "Ġbey": 7237, "urer": 7238, "<script": 7239, "Ġsymbol": 7240, "Ġassum": 7241, "Ġpul": 7242, "Effect": 7243, "Ġhundred": 7244, "Tool": 7245, "aked": 7246, "connection": 7247, "Ġvoice": 7248, "Ġpd": 7249, "Ġtransaction": 7250, "Ġlinks": 7251, "Err": 7252, "ĠIndian": 7253, "TC": 7254, "atalog": 7255, "ni": 7256, "sign": 7257, "<<\"": 7258, "ji": 7259, "ya": 7260, "Ġdemonstr": 7261, "ulated": 7262, ".St": 7263, "Ġinstit": 7264, "Ġboost": 7265, "Ġcells": 7266, "olic": 7267, ".Pro": 7268, "ifying": 7269, "ĠDi": 7270, "orrow": 7271, ".execute": 7272, "Ġcollege": 7273, "Your": 7274, "Ġlargest": 7275, ".dis": 7276, "Ġqui": 7277, "Ġindividuals": 7278, "_buffer": 7279, "Ġng": 7280, "SA": 7281, "ĠControl": 7282, "Ġsing": 7283, "Ġsuit": 7284, "SG": 7285, "Ġjump": 7286, "Ġsmart": 7287, "oma": 7288, "ĠExp": 7289, "Ġ'-": 7290, "Ġassist": 7291, "Ġsuccessfully": 7292, "sys": 7293, "ĠCre": 7294, "_ref": 7295, "ĠThursday": 7296, "Ġbur": 7297, "ĠÐ´": 7298, "Ġbeyond": 7299, "Ġnodes": 7300, "Details": 7301, "inct": 7302, "ĠJames": 7303, "Ġaffect": 7304, "exception": 7305, "Ġtypeof": 7306, "-se": 7307, "Ġfetch": 7308, "`,": 7309, "}.": 7310, "ĠBO": 7311, "Show": 7312, "Ġrates": 7313, "Ġbon": 7314, "-icon": 7315, "ĠMedia": 7316, "RESS": 7317, "ĠValid": 7318, "acks": 7319, "Ġstudies": 7320, "Me": 7321, "Ġowners": 7322, "Ġgrowing": 7323, "Variable": 7324, "ĠBel": 7325, ".random": 7326, "vement": 7327, "onym": 7328, "(F": 7329, "ĠFALSE": 7330, "Ġtorch": 7331, "(row": 7332, "igo": 7333, "structure": 7334, "Ġcertainly": 7335, "Dep": 7336, "ĠGreen": 7337, "question": 7338, "Ġadding": 7339, "ĠDevelop": 7340, "_def": 7341, "Ġmach": 7342, "=%": 7343, "conds": 7344, "Project": 7345, "Ġreject": 7346, "ĠÎ": 7347, "Ġpoor": 7348, "Ġaware": 7349, "ĠBuild": 7350, "ĠBritish": 7351, "ĠNE": 7352, "Ġnumer": 7353, "rees": 7354, "claim": 7355, "Ġmock": 7356, "Ġom": 7357, "Ġscre": 7358, "OLD": 7359, ".pl": 7360, "eler": 7361, "Ġcorrespond": 7362, "_HE": 7363, "Ġbinary": 7364, "_order": 7365, "ĠSQL": 7366, "Ġadvant": 7367, "Ġprev": 7368, ".[": 7369, "plier": 7370, "arp": 7371, "Ġclosed": 7372, "Ġencour": 7373, "aud": 7374, "Ġdeveloped": 7375, "Ġpermission": 7376, "operator": 7377, "Ġsym": 7378, "atively": 7379, "Ã©e": 7380, "-color": 7381, "ĠGET": 7382, "ky": 7383, "Ġalthough": 7384, "_element": 7385, "................": 7386, "_DATA": 7387, "Ġamazing": 7388, "Ġsb": 7389, "ĠDefault": 7390, "Events": 7391, "Ġfailure": 7392, "acle": 7393, "Properties": 7394, "Ġdream": 7395, "Ġdistr": 7396, "Ġau": 7397, "Ġgenerated": 7398, "ĠTeam": 7399, "USE": 7400, "Ġincome": 7401, "Ġeye": 7402, "_not": 7403, "\"],": 7404, "_form": 7405, "Support": 7406, "orders": 7407, "ville": 7408, "ĠWednesday": 7409, "olver": 7410, "Ġoppos": 7411, "isation": 7412, "ola": 7413, "Close": 7414, "<p": 7415, "_width": 7416, "Invalid": 7417, "xb": 7418, "Ġstrugg": 7419, "_action": 7420, "Ġtxt": 7421, "ĠPath": 7422, "alar": 7423, "service": 7424, "ĠMichael": 7425, "Debug": 7426, "okes": 7427, "She": 7428, "Ġguess": 7429, "ĠJava": 7430, "_PATH": 7431, "Ġparticularly": 7432, "ĠII": 7433, "Ġdomain": 7434, "Ġreduce": 7435, "-left": 7436, "real": 7437, "Ġappears": 7438, "Ġcomo": 7439, "ĠUnit": 7440, "ĠGovern": 7441, "ali": 7442, "allel": 7443, "ĠJew": 7444, "_I": 7445, "Ġcos": 7446, ".color": 7447, "ĠGlobal": 7448, "Ġtele": 7449, "ben": 7450, "_trans": 7451, "Ġreasons": 7452, "Ġemb": 7453, "ensity": 7454, "lines": 7455, "omin": 7456, "Screen": 7457, "Ð°ÑĤ": 7458, "pects": 7459, "clip": 7460, "foo": 7461, "rent": 7462, "Ġaf": 7463, "Ġdanger": 7464, "iling": 7465, "Names": 7466, "Our": 7467, "Ġdistribution": 7468, "While": 7469, "SL": 7470, "Write": 7471, "Ġgoto": 7472, "Ġcolors": 7473, "Ġpowerful": 7474, "kin": 7475, "Ġdepth": 7476, "ercial": 7477, "ĠCongress": 7478, "ĠMarket": 7479, "Db": 7480, "under": 7481, "ĠLast": 7482, "ÃŁ": 7483, "greg": 7484, "Ġposts": 7485, "_URL": 7486, "otos": 7487, "Don": 7488, "Ġmicro": 7489, "Ġarrest": 7490, "Ð¿": 7491, "Ġ(@": 7492, "ĠHot": 7493, "ĠIndex": 7494, ";&": 7495, "#!": 7496, "ĠNor": 7497, "ĠCap": 7498, "-(": 7499, "Ġinterested": 7500, "pear": 7501, "Ġrent": 7502, "Ġalbum": 7503, "olicy": 7504, ".lang": 7505, ".trans": 7506, ".format": 7507, "phere": 7508, "Ġaxis": 7509, "ĠBusiness": 7510, "ersistence": 7511, "urr": 7512, "Ġminimum": 7513, "endor": 7514, "ĠSD": 7515, "ĠInternet": 7516, "Exp": 7517, "iverse": 7518, "MM": 7519, "Ġobvious": 7520, "Ġbasis": 7521, "Ġscience": 7522, "Ġbudget": 7523, "izations": 7524, "PA": 7525, "Ġflags": 7526, "pret": 7527, "LOCK": 7528, "Ġvariety": 7529, "Ġtruth": 7530, "dt": 7531, "Ġgone": 7532, "Ġbattle": 7533, "<std": 7534, "ĠSil": 7535, "rf": 7536, "uda": 7537, "ĠCam": 7538, "Ġstation": 7539, "cheme": 7540, "ĠSun": 7541, "Ġfinished": 7542, "Ġshop": 7543, "ĠKore": 7544, "Ġeight": 7545, "ND": 7546, ">,": 7547, "(num": 7548, "Transaction": 7549, ".On": 7550, "Ġmail": 7551, "rey": 7552, "results": 7553, "Ġnav": 7554, "IMIT": 7555, "_ids": 7556, "Make": 7557, "Modal": 7558, "ĠLOG": 7559, "ĠSur": 7560, "Ġoverall": 7561, "ĠInformation": 7562, "Ġconstruction": 7563, "_FILE": 7564, "but": 7565, "Ġmedic": 7566, "Ġduration": 7567, "itness": 7568, "agent": 7569, "AV": 7570, "Ġseven": 7571, "olf": 7572, "Ġcalling": 7573, "Ġans": 7574, "throws": 7575, "orizontal": 7576, ".fl": 7577, "ĠStatus": 7578, "ĠOnline": 7579, "RR": 7580, "ĠRich": 7581, "ĠHill": 7582, "Ġbrain": 7583, "Ġfollowed": 7584, "emic": 7585, "Ġslight": 7586, "Ġinsurance": 7587, "Ġabstract": 7588, "ĠSum": 7589, "redirect": 7590, "owner": 7591, "ĠClinton": 7592, "Non": 7593, "Ġvolume": 7594, "-L": 7595, "ĠDim": 7596, "ĠMart": 7597, "Ġcursor": 7598, "Ġimplementation": 7599, "urred": 7600, "Ġlarger": 7601, "'+": 7602, ".transform": 7603, "Ġupload": 7604, "ĠĠĠĠĠĠĠĠĠĠĠĠĠĠĠĠĠĠĠĠĠĠĠĠĠĠĠĠĠĠĠĠĠĠĠĠĠĠĠĠĠĠĠĠĠĠĠĠĠĠĠĠĠĠĠ": 7605, "Draw": 7606, "nel": 7607, "qrt": 7608, "ĠNetwork": 7609, "Ġtit": 7610, "Axis": 7611, "Ġcompleted": 7612, "Ġmur": 7613, "Ġcolumns": 7614, "xc": 7615, "Ġsupply": 7616, "iminal": 7617, "Ġspr": 7618, "================================================================": 7619, "Ġunits": 7620, "(u": 7621, "mi": 7622, "replace": 7623, "[key": 7624, "antic": 7625, "Ġpayment": 7626, ",B": 7627, "ĠApple": 7628, "gin": 7629, "Required": 7630, "#+": 7631, "lands": 7632, "Ġsqu": 7633, "Ġfactor": 7634, "dec": 7635, "Ġstrength": 7636, "Ġboy": 7637, "Ġbalance": 7638, "Ġsources": 7639, "screen": 7640, "-top": 7641, "ĠAmazon": 7642, "Ġhidden": 7643, "ÐµÑĤ": 7644, "Ġeat": 7645, ".display": 7646, "ĠÂ»": 7647, "Ġtrigger": 7648, "anager": 7649, "Ġtro": 7650, "Ġclaims": 7651, "ford": 7652, "ĠCompany": 7653, "Ġgift": 7654, ",:": 7655, "_app": 7656, "handle": 7657, "Ġproduce": 7658, "/lib": 7659, "Ġ-*": 7660, "'];": 7661, "arc": 7662, "ander": 7663, "ĠEngine": 7664, "Ġattributes": 7665, "task": 7666, "<=": 7667, "(N": 7668, "Ġwarm": 7669, "which": 7670, "ĠFore": 7671, "agnost": 7672, "mys": 7673, "Ġtal": 7674, "ĠSal": 7675, "gi": 7676, "ĠPrint": 7677, "ĠTRUE": 7678, "ĠÐ¾": 7679, "Ġflash": 7680, "roperty": 7681, ".location": 7682, "ĠMill": 7683, "bi": 7684, "contr": 7685, "ĠSam": 7686, "Ġnegative": 7687, "kit": 7688, "Ġsett": 7689, "abe": 7690, "Ġburn": 7691, "Ġsociety": 7692, "Cache": 7693, "ĠSecurity": 7694, ".models": 7695, "ĠWARRANTY": 7696, "_up": 7697, "ceive": 7698, "Ġclients": 7699, "Ġproviding": 7700, "Ġrout": 7701, "material": 7702, "ĠSer": 7703, "ĠOffice": 7704, "FTWARE": 7705, "Ġ'$": 7706, "Ġfoc": 7707, "Ġexcell": 7708, "Ġcat": 7709, "normal": 7710, "Ġdetermine": 7711, "Ġemployees": 7712, "ĠTexas": 7713, "Ġtraff": 7714, "ĠReport": 7715, "anta": 7716, "ĠBox": 7717, "Ġpartner": 7718, "EB": 7719, "LINE": 7720, "Ġfeeling": 7721, "Ġcivil": 7722, "(float": 7723, "Ġwouldn": 7724, ".init": 7725, ".left": 7726, "-v": 7727, "_level": 7728, "'}": 7729, "AF": 7730, "Ġloading": 7731, "ĠOnly": 7732, "Ġcookies": 7733, "ĠGl": 7734, "CO": 7735, "Ġstrategy": 7736, "Ġship": 7737, "poses": 7738, "Ġsignal": 7739, "Ġalpha": 7740, ".pop": 7741, "Radius": 7742, "Ġreplace": 7743, "_DIR": 7744, "counter": 7745, "bservable": 7746, "ela": 7747, "Weight": 7748, "hash": 7749, "bose": 7750, "fx": 7751, "ĠEmail": 7752, "Ġrefer": 7753, "localhost": 7754, "_RO": 7755, "iques": 7756, "Step": 7757, "Ġahead": 7758, "ĠServices": 7759, "essor": 7760, "Ġpun": 7761, "Ġappropriate": 7762, "akers": 7763, "osen": 7764, "posing": 7765, "Ġagent": 7766, "fc": 7767, "Ġtransfer": 7768, "Ġinvalid": 7769, "ĠResearch": 7770, "Vertex": 7771, "Ġjournal": 7772, "[x": 7773, "ĠWell": 7774, "Spec": 7775, "Ġol": 7776, "Ġspend": 7777, "ĠAustralia": 7778, "Match": 7779, "ĠĠĠĠĠĠĠĠĠĠĠĠĠĠĠĠĠĠĠĠĠĠĠĠĠĠĠĠĠĠĠĠĠĠĠĠĠ": 7780, "ĠMAX": 7781, "izable": 7782, "clusive": 7783, "_valid": 7784, "Ġquarter": 7785, "yan": 7786, "ĠEdit": 7787, "arden": 7788, "=new": 7789, "Ġfrag": 7790, "Bit": 7791, "zi": 7792, "aine": 7793, "udd": 7794, "debug": 7795, "Ġcash": 7796, "Ġeen": 7797, "Ġcommercial": 7798, "ĠVideo": 7799, "loader": 7800, "Ġfixed": 7801, "Ġapplications": 7802, "Ġ_,": 7803, "ĠRussia": 7804, "itect": 7805, "_(": 7806, "ĠBlock": 7807, "Ġsan": 7808, "ĠTom": 7809, "Ġperhaps": 7810, "Ġsig": 7811, "levant": 7812, "Ġcorpor": 7813, "ataset": 7814, "ronic": 7815, "xe": 7816, "Ġeth": 7817, "Some": 7818, "pop": 7819, "Ġtend": 7820, ".Res": 7821, "_and": 7822, "Ġreviews": 7823, "Ġwild": 7824, "Ġdegree": 7825, ".O": 7826, "_args": 7827, "nil": 7828, "Ġdisabled": 7829, "Parent": 7830, "Ġnotes": 7831, "(state": 7832, "istrict": 7833, "Ġlogging": 7834, "ĠMal": 7835, "DM": 7836, "Ġxml": 7837, "ĠRobert": 7838, "elen": 7839, "layout": 7840, "fol": 7841, "']))": 7842, ",b": 7843, "ĠJer": 7844, "filename": 7845, "Ġfan": 7846, "ĠCustom": 7847, "=\"\"": 7848, "ĠDie": 7849, "Bundle": 7850, ".utils": 7851, "Ġtrip": 7852, "MB": 7853, "Ġsoft": 7854, "Ġapplicable": 7855, "Ġupper": 7856, "_al": 7857, "_LOG": 7858, "Here": 7859, "wp": 7860, "ĠServer": 7861, "ĠClient": 7862, "Ġchem": 7863, "Scroll": 7864, "Ġhighest": 7865, "ĠSelect": 7866, "Ġ\"@": 7867, "ĠWhy": 7868, "Sec": 7869, "heel": 7870, "Operation": 7871, "Ġconnected": 7872, "irmed": 7873, "Ġcitiz": 7874, "ĠChe": 7875, "Ġforces": 7876, "Ġwww": 7877, "Root": 7878, "ANCE": 7879, "Many": 7880, "icip": 7881, "rgan": 7882, "ĠTor": 7883, "ĠPress": 7884, "ĠMor": 7885, "-line": 7886, "uled": 7887, ">\\": 7888, "Ġthus": 7889, "ĠRegister": 7890, "hol": 7891, "ĠChinese": 7892, "Ġposted": 7893, "Ġmagn": 7894, "abilities": 7895, "Ġdisease": 7896, "Ġremains": 7897, "ĠProf": 7898, "-form": 7899, "Ġcin": 7900, "organ": 7901, "icate": 7902, "Ġstress": 7903, "]*": 7904, "Ġ----------------------------------------------------------------": 7905, "_context": 7906, "orry": 7907, "Ġdied": 7908, "mat": 7909, "Ġstarts": 7910, "Ġruns": 7911, "Ġguide": 7912, "Ġwarranty": 7913, "entials": 7914, "dict": 7915, "ĠSize": 7916, "uler": 7917, "Ġresponsible": 7918, "Ġcontaining": 7919, "ĠPrice": 7920, "||": 7921, "FS": 7922, "Ġemp": 7923, "Ġsuff": 7924, "pth": 7925, "Ġdefinitely": 7926, "pute": 7927, "Ġmarketing": 7928, "ĠWH": 7929, "ĠSie": 7930, "+=": 7931, "OLOR": 7932, "Ġconsult": 7933, "Ġsigned": 7934, "Ġsequence": 7935, "lee": 7936, "Ġrequirements": 7937, "hy": 7938, "Express": 7939, "MT": 7940, "sey": 7941, "Ġult": 7942, "elligence": 7943, "Ġanaly": 7944, "Ġdress": 7945, "engine": 7946, "ĠGreat": 7947, "ĠAndroid": 7948, "ĠAlex": 7949, "mode": 7950, "Dictionary": 7951, ".Date": 7952, "VICE": 7953, "Ġfamilies": 7954, "ĠRussian": 7955, "ĠTimes": 7956, ".call": 7957, "$(": 7958, "Profile": 7959, "Ġfolder": 7960, "ches": 7961, "Ġlegis": 7962, "_row": 7963, "unes": 7964, "ÙĦ": 7965, "Ġ}).": 7966, "Assert": 7967, "agen": 7968, "ĠHand": 7969, "Iter": 7970, "Ġbiggest": 7971, "oreach": 7972, "Ġpolic": 7973, "Ġpermissions": 7974, "Ġshowed": 7975, "ĠElement": 7976, "Ġtopic": 7977, "âĢĶâĢĶ": 7978, "road": 7979, "ĠBank": 7980, "record": 7981, "Ġpartners": 7982, "ĠRef": 7983, "essions": 7984, "Ġassess": 7985, "UST": 7986, "ĠParty": 7987, "produ": 7988, "LC": 7989, "Ġul": 7990, ".form": 7991, "hide": 7992, "copy": 7993, "UTF": 7994, "ĠSOFTWARE": 7995, "ĠLin": 7996, "una": 7997, "ugar": 7998, "Ġadministration": 7999, "Ġopening": 8000, "Ġscan": 8001, "Ġcontinued": 8002, "component": 8003, ".sp": 8004, "Ġhappens": 8005, "ummy": 8006, "ĠPR": 8007, "ĠDownload": 8008, "Loading": 8009, "di": 8010, "Ġwaiting": 8011, "Tab": 8012, "Ġeconomy": 8013, "ĠFrench": 8014, "txt": 8015, "Ġfant": 8016, "Holder": 8017, "SH": 8018, "Ġnumpy": 8019, "Ġstreet": 8020, "Ġmale": 8021, "anging": 8022, "ĠBill": 8023, "Ġpreviously": 8024, "BI": 8025, "ĠSecret": 8026, "Ġmist": 8027, "ĠField": 8028, "ups": 8029, "ĠProcess": 8030, "Ġkept": 8031, "ĠOT": 8032, "Ġtraditional": 8033, ".i": 8034, "amin": 8035, "Ġhelps": 8036, "Any": 8037, "origin": 8038, "ilters": 8039, "ju": 8040, "desc": 8041, "ĠAccount": 8042, "ktop": 8043, "olly": 8044, "Ġfs": 8045, "Ġê": 8046, "Ġut": 8047, "Ġcentral": 8048, "(test": 8049, ".An": 8050, "Ġsatisf": 8051, "GR": 8052, "ĠFull": 8053, "Ġheat": 8054, "iber": 8055, "Ġonto": 8056, "mos": 8057, "Schema": 8058, "Ġfactory": 8059, "aws": 8060, "Statement": 8061, "(target": 8062, ".be": 8063, "Ġguest": 8064, "Ġmal": 8065, "ARY": 8066, "Ġreached": 8067, "Ġmouse": 8068, "Ġchallenge": 8069, "ĠTem": 8070, "Ġterror": 8071, "Ġextract": 8072, "_TO": 8073, "Ġseparate": 8074, "Ġmir": 8075, "help": 8076, "Ġcapacity": 8077, "ĠProperty": 8078, "kan": 8079, "_create": 8080, "ĠLight": 8081, ".parent": 8082, "Ġunderstanding": 8083, "Ġeasier": 8084, "Ġ|=": 8085, "Ġenh": 8086, "Ġfat": 8087, "Ġprotest": 8088, "amm": 8089, "_AT": 8090, "-of": 8091, "ils": 8092, "ĠOh": 8093, "Ġpsych": 8094, "Ġ$.": 8095, "inds": 8096, "Ġrelative": 8097, "shop": 8098, "short": 8099, "ĠSand": 8100, "uestion": 8101, "Ġfear": 8102, ".context": 8103, "Ġschools": 8104, "Ġserve": 8105, "zone": 8106, "_db": 8107, "Ġmajority": 8108, "example": 8109, "Ġlang": 8110, "Register": 8111, "endo": 8112, "Ġprocessing": 8113, "_template": 8114, "-user": 8115, "Ġeg": 8116, "COM": 8117, "ĠBlue": 8118, "iro": 8119, "Ġremote": 8120, "ĠIT": 8121, "#!/": 8122, "Ġredistrib": 8123, "raz": 8124, "ĠSince": 8125, "ĠTur": 8126, "Background": 8127, "===": 8128, "Ġreflect": 8129, "Ġpros": 8130, "cmd": 8131, "Ġwhom": 8132, "Compat": 8133, "ĠAre": 8134, "Identifier": 8135, "ĠThom": 8136, "_port": 8137, "gu": 8138, "Ġmonitor": 8139, "rm": 8140, "Ġpatient": 8141, "verter": 8142, "Ġgain": 8143, "Inst": 8144, "Ġdies": 8145, "Area": 8146, "_filter": 8147, "Ġgrat": 8148, "Ġreality": 8149, "ordinate": 8150, "olved": 8151, "Contact": 8152, "Ġcompliance": 8153, "_or": 8154, "ĠVar": 8155, "dl": 8156, "Ġappend": 8157, "GER": 8158, "(max": 8159, ".render": 8160, "Ġdynamic": 8161, "ordinates": 8162, "_options": 8163, "_column": 8164, "Ġbatter": 8165, "space": 8166, "La": 8167, "ĠSource": 8168, "/bin": 8169, "Ġdos": 8170, "ĠBoard": 8171, "ĠThread": 8172, "ĠAL": 8173, "ĠMer": 8174, "Ġmiles": 8175, "_header": 8176, "ETHOD": 8177, "izz": 8178, "Ġbenefit": 8179, "Ġintegr": 8180, "(current": 8181, "ulo": 8182, ".default": 8183, "ĠDiv": 8184, "Ġton": 8185, "oth": 8186, "ervation": 8187, "edom": 8188, "Ġbaby": 8189, "ceived": 8190, ".top": 8191, "riority": 8192, "ĠLocal": 8193, "riage": 8194, "Ġattacks": 8195, "Ġhospital": 8196, "Ġfemale": 8197, "ĠLogin": 8198, "ĠFlor": 8199, "Ġchain": 8200, "ashion": 8201, "Texture": 8202, "Save": 8203, "Ġfarm": 8204, ".Test": 8205, "Ġknows": 8206, "Ġgenerally": 8207, "ipeline": 8208, "Ġmeant": 8209, "encia": 8210, "Ġnicht": 8211, "Ġcontents": 8212, "PM": 8213, "chedule": 8214, "(line": 8215, "CG": 8216, "job": 8217, "ĠReal": 8218, "uer": 8219, "firm": 8220, "ĠØ": 8221, "etro": 8222, "Ġspeech": 8223, "Ġthr": 8224, "foreach": 8225, "Ġwarn": 8226, "Ġheavy": 8227, "Ne": 8228, "Ġinvestigation": 8229, "Math": 8230, "-title": 8231, "Ġchurch": 8232, "Ġdespite": 8233, "chain": 8234, "Ġwhatever": 8235, "arian": 8236, "fn": 8237, "Ġmeta": 8238, "UFF": 8239, "Ġregarding": 8240, "mes": 8241, "ĠIntent": 8242, "Ġresolve": 8243, "poss": 8244, "ira": 8245, "force": 8246, "oice": 8247, "Ã¢": 8248, "Ġpm": 8249, "Ġupdates": 8250, "Arr": 8251, "ĠÑ": 8252, "testing": 8253, "Ġtoward": 8254, "ntax": 8255, "Ġlisten": 8256, "Ġgoals": 8257, "Dr": 8258, "Ġrare": 8259, "Ġtrail": 8260, "Keys": 8261, "Cal": 8262, "Car": 8263, "ĠPeople": 8264, "classes": 8265, "Reference": 8266, "emb": 8267, "activ": 8268, "Ġprim": 8269, "redict": 8270, "Ġrad": 8271, "Ġspread": 8272, "Ġclock": 8273, "Ġvir": 8274, "editor": 8275, "Ġefforts": 8276, "Ġbranch": 8277, "Ġindust": 8278, "Ġmotor": 8279, "Ġamb": 8280, "Ġdatetime": 8281, "ĠChristian": 8282, "ĠAmericans": 8283, "full": 8284, "Ġfmt": 8285, ".main": 8286, "Ġcaused": 8287, "_update": 8288, "ĠContent": 8289, "ATCH": 8290, "Ġbath": 8291, "ĠEach": 8292, "Ġradio": 8293, "achment": 8294, "uzz": 8295, "Submit": 8296, "Ġrestrict": 8297, "abin": 8298, "ĠLoad": 8299, "Ġextension": 8300, "Ġessay": 8301, "Ġhat": 8302, "aviour": 8303, "\":[": 8304, "Ġoffered": 8305, "Ġvill": 8306, "(double": 8307, "bc": 8308, "_free": 8309, "ĠMiss": 8310, "ĠBer": 8311, "ĠLike": 8312, "Ġhelped": 8313, "Ġspirit": 8314, "ĠApache": 8315, "ws": 8316, "Ġtherefore": 8317, "(params": 8318, "_img": 8319, "Ġpeace": 8320, "Ġincor": 8321, "ĠEXPECT": 8322, "Ġminor": 8323, "ipes": 8324, "selector": 8325, "city": 8326, "trie": 8327, ".base": 8328, "_frame": 8329, "Ġopened": 8330, "LY": 8331, "nu": 8332, ".De": 8333, "tf": 8334, "margin": 8335, "Ġpi": 8336, "Ġeq": 8337, "bd": 8338, "Fields": 8339, "ĠTree": 8340, "Ġban": 8341, "istan": 8342, "ĊĠĠĠĠĠĠĠĠĊ": 8343, "Ġproduced": 8344, "system": 8345, "Mark": 8346, "_hash": 8347, "Ġbg": 8348, "Ġconstit": 8349, "ĠLeague": 8350, "Ġmission": 8351, "_format": 8352, "clusion": 8353, "!\"": 8354, "Ð·": 8355, "break": 8356, "Ġther": 8357, "Transform": 8358, "Ġfootball": 8359, "-link": 8360, "route": 8361, ".auth": 8362, "Ġbag": 8363, "overs": 8364, "Ġenabled": 8365, "Ġrac": 8366, "(I": 8367, "CR": 8368, "ancing": 8369, "Ġmanaged": 8370, "_q": 8371, "NGTH": 8372, "Ġmac": 8373, "ĠAuto": 8374, "amente": 8375, "Ġ'',": 8376, "Ġpin": 8377, ".item": 8378, "acking": 8379, "Ġoccas": 8380, "person": 8381, "Ġti": 8382, "Ġhaven": 8383, "Ġglass": 8384, "ĠSimple": 8385, "Print": 8386, "Ġsurround": 8387, "NO": 8388, "ĠMany": 8389, "Ġ\"_": 8390, "Ġweekend": 8391, "Ġsomew": 8392, ".params": 8393, "small": 8394, "ATED": 8395, "Ġplugin": 8396, "fields": 8397, "ĠInitialize": 8398, "oon": 8399, "atile": 8400, "ye": 8401, "Ġvous": 8402, "LAG": 8403, "Ġolder": 8404, "Ġgam": 8405, "Ġextremely": 8406, "Ġhet": 8407, "enum": 8408, "ĠSET": 8409, "xff": 8410, "Ġtimer": 8411, "/index": 8412, "Ġcritical": 8413, "Rows": 8414, "_argument": 8415, "Ġexecute": 8416, "Ġshowing": 8417, ".xml": 8418, "-list": 8419, "Role": 8420, "_method": 8421, "that": 8422, "cher": 8423, "ĠâĨ": 8424, "XT": 8425, "Ġthousands": 8426, "Ġresp": 8427, "_price": 8428, "olut": 8429, "Ag": 8430, "ĠTwo": 8431, "Ġbecomes": 8432, "Ġhus": 8433, "theme": 8434, "urb": 8435, "ARN": 8436, "Ġlose": 8437, "Lower": 8438, "Ġvel": 8439, "Ġdefense": 8440, "condition": 8441, "Ġbes": 8442, "Ġdry": 8443, "Ġscroll": 8444, "IEL": 8445, "Ð¾ÑĢ": 8446, "ĠRest": 8447, "Where": 8448, "oods": 8449, "ĠJes": 8450, "Ġwire": 8451, "Ġstrings": 8452, "gment": 8453, "Ġmatches": 8454, "Ġelectric": 8455, "Ġexcellent": 8456, "ĠCouncil": 8457, "idade": 8458, "Ġwx": 8459, "push": 8460, "_entry": 8461, "Ġtasks": 8462, "Ġrich": 8463, "sa": 8464, "ĠSmith": 8465, "UNCTION": 8466, "Pointer": 8467, "pective": 8468, "Ġwidget": 8469, "ista": 8470, "Ġagency": 8471, "Ġsich": 8472, "ologies": 8473, "Ġtrial": 8474, "alysis": 8475, ".check": 8476, "ARK": 8477, "about": 8478, "',$": 8479, "(val": 8480, "Ġplaced": 8481, "_NO": 8482, "Ġdan": 8483, ".equal": 8484, "Ġweather": 8485, "Ġdestination": 8486, "iece": 8487, "Ġprovider": 8488, ".last": 8489, "plex": 8490, "Note": 8491, "/js": 8492, "ĠpÃ¥": 8493, "Ġplanning": 8494, "attribute": 8495, "PRO": 8496, "atches": 8497, "Ġ<-": 8498, "Ġseeing": 8499, "Ġcancel": 8500, "_ind": 8501, ".keys": 8502, "Ġvisual": 8503, "ĠCurrent": 8504, "ĠCollege": 8505, "ĠRock": 8506, "Ġagreement": 8507, "ĠStore": 8508, "oving": 8509, "Ġcorner": 8510, "ISE": 8511, "Fin": 8512, "Ġprotection": 8513, "Ġfi": 8514, "Play": 8515, "plugin": 8516, ")}": 8517, ".frame": 8518, "-z": 8519, "Ġtransition": 8520, "igin": 8521, "Ġcandidate": 8522, "ĠUnion": 8523, "_values": 8524, "(map": 8525, "cle": 8526, "Ġtrend": 8527, "wide": 8528, "aren": 8529, "Loc": 8530, "UTH": 8531, "ĠBay": 8532, "Ġsmaller": 8533, "ius": 8534, "well": 8535, "Ġcriminal": 8536, "Ġconflic": 8537, "bert": 8538, "_INT": 8539, "Ġinvestment": 8540, "custom": 8541, "ĠSession": 8542, "_write": 8543, "ania": 8544, "ĠMass": 8545, "Ġviolence": 8546, "Argument": 8547, "_email": 8548, "Ġbelong": 8549, "_function": 8550, "Ġenemy": 8551, "ema": 8552, "ĠAddress": 8553, ".empty": 8554, "Ġinner": 8555, "ĠContact": 8556, "Loader": 8557, "ĠCA": 8558, "lot": 8559, "Ġpictures": 8560, "ĠSupport": 8561, "_names": 8562, "Layer": 8563, "ĠClick": 8564, "Sum": 8565, "Ã¦": 8566, "ĠLook": 8567, "uous": 8568, "Lib": 8569, "Flags": 8570, "team": 8571, "EP": 8572, "hat": 8573, "override": 8574, "apsed": 8575, "Ġlabels": 8576, "quis": 8577, "ĠStream": 8578, "_device": 8579, "ĠCommit": 8580, "(root": 8581, "\"}": 8582, ".isEmpty": 8583, "Ġangle": 8584, "ĠBecause": 8585, "%%%%%%%%": 8586, "Ġaim": 8587, "Ġstick": 8588, "stmt": 8589, "agraph": 8590, "answer": 8591, "Ġclin": 8592, "ĠIsl": 8593, ".ext": 8594, "ĠINT": 8595, "Ġstyles": 8596, "Ġborn": 8597, "Ġscr": 8598, "Ġexpand": 8599, "Ġraised": 8600, "TextBox": 8601, "ILL": 8602, "------------------------------------------------": 8603, "HTTP": 8604, ">)": 8605, "_char": 8606, "resource": 8607, "Ġepisode": 8608, "Ġ'_": 8609, "ĠEs": 8610, "ĠEarth": 8611, "ÂłÂł": 8612, "UPDATE": 8613, "ĠSou": 8614, "uis": 8615, "types": 8616, "Ġmas": 8617, "Ġfav": 8618, "Ġconstruct": 8619, "_rate": 8620, "eras": 8621, "roperties": 8622, "Ġexternal": 8623, "Ġapplied": 8624, "Ġprefix": 8625, "oted": 8626, "lers": 8627, "Ġcold": 8628, "ĠSP": 8629, "ĠChurch": 8630, "ĠOutput": 8631, "losed": 8632, "ificate": 8633, "operation": 8634, "herit": 8635, "xFF": 8636, ".env": 8637, "_err": 8638, "osh": 8639, "Direction": 8640, "Cancel": 8641, "ĠFrank": 8642, "Ġfinding": 8643, "Ġrouter": 8644, "ãĥ»": 8645, "ses": 8646, "Ġcrow": 8647, "=='": 8648, "Ġsand": 8649, "Ġrid": 8650, "iture": 8651, "Ġentre": 8652, "Ġobserv": 8653, "Ġvac": 8654, "-T": 8655, "Art": 8656, "night": 8657, ".search": 8658, "Ġexchange": 8659, "Ġdistrict": 8660, ".os": 8661, "Ġdepartment": 8662, "Ġdocuments": 8663, "Ġcentury": 8664, "ĠNext": 8665, "Host": 8666, "Ġsusp": 8667, "-P": 8668, "rend": 8669, ".em": 8670, "uite": 8671, "isters": 8672, "ĠAnn": 8673, "wt": 8674, "ati": 8675, "ĠHTML": 8676, "when": 8677, "Directory": 8678, "Ġshut": 8679, "<a": 8680, "edy": 8681, "Ġhealthy": 8682, "Ġtemperature": 8683, "ĠGen": 8684, "Ġmetal": 8685, "Ġsubmit": 8686, "ĠDO": 8687, "Ġattract": 8688, "ĠWord": 8689, "Ġll": 8690, "Ġseemed": 8691, "ko": 8692, "IED": 8693, "Ġlabor": 8694, "Ġasset": 8695, "you": 8696, "Ġcars": 8697, "ĠColumn": 8698, "ĠrÃ©": 8699, "Ġsquare": 8700, "âĢĿ,": 8701, "apes": 8702, "Ġthanks": 8703, "Ġtick": 8704, "Ġexperiment": 8705, "Ġprison": 8706, "tree": 8707, "-text": 8708, "-width": 8709, "fast": 8710, "-body": 8711, "-header": 8712, "Ġguar": 8713, "crete": 8714, "ĠTim": 8715, "Ġclearly": 8716, "ĠRepublican": 8717, "Ġjustify": 8718, "Ð¸ÑĤ": 8719, "cache": 8720, ";//": 8721, "Ġpresence": 8722, "Ġfactors": 8723, "Ġemployee": 8724, "]))": 8725, "Member": 8726, "Ġselector": 8727, "bor": 8728, "ĠMex": 8729, "utex": 8730, "_tag": 8731, "ailure": 8732, "ĠNet": 8733, "Ġreli": 8734, "EG": 8735, "Ġfprintf": 8736, "Ġteen": 8737, "loss": 8738, "Ġleaving": 8739, "Ġbeat": 8740, "Ġminute": 8741, "Ġredistribute": 8742, "Constants": 8743, "Ġcancer": 8744, "/{": 8745, "BL": 8746, "Ġspan": 8747, "ĠChild": 8748, "Center": 8749, "Ġearth": 8750, "YS": 8751, "ĠLevel": 8752, "Ġsea": 8753, ".inner": 8754, "illing": 8755, "ĠĠĠĠĊĠĠĠĠĊ": 8756, "ĠLabel": 8757, "ĠEst": 8758, "(arg": 8759, "cos": 8760, "Failed": 8761, "swers": 8762, "Editor": 8763, "ront": 8764, "ĠMP": 8765, "expr": 8766, "ĠLife": 8767, "Ġ??": 8768, "Ã¶r": 8769, "Ġattend": 8770, "ĠQue": 8771, "Ġspecies": 8772, "-D": 8773, "Ġaus": 8774, "Struct": 8775, "Ġadvantage": 8776, "oston": 8777, "-block": 8778, "initial": 8779, "CRE": 8780, "Ġtruly": 8781, "Ġcompare": 8782, "orney": 8783, "Ġspect": 8784, "Full": 8785, "bes": 8786, "Ġvisible": 8787, "Ġmess": 8788, "stances": 8789, "Ġcloud": 8790, "_version": 8791, "Ġfurn": 8792, "icago": 8793, "LOW": 8794, "Ġtraffic": 8795, "Ġfol": 8796, "rypto": 8797, "Ġdeclar": 8798, "Ġslot": 8799, "ĠExt": 8800, "ĠEngland": 8801, "ĠUnder": 8802, "Ġta": 8803, "letter": 8804, "Ġofficer": 8805, "ĠDonald": 8806, "Yes": 8807, "ĠUSE": 8808, "mployee": 8809, "Ġopinion": 8810, "ĠAut": 8811, "border": 8812, "Ġadvice": 8813, "Ġautomatically": 8814, "isco": 8815, "Ġmm": 8816, ".vis": 8817, "aml": 8818, "Ġinitialize": 8819, "Ġ({": 8820, "Ġgeneration": 8821, "Ġbits": 8822, "clipse": 8823, "Ġunf": 8824, "utors": 8825, "plt": 8826, "Ġdelta": 8827, "isis": 8828, "<br": 8829, "Ġlimitations": 8830, "Ġended": 8831, "ĠMad": 8832, "ilm": 8833, "These": 8834, "ĠMinister": 8835, "Ġchart": 8836, "Fragment": 8837, "Ġindependent": 8838, "Year": 8839, "Ġinstr": 8840, "Ġtags": 8841, "AVE": 8842, "ĠArch": 8843, "stop": 8844, "Progress": 8845, "Ġmi": 8846, "Ġlearned": 8847, "Ge": 8848, "Ġhotel": 8849, "SM": 8850, "TYPE": 8851, "Ġcy": 8852, "ERSION": 8853, "unately": 8854, "limit": 8855, "sel": 8856, "Ġmovies": 8857, "Ġsteel": 8858, "oz": 8859, "gb": 8860, "ĠCamp": 8861, "site": 8862, "PLE": 8863, ".right": 8864, "ĠCore": 8865, "Ġmixed": 8866, "step": 8867, "Ġputs": 8868, "super": 8869, "lyph": 8870, "ĠColors": 8871, ".str": 8872, "Ġinnov": 8873, "Ġdeck": 8874, "apers": 8875, "](": 8876, "continue": 8877, "spec": 8878, "ĠRoad": 8879, "ASH": 8880, "iliar": 8881, "Ġcontinues": 8882, "Ġappoint": 8883, "ĠVir": 8884, "Ġbin": 8885, "}\",": 8886, "going": 8887, "each": 8888, "BD": 8889, "ĠAccess": 8890, "Doc": 8891, "ĠManagement": 8892, "BER": 8893, "asket": 8894, "Ġestablished": 8895, "socket": 8896, "INS": 8897, "READ": 8898, "_height": 8899, "ĠFont": 8900, "_html": 8901, "Ġneighbor": 8902, "lor": 8903, "Ġgather": 8904, "Ġidentity": 8905, "Ġfab": 8906, "padding": 8907, "ĠRoute": 8908, "Ã´": 8909, "Ġforced": 8910, "resents": 8911, "_left": 8912, "ĠHam": 8913, "Ġeventually": 8914, "acer": 8915, "pub": 8916, "Ġtra": 8917, "unique": 8918, "del": 8919, "ĠFlorida": 8920, "ĠClean": 8921, "xa": 8922, "ĠÂ·": 8923, "Ġvalidate": 8924, "Visual": 8925, "Expression": 8926, "_func": 8927, "member": 8928, "trl": 8929, "napshot": 8930, "vin": 8931, "owl": 8932, "ifies": 8933, "ĠContext": 8934, "Ġofficers": 8935, "/n": 8936, "sn": 8937, "undefined": 8938, ".items": 8939, "amage": 8940, "Ġaccounts": 8941, "Section": 8942, "icians": 8943, "Ġadvis": 8944, "(is": 8945, "[:,": 8946, "ĠFrance": 8947, "Func": 8948, "icious": 8949, "Ġtok": 8950, "Channel": 8951, "ĠAD": 8952, "Ġtimeout": 8953, "lemma": 8954, "reme": 8955, "uj": 8956, ".Al": 8957, "uclear": 8958, "(os": 8959, "(\"<": 8960, "fetch": 8961, "Ġbal": 8962, "Ġguid": 8963, "-align": 8964, "ĠWrite": 8965, "ĠOnce": 8966, "ODULE": 8967, "Ġpitch": 8968, "CF": 8969, "bytes": 8970, "ĠCommission": 8971, "Ġincred": 8972, "PER": 8973, "_response": 8974, "ĠLos": 8975, "parser": 8976, "Ġassume": 8977, "ĠToken": 8978, "_position": 8979, "Ġnom": 8980, "-term": 8981, "Ġremaining": 8982, "iostream": 8983, "Ġpieces": 8984, "apy": 8985, "ĠLess": 8986, "range": 8987, "umbn": 8988, "prise": 8989, "_option": 8990, "Impl": 8991, "kwargs": 8992, "Ġbusinesses": 8993, "Alert": 8994, "Ġparties": 8995, "ĠContainer": 8996, "ĠPrivate": 8997, "ĠPlan": 8998, "Ġregistered": 8999, "Ġjour": 9000, "acker": 9001, "ÐµÐ½Ð¸": 9002, "/>": 9003, "chat": 9004, "sect": 9005, "Ġcreation": 9006, "olutely": 9007, "Ġinstant": 9008, "Ġdelivery": 9009, "icken": 9010, "yes": 9011, "ĠFranc": 9012, "bling": 9013, "enda": 9014, "[(": 9015, "_range": 9016, "ĠĠĠĠĠĠĠĠĠĠĠĠĠĠĠĠĠĠĠĠĠĠĠĠĠĠĠĠĠĠĠĠĠĠ": 9017, "Ġschedule": 9018, "Conn": 9019, "Ġthank": 9020, "xd": 9021, "Ġhook": 9022, "Ġdocumentation": 9023, "Parameters": 9024, "Hello": 9025, "vt": 9026, "Ġarticles": 9027, "Ġwest": 9028, "defined": 9029, ".select": 9030, "okens": 9031, "ĠVAL": 9032, ".file": 9033, "reset": 9034, "Ġmys": 9035, "ĠMA": 9036, "]),": 9037, "Ġcities": 9038, "related": 9039, "Ġappeared": 9040, "Ġwid": 9041, "ĠIns": 9042, "Ġdecre": 9043, "ĠLou": 9044, "(time": 9045, "ĠThank": 9046, "Ġmentioned": 9047, "ounce": 9048, "ĠTry": 9049, "ĠWall": 9050, "/images": 9051, "ĠMenu": 9052, "ĠEr": 9053, "Ġcritic": 9054, "ĠYear": 9055, "(param": 9056, "Ġflo": 9057, "NN": 9058, "ooter": 9059, "ĠAff": 9060, "rooms": 9061, "Ġhyp": 9062, "global": 9063, "Ġavec": 9064, "Ġcompletion": 9065, "Ġcond": 9066, "onymous": 9067, "(temp": 9068, "Ġstars": 9069, "Ġrelevant": 9070, "Ġcovered": 9071, "Ġelim": 9072, "_types": 9073, "Ġtu": 9074, "_exists": 9075, "Ġsecure": 9076, "Ġstored": 9077, "]/": 9078, "xF": 9079, "ĠController": 9080, "Ġmigr": 9081, "MI": 9082, "ĠDen": 9083, "Ġannual": 9084, "UIL": 9085, "-and": 9086, "Ġcrime": 9087, "bel": 9088, "Ġkitchen": 9089, "@g": 9090, "_ph": 9091, "ournament": 9092, "ĠSocial": 9093, "ĠSpecial": 9094, "Ġtail": 9095, "Ġunknown": 9096, "ded": 9097, "Ġapprec": 9098, "(db": 9099, "cf": 9100, "Ġassign": 9101, "-out": 9102, "ĠMont": 9103, "dp": 9104, "widget": 9105, "Ġstone": 9106, "-primary": 9107, ".grid": 9108, "Results": 9109, "azz": 9110, "Ġdaughter": 9111, "Ġcurr": 9112, "Ġlin": 9113, "Ġsouth": 9114, "forms": 9115, "ĠOUT": 9116, "lette": 9117, "aks": 9118, "igure": 9119, "ĠEU": 9120, "variable": 9121, "Ġbrief": 9122, "ĠScott": 9123, "Ġconference": 9124, "anda": 9125, "_lock": 9126, "oral": 9127, "Ġeine": 9128, "ORS": 9129, "////////////////////////////////////////////////////////////////": 9130, "esso": 9131, "Ġris": 9132, "Ġgender": 9133, "estic": 9134, "License": 9135, "(out": 9136, "Ġms": 9137, "See": 9138, "Ġwilling": 9139, "aze": 9140, "Ġsports": 9141, "Ġyes": 9142, "lu": 9143, "Ġpurs": 9144, "/javascript": 9145, "-pro": 9146, "_product": 9147, "/bootstrap": 9148, "Ġdriving": 9149, "ĠÄ": 9150, "Ġpropos": 9151, "ultip": 9152, "uplic": 9153, ".email": 9154, "Ġapprox": 9155, "(cl": 9156, "Ġwear": 9157, "Ġreply": 9158, "asset": 9159, "Ġice": 9160, "Ġtx": 9161, "kr": 9162, "ĠGermany": 9163, "ĠGeorge": 9164, "Ġcb": 9165, "Move": 9166, "Ġpoly": 9167, "voice": 9168, "}\"": 9169, "Ġanimal": 9170, "Av": 9171, "ĠLocation": 9172, "Ġnative": 9173, "][\"": 9174, "<double": 9175, "Ġmais": 9176, ",int": 9177, "Ġprepar": 9178, "Ġinterval": 9179, "plementation": 9180, "Ġbug": 9181, ">\"": 9182, "stat": 9183, "<span": 9184, "Ġfaith": 9185, "Ġrom": 9186, "prev": 9187, "ĠElect": 9188, "Find": 9189, "Ġgod": 9190, "otor": 9191, "original": 9192, "Cpp": 9193, "ĠSenate": 9194, "Ġpositions": 9195, "Ġweapons": 9196, "Ġcoff": 9197, "Ġpurposes": 9198, "pol": 9199, "Ġimpress": 9200, "Ġanimals": 9201, "(np": 9202, "Ġmurder": 9203, "Ġ``": 9204, "flag": 9205, "Ġsolutions": 9206, "ĠActive": 9207, "Ġbright": 9208, ".date": 9209, "Ġsitu": 9210, "ï¼Ī": 9211, ".ID": 9212, "Ġsie": 9213, "akt": 9214, "Space": 9215, ".dat": 9216, "han": 9217, "azine": 9218, "ĠZe": 9219, "Ġcrash": 9220, "(/": 9221, ">=": 9222, "Ð±": 9223, "iva": 9224, "ĠLat": 9225, "_ext": 9226, "Initialize": 9227, ".register": 9228, "OPY": 9229, "Ġreverse": 9230, "_dis": 9231, "'][": 9232, "Ġprompt": 9233, "onto": 9234, "ĠJournal": 9235, ")\"": 9236, "lets": 9237, "phan": 9238, "Will": 9239, "Ġafford": 9240, "Ġskill": 9241, "-toggle": 9242, "NC": 9243, "Bind": 9244, "TS": 9245, "Just": 9246, "iteral": 9247, "YP": 9248, "Ġwind": 9249, "Ġwarning": 9250, "ĠWater": 9251, "Ġdraft": 9252, "Ġcm": 9253, "Ġsam": 9254, "Ġholding": 9255, "zip": 9256, "ĠScience": 9257, "Ġsupposed": 9258, "Gen": 9259, "Ġdiet": 9260, "<h": 9261, "ĠPass": 9262, "vi": 9263, "Ġhusband": 9264, "ï¿½ï¿½": 9265, "note": 9266, "ĠAbout": 9267, "ĠInstitute": 9268, "Ġclimate": 9269, "Ġnut": 9270, "ested": 9271, "Ġapparent": 9272, "Ġholds": 9273, "fi": 9274, "news": 9275, "CM": 9276, "video": 9277, "':'": 9278, "DITION": 9279, "ping": 9280, "Ġsenior": 9281, "wa": 9282, "_default": 9283, "ĠDatabase": 9284, "rep": 9285, "ESS": 9286, "nergy": 9287, "_mask": 9288, "Ġrise": 9289, "Ġkernel": 9290, ".Q": 9291, "Ġoffering": 9292, "decl": 9293, "ĠCS": 9294, "Ġlisted": 9295, "Ġmostly": 9296, "enger": 9297, "Ġblocks": 9298, "olo": 9299, "Ġgoverning": 9300, "\\F": 9301, "Ġconcent": 9302, "Ġmb": 9303, "Ġoccurred": 9304, "Ġchanging": 9305, "Scene": 9306, "Beh": 9307, "\"The": 9308, "Ġtile": 9309, "ĠAssociation": 9310, "alty": 9311, "_ad": 9312, "odies": 9313, "iated": 9314, "Ġprepared": 9315, "possible": 9316, "Ġmort": 9317, "TEST": 9318, "Ġignore": 9319, "Ġcalc": 9320, "Ġrs": 9321, "Ġsz": 9322, "ĠTHIS": 9323, "Ġcanvas": 9324, "java": 9325, "Ġdut": 9326, ".input": 9327, "Ġaux": 9328, "Sup": 9329, "Ġartist": 9330, "Vec": 9331, "_TIME": 9332, "etween": 9333, "ĠCategory": 9334, "Ġ[-": 9335, "ĠJul": 9336, "Ġring": 9337, ".ed": 9338, "YY": 9339, "Let": 9340, "TextField": 9341, "Ġflat": 9342, "_print": 9343, "ĠOTHER": 9344, "adian": 9345, "Ġchecked": 9346, "ele": 9347, "Align": 9348, "standing": 9349, "Ġ[],": 9350, "Ġlab": 9351, "ucky": 9352, "ĠChristmas": 9353, "(image": 9354, ".module": 9355, "Ġlots": 9356, "Ġslightly": 9357, "(final": 9358, "erge": 9359, "ĠPolice": 9360, "ĠRight": 9361, "Ġaward": 9362, "ĠOS": 9363, "Ġptr": 9364, "oves": 9365, "icated": 9366, "Ġmanage": 9367, "oliday": 9368, "Amount": 9369, "tbody": 9370, "Nav": 9371, "wrap": 9372, "BB": 9373, "Ġwatching": 9374, "arios": 9375, "Ġoptional": 9376, "_K": 9377, "ĠLicensed": 9378, "Timer": 9379, "ĠAP": 9380, "ĠRev": 9381, "(o": 9382, ",c": 9383, "umin": 9384, "etailed": 9385, "ĠHy": 9386, "Ġblank": 9387, "agger": 9388, "ĠSelf": 9389, "()[": 9390, ".make": 9391, "earn": 9392, "channel": 9393, "blem": 9394, "_sp": 9395, "icing": 9396, "ez": 9397, "Ġtheory": 9398, "ĠTer": 9399, ",n": 9400, "logo": 9401, "ĠHTTP": 9402, "()))": 9403, "World": 9404, "Ġpython": 9405, "Ġlif": 9406, "Ġtrav": 9407, "Ġconven": 9408, "company": 9409, "ĠClub": 9410, "Ver": 9411, "Btn": 9412, "Ġzone": 9413, "products": 9414, "ĠEduc": 9415, "Ġverify": 9416, "ĠMil": 9417, "ono": 9418, "ENCE": 9419, "Ġpacket": 9420, "Ġcer": 9421, "Ġenumer": 9422, "Ġpars": 9423, "formed": 9424, "Ġoccup": 9425, "tre": 9426, "Ġexercise": 9427, "Day": 9428, "_sum": 9429, "Ġasking": 9430, "aption": 9431, "Ġorders": 9432, "Ġspending": 9433, "ĠERR": 9434, "ĠUtil": 9435, "\\'": 9436, "?)": 9437, "Ġemot": 9438, "Ġinfluence": 9439, "ĠAfrica": 9440, "atters": 9441, "Ùħ": 9442, "Ġchief": 9443, "Ġtom": 9444, "cluded": 9445, "serial": 9446, ".Type": 9447, "aped": 9448, "Ġpolicies": 9449, "-ex": 9450, "-tr": 9451, "blank": 9452, "merce": 9453, "Ġcoverage": 9454, "Ġrc": 9455, "_matrix": 9456, "_box": 9457, "Ġcharges": 9458, "ĠBoston": 9459, "Pe": 9460, "Ġcircum": 9461, "Ġfilled": 9462, "Ġnorth": 9463, "Ġtermin": 9464, "Ġ[âĢ¦": 9465, "IRECT": 9466, "Ġber": 9467, "retch": 9468, ".code": 9469, "_col": 9470, "ĠGovernment": 9471, "Ġargv": 9472, "ĠLord": 9473, "asi": 9474, "Exec": 9475, "Ġdiscussion": 9476, "enance": 9477, "outube": 9478, "typeof": 9479, "Ġserved": 9480, "ĠPut": 9481, "Ġsweet": 9482, "Before": 9483, "ategy": 9484, ".of": 9485, "ĠMaterial": 9486, "Sort": 9487, "ONT": 9488, "igital": 9489, "Why": 9490, "Ġsust": 9491, "abet": 9492, "Ġsegment": 9493, "ĠMuslim": 9494, "cut": 9495, "ĠMary": 9496, "Ġloved": 9497, "Ġlie": 9498, "ĠJO": 9499, "month": 9500, "Ġprime": 9501, "ti": 9502, "ĠCarol": 9503, "Use": 9504, "ĠPop": 9505, "ĠSave": 9506, "Interval": 9507, "execute": 9508, "dy": 9509, "ĠIran": 9510, "_cont": 9511, "Ġphase": 9512, "checkbox": 9513, "week": 9514, "Ġhide": 9515, "Ġtil": 9516, "Ġju": 9517, "Custom": 9518, "burg": 9519, "/M": 9520, "TON": 9521, "Ġquant": 9522, "Ġrub": 9523, "ixels": 9524, "Ġinstalled": 9525, "Ġdump": 9526, "Ġproperly": 9527, "(List": 9528, "Ġdecide": 9529, "apply": 9530, "Has": 9531, "Ġkeeping": 9532, "Ġcitizens": 9533, "Ġjoint": 9534, "pool": 9535, "_op": 9536, "Ġweapon": 9537, "gnore": 9538, "ĠExec": 9539, "otten": 9540, "ĠMS": 9541, "Ġ(-": 9542, "ĠReview": 9543, "Ġexamples": 9544, "Ġtight": 9545, "!(": 9546, "DP": 9547, "Ġphotograph": 9548, "URI": 9549, "Ã©t": 9550, "low": 9551, "ĠGrand": 9552, "Ġmaintain": 9553, "Ġnums": 9554, "Ġzip": 9555, "ials": 9556, "ĠGets": 9557, "peg": 9558, "ĠBuffer": 9559, "~~~~": 9560, "rastructure": 9561, "ĠPL": 9562, "uen": 9563, "obby": 9564, "sizeof": 9565, "Ġpic": 9566, "Ġseed": 9567, "Ġexperienced": 9568, "Ġodd": 9569, "Ġkick": 9570, "Ġprocedure": 9571, "avigator": 9572, "-on": 9573, ",j": 9574, "ĠAlthough": 9575, "accept": 9576, "Blue": 9577, "layer": 9578, "available": 9579, "Ġends": 9580, ".table": 9581, "Ġdataset": 9582, "bus": 9583, "Ġexplain": 9584, "(pro": 9585, "ĠCommittee": 9586, "Ġnoted": 9587, "Dim": 9588, "stdio": 9589, "_source": 9590, "ĠWeek": 9591, "ĠEdge": 9592, "Ġoperating": 9593, "Ġeste": 9594, "ipl": 9595, "agination": 9596, "Ġproceed": 9597, "Ġanimation": 9598, "ĠWatch": 9599, "iat": 9600, "Ġoppon": 9601, "/A": 9602, "Report": 9603, "Ġsounds": 9604, "IELD": 9605, "Ġbund": 9606, ".pr": 9607, "(tmp": 9608, "Ġkid": 9609, "Ġyang": 9610, "ÑĨ": 9611, "math": 9612, "@gmail": 9613, "redients": 9614, "Ġvent": 9615, "avigate": 9616, "Look": 9617, "Ġreligious": 9618, "Ġrand": 9619, "rio": 9620, "(GL": 9621, "_ip": 9622, "uan": 9623, "iciency": 9624, "ĠChange": 9625, "ĠEntity": 9626, "ĠRet": 9627, "plan": 9628, "Ã©n": 9629, "uries": 9630, "train": 9631, "Definition": 9632, "============": 9633, "zz": 9634, "Animation": 9635, "ĠOK": 9636, ".bl": 9637, "_score": 9638, "Ġacad": 9639, "Ġrefresh": 9640, "amento": 9641, "pid": 9642, "tc": 9643, "Ġtips": 9644, "Ġhomes": 9645, "Ġfuel": 9646, "âĸ": 9647, "_helper": 9648, "ĠRoom": 9649, "_attr": 9650, "ĠMount": 9651, "ĠEv": 9652, "arser": 9653, "_top": 9654, "eah": 9655, "ĠDelete": 9656, "ãĢį": 9657, "uke": 9658, "Ġusage": 9659, "aria": 9660, "_dev": 9661, "Ġtexture": 9662, "Ġconversation": 9663, "eper": 9664, "done": 9665, "ĠSecond": 9666, "Ġshooting": 9667, "_pre": 9668, "Components": 9669, "__,": 9670, "stitution": 9671, "Ġpresented": 9672, "Ġwa": 9673, "oker": 9674, "iner": 9675, "Ġbecoming": 9676, "Ġincident": 9677, "Att": 9678, "Ġrevealed": 9679, "forc": 9680, "Ġboot": 9681, ".page": 9682, "Photo": 9683, "Ġspring": 9684, ".\",": 9685, "ĠDictionary": 9686, "BJECT": 9687, "Ġlocations": 9688, "Ġsamples": 9689, "ĠBrown": 9690, "Ġstats": 9691, "quality": 9692, "Ñħ": 9693, "-dis": 9694, "Ġhelping": 9695, "Ġped": 9696, "(se": 9697, "ĠWho": 9698, "alian": 9699, "internal": 9700, "Ġft": 9701, "->{": 9702, "Ġmine": 9703, "Ġsector": 9704, "Ġgro": 9705, "Ġopportunities": 9706, "ĠÃ¼": 9707, "Ġmp": 9708, "Ġalleged": 9709, "Ġdoubt": 9710, "Mouse": 9711, "About": 9712, "_part": 9713, "Ġchair": 9714, "Ġstopped": 9715, "loop": 9716, "entities": 9717, "Ġapps": 9718, "ansion": 9719, "Ġmental": 9720, "ĠĠĠĠĠĠĠĠĠĠĠĠĠĠĠĠĠĠĠĠĠĠĠĠĠĠĠĠĠĠĠĠĠĠĠĠĠĠĠĠĠ": 9721, "FR": 9722, "Ġdefend": 9723, "care": 9724, "Ġideal": 9725, "/api": 9726, "urface": 9727, "Ġele": 9728, "ulator": 9729, "ĠRights": 9730, "anguages": 9731, "Ġfunds": 9732, "Ġadapt": 9733, "Attributes": 9734, "Ġdeploy": 9735, "opts": 9736, "Ġvalidation": 9737, "Ġconcerns": 9738, "uce": 9739, ".num": 9740, "ulture": 9741, "ila": 9742, "Ġcup": 9743, "Ġpure": 9744, "ĠHashMap": 9745, "asm": 9746, "MO": 9747, "Ġcs": 9748, "Ġstores": 9749, "Ġcommunication": 9750, "mem": 9751, "_right": 9752, "Sheet": 9753, "Ġidentify": 9754, "enerated": 9755, "ordered": 9756, "Ġ\"[": 9757, "Ġswe": 9758, "Condition": 9759, "ĠAccording": 9760, "Ġprepare": 9761, "Ġrob": 9762, "Pool": 9763, "Ġsport": 9764, "rv": 9765, "Ġalternative": 9766, "([]": 9767, "ĠChicago": 9768, "ipher": 9769, "ische": 9770, "ĠDirector": 9771, "kl": 9772, "ĠWil": 9773, "keys": 9774, "Ġwelcome": 9775, "king": 9776, "ĠManager": 9777, "Ġcaught": 9778, "Score": 9779, "_PR": 9780, "Ġsurvey": 9781, "hab": 9782, "Headers": 9783, "ADER": 9784, "Ġdecor": 9785, "Ġturns": 9786, "Ġradius": 9787, "errupt": 9788, "Cor": 9789, "Ġmel": 9790, "Ġintr": 9791, "(q": 9792, "ĠAC": 9793, "amos": 9794, "MAX": 9795, "ĠGrid": 9796, "ĠJesus": 9797, "ĠĠĠĠĠĠĠĠĠĠĠĠĠĠĠĠĠĠĠĠĠĠĠĠĠĠĠĠĠĠĠĠĠĠĠĠ": 9798, "Ġts": 9799, "Ġlinked": 9800, "free": 9801, "ĠQt": 9802, "Ġfaster": 9803, "ctr": 9804, "_J": 9805, "DT": 9806, "Ġcombination": 9807, "Ġintended": 9808, "-the": 9809, "-type": 9810, "ectors": 9811, "ami": 9812, "uting": 9813, "Ġuma": 9814, "XML": 9815, "UCT": 9816, "Ap": 9817, "ĠRandom": 9818, "Ġran": 9819, ".sort": 9820, "Ġsorted": 9821, ".Un": 9822, "_PER": 9823, "itory": 9824, "Ġpriority": 9825, "ĠGal": 9826, "ĠOld": 9827, "hot": 9828, "ĠDisplay": 9829, "(sub": 9830, "_TH": 9831, "_Y": 9832, "ĠCare": 9833, "loading": 9834, "Kind": 9835, "_handle": 9836, ",,": 9837, "rase": 9838, "_replace": 9839, "ĠRT": 9840, "Ġentered": 9841, "gers": 9842, "Ġich": 9843, "(start": 9844, "/app": 9845, "Ġbrother": 9846, "Memory": 9847, "Ġutf": 9848, "prec": 9849, "Ġnavigation": 9850, "ORK": 9851, "Ġdst": 9852, "Detail": 9853, "Ġaudience": 9854, "Ġdur": 9855, "Ġcluster": 9856, "unched": 9857, "Ġ],": 9858, "Ġcomfortable": 9859, ".values": 9860, "ĠTotal": 9861, "Ġsnap": 9862, "Ġstandards": 9863, "Ġperformed": 9864, "hand": 9865, "Ġphil": 9866, "ibr": 9867, "trim": 9868, "Ġforget": 9869, "Ġdoctor": 9870, "icons": 9871, ",s": 9872, "ĠOp": 9873, "Sm": 9874, "Stop": 9875, "Comment": 9876, "_VERSION": 9877, "Person": 9878, "rb": 9879, "LOB": 9880, "ĠĠĠĠĠĠĠĠĠĠĠĠĠĠĠĠĠĠĠĠĊ": 9881, "ĠCentral": 9882, "ICK": 9883, "raq": 9884, "Ġputting": 9885, "Ġmd": 9886, "ĠLove": 9887, "Program": 9888, "Border": 9889, "oor": 9890, "Ġallowing": 9891, "after": 9892, "Ġentries": 9893, "ĠMaybe": 9894, "]).": 9895, "ĠShort": 9896, ")\\": 9897, ".now": 9898, "friend": 9899, "Ġprefer": 9900, "osis": 9901, "Ġskip": 9902, "Ġcompetition": 9903, "_match": 9904, "lications": 9905, "Ġals": 9906, "\"We": 9907, "_eq": 9908, "lan": 9909, "_search": 9910, "ĠMusic": 9911, "asis": 9912, "Ġbind": 9913, "ĠIsland": 9914, "rum": 9915, "(E": 9916, "Ġseat": 9917, "Video": 9918, "Ġack": 9919, "reek": 9920, "Ġrating": 9921, "Ġrestaurant": 9922, "DEX": 9923, "pping": 9924, "uality": 9925, "Ġleague": 9926, "Ġfocused": 9927, "apon": 9928, "$data": 9929, "Ġabsolute": 9930, "Ġtells": 9931, "Ang": 9932, "Ġcommunities": 9933, "Ġhonest": 9934, "oking": 9935, "Ġapart": 9936, "arity": 9937, "/$": 9938, "_module": 9939, "ĠEnc": 9940, ".an": 9941, ".Config": 9942, "Cre": 9943, "Ġshock": 9944, "ĠArab": 9945, "IENT": 9946, "/re": 9947, "Ġretrie": 9948, "ycler": 9949, "isa": 9950, "ĠOrgan": 9951, ".graph": 9952, "ĠBAS": 9953, "Enum": 9954, "Ġpossibly": 9955, "ĠJapanese": 9956, "Ġcraft": 9957, "ĠPlace": 9958, "Ġtalent": 9959, "Ġfunding": 9960, "Ġconfirmed": 9961, "Ġcycle": 9962, "/x": 9963, "GE": 9964, "Ġhearing": 9965, "Ġplants": 9966, "Ġmouth": 9967, "pages": 9968, "oria": 9969, "ĠRemove": 9970, "_total": 9971, "Ġod": 9972, "ollapse": 9973, "door": 9974, "Ġbought": 9975, "Ġaddr": 9976, "ARCH": 9977, "_dim": 9978, "dden": 9979, "Ġdecades": 9980, "Ġversions": 9981, "fire": 9982, "Ġmoves": 9983, "fb": 9984, "Ġcoffee": 9985, ".connect": 9986, "ĠRow": 9987, "Ġschema": 9988, "Scope": 9989, "-Type": 9990, "Ġfighting": 9991, "Ġretail": 9992, "Ġmodified": 9993, "TF": 9994, "Files": 9995, "nie": 9996, "_command": 9997, "stone": 9998, "ĠÑĤ": 9999, "Ġbond": 10000, "ĠDevelopment": 10001, "Ġpt": 10002, "FORM": 10003, "plet": 10004, "Ġidentified": 10005, "cpp": 10006, "Ġcoding": 10007, "oked": 10008, "ĠMaster": 10009, "IDTH": 10010, "Ġresidents": 10011, "redit": 10012, "ĠPhoto": 10013, "=-": 10014, "unte": 10015, "ateur": 10016, "ĠSing": 10017, "Ġsheet": 10018, ".val": 10019, "orse": 10020, "Ġhers": 10021, "Ġdetermined": 10022, "Common": 10023, "Ġwed": 10024, "_queue": 10025, "PH": 10026, "ĠAtl": 10027, "cred": 10028, "Ġmes": 10029, "Ġadvanced": 10030, ".java": 10031, "Go": 10032, "kill": 10033, "fp": 10034, "_settings": 10035, "Ġpal": 10036, "Ġtruck": 10037, "Ġcombined": 10038, "Ġ\"${": 10039, "ĠCorpor": 10040, "Ġjoined": 10041, "ĠJose": 10042, "ĠCup": 10043, "uns": 10044, "estival": 10045, "levision": 10046, "Ġbroken": 10047, "Ġmarriage": 10048, "ĠWestern": 10049, "Ġrepresents": 10050, "ĠTitle": 10051, "Ġss": 10052, "iento": 10053, "Ġabsolutely": 10054, "Ġsmooth": 10055, "TERN": 10056, "ĠUnless": 10057, "Word": 10058, "Ġmerge": 10059, "igan": 10060, "ĠVol": 10061, "Ġnn": 10062, "ĠÐ·": 10063, "Ġseeking": 10064, "Single": 10065, ".this": 10066, "Ġkom": 10067, "bound": 10068, ";\"": 10069, "_df": 10070, "Ġinjury": 10071, "(H": 10072, "Ġissued": 10073, "Ġpatch": 10074, "Ġleaves": 10075, "Ġadopt": 10076, "FileName": 10077, "ãĢĲ": 10078, "Ġexecutive": 10079, "ĠByte": 10080, "Ġnu": 10081, "outing": 10082, "cluding": 10083, "-R": 10084, ".options": 10085, "Ġsubstant": 10086, "ĠBUT": 10087, "Ġtechnical": 10088, "Ġtwice": 10089, "ĠmÃ¡s": 10090, "Ġunivers": 10091, "yr": 10092, "Ġdrag": 10093, "ĠDC": 10094, "Ġsed": 10095, "Ġbot": 10096, "ĠPal": 10097, "ĠHall": 10098, "forcement": 10099, "Ġauch": 10100, ".mod": 10101, "notation": 10102, "_files": 10103, ".line": 10104, "_flag": 10105, "[name": 10106, "Ġresolution": 10107, "Ġbott": 10108, "(\"[": 10109, "ende": 10110, "(arr": 10111, "Free": 10112, "ĠDistrict": 10113, "PEC": 10114, ":-": 10115, "ĠJo": 10116, "ĠĠĠĠĠĊ": 10117, "ĠRiver": 10118, "_rows": 10119, "Ġhelpful": 10120, "Ġmassive": 10121, "Ġmeasures": 10122, "ĠRuntime": 10123, "Ġworry": 10124, "ĠSpec": 10125, "ãĢĳ": 10126, "Ġworse": 10127, "(filename": 10128, "Ġlay": 10129, "Ġmagic": 10130, "ĠTheir": 10131, "oul": 10132, "ĠWhere": 10133, "Ġsudden": 10134, "Ġdefe": 10135, "Ġbinding": 10136, "Ġflight": 10137, "ĠWomen": 10138, "ĠPolicy": 10139, "Ġdrugs": 10140, "ishing": 10141, "ĠMel": 10142, "peat": 10143, "tor": 10144, "Ġproposed": 10145, "Ġstated": 10146, "Ġeast": 10147, "ĠCONDITION": 10148, "_desc": 10149, "Ġwinning": 10150, "folio": 10151, "Mapper": 10152, "ĠPan": 10153, "ĠAnge": 10154, "Ġcopies": 10155, "LM": 10156, "Ġvm": 10157, "Ġdictionary": 10158, "Seg": 10159, "elines": 10160, "ĠSend": 10161, "Ġiron": 10162, "ĠFort": 10163, ".domain": 10164, "Ġdebate": 10165, "eq": 10166, "acher": 10167, "lf": 10168, "Ġlawy": 10169, "ÄŁ": 10170, "ĠMen": 10171, "Ġtrim": 10172, "(NULL": 10173, "Ġ!!": 10174, "Ġpad": 10175, "Ġfollows": 10176, "\"][\"": 10177, "requ": 10178, "ĠEp": 10179, ".github": 10180, "(img": 10181, "eto": 10182, "('\\": 10183, "Services": 10184, "umbnail": 10185, "_main": 10186, "pleted": 10187, "fortunately": 10188, "Ġwindows": 10189, "Ġplane": 10190, "ĠConnection": 10191, ".local": 10192, "uard": 10193, "}\\": 10194, "==\"": 10195, "andon": 10196, "ĠRoy": 10197, "west": 10198, "iginal": 10199, "emies": 10200, "itz": 10201, "ĠPeter": 10202, "Ġtough": 10203, "Ġreduced": 10204, "Ġcalculate": 10205, "Ġrapid": 10206, "customer": 10207, "Ġefficient": 10208, "Ġmedium": 10209, "Ġfell": 10210, ".ref": 10211, "ĠCas": 10212, "Ġfeedback": 10213, "Speed": 10214, "(output": 10215, "aje": 10216, "Ġcategories": 10217, "Ġfee": 10218, "};": 10219, "Ġdeleted": 10220, "reh": 10221, "Ġproof": 10222, "Desc": 10223, "Build": 10224, "Ġsides": 10225, "-%": 10226, "ĠĠĠĠĠĠĠĠĠĠĠĠĠĠĠĠĠĠĠĠĠĠĠĠĠĠĠĠĠĠĠĠĠĠĠĠĠĠ": 10227, "Ø±": 10228, ".match": 10229, "Ð»Ð¸": 10230, "Ġfeels": 10231, "Ġachieve": 10232, "Ġclim": 10233, "_ON": 10234, "ĠCD": 10235, "Ġteacher": 10236, "_current": 10237, "bn": 10238, "isting": 10239, "Enable": 10240, "GEN": 10241, "Ġtv": 10242, "Ġsock": 10243, "Ġplays": 10244, "Ġdiscount": 10245, "ĠKE": 10246, "ĠDebug": 10247, "Fore": 10248, "ĠIraq": 10249, "Ġappearance": 10250, "Mon": 10251, "Ġstyled": 10252, "ĠHuman": 10253, "iot": 10254, "ĠHistory": 10255, "Ġsac": 10256, "ĠCollection": 10257, "Ġrecommended": 10258, "Ġorganizations": 10259, "Ġdiscovered": 10260, "cohol": 10261, "adas": 10262, "ĠThomas": 10263, "May": 10264, "Ġconserv": 10265, "Ġdomin": 10266, "ĠFollow": 10267, "ĠSection": 10268, "ĠThanks": 10269, "Username": 10270, "Ġrecipe": 10271, "Ġwonderful": 10272, "_if": 10273, "orno": 10274, "Ġru": 10275, "_target": 10276, "à¦": 10277, "Ġinputs": 10278, "Ġfif": 10279, "Ġvision": 10280, "cy": 10281, "ĠSeries": 10282, "Ġtrading": 10283, "Ġmarker": 10284, "Begin": 10285, "Ġtypically": 10286, "Ġcauses": 10287, "Ġdetect": 10288, "country": 10289, "appy": 10290, "Ġcref": 10291, "ĠLE": 10292, "reader": 10293, "Ġadministr": 10294, "Ãµ": 10295, "ucket": 10296, "Ġfashion": 10297, ".char": 10298, "izar": 10299, "Ġdisable": 10300, "Ġsuc": 10301, "ĠLive": 10302, "issue": 10303, "Ġmetadata": 10304, "flags": 10305, "Ġcommitted": 10306, "Ġva": 10307, "Ġrough": 10308, "Ġhighlight": 10309, "_vars": 10310, "VO": 10311, "Ġencoding": 10312, "-Z": 10313, "_sign": 10314, "Ġrain": 10315, "reatest": 10316, "ĠEND": 10317, "Selection": 10318, "Ġcandidates": 10319, "Ġsav": 10320, "Ġdecisions": 10321, "Ġcollabor": 10322, "ridge": 10323, "feed": 10324, "ression": 10325, "Ġpersons": 10326, "VM": 10327, "ega": 10328, "According": 10329, "acked": 10330, "Ġdollars": 10331, "_loss": 10332, "ĠCost": 10333, "Ġauthority": 10334, ".rec": 10335, "Ġspokes": 10336, "ĠToday": 10337, "istant": 10338, "ĠHead": 10339, "âĢĿ.": 10340, "ertainment": 10341, "cean": 10342, "culate": 10343, "Ġven": 10344, "However": 10345, "_arr": 10346, "Ġtokens": 10347, "Graph": 10348, "ĠJud": 10349, "ĠVirgin": 10350, "ĠSerial": 10351, "unning": 10352, "agers": 10353, ".csv": 10354, "Ġdeveloping": 10355, "Ġinstructions": 10356, "Ġpromise": 10357, "Ġrequested": 10358, "/\"": 10359, "ĠIcon": 10360, "uilt": 10361, "-day": 10362, "Ġintelligence": 10363, "ĠObservable": 10364, "ĠHard": 10365, "Bool": 10366, "idential": 10367, "Ġselling": 10368, "CI": 10369, "AGES": 10370, "tle": 10371, "bur": 10372, "RY": 10373, "Ġbigger": 10374, "Ġrat": 10375, "Ġfamous": 10376, "Ġexplained": 10377, "Ġnuclear": 10378, "-N": 10379, "Ġcrisis": 10380, "ĠEnter": 10381, "Ġanswers": 10382, "/${": 10383, "/pl": 10384, "Ġsequ": 10385, "_next": 10386, "mask": 10387, "Ġstanding": 10388, "Ġplenty": 10389, "ĠCross": 10390, "dro": 10391, "ĠCast": 10392, "=true": 10393, "ĠChris": 10394, "icio": 10395, "ĠMike": 10396, "Decimal": 10397, "Len": 10398, "Ġcock": 10399, "Ġ#{": 10400, "URN": 10401, "Ġauthorities": 10402, "Resources": 10403, "-H": 10404, "Bottom": 10405, "_qu": 10406, "puter": 10407, "esterday": 10408, "since": 10409, "Ġfamiliar": 10410, ",i": 10411, "VC": 10412, "Ġment": 10413, ",C": 10414, "Ġfreedom": 10415, "Ġroutes": 10416, "ĠBuy": 10417, "Ġcommands": 10418, "Ġmesh": 10419, "/C": 10420, "ĠSettings": 10421, "-style": 10422, "Ġwitness": 10423, "Ġcle": 10424, "Ġunion": 10425, "efault": 10426, "aret": 10427, "Ġthoughts": 10428, "Ġ----": 10429, "_process": 10430, "_us": 10431, "ingly": 10432, "UES": 10433, "Touch": 10434, "ĠÐ¼": 10435, "_open": 10436, "ĠVec": 10437, "Ġreward": 10438, "/:": 10439, "Ġnie": 10440, "Changes": 10441, "Month": 10442, "ï¼Ł": 10443, "Ġexecution": 10444, "Ġbeach": 10445, "/'": 10446, "Ġabort": 10447, "ĠSingle": 10448, "Ġdp": 10449, "ĠMa": 10450, "ĠPet": 10451, "%)": 10452, "rand": 10453, "Rule": 10454, "Ġhel": 10455, "RITE": 10456, "Ġquiet": 10457, "Ġratio": 10458, "osoph": 10459, "ĠIL": 10460, "Ġadvent": 10461, "cap": 10462, ";</": 10463, "ĠUSB": 10464, "Driver": 10465, "Ġours": 10466, "ĠJohnson": 10467, ".K": 10468, ".q": 10469, "/common": 10470, "ĠPDF": 10471, "acts": 10472, "ĠQuery": 10473, ".response": 10474, "ĠGirl": 10475, "Ġprocesses": 10476, "<Integer": 10477, "imo": 10478, "Ġadds": 10479, "Ġentirely": 10480, "Ġwash": 10481, "Ġanimated": 10482, "Ġprofit": 10483, "encing": 10484, "/S": 10485, "ĠSym": 10486, "Ġmanual": 10487, "Download": 10488, "Ġmotion": 10489, "-bottom": 10490, "Ġgratuit": 10491, "PG": 10492, "(:,": 10493, "Ġera": 10494, "Ġho": 10495, "ĠJim": 10496, "quir": 10497, "Ã¡n": 10498, "DER": 10499, "Ġexpensive": 10500, "_co": 10501, "Bounds": 10502, "Well": 10503, "ĠDemocratic": 10504, "ĠâĨĴ": 10505, "names": 10506, "ĠVi": 10507, "Ġisinstance": 10508, "Ġ*=": 10509, "ĠPS": 10510, "Ġdangerous": 10511, "[p": 10512, "OME": 10513, "Other": 10514, "Points": 10515, "heading": 10516, "Ġcurrency": 10517, "Ġpercentage": 10518, "Ġclassic": 10519, "thead": 10520, "ĠMO": 10521, "FE": 10522, "Idx": 10523, "ĠÃ¨": 10524, "Ġaccident": 10525, "Ġvariant": 10526, "Ġmyst": 10527, "ĠLand": 10528, "ĠBre": 10529, "Ġharm": 10530, "ĠAcc": 10531, "Ġcharged": 10532, "iones": 10533, "Visibility": 10534, "arry": 10535, "ĠLanguage": 10536, "Ġwalking": 10537, "ifer": 10538, "Ġleadership": 10539, ".From": 10540, "ynam": 10541, "Ġtimestamp": 10542, "ipt": 10543, "ĠHas": 10544, "REFER": 10545, "ĠIts": 10546, "Ġlistener": 10547, "UTE": 10548, "_description": 10549, "Ġexperiences": 10550, "Ġcreates": 10551, "RS": 10552, "cart": 10553, "black": 10554, "Ġchoices": 10555, "war": 10556, "Ġ'''": 10557, "Ġordered": 10558, "Ġevening": 10559, "Ġpil": 10560, "Ġtun": 10561, "ĠBad": 10562, "(app": 10563, "random": 10564, "Ġexplicit": 10565, "Ġarrived": 10566, "Ġfly": 10567, "Ġeconom": 10568, "-mail": 10569, "Ġlists": 10570, "Ġarchitect": 10571, "ĠPay": 10572, "Ġds": 10573, "ĠSol": 10574, "Ġvehicles": 10575, "Hz": 10576, "-com": 10577, "Ġking": 10578, "_equal": 10579, "ĠHelp": 10580, "Ġabuse": 10581, "Ġextr": 10582, "Ġchemical": 10583, "Ġorient": 10584, "Ġbreath": 10585, "ĠSpace": 10586, "(element": 10587, "wait": 10588, "DED": 10589, "igma": 10590, "Ġentr": 10591, "Ġsob": 10592, "-name": 10593, "Ġaffected": 10594, "ika": 10595, "Ġcoal": 10596, "_work": 10597, "Ġhundreds": 10598, "Ġpolitics": 10599, "subject": 10600, "Ġconsumer": 10601, "ANGE": 10602, "Ġrepeated": 10603, "Send": 10604, "Ġ#[": 10605, "Ġprotocol": 10606, "Ġleads": 10607, "useum": 10608, "Every": 10609, "Import": 10610, "(count": 10611, "Ġchallenges": 10612, "Ġnovel": 10613, "Ġdepart": 10614, "bits": 10615, "oting": 10616, "(\\": 10617, "Ġcreative": 10618, "Ġbuff": 10619, "Ġintroduced": 10620, "usic": 10621, "modules": 10622, "Are": 10623, "-doc": 10624, "language": 10625, "_cache": 10626, "Ġtod": 10627, "omething": 10628, "Ġhun": 10629, "aters": 10630, "Intent": 10631, "Ġimplemented": 10632, "ĠCase": 10633, "Children": 10634, "Ġnotification": 10635, "Renderer": 10636, "Wrapper": 10637, "Objects": 10638, "tl": 10639, "Plugin": 10640, ".row": 10641, "Ġforg": 10642, "Ġpermit": 10643, "Ġtargets": 10644, "ĠIF": 10645, "Ġtip": 10646, "sex": 10647, "Ġsupports": 10648, "Ġfold": 10649, "photo": 10650, "Ġgoogle": 10651, "Ġsharing": 10652, "Ġgoods": 10653, "vs": 10654, "ĠDan": 10655, "Rate": 10656, "ĠMartin": 10657, "Ġmanner": 10658, "lie": 10659, ".The": 10660, "Internal": 10661, "ĠCONTR": 10662, "Mock": 10663, "RIGHT": 10664, "Ġ'{": 10665, "Ġcontrols": 10666, "Mat": 10667, "Ġmand": 10668, "Ġextended": 10669, "Ok": 10670, "Ġembed": 10671, "Ġplanet": 10672, "ĠNon": 10673, "-ch": 10674, ")\",": 10675, "epar": 10676, "Ġbelieved": 10677, "ĠEnvironment": 10678, "ĠFriend": 10679, "-res": 10680, "Ġhandling": 10681, "nic": 10682, "-level": 10683, "scri": 10684, "BE": 10685, "ungen": 10686, "Ġalter": 10687, "[idx": 10688, "Pop": 10689, "cam": 10690, "Ġ(((": 10691, "Ġshipping": 10692, "Ġbattery": 10693, "iddleware": 10694, "MC": 10695, "Ġimpl": 10696, "otation": 10697, "ĠLab": 10698, "ĠGames": 10699, "ray": 10700, "Extra": 10701, "Two": 10702, "ĠLes": 10703, "Â°": 10704, "Ġcharset": 10705, "Ġjourney": 10706, "eting": 10707, "âĶ": 10708, "Ġdin": 10709, "Ġperman": 10710, "Ġsolve": 10711, "Ġlaunched": 10712, "Ġnine": 10713, "Ġsending": 10714, "Ġtelling": 10715, "ĠMatrix": 10716, "eric": 10717, "Ġgrab": 10718, ".u": 10719, "ĠLibrary": 10720, "Ġdebt": 10721, "INK": 10722, "Ġfrequency": 10723, ".ad": 10724, "_TEST": 10725, "Ġnegot": 10726, "ĠAfrican": 10727, "sender": 10728, "Å¡": 10729, "Global": 10730, "Ġexperts": 10731, "Ġdepending": 10732, "gray": 10733, "Ġjudge": 10734, "Ġsentence": 10735, "losure": 10736, "Ac": 10737, "Ġtrace": 10738, "Edge": 10739, "Ġfriendly": 10740, "Ġconcerned": 10741, "blog": 10742, "Ġclaimed": 10743, "}'": 10744, "integer": 10745, "_tree": 10746, "xi": 10747, "Ġaccepted": 10748, "_one": 10749, "ĠEducation": 10750, "ublished": 10751, "gon": 10752, "appoint": 10753, "outs": 10754, "Ġmining": 10755, "Ġsongs": 10756, "Ġherself": 10757, "Ġgranted": 10758, "Ġpassion": 10759, "ĠLake": 10760, "Ġloan": 10761, "uent": 10762, "chant": 10763, "Ġdetailed": 10764, "except": 10765, "_cmd": 10766, "ĠHE": 10767, "Related": 10768, "zt": 10769, "Ġspecifically": 10770, "Static": 10771, "Ġcarried": 10772, "ANS": 10773, "Created": 10774, "Ġcul": 10775, "]-": 10776, "FP": 10777, "Ġsitting": 10778, "Ġ\"\")": 10779, "ĠEqu": 10780, "Ġassault": 10781, "kins": 10782, "ancer": 10783, "ogen": 10784, "Ġvoters": 10785, "ĠProt": 10786, "Descriptor": 10787, "bsites": 10788, "oster": 10789, "Ġarms": 10790, ".background": 10791, "avity": 10792, "Ġvul": 10793, "Ġhousing": 10794, "Ġbear": 10795, "_iter": 10796, "pired": 10797, "Ġmarkets": 10798, "ĠStudent": 10799, "Ġticket": 10800, "Ġmillions": 10801, ")=": 10802, "Ġrecover": 10803, "ĠForce": 10804, "ĠBoth": 10805, "Ġvictim": 10806, "ĠDisc": 10807, "report": 10808, "Ġfourth": 10809, "ĠAssembly": 10810, "/user": 10811, "textarea": 10812, "Ġath": 10813, "Ġ([": 10814, "Ġchannels": 10815, "ĠJustice": 10816, "choice": 10817, "LOBAL": 10818, "exec": 10819, "emale": 10820, "Ġelem": 10821, "_le": 10822, "Ġresponsibility": 10823, "ĠTw": 10824, "ICATION": 10825, "Ġelseif": 10826, "Ġfo": 10827, "asts": 10828, "Ġtreated": 10829, "sen": 10830, "ĠVict": 10831, "sumer": 10832, "Ġast": 10833, ">{{": 10834, "ĠResource": 10835, "ĠStandard": 10836, "ĠPrem": 10837, "updated": 10838, "ivalent": 10839, "Ġassets": 10840, "_temp": 10841, "Ġinterests": 10842, "Ġhardware": 10843, "ĠRom": 10844, "ĠShare": 10845, "Ġ*,": 10846, "ĠTake": 10847, "ĠImages": 10848, "(typeof": 10849, "ĠJun": 10850, "Ġliqu": 10851, "Ġworst": 10852, "ymbols": 10853, "Ġdrivers": 10854, "ĠDocument": 10855, "eno": 10856, "ĠTechnology": 10857, "Ġapproved": 10858, "umps": 10859, "Ġsnow": 10860, "formance": 10861, "uits": 10862, "ÙĨ": 10863, "Ġdifferences": 10864, "ĠPs": 10865, "Ġtodo": 10866, "Ġsel": 10867, "urers": 10868, "invalid": 10869, "Ġtweet": 10870, "VEL": 10871, "Ġresearchers": 10872, "Ġsprintf": 10873, "ĠRO": 10874, "Ġpel": 10875, "Ġillegal": 10876, "dialog": 10877, "lg": 10878, "_MIN": 10879, "Ġhero": 10880, "final": 10881, "Ġpp": 10882, ".Le": 10883, "Ġci": 10884, "Ġsuggested": 10885, "pdf": 10886, "aching": 10887, "ĠRo": 10888, "ĠProperties": 10889, "ĠSi": 10890, "Ġbuying": 10891, "Ġmu": 10892, "Ġlands": 10893, "ifiers": 10894, "ĠFILE": 10895, "ROUP": 10896, "Ġholder": 10897, "ĠSon": 10898, "Ġsympt": 10899, ")?": 10900, "Ġargc": 10901, "Ġfort": 10902, "Ġcasino": 10903, "_category": 10904, "Ġforum": 10905, "prefix": 10906, "apture": 10907, "Tube": 10908, "ems": 10909, "imize": 10910, "aus": 10911, "course": 10912, "ATOR": 10913, "()),": 10914, "INGS": 10915, "Ġacknow": 10916, "ĠKorea": 10917, "pling": 10918, "Ġworker": 10919, "hal": 10920, "ĠRichard": 10921, "Elements": 10922, "star": 10923, "Ġrelationships": 10924, "Ġcheap": 10925, "ACH": 10926, "ĠXML": 10927, ",&": 10928, "ĠLouis": 10929, "Ġride": 10930, "Ġchunk": 10931, "[s": 10932, "_OUT": 10933, "Ġchosen": 10934, "_[": 10935, "/(": 10936, "ĠJeff": 10937, "_sl": 10938, "priv": 10939, "ĠCanadian": 10940, "Ġunable": 10941, "Ġnos": 10942, "high": 10943, "Ġlift": 10944, "fun": 10945, "(){": 10946, "elly": 10947, "_as": 10948, "Ġradi": 10949, "ĠAngeles": 10950, "ĠSpan": 10951, "_instance": 10952, "itors": 10953, "Ġmigration": 10954, "AK": 10955, "Oh": 10956, "Â®": 10957, "ĠGT": 10958, "Ġadvance": 10959, "ĠStyle": 10960, "ection": 10961, "Ñİ": 10962, "pio": 10963, "rog": 10964, "Ġshopping": 10965, "ĠRect": 10966, "OU": 10967, "Ġsubstantial": 10968, "Ġpregn": 10969, "Ġpromote": 10970, "IEW": 10971, "Ġsigns": 10972, "/.": 10973, "Ġletters": 10974, "Board": 10975, "ctrl": 10976, "\"\\": 10977, "ĠJones": 10978, "Ġvertex": 10979, "Ġja": 10980, "Ġaffili": 10981, "Ġwealth": 10982, "Ġsignificantly": 10983, "Ġec": 10984, "Ġxs": 10985, "actual": 10986, ".per": 10987, "_step": 10988, "mac": 10989, "Ġtransl": 10990, "ĠĠĠĠĠĠĠĠĠĠĠĠĠĠĠĠĠĠĠĠĠĠĠĠĠĠĠĠĠĠĠĠĠĠĠĠĠĠĠĠĠĠĠĠĠĠĠĠĠĠĠĠĠĠĠĠĠĠĠ": 10991, "Iterator": 10992, "Ġoch": 10993, "agnostic": 10994, "ĠDuring": 10995, "ĠDEFAULT": 10996, "Ġtill": 10997, "Ġsignature": 10998, "Ġbird": 10999, "ĠOl": 11000, "ĠIr": 11001, "HS": 11002, "Ġelev": 11003, "Ġmt": 11004, "ĠNav": 11005, "Ġrelax": 11006, "Ġplate": 11007, "ITEM": 11008, "(date": 11009, ".not": 11010, "Ġgrade": 11011, "iences": 11012, "High": 11013, "ĠDIS": 11014, "disabled": 11015, "QUI": 11016, "Ġnoise": 11017, "aux": 11018, "ĠUP": 11019, "osa": 11020, "Ġvoc": 11021, "Ġ))": 11022, "ocom": 11023, "ĠDb": 11024, "Lock": 11025, ",d": 11026, "ĠDraw": 11027, "Ġ\"(": 11028, "Ġvisited": 11029, "ĠâĪ": 11030, "Ġsucceed": 11031, "Ġimpossible": 11032, "aire": 11033, "ĠTurn": 11034, "Ġdish": 11035, "FG": 11036, "Ġsensor": 11037, "ANN": 11038, "aba": 11039, "Ġsurg": 11040, "Ġfp": 11041, "_an": 11042, "-J": 11043, "-G": 11044, "ĠJob": 11045, "Convert": 11046, "ĠKEY": 11047, "Ġauthors": 11048, "\\r": 11049, "Ġ-*-": 11050, "flex": 11051, "Ġsoc": 11052, "Ret": 11053, "Ġsalt": 11054, "ĠClear": 11055, "(page": 11056, "Ġrooms": 11057, "conv": 11058, "#{": 11059, ".op": 11060, "ĠArea": 11061, "hen": 11062, "Ġbegins": 11063, "-y": 11064, "Ġexcited": 11065, "Ġignored": 11066, "Ġbonus": 11067, "student": 11068, "ĠMember": 11069, "Ġrelatively": 11070, "ĠLow": 11071, "ĠProdu": 11072, "ateway": 11073, "posure": 11074, "Ġthick": 11075, "aniel": 11076, "Extension": 11077, "Il": 11078, "eed": 11079, "LOC": 11080, ".im": 11081, "Ġconflict": 11082, "uv": 11083, "iser": 11084, "Ġwave": 11085, "Mar": 11086, "ĠCommunity": 11087, "iche": 11088, "ĠNothing": 11089, "[m": 11090, "ĠLee": 11091, "riends": 11092, "Ã¨re": 11093, "!!!": 11094, "anz": 11095, ".result": 11096, "ĠSK": 11097, "Ġdemocr": 11098, "\"It": 11099, "(options": 11100, "razy": 11101, "aser": 11102, "alendar": 11103, "_ass": 11104, "vertex": 11105, "inecraft": 11106, "Warning": 11107, "argo": 11108, "Ġactor": 11109, "ĠInstead": 11110, "ĠUsing": 11111, "Self": 11112, "Ġspeaking": 11113, "ĠParis": 11114, ".node": 11115, "ĠFood": 11116, "EIF": 11117, "ĠBi": 11118, ".Start": 11119, "ĠIB": 11120, "Ġuniversity": 11121, "ĠHeader": 11122, "Copy": 11123, "etc": 11124, "rical": 11125, "Ġ>>>": 11126, "books": 11127, "Ġalgorithm": 11128, "Ġ'__": 11129, "Ġnumerous": 11130, "Share": 11131, "Have": 11132, "Ġrecru": 11133, "Ġprove": 11134, ".substring": 11135, "health": 11136, "ÐµÐ»": 11137, "Ġdecimal": 11138, "Ġcommission": 11139, "xC": 11140, "Ġsummary": 11141, "atted": 11142, "Ġcloser": 11143, "finished": 11144, "ĠWood": 11145, "_fields": 11146, "ku": 11147, "_items": 11148, "Flag": 11149, "Ġconfidence": 11150, "ĠFederal": 11151, "Ġcompat": 11152, "Ġvertical": 11153, "Ð¹": 11154, "Ã¨s": 11155, "IDE": 11156, ":\",": 11157, "ĠWay": 11158, "ÑĪ": 11159, "Temp": 11160, "ĠSTR": 11161, "ritten": 11162, "Sync": 11163, "ĠAV": 11164, "ĠCEO": 11165, "ĠGuid": 11166, "Ġenvironmental": 11167, "Ġcorresponding": 11168, "Ġjustice": 11169, "ĠJS": 11170, "Ġlived": 11171, "gar": 11172, "ĠGraph": 11173, "ĠStat": 11174, "ĠiPhone": 11175, ".al": 11176, "ĠHD": 11177, "Ġoccur": 11178, "Ġthreshold": 11179, "REG": 11180, "Meta": 11181, "Å¾": 11182, "Ġcum": 11183, ".gnu": 11184, "Ã«": 11185, "Ġobtained": 11186, "Ġcomplaint": 11187, "Ġeating": 11188, "Ġtar": 11189, "_task": 11190, "Ġopts": 11191, "(to": 11192, "Pass": 11193, "Ġplastic": 11194, "tility": 11195, "ĠWin": 11196, "pile": 11197, "ĠGar": 11198, "Ġquantity": 11199, "_last": 11200, "Ġgreatest": 11201, "ĠUsed": 11202, "ĠHP": 11203, "riting": 11204, "SION": 11205, "blue": 11206, "domain": 11207, "Ġscores": 11208, "Normal": 11209, "_admin": 11210, "Then": 11211, "***": 11212, "dist": 11213, "lon": 11214, "Ġhate": 11215, "shal": 11216, "database": 11217, "Ġpand": 11218, "Ġlogic": 11219, "=false": 11220, "bg": 11221, "ĠConfiguration": 11222, "Ġnur": 11223, "OG": 11224, "Ġmarried": 11225, ":+": 11226, "Ġdropped": 11227, "Ġregistration": 11228, "ultiple": 11229, "izers": 11230, "shape": 11231, ".copy": 11232, "Ġwearing": 11233, "ĠCath": 11234, "Ġdedicated": 11235, "Ġadvoc": 11236, "ĠFamily": 11237, "Ġstatements": 11238, "ematic": 11239, "Ġmotiv": 11240, "ĠHave": 11241, "Ġblow": 11242, "Job": 11243, "cert": 11244, "_vector": 11245, "install": 11246, "ĠCOPY": 11247, "embed": 11248, "DIR": 11249, "ĠSpring": 11250, "Ġexhib": 11251, "cdn": 11252, "ĠComment": 11253, "ĠOptional": 11254, "ĠDark": 11255, "(pos": 11256, "ĠShould": 11257, "Ġcentre": 11258, "ĠGuard": 11259, "Ã³w": 11260, "Ġtrouble": 11261, "ENER": 11262, "_service": 11263, "Ġns": 11264, "uling": 11265, "ĠMexico": 11266, "ĠNY": 11267, "Ġlic": 11268, "Mr": 11269, "-fl": 11270, "ĠCustomer": 11271, "idi": 11272, "rible": 11273, "ĠÐ¿ÑĢ": 11274, "Ġsizes": 11275, "validation": 11276, "ĠJon": 11277, "Nodes": 11278, "Ġfragment": 11279, "Ġspoke": 11280, "Ġwaste": 11281, "Join": 11282, "Ġillustr": 11283, "eli": 11284, "cient": 11285, "Ġaid": 11286, "Ġpassing": 11287, "Ġfaces": 11288, "Shape": 11289, "_Z": 11290, "iti": 11291, "Ġalle": 11292, "Ġrobot": 11293, "ĠĠĠĠĠĠĠĊ": 11294, "ĠSpe": 11295, "Ġreceiving": 11296, "ĠDetails": 11297, "Ġ\")": 11298, "mg": 11299, "Ġcomparison": 11300, "*,": 11301, "ĠFound": 11302, "(U": 11303, "/F": 11304, "Ġxxx": 11305, "Network": 11306, "ders": 11307, "Ġcapture": 11308, "Ġcorre": 11309, "ĠLtd": 11310, "ĠAdv": 11311, "[@": 11312, "Ġclip": 11313, "Mill": 11314, "ĠProfile": 11315, "Ġendif": 11316, "Ġoblig": 11317, "describe": 11318, "riterion": 11319, "LD": 11320, "ered": 11321, "Ġfavour": 11322, "score": 11323, "ĠFilter": 11324, "attributes": 11325, "Ġchecks": 11326, "ĠPlus": 11327, "Ġscientific": 11328, "Ġprivacy": 11329, "Head": 11330, "Ġfeat": 11331, "Ġdegrees": 11332, "ĠPale": 11333, ";\">": 11334, "Ġfilms": 11335, "ĠAudio": 11336, "ĠTag": 11337, "ĠEnergy": 11338, "itar": 11339, "parator": 11340, "Ġfellow": 11341, "ĠTri": 11342, "ĠDAM": 11343, "cloud": 11344, "ĠPassword": 11345, "ĠDemocrats": 11346, "ĠAcad": 11347, "Ġreb": 11348, "Ð½Ñĭ": 11349, "ĠBur": 11350, "Ġhex": 11351, "Console": 11352, "ctl": 11353, "ousel": 11354, "ĠWilliam": 11355, "Ġaz": 11356, "Ġpractices": 11357, "Ġanywhere": 11358, "ĠPosition": 11359, "iams": 11360, "placeholder": 11361, "Ġoder": 11362, "ĠSecretary": 11363, "ĠiT": 11364, "mond": 11365, "events": 11366, "?âĢĿ": 11367, "Ġattached": 11368, "ĠnÃ£o": 11369, "Ġestate": 11370, ".action": 11371, "Ġfigures": 11372, "Ġsubscri": 11373, ".tag": 11374, "nam": 11375, ".plot": 11376, "noon": 11377, "liament": 11378, "Character": 11379, ".tab": 11380, "Ġwinter": 11381, "ĠVariable": 11382, "Ġtrees": 11383, "Ġproud": 11384, "(V": 11385, "_load": 11386, "Ġhier": 11387, "ĠEcon": 11388, "Ġfd": 11389, "Ġvictims": 11390, "Rest": 11391, "iana": 11392, "Ġfake": 11393, "Ġsad": 11394, "Ġble": 11395, "Prot": 11396, "Ġbuttons": 11397, "Ġtelevision": 11398, "Ġlogo": 11399, "extension": 11400, "stein": 11401, "aciones": 11402, "Ġsimp": 11403, "Ġrecorded": 11404, "Ġbrings": 11405, "Ġprincipal": 11406, "Ġfees": 11407, "(source": 11408, "kdir": 11409, "Ġutils": 11410, "Ġcorrectly": 11411, "fil": 11412, "Ġwel": 11413, "Pair": 11414, "-button": 11415, "scale": 11416, "verify": 11417, "[c": 11418, "Ġ---": 11419, "Ġescape": 11420, "ikes": 11421, "ician": 11422, "Ġchapter": 11423, "ĠTYPE": 11424, "Ġshadow": 11425, "Ġawesome": 11426, "WE": 11427, "elif": 11428, "Ġlambda": 11429, "Ġdistinct": 11430, "Ġbare": 11431, "-off": 11432, "Ġcolour": 11433, "olec": 11434, "aga": 11435, ".fill": 11436, "Ġadj": 11437, "(position": 11438, "Short": 11439, "Ġtotally": 11440, "VD": 11441, "ĠTre": 11442, "_ep": 11443, "vements": 11444, "ĠSolution": 11445, "Ġfundament": 11446, "Follow": 11447, "Ġfacility": 11448, "Ġhappening": 11449, "OF": 11450, "Span": 11451, "ĠÂ«": 11452, "iden": 11453, "Ġexceed": 11454, "(parent": 11455, "Ġcp": 11456, "Ġhasn": 11457, "Ġpri": 11458, "Ġconsequ": 11459, "nen": 11460, "ĠINTO": 11461, "Ignore": 11462, "ĠFuture": 11463, "Ġcarbon": 11464, "ĠSteel": 11465, "fmt": 11466, "okie": 11467, "Ġspl": 11468, "(title": 11469, "-info": 11470, "Ġdeals": 11471, "Ġfixture": 11472, "ea": 11473, "Div": 11474, "Ġtested": 11475, "_return": 11476, "upported": 11477, "ĠCook": 11478, "Ġpaying": 11479, "ĠIll": 11480, "Ġarrested": 11481, "ĠPrime": 11482, "_callback": 11483, "driver": 11484, "Once": 11485, "abb": 11486, "_bytes": 11487, "ĠSets": 11488, "Ġcc": 11489, "Ġshell": 11490, "alo": 11491, "(log": 11492, "ctors": 11493, ")</": 11494, "Ġneighborhood": 11495, "ailability": 11496, "vol": 11497, "Ġyouth": 11498, "Ġtechniques": 11499, "ĠSchema": 11500, "uh": 11501, "mente": 11502, "Ġrepository": 11503, "imm": 11504, "Ġcookie": 11505, "JS": 11506, "ovies": 11507, ":{": 11508, "Complete": 11509, "Since": 11510, "Ġlaugh": 11511, "enable": 11512, "ĠDoes": 11513, "ĠWalk": 11514, "what": 11515, "kes": 11516, "Ġmultip": 11517, "iments": 11518, "eur": 11519, "Ġvictory": 11520, "Generator": 11521, "ĠMos": 11522, "rovers": 11523, "Ġcompute": 11524, "Ġproviders": 11525, "ĠMedic": 11526, "LP": 11527, "Ġveter": 11528, "sters": 11529, "_window": 11530, "umeric": 11531, "Ġreplaced": 11532, ".root": 11533, "-free": 11534, "Ġmatching": 11535, "ĠEditor": 11536, "=${": 11537, "ĠSaf": 11538, "Ġsind": 11539, ".edu": 11540, "ĠNFL": 11541, "aya": 11542, "Ġdogs": 11543, "Ġdesire": 11544, "ĠMiddle": 11545, "Cart": 11546, "Theme": 11547, "Ġmob": 11548, "Ġdisplayed": 11549, "igit": 11550, "Ġadults": 11551, "\"\"\"": 11552, "Ġdelivered": 11553, "visible": 11554, "<<<": 11555, "ĠGO": 11556, "scroll": 11557, "xE": 11558, "Ġassigned": 11559, "ĠBool": 11560, "Ġwp": 11561, "Ġcombat": 11562, "ĠHaw": 11563, ".-": 11564, "Ġsupporting": 11565, "ircraft": 11566, "Ġspin": 11567, "ĠCR": 11568, ".my": 11569, "à¥": 11570, "tpl": 11571, "Ġspaces": 11572, "?,": 11573, "Ġpatterns": 11574, "-box": 11575, "Ġframework": 11576, "/%": 11577, "(long": 11578, "Ġteaching": 11579, "ARNING": 11580, "_keys": 11581, "Ġtables": 11582, "UNC": 11583, "inations": 11584, "-weight": 11585, "radio": 11586, "ĠPac": 11587, "ring": 11588, "Ġquote": 11589, "anna": 11590, "Ġwerden": 11591, "Ġcream": 11592, "Ġmachines": 11593, "-k": 11594, "Ġstim": 11595, "ĠStock": 11596, "rick": 11597, "Ġimportance": 11598, "rx": 11599, "Ãµes": 11600, "ÙĪ": 11601, "Ġstroke": 11602, "agra": 11603, "Ġtaste": 11604, "ĠDEBUG": 11605, "Thanks": 11606, "ĠRequired": 11607, "ova": 11608, "Media": 11609, "ĠsiÄĻ": 11610, "(base": 11611, "posts": 11612, "ĠfileName": 11613, "Checked": 11614, "Ġinterrupt": 11615, "python": 11616, "pair": 11617, "Ġcircle": 11618, "Ġiniti": 11619, "_stream": 11620, "Ġcompreh": 11621, "learn": 11622, "Public": 11623, "Ġhumans": 11624, "Ġbringing": 11625, "ographic": 11626, "_layer": 11627, "-like": 11628, "idebar": 11629, "Ġvotes": 11630, "Ġdesired": 11631, "Mask": 11632, "Ġrelation": 11633, "Help": 11634, "Ġinspir": 11635, "ĠMono": 11636, "ometimes": 11637, "Ġrotation": 11638, "Ġmari": 11639, "/test": 11640, "INSERT": 11641, "Star": 11642, "phy": 11643, "Ids": 11644, "Ġincreases": 11645, "_close": 11646, "aza": 11647, "TEXT": 11648, "ĠÃ¤": 11649, "ĠVan": 11650, "Ġlights": 11651, "ĠGuide": 11652, "Ġdates": 11653, "aman": 11654, "Ġpaths": 11655, ".edit": 11656, "dx": 11657, "Ġreaction": 11658, "ĠBeach": 11659, "Environment": 11660, "interest": 11661, "Ġminister": 11662, "Ġreaders": 11663, "Ġdomestic": 11664, "Ġfiled": 11665, "City": 11666, "Ġmapping": 11667, "ĠDES": 11668, "Ġrepair": 11669, "tics": 11670, "ixture": 11671, "Ġnombre": 11672, "zo": 11673, "ĠCarolina": 11674, "ĠDer": 11675, "ĠEVENT": 11676, "Ġgest": 11677, "Ġhist": 11678, "resources": 11679, "Ġorphan": 11680, "ĠInvest": 11681, "ĠRoman": 11682, "Ġcultural": 11683, "feature": 11684, "pts": 11685, "bt": 11686, "Ġdot": 11687, "Ġdiam": 11688, "uspend": 11689, "Ġsurprise": 11690, "abil": 11691, "Ġvirt": 11692, "Ġbomb": 11693, "aron": 11694, "_IS": 11695, "Ġvast": 11696, "Real": 11697, "epend": 11698, "icted": 11699, "Ġpicked": 11700, "ĠFL": 11701, "ĠRepublicans": 11702, ".zeros": 11703, "sup": 11704, "Microsoft": 11705, "services": 11706, "agic": 11707, "iveness": 11708, "Ġpdf": 11709, "Ġroles": 11710, "ras": 11711, "Ġindustrial": 11712, "Ġfacilities": 11713, "Ġni": 11714, "Ġba": 11715, "Ġcls": 11716, "Customer": 11717, "Ġimagine": 11718, "Ġexports": 11719, "Ġmad": 11720, "(de": 11721, "Ġfro": 11722, "hus": 11723, "Ġcommittee": 11724, ",x": 11725, "Ġdivision": 11726, "optional": 11727, "ĠPhys": 11728, "ingu": 11729, "Ġsync": 11730, "ĠNa": 11731, "OLUM": 11732, "itÃ©": 11733, "Ġidentifier": 11734, "owed": 11735, "Ġextent": 11736, "Ġhur": 11737, "VA": 11738, "clar": 11739, "Ġedges": 11740, "Criteria": 11741, "Ġindeed": 11742, "inherit": 11743, "ĠNight": 11744, "Ġreporting": 11745, "Ġencounter": 11746, "Ġkinds": 11747, "_pred": 11748, "Ġconsidering": 11749, ".(": 11750, "Ġprotein": 11751, "Typ": 11752, "gricult": 11753, "ĠBall": 11754, "ĠEss": 11755, "ĠRub": 11756, "ulp": 11757, "ĠĠĠĠĠĠĠĠĠĠĠĠĠĠĠĠĠĠĠĠĠĠĠĠĠĠĠĠĠĠĠĠĠĠĠĠĠĠĠĠ": 11758, "itud": 11759, ".attr": 11760, "iente": 11761, "Ġspell": 11762, "ĠJoe": 11763, "ENTER": 11764, "itan": 11765, "Ġmatters": 11766, "Ġemergency": 11767, "uated": 11768, "ĠChat": 11769, "={'": 11770, "arker": 11771, "iper": 11772, "Ġscheme": 11773, "Ġ*(": 11774, "ceiver": 11775, ".column": 11776, "Ġmarked": 11777, "Ġbodies": 11778, "Gap": 11779, "ĠPOST": 11780, "Ġcorporate": 11781, "Ġdimension": 11782, "Ġcontrast": 11783, "erview": 11784, "ĠERROR": 11785, "Ġcapable": 11786, "Ġadvertising": 11787, "urchase": 11788, "ĠPA": 11789, "ĠFrancisco": 11790, "Ġfacing": 11791, "ãĢĮ": 11792, "git": 11793, "Ġbeer": 11794, "Ġsky": 11795, "download": 11796, "ĠCur": 11797, "mc": 11798, "anny": 11799, ".floor": 11800, "Ġcriteria": 11801, "Ġaspect": 11802, "Ġbundle": 11803, "Could": 11804, "Ġtank": 11805, "-id": 11806, "Ġhurt": 11807, "Ġbroadcast": 11808, "ownt": 11809, "Cap": 11810, "Ġalcohol": 11811, "ĠColl": 11812, "ĠHelper": 11813, "ĠAf": 11814, ".method": 11815, "Ġplanned": 11816, "pler": 11817, "ĠSite": 11818, "Ġresc": 11819, "oment": 11820, "ĠJavaScript": 11821, "Ġrhs": 11822, "eres": 11823, "(\",": 11824, "ifi": 11825, "Ġparking": 11826, "Ġisland": 11827, "Ġsister": 11828, "Constraints": 11829, "ĠAust": 11830, "dim": 11831, "_points": 11832, "Ġgap": 11833, "_active": 11834, "Ġvoor": 11835, "ĠPO": 11836, "Bag": 11837, "-scale": 11838, "lambda": 11839, "rule": 11840, "Ġowned": 11841, "ĠMedical": 11842, "entries": 11843, "Ġsolar": 11844, "Ġresulting": 11845, "Ġestimated": 11846, "Ġimproved": 11847, "Duration": 11848, "employee": 11849, "$.": 11850, "Actions": 11851, "Like": 11852, ",(": 11853, "%s": 11854, "Ġpixel": 11855, "Ġadapter": 11856, "Ġrevenue": 11857, "ogram": 11858, "ĠLA": 11859, "ĠMachine": 11860, "ĠØ§": 11861, "Ġfle": 11862, "Ġbike": 11863, "Ġdisp": 11864, "Ġconsistent": 11865, "aÃ§Ã£o": 11866, "gender": 11867, "ĠThose": 11868, "perience": 11869, "Ġrush": 11870, "Ġneck": 11871, "_mem": 11872, "_first": 11873, "CB": 11874, "ĠWidget": 11875, "Ġseq": 11876, "har": 11877, "Ġhits": 11878, "ĠâĤ¬": 11879, "Ġcontained": 11880, "rient": 11881, "water": 11882, "LOAD": 11883, "ĠVirginia": 11884, "ĠArm": 11885, "Ġ./": 11886, "Â»": 11887, "_root": 11888, "Ġassistance": 11889, "[],": 11890, "sync": 11891, "Ġveget": 11892, "escape": 11893, "icer": 11894, "boost": 11895, "ĠFloat": 11896, "-W": 11897, "*>": 11898, ".pos": 11899, "Ġboys": 11900, "Ġwedding": 11901, "Ġagents": 11902, "ĠArmy": 11903, "Ġhint": 11904, "vision": 11905, "Ġtech": 11906, "ĠConnect": 11907, "Ġlegend": 11908, "ĠBet": 11909, "Subject": 11910, "Ġlit": 11911, "Remove": 11912, "Ġ\":": 11913, "ĠFinal": 11914, "pearance": 11915, "Ġparticipants": 11916, "ĠPython": 11917, "Ġbusy": 11918, "iel": 11919, "vertices": 11920, "ĠClose": 11921, "Img": 11922, "ĠCorporation": 11923, "timestamp": 11924, "Ġextend": 11925, "Ġwebsites": 11926, "Ġpossibility": 11927, "Ð¾ÑĤ": 11928, "ĠkÃ¶": 11929, "Ġmeat": 11930, "Ġrepresentation": 11931, "_START": 11932, ".apply": 11933, "ĠValley": 11934, "ĠSuccess": 11935, "Hi": 11936, "Ġnob": 11937, "_select": 11938, "geo": 11939, "Ġturning": 11940, "Ġfabric": 11941, "Ġperspective": 11942, "ĠSn": 11943, "Thank": 11944, ";j": 11945, "Ġfacts": 11946, "Ġunt": 11947, "################################################################": 11948, "-end": 11949, "ĠJOIN": 11950, "ĠHen": 11951, "ĠÐ½Ð°": 11952, "ĠInfo": 11953, "Ġconducted": 11954, "ĠÃ¥": 11955, "OURCE": 11956, "Ġwine": 11957, "John": 11958, "ĠAge": 11959, "ounded": 11960, "Ġrealize": 11961, "Ġ];": 11962, "Ġsubsequ": 11963, ",m": 11964, "iano": 11965, "Ġaccompl": 11966, "isp": 11967, ".std": 11968, "ĠBed": 11969, "BR": 11970, "keep": 11971, "ĠALL": 11972, "Ġisol": 11973, "amma": 11974, "Package": 11975, "Ġoccasion": 11976, "-success": 11977, "strip": 11978, "istribution": 11979, "Colors": 11980, "aler": 11981, "Ġtid": 11982, "ĠLED": 11983, "ĠLinked": 11984, "ĠCart": 11985, "Ġkilling": 11986, "ĠPHP": 11987, "fection": 11988, "Ġinstances": 11989, "cv": 11990, "\"/>": 11991, "Ġsf": 11992, "Ġtaxes": 11993, "_location": 11994, "ĠBitcoin": 11995, "uable": 11996, "rank": 11997, "ignore": 11998, "track": 11999, "ÐºÐ°": 12000, "Ġshouldn": 12001, "ĠOP": 12002, "Ġkm": 12003, "Ġhelper": 12004, "_head": 12005, "ĠWhether": 12006, "oco": 12007, "_bl": 12008, "Ġstatistics": 12009, "Ġbeauty": 12010, "Ġtog": 12011, "tip": 12012, "Ġcsv": 12013, "stdlib": 12014, "weak": 12015, "Ġlikes": 12016, "Äį": 12017, "Ġrepeat": 12018, "Ġapartment": 12019, "Ġemph": 12020, "Ġvit": 12021, "Even": 12022, "uten": 12023, "Ġcircumstances": 12024, "bian": 12025, "Ġsugar": 12026, "Windows": 12027, "Ġobserved": 12028, "/data": 12029, "Ġcalendar": 12030, "Ġstrike": 12031, "ĠRES": 12032, "_sc": 12033, "orem": 12034, "(z": 12035, "power": 12036, "etect": 12037, "ĠSat": 12038, ".description": 12039, "Ġgang": 12040, "ĠSports": 12041, "ongs": 12042, "ĠBundle": 12043, ".sum": 12044, "once": 12045, "Ġaccused": 12046, "Ġexplore": 12047, "Ġapproximately": 12048, "Ġlosing": 12049, "thesis": 12050, "ĠFund": 12051, "Ġdiagn": 12052, "properties": 12053, "Ġ_.": 12054, "Ġcnt": 12055, "cedure": 12056, "Ġyy": 12057, "Ġgrant": 12058, "ĠCONFIG": 12059, "UND": 12060, "Ġglob": 12061, "Ġdire": 12062, "uffle": 12063, "Ġauthentic": 12064, "Ġdecade": 12065, "ĠImport": 12066, "Ġoriginally": 12067, "Ġindicate": 12068, "Ġourselves": 12069, "Sw": 12070, ".lbl": 12071, "enerate": 12072, "Ġbasically": 12073, "ĠHom": 12074, "ĠBritain": 12075, "ĠKar": 12076, ".stop": 12077, "Ġmodal": 12078, "isi": 12079, "Ġsuggests": 12080, "Ġdtype": 12081, "Ġtur": 12082, "bf": 12083, "Ġconnections": 12084, "ĠBefore": 12085, "isted": 12086, "mouse": 12087, "Ġpulled": 12088, ".build": 12089, "Ġlegislation": 12090, "Ġforth": 12091, "pad": 12092, "ego": 12093, ".Now": 12094, "Ġexciting": 12095, "Ġcompr": 12096, "Ġshares": 12097, "Ġrig": 12098, "green": 12099, "_vec": 12100, "Ġenumerate": 12101, "Auto": 12102, "icator": 12103, "ĠRay": 12104, "asse": 12105, "Ġholiday": 12106, "Ġnullable": 12107, "gun": 12108, "Ġwrapper": 12109, "seq": 12110, "ĠYoung": 12111, "juana": 12112, "Ġ\"__": 12113, "license": 12114, "serve": 12115, "^(": 12116, "iders": 12117, "'S": 12118, "pin": 12119, "(token": 12120, "Ġreasonable": 12121, "ampion": 12122, "ĠSociety": 12123, "Ġbei": 12124, "erves": 12125, "rad": 12126, "ĠFox": 12127, "_images": 12128, "Ġwheel": 12129, "')[": 12130, "Ġcfg": 12131, "(By": 12132, "Ġvary": 12133, "Ġproxy": 12134, "ĠAnother": 12135, "ĠPen": 12136, "Ġchecking": 12137, "Ġjest": 12138, "manager": 12139, "Origin": 12140, "ugs": 12141, "oir": 12142, "><!--": 12143, "Ġexpressed": 12144, "Ġmoder": 12145, "Ġagencies": 12146, "Ġih": 12147, "-hidden": 12148, "iously": 12149, "ĠRod": 12150, "Ġsole": 12151, "Med": 12152, ".Any": 12153, "Ġpc": 12154, "bal": 12155, "Example": 12156, "ĠSale": 12157, "Ġstrip": 12158, "ĠComp": 12159, "Ġpresidential": 12160, "Most": 12161, "putation": 12162, "(ref": 12163, "ĠFour": 12164, "_filename": 12165, "Ġenforcement": 12166, "Ø¯": 12167, "ĠGeorg": 12168, "weights": 12169, "/l": 12170, "Ġaggress": 12171, "Ġdrawing": 12172, "andy": 12173, "-j": 12174, "aka": 12175, "href": 12176, "Ġteachers": 12177, "_Q": 12178, "(it": 12179, "ĠMB": 12180, "Ġtemporary": 12181, "stra": 12182, "(label": 12183, "oup": 12184, "Ġtopics": 12185, "Ġportion": 12186, "idos": 12187, "ĠJewish": 12188, "Ġrecovery": 12189, "Ġstands": 12190, "#[": 12191, "Ġafternoon": 12192, "ĠArticle": 12193, "_att": 12194, "Ġexplan": 12195, "ĠPak": 12196, ".children": 12197, "Ġik": 12198, "+(": 12199, "lag": 12200, "Ġdisk": 12201, "Ġcontrovers": 12202, "\">&": 12203, "asp": 12204, "Ġwie": 12205, "ĠAustralian": 12206, "ĠYouTube": 12207, "Attr": 12208, "contains": 12209, "duce": 12210, "ĠMatt": 12211, "atern": 12212, "Ġvolunte": 12213, "Ġnewsp": 12214, "VP": 12215, "oltip": 12216, "Ġdelegate": 12217, "_meta": 12218, "Ġaccurate": 12219, "ĠExample": 12220, "%,": 12221, "ĠDaily": 12222, "Ġcabin": 12223, "ĠSW": 12224, "Ġlimits": 12225, "kip": 12226, "Ġarmy": 12227, "Ġending": 12228, "Ġboss": 12229, "ĠDialog": 12230, "Also": 12231, "ordan": 12232, "rowse": 12233, "-min": 12234, "Ġ\"&": 12235, "_loc": 12236, "UX": 12237, "Ġdevelopers": 12238, "Ġaccuracy": 12239, "Ġmaintenance": 12240, "Ġheav": 12241, "Ġfilters": 12242, "Ġnarr": 12243, "ĠEmp": 12244, "ORDER": 12245, "ĠMobile": 12246, ".output": 12247, ".col": 12248, "Material": 12249, "uma": 12250, "Ġconsumers": 12251, "shift": 12252, "Ġpued": 12253, "Ġmini": 12254, "collection": 12255, "Ġkan": 12256, ".center": 12257, "History": 12258, "Ġbench": 12259, "());": 12260, "itories": 12261, "Ġcrowd": 12262, "_call": 12263, "Ġpowers": 12264, "-E": 12265, "Ġdismiss": 12266, "Ġtalks": 12267, "ĠChannel": 12268, "forward": 12269, "_control": 12270, "/src": 12271, "iest": 12272, "************************": 12273, "Ġbeta": 12274, "(color": 12275, "Ġeffectively": 12276, "Camera": 12277, "sd": 12278, "ussy": 12279, "Dict": 12280, "ĠEffect": 12281, "ibilities": 12282, "Ġreturning": 12283, "ĠFar": 12284, "Ġ'')": 12285, "Ġmodules": 12286, "ilation": 12287, "Ġ(%": 12288, "Ġstorm": 12289, "onna": 12290, "ĠEXP": 12291, "Ġspons": 12292, "Ġdispl": 12293, "ĠĠĠĠĠĠĠĠĠĠĠĠĠĠĠĠĠĠĠĠĠĠĠĠĠĠĠĠĠĠĠĠĠĠĠĠĠĠĠĠĠĠĠĠĠ": 12294, "fall": 12295, "_US": 12296, "etrics": 12297, "Ġhandles": 12298, "TL": 12299, "_amount": 12300, "owa": 12301, "brand": 12302, "ĠTool": 12303, "Ġusual": 12304, ".Z": 12305, "crement": 12306, "adium": 12307, "stock": 12308, "Ġserving": 12309, "ĠBon": 12310, "Ġlinear": 12311, "ĠTarget": 12312, "ĠRadio": 12313, "HL": 12314, "omatic": 12315, "agues": 12316, "inity": 12317, "diff": 12318, "_iterator": 12319, "quot": 12320, "callback": 12321, "Ġsymptoms": 12322, "[_": 12323, "ĠBul": 12324, "ĠFeb": 12325, "undo": 12326, "Ð¸Ñģ": 12327, "tras": 12328, "ĠPenn": 12329, "ĠSupreme": 12330, "}>": 12331, "ĠKim": 12332, "Ġga": 12333, "Ġartists": 12334, "ĠAbstract": 12335, "okemon": 12336, "Ġham": 12337, "oval": 12338, "Ġcha": 12339, "aten": 12340, "Fixed": 12341, "Ġvulner": 12342, "ĠParameters": 12343, "quantity": 12344, "Ġya": 12345, "Ġsoul": 12346, "transaction": 12347, "Ġsolo": 12348, "Ġpairs": 12349, "ĠGre": 12350, "_word": 12351, "ĠCC": 12352, "Ġgi": 12353, "zie": 12354, "Ġscheduled": 12355, "rotation": 12356, "gypt": 12357, "ulous": 12358, "::_": 12359, "ĠEll": 12360, "<!": 12361, "lp": 12362, "aha": 12363, "Copyright": 12364, "Ġdram": 12365, "Ġdiagram": 12366, "ĠMem": 12367, "Ġgarden": 12368, "Comp": 12369, "Ġattempts": 12370, "uffix": 12371, "Ġphilosoph": 12372, "_rel": 12373, "Ġsv": 12374, ".second": 12375, "anto": 12376, "ĠTele": 12377, "_local": 12378, "Ġaspects": 12379, "IBLE": 12380, "Ġrail": 12381, "Ġwidely": 12382, "ashed": 12383, "iar": 12384, "inf": 12385, "upper": 12386, "_results": 12387, "issing": 12388, "Ġequivalent": 12389, "OUND": 12390, "Ġty": 12391, "Ġpotentially": 12392, "ĠRecord": 12393, "resentation": 12394, "ounding": 12395, "Ġreligion": 12396, "Ġconsc": 12397, "ĠLim": 12398, ".am": 12399, "Html": 12400, "Ġ':": 12401, "PATH": 12402, "_spec": 12403, "orted": 12404, "idades": 12405, "_shape": 12406, "Ġkeeps": 12407, "ĠLoc": 12408, "ori": 12409, "ĠTEST": 12410, "unicip": 12411, "Ġregions": 12412, "Ġbelieves": 12413, "/en": 12414, "posite": 12415, "{'": 12416, "prepare": 12417, "_const": 12418, "sample": 12419, "ĠWilliams": 12420, "ĠAndrew": 12421, "Ġlayers": 12422, "azy": 12423, "ĠKn": 12424, "Ġacid": 12425, "ĠAsia": 12426, "Ġexcess": 12427, "Ġkeyboard": 12428, "ensus": 12429, "Ġcrew": 12430, "Ġmissed": 12431, "master": 12432, "ĠWild": 12433, "Ġnewly": 12434, "Ġwinner": 12435, "Ġstub": 12436, "icode": 12437, ".move": 12438, "Domain": 12439, "ĠSar": 12440, "Ġforest": 12441, "LED": 12442, "claimer": 12443, ".exit": 12444, "ĠWindow": 12445, "Ġresistance": 12446, "ĠCHECK": 12447, "(\"-": 12448, "ĠRyan": 12449, "Ġpipe": 12450, "Ġcoast": 12451, "DEF": 12452, "_off": 12453, "exit": 12454, "Ġultimately": 12455, "imitive": 12456, "ĠKeep": 12457, "Ġhistorical": 12458, "Ġanyway": 12459, "ĠJackson": 12460, "ocker": 12461, "ERN": 12462, "yntax": 12463, "ERY": 12464, "isms": 12465, "Ġcn": 12466, "Ġoccurs": 12467, "Ġ;;": 12468, "AE": 12469, "/img": 12470, "Ġyesterday": 12471, "-default": 12472, "Ġtiny": 12473, "Ġproc": 12474, "Ġalive": 12475, "ĠREG": 12476, ".th": 12477, "earing": 12478, "<link": 12479, "Folder": 12480, "abc": 12481, "Ð½Ð¾": 12482, "Ġnoticed": 12483, "Ġedition": 12484, "imator": 12485, "Ġyards": 12486, "Ġverbose": 12487, "Ð»Ñı": 12488, "ĠMid": 12489, "Ã©es": 12490, "Ġglo": 12491, "Ġbuildings": 12492, "Ġze": 12493, "ĠIter": 12494, "Ġtube": 12495, "ĠPot": 12496, "\\M": 12497, "bridge": 12498, "ĠScript": 12499, "ĠModule": 12500, "Ġvacc": 12501, "Ġinstallation": 12502, "vy": 12503, "ĠSM": 12504, ".total": 12505, "bat": 12506, "Ġfinds": 12507, "Ġatmos": 12508, "izard": 12509, "Ġreplacement": 12510, "licated": 12511, "apis": 12512, "Ġlogged": 12513, "ĠLeft": 12514, "Gui": 12515, "_Type": 12516, "tm": 12517, "Pad": 12518, "Ġhousehold": 12519, "Ġrele": 12520, "Ġproposal": 12521, "_CLASS": 12522, "::::": 12523, "Ġinfrastructure": 12524, "Inject": 12525, "/html": 12526, "Ġads": 12527, "izza": 12528, "Ġmg": 12529, "ctrine": 12530, "<html": 12531, "-image": 12532, "Ġattorney": 12533, "<m": 12534, "(',": 12535, "Ġcann": 12536, "Ġprintln": 12537, "oose": 12538, "Ġyellow": 12539, ".exp": 12540, "payment": 12541, "away": 12542, "Ġopposition": 12543, "ĠAgain": 12544, "ĠHandle": 12545, "Ġexclusive": 12546, "inar": 12547, "Ã©r": 12548, "ĠCODE": 12549, "emporary": 12550, "Ġreact": 12551, "pipe": 12552, "cz": 12553, "Ġlargely": 12554, "Ġdiss": 12555, "axy": 12556, "esis": 12557, "ĠRen": 12558, "Ġcorn": 12559, "days": 12560, "Ġfruit": 12561, "Insert": 12562, "_enc": 12563, "Est": 12564, "_dec": 12565, "ĠLuc": 12566, "ĠÃ¼ber": 12567, "parameters": 12568, "express": 12569, "_profile": 12570, "Unknown": 12571, "Ġrevolution": 12572, ".address": 12573, "_require": 12574, "Ġuniform": 12575, "ĠPack": 12576, "lar": 12577, "Ġdepends": 12578, "Validation": 12579, "confirm": 12580, "Owner": 12581, "Ġtrib": 12582, "het": 12583, "ĠIde": 12584, "ansas": 12585, "Language": 12586, "uet": 12587, "ĠPo": 12588, "ĠSteve": 12589, "Ġcontest": 12590, "Ġapparently": 12591, "REEN": 12592, "Ġfrequently": 12593, "Ġtradition": 12594, "ocolate": 12595, "SI": 12596, "ĠArgument": 12597, "Focus": 12598, "erte": 12599, "ĠLayout": 12600, "Ġdx": 12601, "Ġgenerator": 12602, "ĠWait": 12603, "Policy": 12604, "lights": 12605, "Py": 12606, "Ġbedroom": 12607, "eda": 12608, "raid": 12609, "Ġancient": 12610, "Ġpump": 12611, "Ġdw": 12612, "Ġspecify": 12613, "(status": 12614, "ĠFBI": 12615, "Ġremark": 12616, "lymp": 12617, "antee": 12618, "Upload": 12619, "ernet": 12620, "inent": 12621, "ĠRender": 12622, "dm": 12623, "ĠMemory": 12624, "rich": 12625, "ĠTools": 12626, "Ġkne": 12627, "Ġperm": 12628, "bad": 12629, "Ġdinner": 12630, ".reset": 12631, "Feature": 12632, "Ġreferred": 12633, "Ġneither": 12634, "Ġcounty": 12635, "Ġ\"{": 12636, "Ġtack": 12637, "ĠUSER": 12638, "Ġrenew": 12639, "``": 12640, "Ġbrown": 12641, "Errors": 12642, "erto": 12643, "Ġsustain": 12644, "SO": 12645, "letes": 12646, "ĠInvalid": 12647, "Ġenemies": 12648, "unge": 12649, "Ġexistence": 12650, "erra": 12651, "ĊĠĠĊ": 12652, "utorial": 12653, "#a": 12654, "pay": 12655, "charge": 12656, "ĠIre": 12657, "atest": 12658, "Ġexplos": 12659, "Ġfired": 12660, "NER": 12661, "ĠTy": 12662, "icion": 12663, "Ġobviously": 12664, "ĠColum": 12665, "Ġ'+": 12666, "ĠDevice": 12667, "-related": 12668, "Ġvor": 12669, "ĠLesser": 12670, "Ġupgrade": 12671, "Light": 12672, "Ġcodes": 12673, "Ġwrites": 12674, "food": 12675, "ĠÃ©t": 12676, "@section": 12677, "Ġtracks": 12678, "Ġseriously": 12679, "cht": 12680, "Ġimmediate": 12681, "Ġscientists": 12682, "Ġ{$": 12683, "_ne": 12684, "Ġaccommod": 12685, "ĠHarry": 12686, "Ġsight": 12687, "ersistent": 12688, "ĠÑĥ": 12689, "-input": 12690, "Ġcoordinates": 12691, "Â·": 12692, "Welcome": 12693, ".conf": 12694, "Ġgrew": 12695, "Ġbold": 12696, "ĠCPU": 12697, "(my": 12698, "Ġperfectly": 12699, "Ġmoments": 12700, "ĠMovie": 12701, "-data": 12702, "ystal": 12703, "ĠScreen": 12704, "Ġdisap": 12705, "Ġreduction": 12706, "Ġgeneric": 12707, "Ġdy": 12708, "aller": 12709, "Ġcurl": 12710, "ĠBody": 12711, "Ġbanks": 12712, ",t": 12713, "avg": 12714, "Ġevil": 12715, "Ġmanufacturer": 12716, "Ġreceiver": 12717, "Columns": 12718, "Ġingredients": 12719, "ques": 12720, "Ġslowly": 12721, "ĠTown": 12722, "ĠCell": 12723, "_normal": 12724, "_prefix": 12725, "ĠAlert": 12726, "(\"{": 12727, "Ã¤r": 12728, "âĢľThe": 12729, "ĠMD": 12730, "Ġcourses": 12731, "athan": 12732, "occ": 12733, "ĠSER": 12734, "esign": 12735, "Addr": 12736, "=['": 12737, "]}": 12738, ".font": 12739, "ĠInstagram": 12740, "ĠBorder": 12741, "oda": 12742, "Ġhall": 12743, "Ġrum": 12744, "_bit": 12745, "Ġsaving": 12746, "_down": 12747, "Random": 12748, "Ġopposite": 12749, "Room": 12750, "YES": 12751, "Ð°Ð½Ð¸": 12752, "Ġenjoyed": 12753, "_run": 12754, "Clear": 12755, "âĢĺ": 12756, "ĠFord": 12757, "onic": 12758, "osten": 12759, "\"])": 12760, "_auth": 12761, "Ġsufficient": 12762, "LES": 12763, "Ġphen": 12764, "Ġoh": 12765, "_csv": 12766, "Ġroutine": 12767, "aylor": 12768, "Ġbasket": 12769, "rypted": 12770, "Sim": 12771, "ĠShop": 12772, "Ġstudio": 12773, "atos": 12774, "(W": 12775, "[string": 12776, "Ã¤t": 12777, "oga": 12778, "Ġshr": 12779, "Ġsick": 12780, "Another": 12781, "Ġdoors": 12782, "_NE": 12783, "ĠTHREE": 12784, ".order": 12785, "razil": 12786, "Ġmaps": 12787, "translate": 12788, "Ġnearby": 12789, "Ġnach": 12790, "LOAT": 12791, "batch": 12792, "Ġlux": 12793, "ashes": 12794, "angers": 12795, "âĢ¦âĢ¦": 12796, "Ġacts": 12797, "inv": 12798, "ccion": 12799, "Ġretain": 12800, "utch": 12801, "ĠÐ±": 12802, "Ġknowing": 12803, "Ġrepresenting": 12804, "NOT": 12805, "png": 12806, "Contract": 12807, "Ġtrick": 12808, "ĠEdition": 12809, "uplicate": 12810, "Ġcontrolled": 12811, "cfg": 12812, "javascript": 12813, "Ġmilk": 12814, "White": 12815, "Sequence": 12816, "awa": 12817, "Ġdiscussed": 12818, "ĠBush": 12819, "ĠYES": 12820, "tags": 12821, "Ġtact": 12822, "Ġsid": 12823, "$$": 12824, "ĠEnum": 12825, "Ġframes": 12826, "});": 12827, "Ġregul": 12828,
[...]
