{"version": "1.0", "truncation": null, "padding": null, "added_tokens": [{"id": 65510, "content": "<|endoftext|>", "single_word": false, "lstrip": false, "rstrip": false, "normalized": false, "special": true}, {"id": 65511, "content": "<|im_start|>", "single_word": false, "lstrip": false, "rstrip": false, "normalized": false, "special": true}, {"id": 65512, "content": "<|im_end|>", "single_word": false, "lstrip": false, "rstrip": false, "normalized": false, "special": true}, {"id": 65513, "content": "<|object_ref_start|>", "normalized": false, "lstrip": false, "rstrip": false, "single_word": false, "special": true}, {"id": 65514, "content": "<|object_ref_end|>", "normalized": false, "lstrip": false, "rstrip": false, "single_word": false, "special": true}, {"id": 65515, "content": "<|box_start|>", "normalized": false, "lstrip": false, "rstrip": false, "single_word": false, "special": true}, {"id": 65516, "content": "<|box_end|>", "normalized": false, "lstrip": false, "rstrip": false, "single_word": false, "special": true}, {"id": 65517, "content": "<|quad_start|>", "normalized": false, "lstrip": false, "rstrip": false, "single_word": false, "special": true}, {"id": 65518, "content": "<|quad_end|>", "normalized": false, "lstrip": false, "rstrip": false, "single_word": false, "special": true}, {"id": 65519, "content": "<|vision_start|>", "normalized": false, "lstrip": false, "rstrip": false, "single_word": false, "special": true}, {"id": 65520, "content": "<|vision_end|>", "normalized": false, "lstrip": false, "rstrip": false, "single_word": false, "special": true}, {"id": 65521, "content": "<|vision_pad|>", "normalized": false, "lstrip": false, "rstrip": false, "single_word": false, "special": true}, {"id": 65522, "content": "<|image_pad|>", "normalized": false, "lstrip": false, "rstrip": false, "single_word": false, "special": true}, {"id": 65523, "content": "<|video_pad|>", "normalized": false, "lstrip": false, "rstrip": false, "single_word": false, "special": true}, {"id": 65524, "content": "<tool_call>", "lstrip": false, "normalized": false, "rstrip": false, "single_word": false, "special": false}, {"id": 65525, "content": "</tool_call>", "lstrip": false, "normalized": false, "rstrip": false, "single_word": false, "special": false}, {"id": 65526, "content": "<|fim_prefix|>", "lstrip": false, "normalized": false, "rstrip": false, "single_word": false, "special": false}, {"id": 65527, "content": "<|fim_middle|>", "lstrip": false, "normalized": false, "rstrip": false, "single_word": false, "special": false}, {"id": 65528, "content": "<|fim_suffix|>", "lstrip": false, "normalized": false, "rstrip": false, "single_word": false, "special": false}, {"id": 65529, "content": "<|fim_pad|>", "lstrip": false, "normalized": false, "rstrip": false, "single_word": false, "special": false}, {"id": 65530, "content": "<|repo_name|>", "lstrip": false, "normalized": false, "rstrip": false, "single_word": false, "special": false}, {"id": 65531, "content": "<|file_sep|>", "lstrip": false, "normalized": false, "rstrip": false, "single_word": false, "special": false}, {"id": 65532, "content": "<tool_response>", "lstrip": false, "normalized": false, "rstrip": false, "single_word": false, "special": false}, {"id": 65533, "content": "</tool_response>", "lstrip": false, "normalized": false, "rstrip": false, "single_word": false, "special": false}, {"id": 65534, "content": "<think>", "lstrip": false, "normalized": false, "rstrip": false, "single_word": false, "special": false}, {"id": 65535, "content": "</think>", "lstrip": false, "normalized": false, "rstrip": false, "single_word": false, "special": false}], "normalizer": {"type": "NFC"}, "pre_tokenizer": {"type": "Sequence", "pretokenizers": [{"type": "Split", "pattern": {"Regex": "(?i:'s|'t|'re|'ve|'m|'ll|'d)|[^\\r\\n\\p{L}\\p{N}]?[\\p{L}\\p{M}]+|\\p{N}| ?[^\\s\\p{L}\\p{M}\\p{N}]+[\\r\\n]*|\\s*[\\r\\n]+|\\s+(?!\\S)|\\s+"}, "behavior": "Isolated", "invert": false}, {"type": "ByteLevel", "add_prefix_space": false, "trim_offsets": false, "use_regex": false}]}, "post_processor": {"type": "ByteLevel", "add_prefix_space": false, "trim_offsets": false, "use_regex": false}, "decoder": {"type": "ByteLevel", "add_prefix_space": false, "trim_offsets": false, "use_regex": false}, "model": {"type": "BPE", "dropout": null, "unk_token": null, "continuing_subword_prefix": "", "end_of_word_suffix": "", "fuse_unk": false, "byte_fallback": false, "ignore_merges": false, "vocab": {"!": 0, "\"": 1, "#": 2, "$": 3, "%": 4, "&": 5, "'": 6, "(": 7, ")": 8, "*": 9, "+": 10, ",": 11, "-": 12, ".": 13, "/": 14, "0": 15, "1": 16, "2": 17, "3": 18, "4": 19, "5": 20, "6": 21, "7": 22, "8": 23, "9": 24, ":": 25, ";": 26, "<": 27, "=": 28, ">": 29, "?": 30, "@": 31, "A": 32, "B": 33, "C": 34, "D": 35, "E": 36, "F": 37, "G": 38, "H": 39, "I": 40, "J": 41, "K": 42, "L": 43, "M": 44, "N": 45, "O": 46, "P": 47, "Q": 48, "R": 49, "S": 50, "T": 51, "U": 52, "V": 53, "W": 54, "X": 55, "Y": 56, "Z": 57, "[": 58, "\\": 59, "]": 60, "^": 61, "_": 62, "`": 63, "a": 64, "b": 65, "c": 66, "d": 67, "e": 68, "f": 69, "g": 70, "h": 71, "i": 72, "j": 73, "k": 74, "l": 75, "m": 76, "n": 77, "o": 78, "p": 79, "q": 80, "r": 81, "s": 82, "t": 83, "u": 84, "v": 85, "w": 86, "x": 87, "y": 88, "z": 89, "{": 90, "|": 91, "}": 92, "~": 93, "¡": 94, "¢": 95, "£": 96, "¤": 97, "¥": 98, "¦": 99, "§": 100, "¨": 101, "©": 102, "ª": 103, "«": 104, "¬": 105, "®": 106, "¯": 107, "°": 108, "±": 109, "²": 110, "³": 111, "´": 112, "µ": 113, "¶": 114, "·": 115, "¸": 116, "¹": 117, "º": 118, "»": 119, "¼": 120, "½": 121, "¾": 122, "¿": 123, "À": 124, "Á": 125, "Â": 126, "Ã": 127, "Ä": 128, "Å": 129, "Æ": 130, "Ç": 131, "È": 132, "É": 133, "Ê": 134, "Ë": 135, "Ì": 136, "Í": 137, "Î": 138, "Ï": 139, "Ð": 140, "Ñ": 141, "Ò": 142, "Ó": 143, "Ô": 144, "Õ": 145, "Ö": 146, "×": 147, "Ø": 148, "Ù": 149, "Ú": 150, "Û": 151, "Ü": 152, "Ý": 153, "Þ": 154, "ß": 155, "à": 156, "á": 157, "â": 158, "ã": 159, "ä": 160, "å": 161, "æ": 162, "ç": 163, "è": 164, "é": 165, "ê": 166, "ë": 167, "ì": 168, "í": 169, "î": 170, "ï": 171, "ð": 172, "ñ": 173, "ò": 174, "ó": 175, "ô": 176, "õ": 177, "ö": 178, "÷": 179, "ø": 180, "ù": 181, "ú": 182, "û": 183, "ü": 184, "ý": 185, "þ": 186, "ÿ": 187, "Ā": 188, "ā": 189, "Ă": 190, "ă": 191, "Ą": 192, "ą": 193, "Ć": 194, "ć": 195, "Ĉ": 196, "ĉ": 197, "Ċ": 198, "ċ": 199, "Č": 200, "č": 201, "Ď": 202, "ď": 203, "Đ": 204, "đ": 205, "Ē": 206, "ē": 207, "Ĕ": 208, "ĕ": 209, "Ė": 210, "ė": 211, "Ę": 212, "ę": 213, "Ě": 214, "ě": 215, "Ĝ": 216, "ĝ": 217, "Ğ": 218, "ğ": 219, "Ġ": 220, "ġ": 221, "Ģ": 222, "ģ": 223, "Ĥ": 224, "ĥ": 225, "Ħ": 226, "ħ": 227, "Ĩ": 228, "ĩ": 229, "Ī": 230, "ī": 231, "Ĭ": 232, "ĭ": 233, "Į": 234, "į": 235, "İ": 236, "ı": 237, "Ĳ": 238, "ĳ": 239, "Ĵ": 240, "ĵ": 241, "Ķ": 242, "ķ": 243, "ĸ": 244, "Ĺ": 245, "ĺ": 246, "Ļ": 247, "ļ": 248, "Ľ": 249, "ľ": 250, "Ŀ": 251, "ŀ": 252, "Ł": 253, "ł": 254, "Ń": 255, "in": 256, "Ġt": 257, "er": 258, "on": 259, "Ġa": 260, "re": 261, "at": 262, "st": 263, "en": 264, "or": 265, "Ġth": 266, "ĊĊ": 267, "Ġc": 268, "le": 269, "Ġs": 270, "it": 271, "an": 272, "ar": 273, "al": 274, "Ġthe": 275, "Ġp": 276, "Ġf": 277, "ou": 278, "Ġ=": 279, "is": 280, "ing": 281, "es": 282, "Ġw": 283, "ion": 284, "ed": 285, "ic": 286, "Ġb": 287, "Ġd": 288, "et": 289, "Ġm": 290, "Ġo": 291, "ro": 292, "as": 293, "el": 294, "ct": 295, "nd": 296, "Ġin": 297, "Ġh": 298, "ent": 299, "id": 300, "Ġn": 301, "am": 302, "Ġto": 303, "Ġre": 304, "--": 305, "Ġ{": 306, "Ġof": 307, "om": 308, "im": 309, "Ġ(": 310, "il": 311, "//": 312, "Ġand": 313, "ur": 314, "se": 315, "Ġl": 316, "ex": 317, "ĠS": 318, "ad": 319, "Ġ\"": 320, "ch": 321, "ut": 322, "if": 323, "**": 324, "Ġ}": 325, "em": 326, "ol": 327, "th": 328, "Ġg": 329, "ig": 330, "iv": 331, "ce": 332, "od": 333, "Ġv": 334, "ate": 335, "ĠT": 336, "ag": 337, "ay": 338, "Ġ*": 339, "ot": 340, "us": 341, "ĠC": 342, "Ġst": 343, "ĠI": 344, "un": 345, "ul": 346, "ue": 347, "ĠA": 348, "ow": 349, "Ġ'": 350, "ew": 351, "Ġ<": 352, "ation": 353, "()": 354, "Ġfor": 355, "ab": 356, "ort": 357, "um": 358, "ame": 359, "Ġis": 360, "pe": 361, "tr": 362, "ck": 363, "âĢ": 364, "Ġy": 365, "ist": 366, "he": 367, "Ġe": 368, "lo": 369, "ĠM": 370, "Ġbe": 371, "ers": 372, "Ġon": 373, "Ġcon": 374, "ap": 375, "ub": 376, "ĠP": 377, "ass": 378, "int": 379, "ly": 380, "urn": 381, "Ġ$": 382, "av": 383, "port": 384, "ir": 385, "->": 386, "nt": 387, "ction": 388, "end": 389, "Ġde": 390, "ith": 391, "out": 392, "turn": 393, "our": 394, "lic": 395, "res": 396, "pt": 397, "==": 398, "Ġthis": 399, "Ġwh": 400, "Ġif": 401, "ĠD": 402, "ver": 403, "age": 404, "ĠB": 405, "ht": 406, "ext": 407, "=\"": 408, "Ġthat": 409, "ĠR": 410, "Ġit": 411, "ess": 412, "ĠF": 413, "Ġr": 414, "os": 415, "and": 416, "Ġas": 417, "ect": 418, "ke": 419, "rom": 420, "Ġ//": 421, "con": 422, "ĠL": 423, "(\"": 424, "qu": 425, "lass": 426, "Ġwith": 427, "iz": 428, "de": 429, "ĠN": 430, "Ġal": 431, "op": 432, "up": 433, "get": 434, "ile": 435, "Ġan": 436, "ata": 437, "ore": 438, "ri": 439, "Ġpro": 440, "ter": 441, "ain": 442, "ĠW": 443, "ĠE": 444, "Ġcom": 445, "Ġreturn": 446, "art": 447, "ĠH": 448, "ack": 449, "import": 450, "ublic": 451, "Ġor": 452, "est": 453, "ment": 454, "ĠG": 455, "able": 456, "Ġ-": 457, "ine": 458, "ill": 459, "ind": 460, "ere": 461, "::": 462, "ity": 463, "Ġ+": 464, "Ġtr": 465, "elf": 466, "ight": 467, "('": 468, "orm": 469, "ult": 470, "str": 471, "..": 472, "\",": 473, "Ġyou": 474, "ype": 475, "pl": 476, "Ġnew": 477, "Ġj": 478, "Ġfrom": 479, "Ġex": 480, "ĠO": 481, "ld": 482, "Ġ[": 483, "oc": 484, "Ġse": 485, "Ġle": 486, ".s": 487, "',": 488, "ant": 489, "Ġat": 490, "ase": 491, ".c": 492, "Ġch": 493, "</": 494, "ave": 495, "ang": 496, "Ġare": 497, "Ġint": 498, "_t": 499, "ert": 500, "ial": 501, "act": 502, "ive": 503, "ode": 504, "ost": 505, "Ġclass": 506, "Ġnot": 507, "og": 508, "ord": 509, "alue": 510, "all": 511, "ff": 512, "ont": 513, "ime": 514, "are": 515, "ĠU": 516, "Ġpr": 517, "Ġ:": 518, "ies": 519, "ize": 520, "ure": 521, "Ġby": 522, "ire": 523, ".p": 524, "Ġsh": 525, "ice": 526, "ast": 527, "ption": 528, "tring": 529, "ok": 530, "__": 531, "cl": 532, "##": 533, "Ġhe": 534, "ard": 535, ").": 536, "Ġ@": 537, "iew": 538, "Ġwas": 539, "ip": 540, "this": 541, "Ġu": 542, "ĠThe": 543, "ide": 544, "ace": 545, "ib": 546, "ac": 547, "rou": 548, "Ġwe": 549, "ject": 550, "Ġpublic": 551, "ak": 552, "ve": 553, "ath": 554, "oid": 555, "Ġ=>": 556, "ust": 557, "que": 558, "Ġres": 559, "))": 560, "'s": 561, "Ġk": 562, "ans": 563, "yst": 564, "unction": 565, "Ġi": 566, "Ġus": 567, "pp": 568, "one": 569, "ail": 570, "name": 571, "Ġstr": 572, "Ġ/": 573, "Ġ&": 574, "ach": 575, "div": 576, "ystem": 577, "ell": 578, "Ġhave": 579, "err": 580, "ould": 581, "ull": 582, "pon": 583, "ĠJ": 584, "_p": 585, "Ġ==": 586, "ign": 587, "St": 588, "Ġpl": 589, "form": 590, "put": 591, "ount": 592, "dd": 593, "ite": 594, "Ġget": 595, "rr": 596, "ome": 597, "ĠâĢ": 598, "aram": 599, "cc": 600, "Ġ*/": 601, "ER": 602, "In": 603, "les": 604, "_s": 605, "ong": 606, "ie": 607, "Ġcan": 608, "ĠV": 609, "erv": 610, "pr": 611, "Ġun": 612, "row": 613, "ber": 614, "Ġdo": 615, "ll": 616, "Ġel": 617, "Ġself": 618, "ated": 619, "ary": 620, "Ġ.": 621, "']": 622, "ud": 623, "Ġen": 624, "ĠTh": 625, "te": 626, "_c": 627, "uct": 628, "Ġab": 629, "ork": 630, ".get": 631, "Ġ#": 632, "aw": 633, "ress": 634, "ob": 635, "Name": 636, "app": 637, "['": 638, "Ġall": 639, "ory": 640, "ition": 641, "ance": 642, "ear": 643, "Ġcont": 644, "vent": 645, "ia": 646, "Ġwill": 647, "IN": 648, "return": 649, "Ġ</": 650, "data": 651, "Re": 652, "ple": 653, "ild": 654, "ther": 655, "Ġyour": 656, "($": 657, "Ġout": 658, "),": 659, "Ġhas": 660, "String": 661, "so": 662, "Ġup": 663, "ax": 664, "Ġdef": 665, "Ġbo": 666, "ge": 667, "alse": 668, "ON": 669, "per": 670, "ich": 671, "Ġbut": 672, "Ġ_": 673, "_m": 674, "add": 675, "quest": 676, "odel": 677, "self": 678, "ery": 679, "ft": 680, "ens": 681, "ake": 682, ".C": 683, "Ġgo": 684, "Ġfunction": 685, "ĠK": 686, "ivate": 687, "Ġim": 688, "Ġconst": 689, ".t": 690, "Ġvoid": 691, "Ġset": 692, "ĠSystem": 693, "cri": 694, "li": 695, "ĉif": 696, ".m": 697, "ally": 698, "set": 699, "ep": 700, "âĢĻs": 701, "bo": 702, "def": 703, "Ġme": 704, "Ġ!": 705, "atch": 706, "\">": 707, "ec": 708, "ĠIn": 709, "ph": 710, "Ġ|": 711, "_f": 712, "Ġvar": 713, "ence": 714, "Id": 715, "ree": 716, "ink": 717, "lect": 718, "ug": 719, "eth": 720, "Ġelse": 721, "cont": 722, "Ġso": 723, "atic": 724, "Ġlo": 725, "pro": 726, "ton": 727, "ss": 728, "own": 729, "abel": 730, "oint": 731, "ous": 732, "eld": 733, "ST": 734, "The": 735, "RE": 736, "\":": 737, "olor": 738, "tp": 739, "eg": 740, "key": 741, "ude": 742, "ĠSt": 743, "ound": 744, "Ġar": 745, "ener": 746, "ser": 747, "bject": 748, "essage": 749, "fer": 750, "Ġmore": 751, "ations": 752, "ents": 753, "Ġhis": 754, "Ġthey": 755, ".S": 756, "ĠY": 757, "use": 758, "ne": 759, "ish": 760, "old": 761, "_d": 762, "io": 763, "ield": 764, "Ġper": 765, "Cont": 766, "ings": 767, "Ġdata": 768, "Ġsa": 769, "ef": 770, "fo": 771, "Ġone": 772, "eng": 773, "Ġdis": 774, "AT": 775, "Ġname": 776, "Ġtrue": 777, "val": 778, "led": 779, ".f": 780, "Ġne": 781, "Ġend": 782, ".T": 783, "cre": 784, "ark": 785, "log": 786, "Ex": 787, "error": 788, "_id": 789, "urre": 790, "ange": 791, "Ġnull": 792, "rray": 793, "Ġmy": 794, "pan": 795, "ict": 796, "ator": 797, "View": 798, "List": 799, "ĉreturn": 800, "Ġpre": 801, "Ġx": 802, "clude": 803, "arg": 804, "ov": 805, ".h": 806, "Ġ>": 807, "Ġtheir": 808, "')": 809, "irst": 810, "ick": 811, "gh": 812, "LE": 813, "OR": 814, "Ġprivate": 815, "tem": 816, "user": 817, "Ġ)": 818, "com": 819, ".A": 820, "Ġid": 821, "read": 822, "Ġwho": 823, "_b": 824, "Ġtime": 825, "Ġman": 826, "ry": 827, "roup": 828, "rop": 829, "public": 830, "vel": 831, "umber": 832, "ble": 833, "Ġwhich": 834, "Ġany": 835, "Ġfalse": 836, "we": 837, "Ġvalue": 838, "Ġli": 839, "\")": 840, "nder": 841, "gr": 842, "Ġno": 843, "param": 844, "fig": 845, ".com": 846, "Ġapp": 847, "_l": 848, "ions": 849, ".D": 850, "ĠCh": 851, "Ġabout": 852, "Ġadd": 853, "Ġsu": 854, "Ġstring": 855, "ID": 856, "Ġover": 857, "string": 858, ".l": 859, "ource": 860, "_C": 861, "Ġqu": 862, "ĠString": 863, "ca": 864, "SE": 865, "Ġro": 866, "sh": 867, "ual": 868, "Type": 869, "son": 870, "new": 871, "ern": 872, "Ġag": 873, "AR": 874, "].": 875, "Ġ?": 876, "ical": 877, "Ġdes": 878, "uth": 879, "ix": 880, "ays": 881, "Ġtype": 882, "'t": 883, "ault": 884, "Ġinter": 885, "var": 886, ".b": 887, "Ġpart": 888, ".d": 889, "urrent": 890, "IT": 891, "EN": 892, "enc": 893, "(f": 894, "ra": 895, "value": 896, "cho": 897, "utton": 898, "ose": 899, "Ġ!=": 900, "ater": 901, "reate": 902, "oll": 903, "pos": 904, "yle": 905, "ng": 906, "AL": 907, "using": 908, "ames": 909, "ates": 910, "ely": 911, "Ġwork": 912, "Ġem": 913, "inal": 914, "Ġsp": 915, "Ġwhen": 916, ".set": 917, "to": 918, "quire": 919, "indow": 920, "lement": 921, "pect": 922, "ash": 923, "[i": 924, "Ġuse": 925, ".F": 926, "pec": 927, "Ġad": 928, "ove": 929, "ception": 930, "ength": 931, "include": 932, "ader": 933, "atus": 934, "Th": 935, "itle": 936, "rit": 937, "void": 938, "().": 939, "Ġoff": 940, "Ġother": 941, "Ġ&&": 942, "ms": 943, "Ġbeen": 944, "Ġte": 945, "ml": 946, "co": 947, "nc": 948, "ervice": 949, "Ġ%": 950, "ann": 951, "ade": 952, "lock": 953, "const": 954, "ponse": 955, "Ġsup": 956, "++": 957, "date": 958, "Ġacc": 959, "Ġhad": 960, "Ġbu": 961, "ĠRe": 962, "Ġwere": 963, "Ġfile": 964, "Ġwould": 965, "ven": 966, "iss": 967, "Ġour": 968, "class": 969, "raw": 970, "Ġyear": 971, "Data": 972, "Ġval": 973, "Ġsome": 974, "fter": 975, "ys": 976, "Ġ///": 977, "round": 978, "view": 979, "Ġpe": 980, "Ġthere": 981, "Ġsaid": 982, "du": 983, "of": 984, "line": 985, "/*": 986, "duct": 987, "Ġher": 988, "Res": 989, "Ġco": 990, "Ġcomm": 991, "ise": 992, "min": 993, "#include": 994, "ethod": 995, ".P": 996, "ute": 997, "Ġass": 998, "Int": 999, "ask": 1000, "loc": 1001, "Ġlike": 1002, "ody": 1003, "Ġlet": 1004, "load": 1005, "Ġam": 1006, "rol": 1007, "Ġgr": 1008, "yp": 1009, "Ġalso": 1010, "ĠIt": 1011, "url": 1012, "ific": 1013, "ors": 1014, "_P": 1015, "_n": 1016, "igh": 1017, "Ġthan": 1018, "Com": 1019, "AN": 1020, "UL": 1021, "ating": 1022, "ĠThis": 1023, "ref": 1024, "_S": 1025, "Ġstatic": 1026, "roll": 1027, "Ġjust": 1028, "Ġresult": 1029, "ian": 1030, "idth": 1031, "Ġthem": 1032, "der": 1033, "reak": 1034, "Con": 1035, "://": 1036, "ule": 1037, "...": 1038, "arch": 1039, "ement": 1040, "Ġ<<": 1041, "ush": 1042, "ense": 1043, "arr": 1044, "Ġinto": 1045, "cess": 1046, "amp": 1047, "ied": 1048, "ument": 1049, "Ġ\\": 1050, "],": 1051, "wo": 1052, "als": 1053, "Ġwhat": 1054, "anc": 1055, "Value": 1056, "='": 1057, "olum": 1058, "Ġpos": 1059, "ages": 1060, "ayer": 1061, "Ġsc": 1062, "ues": 1063, "_T": 1064, "Ġlist": 1065, "(s": 1066, "Ġcase": 1067, "Ch": 1068, "ponent": 1069, "Ġz": 1070, "Ġkn": 1071, "let": 1072, "DE": 1073, "red": 1074, "Ġfe": 1075, "Ġ,": 1076, "(t": 1077, "Ġfirst": 1078, "word": 1079, "Ġimport": 1080, "Ġact": 1081, "Ġchar": 1082, "CT": 1083, "ĠTr": 1084, "ople": 1085, "={": 1086, "ĉf": 1087, "ient": 1088, "cent": 1089, ".j": 1090, "lection": 1091, "Ġonly": 1092, "Ġprint": 1093, "mer": 1094, ".W": 1095, "ock": 1096, "Ġ--": 1097, "Text": 1098, "Ġop": 1099, "ank": 1100, "Ġits": 1101, "Ġback": 1102, "[\"": 1103, "Ġneed": 1104, "Ġcl": 1105, "Ġsub": 1106, "Ġla": 1107, "((": 1108, ".\"": 1109, "Object": 1110, "Ġstart": 1111, "file": 1112, "(self": 1113, "ner": 1114, "ey": 1115, "Ġuser": 1116, "Ġent": 1117, "ĠCom": 1118, "its": 1119, "ĠCon": 1120, "ouble": 1121, "ower": 1122, "item": 1123, "very": 1124, "ĠWe": 1125, "lick": 1126, "ĠQ": 1127, "php": 1128, "ttp": 1129, "':": 1130, "ics": 1131, "Ġunder": 1132, ".L": 1133, ");": 1134, "ices": 1135, "Ġreg": 1136, "ĉpublic": 1137, "SS": 1138, "Ġthen": 1139, "reat": 1140, "ious": 1141, ".G": 1142, "ek": 1143, "irect": 1144, "heck": 1145, "cript": 1146, "ning": 1147, "ĠUn": 1148, "Ġmay": 1149, "ĠWh": 1150, "Bo": 1151, "Item": 1152, "struct": 1153, ".st": 1154, "ream": 1155, "ible": 1156, "loat": 1157, "Ġorg": 1158, "und": 1159, "sum": 1160, "_in": 1161, "../": 1162, "_M": 1163, "Ġhow": 1164, "rite": 1165, "To": 1166, "ww": 1167, "Ġpeople": 1168, "index": 1169, ".n": 1170, "http": 1171, "(m": 1172, "ector": 1173, "Ġind": 1174, "Ġjav": 1175, "ĠHe": 1176, "_st": 1177, "ful": 1178, "ole": 1179, "Ġshould": 1180, "opy": 1181, "elp": 1182, "ier": 1183, "_name": 1184, "erson": 1185, "ION": 1186, "ote": 1187, "Ġtest": 1188, "Ġbet": 1189, "rror": 1190, "ular": 1191, "bs": 1192, "ting": 1193, "Ġmake": 1194, "Tr": 1195, "Ġafter": 1196, "arget": 1197, "RO": 1198, "olumn": 1199, "rc": 1200, "_re": 1201, "define": 1202, "Ġright": 1203, "right": 1204, "day": 1205, "Ġlong": 1206, "[]": 1207, "(p": 1208, "td": 1209, "cond": 1210, "ĠPro": 1211, "Ġrem": 1212, "ptions": 1213, "vid": 1214, ".g": 1215, "Ġext": 1216, "Ġ__": 1217, "pace": 1218, "mp": 1219, "Ġmin": 1220, "stance": 1221, "air": 1222, "action": 1223, "wh": 1224, "type": 1225, "util": 1226, "ait": 1227, "<?": 1228, "IC": 1229, "text": 1230, "Ġph": 1231, "Ġfl": 1232, ".M": 1233, "ccess": 1234, "br": 1235, "fore": 1236, "ersion": 1237, ".re": 1238, "ateg": 1239, "Ġloc": 1240, "ins": 1241, "-s": 1242, "trib": 1243, "ĠInt": 1244, "Ġarray": 1245, ",\"": 1246, "Pro": 1247, "(c": 1248, "ession": 1249, "Ġshe": 1250, "\"]": 1251, "aph": 1252, "Ġexp": 1253, "erty": 1254, "ĠSe": 1255, "Ġpar": 1256, "unc": 1257, "ET": 1258, "Ġread": 1259, "print": 1260, "Ġrel": 1261, "Ġform": 1262, "Ġdr": 1263, "Exception": 1264, "input": 1265, "Ġtrans": 1266, "order": 1267, "By": 1268, "Ġaw": 1269, "ities": 1270, "uff": 1271, "play": 1272, ".add": 1273, "Ġwant": 1274, "Ġcomp": 1275, "ments": 1276, "Ġ||": 1277, "az": 1278, "be": 1279, "Ġnumber": 1280, "Ġrequire": 1281, "ĠEx": 1282, "Ġcol": 1283, "Ġkey": 1284, "ember": 1285, "Ġtwo": 1286, "Ġsize": 1287, "Ġwhere": 1288, "UT": 1289, "result": 1290, "ough": 1291, "orld": 1292, "ood": 1293, "uch": 1294, "ative": 1295, "ger": 1296, "arent": 1297, "Ġ/*": 1298, "Ġarg": 1299, "Ġwhile": 1300, "(this": 1301, "Ġrec": 1302, "Ġdif": 1303, "State": 1304, "Ġspec": 1305, "ride": 1306, "_F": 1307, "Ġlook": 1308, "AM": 1309, "ility": 1310, "eter": 1311, "âĢĻt": 1312, "ayout": 1313, "ager": 1314, "Ġcould": 1315, "Ġbr": 1316, "ends": 1317, "ures": 1318, "Ġknow": 1319, "ets": 1320, "ĠIf": 1321, "ĠSh": 1322, ".w": 1323, "back": 1324, "Ġser": 1325, "Ġ+=": 1326, "Ġfr": 1327, "Ġhand": 1328, "Ind": 1329, "ULL": 1330, "Im": 1331, "Ġmost": 1332, "Ġtry": 1333, "Ġnow": 1334, "rough": 1335, "ackage": 1336, "Ġhim": 1337, "._": 1338, "ify": 1339, "Ġbreak": 1340, "ren": 1341, "#define": 1342, "itt": 1343, "Ġap": 1344, "ĉc": 1345, "(n": 1346, "ĠYou": 1347, "-m": 1348, "Ġevery": 1349, "ustom": 1350, "lient": 1351, "ocument": 1352, "cription": 1353, "Error": 1354, "-b": 1355, "][": 1356, "trans": 1357, "Ġpoint": 1358, "Ġstd": 1359, "Ġfil": 1360, "Time": 1361, "Ġmod": 1362, "Ġ->": 1363, "Ġerror": 1364, "ah": 1365, "Ġtext": 1366, "roller": 1367, "lose": 1368, "ql": 1369, "Ġpol": 1370, "></": 1371, "Ġshow": 1372, "User": 1373, "ased": 1374, "Ġfind": 1375, "ED": 1376, "span": 1377, "enu": 1378, "Ġcurrent": 1379, "Ġused": 1380, "cept": 1381, "clud": 1382, "Ġplay": 1383, "Ġlog": 1384, "ution": 1385, "fl": 1386, "Ġsee": 1387, "indows": 1388, "Ġhelp": 1389, "Ġthese": 1390, "Ġpass": 1391, "Ġdown": 1392, "Ġeven": 1393, "ason": 1394, "uild": 1395, "from": 1396, "(d": 1397, "Ġbl": 1398, "label": 1399, "else": 1400, "Ġ(!": 1401, "ized": 1402, "(),": 1403, "Ġob": 1404, "Ġitem": 1405, "ump": 1406, "UR": 1407, "orn": 1408, "Ġdon": 1409, "Se": 1410, "man": 1411, "ample": 1412, "tn": 1413, "He": 1414, "gram": 1415, "Ġdid": 1416, "wn": 1417, "_h": 1418, "iver": 1419, "Ġsm": 1420, "Ġthrough": 1421, "ĠAn": 1422, "che": 1423, "Ġinv": 1424, "ouse": 1425, "Ġes": 1426, "ĠNew": 1427, "export": 1428, "mary": 1429, "uto": 1430, "ler": 1431, "Ġlast": 1432, "Ġevent": 1433, "try": 1434, "ï¼": 1435, "ily": 1436, "igned": 1437, "ines": 1438, "ollow": 1439, "icense": 1440, "sole": 1441, "lear": 1442, "(int": 1443, "Ġagain": 1444, "Ġhigh": 1445, "html": 1446, "Index": 1447, "uthor": 1448, "Ġline": 1449, "Event": 1450, "_D": 1451, "Ġdoes": 1452, "itial": 1453, "Ġcr": 1454, "ars": 1455, "Ġtem": 1456, "cause": 1457, "face": 1458, "Ġ`": 1459, "_A": 1460, "Button": 1461, "ature": 1462, "ected": 1463, "ES": 1464, "ister": 1465, "Ġbefore": 1466, "ale": 1467, "other": 1468, "Ġbecause": 1469, "roid": 1470, "Ġed": 1471, "ik": 1472, "reg": 1473, "ĠDe": 1474, "Ġdist": 1475, "Ġstate": 1476, "Ġcons": 1477, "rint": 1478, "att": 1479, "Ġhere": 1480, "ined": 1481, "Ġfinal": 1482, "Ġ\"\"": 1483, "Key": 1484, "LO": 1485, "Ġdel": 1486, "pty": 1487, "thing": 1488, "ĠAnd": 1489, "Ġrun": 1490, "ĠX": 1491, "ym": 1492, ".app": 1493, "Ġvery": 1494, "ces": 1495, "_N": 1496, "ared": 1497, "ward": 1498, "list": 1499, "ited": 1500, "olog": 1501, "itch": 1502, "Box": 1503, "ife": 1504, "Ġac": 1505, "Ġmodel": 1506, "Ġmon": 1507, "Ġway": 1508, "lete": 1509, "Ġcall": 1510, "Ġatt": 1511, "Ġcal": 1512, "vert": 1513, "Ġdec": 1514, "lease": 1515, "oun": 1516, "fr": 1517, "formation": 1518, "etail": 1519, "Ġnum": 1520, "aj": 1521, "query": 1522, "Ġwell": 1523, "Ġobject": 1524, "ĠAs": 1525, "Ġyears": 1526, "Color": 1527, "IS": 1528, "Ġdefault": 1529, "Wh": 1530, "Ġins": 1531, "aint": 1532, "Ġjava": 1533, "Ġsim": 1534, "ĠAr": 1535, "mon": 1536, "til": 1537, "):": 1538, "Set": 1539, "atter": 1540, "Ġview": 1541, "Ġpres": 1542, "array": 1543, "We": 1544, "At": 1545, "Ġbel": 1546, "Ġmany": 1547, "Man": 1548, "ender": 1549, "Ġbeing": 1550, "Ġgood": 1551, "ational": 1552, "ware": 1553, ".log": 1554, "Ġusing": 1555, "_B": 1556, "Ġ:=": 1557, "_w": 1558, "ists": 1559, "lish": 1560, "Ġstud": 1561, "ĠAl": 1562, "Ġgu": 1563, "config": 1564, "uring": 1565, "time": 1566, "oken": 1567, "amespace": 1568, "Ġrequest": 1569, "Ġchild": 1570, "ĠÃ": 1571, "lob": 1572, "Ġparam": 1573, "Ġecho": 1574, "function": 1575, "ps": 1576, "Element": 1577, "alk": 1578, "lication": 1579, "by": 1580, "Size": 1581, "rawing": 1582, "Ġperson": 1583, "\\n": 1584, "object": 1585, "ince": 1586, "En": 1587, "File": 1588, "uf": 1589, "ffect": 1590, "AC": 1591, "Ġstyle": 1592, "summary": 1593, "Ġque": 1594, "_r": 1595, "Ġ($": 1596, "Model": 1597, "ident": 1598, "Ġmethod": 1599, "IL": 1600, "ott": 1601, "less": 1602, "ING": 1603, "Ġ()": 1604, "Ġexpect": 1605, "ync": 1606, "package": 1607, "urs": 1608, "Ġprot": 1609, "./": 1610, "pre": 1611, "ma": 1612, "Ġsur": 1613, "Ġfound": 1614, "Info": 1615, "par": 1616, "imes": 1617, ".e": 1618, "ains": 1619, "Ġpost": 1620, "-d": 1621, "olean": 1622, "Ġsl": 1623, "PE": 1624, "Ġsuch": 1625, "select": 1626, "ainer": 1627, "Ġthink": 1628, "Ġdiffer": 1629, ".r": 1630, "FF": 1631, "ool": 1632, "plate": 1633, "qual": 1634, "ĠFor": 1635, "Ġmuch": 1636, "uc": 1637, "(new": 1638, "odule": 1639, "Ġsom": 1640, "Ġhttp": 1641, "ĠList": 1642, "Ġcount": 1643, "Ġinst": 1644, "char": 1645, "mit": 1646, ".id": 1647, "aking": 1648, "Ġgener": 1649, "px": 1650, "vice": 1651, "_data": 1652, "ĠNULL": 1653, "idd": 1654, "Ġmed": 1655, "org": 1656, "ider": 1657, "ache": 1658, "work": 1659, "Ġcheck": 1660, "ween": 1661, "Ġ((": 1662, "the": 1663, "ants": 1664, "><": 1665, ".B": 1666, "-c": 1667, "Ġopen": 1668, "Ġest": 1669, "Ġnext": 1670, "IM": 1671, "OT": 1672, "Ġfollow": 1673, "content": 1674, "Ġinclud": 1675, "HE": 1676, "ĠRes": 1677, "Ġhref": 1678, "Ġcar": 1679, "ypes": 1680, "image": 1681, "Un": 1682, "Ġbool": 1683, "AD": 1684, "Ġgame": 1685, ".Form": 1686, "rows": 1687, "*/": 1688, "velop": 1689, ".Drawing": 1690, "Ġpath": 1691, "ision": 1692, "Ġeach": 1693, "ĠPl": 1694, "_type": 1695, "Path": 1696, "nection": 1697, "Ġav": 1698, "').": 1699, "Ġsupport": 1700, "ENT": 1701, "rem": 1702, "\").": 1703, "Ġown": 1704, "Ġcor": 1705, "count": 1706, "miss": 1707, "ually": 1708, "Ġmem": 1709, "std": 1710, "ience": 1711, "search": 1712, "Form": 1713, "Ġsex": 1714, "ename": 1715, "Ġsign": 1716, "Ġet": 1717, "','": 1718, "ĠApp": 1719, "Ġthose": 1720, "off": 1721, "Ġerr": 1722, "Ġsystem": 1723, "Ġbest": 1724, "code": 1725, "Ġsame": 1726, "Ġdi": 1727, "uss": 1728, "Ġcreate": 1729, "ather": 1730, "Array": 1731, ".in": 1732, "fe": 1733, "Service": 1734, "UN": 1735, "ats": 1736, "ĠZ": 1737, "alth": 1738, "Ġmade": 1739, "true": 1740, "AB": 1741, "Ġmark": 1742, "rid": 1743, "ified": 1744, "yn": 1745, "press": 1746, "Ġgroup": 1747, "Ġfin": 1748, "ĠLicense": 1749, "Field": 1750, "eger": 1751, "Ġworld": 1752, "iness": 1753, "ty": 1754, "Ġprocess": 1755, "(b": 1756, "Ġcre": 1757, "arn": 1758, "ives": 1759, "Ġmain": 1760, "ideo": 1761, "_g": 1762, "AG": 1763, "valid": 1764, "img": 1765, "PI": 1766, "Ġcolor": 1767, "Ġreport": 1768, "Ġtake": 1769, "rib": 1770, "OM": 1771, "Ġday": 1772, "Request": 1773, "Ġsk": 1774, "bers": 1775, "ĉs": 1776, ".Add": 1777, "oot": 1778, "Image": 1779, "Ġcomple": 1780, "ollection": 1781, "Ġtop": 1782, "Ġfree": 1783, "AS": 1784, "De": 1785, "ĠOn": 1786, "IG": 1787, "eta": 1788, "Date": 1789, "Ġaction": 1790, "Over": 1791, "itor": 1792, "not": 1793, "Ġindex": 1794, "her": 1795, "icon": 1796, "On": 1797, "ivity": 1798, "mand": 1799, ".Windows": 1800, "OL": 1801, "Ġreal": 1802, "Ġmax": 1803, "land": 1804, "raph": 1805, "Ġbuild": 1806, "leg": 1807, "assword": 1808, "ook": 1809, "uck": 1810, "Ġmessage": 1811, "test": 1812, "ivers": 1813, "Ġinput": 1814, "Ġart": 1815, "Ġbetween": 1816, "Get": 1817, "enter": 1818, "ground": 1819, "ene": 1820, ".length": 1821, "Node": 1822, "(i": 1823, "Class": 1824, "for": 1825, "ĠâĢĶ": 1826, "ten": 1827, "oin": 1828, "Ġke": 1829, "ui": 1830, "ĠIN": 1831, "Ġtable": 1832, "sub": 1833, "ĠLe": 1834, "Ġhead": 1835, "Ġmust": 1836, ".util": 1837, "Context": 1838, "Ġorder": 1839, "Ġmov": 1840, "over": 1841, "Ġcontin": 1842, "Ġsay": 1843, "static": 1844, ".Text": 1845, "ĠclassName": 1846, "pany": 1847, "Ġter": 1848, "head": 1849, "rg": 1850, "Ġproduct": 1851, "This": 1852, "ĠBut": 1853, "loy": 1854, "Ġdouble": 1855, "sg": 1856, "Ġplace": 1857, ".x": 1858, "message": 1859, "Ġinformation": 1860, "private": 1861, "Ġoper": 1862, "ced": 1863, "db": 1864, "Param": 1865, "icle": 1866, "Ġweek": 1867, "Ġprop": 1868, "table": 1869, "idget": 1870, "place": 1871, "Prop": 1872, "ĠAll": 1873, "els": 1874, "box": 1875, ".R": 1876, "ĠTo": 1877, "iter": 1878, "Sh": 1879, "uration": 1880, "older": 1881, "_list": 1882, "come": 1883, "Ġsw": 1884, "ization": 1885, "ĉfor": 1886, "bl": 1887, "Ġprogram": 1888, "(e": 1889, "ape": 1890, "check": 1891, ".Forms": 1892, "Ġund": 1893, "ategory": 1894, "ags": 1895, "Ġresponse": 1896, "US": 1897, "request": 1898, "Ġstruct": 1899, "escription": 1900, "Ġcode": 1901, "_H": 1902, "uffer": 1903, "Ġwithout": 1904, "lobal": 1905, "Manager": 1906, "ilter": 1907, "PO": 1908, "ĉthis": 1909, "option": 1910, "Ġsol": 1911, "Ġ===": 1912, "akes": 1913, "Controller": 1914, "Message": 1915, "Ġref": 1916, "ever": 1917, "ĠSo": 1918, "aining": 1919, ".append": 1920, "Ġstill": 1921, "Ġprovid": 1922, "Ġassert": 1923, "med": 1924, "Ġcap": 1925, "usiness": 1926, "Ġrep": 1927, "tings": 1928, "ved": 1929, ".N": 1930, "api": 1931, "OD": 1932, "Ġfield": 1933, "iven": 1934, "oto": 1935, "col": 1936, "(x": 1937, "ght": 1938, "Result": 1939, "Code": 1940, ".is": 1941, "link": 1942, "Ġcour": 1943, "An": 1944, "Ġteam": 1945, "ĉint": 1946, "ift": 1947, "Ġsecond": 1948, "Ġgoing": 1949, "Ġrange": 1950, "_E": 1951, "ness": 1952, "Ġfam": 1953, "Ġnil": 1954, "ĠCont": 1955, "ailable": 1956, "utes": 1957, "atab": 1958, "Ġfact": 1959, "Ġvis": 1960, "(&": 1961, "ĠAN": 1962, "Al": 1963, "title": 1964, "Ġandroid": 1965, "CE": 1966, "\\\"": 1967, "irt": 1968, "Ġwrit": 1969, "ĉm": 1970, "ftware": 1971, "ond": 1972, "Ġret": 1973, "osition": 1974, "Ġhome": 1975, "Ġleft": 1976, "args": 1977, "meric": 1978, "Ġdirect": 1979, "oci": 1980, "Pl": 1981, "As": 1982, "ret": 1983, "ado": 1984, "Of": 1985, "chn": 1986, "ĠGet": 1987, "ee": 1988, "ross": 1989, "();": 1990, ".ph": 1991, "It": 1992, "oute": 1993, "Ġexper": 1994, "chool": 1995, "www": 1996, "},": 1997, "Ġallow": 1998, "ĠÂ": 1999, "())": 2000, "size": 2001, "ism": 2002, "ai": 2003, "tract": 2004, "ane": 2005, "context": 2006, "Ġbeg": 2007, "CH": 2008, "Ġpage": 2009, "hip": 2010, "no": 2011, "core": 2012, "sp": 2013, "Ġdifferent": 2014, "iable": 2015, "ĠMe": 2016, "_IN": 2017, "button": 2018, "ĠIs": 2019, "ervices": 2020, "Ġca": 2021, "Ġaround": 2022, "App": 2023, "ration": 2024, "Ġrece": 2025, "Ġreally": 2026, "Ġimage": 2027, "Ġtarget": 2028, "Ġdep": 2029, "opyright": 2030, "tra": 2031, "ingle": 2032, "ital": 2033, "Layout": 2034, "Ġboth": 2035, "Override": 2036, "arm": 2037, "=>": 2038, "aterial": 2039, "iled": 2040, "Ġput": 2041, "Qu": 2042, "ung": 2043, "map": 2044, "Ġlevel": 2045, "Component": 2046, "book": 2047, "creen": 2048, "_RE": 2049, "Ġconfig": 2050, "Or": 2051, ".data": 2052, "Ġdocument": 2053, "\",\"": 2054, "tribute": 2055, "ux": 2056, "Log": 2057, "ference": 2058, "post": 2059, "_e": 2060, "Ġlocal": 2061, "andom": 2062, "assert": 2063, "Val": 2064, "lected": 2065, "ina": 2066, "atabase": 2067, "Add": 2068, "Ġcontent": 2069, ".print": 2070, "signed": 2071, "ric": 2072, "Ġfa": 2073, "-f": 2074, "ived": 2075, "Ġquest": 2076, ".ex": 2077, "Ġfloat": 2078, "Ġdevelop": 2079, "Map": 2080, "ading": 2081, "Ġposs": 2082, "UE": 2083, "namespace": 2084, "_O": 2085, "ĉb": 2086, ".Get": 2087, ">(": 2088, "json": 2089, "etails": 2090, "Ġtoo": 2091, "Ġextends": 2092, "ĠNone": 2093, "Ġfore": 2094, "(String": 2095, "format": 2096, "Ġgreat": 2097, "inter": 2098, "cale": 2099, "ron": 2100, "iving": 2101, "Ent": 2102, "ency": 2103, "xt": 2104, "oy": 2105, "Ġmonth": 2106, "Ġhapp": 2107, "Ġsuper": 2108, "bar": 2109, "default": 2110, "_de": 2111, "ords": 2112, "ln": 2113, "ĠInd": 2114, "ases": 2115, "Ġtitle": 2116, "Ġcontext": 2117, "oh": 2118, "-p": 2119, "Em": 2120, "Ġmet": 2121, "Test": 2122, "Ġlife": 2123, "_v": 2124, "ĠUS": 2125, "UI": 2126, "ocation": 2127, "md": 2128, "Ġ]": 2129, "sw": 2130, "Ġincre": 2131, "script": 2132, "ential": 2133, "ways": 2134, ".de": 2135, "Ġsrc": 2136, "Ġcatch": 2137, "ĠAmeric": 2138, "Ġpay": 2139, "plit": 2140, "Ġcoun": 2141, "obj": 2142, ".php": 2143, "Ġchange": 2144, "ething": 2145, "'re": 2146, "aster": 2147, "los": 2148, "lation": 2149, "Le": 2150, "({": 2151, "ready": 2152, "ĠNo": 2153, "Ġposition": 2154, "Ġold": 2155, "Ġbook": 2156, "abled": 2157, "bug": 2158, "Hand": 2159, "isplay": 2160, "aving": 2161, "Ġgover": 2162, "Ġversion": 2163, "System": 2164, "nect": 2165, "response": 2166, "Style": 2167, "Up": 2168, "angu": 2169, "Ġthree": 2170, "init": 2171, "ero": 2172, "Ġlaw": 2173, "endif": 2174, "Ġbase": 2175, "email": 2176, "(l": 2177, "_V": 2178, "Ġconf": 2179, "ATE": 2180, "Ġduring": 2181, "tes": 2182, "Ġconsole": 2183, "ĠPr": 2184, "Ġspe": 2185, "ves": 2186, "path": 2187, "ialog": 2188, "dition": 2189, "_to": 2190, "ards": 2191, "Ġagainst": 2192, "etwork": 2193, "ĠPh": 2194, "_L": 2195, "cur": 2196, "imit": 2197, "With": 2198, "Ġpower": 2199, "ium": 2200, "Ġwom": 2201, "left": 2202, "ources": 2203, "atri": 2204, "ĠIm": 2205, "ĠMan": 2206, "orth": 2207, "${": 2208, "quals": 2209, "ese": 2210, "_size": 2211, "Ġiss": 2212, "otal": 2213, "-g": 2214, "ique": 2215, "rame": 2216, "Ġwidth": 2217, "erg": 2218, ")(": 2219, "ittle": 2220, "TR": 2221, "ĠThey": 2222, "ences": 2223, "rl": 2224, "ons": 2225, "Ġlabel": 2226, ".y": 2227, "-t": 2228, "update": 2229, "anel": 2230, "sc": 2231, ".to": 2232, "Ġproject": 2233, "Ġelement": 2234, "Ġsuccess": 2235, ".sh": 2236, "ram": 2237, "ched": 2238, "Ġdate": 2239, "Ġtot": 2240, "_ST": 2241, "All": 2242, "ification": 2243, "ĉvar": 2244, "Ġtri": 2245, "chem": 2246, "my": 2247, "Ġbig": 2248, "ĠAd": 2249, "ĠAt": 2250, "ots": 2251, "num": 2252, "Act": 2253, "Ġmap": 2254, "era": 2255, "cope": 2256, ".$": 2257, "Ġpop": 2258, "Ġfew": 2259, "Ġlen": 2260, "uid": 2261, "eters": 2262, "ules": 2263, "source": 2264, "https": 2265, "Ġdem": 2266, "Ġear": 2267, "Ġmatch": 2268, "ories": 2269, "aces": 2270, "ĠCl": 2271, "Ġnode": 2272, "irc": 2273, "local": 2274, "unity": 2275, "Ġanother": 2276, "<<": 2277, "ogle": 2278, "Ġsit": 2279, "ework": 2280, "TE": 2281, ".I": 2282, "NS": 2283, "ology": 2284, "ought": 2285, ".Cont": 2286, ">>": 2287, "Ġcare": 2288, "state": 2289, "ĉprivate": 2290, "Ġeffect": 2291, "++)": 2292, "_file": 2293, "ending": 2294, "Line": 2295, "For": 2296, "ior": 2297, "ĠSc": 2298, "Ġfun": 2299, ".Size": 2300, "ĉelse": 2301, "])": 2302, "start": 2303, "vious": 2304, "Ġ},": 2305, "ours": 2306, "Ġleg": 2307, "Ġservice": 2308, "Ġsince": 2309, "iron": 2310, "Label": 2311, "Ġnon": 2312, "Ġlos": 2313, "iction": 2314, "Ġfull": 2315, "acter": 2316, "board": 2317, "gress": 2318, "Ġturn": 2319, "ither": 2320, ".size": 2321, "Ġbody": 2322, "resh": 2323, "eturn": 2324, "(_": 2325, "yles": 2326, "ormal": 2327, "pi": 2328, "Ġsomething": 2329, "!--": 2330, "uint": 2331, "Ġprodu": 2332, "Ġstand": 2333, "Ġproble": 2334, "Ġavailable": 2335, "mt": 2336, "ĠBl": 2337, "Ġ...": 2338, "Ġblock": 2339, "Input": 2340, "Ġkeep": 2341, "Count": 2342, "open": 2343, "Ġ['": 2344, "Ġthrow": 2345, "uilder": 2346, "Action": 2347, "Ġthings": 2348, "True": 2349, "Ġurl": 2350, "ĠBo": 2351, "printf": 2352, "Ġred": 2353, "js": 2354, ".create": 2355, "ĠOr": 2356, "Status": 2357, "Instance": 2358, "Ġcontrol": 2359, "Ġcome": 2360, "Ġcustom": 2361, "location": 2362, "model": 2363, "Ġsource": 2364, "Ġeas": 2365, ".out": 2366, "oney": 2367, "Ġawait": 2368, "Ġpartic": 2369, "AP": 2370, "ublish": 2371, "odes": 2372, "_pro": 2373, "ply": 2374, "riter": 2375, "Ġprov": 2376, "Ġmill": 2377, "HT": 2378, "Ġchang": 2379, "Ġask": 2380, "Ġoutput": 2381, "Ġemail": 2382, ".push": 2383, "ination": 2384, "atrix": 2385, "Table": 2386, "uccess": 2387, "Ġdisc": 2388, "([": 2389, "Ġbusiness": 2390, "height": 2391, ".html": 2392, "ta": 2393, "field": 2394, "Ġrequired": 2395, "_R": 2396, "Ġgovern": 2397, "lex": 2398, ".,": 2399, "ĠSet": 2400, "urch": 2401, "///": 2402, "ts": 2403, "af": 2404, "Ġmight": 2405, "istory": 2406, "Str": 2407, "Ġnever": 2408, "Response": 2409, "arse": 2410, "ada": 2411, "ĠHow": 2412, "Ġ*)": 2413, "Ġ;": 2414, "Ġhard": 2415, "Ad": 2416, "Ġintern": 2417, "used": 2418, "(data": 2419, "mod": 2420, "annel": 2421, "Ġnp": 2422, "ugg": 2423, "Ġcalled": 2424, "body": 2425, "Ġcho": 2426, "(r": 2427, "_set": 2428, "ird": 2429, "Ġ>=": 2430, "Ġoptions": 2431, "ĠGener": 2432, "Ġheight": 2433, "Point": 2434, "You": 2435, "ety": 2436, "Click": 2437, "Ġsmall": 2438, "Ġide": 2439, "Ġaccess": 2440, "anguage": 2441, "Ġprotected": 2442, "Ġjob": 2443, "ĠThere": 2444, "Def": 2445, "Ġaddress": 2446, "Ġuint": 2447, "Not": 2448, "oo": 2449, "aps": 2450, "<div": 2451, "ained": 2452, "atur": 2453, "Ġsum": 2454, "-w": 2455, "ĠDate": 2456, "Ġlittle": 2457, "Ġfri": 2458, "YPE": 2459, "Ġport": 2460, "eh": 2461, "pring": 2462, "_path": 2463, "Ġstatus": 2464, "aim": 2465, "bool": 2466, "Ġappe": 2467, "Ġos": 2468, ".name": 2469, "ension": 2470, "_G": 2471, "Ġupdate": 2472, "Config": 2473, "aff": 2474, "ERR": 2475, "Ġ<=": 2476, "ately": 2477, "#if": 2478, "uction": 2479, "ĠTe": 2480, "Ġlink": 2481, "ĠUser": 2482, ".find": 2483, ".org": 2484, "me": 2485, "Ġgiven": 2486, "Out": 2487, "#endif": 2488, "Ġbetter": 2489, "Page": 2490, "Ġfeel": 2491, "enn": 2492, "ML": 2493, "Ġalready": 2494, "Ġincluding": 2495, "oogle": 2496, "ru": 2497, "ically": 2498, "prop": 2499, "lean": 2500, "outer": 2501, "Ġalways": 2502, "ording": 2503, "If": 2504, "orage": 2505, "Ġparent": 2506, "vis": 2507, "Ġgot": 2508, "stand": 2509, "Ġless": 2510, "/s": 2511, "ĠAss": 2512, "apt": 2513, "ired": 2514, "ĠAdd": 2515, "Ġaccount": 2516, "ploy": 2517, "Ġder": 2518, "resent": 2519, "Ġlot": 2520, "Ġvalid": 2521, "ĉd": 2522, "Ġbit": 2523, "ponents": 2524, "Ġfollowing": 2525, "_ex": 2526, "SON": 2527, "Ġsure": 2528, "ocial": 2529, "Ġprom": 2530, "erties": 2531, "header": 2532, ".pro": 2533, "Ġboolean": 2534, "Ġsearch": 2535, "ken": 2536, "Ġorig": 2537, "Ġer": 2538, "Ed": 2539, "EM": 2540, "aut": 2541, "ling": 2542, "ality": 2543, "ById": 2544, "bed": 2545, "ĉcase": 2546, "ether": 2547, "posit": 2548, "Ġinvest": 2549, "ĠOR": 2550, "Ġsays": 2551, "mission": 2552, "AME": 2553, "Ġtemp": 2554, "oad": 2555, "Ġrest": 2556, "info": 2557, "Ġinterest": 2558, "Arg": 2559, "Ġperform": 2560, "pons": 2561, "ĠView": 2562, "Ġver": 2563, "lib": 2564, "(const": 2565, "Util": 2566, "Listener": 2567, "arge": 2568, "Ġmult": 2569, "Ġdie": 2570, "Ġsite": 2571, "EL": 2572, "Ġvalues": 2573, "pen": 2574, "No": 2575, "icro": 2576, "Ġbeh": 2577, "Ġ'./": 2578, "acy": 2579, "rec": 2580, "\"))": 2581, "Content": 2582, "_W": 2583, "plement": 2584, "Ġwon": 2585, "Ġvideo": 2586, "adi": 2587, "point": 2588, "%%": 2589, "Ġgl": 2590, "erved": 2591, "viron": 2592, "IF": 2593, "uted": 2594, "'m": 2595, "Ġcert": 2596, "Ġprof": 2597, "Ġcell": 2598, "ari": 2599, "Ġplayer": 2600, "ais": 2601, "Ġcost": 2602, "Ġhum": 2603, "(R": 2604, "Ġoffic": 2605, "ks": 2606, ".text": 2607, "atures": 2608, "Ġtotal": 2609, "ope": 2610, "Ġstat": 2611, "UM": 2612, "Ġload": 2613, "ights": 2614, "Ġclear": 2615, "uro": 2616, "Ġtechn": 2617, "upport": 2618, "IR": 2619, "Ġrow": 2620, "Ġseem": 2621, "Ġq": 2622, "Ġshort": 2623, "ĠNot": 2624, "ipp": 2625, "Group": 2626, "section": 2627, "max": 2628, "irl": 2629, "Ġoverride": 2630, "Ġcompany": 2631, "Ġdone": 2632, "Ġgre": 2633, ".Re": 2634, "Ġbelie": 2635, "rist": 2636, "Ġhealth": 2637, "ANT": 2638, "ĠBe": 2639, ".value": 2640, "ĠGr": 2641, "ottom": 2642, "Ġargs": 2643, "PT": 2644, "status": 2645, "func": 2646, "uments": 2647, "-h": 2648, "Number": 2649, "ĠLog": 2650, "erver": 2651, "ament": 2652, "Ġobj": 2653, "inc": 2654, "Ġchildren": 2655, "icy": 2656, "IZ": 2657, "ands": 2658, "ably": 2659, "Ġdistrib": 2660, "Ġcur": 2661, "erial": 2662, "Ġdays": 2663, "reated": 2664, "rect": 2665, "-l": 2666, "irm": 2667, "idden": 2668, "omb": 2669, "Ġinitial": 2670, ".js": 2671, "Ġâ": 2672, "Query": 2673, "Ġonline": 2674, "imal": 2675, ".con": 2676, "au": 2677, "Url": 2678, "control": 2679, "irection": 2680, "Ġinstance": 2681, "ORT": 2682, "ĠFr": 2683, "where": 2684, "Ġjavax": 2685, "Ġorgan": 2686, "apter": 2687, "Ġreason": 2688, "options": 2689, "ĠMar": 2690, "(a": 2691, "Ġwithin": 2692, "ODE": 2693, "_DE": 2694, "admin": 2695, "ended": 2696, "Ġdesign": 2697, "ĠData": 2698, "une": 2699, "ĠFile": 2700, "root": 2701, "Ġcent": 2702, "Ġarr": 2703, "_add": 2704, "len": 2705, "page": 2706, ",'": 2707, "_str": 2708, "Ġbro": 2709, "ability": 2710, "outh": 2711, "/c": 2712, "pose": 2713, "irtual": 2714, "earch": 2715, "_url": 2716, "argin": 2717, "Http": 2718, "Ġschool": 2719, "ava": 2720, "Ġconsider": 2721, ".label": 2722, "ĠArray": 2723, "web": 2724, "opt": 2725, ".println": 2726, "ulation": 2727, "Ġfunc": 2728, "PL": 2729, "Ġ\"\\": 2730, "ĠText": 2731, "actory": 2732, "(function": 2733, "null": 2734, "Ġeng": 2735, "down": 2736, "Ġinclude": 2737, "ĠEn": 2738, "ĠDr": 2739, "Ġdb": 2740, "!!": 2741, "side": 2742, "Ġinit": 2743, "quired": 2744, "ĠShe": 2745, "Column": 2746, "react": 2747, "Ġann": 2748, "Ġstop": 2749, "Ġlater": 2750, "ĠThat": 2751, "ention": 2752, "df": 2753, "UG": 2754, "ILE": 2755, "Ġclient": 2756, "raft": 2757, "ffer": 2758, "POST": 2759, "elper": 2760, "Ġlove": 2761, "quote": 2762, "oud": 2763, "Ġjson": 2764, "Ġable": 2765, "Ġmen": 2766, "AX": 2767, "ĠCopyright": 2768, "avig": 2769, "req": 2770, "Client": 2771, ".Com": 2772, "erc": 2773, "ilt": 2774, "pecial": 2775, "_com": 2776, "room": 2777, ".Name": 2778, "Ġgive": 2779, "amb": 2780, "ike": 2781, "Ġcondition": 2782, "client": 2783, "ators": 2784, ":\"": 2785, "Ġcopy": 2786, "uture": 2787, "iversity": 2788, "ernal": 2789, "{{": 2790, "ĠCan": 2791, "ounc": 2792, "do": 2793, "Ġocc": 2794, "Ġappro": 2795, "thers": 2796, "ze": 2797, "Ġeither": 2798, "ĠFl": 2799, "Ġimportant": 2800, "Ġlead": 2801, "attr": 2802, "ART": 2803, "Equal": 2804, "Ġda": 2805, "etch": 2806, "entity": 2807, "Ġfamily": 2808, "adding": 2809, "Ġoption": 2810, "Ġexist": 2811, "ica": 2812, "ĠObject": 2813, "'ve": 2814, "vers": 2815, "itional": 2816, "output": 2817, "ĠTrue": 2818, "ĠOF": 2819, "_time": 2820, "Ġoffer": 2821, "HER": 2822, "egin": 2823, "\"\"": 2824, "Ġwater": 2825, "Ġche": 2826, "ĠMy": 2827, "ored": 2828, "Ġstep": 2829, "ances": 2830, "CK": 2831, "AY": 2832, "struction": 2833, "(C": 2834, "ouch": 2835, "Stream": 2836, "active": 2837, "ama": 2838, "Entity": 2839, "product": 2840, "Ġgovernment": 2841, "ĠID": 2842, "ajor": 2843, "And": 2844, "Ġdisplay": 2845, "Ġtimes": 2846, "Ġfour": 2847, "Ġfar": 2848, "Ġpresent": 2849, "ĠNS": 2850, "uest": 2851, "Ġbas": 2852, "echo": 2853, "child": 2854, "ifier": 2855, "Handler": 2856, "Ġlib": 2857, "Property": 2858, "translation": 2859, "Ġroom": 2860, "Ġonce": 2861, "Ġ[]": 2862, "center": 2863, "Ġresults": 2864, "Ġcontinue": 2865, "Ġtalk": 2866, "_get": 2867, "Ġgrow": 2868, ".sw": 2869, "eb": 2870, "ĠPublic": 2871, "OP": 2872, "ecute": 2873, "ols": 2874, "Ġ**": 2875, "Ġmass": 2876, "ured": 2877, ".class": 2878, "omic": 2879, "Ġmean": 2880, "ips": 2881, "Ġaut": 2882, "Ġuntil": 2883, "Ġmarket": 2884, "Ġarea": 2885, "uit": 2886, "Ġlength": 2887, "ĠWith": 2888, "structor": 2889, "event": 2890, "\"><": 2891, "ĠSp": 2892, "IV": 2893, "Ġmus": 2894, "iff": 2895, "Ġkind": 2896, "author": 2897, "ounds": 2898, "mb": 2899, "_key": 2900, "width": 2901, "pository": 2902, "Ġlight": 2903, "uk": 2904, "Row": 2905, "ohn": 2906, "alf": 2907, "vironment": 2908, "apper": 2909, "ollections": 2910, "Ġside": 2911, "_info": 2912, "Ġexample": 2913, "imary": 2914, "Ġwr": 2915, "Ġcamp": 2916, "cribe": 2917, "\"/": 2918, "Ġmiss": 2919, "way": 2920, "Ġbased": 2921, "Ġplan": 2922, "Vis": 2923, "omain": 2924, "unk": 2925, "Ġaway": 2926, "UP": 2927, "<T": 2928, "OS": 2929, "iod": 2930, "ĠMon": 2931, "âĢĻre": 2932, "Ġlik": 2933, "ively": 2934, ".v": 2935, "imer": 2936, "izer": 2937, "Sub": 2938, "Ġbutton": 2939, "ĠUp": 2940, "Ġexperience": 2941, "CL": 2942, "Ġrender": 2943, "_value": 2944, "Ġnear": 2945, "URL": 2946, "alt": 2947, "Ġcountry": 2948, "ibility": 2949, "ead": 2950, "Ġauthor": 2951, "Ġspecific": 2952, "base": 2953, "(name": 2954, "ones": 2955, "ĠDo": 2956, "Ġalong": 2957, "year": 2958, "Ġexpress": 2959, ".'": 2960, "env": 2961, "Ġbegin": 2962, "Ġsoftware": 2963, "Ġimp": 2964, "Ġwin": 2965, "Ã³n": 2966, "Ġthing": 2967, "Trans": 2968, "ĠTHE": 2969, "Ġ<?": 2970, "Ġwhy": 2971, "Ġdoesn": 2972, "ij": 2973, "ging": 2974, "ĉg": 2975, "Ġsingle": 2976, "offset": 2977, "arning": 2978, "ograph": 2979, "ley": 2980, "_count": 2981, "Ġanal": 2982, "create": 2983, "/m": 2984, "ĠReg": 2985, "unch": 2986, "=$": 2987, "isk": 2988, "Ġrights": 2989, "(M": 2990, "aper": 2991, ".model": 2992, "Ġpo": 2993, "empty": 2994, "artment": 2995, "Ġant": 2996, "ĠWhen": 2997, "Ġwomen": 2998, "ĠEd": 2999, "Ġseason": 3000, "Ġdest": 3001, "(h": 3002, "Ġpossible": 3003, "Ġsever": 3004, "Ġbtn": 3005, "Ġdidn": 3006, "Ġsent": 3007, "Ġenc": 3008, "Ġcommand": 3009, "_x": 3010, "Ġrecent": 3011, "olution": 3012, "vector": 3013, "ĠBy": 3014, "ĠMay": 3015, "ĠAct": 3016, "Ġmoney": 3017, "INT": 3018, "bsite": 3019, "ĉp": 3020, "sl": 3021, "attern": 3022, "ĠClass": 3023, "Ġtold": 3024, "udio": 3025, "current": 3026, "Ġequ": 3027, "Ġauto": 3028, "ĠState": 3029, "da": 3030, "msg": 3031, "Ġworking": 3032, "Ġquery": 3033, "ĠBr": 3034, "Ġwindow": 3035, "auth": 3036, "only": 3037, "ĉt": 3038, "Ġleast": 3039, "agn": 3040, "Ġexpl": 3041, "itter": 3042, "aring": 3043, "Ġcolumn": 3044, "ĠGeneral": 3045, "\":\"": 3046, "eral": 3047, "rior": 3048, "Ġrecord": 3049, "IB": 3050, "EX": 3051, "Ġdat": 3052, "Ġmaking": 3053, "ued": 3054, "ĠCar": 3055, "emp": 3056, "\".": 3057, "ĠMed": 3058, "Ġclose": 3059, "Ġpercent": 3060, "Ġpast": 3061, "(g": 3062, ":(": 3063, "Ġwrite": 3064, "Ġmove": 3065, "Ġpat": 3066, "Control": 3067, ".To": 3068, "Ġvi": 3069, "inate": 3070, "'ll": 3071, "aged": 3072, "Null": 3073, "Ġspecial": 3074, "IZE": 3075, "Ġcity": 3076, "ĠEng": 3077, "ixed": 3078, "inary": 3079, "py": 3080, "Ġeff": 3081, "ario": 3082, "Ġtell": 3083, "avor": 3084, "Ġselect": 3085, "level": 3086, "imum": 3087, "oper": 3088, "Builder": 3089, "IP": 3090, "esc": 3091, "Ġfont": 3092, "ĠAm": 3093, "ished": 3094, "ills": 3095, "Inter": 3096, "OW": 3097, "Ġcourse": 3098, "Ġlate": 3099, "iddle": 3100, "Ġamount": 3101, "Ġasync": 3102, "ino": 3103, "cul": 3104, "andle": 3105, "_user": 3106, "Ġben": 3107, "ĠCal": 3108, "Ġ$_": 3109, "ĠRep": 3110, "Ġenough": 3111, "Token": 3112, ".user": 3113, "(j": 3114, "Sc": 3115, "Width": 3116, "now": 3117, "atform": 3118, "Ġlooking": 3119, "Ġhold": 3120, "Module": 3121, "ITY": 3122, "vo": 3123, "ison": 3124, ".Data": 3125, "yc": 3126, "Ġpot": 3127, "ĠTrump": 3128, "idual": 3129, "ides": 3130, "rt": 3131, "Ġproperty": 3132, "amework": 3133, "go": 3134, "Ġlow": 3135, "Ġpara": 3136, "Ġprice": 3137, "ury": 3138, "Ġtoday": 3139, "roy": 3140, "Ġ'/": 3141, "Ġpolit": 3142, "Ġ''": 3143, "ymb": 3144, "Ph": 3145, "Ġadv": 3146, "Ġattack": 3147, "ĠSte": 3148, "ROM": 3149, "ana": 3150, "Ġmeans": 3151, "Ġstory": 3152, "ids": 3153, "aken": 3154, "Ġmeet": 3155, "Ġmom": 3156, "Ġ?>": 3157, "Ġden": 3158, "obile": 3159, "change": 3160, "ici": 3161, "na": 3162, "ĠForm": 3163, "Ġsort": 3164, "Select": 3165, "pare": 3166, "Ġthought": 3167, "_con": 3168, "Ġtask": 3169, "ocus": 3170, "ĠDE": 3171, "ĠMin": 3172, "Ġopt": 3173, "ĉbreak": 3174, "umer": 3175, "KE": 3176, "then": 3177, "Ġdet": 3178, "ĠTest": 3179, "ports": 3180, "Ġreview": 3181, "('/": 3182, "move": 3183, "Ġswitch": 3184, "ERT": 3185, "patch": 3186, "annot": 3187, "Ġabove": 3188, "itive": 3189, "Ġquestion": 3190, "ĠQu": 3191, "gle": 3192, "Ġword": 3193, "Ġprovide": 3194, "ĠReturn": 3195, "Ġresearch": 3196, "Ã£o": 3197, "ustr": 3198, "Ġpublish": 3199, "chema": 3200, "}}": 3201, "ĠCON": 3202, "-in": 3203, "allback": 3204, "Ġcover": 3205, "\\\\": 3206, "color": 3207, "ĠIS": 3208, "Ġwhether": 3209, "imate": 3210, "isc": 3211, "Bar": 3212, "Ġdiv": 3213, "Be": 3214, "ourn": 3215, "Ġhaving": 3216, "lem": 3217, "player": 3218, "abs": 3219, "amera": 3220, "ney": 3221, "Ġexc": 3222, "gether": 3223, "plied": 3224, "ao": 3225, "[$": 3226, "Ġ++": 3227, "ipe": 3228, "show": 3229, "/d": 3230, "[:": 3231, "agement": 3232, "lev": 3233, "_ID": 3234, "rary": 3235, "ades": 3236, "_se": 3237, "ause": 3238, "Ġemploy": 3239, "Ġfre": 3240, "Ġ'@": 3241, "Ġcomplet": 3242, "Ġlarge": 3243, "ral": 3244, "\\x": 3245, "Ġfac": 3246, "<String": 3247, "Ġcreated": 3248, "uper": 3249, ".state": 3250, "Ġhost": 3251, "eneric": 3252, "/b": 3253, "(!": 3254, "while": 3255, "ias": 3256, "BUG": 3257, "Ġrole": 3258, "Reg": 3259, "ĠColor": 3260, "Start": 3261, "Ġporn": 3262, "top": 3263, "Ġweb": 3264, "Ġdev": 3265, "Ġdeal": 3266, "Integer": 3267, "position": 3268, ".on": 3269, "Ġ(\"": 3270, "Ġproblem": 3271, "sv": 3272, "Ġpress": 3273, "ABLE": 3274, "ATION": 3275, "ĠSee": 3276, "anch": 3277, "Ġthough": 3278, "leep": 3279, "Ġpoints": 3280, ".J": 3281, "Ġ::": 3282, "ptr": 3283, "DB": 3284, ".png": 3285, "node": 3286, "soft": 3287, "pond": 3288, "Ġever": 3289, "Menu": 3290, "('#": 3291, "Ġservices": 3292, "pg": 3293, "params": 3294, "Ġactually": 3295, "Ġ\"/": 3296, "Empty": 3297, "Method": 3298, "Ġident": 3299, "unic": 3300, "Ġmillion": 3301, "Ġaff": 3302, "style": 3303, "Ġconc": 3304, "ios": 3305, "ignment": 3306, "ULT": 3307, "Pr": 3308, "Ġunderstand": 3309, "uary": 3310, "Ġhappen": 3311, "Ġserver": 3312, "ĠCo": 3313, "SC": 3314, "Ġles": 3315, "Ġfiles": 3316, "Grid": 3317, "sql": 3318, "Ġoften": 3319, "Ġinfo": 3320, "_tr": 3321, "src": 3322, "ony": 3323, "Ġspace": 3324, "umb": 3325, "Ġpassword": 3326, "Ġstore": 3327, "ĠWhat": 3328, "ged": 3329, "ĠFalse": 3330, "Us": 3331, "swer": 3332, "_index": 3333, "Ġformat": 3334, "most": 3335, "sm": 3336, "New": 3337, "Ġdetails": 3338, "Ġprob": 3339, "ĠAND": 3340, "ilar": 3341, "Ġ${": 3342, "rypt": 3343, ".Collections": 3344, "$this": 3345, "ĠFree": 3346, "_of": 3347, "(false": 3348, "dated": 3349, "Ġ>>": 3350, "Ġface": 3351, "CTION": 3352, "Ġsave": 3353, "Ġtyp": 3354, "dev": 3355, "(\"#": 3356, "AGE": 3357, "container": 3358, "edit": 3359, "QL": 3360, "Ġitems": 3361, "Ġsocial": 3362, "ien": 3363, "ĠReact": 3364, "Ġmar": 3365, "Ġredu": 3366, "ĠRE": 3367, ".put": 3368, "Ġmajor": 3369, "Cell": 3370, "next": 3371, "Ġexpected": 3372, "Ġyet": 3373, "Ġindiv": 3374, "tributes": 3375, "atis": 3376, "amed": 3377, "Ġfood": 3378, "Source": 3379, "(string": 3380, "ites": 3381, "dr": 3382, "Ġmembers": 3383, "Ġcomb": 3384, "items": 3385, "ĠPer": 3386, "TH": 3387, "=True": 3388, "Ġbar": 3389, "_SE": 3390, "comm": 3391, "(w": 3392, "Ġsend": 3393, "Ġinc": 3394, "unsigned": 3395, "FA": 3396, "Ġparams": 3397, "apping": 3398, "ros": 3399, "ugin": 3400, "fa": 3401, "Ġconnection": 3402, "Ġbecome": 3403, "Mode": 3404, "Ġev": 3405, "Ġdiff": 3406, "ĠUnited": 3407, "Height": 3408, "fully": 3409, "images": 3410, "Ġmakes": 3411, "Ġglobal": 3412, "Ġcontact": 3413, "Ġabs": 3414, "float": 3415, "Ġexcept": 3416, "ĠPol": 3417, "Child": 3418, "typ": 3419, "Ġcertain": 3420, "iÃ³n": 3421, "OUT": 3422, "Ġimpro": 3423, "iles": 3424, "ĠPart": 3425, "values": 3426, "oss": 3427, "/**": 3428, "ilit": 3429, "ĠEvent": 3430, "curity": 3431, "ster": 3432, "Ġcharacter": 3433, "Ġnews": 3434, "Ġ\",": 3435, "Ġdevice": 3436, "cel": 3437, "login": 3438, "heet": 3439, "Default": 3440, "@\"": 3441, "click": 3442, "(value": 3443, "ĠAb": 3444, "Ġprevious": 3445, "ERROR": 3446, "ocal": 3447, "Ġmaterial": 3448, "Ġbelow": 3449, "ĠChrist": 3450, "Ġmedia": 3451, "cover": 3452, "ĠUI": 3453, "Ġfail": 3454, "Ġblack": 3455, "Ġcomponent": 3456, "ĠAmerican": 3457, "Ġadded": 3458, "Ġbuy": 3459, "stit": 3460, "Ġcame": 3461, "Ġdelete": 3462, "property": 3463, "oding": 3464, "Ġcard": 3465, "rops": 3466, "Ġhttps": 3467, "Ġroot": 3468, "Ġhandle": 3469, "CC": 3470, "Back": 3471, "emplate": 3472, "Ġgetting": 3473, "_by": 3474, "mail": 3475, "_sh": 3476, ".assert": 3477, "ĠDec": 3478, "(true": 3479, "Ġcomput": 3480, "Ġclaim": 3481, "'=>": 3482, "ĠSub": 3483, "Ġair": 3484, "ops": 3485, "nav": 3486, "ements": 3487, "(id": 3488, "Ġenter": 3489, "anged": 3490, "End": 3491, "Ġlocation": 3492, "Ġnight": 3493, "Ġdoing": 3494, "ĠRed": 3495, "lin": 3496, "vider": 3497, "Ġpick": 3498, "Ġwatch": 3499, "essages": 3500, "Ġhuman": 3501, "Ġdam": 3502, "pend": 3503, "dir": 3504, "Ġtax": 3505, "Ġgirl": 3506, "reet": 3507, "Ġbox": 3508, "Ġstrong": 3509, "(v": 3510, "rel": 3511, "Ġinterface": 3512, "Ġmsg": 3513, "fect": 3514, "_at": 3515, "Ġhouse": 3516, "Ġtrack": 3517, "je": 3518, "ĠJohn": 3519, "istr": 3520, "(S": 3521, "ube": 3522, "Ġce": 3523, "itted": 3524, "VER": 3525, "*)": 3526, "parent": 3527, "Ġapplication": 3528, "any": 3529, ".swing": 3530, "Ġpack": 3531, "\\u": 3532, "Ġpract": 3533, "Ġsection": 3534, "ctx": 3535, "Ġunsigned": 3536, ".Point": 3537, "ĠOne": 3538, "iple": 3539, "aid": 3540, "Vector": 3541, "byte": 3542, "Ġwait": 3543, "Ġtogether": 3544, "Ġthrows": 3545, "FO": 3546, "'))": 3547, "host": 3548, "ising": 3549, ".view": 3550, "Ġterms": 3551, "framework": 3552, "-r": 3553, "Ġapply": 3554, "Ġsession": 3555, "Options": 3556, "uggest": 3557, "Ġothers": 3558, "witter": 3559, "Ġfund": 3560, "Init": 3561, "__(": 3562, "ensor": 3563, "GET": 3564, "Ġseveral": 3565, "ii": 3566, "[j": 3567, "IO": 3568, "Ġtemplate": 3569, "Position": 3570, "Ġecon": 3571, "achine": 3572, "Ġil": 3573, ".spring": 3574, "main": 3575, "elt": 3576, "iment": 3577, "Rec": 3578, "mm": 3579, "ĠUniversity": 3580, "ursor": 3581, "GL": 3582, "icture": 3583, "ithub": 3584, "cer": 3585, "cast": 3586, "From": 3587, "ales": 3588, "Ġsubject": 3589, "password": 3590, "ny": 3591, "Ġesc": 3592, ".write": 3593, "What": 3594, ".H": 3595, "Ġhistory": 3596, "ĠFe": 3597, "Ġindividual": 3598, "unit": 3599, "Ġ-->": 3600, "Ġdu": 3601, "IST": 3602, "Ġusers": 3603, "fs": 3604, "false": 3605, "unt": 3606, "Title": 3607, "Ġmot": 3608, "Ġfuture": 3609, "ached": 3610, "Ġstarted": 3611, "Ġmode": 3612, "Ġ'<": 3613, "_array": 3614, "Ġax": 3615, "ires": 3616, "There": 3617, "ught": 3618, "tml": 3619, "posed": 3620, "icult": 3621, "Ġtook": 3622, "Ġgames": 3623, "Ġ}}": 3624, "Ġproducts": 3625, "Is": 3626, "Ġbad": 3627, "ĠDes": 3628, ".path": 3629, "ĠPost": 3630, "avel": 3631, "(:": 3632, "Ġneeds": 3633, "Ġknown": 3634, "Fl": 3635, "Ġexec": 3636, "Ġseen": 3637, "ume": 3638, "Ġborder": 3639, "Ġlive": 3640, "temp": 3641, "Per": 3642, "Ġvariable": 3643, "iet": 3644, "ĠDef": 3645, "Ġge": 3646, "eme": 3647, "_back": 3648, "first": 3649, "Ġprovided": 3650, "Ġfilename": 3651, "Ġhope": 3652, "uly": 3653, "auto": 3654, "find": 3655, "_string": 3656, "btn": 3657, "itude": 3658, "Attribute": 3659, "Ġyoung": 3660, ".txt": 3661, "Ġwebsite": 3662, "ĠProp": 3663, "Ġey": 3664, "ional": 3665, "ARR": 3666, "ictionary": 3667, "urther": 3668, ".</": 3669, "ALL": 3670, "Ġstudy": 3671, "ili": 3672, "Ġnetwork": 3673, "yl": 3674, "istance": 3675, "OK": 3676, "NU": 3677, "rest": 3678, "ĠST": 3679, "icrosoft": 3680, "Ġlimit": 3681, "Ġcut": 3682, "Ġcou": 3683, "ogn": 3684, "Ġsizeof": 3685, "ival": 3686, "Ġwent": 3687, ".z": 3688, "Link": 3689, "Ġfire": 3690, "Ġacross": 3691, "Ġcommunity": 3692, "region": 3693, "NE": 3694, "Ref": 3695, "Ġofficial": 3696, "Ġvisit": 3697, "olve": 3698, "Ġreceived": 3699, "Ġtoken": 3700, "Ġmonths": 3701, "Ġanim": 3702, "Ġparticular": 3703, "styles": 3704, "ico": 3705, "Ġess": 3706, ".Control": 3707, "ball": 3708, "Ġlearn": 3709, "inding": 3710, "Var": 3711, "Ġdecl": 3712, "(err": 3713, "LECT": 3714, "One": 3715, "pha": 3716, "Ġ~": 3717, "fort": 3718, "asure": 3719, "Ġmind": 3720, "ĠEnd": 3721, "Check": 3722, "Ġquick": 3723, "\"),": 3724, "AND": 3725, "utions": 3726, "Base": 3727, "Ġcomment": 3728, "INE": 3729, "âĢĻve": 3730, "But": 3731, "ĠEl": 3732, "ĠUs": 3733, "Ġadmin": 3734, "mark": 3735, "ĠName": 3736, "ĠType": 3737, "amic": 3738, "pc": 3739, "loor": 3740, "FT": 3741, "Ġopp": 3742, "cket": 3743, ")->": 3744, "tx": 3745, "Ġpur": 3746, "uel": 3747, "ymbol": 3748, "uation": 3749, "anger": 3750, "Ġbackground": 3751, "ecess": 3752, "efined": 3753, "Ġdescription": 3754, "Ġrepresent": 3755, "pression": 3756, "rowser": 3757, "Ġseries": 3758, "wards": 3759, "($_": 3760, "aise": 3761, "Ġhot": 3762, "acity": 3763, "ries": 3764, "actions": 3765, "Create": 3766, "adio": 3767, "amples": 3768, "Ġoriginal": 3769, "ensive": 3770, "font": 3771, "stream": 3772, "ï»¿using": 3773, ".springframework": 3774, "server": 3775, "Ġbill": 3776, "ACK": 3777, "ilename": 3778, "Ġframe": 3779, "Edit": 3780, "adius": 3781, "Ġdraw": 3782, "anks": 3783, "Ġdeter": 3784, "Ġcomes": 3785, "_int": 3786, "Ġforeach": 3787, "angle": 3788, "Ġelect": 3789, "pected": 3790, "Header": 3791, "istration": 3792, "False": 3793, "ĠGame": 3794, "Ġfilter": 3795, "Activity": 3796, "Ġlarg": 3797, "inition": 3798, "Ġ\"<": 3799, "ised": 3800, "Ġremove": 3801, "ĠTrans": 3802, "met": 3803, "see": 3804, "Format": 3805, "Command": 3806, "ĠEX": 3807, "None": 3808, "Ġfront": 3809, "ASE": 3810, "ĠRec": 3811, "oundation": 3812, "Ġvo": 3813, "=\\\"": 3814, "(*": 3815, "Change": 3816, ".Write": 3817, "group": 3818, "ients": 3819, "uy": 3820, "Ġdig": 3821, "hr": 3822, "(-": 3823, "Ġgen": 3824, "number": 3825, "vec": 3826, "urope": 3827, "entry": 3828, "LL": 3829, "Ġste": 3830, "Valid": 3831, "'],": 3832, "_param": 3833, "Ġselected": 3834, "Ġaccording": 3835, "ĠDis": 3836, "Ġutil": 3837, "Buffer": 3838, "_error": 3839, "Ġassoci": 3840, "_SIZE": 3841, "Ġwor": 3842, "Ġprintf": 3843, "rag": 3844, "DD": 3845, "ĠVal": 3846, "Ġactiv": 3847, "Eng": 3848, "etime": 3849, "Ġvirtual": 3850, "aign": 3851, "aur": 3852, "ĠPres": 3853, "ĠException": 3854, "Ġanything": 3855, "ĠOff": 3856, "Ġhours": 3857, "Ġwar": 3858, "Args": 3859, "aging": 3860, "Ġmodels": 3861, "ĠTime": 3862, "Ob": 3863, "ams": 3864, "joy": 3865, "Ġearly": 3866, ".read": 3867, "Ġcenter": 3868, "ĠInitial": 3869, "Ġlanguage": 3870, "length": 3871, "xy": 3872, "Ġsn": 3873, "Ġinf": 3874, "Post": 3875, "Ġago": 3876, "Ġeasy": 3877, "_code": 3878, "ĠANY": 3879, "_ch": 3880, "Ġdownload": 3881, "(T": 3882, "aved": 3883, "Ġstudents": 3884, "Ġfig": 3885, "light": 3886, "xx": 3887, "Ġbuffer": 3888, "ĠDep": 3889, "ĠMath": 3890, "ITH": 3891, "Ġvari": 3892, "Ġdue": 3893, "Factory": 3894, "Ġpor": 3895, "Ġep": 3896, "otype": 3897, "Ġcannot": 3898, "Ġwhite": 3899, "<int": 3900, "tern": 3901, "Ġregister": 3902, "Ġpred": 3903, "clus": 3904, "_date": 3905, "Ġ/**": 3906, "Ġauth": 3907, "Ġperiod": 3908, "nown": 3909, "Ġvot": 3910, "Ġscreen": 3911, "'d": 3912, "Types": 3913, "Ġtmp": 3914, "ural": 3915, "Ġbenef": 3916, "_y": 3917, "Ġnet": 3918, "ĠStates": 3919, "ĠNe": 3920, "ĠNOT": 3921, "Ġneg": 3922, "Ġcommon": 3923, "scope": 3924, "Ġcred": 3925, "ges": 3926, "_TYPE": 3927, "Ġsuggest": 3928, "oom": 3929, "Ġaccept": 3930, "Ġrandom": 3931, "erm": 3932, "ĠVector": 3933, "with": 3934, "TER": 3935, "(str": 3936, "Ġrespons": 3937, "Ġhit": 3938, ".Set": 3939, "grid": 3940, "ria": 3941, "Ġclick": 3942, "undle": 3943, "Case": 3944, "insert": 3945, "Utils": 3946, "Ġ\"\"\"": 3947, "Ġimplement": 3948, "atal": 3949, "tempt": 3950, "template": 3951, "ocr": 3952, "returns": 3953, "Ġplayers": 3954, "users": 3955, "edef": 3956, "ĠThese": 3957, "Ġamong": 3958, "Ġdeb": 3959, "ha": 3960, ".getElement": 3961, "Ġcirc": 3962, "Ġanswer": 3963, "Ġwalk": 3964, "Ġtreat": 3965, "ĠGe": 3966, "ĠCreate": 3967, "Ġage": 3968, "Ġreq": 3969, "OST": 3970, "angular": 3971, "Ġfive": 3972, "Ġdistributed": 3973, "Ġfriend": 3974, "TP": 3975, "Ġclean": 3976, "ows": 3977, ".Controls": 3978, "dis": 3979, "Ġwords": 3980, ".io": 3981, "zy": 3982, "Ġheader": 3983, "ĠCheck": 3984, "âĢĻm": 3985, "just": 3986, "holder": 3987, "ĠGNU": 3988, "ĠCol": 3989, "imest": 3990, "entic": 3991, "Ġtre": 3992, "last": 3993, "la": 3994, "ĠYork": 3995, "Lo": 3996, "Ġdiscuss": 3997, "ĠGod": 3998, "Ġissue": 3999, "rew": 4000, "Window": 4001, "Ġland": 4002, "Ġstream": 4003, "ĠPar": 4004, "Ġquality": 4005, "Par": 4006, "_num": 4007, "Ġsal": 4008, "elves": 4009, "ORD": 4010, "(user": 4011, "Ġworks": 4012, "Ġhalf": 4013, "enses": 4014, "vas": 4015, "Ġpolice": 4016, "(\"/": 4017, "ua": 4018, "Ġsimple": 4019, "Address": 4020, "Ġempty": 4021, "esh": 4022, "Update": 4023, "ĠCreated": 4024, "('.": 4025, "Ġagre": 4026, "ĠFROM": 4027, "Ġcook": 4028, "Ġeverything": 4029, "ilities": 4030, ".status": 4031, "Ġrelations": 4032, "extern": 4033, "Ġnothing": 4034, "Ġrunning": 4035, "ĉvoid": 4036, "RI": 4037, "_a": 4038, "_CON": 4039, "por": 4040, ".sub": 4041, "require": 4042, "ĠCity": 4043, "ĠWest": 4044, "Ġmor": 4045, "store": 4046, "Equals": 4047, "oder": 4048, "Ġna": 4049, "Ġ[[": 4050, "Ġ('": 4051, "ĠDon": 4052, "ERS": 4053, "/p": 4054, ".json": 4055, "abor": 4056, "Ġsomeone": 4057, "_text": 4058, ".css": 4059, ".Tab": 4060, "ĠSome": 4061, "ato": 4062, "double": 4063, "Ġshare": 4064, "(void": 4065, "_dir": 4066, "Ġur": 4067, "Stack": 4068, "ĠWorld": 4069, ".X": 4070, "stract": 4071, "How": 4072, ".Generic": 4073, "icles": 4074, "Ġentry": 4075, "Ġchanges": 4076, "Ġpersonal": 4077, "(A": 4078, "Ġoffset": 4079, "_ptr": 4080, "Ġpie": 4081, "ĠJan": 4082, "-group": 4083, "module": 4084, "Items": 4085, "ĠHowever": 4086, "verage": 4087, ".Font": 4088, "Ġevents": 4089, ".min": 4090, "Ġinvol": 4091, "za": 4092, "Ġwhole": 4093, "Ġneeded": 4094, "Ġlikely": 4095, "rief": 4096, "ORM": 4097, "version": 4098, "Ġfight": 4099, "Ġein": 4100, "Frame": 4101, "gen": 4102, "ĠOut": 4103, "avigation": 4104, "Length": 4105, "illed": 4106, "quence": 4107, "Ġ!==": 4108, "ĠSoftware": 4109, "Ġwriting": 4110, "Ġrate": 4111, "Panel": 4112, "inner": 4113, "Ġ[\"": 4114, "Ġtw": 4115, "cd": 4116, "_state": 4117, "ĠSm": 4118, "ĠMark": 4119, "prot": 4120, "ĠMr": 4121, "method": 4122, "ustomer": 4123, "Icon": 4124, "Ġcorrect": 4125, "(object": 4126, "ĠMore": 4127, "Ġfall": 4128, "Ġvol": 4129, "Ġdevelopment": 4130, "ently": 4131, "Ġsi": 4132, "medi": 4133, "ving": 4134, "PP": 4135, "aker": 4136, "Ġindu": 4137, "Ġelif": 4138, "Ġpret": 4139, "Ġbelieve": 4140, "ns": 4141, "omet": 4142, "ĠIntern": 4143, "Rect": 4144, "So": 4145, ".error": 4146, "Read": 4147, "Ġfeatures": 4148, "Ġminutes": 4149, "---": 4150, "asing": 4151, "cret": 4152, ".annot": 4153, "Ġcollection": 4154, "'.": 4155, "Ġsimilar": 4156, "Ġtaken": 4157, "(\"%": 4158, "Order": 4159, "-md": 4160, "ĠTH": 4161, "aced": 4162, "Ġisn": 4163, "/j": 4164, "Ġson": 4165, "graph": 4166, "ĠInteger": 4167, "Ġnecess": 4168, "reen": 4169, "Ġum": 4170, "Ġ\\<": 4171, "Ġmoment": 4172, "Ġbring": 4173, "Ġindic": 4174, "ysis": 4175, "Level": 4176, "verse": 4177, "urrenc": 4178, "_test": 4179, "Ġentire": 4180, "Down": 4181, "(result": 4182, "ĠRead": 4183, "Mod": 4184, "Ġtrying": 4185, "Ġmember": 4186, "ĠCor": 4187, "ODO": 4188, "-control": 4189, "untime": 4190, "ĠSim": 4191, "Dialog": 4192, "plot": 4193, "_on": 4194, "Ġphys": 4195, "}/": 4196, "Ġnamespace": 4197, "acc": 4198, "Player": 4199, "ARE": 4200, "Ġfoot": 4201, "Ġboard": 4202, "part": 4203, "Ġsus": 4204, "wise": 4205, "ĠMc": 4206, "Ġpush": 4207, "ATA": 4208, "Ġplease": 4209, "ried": 4210, "weet": 4211, "bit": 4212, "ided": 4213, "VE": 4214, "ĠSw": 4215, "UB": 4216, "Ġtypes": 4217, "edia": 4218, "Ġclos": 4219, "acebook": 4220, "When": 4221, "Ġedit": 4222, "igger": 4223, "Ġenerg": 4224, "Container": 4225, "Ġphot": 4226, "ĠCount": 4227, "ĠEurope": 4228, ".Is": 4229, "ĠRuss": 4230, "peed": 4231, "ĠStr": 4232, "Ġpy": 4233, "Ġcult": 4234, "Ġdefined": 4235, "ccount": 4236, "Ġobt": 4237, ".Location": 4238, "Ġthread": 4239, "ille": 4240, "Ġinstead": 4241, "strong": 4242, "ĠSec": 4243, "URE": 4244, "Ġidea": 4245, ".se": 4246, "emy": 4247, "selected": 4248, "Connection": 4249, "acing": 4250, "thread": 4251, ".next": 4252, "Ġcoll": 4253, "Ġfilm": 4254, "istic": 4255, "Ġcompet": 4256, "Ġconn": 4257, "though": 4258, "Ġcompan": 4259, "ocket": 4260, "Ġteach": 4261, "=(": 4262, "Ġphone": 4263, "Ġactive": 4264, "delete": 4265, "tries": 4266, "Ġmo": 4267, "Ġdeath": 4268, "ocol": 4269, "Widget": 4270, "Ġarticle": 4271, "rodu": 4272, "andid": 4273, "ĠCr": 4274, "ka": 4275, "():": 4276, "lood": 4277, "Ġalmost": 4278, "Ġsell": 4279, "ervlet": 4280, "rip": 4281, "Unit": 4282, "Ġapplic": 4283, "Ġconnect": 4284, "Ġfeature": 4285, "Ġvia": 4286, "'),": 4287, "Ġlim": 4288, "ĠGu": 4289, "Engine": 4290, "Ġens": 4291, "Ġenvironment": 4292, "block": 4293, "HERE": 4294, "NULL": 4295, "gy": 4296, "tag": 4297, ")).": 4298, "exp": 4299, "Ġcompl": 4300, "Ġinstall": 4301, "Ġcomplete": 4302, "queue": 4303, "atural": 4304, "Ġgeneral": 4305, "thon": 4306, "Ġasked": 4307, "ores": 4308, "(res": 4309, "Ġreserved": 4310, "SP": 4311, "Ġsignific": 4312, "Off": 4313, "ĠAg": 4314, "ĠJust": 4315, "ĠError": 4316, "Ġinfl": 4317, "adata": 4318, "Ġicon": 4319, "asks": 4320, "''": 4321, "_LO": 4322, "?.": 4323, "account": 4324, "Ġ(*": 4325, "rap": 4326, "_var": 4327, "ĠFOR": 4328, "Ġparty": 4329, "ĠYour": 4330, "cat": 4331, "stry": 4332, ".new": 4333, "boot": 4334, "ĠNov": 4335, "Ġvector": 4336, "Ġnormal": 4337, "Ġfurther": 4338, "Repository": 4339, "Ġdatabase": 4340, "attle": 4341, "Ġmusic": 4342, "Ġspeed": 4343, "Ġdoc": 4344, "process": 4345, "IGHT": 4346, ".parse": 4347, "Ġtaking": 4348, "Ġviol": 4349, "ceed": 4350, "ĠAfter": 4351, "Ġforward": 4352, "Ġcrit": 4353, "rot": 4354, "Ġfailed": 4355, "efore": 4356, "Ġconcern": 4357, "oe": 4358, "ba": 4359, "Ġsender": 4360, "Ġterm": 4361, "has": 4362, "=\"#": 4363, "Ġpotential": 4364, "Num": 4365, "Ġpublished": 4366, ".close": 4367, "ĠImage": 4368, "straint": 4369, "UD": 4370, "ĠOb": 4371, "Ġprobably": 4372, "lim": 4373, "olume": 4374, "Ġconsum": 4375, "ague": 4376, "ensions": 4377, "Ġinvestig": 4378, "-year": 4379, "');": 4380, "-sm": 4381, "Ġenjoy": 4382, "orig": 4383, "ering": 4384, "cp": 4385, "leased": 4386, "plements": 4387, "Ġreturns": 4388, "pat": 4389, "BO": 4390, "ĠHouse": 4391, ".Label": 4392, "Ġweight": 4393, "ighb": 4394, "Ġconditions": 4395, "Ġexception": 4396, "description": 4397, "Ġtrad": 4398, "-to": 4399, "Ġ{}": 4400, "Ġmodule": 4401, "END": 4402, ".ap": 4403, ".props": 4404, "Ġconstructor": 4405, "aves": 4406, "Ġfavor": 4407, "ĠNow": 4408, ";i": 4409, "ĠMain": 4410, "_k": 4411, "eries": 4412, "âĢĻll": 4413, "transform": 4414, "imestamp": 4415, "Pre": 4416, "Ġmer": 4417, ".res": 4418, "stant": 4419, "Location": 4420, "_NAME": 4421, "Ġloss": 4422, "net": 4423, "Ġengine": 4424, "Block": 4425, "Ġissues": 4426, "Ġparse": 4427, "ĠBar": 4428, "Ġstay": 4429, "ĠJSON": 4430, "Ġdom": 4431, "airs": 4432, "wner": 4433, "Ġlower": 4434, "ĠDem": 4435, "ufact": 4436, "Ġps": 4437, "Ġperfect": 4438, "RL": 4439, "Ġeduc": 4440, "ls": 4441, "emory": 4442, "ARRANT": 4443, "uge": 4444, "Ġexact": 4445, ".key": 4446, "alled": 4447, "ech": 4448, "ief": 4449, "\\/": 4450, "oke": 4451, "Ġformer": 4452, "alloc": 4453, "Ġsix": 4454, "ida": 4455, "Ġmargin": 4456, "Ġheart": 4457, "ald": 4458, "pack": 4459, ".getElementById": 4460, "ĠWARRANT": 4461, "Ġrather": 4462, "Ġbuilding": 4463, "erman": 4464, "lice": 4465, "Ġquestions": 4466, "izes": 4467, "lege": 4468, "irectory": 4469, "Ġje": 4470, "Ġcas": 4471, "props": 4472, "utf": 4473, "Ġsecurity": 4474, "Ġhowever": 4475, "weight": 4476, "Ġinside": 4477, "Ġpresident": 4478, "Char": 4479, "ĠWITH": 4480, ".map": 4481, "Ġgraph": 4482, "Ġtag": 4483, "_status": 4484, "Ġattempt": 4485, "opp": 4486, "uses": 4487, "ĉconst": 4488, "Ġround": 4489, ",$": 4490, "Ġfriends": 4491, "Email": 4492, "?>": 4493, "Resource": 4494, "KEY": 4495, "osp": 4496, ".query": 4497, "ĠNorth": 4498, "ables": 4499, "istrib": 4500, "_class": 4501, "ello": 4502, "That": 4503, "pecially": 4504, "ĠPresident": 4505, "Ġcampaign": 4506, "Ġalt": 4507, "area": 4508, "Ġchall": 4509, "Ġopport": 4510, ".Con": 4511, "Ġenergy": 4512, "like": 4513, ".string": 4514, "ington": 4515, ")*": 4516, "yy": 4517, "Ġprofession": 4518, "irth": 4519, "Ġseg": 4520, "Ġhor": 4521, "iers": 4522, "can": 4523, "Ġbehind": 4524, "Product": 4525, "fg": 4526, "ĠSk": 4527, ".jpg": 4528, "?:": 4529, "Ġcallback": 4530, "ĠHttp": 4531, "long": 4532, "MS": 4533, "ATH": 4534, "Ġraise": 4535, "Ġwanted": 4536, "rown": 4537, "utor": 4538, "lt": 4539, "]=": 4540, "eline": 4541, "MA": 4542, "Ġsepar": 4543, "cs": 4544, "semb": 4545, "Dis": 4546, "bserv": 4547, "ĠWill": 4548, "Ġpolicy": 4549, "Ġthird": 4550, "phone": 4551, "Ġbed": 4552, "/g": 4553, ".__": 4554, "ĠInc": 4555, "izing": 4556, ".remove": 4557, "instance": 4558, ".type": 4559, "Ġserv": 4560, "Each": 4561, "Ġhar": 4562, "ĠMessage": 4563, "(key": 4564, "SELECT": 4565, "Pos": 4566, "Ġrecomm": 4567, "Ġtraining": 4568, "ĠEnt": 4569, "ĠChar": 4570, "icht": 4571, "(file": 4572, "Ġprior": 4573, "Game": 4574, "Ġexit": 4575, "Params": 4576, ".core": 4577, "PC": 4578, "nes": 4579, "anced": 4580, "(request": 4581, "Password": 4582, "Ġmag": 4583, "Ġrelease": 4584, "Ġshall": 4585, "udent": 4586, "ĠSouth": 4587, "ando": 4588, ":'": 4589, ".TabIndex": 4590, "sk": 4591, "anner": 4592, "isset": 4593, "Ġoutside": 4594, "ledge": 4595, "ĠRob": 4596, "Ġimm": 4597, "ĠWeb": 4598, "Des": 4599, "BC": 4600, "ancial": 4601, "Route": 4602, "Dec": 4603, "ferences": 4604, "Ġpurch": 4605, "ĠModel": 4606, "ctor": 4607, "gn": 4608, "_start": 4609, "_un": 4610, ".*": 4611, "ises": 4612, "Ġground": 4613, "Ġunique": 4614, "Ġbeaut": 4615, "{\"": 4616, "Ġpour": 4617, "ĠOct": 4618, "Ġtree": 4619, "sets": 4620, "_res": 4621, "_reg": 4622, "(\"\\": 4623, "Ġbyte": 4624, "Bl": 4625, "Ġdating": 4626, "Ġmatter": 4627, "ĠRem": 4628, "ĠAug": 4629, "ĠLa": 4630, "Ġ$(": 4631, "ournal": 4632, "iam": 4633, "Ġshows": 4634, "write": 4635, "Ġball": 4636, "Ġsimply": 4637, "Ġfast": 4638, "Ġmemory": 4639, "ASS": 4640, "ĠOf": 4641, "oved": 4642, "ante": 4643, "aul": 4644, "istry": 4645, "Ġfit": 4646, "<string": 4647, "Ġpolitical": 4648, "ancel": 4649, "_.": 4650, "card": 4651, ".current": 4652, "och": 4653, "_image": 4654, "\\t": 4655, "(L": 4656, "Ġindustry": 4657, "coming": 4658, "Ġextra": 4659, "Ġreported": 4660, ".start": 4661, "Ġresources": 4662, "Ġimg": 4663, "flow": 4664, "_EX": 4665, "(null": 4666, "ĠPre": 4667, "Ġwrong": 4668, "interface": 4669, "Parameter": 4670, "ners": 4671, "ture": 4672, "ersist": 4673, "ountry": 4674, "Ġseems": 4675, "alance": 4676, "dest": 4677, "ĉString": 4678, "Ġmaint": 4679, "Ġunit": 4680, "acters": 4681, "ĠTR": 4682, "iful": 4683, "exports": 4684, "project": 4685, "Application": 4686, "legate": 4687, "Ġtakes": 4688, "term": 4689, "Ġetc": 4690, "uster": 4691, "Ġappear": 4692, "address": 4693, "Ġfem": 4694, "hs": 4695, "Ġhom": 4696, ",-": 4697, "Ġdifficult": 4698, "Ġcoming": 4699, "Open": 4700, "Ġsettings": 4701, "ĠWar": 4702, "ĠThen": 4703, "Ġautom": 4704, "ĠFoundation": 4705, "Ġquite": 4706, "Description": 4707, "Ġblog": 4708, "iqu": 4709, "PS": 4710, "_field": 4711, "Json": 4712, "SSION": 4713, "ĠSch": 4714, "ĠLO": 4715, "Ġdescri": 4716, "Ġeveryone": 4717, "Ġpretty": 4718, "Ġlonger": 4719, "Ġmenu": 4720, "Ġcurrently": 4721, "sec": 4722, "Ġrelationship": 4723, "ĠMap": 4724, "aset": 4725, "Ġparameters": 4726, "Ġcrush": 4727, "ILITY": 4728, "igration": 4729, "Ġcout": 4730, "total": 4731, "Ġnames": 4732, "ndef": 4733, "\");": 4734, "riend": 4735, "ynamic": 4736, "Ġeffort": 4737, "Ġactual": 4738, "Ġfields": 4739, "OUN": 4740, "ters": 4741, "Ġfix": 4742, "_model": 4743, "Ġcases": 4744, "CA": 4745, "My": 4746, "Interface": 4747, "ĠSE": 4748, "]]": 4749, "alle": 4750, "ĠNational": 4751, "ĠArrayList": 4752, "inline": 4753, ".V": 4754, "ara": 4755, "refix": 4756, "asc": 4757, "Reader": 4758, "astic": 4759, "(()": 4760, "Cl": 4761, ".annotation": 4762, "Ġperformance": 4763, "aily": 4764, ".toString": 4765, ".net": 4766, "views": 4767, ".end": 4768, "ayers": 4769, "late": 4770, "ĠApr": 4771, "ederal": 4772, "'])": 4773, ".body": 4774, "Ġhigher": 4775, "_fl": 4776, "cr": 4777, "alert": 4778, "_node": 4779, "ĠGoogle": 4780, "Ġitself": 4781, "Auth": 4782, "urrency": 4783, "Ġsignificant": 4784, "append": 4785, "Ġrespect": 4786, "strap": 4787, "Ġuna": 4788, "riteria": 4789, "PORT": 4790, ".apache": 4791, "Output": 4792, "Ġprogress": 4793, "Ġmid": 4794, "ĠMicrosoft": 4795, "Ġresource": 4796, "ablish": 4797, "Ġdim": 4798, ".load": 4799, ".App": 4800, "Ġdirection": 4801, "Ġadditional": 4802, "Ġnumbers": 4803, "Ġcompanies": 4804, ".Th": 4805, "Ġsound": 4806, "username": 4807, "Ġstatement": 4808, "Ġalert": 4809, "Ġcontract": 4810, "home": 4811, "_length": 4812, ".Component": 4813, "ev": 4814, ".Ex": 4815, "\";": 4816, "ĠHigh": 4817, "ĠPoint": 4818, "oph": 4819, "Ġlines": 4820, "->_": 4821, "ox": 4822, "application": 4823, "Ġsoon": 4824, "ctions": 4825, "inger": 4826, "Ġjoin": 4827, "ĠPe": 4828, "Ġlas": 4829, ".E": 4830, "css": 4831, "/or": 4832, "ĠStart": 4833, "ĠTO": 4834, "Ġsubs": 4835, "conn": 4836, "components": 4837, "DEBUG": 4838, "quare": 4839, "Function": 4840, "endar": 4841, ".index": 4842, "Ġfill": 4843, "Ġchoose": 4844, "how": 4845, "ĠAmerica": 4846, "assets": 4847, "ĠValue": 4848, "Ġoffice": 4849, "Ġveh": 4850, "Ġtransform": 4851, "ĠArt": 4852, "Ġinde": 4853, "Ġfn": 4854, "Ġimplements": 4855, "ango": 4856, "plete": 4857, "+\"": 4858, "tmp": 4859, "amily": 4860, "Ġhash": 4861, "missions": 4862, "EST": 4863, "gt": 4864, "Provider": 4865, "Ġflag": 4866, "Ġparticip": 4867, "den": 4868, "ĠReturns": 4869, "Ġnote": 4870, "Ã¼r": 4871, "pm": 4872, "ideos": 4873, "Ġspecified": 4874, "ĠEN": 4875, "ester": 4876, "olid": 4877, "Ġupon": 4878, "(std": 4879, "ĉv": 4880, "Ġ'\\": 4881, "uz": 4882, "Ġvert": 4883, "Ġvict": 4884, "ĉself": 4885, "Ġ\"$": 4886, ".k": 4887, "Ġgroups": 4888, "github": 4889, "lang": 4890, "Ġmut": 4891, "TO": 4892, "Ġve": 4893, "ĠPlease": 4894, "access": 4895, "Ġ{\"": 4896, "rea": 4897, "Ġrisk": 4898, "icker": 4899, "oggle": 4900, "ĉwhile": 4901, "ANG": 4902, ".send": 4903, "Ġwoman": 4904, "Ġgets": 4905, "Ġign": 4906, "ĠId": 4907, "_log": 4908, "ONE": 4909, "Ġevid": 4910, "ĠHar": 4911, "_sub": 4912, "Ġendl": 4913, "Ġincluded": 4914, "ĠAp": 4915, "igr": 4916, "Ġsem": 4917, "ĠBlack": 4918, "doc": 4919, "_table": 4920, "-up": 4921, "Ġcause": 4922, "Ġ..": 4923, "Ġvan": 4924, "_dict": 4925, "Ġfocus": 4926, "IND": 4927, "CESS": 4928, ".Log": 4929, "Ġmultiple": 4930, "ido": 4931, "Ġregard": 4932, "-M": 4933, "andler": 4934, "ourse": 4935, "Ġdeg": 4936, ".U": 4937, "Ġaddition": 4938, "Ġvarious": 4939, "Ġreceive": 4940, "ĠHT": 4941, "Obj": 4942, "DF": 4943, "Ġincrease": 4944, "ĠOpen": 4945, "];": 4946, "Ġcommit": 4947, "ategories": 4948, "atory": 4949, "ship": 4950, "ĠMich": 4951, "Ġhtml": 4952, "romise": 4953, "Ġleave": 4954, "Ġstrateg": 4955, "aven": 4956, "ĠConsole": 4957, "known": 4958, "-n": 4959, "_LE": 4960, ".component": 4961, "Ġbre": 4962, "Session": 4963, "iance": 4964, "Ġalign": 4965, "typedef": 4966, "_result": 4967, "ĠWHERE": 4968, ".split": 4969, "Ġreading": 4970, "FAULT": 4971, "Ġclo": 4972, "Ġnotice": 4973, "_pr": 4974, "arter": 4975, "Ġlock": 4976, "Ġstandard": 4977, "etic": 4978, "ellow": 4979, "Ġpadding": 4980, "ĠHis": 4981, "Ġstates": 4982, "_cast": 4983, "(P": 4984, "aa": 4985, "Ġinternal": 4986, "ean": 4987, "ĠPRO": 4988, "ĠKey": 4989, "Ġespecially": 4990, "ming": 4991, "Ġcross": 4992, "Ġnational": 4993, "_object": 4994, "filter": 4995, "Ġscript": 4996, ".update": 4997, "_i": 4998, "ĠAssert": 4999, "/core": 5000, "Ġproblems": 5001, "istor": 5002, "Ġ.=": 5003, "Ġarch": 5004, "Ġwritten": 5005, "Ġmilit": 5006, "MENT": 5007, ".ch": 5008, "cape": 5009, "ĠMus": 5010, "_config": 5011, "ĠAPI": 5012, "foot": 5013, "Ġimages": 5014, "endl": 5015, ".In": 5016, "First": 5017, "Ġplatform": 5018, ".prot": 5019, "Option": 5020, "ste": 5021, "ĠTODO": 5022, "Ġforce": 5023, ".cont": 5024, "ĉecho": 5025, "ĠDav": 5026, "Ptr": 5027, "(B": 5028, "RT": 5029, "ĠBase": 5030, "]['": 5031, "Ġannounc": 5032, "console": 5033, "ĠPy": 5034, "ds": 5035, ".as": 5036, "Ġprevent": 5037, "apan": 5038, "Ġ{'": 5039, "}</": 5040, "ĠService": 5041, "ĠSen": 5042, "ador": 5043, "profile": 5044, "Top": 5045, "Ġiter": 5046, "po": 5047, "IES": 5048, "JSON": 5049, "IE": 5050, "iant": 5051, "_j": 5052, "ĠSept": 5053, "_map": 5054, "bum": 5055, "(context": 5056, "ĠHome": 5057, "ians": 5058, "GB": 5059, "Ġliving": 5060, "Ġpattern": 5061, "(input": 5062, "icient": 5063, "Core": 5064, "Ġentity": 5065, "Ġinteg": 5066, "Changed": 5067, "Ġuseful": 5068, ".info": 5069, "Ġtool": 5070, "(item": 5071, "Ġok": 5072, "Ġfeed": 5073, "IX": 5074, "Ã©s": 5075, "ĠNews": 5076, "remove": 5077, "erry": 5078, "ipment": 5079, "ares": 5080, "Do": 5081, "Current": 5082, ".content": 5083, ".Group": 5084, "ustral": 5085, "})": 5086, "Ġpopular": 5087, "Ġstre": 5088, "Ġmethods": 5089, "_ERROR": 5090, "Left": 5091, "cal": 5092, "bsp": 5093, ".ToString": 5094, "Ġdir": 5095, "Ġallowed": 5096, "Ġimpact": 5097, ".config": 5098, "Ġelements": 5099, "Ġprote": 5100, "Ġtrain": 5101, ".tr": 5102, "rs": 5103, "ĠRepublic": 5104, "ĠTask": 5105, "aries": 5106, "(D": 5107, "(get": 5108, "Ġrelated": 5109, "Ġvers": 5110, "Ġsil": 5111, "Ġcmd": 5112, "Ġtechnology": 5113, ".width": 5114, "Float": 5115, "ĠUse": 5116, "Body": 5117, "should": 5118, ".join": 5119, "Font": 5120, "llum": 5121, "ycle": 5122, "ĠBrit": 5123, "Ġmit": 5124, "Ġscale": 5125, "Ġ(_": 5126, "ernel": 5127, "Ġscore": 5128, "/v": 5129, "Ġstudent": 5130, "UC": 5131, ".show": 5132, "Ġaverage": 5133, "Enabled": 5134, "(ex": 5135, "common": 5136, "imation": 5137, ":@\"": 5138, "chie": 5139, "river": 5140, "ĠMarch": 5141, "category": 5142, "fin": 5143, "Ġcourt": 5144, "Server": 5145, "Ġcontainer": 5146, "-st": 5147, "_for": 5148, "Ġparts": 5149, "Ġdecision": 5150, "obs": 5151, "oub": 5152, "mitted": 5153, "Ġsaw": 5154, "Ġapproach": 5155, "ICE": 5156, "Ġsaying": 5157, "Ġanyone": 5158, "meta": 5159, "SD": 5160, "Ġsong": 5161, "display": 5162, "Oper": 5163, "outes": 5164, "Ġchannel": 5165, "Ġchanged": 5166, "Ġfinally": 5167, "_number": 5168, "Please": 5169, "oring": 5170, "-re": 5171, "Ġkill": 5172, "Ġdrug": 5173, "window": 5174, "Ġconvert": 5175, "ombre": 5176, "Ġways": 5177, "Helper": 5178, "ĠFirst": 5179, "(__": 5180, "urity": 5181, "ĠWindows": 5182, "ees": 5183, "Ġmat": 5184, "rapper": 5185, "Ġplus": 5186, "anges": 5187, "\"].": 5188, "azon": 5189, "/t": 5190, "lat": 5191, "aste": 5192, "Ġprofile": 5193, "Ġready": 5194, "#ifndef": 5195, "rote": 5196, "Ġsense": 5197, "Gener": 5198, "ĠConfig": 5199, "omy": 5200, "ĠJune": 5201, "Ġlatest": 5202, "Ġsaf": 5203, "Ġregion": 5204, "Ġdeep": 5205, "witch": 5206, "ĠPark": 5207, "}`": 5208, "ĠFrom": 5209, "II": 5210, "Ġcv": 5211, "Ġreach": 5212, "Ġcounter": 5213, "ĠWork": 5214, "ĠURL": 5215, "ĠUpdate": 5216, "Ġimmedi": 5217, "close": 5218, "ados": 5219, "ferred": 5220, "Ġweeks": 5221, "urg": 5222, "Ġdamage": 5223, "Ġlost": 5224, "ani": 5225, "_lo": 5226, "Ġhimself": 5227, "Ġdog": 5228, "pir": 5229, "tt": 5230, "Ġpaper": 5231, "Ġthems": 5232, "second": 5233, "Ġstaff": 5234, "ĠInput": 5235, "\"+": 5236, "ĠFacebook": 5237, "Ġalloc": 5238, "Ġsched": 5239, "ACE": 5240, "Ġthemselves": 5241, "ĠComponent": 5242, "Ġdriver": 5243, "ja": 5244, "(path": 5245, "Ġcategory": 5246, "alls": 5247, "pu": 5248, "lluminate": 5249, "ĠAction": 5250, ".button": 5251, "ĠGL": 5252, "istics": 5253, "Ġoil": 5254, "Ġstock": 5255, ">'": 5256, "Ġdead": 5257, "VAL": 5258, "QUE": 5259, "Ġcharg": 5260, "Return": 5261, "Ġful": 5262, "dom": 5263, "Ġrules": 5264, "Ġmodify": 5265, "Ġeval": 5266, "ham": 5267, "atement": 5268, "\\<": 5269, "ula": 5270, "=False": 5271, "RA": 5272, "Ġcontains": 5273, "Ġstack": 5274, "mar": 5275, "Ġundefined": 5276, "Ass": 5277, "ĠChina": 5278, "vey": 5279, "Ġplaying": 5280, ")/": 5281, "actor": 5282, "Ġbottom": 5283, "lier": 5284, "ĠNumber": 5285, "Ġcouple": 5286, "DC": 5287, "ĠSO": 5288, "gor": 5289, ".setText": 5290, "success": 5291, "command": 5292, "Filter": 5293, "ĠOur": 5294, "_item": 5295, "Ġctx": 5296, "Ġroad": 5297, "Version": 5298, "case": 5299, "urt": 5300, "avior": 5301, "ych": 5302, "sembly": 5303, "ĠProduct": 5304, "Ġheld": 5305, "afe": 5306, "Ġincludes": 5307, "<quote": 5308, "Ġavoid": 5309, "ĠFin": 5310, "ĠMod": 5311, "Ġtab": 5312, "ano": 5313, "ipping": 5314, "-e": 5315, "Ġinsert": 5316, "target": 5317, "chan": 5318, ".Model": 5319, "IME": 5320, "Ġmachine": 5321, "avy": 5322, "ĠNO": 5323, "ĠInter": 5324, "Ġoperation": 5325, "modal": 5326, "Tag": 5327, "]:": 5328, "Ġproduction": 5329, "Ġareas": 5330, "Ġren": 5331, "_from": 5332, "nbsp": 5333, "Ġoperator": 5334, "men": 5335, "apped": 5336, "_per": 5337, "zen": 5338, "(\".": 5339, ".save": 5340, "Ġtor": 5341, "(response": 5342, "Ġcandid": 5343, "Ġconv": 5344, "ailed": 5345, "ĠLib": 5346, "comp": 5347, "ura": 5348, "ĠHere": 5349, "Ġargument": 5350, "hood": 5351, "Ġestablish": 5352, "ography": 5353, "ĠonClick": 5354, "ambda": 5355, "Ġsch": 5356, "Ġmovie": 5357, "Ġsec": 5358, "Ġactivity": 5359, "Ġsql": 5360, "_all": 5361, "incip": 5362, "Ġprovides": 5363, "Ġsys": 5364, "acket": 5365, "Ġwasn": 5366, "Ġuses": 5367, "ĠFunction": 5368, ".google": 5369, "ĠResult": 5370, "Visible": 5371, "agma": 5372, "elcome": 5373, "ĠSy": 5374, "ĠCent": 5375, "ALSE": 5376, "aciÃ³n": 5377, "EXT": 5378, "Ġlicense": 5379, "ĠLong": 5380, "Ġaccom": 5381, "Ġability": 5382, ".height": 5383, "Active": 5384, "ological": 5385, "oly": 5386, ")),": 5387, ".Se": 5388, "Ġparameter": 5389, "prite": 5390, "ABILITY": 5391, ".service": 5392, "ĠGroup": 5393, "_query": 5394, "ĠItem": 5395, "ining": 5396, "Ġjud": 5397, "ims": 5398, "fix": 5399, "inder": 5400, "agram": 5401, "Ġfunctions": 5402, "Ġexperi": 5403, "ĠEm": 5404, "Ġrot": 5405, "Ġpen": 5406, ".btn": 5407, "ĠAS": 5408, "#ifdef": 5409, "Ġchoice": 5410, "ĠPage": 5411, "_PRO": 5412, "QU": 5413, "antity": 5414, "words": 5415, "Ġreadonly": 5416, "Ġflex": 5417, "protected": 5418, "ĠAny": 5419, "Ġcharacters": 5420, "enced": 5421, "ĠJuly": 5422, "iler": 5423, "Card": 5424, "urance": 5425, "Ġrev": 5426, ".event": 5427, "aly": 5428, "Ġwonder": 5429, "ĠPort": 5430, "Ġlegal": 5431, "role": 5432, "Ġten": 5433, "Ġgoes": 5434, "MP": 5435, "white": 5436, "Ġreference": 5437, "Ġmis": 5438, "ĠProject": 5439, "icks": 5440, ">&": 5441, "CON": 5442, "Ġrepl": 5443, "Ġregular": 5444, "Storage": 5445, "ramework": 5446, "Ġgoal": 5447, "Ġtouch": 5448, ".widget": 5449, "Ġbuilt": 5450, "des": 5451, "Part": 5452, "(re": 5453, "Ġworth": 5454, "hib": 5455, "game": 5456, "acion": 5457, "ĠWhite": 5458, "(type": 5459, "(`": 5460, "Ġnatural": 5461, "Ġinj": 5462, "Ġcalcul": 5463, "ĠApril": 5464, ".List": 5465, "Ġassociated": 5466, "ĉSystem": 5467, "~~": 5468, "=[": 5469, "Ġstorage": 5470, "Ġbytes": 5471, "Ġtravel": 5472, "Ġsou": 5473, "Ġpassed": 5474, "!=": 5475, "ascript": 5476, ".open": 5477, "Ġgrid": 5478, "Ġbus": 5479, "Ġrecogn": 5480, "Ab": 5481, "Ġhon": 5482, "ĠCenter": 5483, "Ġprec": 5484, "build": 5485, "HTML": 5486, "ĠSan": 5487, "Ġcountries": 5488, "aled": 5489, "token": 5490, "kt": 5491, "Ġqual": 5492, "Last": 5493, "adow": 5494, "Ġmanufact": 5495, "idad": 5496, "jango": 5497, "Next": 5498, "xf": 5499, ".a": 5500, "Ġporno": 5501, "ĠPM": 5502, "erve": 5503, "iting": 5504, "_th": 5505, "ci": 5506, "=None": 5507, "gs": 5508, "Ġlogin": 5509, "atives": 5510, "Ġill": 5511, "IA": 5512, "children": 5513, "DO": 5514, "Ġlevels": 5515, "Ġ{{": 5516, "Ġlooks": 5517, "Ġ\"#": 5518, "ToString": 5519, "Ġnecessary": 5520, "cell": 5521, "Entry": 5522, "Ġ'#": 5523, "Ġextrem": 5524, "Selector": 5525, "Ġplaceholder": 5526, "Load": 5527, "Ġreleased": 5528, "ORE": 5529, "Enumer": 5530, "ĠTV": 5531, "SET": 5532, "inq": 5533, "Press": 5534, "ĠDepartment": 5535, "Ġproperties": 5536, "Ġrespond": 5537, "Search": 5538, "ael": 5539, "Ġrequ": 5540, "ĠBook": 5541, "(st": 5542, "Ġfinancial": 5543, "icket": 5544, "_input": 5545, "Ġthreat": 5546, "(in": 5547, "Strip": 5548, "Ã§Ã£o": 5549, "Ġevidence": 5550, "));": 5551, "ĠBro": 5552, "Ġou": 5553, "buf": 5554, "Script": 5555, "dat": 5556, "Ġrule": 5557, "#import": 5558, "=\"/": 5559, "Serial": 5560, "Ġstarting": 5561, "[index": 5562, "ae": 5563, "Ġcontrib": 5564, "session": 5565, "_new": 5566, "utable": 5567, "ober": 5568, "Ġ\"./": 5569, "Ġlogger": 5570, "Ġrecently": 5571, "Ġreturned": 5572, "itions": 5573, "Ġseek": 5574, "Ġcommunic": 5575, "Ġ\".": 5576, "Ġusername": 5577, "ECT": 5578, "DS": 5579, "Ġotherwise": 5580, "ĠGerman": 5581, ".aw": 5582, "Adapter": 5583, "ixel": 5584, "Ġsystems": 5585, "Ġdrop": 5586, "Ġstructure": 5587, "encies": 5588, "anning": 5589, "ĠLink": 5590, "ĠResponse": 5591, "Ġstri": 5592, "ĠDB": 5593, "android": 5594, "submit": 5595, "otion": 5596, "(@": 5597, ".test": 5598, "Ġdirectly": 5599, "Ġ\"%": 5600, "ris": 5601, "elta": 5602, "AIL": 5603, "mine": 5604, "(k": 5605, "bon": 5606, "asic": 5607, "pite": 5608, "___": 5609, "Max": 5610, "Ġerrors": 5611, "ĠWhile": 5612, "Ġarguments": 5613, "Ġensure": 5614, "Right": 5615, "-based": 5616, "Web": 5617, "Ġ-=": 5618, "Ġintrodu": 5619, "ĠInst": 5620, "ĠWash": 5621, "ordin": 5622, "join": 5623, "Database": 5624, "Ġgrad": 5625, "Ġusually": 5626, "ITE": 5627, "Props": 5628, "ĠGo": 5629, "@Override": 5630, "REF": 5631, "Ġip": 5632, "ĠAustral": 5633, "Ġist": 5634, "ViewById": 5635, "Ġserious": 5636, "Ġcustomer": 5637, ".prototype": 5638, "odo": 5639, "cor": 5640, "Ġdoor": 5641, "ĠWITHOUT": 5642, "Ġplant": 5643, "Ġbegan": 5644, "Ġdistance": 5645, "Ġchance": 5646, "Ġord": 5647, "came": 5648, "pragma": 5649, "Ġprotect": 5650, "ragment": 5651, "ĠNode": 5652, "ening": 5653, "Ġroute": 5654, "ĠSchool": 5655, "hi": 5656, "Ġneighb": 5657, "After": 5658, "licit": 5659, "Ġcontr": 5660, "Ġprimary": 5661, "AA": 5662, ".WriteLine": 5663, "utils": 5664, "Ġbi": 5665, "Red": 5666, ".Linq": 5667, ".object": 5668, "Ġleaders": 5669, "unities": 5670, "Ġgun": 5671, "onth": 5672, "ĠDev": 5673, "FILE": 5674, "Ġcomments": 5675, "_len": 5676, "arrow": 5677, "amount": 5678, "Range": 5679, "sert": 5680, "GridView": 5681, "Ġupdated": 5682, "ĠMo": 5683, "Ġinform": 5684, "ociety": 5685, "ala": 5686, "Access": 5687, "Ġhab": 5688, "Ġcreat": 5689, "_arg": 5690, "ĠJanuary": 5691, "ĠDay": 5692, "uple": 5693, "document": 5694, "gorith": 5695, "menu": 5696, "ĠOver": 5697, "bb": 5698, ".title": 5699, "_out": 5700, "Ġled": 5701, "uri": 5702, "gl": 5703, "Ġbank": 5704, "ayment": 5705, "ĉprintf": 5706, "MD": 5707, "Ġsample": 5708, "Ġhands": 5709, "ĠVersion": 5710, "uario": 5711, "Ġoffers": 5712, "ityEngine": 5713, "Ġshape": 5714, "Ġsleep": 5715, "_point": 5716, "Settings": 5717, "Ġachie": 5718, "Ġsold": 5719, "ota": 5720, ".bind": 5721, "Am": 5722, "Ġsafe": 5723, "Store": 5724, "Ġshared": 5725, "Ġpriv": 5726, "_VAL": 5727, "Ġsens": 5728, "){": 5729, "Ġremember": 5730, "shared": 5731, "element": 5732, "Ġshoot": 5733, "Vert": 5734, "cout": 5735, "Ġenv": 5736, "_label": 5737, "run": 5738, "Ġscene": 5739, "(array": 5740, "device": 5741, "_title": 5742, "agon": 5743, "aby": 5744, "Ġbecame": 5745, "boolean": 5746, "Ġpark": 5747, "ĠCode": 5748, "upload": 5749, "riday": 5750, "ĠSeptember": 5751, "Fe": 5752, "Ġsen": 5753, "cing": 5754, "FL": 5755, "Col": 5756, "uts": 5757, "_page": 5758, "inn": 5759, "Ġimplied": 5760, "aling": 5761, "Ġyourself": 5762, ".Count": 5763, "conf": 5764, "Ġaud": 5765, "_init": 5766, ".)": 5767, "Ġwrote": 5768, "NG": 5769, ".Error": 5770, ".for": 5771, "Ġequal": 5772, "ĠRequest": 5773, "Ġserial": 5774, "Ġallows": 5775, "XX": 5776, "Ġmiddle": 5777, "chor": 5778, "erval": 5779, ".Column": 5780, "reading": 5781, "Ġescort": 5782, "ĠAugust": 5783, "Ġquickly": 5784, "Ġweap": 5785, "ĠCG": 5786, "ropri": 5787, "ho": 5788, "Ġcop": 5789, "(struct": 5790, "ĠBig": 5791, "Ġvs": 5792, "Ġfrequ": 5793, ".Value": 5794, "Ġactions": 5795, "Ġproper": 5796, "Ġinn": 5797, "Ġobjects": 5798, "Ġmatrix": 5799, "avascript": 5800, "Ġones": 5801, ".group": 5802, "Ġgreen": 5803, "Ġpaint": 5804, "ools": 5805, "ycl": 5806, "encode": 5807, "olt": 5808, "comment": 5809, ".api": 5810, "Dir": 5811, "Ġune": 5812, "izont": 5813, ".position": 5814, "Ġdesigned": 5815, "_val": 5816, "avi": 5817, "iring": 5818, "tab": 5819, "Ġlayer": 5820, "Ġviews": 5821, "Ġreve": 5822, "rael": 5823, "ĠON": 5824, "rics": 5825, "np": 5826, "Ġcore": 5827, "Main": 5828, "Ġexpert": 5829, "_en": 5830, "Ġ/>": 5831, "utter": 5832, "IAL": 5833, "ails": 5834, "ĠKing": 5835, "ĠMet": 5836, "_end": 5837, "addr": 5838, "ora": 5839, "Ġir": 5840, "Min": 5841, "Ġsurpr": 5842, "Ġrepe": 5843, "Ġdirectory": 5844, "PUT": 5845, "-S": 5846, "Ġelection": 5847, "haps": 5848, ".pre": 5849, "cm": 5850, "Values": 5851, "column": 5852, "ivil": 5853, "Login": 5854, "inue": 5855, "Ġbeautiful": 5856, "Ġsecret": 5857, "(event": 5858, "Ġchat": 5859, "ums": 5860, "Ġorigin": 5861, "Ġeffects": 5862, "Ġmanagement": 5863, "illa": 5864, "tk": 5865, "Ġsetting": 5866, "ĠCour": 5867, "Ġmassage": 5868, "ĉend": 5869, "Ġhappy": 5870, "Ġfinish": 5871, "Ġcamera": 5872, "ĠVer": 5873, "ĠDemocr": 5874, "ĠHer": 5875, "(Q": 5876, "cons": 5877, "ita": 5878, "Ġ'.": 5879, "{}": 5880, "ĉC": 5881, "Ġstuff": 5882, "ĠAR": 5883, "Task": 5884, "hidden": 5885, "eros": 5886, "IGN": 5887, "atio": 5888, "ĠHealth": 5889, "olute": 5890, "Enter": 5891, "'>": 5892, "ĠTwitter": 5893, "ĠCounty": 5894, "scribe": 5895, "Ġhy": 5896, "fit": 5897, "Ġmilitary": 5898, "Ġsale": 5899, "required": 5900, "non": 5901, "bootstrap": 5902, "hold": 5903, "rim": 5904, "-old": 5905, "ĠDown": 5906, "Ġmention": 5907, "contact": 5908, "_group": 5909, "oday": 5910, "Ġtown": 5911, "Ġsolution": 5912, "uate": 5913, "elling": 5914, "]->": 5915, "otes": 5916, "ental": 5917, "omen": 5918, "ospital": 5919, "ĠSup": 5920, "_EN": 5921, "Ġslow": 5922, "SESSION": 5923, "Ġblue": 5924, "ago": 5925, "Ġlives": 5926, "Ġ^": 5927, ".un": 5928, "inst": 5929, "enge": 5930, "Ġcustomers": 5931, "Ġcast": 5932, "udget": 5933, "icens": 5934, "Ġdetermin": 5935, "Selected": 5936, "_pl": 5937, "ueue": 5938, "Ġdark": 5939, "si": 5940, "thern": 5941, "ĠJapan": 5942, "/w": 5943, "PU": 5944, "ĠEast": 5945, "ovie": 5946, "Ġpackage": 5947, "Ġnor": 5948, "Ġapi": 5949, "bot": 5950, "_post": 5951, "ulate": 5952, "Ġclub": 5953, "Ġloop": 5954, "PIO": 5955, "ione": 5956, "shot": 5957, "Initial": 5958, "Ġplayed": 5959, "register": 5960, "rought": 5961, "_max": 5962, "acement": 5963, "match": 5964, "raphics": 5965, "AST": 5966, "Ġexisting": 5967, "Ġcomplex": 5968, "DA": 5969, ".Ch": 5970, ".common": 5971, "mo": 5972, "ito": 5973, "Ġanalysis": 5974, "Ġdeliver": 5975, "idx": 5976, "ongo": 5977, "ĠEnglish": 5978, "Ġcomputer": 5979, "ENSE": 5980, "Ġpas": 5981, "Ġrais": 5982, "Hash": 5983, "Ġmobile": 5984, "Ġowner": 5985, "FIG": 5986, "thes": 5987, "Ġattr": 5988, "wd": 5989, ".time": 5990, "awn": 5991, "Ġtreatment": 5992, "ĠAc": 5993, ".View": 5994, "impl": 5995, "more": 5996, "pass": 5997, "Ġha": 5998, ".from": 5999, "Ġleading": 6000, "FFFF": 6001, "(error": 6002, ".ui": 6003, "atar": 6004, "aders": 6005, "dates": 6006, "Ġzu": 6007, "Ġflow": 6008, "Target": 6009, "Ġinvolved": 6010, "Ġio": 6011, "parse": 6012, "$_": 6013, "hest": 6014, ".int": 6015, "-item": 6016, "asy": 6017, "Sp": 6018, "Ġshift": 6019, "NT": 6020, "Ġtf": 6021, "_TR": 6022, ".web": 6023, "CS": 6024, "Ġ})": 6025, "Ġeyes": 6026, "_z": 6027, "iforn": 6028, "Ġ{@": 6029, "Ġnice": 6030, ".list": 6031, "Ġfloor": 6032, "Ġredirect": 6033, "ĠUK": 6034, "(['": 6035, "Ġwish": 6036, "Ġcapt": 6037, "legal": 6038, "ĠIO": 6039, "Ġstage": 6040, ".String": 6041, "ĠAfr": 6042, "igen": 6043, "ĠSH": 6044, "Delete": 6045, "ells": 6046, "Ġsolid": 6047, "Ġmeeting": 6048, "Ġworked": 6049, "Ġeditor": 6050, "iny": 6051, "_read": 6052, ".Id": 6053, "eff": 6054, "Offset": 6055, "cha": 6056, "USER": 6057, "ipped": 6058, "Ġdict": 6059, "ĠRun": 6060, ".hpp": 6061, "Ġang": 6062, "xml": 6063, "imple": 6064, "Ġmedical": 6065, "_token": 6066, "connect": 6067, "Ġhour": 6068, "Ġcontroller": 6069, "_message": 6070, "UID": 6071, "Gr": 6072, "anded": 6073, "_CH": 6074, "Ġbooks": 6075, "Ġspeak": 6076, "aming": 6077, "Ġmount": 6078, "Record": 6079, "ĉstruct": 6080, ".Web": 6081, "ondon": 6082, "Ġfelt": 6083, ".Auto": 6084, "idge": 6085, "_pos": 6086, "PR": 6087, "Ġmodern": 6088, "Collection": 6089, "_msg": 6090, "CD": 6091, "ĠLo": 6092, "Ġseconds": 6093, "ibly": 6094, ".equals": 6095, "Ġinternational": 6096, "#pragma": 6097, "ooth": 6098, "Writer": 6099, "iate": 6100, "Ġcele": 6101, "ĠBit": 6102, "ivo": 6103, "ivery": 6104, "rd": 6105, "HECK": 6106, "Ġcache": 6107, ".count": 6108, "Ġroll": 6109, ".Read": 6110, "RED": 6111, "Ġsetup": 6112, "izontal": 6113, "models": 6114, "argv": 6115, "Ġconsidered": 6116, "settings": 6117, "ĠRel": 6118, "Ġgrowth": 6119, "Ġmix": 6120, "ĠWashington": 6121, "Ġplt": 6122, "ĠIM": 6123, "Ġturned": 6124, "ĠDateTime": 6125, "ĠWed": 6126, "(url": 6127, "Ġ\"-": 6128, "Ġletter": 6129, "Async": 6130, "ĠOctober": 6131, "_line": 6132, "Ġattention": 6133, "Ġcollect": 6134, "ĠHash": 6135, "Ġimag": 6136, "Tree": 6137, "Ġsituation": 6138, "ette": 6139, "_no": 6140, "IVE": 6141, "Ġvon": 6142, ".target": 6143, "Ġknowledge": 6144, "Ġdrive": 6145, ".post": 6146, "Ġblood": 6147, "Ġcit": 6148, "primary": 6149, "Ġconfiguration": 6150, "tee": 6151, "Ġphoto": 6152, "isode": 6153, "Trace": 6154, "Ġgave": 6155, "Ġshot": 6156, "ĠAir": 6157, "Ġmother": 6158, "price": 6159, "Ġmorning": 6160, "-x": 6161, "Ġtrade": 6162, "Ġdesc": 6163, "Ġparents": 6164, "Api": 6165, "ted": 6166, "wer": 6167, "Ġsy": 6168, "ĠKe": 6169, "Parser": 6170, "ancy": 6171, "Ġpiece": 6172, "ifornia": 6173, "toString": 6174, "ran": 6175, "iding": 6176, "PTION": 6177, "comes": 6178, "/lic": 6179, ".client": 6180, "El": 6181, "Long": 6182, "Ġprofessional": 6183, "rupt": 6184, "va": 6185, "Ġcompletely": 6186, "Ġpractice": 6187, "Ġselection": 6188, "Rem": 6189, "ini": 6190, "Ġcam": 6191, "REE": 6192, "Ġsites": 6193, "pa": 6194, "ATUS": 6195, "arrant": 6196, "*(": 6197, "_KEY": 6198, "ĠButton": 6199, "ĠFriday": 6200, "sequ": 6201, "Ġreader": 6202, "Ġmessages": 6203, "Ġbuf": 6204, "Ke": 6205, "Ġnov": 6206, "HP": 6207, "Msg": 6208, "align": 6209, "arily": 6210, "Ġ',": 6211, "_with": 6212, "Ġdas": 6213, "Ġheard": 6214, "atomic": 6215, "rial": 6216, ")[": 6217, "Ġdise": 6218, "@end": 6219, "Ġgold": 6220, "Ġfair": 6221, "Ġsales": 6222, ".Button": 6223, "strict": 6224, "save": 6225, "Ġmeasure": 6226, "Ġ\"+": 6227, "ecause": 6228, "ViewController": 6229, "ĠTable": 6230, ".param": 6231, "Ġdecided": 6232, "(((": 6233, "INFO": 6234, "Ġopportunity": 6235, "Te": 6236, "ICENSE": 6237, "ccording": 6238, "ki": 6239, "ĠUN": 6240, "Ġcontain": 6241, "Ġmanager": 6242, "Ġpain": 6243, "ĠFire": 6244, "rome": 6245, "Ġplans": 6246, "Found": 6247, "lay": 6248, "ĠDecember": 6249, "Ġinflu": 6250, "rench": 6251, "azing": 6252, "brief": 6253, "call": 6254, "wood": 6255, "Ġloaded": 6256, "Ġgrand": 6257, "/f": 6258, "imp": 6259, "_U": 6260, "STR": 6261, "Ġcredit": 6262, ".Color": 6263, "orge": 6264, "QUEST": 6265, "Ġdifference": 6266, "ĠPC": 6267, "wargs": 6268, "Ġpub": 6269, "unday": 6270, "Ġfra": 6271, ".max": 6272, "Ġtried": 6273, "annels": 6274, "send": 6275, "Ġreports": 6276, "Ġadult": 6277, "Ġconsist": 6278, "ĠStreet": 6279, "ĠProgram": 6280, "SQL": 6281, "Matrix": 6282, "ouncil": 6283, "-A": 6284, "ĉw": 6285, "Ġwhose": 6286, "Ġrelig": 6287, "ĠSex": 6288, "Ġgives": 6289, "none": 6290, ".message": 6291, "(G": 6292, ".awt": 6293, "-right": 6294, "ĠNovember": 6295, "ellig": 6296, "utive": 6297, "overn": 6298, "Ġeasily": 6299, "Ġideas": 6300, "/css": 6301, "lying": 6302, "elle": 6303, "Can": 6304, "_color": 6305, "Ġpair": 6306, "ngth": 6307, "Ġsplit": 6308, "drop": 6309, "arty": 6310, "ona": 6311, "Ġcapital": 6312, "Ġhear": 6313, "Ġexists": 6314, "ĉlog": 6315, "emo": 6316, "Run": 6317, "oi": 6318, "Ġparser": 6319, "ĠMethod": 6320, "Ġeducation": 6321, "[k": 6322, "Ġlibrary": 6323, "_UN": 6324, "ĉstd": 6325, "oded": 6326, "Ġcalls": 6327, "here": 6328, "Rel": 6329, "Ġbrand": 6330, "background": 6331, "ga": 6332, "_address": 6333, "_params": 6334, "Category": 6335, "ĠIndia": 6336, "_event": 6337, "Ġing": 6338, "Render": 6339, ".cl": 6340, "umpy": 6341, "Ġpet": 6342, "FC": 6343, "ĠAnt": 6344, "Ext": 6345, "Ġcharge": 6346, "ened": 6347, "grad": 6348, "EO": 6349, "Ġdepend": 6350, "frame": 6351, "Ġdf": 6352, "Ġhuge": 6353, "ĠPART": 6354, "eds": 6355, ";;": 6356, "ĠAM": 6357, "Ġbasic": 6358, "ĠLet": 6359, "lich": 6360, "Ġarm": 6361, "Ġstar": 6362, "Ġfederal": 6363, "Work": 6364, "Ġcarry": 6365, "ĠIsrael": 6366, "(obj": 6367, "={{": 6368, "Ġsaved": 6369, "Ġsyn": 6370, "Ġconstant": 6371, "VENT": 6372, "Ġpositive": 6373, "Ġconduct": 6374, "Ġskin": 6375, "Ġearlier": 6376, "Ġlayout": 6377, "ĠIP": 6378, "OUR": 6379, "Ġtim": 6380, "stylesheet": 6381, "_cl": 6382, "ĠCard": 6383, "Ġtemper": 6384, "ĠDavid": 6385, "ĉtry": 6386, ".dart": 6387, "Ġwants": 6388, "Ġpicture": 6389, "Ġvideos": 6390, "ĠComm": 6391, "isions": 6392, "_MAX": 6393, "Mapping": 6394, "-content": 6395, "ĠEar": 6396, "-de": 6397, "Ġprem": 6398, "bruary": 6399, "Ġcomponents": 6400, "Ġthroughout": 6401, "Ġpull": 6402, "Ġpages": 6403, "ente": 6404, "respond": 6405, "Ġgas": 6406, "criptor": 6407, "Ġedge": 6408, "Ġbound": 6409, "ACT": 6410, "Ġcreating": 6411, "ĠCH": 6412, "Ġnullptr": 6413, "Br": 6414, "+'": 6415, ".co": 6416, ">::": 6417, "Ġlearning": 6418, ".Length": 6419, "_SH": 6420, "Ġpatients": 6421, "AIN": 6422, "Ġkids": 6423, "Ġcomfort": 6424, "Ġshown": 6425, "ugins": 6426, "ĠBack": 6427, "ella": 6428, "_CL": 6429, "Ġlat": 6430, "Ġdispatch": 6431, "Ġclasses": 6432, ".at": 6433, ".begin": 6434, "Ġsuccessful": 6435, "ban": 6436, "Ġobtain": 6437, "ĠSl": 6438, "Ġlack": 6439, "iterator": 6440, "Thread": 6441, "(size": 6442, "Ġnone": 6443, ".has": 6444, "_X": 6445, "sort": 6446, "nap": 6447, "pet": 6448, "bin": 6449, "ĠCanada": 6450, "They": 6451, "Ġdans": 6452, "ĠMat": 6453, "<td": 6454, "Ġhair": 6455, "Ġcu": 6456, "Ġlaws": 6457, "leted": 6458, "ped": 6459, "Ġpow": 6460, "Ġknew": 6461, "_COM": 6462, "_,": 6463, "ĠMag": 6464, "idents": 6465, "(req": 6466, "Ġ),": 6467, "-center": 6468, "Ġwide": 6469, "ĠAuthor": 6470, "stants": 6471, "Ġjobs": 6472, "Ġmath": 6473, "etimes": 6474, "Boolean": 6475, "Ġscope": 6476, "_is": 6477, "Ġmeas": 6478, "Ġkeys": 6479, "elay": 6480, "Ġexactly": 6481, "ĠPaul": 6482, "mas": 6483, "ĉprint": 6484, "(len": 6485, "fd": 6486, "Ġ);": 6487, ".Event": 6488, "qli": 6489, "irit": 6490, "ields": 6491, "oman": 6492, "ĠTop": 6493, "Ġvote": 6494, "Ġmask": 6495, "Ġtheme": 6496, "Ġprops": 6497, "Ġfine": 6498, "Ġwriter": 6499, "_offset": 6500, "car": 6501, "Ġaltern": 6502, "Ġcopyright": 6503, "Ġdestroy": 6504, "pper": 6505, "Ġgenerate": 6506, "pped": 6507, "âĢĻd": 6508, "make": 6509, "ĠShow": 6510, "Ġbrowser": 6511, "Ġfavorite": 6512, "Ġcareer": 6513, "Ġhappened": 6514, "(char": 6515, "Ġrecommend": 6516, "Ġliter": 6517, ".filter": 6518, "grade": 6519, "Phone": 6520, "oms": 6521, "Ġnamed": 6522, "-label": 6523, "ipo": 6524, "ĠOther": 6525, "Ġpanel": 6526, "Ġrock": 6527, "Scale": 6528, "ĉassert": 6529, "Ġtrust": 6530, "front": 6531, "Ġdemon": 6532, "Ar": 6533, "Net": 6534, "Ġeconomic": 6535, "footer": 6536, "Ġrace": 6537, "(node": 6538, "ĠOption": 6539, "split": 6540, "Ġphysical": 6541, "ifest": 6542, "Ġremoved": 6543, ".http": 6544, "Ġlooked": 6545, "';": 6546, "ding": 6547, "gest": 6548, "aturday": 6549, "/licenses": 6550, "Price": 6551, "Ġdro": 6552, "Ġtowards": 6553, "Ġuns": 6554, "ĠCL": 6555, "ĉstatic": 6556, "Ġrows": 6557, "Ġdefine": 6558, ".replace": 6559, "Ġfather": 6560, "ĠDesign": 6561, "assign": 6562, "mut": 6563, "Device": 6564, "Did": 6565, "ometry": 6566, "ayload": 6567, "Ġhistor": 6568, "ĠParam": 6569, "ĠBoolean": 6570, "Ġnature": 6571, "Ġjs": 6572, "Ġnation": 6573, "ih": 6574, "Ġdiscover": 6575, "sem": 6576, "Handle": 6577, "ĉr": 6578, "ĠTechn": 6579, "Ġwall": 6580, "{$": 6581, "@property": 6582, "Ġexam": 6583, ".draw": 6584, "opping": 6585, "Ġnearly": 6586, "Ġcool": 6587, "Ġindepend": 6588, "RES": 6589, "Ġhandler": 6590, "ĠMonday": 6591, "Ġsun": 6592, "Styles": 6593, "ously": 6594, "vest": 6595, "Display": 6596, "(y": 6597, "atically": 6598, "Ġpredict": 6599, "ying": 6600, "Ġsometimes": 6601, "Ġdrink": 6602, "Ġbul": 6603, "ifications": 6604, ".insert": 6605, ".reg": 6606, "Ġtests": 6607, "Alignment": 6608, "Ġalleg": 6609, "Ġattribute": 6610, "ĠNote": 6611, "Ġmyself": 6612, "arts": 6613, "Now": 6614, "Ġinteresting": 6615, "lients": 6616, "Ġpopulation": 6617, "ĠCalifornia": 6618, "\"I": 6619, "Ġgreater": 6620, "uesday": 6621, "Ġthous": 6622, "Ġcosts": 6623, "Ġlaunch": 6624, "\\Http": 6625, "ker": 6626, "band": 6627, "ĠPlay": 6628, "Ġband": 6629, ".shape": 6630, "esome": 6631, "article": 6632, ".rf": 6633, "Ġwer": 6634, "Ã¡s": 6635, "embers": 6636, "usr": 6637, "BA": 6638, "ican": 6639, "ett": 6640, "validate": 6641, "ulti": 6642, "Ġimmediately": 6643, "zer": 6644, "Ġfigure": 6645, "oes": 6646, "eller": 6647, "ircle": 6648, "ĠSign": 6649, ".db": 6650, "Ġrank": 6651, "Bytes": 6652, "Ġprojects": 6653, "_rec": 6654, "ULAR": 6655, "API": 6656, "ĠLine": 6657, "Port": 6658, "Ġpoll": 6659, "Ġgiving": 6660, "idence": 6661, "Ġplot": 6662, "icial": 6663, "Ġwarrant": 6664, "ITION": 6665, "ĠDouble": 6666, "Ġbillion": 6667, "gorithm": 6668, "Ġequipment": 6669, "DATE": 6670, "Ġ@\"": 6671, "EE": 6672, "Ġple": 6673, "iation": 6674, "Ġheaders": 6675, "Ġproced": 6676, ".ComponentModel": 6677, "ĠObama": 6678, "Ġpa": 6679, "ĠBest": 6680, "imately": 6681, ".getString": 6682, ".\\": 6683, "mploy": 6684, "Ġraw": 6685, "_block": 6686, "undred": 6687, ".GroupLayout": 6688, "Ġbrought": 6689, "NSString": 6690, "throw": 6691, "created": 6692, ".New": 6693, "_view": 6694, "CP": 6695, "eps": 6696, "Op": 6697, "Ġgratis": 6698, "Ġ'\"": 6699, "Ġinterview": 6700, "Ġpartial": 6701, "Ġaria": 6702, "bing": 6703, "Author": 6704, "Book": 6705, "ĠPat": 6706, "uman": 6707, "Users": 6708, "plus": 6709, "ĠDirect": 6710, "venue": 6711, "alpha": 6712, "UCCESS": 6713, "ĠCall": 6714, "imated": 6715, "Ġremain": 6716, "Ġanti": 6717, "ĠLondon": 6718, "Ġsafety": 6719, "POSE": 6720, "oles": 6721, "controller": 6722, "Byte": 6723, "ĠCourt": 6724, "ĠPhil": 6725, "ĠAssoci": 6726, "ena": 6727, "_STR": 6728, "coin": 6729, "reshold": 6730, "Ġbatch": 6731, "_Click": 6732, "entication": 6733, "enty": 6734, "Ġbeginning": 6735, "Ġzero": 6736, "ĠConvert": 6737, "Ġterr": 6738, "Ġpaid": 6739, "Ġincreased": 6740, "catch": 6741, "-size": 6742, "activity": 6743, "equals": 6744, "Ġqueue": 6745, "Ġ\"'": 6746, "ĠInternational": 6747, "ĠfÃ¼r": 6748, "ursday": 6749, "Ġscient": 6750, "allow": 6751, "axis": 6752, "Ġappropri": 6753, "edge": 6754, "Ġidx": 6755, "Success": 6756, "entifier": 6757, ":\\": 6758, "xis": 6759, "Ġmaximum": 6760, "arks": 6761, "Ġbirth": 6762, "(index": 6763, "Ġmaybe": 6764, ".py": 6765, "files": 6766, "Ġlimited": 6767, "_check": 6768, "look": 6769, "plies": 6770, "Ġmovement": 6771, "'].": 6772, "Ġbroad": 6773, "ĠBE": 6774, "ĠUnityEngine": 6775, ".cpp": 6776, "ĠEvery": 6777, "Admin": 6778, "Ġfans": 6779, "pared": 6780, "Ġforeign": 6781, "Ġpan": 6782, "Ġtour": 6783, "ĠOrder": 6784, "Ġmoving": 6785, "Ġauf": 6786, "Call": 6787, "cb": 6788, "ventory": 6789, "ĠSql": 6790, "Ġfully": 6791, "ClickListener": 6792, "WORD": 6793, "Ġannounced": 6794, "Ġagreed": 6795, "rie": 6796, "Ġearn": 6797, "_link": 6798, ".array": 6799, "(text": 6800, "Ġmaterials": 6801, ",p": 6802, "ffff": 6803, "vg": 6804, "Ġunless": 6805, "ajax": 6806, "LOG": 6807, "Ġsexual": 6808, "Ġ\\\"": 6809, "-time": 6810, "Ġcoach": 6811, "Ġsupported": 6812, "Ġphotos": 6813, "iform": 6814, ".Create": 6815, ")]": 6816, "rier": 6817, "Ġdialog": 6818, "aver": 6819, "ige": 6820, ")+": 6821, "_idx": 6822, ":[": 6823, "_min": 6824, "ĠCong": 6825, "Ġpressure": 6826, "Ġteams": 6827, "Sign": 6828, "begin": 6829, "rian": 6830, "NESS": 6831, "LS": 6832, "Ġimprove": 6833, "ĠSunday": 6834, "Ġdefinition": 6835, "iger": 6836, "rollers": 6837, "Ġthinking": 6838, "Template": 6839, "-F": 6840, "Ġemerg": 6841, "plates": 6842, "ĠUSA": 6843, ".setState": 6844, "ĠAlso": 6845, "rev": 6846, "Ġenable": 6847, "ĠCO": 6848, "PECT": 6849, "Ġconcept": 6850, ")-": 6851, "Ġsets": 6852, "Ġmeaning": 6853, "emon": 6854, "ĠCons": 6855, "cmp": 6856, "eder": 6857, "anned": 6858, "icensed": 6859, "ĠSuper": 6860, "Ġdaily": 6861, "Ġmulti": 6862, "_u": 6863, "Ġchalleng": 6864, "_mode": 6865, "ĠPromise": 6866, "Ġstrict": 6867, "jo": 6868, "inton": 6869, "(list": 6870, "Only": 6871, ">{": 6872, "Ġvehicle": 6873, "ĠPlayer": 6874, "ĠDel": 6875, "Ġpool": 6876, ".url": 6877, "nesday": 6878, "Local": 6879, "Ġorganization": 6880, "render": 6881, "ĠApplication": 6882, "Ġsummer": 6883, "expected": 6884, "NA": 6885, "Ġrap": 6886, "_obj": 6887, "Ġsurface": 6888, "ĠPUR": 6889, "Ġvariables": 6890, "(message": 6891, "Ġopin": 6892, ".back": 6893, "Ġworkers": 6894, "vm": 6895, "Co": 6896, "ughter": 6897, "Ġmaster": 6898, "Ġ\"\",": 6899, "Ġstories": 6900, ".User": 6901, "Ġcelebr": 6902, "inese": 6903, "BS": 6904, "ĠCommand": 6905, "ashboard": 6906, "Ġog": 6907, "kg": 6908, ".image": 6909, ".style": 6910, "Ġsteps": 6911, "ĠBen": 6912, "(args": 6913, "ĠPerson": 6914, ",y": 6915, "Ġofficials": 6916, "Ġskills": 6917, "vc": 6918, "Ġbuilder": 6919, "Ġgar": 6920, "Account": 6921, "ĠAuth": 6922, "ĠAT": 6923, "nn": 6924, ".Int": 6925, "SSERT": 6926, "Ġeffective": 6927, "LETE": 6928, "Ġtools": 6929, "ARD": 6930, "Ġdigital": 6931, "Double": 6932, "ĠFind": 6933, "RC": 6934, "Ġinline": 6935, "/r": 6936, "ARAM": 6937, "ASK": 6938, "Ġintent": 6939, "aight": 6940, "_addr": 6941, "Ġrequests": 6942, ".first": 6943, "Ġdebug": 6944, "Ġspent": 6945, "Ġprincip": 6946, "Logger": 6947, "cludes": 6948, ".use": 6949, "Ġsurv": 6950, "media": 6951, "ĠFebruary": 6952, "ĠMac": 6953, "Ġmissing": 6954, "Ġwife": 6955, "Ġtalking": 6956, "ĠMake": 6957, "Ġcart": 6958, "Ġlocated": 6959, "Enc": 6960, "-a": 6961, "chron": 6962, "Ġcards": 6963, "Ġguy": 6964, "Ġpers": 6965, "ĠYes": 6966, "atever": 6967, "ĠAng": 6968, "olar": 6969, "ĠEven": 6970, "Ġaccur": 6971, "ĠPower": 6972, "ĠGold": 6973, "clear": 6974, "Process": 6975, "Ġrecords": 6976, "Ġkilled": 6977, ".clear": 6978, "ĠWARRANTIES": 6979, "Ġpurpose": 6980, "panel": 6981, "JECT": 6982, "ÃŃa": 6983, "Ġexerc": 6984, "WS": 6985, "/L": 6986, ".exports": 6987, "Ġ___": 6988, "Ġsin": 6989, "Servlet": 6990, "ĠdÃ©": 6991, ".delete": 6992, "roke": 6993, "Sl": 6994, "ugh": 6995, "ears": 6996, "Ġpointer": 6997, "Ġhop": 6998, "allery": 6999, "Ġobs": 7000, "covery": 7001, "ĉchar": 7002, "ĉdef": 7003, "ocity": 7004, "itchen": 7005, "ulations": 7006, "ĠFIT": 7007, "Ġ).": 7008, "straints": 7009, "vention": 7010, "Ġrequires": 7011, "ĠOper": 7012, "ME": 7013, "OUNT": 7014, "allet": 7015, "Ġnorm": 7016, "IRE": 7017, "exas": 7018, "Ġprograms": 7019, "Ġweak": 7020, "'.$": 7021, "uing": 7022, "Ġmil": 7023, "Ġfirm": 7024, "initely": 7025, "_VALUE": 7026, "apse": 7027, "atisf": 7028, "Ġdemand": 7029, "_mod": 7030, "Ġdescribed": 7031, "Ġplaces": 7032, "VID": 7033, "Ġalone": 7034, "Ġexport": 7035, "Ġvec": 7036, "ĠMax": 7037, "Ġactivities": 7038, "ictures": 7039, "gener": 7040, "Ġma": 7041, "Ġexpression": 7042, "Callback": 7043, "_content": 7044, "ĠMost": 7045, "Ġtesting": 7046, "EC": 7047, "CHANT": 7048, "Ġadjust": 7049, ".Threading": 7050, "(ctx": 7051, "Ġagree": 7052, "ighest": 7053, "Ġui": 7054, "ĠLaw": 7055, ".Y": 7056, "><?": 7057, "Ġpod": 7058, "-lg": 7059, "Ġdescribe": 7060, "ĠEuropean": 7061, "-sh": 7062, "ĠPURPOSE": 7063, "ORY": 7064, "Ġconvers": 7065, "ĠIlluminate": 7066, "ĠAv": 7067, "(ch": 7068, "?\"": 7069, "chen": 7070, "ima": 7071, "Document": 7072, "Ġoperations": 7073, "win": 7074, "ĉfunction": 7075, ".Image": 7076, "Ġscen": 7077, "/h": 7078, "ĠSC": 7079, "Ġexplo": 7080, ":%": 7081, "NAME": 7082, "(var": 7083, "Ġdirector": 7084, "ONG": 7085, "Ġyield": 7086, "Ġfeet": 7087, "ĠSearch": 7088, "ĠIl": 7089, "Ġrestaur": 7090, "duc": 7091, "Ġinteger": 7092, "Ġhighly": 7093, "checked": 7094, "ĠPARTIC": 7095, "ERCHANT": 7096, "Ġoptim": 7097, "Queue": 7098, "ĠLI": 7099, "itation": 7100, "Ġtransport": 7101, "ission": 7102, "fill": 7103, "usion": 7104, "ĉbool": 7105, "-th": 7106, "upt": 7107, "Ġessential": 7108, "anted": 7109, "Ġbenefits": 7110, "ĉS": 7111, "iki": 7112, "Ġgirls": 7113, "iced": 7114, "buffer": 7115, "]+": 7116, "Ġsocket": 7117, "Ġprices": 7118, "ĠFre": 7119, "Ġsat": 7120, "Ġwood": 7121, "MenuItem": 7122, "ARG": 7123, "ĠAdmin": 7124, "OWN": 7125, "dk": 7126, "Ġreset": 7127, "Ġforms": 7128, "ĠTuesday": 7129, "ĠInitialized": 7130, "_train": 7131, "orary": 7132, "ategor": 7133, "Ġdt": 7134, "Total": 7135, "construct": 7136, "ilies": 7137, "Ġguys": 7138, "Ġinstruction": 7139, "yled": 7140, "Ġinternet": 7141, "etadata": 7142, "ady": 7143, "faces": 7144, "jection": 7145, "ĠJack": 7146, "Ġrect": 7147, "[-": 7148, "ĠLeg": 7149, "Ġdevices": 7150, "OC": 7151, "oration": 7152, "ertain": 7153, "Ġguard": 7154, "ostream": 7155, "Ġenum": 7156, ".layout": 7157, "voke": 7158, "ĠOk": 7159, "Home": 7160, "(tr": 7161, "ETH": 7162, "Ġdelay": 7163, "Ġpurchase": 7164, "dc": 7165, "Ġaren": 7166, "_once": 7167, "ror": 7168, "draw": 7169, ".run": 7170, "(model": 7171, "Timeout": 7172, "lik": 7173, "ĠArg": 7174, ".en": 7175, "Ġfish": 7176, "cpy": 7177, "_fe": 7178, "ERCHANTABILITY": 7179, "(X": 7180, "_output": 7181, "??": 7182, "Ġjo": 7183, "andard": 7184, "Ġdoll": 7185, "errors": 7186, "_base": 7187, "ĠPARTICULAR": 7188, "Ġleader": 7189, "Ġcompar": 7190, "Ġdoub": 7191, "ĠVis": 7192, "StackTrace": 7193, "-C": 7194, "ĠStud": 7195, "stitute": 7196, "More": 7197, "ĠDescription": 7198, "WARE": 7199, "ads": 7200, "bind": 7201, "=self": 7202, "employ": 7203, "[n": 7204, ".all": 7205, "-B": 7206, "&&": 7207, "alm": 7208, "Ġculture": 7209, "house": 7210, "Ġsuffer": 7211, "Ġ'%": 7212, "Ġstraight": 7213, "ĠStar": 7214, "udo": 7215, "Ġded": 7216, "ĠCOM": 7217, "Ġconfirm": 7218, "ĠGood": 7219, ".sc": 7220, "DR": 7221, "Configuration": 7222, "DateTime": 7223, "Ġadvert": 7224, "Ġcouldn": 7225, "async": 7226, "stack": 7227, "Kit": 7228, "Ġhous": 7229, "Ġmechan": 7230, "rate": 7231, "Ġaudio": 7232, "ĉcout": 7233, "cores": 7234, "Ġspot": 7235, "Ġincreasing": 7236, "Ġ##": 7237, ")))": 7238, "points": 7239, "Ġcompared": 7240, "lig": 7241, "Ġbehavior": 7242, "ĠBY": 7243, "ĠAtt": 7244, "craft": 7245, "headers": 7246, "ete": 7247, "endregion": 7248, "Ġdetail": 7249, "ULE": 7250, "ĠCommon": 7251, "ĉprotected": 7252, "ston": 7253, "ĠFITNESS": 7254, "Ġfresh": 7255, ".example": 7256, "berg": 7257, "Ġmoved": 7258, "ĉe": 7259, "ĠSaturday": 7260, "Ġpayload": 7261, "Ġbey": 7262, "urer": 7263, "<script": 7264, "Ġsymbol": 7265, "Ġassum": 7266, "Ġpul": 7267, "Effect": 7268, "Ġhundred": 7269, "Tool": 7270, "aked": 7271, "connection": 7272, "Ġvoice": 7273, "Ġpd": 7274, "Ġtransaction": 7275, "Ġlinks": 7276, "Err": 7277, "ĠIndian": 7278, "TC": 7279, "atalog": 7280, "ni": 7281, "sign": 7282, "<<\"": 7283, "ji": 7284, "ya": 7285, "Ġdemonstr": 7286, "ulated": 7287, ".St": 7288, "Ġinstit": 7289, "Ġboost": 7290, "Ġcells": 7291, "olic": 7292, ".Pro": 7293, ":</": 7294, "EventListener": 7295, "ifying": 7296, "ĠDi": 7297, "orrow": 7298, ".execute": 7299, "Ġcollege": 7300, "Your": 7301, "Ġlargest": 7302, ".dis": 7303, "Ġqui": 7304, "Ġindividuals": 7305, "_buffer": 7306, "Ġng": 7307, "SA": 7308, "ĠControl": 7309, "Ġsing": 7310, "Ġsuit": 7311, "SG": 7312, "Ġjump": 7313, "Ġsmart": 7314, "oma": 7315, "ĠExp": 7316, "Ġ'-": 7317, "Ġassist": 7318, "Ġsuccessfully": 7319, "sys": 7320, "ĠCre": 7321, "_ref": 7322, "ĠThursday": 7323, "Ġbur": 7324, "Ġbeyond": 7325, "Ġnodes": 7326, "Details": 7327, "inct": 7328, "ĠJames": 7329, "Ġaffect": 7330, "exception": 7331, "Ġtypeof": 7332, "-se": 7333, "Ġfetch": 7334, "`,": 7335, "Ġcrusher": 7336, "}.": 7337, "ĠBO": 7338, "Show": 7339, "Ġrates": 7340, "Ġbon": 7341, "-icon": 7342, "ĠMedia": 7343, "RESS": 7344, "ĠValid": 7345, "Ġfuck": 7346, "acks": 7347, "Ġstudies": 7348, "Me": 7349, "Ġowners": 7350, "}else": 7351, "Ġgrowing": 7352, "Variable": 7353, "ĠBel": 7354, ".random": 7355, "vement": 7356, "onym": 7357, "(F": 7358, "ĠFALSE": 7359, "Ġtorch": 7360, "(row": 7361, "igo": 7362, "structure": 7363, "Ġcertainly": 7364, "Dep": 7365, "ĠGreen": 7366, "question": 7367, "Ġadding": 7368, "ĠDevelop": 7369, "_def": 7370, "Ġmach": 7371, "=%": 7372, "conds": 7373, "Project": 7374, "Ġreject": 7375, "ĠÎ": 7376, "Ġpoor": 7377, "Ġaware": 7378, "ĠBuild": 7379, "ĠBritish": 7380, "ĠNE": 7381, "Ġnumer": 7382, "rees": 7383, "claim": 7384, "Ġmock": 7385, "Ġom": 7386, "Ġscre": 7387, "OLD": 7388, ".pl": 7389, "eler": 7390, "Ġcorrespond": 7391, "_HE": 7392, "Ġbinary": 7393, "_order": 7394, "ĠSQL": 7395, "Ġadvant": 7396, "Ġprev": 7397, ".[": 7398, ".assertEqual": 7399, "plier": 7400, "arp": 7401, "Ġclosed": 7402, "Ġencour": 7403, "ĠQString": 7404, "aud": 7405, "Ġdeveloped": 7406, "Ġpermission": 7407, ".debug": 7408, "operator": 7409, "Ġsym": 7410, "atively": 7411, "Ã©e": 7412, "-color": 7413, "ĠGET": 7414, "ky": 7415, "Ġalthough": 7416, "_request": 7417, "_element": 7418, "_DATA": 7419, "Ġamazing": 7420, "Ġsb": 7421, "ĠDefault": 7422, "Events": 7423, "Ġfailure": 7424, "acle": 7425, "Properties": 7426, "Ġdream": 7427, "Ġdistr": 7428, "Ġau": 7429, "Ġgenerated": 7430, "ĠTeam": 7431, "USE": 7432, "Ġincome": 7433, "Ġeye": 7434, "_not": 7435, "\"],": 7436, "_form": 7437, "Support": 7438, "orders": 7439, ".Print": 7440, "ville": 7441, "ĠWednesday": 7442, "olver": 7443, "Ġoppos": 7444, "isation": 7445, "ola": 7446, "Close": 7447, "<p": 7448, "_width": 7449, "Invalid": 7450, "xb": 7451, "Ġstrugg": 7452, "_action": 7453, "Ġtxt": 7454, "ĠPath": 7455, "alar": 7456, "ĠMERCHANTABILITY": 7457, "service": 7458, "ĠMichael": 7459, "ableView": 7460, "Debug": 7461, "okes": 7462, "She": 7463, "Ġguess": 7464, "ĠJava": 7465, "_PATH": 7466, "Ġparticularly": 7467, "ĠII": 7468, "Ġdomain": 7469, "Ġreduce": 7470, "-left": 7471, "real": 7472, "Ġappears": 7473, "Ġcomo": 7474, "ĠUnit": 7475, "ĠGovern": 7476, "ali": 7477, "allel": 7478, "ĠJew": 7479, "_I": 7480, "Ġcos": 7481, ".color": 7482, "ĠGlobal": 7483, "Ġtele": 7484, "ben": 7485, "_trans": 7486, "Ġreasons": 7487, "Ġemb": 7488, "ensity": 7489, "lines": 7490, "omin": 7491, "Screen": 7492, "pects": 7493, "clip": 7494, "foo": 7495, "rent": 7496, "Ġaf": 7497, "Ġdanger": 7498, "iling": 7499, "Names": 7500, "Our": 7501, "Ġdistribution": 7502, "While": 7503, "SL": 7504, "Write": 7505, "Ġgoto": 7506, "Ġcolors": 7507, "Ġpowerful": 7508, "kin": 7509, "Ġdepth": 7510, "ercial": 7511, "ĠCongress": 7512, "ĠMarket": 7513, "Db": 7514, "under": 7515, "ĠLast": 7516, "greg": 7517, "Ġposts": 7518, "_URL": 7519, "otos": 7520, "Don": 7521, "Ġmicro": 7522, "Ġarrest": 7523, "Ġ(@": 7524, "ĠHot": 7525, "ĠIndex": 7526, ";&": 7527, "#!": 7528, "ĠNor": 7529, "ĠCap": 7530, "-(": 7531, "Ġinterested": 7532, "pear": 7533, "Ġrent": 7534, "Ġalbum": 7535, "olicy": 7536, ".lang": 7537, ".trans": 7538, ".format": 7539, "phere": 7540, "Ġaxis": 7541, "ĠBusiness": 7542, "ersistence": 7543, "urr": 7544, "Ġminimum": 7545, "endor": 7546, "ĠSD": 7547, "ĠInternet": 7548, "Exp": 7549, "iverse": 7550, "MM": 7551, "Ġobvious": 7552, "Ġbasis": 7553, "Ġscience": 7554, "Ġbudget": 7555, "izations": 7556, "PA": 7557, "Ġflags": 7558, "pret": 7559, "LOCK": 7560, "Ġvariety": 7561, "Ġtruth": 7562, "dt": 7563, "Ġgone": 7564, "Ġbattle": 7565, "<std": 7566, "ĠSil": 7567, "rf": 7568, "uda": 7569, "Ġerot": 7570, "ĠCam": 7571, "Ġstation": 7572, "Ġ'</": 7573, "cheme": 7574, "ĠSun": 7575, "Ġfinished": 7576, "Ġshop": 7577, "ĠKore": 7578, "Ġeight": 7579, "_REG": 7580, "ND": 7581, ">,": 7582, "(num": 7583, "ĉinline": 7584, "Transaction": 7585, ".On": 7586, "Ġmail": 7587, "rey": 7588, "results": 7589, "Ġnav": 7590, "IMIT": 7591, "_ids": 7592, "Make": 7593, "Modal": 7594, "ĠLOG": 7595, "ĠSur": 7596, "Ġinstanceof": 7597, "Ġoverall": 7598, "ĠInformation": 7599, "Ġconstruction": 7600, "_FILE": 7601, "but": 7602, "Ġmedic": 7603, "Ġduration": 7604, "itness": 7605, "agent": 7606, "AV": 7607, "Ġseven": 7608, "olf": 7609, "Ġcalling": 7610, "Ġans": 7611, "throws": 7612, "orizontal": 7613, "ĠuseState": 7614, ".fl": 7615, "ĠStatus": 7616, "ĠOnline": 7617, "RR": 7618, "ĠRich": 7619, "ĠHill": 7620, "Ġbrain": 7621, "Ġfollowed": 7622, "emic": 7623, "Ġslight": 7624, "Ġinsurance": 7625, ".Array": 7626, "Ġabstract": 7627, "ĠSum": 7628, "redirect": 7629, "owner": 7630, "(msg": 7631, "ĠClinton": 7632, "Non": 7633, "ĉex": 7634, "Ġvolume": 7635, "ĠEventArgs": 7636, "-L": 7637, "ĠDim": 7638, "ĠMart": 7639, "Ġcursor": 7640, "Ġimplementation": 7641, "urred": 7642, "Ġlarger": 7643, "'+": 7644, ".transform": 7645, "Ġupload": 7646, "Draw": 7647, "nel": 7648, "ĉfloat": 7649, "qrt": 7650, "ĠNetwork": 7651, "Ġtit": 7652, "Axis": 7653, ".android": 7654, "Ġcompleted": 7655, "Ġmur": 7656, "Ġcolumns": 7657, "xc": 7658, "Ġsupply": 7659, "iminal": 7660, "Ġspr": 7661, "Ġunits": 7662, "(u": 7663, "mi": 7664, "replace": 7665, "[key": 7666, "antic": 7667, "Ġpayment": 7668, ",B": 7669, "ĠApple": 7670, "gin": 7671, "Required": 7672, "#+": 7673, "lands": 7674, "Ġsqu": 7675, "Ġfactor": 7676, "dec": 7677, "Ġstrength": 7678, "Ġboy": 7679, "Ġbalance": 7680, "Ġsources": 7681, "screen": 7682, "-top": 7683, "ĠAmazon": 7684, "Ġhidden": 7685, "_client": 7686, "Ġeat": 7687, ".display": 7688, "Ġtrigger": 7689, "anager": 7690, "Ġtro": 7691, "Ġclaims": 7692, "ford": 7693, "ĠCompany": 7694, "Ġgift": 7695, ",:": 7696, "_app": 7697, "handle": 7698, "Ġproduce": 7699, "/lib": 7700, "Ġ-*": 7701, "ĉset": 7702, "'];": 7703, "arc": 7704, "ander": 7705, "ĠEngine": 7706, "Ġattributes": 7707, "task": 7708, "<=": 7709, "(N": 7710, "Ġwarm": 7711, "which": 7712, "ĠFore": 7713, "agnost": 7714, "mys": 7715, "Ġtal": 7716, "ĠSal": 7717, "gi": 7718, "ĠPrint": 7719, "ĠTRUE": 7720, ".UI": 7721, "Ġflash": 7722, "roperty": 7723, ".location": 7724, "ĠMill": 7725, "bi": 7726, "contr": 7727, ".request": 7728, "ĠSam": 7729, "Ġnegative": 7730, "kit": 7731, "Ġsett": 7732, ".printStackTrace": 7733, "abe": 7734, "ĉi": 7735, "Ġburn": 7736, "Ġsociety": 7737, "Cache": 7738, "ĠSecurity": 7739, ".models": 7740, "ĠWARRANTY": 7741, "_up": 7742, "ceive": 7743, "Ġclients": 7744, ".Tr": 7745, "Ġproviding": 7746, "Ġrout": 7747, "material": 7748, "ĠSer": 7749, "ĠOffice": 7750, "FTWARE": 7751, "Ġ'$": 7752, "Ġfoc": 7753, "Ġexcell": 7754, "Ġcat": 7755, "normal": 7756, "Ġdetermine": 7757, "ĉuint": 7758, "Pane": 7759, "Ġemployees": 7760, "ĠTexas": 7761, "Ġtraff": 7762, "ĠReport": 7763, "anta": 7764, "ĠBox": 7765, "Ġdjango": 7766, "Ġpartner": 7767, "EB": 7768, "LINE": 7769, "Ġfeeling": 7770, "Ġcivil": 7771, "(float": 7772, "Sql": 7773, "Ġwouldn": 7774, ".init": 7775, ".left": 7776, "-v": 7777, "_level": 7778, "'}": 7779, "AF": 7780, "Ġloading": 7781, "ĠOnly": 7782, "Ġcookies": 7783, "ĠGl": 7784, "CO": 7785, "Ġstrategy": 7786, "Ġship": 7787, "poses": 7788, "Ġsignal": 7789, "Ġalpha": 7790, ".pop": 7791, "Radius": 7792, "Ġreplace": 7793, "_DIR": 7794, "counter": 7795, "bservable": 7796, "ela": 7797, "Weight": 7798, "hash": 7799, "bose": 7800, "fx": 7801, "ĠEmail": 7802, "Ġrefer": 7803, "localhost": 7804, "_RO": 7805, "iques": 7806, "Step": 7807, "Ġahead": 7808, "(View": 7809, "ĠServices": 7810, "ĠJson": 7811, "essor": 7812, "Ġpun": 7813, "Ġappropriate": 7814, "akers": 7815, "osen": 7816, "posing": 7817, "Ġagent": 7818, "fc": 7819, "Ġtransfer": 7820, "Ġinvalid": 7821, "ĠResearch": 7822, "Vertex": 7823, "Ġgay": 7824, "Ġjournal": 7825, "[x": 7826, "ĠWell": 7827, ".Tasks": 7828, "Spec": 7829, "Ġol": 7830, "Ġspend": 7831, "ĠAustralia": 7832, "Match": 7833, ".junit": 7834, "ĠMAX": 7835, "izable": 7836, "clusive": 7837, "_valid": 7838, "Ġquarter": 7839, "yan": 7840, "ĠEdit": 7841, "arden": 7842, "=new": 7843, "Ġfrag": 7844, "Bit": 7845, "zi": 7846, "aine": 7847, "udd": 7848, ".Object": 7849, "debug": 7850, "Ġcash": 7851, "_IM": 7852, "Ġeen": 7853, "Ġcommercial": 7854, "ĠVideo": 7855, "loader": 7856, "Ġfixed": 7857, "Ġapplications": 7858, "Ġ_,": 7859, "ĠRussia": 7860, "itect": 7861, "_(": 7862, "ĠBlock": 7863, "Ġsan": 7864, "ĠTom": 7865, "Ġperhaps": 7866, "Ġsig": 7867, "levant": 7868, "Ġcorpor": 7869, "ataset": 7870, "ronic": 7871, "xe": 7872, "Ġeth": 7873, "Some": 7874, "pop": 7875, "_OK": 7876, "Ġtend": 7877, ".Res": 7878, "_and": 7879, "Ġreviews": 7880, "Ġwild": 7881, "Ġdegree": 7882, ".O": 7883, ".objects": 7884, "_args": 7885, "nil": 7886, "Ġdisabled": 7887, "Parent": 7888, "Ġnotes": 7889, "(state": 7890, "istrict": 7891, "Ġlogging": 7892, ".IO": 7893, "ĠMal": 7894, "DM": 7895, "Ġxml": 7896, "ĠRobert": 7897, "elen": 7898, "layout": 7899, "fol": 7900, ",b": 7901, "ĠJer": 7902, "filename": 7903, "Ġfan": 7904, "ĠCustom": 7905, "=\"\"": 7906, "ĠDie": 7907, "Bundle": 7908, ".utils": 7909, "Ġtrip": 7910, "MB": 7911, "Ġsoft": 7912, "_MODE": 7913, "Ġapplicable": 7914, "Ġupper": 7915, "ERVER": 7916, "_al": 7917, "_LOG": 7918, "Here": 7919, "wp": 7920, "ĠServer": 7921, "ĠClient": 7922, "Ġchem": 7923, "Scroll": 7924, "Ġhighest": 7925, "ĠSelect": 7926, "Ġ\"@": 7927, "ĠWhy": 7928, "Sec": 7929, "heel": 7930, "Operation": 7931, "Ġconnected": 7932, "irmed": 7933, "Ġcitiz": 7934, "ĠChe": 7935, "Ġforces": 7936, "Ġwww": 7937, "Root": 7938, "ANCE": 7939, "Many": 7940, "icip": 7941, "rgan": 7942, "ĠTor": 7943, "ĠPress": 7944, "ĠMor": 7945, "-line": 7946, "uled": 7947, ">\\": 7948, "Ġthus": 7949, "ĠRegister": 7950, "hol": 7951, "ĠChinese": 7952, "Ġposted": 7953, "Ġmagn": 7954, "abilities": 7955, "Ġdisease": 7956, "Ġremains": 7957, "ĠProf": 7958, "-form": 7959, "Ġcin": 7960, "organ": 7961, "icate": 7962, "Ġstress": 7963, "]*": 7964, "_context": 7965, "orry": 7966, "Ġdied": 7967, "mat": 7968, "Ġstarts": 7969, ".Message": 7970, "Ġruns": 7971, "Ġguide": 7972, "Ġwarranty": 7973, "entials": 7974, "dict": 7975, "ĠSize": 7976, "uler": 7977, "Ġresponsible": 7978, "_SET": 7979, "Ġcontaining": 7980, "ĠPrice": 7981, "||": 7982, "FS": 7983, "Ġemp": 7984, "_button": 7985, "(uint": 7986, "Ġsuff": 7987, "pth": 7988, "Ġdefinitely": 7989, "pute": 7990, "Ġmarketing": 7991, "ĠWH": 7992, "ĠSie": 7993, "+=": 7994, "OLOR": 7995, "Ġconsult": 7996, "Ġsigned": 7997, "Ġsequence": 7998, "lee": 7999, "Ġrequirements": 8000, "hy": 8001, "Express": 8002, "MT": 8003, "sey": 8004, "Ġult": 8005, "elligence": 8006, "Ġanaly": 8007, "Ġdress": 8008, "engine": 8009, "ĠGreat": 8010, "ĠAndroid": 8011, "ĠAlex": 8012, "mode": 8013, "Dictionary": 8014, ".Date": 8015, "VICE": 8016, "Ġfamilies": 8017, "ĠRussian": 8018, "ĠTimes": 8019, ".call": 8020, "$(": 8021, "Profile": 8022, "Ġfolder": 8023, "ches": 8024, "Ġlegis": 8025, "_row": 8026, "unes": 8027, "Ġ}).": 8028, "Assert": 8029, "agen": 8030, "ĠHand": 8031, "Iter": 8032, "Ġbiggest": 8033, "oreach": 8034, "Ġpolic": 8035, "Ġpermissions": 8036, "Ġshowed": 8037, "ĠElement": 8038, "Ġtopic": 8039, "road": 8040, "ĠBank": 8041, "record": 8042, "Ġpartners": 8043, "ĠRef": 8044, "essions": 8045, "Ġassess": 8046, "UST": 8047, "ĠParty": 8048, "produ": 8049, "LC": 8050, "Ġul": 8051, ".form": 8052, "hide": 8053, "copy": 8054, "UTF": 8055, "ĠSOFTWARE": 8056, "ĠLin": 8057, "una": 8058, "ugar": 8059, "Ġadministration": 8060, "Ġopening": 8061, "Ġscan": 8062, "Ġcontinued": 8063, "component": 8064, ".sp": 8065, "Ġhappens": 8066, "ummy": 8067, "ĠPR": 8068, ".File": 8069, "ĠDownload": 8070, "Loading": 8071, "di": 8072, "Ġwaiting": 8073, "_ADD": 8074, "Tab": 8075, ".querySelector": 8076, "Ġeconomy": 8077, "ĠFrench": 8078, "txt": 8079, "Ġfant": 8080, "Holder": 8081, "SH": 8082, "Ġnumpy": 8083, "Ġstreet": 8084, "Ġmale": 8085, "\\Model": 8086, "anging": 8087, "ĠBill": 8088, "Ġpreviously": 8089, "BI": 8090, "ĠSecret": 8091, "Ġmist": 8092, "ĠField": 8093, "ups": 8094, "ĠProcess": 8095, "Ġkept": 8096, "ĠOT": 8097, "Ġtraditional": 8098, ".i": 8099, "amin": 8100, "Ġhelps": 8101, "Any": 8102, "origin": 8103, "ilters": 8104, "ju": 8105, "desc": 8106, "ĠAccount": 8107, "ktop": 8108, "olly": 8109, "Ġfs": 8110, "Ġut": 8111, "Ġcentral": 8112, "(test": 8113, ".An": 8114, "Ġsatisf": 8115, "GR": 8116, "ĠFull": 8117, "Ġheat": 8118, "iber": 8119, "Ġonto": 8120, "mos": 8121, "Schema": 8122, "Ġfactory": 8123, "\".$": 8124, "aws": 8125, "Statement": 8126, "(target": 8127, "ĉnew": 8128, ".be": 8129, "Ġguest": 8130, "Ġmal": 8131, "ARY": 8132, "Ġreached": 8133, "Ġmouse": 8134, "Ġchallenge": 8135, "ĉdouble": 8136, "ĠTem": 8137, "Ġterror": 8138, "Ġextract": 8139, "_TO": 8140, "Ġseparate": 8141, "Ġmir": 8142, "help": 8143, "Ġcapacity": 8144, "ĠProperty": 8145, "kan": 8146, "_create": 8147, "ĠLight": 8148, ".parent": 8149, "Ġunderstanding": 8150, "Ġeasier": 8151, "Ġ|=": 8152, "Ġenh": 8153, "Ġfat": 8154, "Ġprotest": 8155, "amm": 8156, "_AT": 8157, "-of": 8158, "ils": 8159, "ĠOh": 8160, "Ġpsych": 8161, "Ġ$.": 8162, "inds": 8163, "Ġrelative": 8164, "shop": 8165, "short": 8166, "ĠSand": 8167, "uestion": 8168, "Ġfear": 8169, ".context": 8170, "Ġschools": 8171, "Ġserve": 8172, "zone": 8173, "_db": 8174, "Ġmajority": 8175, "example": 8176, "Ġlang": 8177, "Register": 8178, "endo": 8179, "Ġprocessing": 8180, "_template": 8181, "-user": 8182, "Ġeg": 8183, "COM": 8184, "ĠBlue": 8185, "iro": 8186, "Ġremote": 8187, "ĠIT": 8188, "#!/": 8189, "Ġredistrib": 8190, "raz": 8191, "ĠSince": 8192, "ĠTur": 8193, "Background": 8194, "===": 8195, "Ġreflect": 8196, "Ġpros": 8197, "cmd": 8198, "Ġwhom": 8199, "Compat": 8200, "ĠAre": 8201, "Identifier": 8202, "ĠThom": 8203, "_port": 8204, "gu": 8205, "Ġmonitor": 8206, "rm": 8207, "Ġpatient": 8208, "verter": 8209, "Ġgain": 8210, "-ui": 8211, "Inst": 8212, "Ġdies": 8213, "Area": 8214, "_filter": 8215, "Ġgrat": 8216, "Ġreality": 8217, "ordinate": 8218, "olved": 8219, "Contact": 8220, "Ġcompliance": 8221, "_or": 8222, "ĠVar": 8223, "dl": 8224, "Ġappend": 8225, "GER": 8226, "(max": 8227, ".render": 8228, "Ġdynamic": 8229, "ordinates": 8230, "_options": 8231, "_column": 8232, "Ġbatter": 8233, "space": 8234, "La": 8235, "ĠSource": 8236, "/bin": 8237, "Ġdos": 8238, "ĠBoard": 8239, "ĠThread": 8240, "ĠAL": 8241, "(config": 8242, "ĠMer": 8243, "Ġmiles": 8244, "_header": 8245, "ETHOD": 8246, "izz": 8247, "Ġbenefit": 8248, "Ġintegr": 8249, "(current": 8250, "ulo": 8251, ".default": 8252, "ĠDiv": 8253, "Ġton": 8254, "oth": 8255, "ervation": 8256, "edom": 8257, "Ġbaby": 8258, "ceived": 8259, ".top": 8260, "riority": 8261, "ĠLocal": 8262, "riage": 8263, "Ġattacks": 8264, "Ġhospital": 8265, "Ġfemale": 8266, "ĠLogin": 8267, "ĠFlor": 8268, "Ġchain": 8269, "ashion": 8270, "Texture": 8271, "Save": 8272, "Ġfarm": 8273, ".contains": 8274, ".Test": 8275, "Ġknows": 8276, "Ġgenerally": 8277, "ipeline": 8278, "Ġmeant": 8279, "encia": 8280, "Ġnicht": 8281, "Ġcontents": 8282, "PM": 8283, "chedule": 8284, "(line": 8285, "CG": 8286, "job": 8287, "ĠReal": 8288, "uer": 8289, "firm": 8290, "etro": 8291, "Ġspeech": 8292, "Ġthr": 8293, "foreach": 8294, "Ġwarn": 8295, "ĉl": 8296, "Ġheavy": 8297, "<li": 8298, "Ne": 8299, "Ġinvestigation": 8300, "Math": 8301, "-title": 8302, "Ġchurch": 8303, "Ġdespite": 8304, "chain": 8305, "Ġwhatever": 8306, "arian": 8307, "fn": 8308, "Ġmeta": 8309, "UFF": 8310, "Ġregarding": 8311, "_SUCCESS": 8312, "mes": 8313, "ĠIntent": 8314, "Ġresolve": 8315, "poss": 8316, "ira": 8317, "force": 8318, "oice": 8319, "Ġpm": 8320, "Ġupdates": 8321, "Arr": 8322, "testing": 8323, "Ġtoward": 8324, "ntax": 8325, "Ġlisten": 8326, "Ġgoals": 8327, "InstanceState": 8328, "Dr": 8329, "Ġrare": 8330, "Ġtrail": 8331, "Keys": 8332, "Cal": 8333, "Car": 8334, "ĠPeople": 8335, "ĉlocal": 8336, "classes": 8337, "Reference": 8338, ".forEach": 8339, "emb": 8340, "activ": 8341, "Ġprim": 8342, "redict": 8343, "Ġrad": 8344, ".Back": 8345, "Ġspread": 8346, "Ġclock": 8347, "Ġvir": 8348, "editor": 8349, "Ġefforts": 8350, "Ġbranch": 8351, "Ġindust": 8352, "Ġmotor": 8353, "Ġamb": 8354, "Ġdatetime": 8355, "Ġrencont": 8356, "ĠChristian": 8357, "ĠAmericans": 8358, "full": 8359, "Ġfmt": 8360, ".main": 8361, "Ġcaused": 8362, "_update": 8363, "ĠContent": 8364, "ATCH": 8365, "Ġbath": 8366, "ĠEach": 8367, "Ġradio": 8368, "achment": 8369, "uzz": 8370, "Submit": 8371, "Ġrestrict": 8372, "abin": 8373, "ĠLoad": 8374, "Ġextension": 8375, "Ġessay": 8376, "Ġhat": 8377, "aviour": 8378, "toBe": 8379, "\":[": 8380, "Ġoffered": 8381, "Ġvill": 8382, "(double": 8383, "bc": 8384, "_free": 8385, "ĠMiss": 8386, "ĠBer": 8387, "ĠLike": 8388, "Ġhelped": 8389, ".getName": 8390, "_AL": 8391, "Ġspirit": 8392, "ĠApache": 8393, "ws": 8394, "Ġtherefore": 8395, "(params": 8396, "_img": 8397, "Ġpeace": 8398, "Ġincor": 8399, "ĠEXPECT": 8400, "Ġminor": 8401, "ipes": 8402, "ĉdata": 8403, "selector": 8404, "city": 8405, "trie": 8406, ".base": 8407, "_frame": 8408, "Ġopened": 8409, "/json": 8410, "LY": 8411, "nu": 8412, ".De": 8413, "tf": 8414, "margin": 8415, ".Parse": 8416, "Ġpi": 8417, "Ġeq": 8418, "bd": 8419, "Fields": 8420, "ĠTree": 8421, "Ġban": 8422, "istan": 8423, "ĉgl": 8424, "Ġproduced": 8425, "system": 8426, "Mark": 8427, "_hash": 8428, "Ġbg": 8429, "Ġconstit": 8430, "ĠLeague": 8431, "Ġmission": 8432, "_format": 8433, "clusion": 8434, "!\"": 8435, "break": 8436, "ĉswitch": 8437, "Ġther": 8438, "Transform": 8439, "Ġfootball": 8440, "-link": 8441, "route": 8442, ".auth": 8443, "Ġbag": 8444, "overs": 8445, "Ġenabled": 8446, "Ġrac": 8447, "(I": 8448, "CR": 8449, "ancing": 8450, "Ġmanaged": 8451, "_q": 8452, "NGTH": 8453, "Ġmac": 8454, "ĠAuto": 8455, "amente": 8456, "Ġ'',": 8457, ".Append": 8458, "Ġpin": 8459, ".item": 8460, "acking": 8461, "Ġoccas": 8462, "person": 8463, "Ġti": 8464, ".Reg": 8465, "Ġhaven": 8466, "Ġglass": 8467, "Ġ\"</": 8468, "ĠSimple": 8469, "Print": 8470, "Ġsurround": 8471, "NO": 8472, "ĠMany": 8473, "Ġ\"_": 8474, "Ġweekend": 8475, "Ġsomew": 8476, ".params": 8477, "small": 8478, "ATED": 8479, "Ġplugin": 8480, "fields": 8481, "ĠInitialize": 8482, "oon": 8483, "atile": 8484, "ye": 8485, "Ġvous": 8486, "LAG": 8487, "Ġolder": 8488, "Ġgam": 8489, "Ġextremely": 8490, "Ġhet": 8491, "enum": 8492, "ĠSET": 8493, "xff": 8494, "Ġtimer": 8495, "/index": 8496, "Ġcritical": 8497, "Rows": 8498, "_argument": 8499, "Ġexecute": 8500, "Ġshowing": 8501, ".xml": 8502, "-list": 8503, "Role": 8504, "typename": 8505, "_method": 8506, "that": 8507, "cher": 8508, "ĠâĨ": 8509, "XT": 8510, "Ġthousands": 8511, "ĉn": 8512, "Ġresp": 8513, "_price": 8514, "olut": 8515, "Ag": 8516, "ĠTwo": 8517, "Ġbecomes": 8518, "Ġhus": 8519, ".Use": 8520, "theme": 8521, "urb": 8522, "erialize": 8523, "ARN": 8524, "Ġlose": 8525, "Lower": 8526, "Ġvel": 8527, "Ġdefense": 8528, "condition": 8529, "Ġbes": 8530, "Ġdry": 8531, "Ġscroll": 8532, ".Show": 8533, "IEL": 8534, "ĠRest": 8535, "Where": 8536, "oods": 8537, "ĠJes": 8538, "Ġwire": 8539, "_INFO": 8540, "Ġstrings": 8541, "gment": 8542, "Ġmatches": 8543, "Ġelectric": 8544, "Ġexcellent": 8545, "ĠCouncil": 8546, "idade": 8547, "Ġwx": 8548, "push": 8549, "_entry": 8550, "Ġtasks": 8551, "Ġrich": 8552, "sa": 8553, "ĠSmith": 8554, "UNCTION": 8555, "Pointer": 8556, "pective": 8557, "Ġwidget": 8558, "ista": 8559, "Ġagency": 8560, "Ġsich": 8561, "ologies": 8562, "Ġtrial": 8563, "alysis": 8564, ".check": 8565, "ARK": 8566, "ĠonChange": 8567, "about": 8568, "',$": 8569, "(val": 8570, "Ġplaced": 8571, "_NO": 8572, "Ġdan": 8573, ".equal": 8574, "Ġweather": 8575, ".game": 8576, "Ġdestination": 8577, "_USER": 8578, "iece": 8579, "Ġprovider": 8580, ".last": 8581, "plex": 8582, "Note": 8583, "/js": 8584, "ĠpÃ¥": 8585, "Ġplanning": 8586, "attribute": 8587, "PRO": 8588, "atches": 8589, "Ġ<-": 8590, "Ġseeing": 8591, "Ġcancel": 8592, "_ind": 8593, ".keys": 8594, "Ġvisual": 8595, "ĠCurrent": 8596, "ĠCollege": 8597, "ĠRock": 8598, "Ġagreement": 8599, "ĠStore": 8600, "oving": 8601, "Ġcorner": 8602, "ampions": 8603, "ISE": 8604, "Fin": 8605, "Ġprotection": 8606, "Ġfi": 8607, "Play": 8608, "plugin": 8609, ")}": 8610, ".frame": 8611, "-z": 8612, "Ġtransition": 8613, "igin": 8614, "Ġcandidate": 8615, "ĠUnion": 8616, "_values": 8617, "(map": 8618, "cle": 8619, "Ġtrend": 8620, "wide": 8621, "aren": 8622, "Loc": 8623, "UTH": 8624, "ĠBay": 8625, "Ġsmaller": 8626, "ius": 8627, "well": 8628, "Ġcriminal": 8629, "Ġconflic": 8630, "bert": 8631, "_INT": 8632, "Ġinvestment": 8633, "custom": 8634, "ĠSession": 8635, "_write": 8636, "ania": 8637, "ĠMass": 8638, "_EQ": 8639, "_NOT": 8640, "Ġviolence": 8641, "Argument": 8642, "_email": 8643, "Ġbelong": 8644, "_function": 8645, "Ġenemy": 8646, "ema": 8647, "ĠAddress": 8648, ".empty": 8649, "Ġinner": 8650, "ĠContact": 8651, "Loader": 8652, "<input": 8653, "ĠCA": 8654, "lot": 8655, "Ġpictures": 8656, "ĠSupport": 8657, "_names": 8658, "Layer": 8659, "ĠClick": 8660, "Sum": 8661, "ĠLook": 8662, "uous": 8663, "Lib": 8664, "Flags": 8665, "team": 8666, "EP": 8667, "hat": 8668, "override": 8669, "apsed": 8670, "Ġlabels": 8671, "quis": 8672, "ĠStream": 8673, "_device": 8674, "ĠCommit": 8675, "(root": 8676, "\"}": 8677, ".isEmpty": 8678, "ĉM": 8679, "Ġangle": 8680, "ĠBecause": 8681, "Ġaim": 8682, "Ġstick": 8683, "stmt": 8684, "agraph": 8685, "answer": 8686, "Ġclin": 8687, "ĠIsl": 8688, ".ext": 8689, "ĠINT": 8690, "Ġstyles": 8691, "Ġborn": 8692, "Ġscr": 8693, "Ġexpand": 8694, "Ġraised": 8695, "TextBox": 8696, "ILL": 8697, "HTTP": 8698, ">)": 8699, "_char": 8700, "resource": 8701, "Ġepisode": 8702, "Ġ'_": 8703, "ĠEs": 8704, "ĠEarth": 8705, "UPDATE": 8706, "ĠSou": 8707, "uis": 8708, "types": 8709, "Ġmas": 8710, "Ġfav": 8711, "Ġconstruct": 8712, "_rate": 8713, "eras": 8714, "roperties": 8715, "Ġexternal": 8716, "Ġapplied": 8717, "Ġprefix": 8718, "oted": 8719, "lers": 8720, "Ġcold": 8721, "ĠSP": 8722, "ĠChurch": 8723, "ĠOutput": 8724, "losed": 8725, "ificate": 8726, "operation": 8727, "herit": 8728, "xFF": 8729, ".env": 8730, "_err": 8731, "osh": 8732, "Direction": 8733, "Cancel": 8734, "ĠFrank": 8735, "Ġfinding": 8736, "Ġrouter": 8737, "ses": 8738, "Ġcrow": 8739, "=='": 8740, "Ġsand": 8741, "Ġrid": 8742, "iture": 8743, "Ġentre": 8744, "Ġobserv": 8745, "Ġvac": 8746, "-T": 8747, "Art": 8748, "night": 8749, ".search": 8750, "Ġexchange": 8751, "Ġdistrict": 8752, ".os": 8753, "Ġdepartment": 8754, "Ġdocuments": 8755, "Ġcentury": 8756, "ĠNext": 8757, "Host": 8758, "ĠKIND": 8759, "Ġsusp": 8760, "-P": 8761, "rend": 8762, ".em": 8763, "uite": 8764, "isters": 8765, "(json": 8766, "ĠAnn": 8767, "wt": 8768, "ati": 8769, "ĠHTML": 8770, "when": 8771, "Directory": 8772, "Ġshut": 8773, "<a": 8774, "edy": 8775, "Ġhealthy": 8776, "Ġtemperature": 8777, "ĠGen": 8778, "Ġmetal": 8779, "Ġsubmit": 8780, "ĠDO": 8781, "Ġattract": 8782, "ĠWord": 8783, "Ġll": 8784, "Ġseemed": 8785, "ko": 8786, "IED": 8787, "Ġlabor": 8788, ".Context": 8789, "Ġasset": 8790, "you": 8791, "Ġcars": 8792, "ĠColumn": 8793, "ĠrÃ©": 8794, "Ġsquare": 8795, "ĠNSString": 8796, "apes": 8797, "Ġthanks": 8798, "(props": 8799, "Ġtick": 8800, "Ġexperiment": 8801, "Ġprison": 8802, "tree": 8803, "-text": 8804, "ĠIOException": 8805, "-width": 8806, "_STATUS": 8807, "fast": 8808, "-body": 8809, "-header": 8810, "Ġguar": 8811, "crete": 8812, "ĠTim": 8813, "Ġclearly": 8814, "ĠRepublican": 8815, "Ġjustify": 8816, "cache": 8817, ";//": 8818, "Ġpresence": 8819, "Ġfactors": 8820, "Ġemployee": 8821, "]))": 8822, "Member": 8823, "Ġselector": 8824, "bor": 8825, "ĠMex": 8826, "utex": 8827, "_tag": 8828, "ailure": 8829, "ĠNet": 8830, "Ġreli": 8831, "EG": 8832, "Ġfprintf": 8833, "Ġteen": 8834, "loss": 8835, "Ġleaving": 8836, "Delegate": 8837, "Ġbeat": 8838, "Ġminute": 8839, "subscribe": 8840, "Ġredistribute": 8841, "Constants": 8842, "Ġcancer": 8843, "/{": 8844, "BL": 8845, "Ġspan": 8846, "ĠChild": 8847, "Center": 8848, "Ġearth": 8849, "YS": 8850, "ĠLevel": 8851, "Ġsea": 8852, ".support": 8853, ".inner": 8854, ".Item": 8855, "illing": 8856, "ĠLabel": 8857, "ĠEst": 8858, "(arg": 8859, "boBox": 8860, "ĉforeach": 8861, "cos": 8862, "Failed": 8863, "swers": 8864, "Editor": 8865, "ront": 8866, "ĠMP": 8867, "expr": 8868, "ĠLife": 8869, "Ġ??": 8870, "Ã¶r": 8871, "Ġattend": 8872, "ĠQue": 8873, "Ġspecies": 8874, "-D": 8875, "Ġaus": 8876, "Struct": 8877, "Ġadvantage": 8878, "oston": 8879, "-block": 8880, "initial": 8881, "CRE": 8882, "Ġtruly": 8883, "Ġcompare": 8884, "orney": 8885, "Ġspect": 8886, "Full": 8887, "bes": 8888, "Ġvisible": 8889, "Ġmess": 8890, "stances": 8891, "Ġcloud": 8892, "_version": 8893, "Ġfurn": 8894, "icago": 8895, "LOW": 8896, "Ġtraffic": 8897, "Ġfol": 8898, "rypto": 8899, "Ġdeclar": 8900, "Ġslot": 8901, "ĠExt": 8902, "ĠEngland": 8903, "ĠUnder": 8904, "Ġta": 8905, "letter": 8906, "Ġofficer": 8907, "ĠDonald": 8908, "Yes": 8909, "_json": 8910, "ITableView": 8911, "ĠUSE": 8912, "mployee": 8913, "Ġopinion": 8914, "ĠAut": 8915, "border": 8916, "Ġadvice": 8917, "Ġautomatically": 8918, "isco": 8919, "Ġmm": 8920, ".vis": 8921, "aml": 8922, "Ġinitialize": 8923, "Ġ({": 8924, "Ġgeneration": 8925, "Ġbits": 8926, "clipse": 8927, "Ġunf": 8928, "utors": 8929, "plt": 8930, "Ġdelta": 8931, "estroy": 8932, "isis": 8933, "<br": 8934, "Ġlimitations": 8935, "Ġended": 8936, "ĠMad": 8937, "ilm": 8938, "These": 8939, "ĠMinister": 8940, "Ġchart": 8941, "Fragment": 8942, "Ġindependent": 8943, "Year": 8944, "Ġinstr": 8945, "Ġtags": 8946, "AVE": 8947, "ĠArch": 8948, "stop": 8949, "Progress": 8950, "Ġmi": 8951, "Ġlearned": 8952, "Ge": 8953, "Ġhotel": 8954, "SM": 8955, "TYPE": 8956, "Ġcy": 8957, "ERSION": 8958, "unately": 8959, "limit": 8960, "sel": 8961, "Ġmovies": 8962, "Ġsteel": 8963, "oz": 8964, "gb": 8965, "ĠCamp": 8966, "site": 8967, "ĠLogger": 8968, "PLE": 8969, ".right": 8970, "ĠCore": 8971, "Ġmixed": 8972, "step": 8973, "Ġputs": 8974, "super": 8975, "Router": 8976, ".Http": 8977, "lyph": 8978, "ĠColors": 8979, "Ġandroidx": 8980, ".str": 8981, "Ġinnov": 8982, "Ġdeck": 8983, "apers": 8984, "](": 8985, "continue": 8986, "spec": 8987, "ĠRoad": 8988, "ASH": 8989, "iliar": 8990, "Ġcontinues": 8991, "Ġappoint": 8992, "ĠVir": 8993, "Ġ?>\"": 8994, "Ġbin": 8995, "}\",": 8996, "going": 8997, "each": 8998, "BD": 8999, "ĠAccess": 9000, "Doc": 9001, "ĠManagement": 9002, "BER": 9003, "asket": 9004, ".getInstance": 9005, "Ġestablished": 9006, "socket": 9007, "INS": 9008, "ĉvirtual": 9009, "ĉresult": 9010, "READ": 9011, "_height": 9012, "ĠFont": 9013, "_html": 9014, "Ġneighbor": 9015, "lor": 9016, "Ġgather": 9017, "Ġidentity": 9018, "Ġfab": 9019, "padding": 9020, "ĠRoute": 9021, "Enumerable": 9022, "Ġforced": 9023, "/jquery": 9024, "resents": 9025, "_left": 9026, ".Param": 9027, "ĉthrow": 9028, "ĠHam": 9029, "Ġeventually": 9030, "acer": 9031, "pub": 9032, "Ġtra": 9033, "unique": 9034, "del": 9035, "ĠFlorida": 9036, "ĠClean": 9037, "xa": 9038, "Ġvalidate": 9039, "Visual": 9040, "Expression": 9041, "_func": 9042, "member": 9043, "ĉh": 9044, "trl": 9045, "ĉG": 9046, "napshot": 9047, "ĠPropTypes": 9048, "vin": 9049, "owl": 9050, "ifies": 9051, "ĠContext": 9052, "ĠToast": 9053, ".Key": 9054, "Ġofficers": 9055, "/n": 9056, "sn": 9057, "undefined": 9058, ".items": 9059, "utow": 9060, "amage": 9061, "Ġaccounts": 9062, "ookie": 9063, "Section": 9064, "icians": 9065, "Ġadvis": 9066, "(is": 9067, "[:,": 9068, "ĠFrance": 9069, "Func": 9070, "icious": 9071, "Ġtok": 9072, "Channel": 9073, "ĠAD": 9074, "_NUM": 9075, "Ġtimeout": 9076, "lemma": 9077, "reme": 9078, "uj": 9079, ".Al": 9080, "uclear": 9081, "(os": 9082, "(\"<": 9083, "fetch": 9084, "Ġbal": 9085, "Ġguid": 9086, "-align": 9087, "ĠWrite": 9088, "ĠOnce": 9089, "utowired": 9090, "ODULE": 9091, "Ġpitch": 9092, "CF": 9093, "bytes": 9094, "ĠCommission": 9095, "Ġincred": 9096, "PER": 9097, "_response": 9098, "ĠLos": 9099, "parser": 9100, "Ġassume": 9101, ".Request": 9102, "ĠToken": 9103, "_position": 9104, "Ġnom": 9105, "-term": 9106, "Ġremaining": 9107, "iostream": 9108, "Ġpieces": 9109, "apy": 9110, "ĠLess": 9111, "range": 9112, "umbn": 9113, "prise": 9114, "_option": 9115, "Impl": 9116, "kwargs": 9117, "Ġbusinesses": 9118, "Alert": 9119, "Ġparties": 9120, "ĠContainer": 9121, "ĠPrivate": 9122, "ĠPlan": 9123, "Ġregistered": 9124, "Ġjour": 9125, "acker": 9126, "/>": 9127, "chat": 9128, "sect": 9129, "Ġcreation": 9130, "olutely": 9131, "Ġinstant": 9132, "Ġdelivery": 9133, "icken": 9134, "yes": 9135, "ĠFranc": 9136, "bling": 9137, "enda": 9138, "[(": 9139, "_range": 9140, "Ġschedule": 9141, "Conn": 9142, "Ġthank": 9143, "xd": 9144, "Ġhook": 9145, "Ġdocumentation": 9146, "Parameters": 9147, "Hello": 9148, "vt": 9149, "Ġarticles": 9150, "Ġwest": 9151, "defined": 9152, ".select": 9153, "okens": 9154, "ĠVAL": 9155, ".file": 9156, "reset": 9157, "Ġmys": 9158, "ĠMA": 9159, "]),": 9160, "Ġcities": 9161, "related": 9162, "Ġappeared": 9163, "Ġwid": 9164, ".panel": 9165, "ĠIns": 9166, ".entity": 9167, "Ġdecre": 9168, "ĠLou": 9169, "(time": 9170, "ĠThank": 9171, ".createElement": 9172, "Ġmentioned": 9173, "ounce": 9174, "ĠTry": 9175, "ĠWall": 9176, "/images": 9177, "ĠMenu": 9178, "ĠEr": 9179, "Ġcritic": 9180, "ĠYear": 9181, "(param": 9182, "Ġflo": 9183, "NN": 9184, "ooter": 9185, "ĠAff": 9186, "\"github": 9187, "rooms": 9188, "Ġhyp": 9189, "global": 9190, "Ġavec": 9191, "Ġcompletion": 9192, "Ġcond": 9193, "onymous": 9194, "(temp": 9195, "Ġstars": 9196, "Ġrelevant": 9197, "Ġcovered": 9198, "Ġelim": 9199, "_types": 9200, "(bool": 9201, "Ġtu": 9202, "_exists": 9203, "Ġsecure": 9204, "Ġstored": 9205, "]/": 9206, "xF": 9207, "ĠController": 9208, "Ġmigr": 9209, "MI": 9210, "ĠDen": 9211, "Ġannual": 9212, "UIL": 9213, "-and": 9214, "Ġcrime": 9215, "bel": 9216, "Ġkitchen": 9217, "@g": 9218, "_ph": 9219, "ournament": 9220, "ĠSocial": 9221, "ĠSpecial": 9222, "logger": 9223, "Ġtail": 9224, "Ġunknown": 9225, "ded": 9226, "Ġapprec": 9227, "(db": 9228, "cf": 9229, "Ġassign": 9230, "-out": 9231, "ĠMont": 9232, "dp": 9233, "widget": 9234, "Ġstone": 9235, "-primary": 9236, ".grid": 9237, "Results": 9238, "azz": 9239, "Ġdaughter": 9240, "Ġcurr": 9241, "Ġlin": 9242, "Ġsouth": 9243, "forms": 9244, "ĠOUT": 9245, "lette": 9246, "aks": 9247, "igure": 9248, "ĠEU": 9249, "variable": 9250, "Ġbrief": 9251, "ĠScott": 9252, "Ġconference": 9253, "anda": 9254, "_lock": 9255, "oral": 9256, "Ġeine": 9257, "ORS": 9258, "esso": 9259, "Ġris": 9260, "Ġgender": 9261, "estic": 9262, "License": 9263, "(out": 9264, "Ġms": 9265, "See": 9266, "Ġwilling": 9267, "aze": 9268, "Ġsports": 9269, "Ġyes": 9270, "lu": 9271, "Ġpurs": 9272, "/javascript": 9273, "-pro": 9274, "navbar": 9275, "_product": 9276, "/bootstrap": 9277, "Ġdriving": 9278, "Ġpropos": 9279, "ultip": 9280, "uplic": 9281, ".email": 9282, "Ġapprox": 9283, "(cl": 9284, "Ġwear": 9285, "Ġreply": 9286, "asset": 9287, "Ġice": 9288, "Ġtx": 9289, "kr": 9290, "ĠGermany": 9291, "ĠGeorge": 9292, "Ġcb": 9293, "ĉerr": 9294, "Move": 9295, "Ġpoly": 9296, "voice": 9297, "}\"": 9298, "Ġanimal": 9299, "Av": 9300, "ĠLocation": 9301, "Ġnative": 9302, "][\"": 9303, "<double": 9304, "Ġmais": 9305, ",int": 9306, "Ġprepar": 9307, "Ġinterval": 9308, "plementation": 9309, "_ERR": 9310, "Ġbug": 9311, ">\"": 9312, "stat": 9313, "<span": 9314, "Ġfaith": 9315, "Ġrom": 9316, "prev": 9317, "ĠElect": 9318, "Find": 9319, "Ġgod": 9320, "otor": 9321, "original": 9322, "Cpp": 9323, "ĠSenate": 9324, "Ġpositions": 9325, "Ġweapons": 9326, "Ġcoff": 9327, "Ġpurposes": 9328, "pol": 9329, "Ġimpress": 9330, "Ġanimals": 9331, ".Entity": 9332, "(np": 9333, "Ġmurder": 9334, "Ġ``": 9335, "flag": 9336, "Ġsolutions": 9337, "ĠActive": 9338, "Ġbright": 9339, ".date": 9340, "Ġsitu": 9341, ".ID": 9342, "Ġsie": 9343, "akt": 9344, "Space": 9345, ".dat": 9346, ".indexOf": 9347, "han": 9348, "azine": 9349, "ĠZe": 9350, "Ġcrash": 9351, "(/": 9352, ">=": 9353, "iva": 9354, ".AutoSize": 9355, "ĠLat": 9356, "_ext": 9357, "Initialize": 9358, ".register": 9359, "OPY": 9360, "Ġreverse": 9361, "_dis": 9362, "'][": 9363, "Ġprompt": 9364, "onto": 9365, "ĠJournal": 9366, "router": 9367, "Ġmysqli": 9368, "#else": 9369, ")\"": 9370, "-xs": 9371, "lets": 9372, "phan": 9373, ".LE": 9374, "Will": 9375, "Ġafford": 9376, "Ġskill": 9377, "-toggle": 9378, "NC": 9379, "Bind": 9380, "TS": 9381, "Just": 9382, "iteral": 9383, "YP": 9384, "ĉunsigned": 9385, "Ġwind": 9386, "Ġwarning": 9387, "ĠWater": 9388, "Ġdraft": 9389, "Ġcm": 9390, "Ġsam": 9391, "Ġholding": 9392, "zip": 9393, "ĠScience": 9394, "Ġsupposed": 9395, "Gen": 9396, "Ġdiet": 9397, "<h": 9398, "ĠPass": 9399, "vi": 9400, "Ġhusband": 9401, "note": 9402, "ĠAbout": 9403, "ĠInstitute": 9404, "Ġclimate": 9405, ".Format": 9406, "Ġnut": 9407, "ested": 9408, "Ġapparent": 9409, "Ġholds": 9410, "fi": 9411, "news": 9412, "CM": 9413, "video": 9414, "':'": 9415, "DITION": 9416, "ping": 9417, "Ġsenior": 9418, "wa": 9419, "_default": 9420, "ĠDatabase": 9421, "rep": 9422, "ESS": 9423, "nergy": 9424, ".Find": 9425, "_mask": 9426, "Ġrise": 9427, "Ġkernel": 9428, "::$": 9429, ".Q": 9430, "Ġoffering": 9431, "decl": 9432, "ĠCS": 9433, "Ġlisted": 9434, "Ġmostly": 9435, "enger": 9436, "Ġblocks": 9437, "olo": 9438, "Ġgoverning": 9439, "\\F": 9440, "Ġconcent": 9441, ".getText": 9442, "Ġmb": 9443, "Ġoccurred": 9444, "Ġchanging": 9445, "Scene": 9446, "_CODE": 9447, "Beh": 9448, "\"The": 9449, "Ġtile": 9450, "ĠAssociation": 9451, "ĉP": 9452, "alty": 9453, "_ad": 9454, "odies": 9455, "iated": 9456, "Ġprepared": 9457, "possible": 9458, "Ġmort": 9459, "TEST": 9460, "Ġignore": 9461, "Ġcalc": 9462, "Ġrs": 9463, "ĠassertEquals": 9464, "Ġsz": 9465, "ĠTHIS": 9466, "Ġcanvas": 9467, "java": 9468, "Ġdut": 9469, "VALID": 9470, ".sql": 9471, ".input": 9472, "Ġaux": 9473, "Sup": 9474, "Ġartist": 9475, "Vec": 9476, "_TIME": 9477, ".stringify": 9478, "etween": 9479, "ĠCategory": 9480, "Ġ[-": 9481, "ĠDevExpress": 9482, "ĠJul": 9483, "Ġring": 9484, ".ed": 9485, "YY": 9486, "Let": 9487, "TextField": 9488, "Ġflat": 9489, "_print": 9490, "ĠOTHER": 9491, "adian": 9492, "Ġchecked": 9493, "ele": 9494, "Align": 9495, "standing": 9496, "Ġ[],": 9497, "Ġlab": 9498, "ucky": 9499, "ĠChristmas": 9500, "(image": 9501, ".module": 9502, "Ġlots": 9503, "Ġslightly": 9504, "(final": 9505, "erge": 9506, "ĠPolice": 9507, "ĠRight": 9508, "Ġaward": 9509, "ĠOS": 9510, "Ġptr": 9511, "oves": 9512, "icated": 9513, "Ġmanage": 9514, "oliday": 9515, "Amount": 9516, "oolStrip": 9517, "tbody": 9518, "Nav": 9519, "wrap": 9520, "BB": 9521, "Ġwatching": 9522, "arios": 9523, "Ġoptional": 9524, "_K": 9525, "ĠLicensed": 9526, ".Map": 9527, "Timer": 9528, "ĠAP": 9529, "ĠRev": 9530, "(o": 9531, ",c": 9532, "umin": 9533, "etailed": 9534, "ĠHy": 9535, "Ġblank": 9536, "agger": 9537, "ĠSelf": 9538, "()[": 9539, ".make": 9540, "earn": 9541, "channel": 9542, "<pre": 9543, "blem": 9544, "_password": 9545, "_sp": 9546, "icing": 9547, "ez": 9548, "Ġtheory": 9549, "ĠTer": 9550, ",n": 9551, "logo": 9552, "ĠHTTP": 9553, ".handle": 9554, "World": 9555, "Ġpython": 9556, "Ġlif": 9557, "Ġtrav": 9558, "Ġconven": 9559, "company": 9560, "ĠClub": 9561, "Ver": 9562, "Btn": 9563, "Ġzone": 9564, "products": 9565, "ĠEduc": 9566, "Ġverify": 9567, "ĠMil": 9568, "ono": 9569, "ENCE": 9570, "Ġpacket": 9571, "Ġcer": 9572, "Ġenumer": 9573, "Ġpars": 9574, "formed": 9575, "Ġoccup": 9576, "tre": 9577, "Ġexercise": 9578, "Day": 9579, "_sum": 9580, "Ġasking": 9581, "aption": 9582, "Ġorders": 9583, "Ġspending": 9584, "ĠERR": 9585, ".Dis": 9586, "ĠUtil": 9587, "âĢľI": 9588, "\\'": 9589, "?)": 9590, "Ġemot": 9591, "Ġinfluence": 9592, "ĠAfrica": 9593, "atters": 9594, ".session": 9595, "Ġchief": 9596, "Ġtom": 9597, "cluded": 9598, "serial": 9599, "_handler": 9600, ".Type": 9601, "aped": 9602, "Ġpolicies": 9603, "-ex": 9604, "-tr": 9605, "blank": 9606, "merce": 9607, "Ġcoverage": 9608, "Ġrc": 9609, "_matrix": 9610, "_box": 9611, "Ġcharges": 9612, "ĠBoston": 9613, "Pe": 9614, "Ġcircum": 9615, "Ġfilled": 9616, "Ġnorth": 9617, "ictureBox": 9618, "ĉres": 9619, "Ġtermin": 9620, "IRECT": 9621, "Ġber": 9622, "retch": 9623, ".code": 9624, "_col": 9625, "ĠGovernment": 9626, "Ġargv": 9627, "ĠLord": 9628, "asi": 9629, "Exec": 9630, "ĉlet": 9631, "vertis": 9632, "Ġdiscussion": 9633, "enance": 9634, "outube": 9635, "typeof": 9636, "Ġserved": 9637, "ĠPut": 9638, "ĉx": 9639, "Ġsweet": 9640, "Before": 9641, "ategy": 9642, ".of": 9643, "ĠMaterial": 9644, "Sort": 9645, "ONT": 9646, "igital": 9647, "Why": 9648, "Ġsust": 9649, "abet": 9650, "Ġsegment": 9651, "ĠMuslim": 9652, "ĠfindViewById": 9653, "cut": 9654, "_TEXT": 9655, "ĠMary": 9656, "Ġloved": 9657, "Ġlie": 9658, "ĠJO": 9659, "Ġisset": 9660, "month": 9661, "Ġprime": 9662, "ti": 9663, "ĠCarol": 9664, "Use": 9665, "ĠPop": 9666, "ĠSave": 9667, "Interval": 9668, "execute": 9669, "dy": 9670, "ĠIran": 9671, "_cont": 9672, "ĉT": 9673, "Ġphase": 9674, "checkbox": 9675, "week": 9676, "Ġhide": 9677, "Ġtil": 9678, "Ġju": 9679, "Custom": 9680, "burg": 9681, "/M": 9682, "TON": 9683, "Ġquant": 9684, "Ġrub": 9685, "ixels": 9686, "Ġinstalled": 9687, "Ġdump": 9688, "Ġproperly": 9689, "(List": 9690, "Ġdecide": 9691, "apply": 9692, "Has": 9693, "Ġkeeping": 9694, "Ġcitizens": 9695, "Ġjoint": 9696, "pool": 9697, "Socket": 9698, "_op": 9699, "Ġweapon": 9700, "gnore": 9701, "ĠExec": 9702, "otten": 9703, "ĠMS": 9704, "Ġ(-": 9705, "ĠReview": 9706, "Ġexamples": 9707, "Ġtight": 9708, "!(": 9709, "DP": 9710, "ĠMessageBox": 9711, "Ġphotograph": 9712, "URI": 9713, "Ã©t": 9714, "low": 9715, "ĠGrand": 9716, ".persistence": 9717, "Ġmaintain": 9718, "Ġnums": 9719, "Ġzip": 9720, "ials": 9721, "ĠGets": 9722, "peg": 9723, "ĠBuffer": 9724, "rastructure": 9725, "ĠPL": 9726, "uen": 9727, "obby": 9728, "sizeof": 9729, "Ġpic": 9730, "Ġseed": 9731, "Ġexperienced": 9732, "Ġodd": 9733, "Ġkick": 9734, "Ġprocedure": 9735, "avigator": 9736, "-on": 9737, ",j": 9738, "ĠAlthough": 9739, "ĠuserId": 9740, "accept": 9741, "Blue": 9742, "IColor": 9743, "layer": 9744, "available": 9745, "Ġends": 9746, ".table": 9747, "Ġdataset": 9748, "bus": 9749, "Ġexplain": 9750, "(pro": 9751, "ĠCommittee": 9752, "Ġnoted": 9753, "Dim": 9754, "stdio": 9755, "_source": 9756, "ĠWeek": 9757, "ĠEdge": 9758, "Ġoperating": 9759, "Ġeste": 9760, "ipl": 9761, "agination": 9762, "Ġproceed": 9763, "Ġanimation": 9764, ".Models": 9765, "ĠWatch": 9766, "iat": 9767, "Ġoppon": 9768, "/A": 9769, "Report": 9770, "Ġsounds": 9771, "_buf": 9772, "IELD": 9773, "Ġbund": 9774, "ĉget": 9775, ".pr": 9776, "(tmp": 9777, "Ġkid": 9778, "Ġyang": 9779, "NotFound": 9780, "math": 9781, "@gmail": 9782, "ĠLIMIT": 9783, "redients": 9784, "Ġvent": 9785, "avigate": 9786, "Look": 9787, "Ġreligious": 9788, "Ġrand": 9789, "rio": 9790, "(GL": 9791, "_ip": 9792, "uan": 9793, "iciency": 9794, "ĠChange": 9795, "ĠEntity": 9796, "Ġrencontre": 9797, "ĠRet": 9798, "plan": 9799, "Ã©n": 9800, "BOOL": 9801, "uries": 9802, "train": 9803, "Definition": 9804, "zz": 9805, "Animation": 9806, "ĠOK": 9807, "_menu": 9808, ".bl": 9809, "_score": 9810, "Ġacad": 9811, "(System": 9812, "Ġrefresh": 9813, ".Graphics": 9814, "amento": 9815, "pid": 9816, "tc": 9817, "Ġtips": 9818, "Ġhomes": 9819, "Ġfuel": 9820, "âĸ": 9821, "_helper": 9822, "ĠRoom": 9823, ".Close": 9824, "_attr": 9825, "ĠMount": 9826, "ĠEv": 9827, "arser": 9828, "_top": 9829, "eah": 9830, "ĠDelete": 9831, "uke": 9832, "Ġusage": 9833, "aria": 9834, "_dev": 9835, "Ġtexture": 9836, "Ġconversation": 9837, "eper": 9838, "Bean": 9839, "done": 9840, "nonatomic": 9841, "ĠSecond": 9842, "Ġshooting": 9843, "_pre": 9844, "Components": 9845, "__,": 9846, "stitution": 9847, ".Char": 9848, "Ġpresented": 9849, "Ġwa": 9850, "oker": 9851, "iner": 9852, "Ġbecoming": 9853, "Ġincident": 9854, "Att": 9855, "Ġrevealed": 9856, "forc": 9857, "Ġboot": 9858, ".page": 9859, "Enumerator": 9860, "_->": 9861, "Photo": 9862, "Ġspring": 9863, ".\",": 9864, "ĠDictionary": 9865, "BJECT": 9866, "Ġlocations": 9867, "Ġsamples": 9868, "InputStream": 9869, "ĠBrown": 9870, "Ġstats": 9871, "quality": 9872, "-dis": 9873, "Ġhelping": 9874, "Ġped": 9875, "(se": 9876, "ĠWho": 9877, "alian": 9878, "internal": 9879, "Ġft": 9880, "->{": 9881, "Ġmine": 9882, "Ġsector": 9883, "Ġgro": 9884, "Ġopportunities": 9885, "Ġmp": 9886, "Ġalleged": 9887, "Ġdoubt": 9888, "Mouse": 9889, "About": 9890, "_part": 9891, "Ġchair": 9892, "Ġstopped": 9893, "loop": 9894, "entities": 9895, "Ġapps": 9896, "ansion": 9897, "Ġmental": 9898, "FR": 9899, "Ġdefend": 9900, "care": 9901, "Ġideal": 9902, "/api": 9903, "urface": 9904, "Ġele": 9905, "ulator": 9906, "ĠRights": 9907, "anguages": 9908, "Ġfunds": 9909, "Ġadapt": 9910, "Attributes": 9911, "Ġdeploy": 9912, "opts": 9913, "Ġvalidation": 9914, "Ġconcerns": 9915, "uce": 9916, ".num": 9917, "ulture": 9918, "ila": 9919, "Ġcup": 9920, "Ġpure": 9921, ".Fore": 9922, "ĠHashMap": 9923, ".valueOf": 9924, "asm": 9925, "MO": 9926, "Ġcs": 9927, "Ġstores": 9928, "Ġcommunication": 9929, "mem": 9930, ".EventHandler": 9931, ".Status": 9932, "_right": 9933, ".setOn": 9934, "Sheet": 9935, "Ġidentify": 9936, "enerated": 9937, "ordered": 9938, "Ġ\"[": 9939, "Ġswe": 9940, "Condition": 9941, "ĠAccording": 9942, "Ġprepare": 9943, "Ġrob": 9944, "Pool": 9945, "Ġsport": 9946, "rv": 9947, "ĠRouter": 9948, "Ġalternative": 9949, "([]": 9950, "ĠChicago": 9951, "ipher": 9952, "ische": 9953, "ĠDirector": 9954, "kl": 9955, "ĠWil": 9956, "keys": 9957, "Ġmysql": 9958, "Ġwelcome": 9959, "king": 9960, "ĠManager": 9961, "Ġcaught": 9962, "Score": 9963, "_PR": 9964, "Ġsurvey": 9965, "hab": 9966, "Headers": 9967, "ADER": 9968, "Ġdecor": 9969, "Ġturns": 9970, "Ġradius": 9971, "errupt": 9972, "Cor": 9973, "Ġmel": 9974, "Ġintr": 9975, "(q": 9976, "ĠAC": 9977, "amos": 9978, "MAX": 9979, "ĠGrid": 9980, "ĠJesus": 9981, ".DE": 9982, "Ġts": 9983, "Ġlinked": 9984, "free": 9985, "ĠQt": 9986, "Ġfaster": 9987, "ctr": 9988, "_J": 9989, "DT": 9990, ".Check": 9991, "Ġcombination": 9992, "Ġintended": 9993, "-the": 9994, "-type": 9995, "ectors": 9996, "ami": 9997, "uting": 9998, "Ġuma": 9999, "XML": 10000, "UCT": 10001, "Ap": 10002, "ĠRandom": 10003, "Ġran": 10004, ".sort": 10005, "Ġsorted": 10006, ".Un": 10007, "_PER": 10008, "itory": 10009, "Ġpriority": 10010, "ĠGal": 10011, "ĠOld": 10012, "hot": 10013, "ĠDisplay": 10014, "(sub": 10015, "_TH": 10016, "_Y": 10017, "ĠCare": 10018, "loading": 10019, "Kind": 10020, "_handle": 10021, ",,": 10022, "rase": 10023, "_replace": 10024, ".addEventListener": 10025, "ĠRT": 10026, "Ġentered": 10027, "gers": 10028, "Ġich": 10029, "(start": 10030, "/app": 10031, "Ġbrother": 10032, "Memory": 10033, "Outlet": 10034, "Ġutf": 10035, "prec": 10036, "Ġnavigation": 10037, "ORK": 10038, "Ġdst": 10039, "Detail": 10040, "Ġaudience": 10041, "Ġdur": 10042, "Ġcluster": 10043, "unched": 10044, "Ġ],": 10045, "Ġcomfortable": 10046, ".values": 10047, "ĠTotal": 10048, "Ġsnap": 10049, "Ġstandards": 10050, "Ġperformed": 10051, "hand": 10052, "(\"@": 10053, "Ġphil": 10054, "ibr": 10055, "trim": 10056, "Ġforget": 10057, "Ġdoctor": 10058, ".TextBox": 10059, "icons": 10060, ",s": 10061, "ĠOp": 10062, "Sm": 10063, "Stop": 10064, "ĉList": 10065, "ĉu": 10066, "Comment": 10067, "_VERSION": 10068, ".Xtra": 10069, "Person": 10070, "rb": 10071, "LOB": 10072, "ĠCentral": 10073, "ICK": 10074, "raq": 10075, "Ġputting": 10076, "Ġmd": 10077, "ĠLove": 10078, "Program": 10079, "Border": 10080, "oor": 10081, "Ġallowing": 10082, "after": 10083, "Ġentries": 10084, "ĠMaybe": 10085, "]).": 10086, "ĠShort": 10087, ")\\": 10088, ".now": 10089, "friend": 10090, "Ġprefer": 10091, "ĠGPIO": 10092, "osis": 10093, "ĠGameObject": 10094, "Ġskip": 10095, "Ġcompetition": 10096, "_match": 10097, "lications": 10098, "_CONT": 10099, ".groupBox": 10100, "Ġals": 10101, "\"We": 10102, "_eq": 10103, "lan": 10104, "_search": 10105, "ĠMusic": 10106, "asis": 10107, "Ġbind": 10108, "ĠIsland": 10109, "rum": 10110, "(E": 10111, "Ġseat": 10112, "Video": 10113, "Ġack": 10114, "reek": 10115, "Ġrating": 10116, "Ġrestaurant": 10117, "DEX": 10118, "(buf": 10119, "pping": 10120, "uality": 10121, "Ġleague": 10122, "Ġfocused": 10123, "apon": 10124, "$data": 10125, "CLUD": 10126, "CLUDING": 10127, "Ġabsolute": 10128, "(query": 10129, "Ġtells": 10130, "Ang": 10131, "Ġcommunities": 10132, "Ġhonest": 10133, "oking": 10134, "Ġapart": 10135, "arity": 10136, "/$": 10137, "_module": 10138, "ĠEnc": 10139, ".an": 10140, ".Config": 10141, "Cre": 10142, "Ġshock": 10143, "ĠArab": 10144, "IENT": 10145, "/re": 10146, "Ġretrie": 10147, "ycler": 10148, "isa": 10149, "ĠOrgan": 10150, ".graph": 10151, "ĠBAS": 10152, "Enum": 10153, "Ġpossibly": 10154, "ĠJapanese": 10155, "Ġcraft": 10156, "ĠPlace": 10157, "Ġtalent": 10158, "Ġfunding": 10159, "Ġconfirmed": 10160, "Ġcycle": 10161, "/x": 10162, "GE": 10163, "Ġhearing": 10164, "Ġplants": 10165, "Ġmouth": 10166, "pages": 10167, "oria": 10168, "ĠRemove": 10169, "_total": 10170, "Ġod": 10171, "ollapse": 10172, "door": 10173, "Ġbought": 10174, "Ġaddr": 10175, "ARCH": 10176, "_dim": 10177, "dden": 10178, "Ġdecades": 10179, "REQUEST": 10180, "Ġversions": 10181, "fire": 10182, "Ġmoves": 10183, "fb": 10184, "Ġcoffee": 10185, ".connect": 10186, "ĠRow": 10187, "Ġschema": 10188, "Scope": 10189, "-Type": 10190, "Ġfighting": 10191, "Ġretail": 10192, "Ġmodified": 10193, "TF": 10194, "Files": 10195, "nie": 10196, "_command": 10197, "stone": 10198, "_thread": 10199, "Ġbond": 10200, "ĠDevelopment": 10201, "Ġpt": 10202, "FORM": 10203, "plet": 10204, "Ġidentified": 10205, "cpp": 10206, "Ġcoding": 10207, "oked": 10208, "ĠMaster": 10209, "IDTH": 10210, "Ġresidents": 10211, "redit": 10212, "ĠPhoto": 10213, "=-": 10214, "unte": 10215, "ateur": 10216, "_STATE": 10217, "ĠSing": 10218, "Ġsheet": 10219, ".val": 10220, "orse": 10221, "Ġhers": 10222, "Ġdetermined": 10223, "Common": 10224, "Ġwed": 10225, "_queue": 10226, "PH": 10227, "ĠAtl": 10228, "cred": 10229, "/LICENSE": 10230, "Ġmes": 10231, "Ġadvanced": 10232, ".java": 10233, ".Sh": 10234, "Go": 10235, "kill": 10236, "fp": 10237, "_settings": 10238, "Ġpal": 10239, "Ġtruck": 10240, "Ġcombined": 10241, "Ġ\"${": 10242, "ĠCorpor": 10243, "Ġjoined": 10244, "ĠJose": 10245, "ĠCup": 10246, "uns": 10247, "estival": 10248, "levision": 10249, "Ġbroken": 10250, "Ġmarriage": 10251, "ĠWestern": 10252, "Ġrepresents": 10253, "ĠTitle": 10254, "Ġss": 10255, ".Ass": 10256, "ongoose": 10257, "iento": 10258, "Ġabsolutely": 10259, "Ġsmooth": 10260, "TERN": 10261, "ĠUnless": 10262, "Word": 10263, "Ġmerge": 10264, "igan": 10265, "ĠVol": 10266, "Ġnn": 10267, ".getId": 10268, "Ġsexy": 10269, "Ġseeking": 10270, "Single": 10271, ".this": 10272, "Ġkom": 10273, "bound": 10274, ";\"": 10275, "ĠfontSize": 10276, "_df": 10277, "Ġinjury": 10278, "(H": 10279, "Ġissued": 10280, "_END": 10281, ":self": 10282, "Ġpatch": 10283, "Ġleaves": 10284, "Ġadopt": 10285, "FileName": 10286, "Ġexecutive": 10287, "ĠByte": 10288, "Ġnu": 10289, "outing": 10290, "cluding": 10291, "-R": 10292, ".options": 10293, "Ġsubstant": 10294, "avax": 10295, "ĠBUT": 10296, "Ġtechnical": 10297, "Ġtwice": 10298, "ĠmÃ¡s": 10299, "Ġunivers": 10300, "yr": 10301, "Ġdrag": 10302, "ĠDC": 10303, "Ġsed": 10304, "Ġbot": 10305, "ĠPal": 10306, "ĠHall": 10307, "forcement": 10308, "Ġauch": 10309, ".mod": 10310, "notation": 10311, "_files": 10312, ".line": 10313, "_flag": 10314, "[name": 10315, "Ġresolution": 10316, "Ġbott": 10317, "(\"[": 10318, "ende": 10319, "(arr": 10320, "Free": 10321, "(@\"": 10322, "ĠDistrict": 10323, "PEC": 10324, ":-": 10325, "Picker": 10326, "ĠJo": 10327, "ĠRiver": 10328, "_rows": 10329, "Ġhelpful": 10330, "Ġmassive": 10331, "Ġmeasures": 10332, "ĠRuntime": 10333, "Ġworry": 10334, "ĠSpec": 10335, "ĉD": 10336, "Ġworse": 10337, "(filename": 10338, "Ġlay": 10339, "Ġmagic": 10340, "ĠTheir": 10341, "oul": 10342, "stroy": 10343, "ĠWhere": 10344, "Ġsudden": 10345, "Ġdefe": 10346, "Ġbinding": 10347, "Ġflight": 10348, "ĠOnInit": 10349, "ĠWomen": 10350, "ĠPolicy": 10351, "Ġdrugs": 10352, "ishing": 10353, "ĠMel": 10354, "peat": 10355, "tor": 10356, "Ġproposed": 10357, "Ġstated": 10358, "_RES": 10359, "Ġeast": 10360, "ĠCONDITION": 10361, "_desc": 10362, "Ġwinning": 10363, "folio": 10364, "Mapper": 10365, "ĠPan": 10366, "ĠAnge": 10367, ".servlet": 10368, "Ġcopies": 10369, "LM": 10370, "Ġvm": 10371, "Ġdictionary": 10372, "Seg": 10373, "elines": 10374, "ĠSend": 10375, "Ġiron": 10376, "ĠFort": 10377, ".domain": 10378, "Ġdebate": 10379, "NotNull": 10380, "eq": 10381, "acher": 10382, "lf": 10383, "ĉfmt": 10384, "Ġlawy": 10385, "ĠMen": 10386, "Ġtrim": 10387, "(NULL": 10388, "Ġ!!": 10389, "Ġpad": 10390, "Ġfollows": 10391, "requ": 10392, "ĠEp": 10393, ".github": 10394, "(img": 10395, "eto": 10396, "('\\": 10397, "Services": 10398, "umbnail": 10399, "_main": 10400, "pleted": 10401, "fortunately": 10402, "Ġwindows": 10403, "Ġplane": 10404, "ĠConnection": 10405, ".local": 10406, "uard": 10407, "}\\": 10408, "==\"": 10409, "andon": 10410, "ĠRoy": 10411, "west": 10412, "iginal": 10413, "emies": 10414, "itz": 10415, "ĠPeter": 10416, "Ġtough": 10417, "Ġreduced": 10418, "Ġcalculate": 10419, "Ġrapid": 10420, "customer": 10421, "Ġefficient": 10422, "Ġmedium": 10423, "Ġfell": 10424, ".ref": 10425, "ĠCas": 10426, "Ġfeedback": 10427, "Speed": 10428, "(output": 10429, "aje": 10430, "Ġcategories": 10431, "Ġfee": 10432, "};": 10433, "Ġdeleted": 10434, "reh": 10435, "Ġproof": 10436, "Desc": 10437, "Build": 10438, "Ġsides": 10439, ".ArrayList": 10440, "-%": 10441, ".match": 10442, "Ġfeels": 10443, "Ġachieve": 10444, "Ġclim": 10445, "_ON": 10446, "ĠCD": 10447, "Ġteacher": 10448, "_current": 10449, "bn": 10450, "_PL": 10451, "isting": 10452, "Enable": 10453, "GEN": 10454, "Ġtv": 10455, "Ġsock": 10456, "Ġplays": 10457, "Ġdiscount": 10458, "ĠKE": 10459, "ĠDebug": 10460, "Fore": 10461, "ĠIraq": 10462, "Ġappearance": 10463, "Mon": 10464, "Ġstyled": 10465, "ĠHuman": 10466, "iot": 10467, "ĠHistory": 10468, "Ġsac": 10469, "ĠCollection": 10470, "Ġrecommended": 10471, ".Selected": 10472, "Ġorganizations": 10473, "Ġdiscovered": 10474, "cohol": 10475, "adas": 10476, "ĠThomas": 10477, "May": 10478, "Ġconserv": 10479, "Ġdomin": 10480, "ĠFollow": 10481, "ĠSection": 10482, "ĠThanks": 10483, "Username": 10484, "Ġrecipe": 10485, "Ġwonderful": 10486, ".sleep": 10487, "_if": 10488, "orno": 10489, "Ġru": 10490, "_target": 10491, ".\"\"": 10492, "EventArgs": 10493, "Ġinputs": 10494, "Ġfif": 10495, "Ġvision": 10496, "cy": 10497, "ĠSeries": 10498, "Ġtrading": 10499, "Ġmarker": 10500, "Begin": 10501, "Ġtypically": 10502, "Ġcauses": 10503, "dropdown": 10504, "_DEBUG": 10505, "Ġdetect": 10506, "country": 10507, "ĉR": 10508, "appy": 10509, "Ġcref": 10510, "('<": 10511, "\"=>": 10512, "ĠLE": 10513, "reader": 10514, "Ġadministr": 10515, "ucket": 10516, "Ġfashion": 10517, ".char": 10518, "izar": 10519, "Ġdisable": 10520, "Ġsuc": 10521, "ĠLive": 10522, "issue": 10523, "Ġmetadata": 10524, "flags": 10525, "Ġcommitted": 10526, "Ġva": 10527, "Ġrough": 10528, "Ġhighlight": 10529, "_vars": 10530, "VO": 10531, "Ġencoding": 10532, "-Z": 10533, "_sign": 10534, "Ġrain": 10535, "reatest": 10536, "ĠEND": 10537, "Selection": 10538, "Ġcandidates": 10539, "Ġsav": 10540, ".Empty": 10541, "Ġdecisions": 10542, "Ġcollabor": 10543, "ridge": 10544, "feed": 10545, "ression": 10546, "Ġpersons": 10547, "VM": 10548, "ega": 10549, "_BIT": 10550, "According": 10551, "acked": 10552, "Ġdollars": 10553, "_loss": 10554, "ĠCost": 10555, "Notification": 10556, "Ġprostit": 10557, "Ġauthority": 10558, ".rec": 10559, "Ġspokes": 10560, "ĠToday": 10561, "istant": 10562, "ĠHead": 10563, "ertainment": 10564, "cean": 10565, "culate": 10566, "Ġven": 10567, "However": 10568, "_arr": 10569, "Ġtokens": 10570, "Graph": 10571, "ĠJud": 10572, "ĠVirgin": 10573, "ĠSerial": 10574, "unning": 10575, "Mutable": 10576, "agers": 10577, ".csv": 10578, "Ġdeveloping": 10579, "Ġinstructions": 10580, "Ġpromise": 10581, "Ġrequested": 10582, "_encode": 10583, "/\"": 10584, "ĠIcon": 10585, "uilt": 10586, "-day": 10587, "Ġintelligence": 10588, ".IS": 10589, "ĠObservable": 10590, "ĠHard": 10591, "Bool": 10592, "idential": 10593, ".Anchor": 10594, "Ġselling": 10595, "CI": 10596, "AGES": 10597, "tle": 10598, "bur": 10599, "UFFER": 10600, "RY": 10601, "Ġbigger": 10602, "Ġrat": 10603, "Ġfamous": 10604, "Ġtypename": 10605, "Ġexplained": 10606, "Ġnuclear": 10607, "-N": 10608, "Ġcrisis": 10609, "ĠEnter": 10610, "Ġanswers": 10611, "/${": 10612, "/pl": 10613, "Ġsequ": 10614, "_next": 10615, "mask": 10616, "Ġstanding": 10617, "Ġplenty": 10618, "ĠCross": 10619, "ĉret": 10620, "dro": 10621, "ĠCast": 10622, "=true": 10623, "ĠChris": 10624, "icio": 10625, "ĠMike": 10626, "Decimal": 10627, "addComponent": 10628, "Len": 10629, "Ġcock": 10630, "Ġ#{": 10631, "URN": 10632, "<tr": 10633, "Ġauthorities": 10634, "Resources": 10635, "-H": 10636, "Bottom": 10637, "_qu": 10638, "puter": 10639, "esterday": 10640, "Dispatch": 10641, "since": 10642, "Ġfamiliar": 10643, ",i": 10644, "VC": 10645, "Ġment": 10646, ",C": 10647, "Ġfreedom": 10648, "Ġroutes": 10649, "ĠBuy": 10650, "Ġcommands": 10651, "Ġmesh": 10652, "/C": 10653, "ĠSettings": 10654, "-style": 10655, "Ġwitness": 10656, "Ġcle": 10657, "Ġunion": 10658, "efault": 10659, "aret": 10660, "Ġthoughts": 10661, "_process": 10662, "_us": 10663, "ingly": 10664, "UES": 10665, "Touch": 10666, "_open": 10667, "ĠVec": 10668, "Ġreward": 10669, ".Click": 10670, "/:": 10671, "Ġnie": 10672, "Changes": 10673, "Month": 10674, "Ġexecution": 10675, "Ġbeach": 10676, "(Integer": 10677, "ĉa": 10678, "/'": 10679, ".FontStyle": 10680, "Ġabort": 10681, "ĠSingle": 10682, "(isset": 10683, "Ġdp": 10684, "ĠMa": 10685, ".Rows": 10686, "ĠPet": 10687, "%)": 10688, "rand": 10689, "Rule": 10690, "Ġhel": 10691, "RITE": 10692, "Ġquiet": 10693, "Ġratio": 10694, "ĠCONDITIONS": 10695, "osoph": 10696, "ĠIL": 10697, "Ġadvent": 10698, "cap": 10699, ";</": 10700, "ĠUSB": 10701, "Driver": 10702, "Ġours": 10703, "ĠJohnson": 10704, ".K": 10705, "_delete": 10706, ".q": 10707, "ĉstr": 10708, "/common": 10709, "ĉstring": 10710, "ĠPDF": 10711, "acts": 10712, ".Action": 10713, "ĠQuery": 10714, ".response": 10715, "ĠGirl": 10716, "Ġprocesses": 10717, "<Integer": 10718, "imo": 10719, "Ġadds": 10720, "Ġentirely": 10721, "Ġwash": 10722, "Ġanimated": 10723, "Ġprofit": 10724, "encing": 10725, "/S": 10726, "ĠSym": 10727, "Ġmanual": 10728, "Download": 10729, "Ġ(!$": 10730, "Ġmotion": 10731, "webpack": 10732, "-bottom": 10733, "Ġgratuit": 10734, "PG": 10735, "(:,": 10736, "Ġera": 10737, "Ġho": 10738, "ĠJim": 10739, "quir": 10740, "ĠBASIS": 10741, "Ã¡n": 10742, "DER": 10743, "Ġexpensive": 10744, "_co": 10745, "Bounds": 10746, "Well": 10747, "ĠDemocratic": 10748, "ĠâĨĴ": 10749, ".Rem": 10750, "_SY": 10751, "names": 10752, "ĠVi": 10753, "Ġisinstance": 10754, "\\\">": 10755, "Ġ*=": 10756, "ĠPS": 10757, "Ġdangerous": 10758, "[p": 10759, "OME": 10760, "Other": 10761, "ĠStringBuilder": 10762, "Points": 10763, "heading": 10764, "Ġcurrency": 10765, "Ġpercentage": 10766, "_API": 10767, "Ġclassic": 10768, "thead": 10769, "ĠMO": 10770, "FE": 10771, "Idx": 10772, "await": 10773, "Ġaccident": 10774, "Ġvariant": 10775, "Ġmyst": 10776, "ĠLand": 10777, "ĠBre": 10778, "Ġharm": 10779, "ĠAcc": 10780, "Ġcharged": 10781, "iones": 10782, "Visibility": 10783, "arry": 10784, "ĠLanguage": 10785, "Ġwalking": 10786, "ifer": 10787, "Ġleadership": 10788, ".From": 10789, "ynam": 10790, "Ġtimestamp": 10791, "ipt": 10792, "ĠHas": 10793, "REFER": 10794, "ĠIts": 10795, "Ġlistener": 10796, "UTE": 10797, "_description": 10798, "Ġexperiences": 10799, "Ġcreates": 10800, "RS": 10801, "cart": 10802, "black": 10803, "Ġchoices": 10804, "war": 10805, "Ġ'''": 10806, "Ġordered": 10807, "Ġevening": 10808, "Ġpil": 10809, "Ġtun": 10810, "ĠBad": 10811, "(app": 10812, "random": 10813, "Ġexplicit": 10814, "Ġarrived": 10815, "Ġfly": 10816, "Ġeconom": 10817, "-mail": 10818, "Ġlists": 10819, "Ġarchitect": 10820, "ĠPay": 10821, "Ġds": 10822, "ĠSol": 10823, "Ġvehicles": 10824, "Hz": 10825, "-com": 10826, "Ġking": 10827, "_equal": 10828, "ĠHelp": 10829, "Ġabuse": 10830, "Ġextr": 10831, "Ġchemical": 10832, "Ġorient": 10833, "Ġbreath": 10834, "ĠSpace": 10835, "(element": 10836, "wait": 10837, "DED": 10838, "igma": 10839, "Ġentr": 10840, "Ġsob": 10841, "-name": 10842, "Ġaffected": 10843, "ika": 10844, "Ġcoal": 10845, "_work": 10846, "Ġhundreds": 10847, "Ġpolitics": 10848, "subject": 10849, "Ġconsumer": 10850, "ANGE": 10851, "Ġrepeated": 10852, "Send": 10853, "Ġ#[": 10854, "Ġprotocol": 10855, "Ġleads": 10856, "useum": 10857, "Every": 10858, "Import": 10859, "(count": 10860, "Ġchallenges": 10861, "Ġnovel": 10862, "Ġdepart": 10863, "bits": 10864, ".Current": 10865, "Ġ`${": 10866, "oting": 10867, "(\\": 10868, "Ġcreative": 10869, "Ġbuff": 10870, "Ġintroduced": 10871, "usic": 10872, "modules": 10873, "Are": 10874, "-doc": 10875, "language": 10876, "_cache": 10877, "Ġtod": 10878, "omething": 10879, "Ġhun": 10880, "aters": 10881, "Intent": 10882, "Ġimplemented": 10883, "ĠCase": 10884, "Children": 10885, "Ġnotification": 10886, "Renderer": 10887, "Wrapper": 10888, "Objects": 10889, "tl": 10890, ".Contains": 10891, "Plugin": 10892, ".row": 10893, "Ġforg": 10894, "Ġpermit": 10895, "Ġtargets": 10896, "ĠIF": 10897, "Ġtip": 10898, "sex": 10899, "Ġsupports": 10900, "Ġfold": 10901, "photo": 10902, "Ġgoogle": 10903, "Ġsharing": 10904, "Ġgoods": 10905, "vs": 10906, "ĠDan": 10907, "Rate": 10908, "ĠMartin": 10909, "Ġmanner": 10910, "lie": 10911, ".The": 10912, "Internal": 10913, "ĠCONTR": 10914, "Mock": 10915, "RIGHT": 10916, "Ġ'{": 10917, "Ġcontrols": 10918, "Mat": 10919, "Ġmand": 10920, "Ġextended": 10921, "Ok": 10922, "Ġembed": 10923, "Ġplanet": 10924, "ĠNon": 10925, "-ch": 10926, ")\",": 10927, "epar": 10928, "Ġbelieved": 10929, "ĠEnvironment": 10930, "ĠFriend": 10931, "-res": 10932, "Ġhandling": 10933, "nic": 10934, "-level": 10935, "scri": 10936, "Xml": 10937, "BE": 10938, "ungen": 10939, "Ġalter": 10940, "[idx": 10941, "Pop": 10942, "cam": 10943, "Ġ(((": 10944, "Ġshipping": 10945, "Ġbattery": 10946, "iddleware": 10947, "MC": 10948, "Ġimpl": 10949, "otation": 10950, "ĠLab": 10951, "<form": 10952, "ĉname": 10953, "ĠGames": 10954, "ray": 10955, "Extra": 10956, "Two": 10957, "(player": 10958, "ĠLes": 10959, "Â°": 10960, "Ġcharset": 10961, "Ġjourney": 10962, "eting": 10963, "Ġdin": 10964, "Ġperman": 10965, "Ġsolve": 10966, "Ġlaunched": 10967, "Ġnine": 10968, "Ġsending": 10969, "Ġtelling": 10970, ".password": 10971, "ĠMatrix": 10972, "eric": 10973, "Ġgrab": 10974, ".u": 10975, "ĠLibrary": 10976, "Ġdebt": 10977, "INK": 10978, ".findViewById": 10979, "Ġfrequency": 10980, ".ad": 10981, "_TEST": 10982, "Ġnegot": 10983, "ĠAfrican": 10984, "sender": 10985, "Global": 10986, "Ġexperts": 10987, "Ġdepending": 10988, "gray": 10989, "Ġjudge": 10990, "Ġsentence": 10991, "losure": 10992, "Ac": 10993, "Ġtrace": 10994, "Edge": 10995, "Ġfriendly": 10996, "Ġconcerned": 10997, "blog": 10998, "Ġclaimed": 10999, "}'": 11000, "integer": 11001, "_tree": 11002, "ĉcontinue": 11003, "xi": 11004, "Ġaccepted": 11005, "_one": 11006, "ĠEducation": 11007, "ublished": 11008, "gon": 11009, "appoint": 11010, "outs": 11011, "Ġmining": 11012, "Ġsongs": 11013, "Ġherself": 11014, "Ġgranted": 11015, "Ġpassion": 11016, "ĠLake": 11017, "Ġloan": 11018, "uent": 11019, "chant": 11020, "Ġdetailed": 11021, "except": 11022, "_cmd": 11023, "ĠHE": 11024, "Related": 11025, "zt": 11026, "Ġspecifically": 11027, "Static": 11028, "Ġcarried": 11029, "ANS": 11030, "\\\":": 11031, "Created": 11032, "Ġcul": 11033, "]-": 11034, "_api": 11035, "FP": 11036, "Ġsitting": 11037, "Ġ\"\")": 11038, "ĉgoto": 11039, "ĠEqu": 11040, "Ġassault": 11041, "kins": 11042, "ancer": 11043, "ogen": 11044, "Ġvoters": 11045, "ĠProt": 11046, "Descriptor": 11047, ".Assert": 11048, "bsites": 11049, "oster": 11050, "-menu": 11051, "Ġarms": 11052, ".Client": 11053, ".background": 11054, "avity": 11055, "Ġvul": 11056, "_MASK": 11057, "Ġhousing": 11058, "Ġbear": 11059, "_iter": 11060, "pired": 11061, "Ġmarkets": 11062, "ĠStudent": 11063, "Ġticket": 11064, "Ġmillions": 11065, "flater": 11066, ")=": 11067, "Ġrecover": 11068, "ĠForce": 11069, "ĠBoth": 11070, "Ġvictim": 11071, "ĠDisc": 11072, "report": 11073, "Ġfourth": 11074, "ĠAssembly": 11075, "/user": 11076, "NullOr": 11077, "textarea": 11078, "Ġath": 11079, "Ġ([": 11080, "Ġchannels": 11081, "ĠJustice": 11082, "choice": 11083, "LOBAL": 11084, "exec": 11085, "emale": 11086, "Ġelem": 11087, "_le": 11088, "Ġresponsibility": 11089, "ĠTw": 11090, "ICATION": 11091, "Ġelseif": 11092, "Ġfo": 11093, "asts": 11094, "Ġtreated": 11095, "sen": 11096, "ĠVict": 11097, "sumer": 11098, "_BASE": 11099, "Ġast": 11100, ">{{": 11101, "ĠResource": 11102, "ĠStandard": 11103, "ĠPrem": 11104, "updated": 11105, "ivalent": 11106, "Ġassets": 11107, "_temp": 11108, "Ġinterests": 11109, "Ġhardware": 11110, "ĠRom": 11111, "ĠShare": 11112, "Ġ*,": 11113, "ĠTake": 11114, "ĠImages": 11115, "_CHECK": 11116, "(typeof": 11117, "ĠJun": 11118, "\\<^": 11119, "Ġliqu": 11120, "Ġworst": 11121, "ymbols": 11122, "Ġdrivers": 11123, "ĠDocument": 11124, "eno": 11125, "ĠTechnology": 11126, "Ġapproved": 11127, "umps": 11128, "Ġsnow": 11129, "formance": 11130, "_ASSERT": 11131, "uits": 11132, "Ġdifferences": 11133, ".Visible": 11134, "ĠPs": 11135, "_fetch": 11136, "Ġtodo": 11137, "Ġsel": 11138, "urers": 11139, "invalid": 11140, "Ġtweet": 11141, "VEL": 11142, "Ġresearchers": 11143, "Ġsprintf": 11144, "ĠRO": 11145, "Ġpel": 11146, ".Trans": 11147, "Ġillegal": 11148, "dialog": 11149, "smarty": 11150, "lg": 11151, "_MIN": 11152, "Ġhero": 11153, "final": 11154, "Ġpp": 11155, ".Le": 11156, "Ġci": 11157, "ĉRT": 11158, "Ġsuggested": 11159, "pdf": 11160, "aching": 11161, "ĠRo": 11162, "ĠProperties": 11163, "ĠSi": 11164, "Ġbuying": 11165, "Ġmu": 11166, "Ġlands": 11167, "ifiers": 11168, "ĠFILE": 11169, "ROUP": 11170, "Ġholder": 11171, "ĠSon": 11172, "Ġsympt": 11173, ".route": 11174, ")?": 11175, "Ġargc": 11176, "Ġfort": 11177, "Ġcasino": 11178, "_category": 11179, "Ġforum": 11180, "prefix": 11181, "apture": 11182, "Tube": 11183, "ems": 11184, "imize": 11185, "Ġnue": 11186, "aus": 11187, "course": 11188, "ATOR": 11189, "Advertis": 11190, "INGS": 11191, "Ġacknow": 11192, "ĠKorea": 11193, "pling": 11194, "Ġworker": 11195, "PLIED": 11196, "hal": 11197, "ĠRichard": 11198, "Elements": 11199, "star": 11200, "Ġrelationships": 11201, "Ġcheap": 11202, "ACH": 11203, "ĠXML": 11204, ",&": 11205, "ĠLouis": 11206, "Ġride": 11207, "_FAIL": 11208, "Ġchunk": 11209, "[s": 11210, "_OUT": 11211, "Ġchosen": 11212, "_[": 11213, "/(": 11214, "ĠJeff": 11215, "_sl": 11216, "priv": 11217, "ĠCanadian": 11218, "Ġunable": 11219, "_FLAG": 11220, "Ġnos": 11221, "high": 11222, "Ġlift": 11223, "fun": 11224, "(){": 11225, "elly": 11226, "yclerView": 11227, "_as": 11228, "_LIST": 11229, "Ġradi": 11230, ".getValue": 11231, "ĠAngeles": 11232, "ĠSpan": 11233, "_instance": 11234, "itors": 11235, "Ġmigration": 11236, "AK": 11237, "Oh": 11238, ".selected": 11239, "ĠGT": 11240, "Ġadvance": 11241, "ĠStyle": 11242, ".DataGridView": 11243, "ection": 11244, "pio": 11245, "rog": 11246, "Ġshopping": 11247, "ĠRect": 11248, "Illuminate": 11249, "OU": 11250, "ĉarray": 11251, "Ġsubstantial": 11252, "Ġpregn": 11253, "Ġpromote": 11254, "IEW": 11255, ".Layout": 11256, "Ġsigns": 11257, "/.": 11258, "Ġletters": 11259, "Board": 11260, "ctrl": 11261, "\"\\": 11262, "ĠJones": 11263, "Ġvertex": 11264, "Ġja": 11265, "Ġaffili": 11266, "Ġwealth": 11267, "ĉdefault": 11268, "Ġsignificantly": 11269, "Ġec": 11270, "Ġxs": 11271, "actual": 11272, ".per": 11273, "_step": 11274, "anvas": 11275, "mac": 11276, "Ġtransl": 11277, "Iterator": 11278, "Ġoch": 11279, "agnostic": 11280, "ĠDuring": 11281, "ĠDEFAULT": 11282, "Ġtill": 11283, "Ġsignature": 11284, "Ġbird": 11285, "ĠOl": 11286, "ĠIr": 11287, "HS": 11288, "avatar": 11289, "ESSAGE": 11290, "Ġelev": 11291, "Ġmt": 11292, "ĠNav": 11293, "Ġrelax": 11294, "Ġplate": 11295, "ITEM": 11296, "(date": 11297, ".not": 11298, "Ġgrade": 11299, "iences": 11300, "High": 11301, "ĠDIS": 11302, "disabled": 11303, "QUI": 11304, "Ġnoise": 11305, "aux": 11306, "ĠUP": 11307, "osa": 11308, "Ġvoc": 11309, "Ġ))": 11310, "ocom": 11311, "_OFF": 11312, "ĠDb": 11313, "Lock": 11314, ".eclipse": 11315, ",d": 11316, "ĠDraw": 11317, "Ġ\"(": 11318, "Ġvisited": 11319, "ĠâĪ": 11320, "Ġsucceed": 11321, "Ġimpossible": 11322, "aire": 11323, "ĠTurn": 11324, "Ġdish": 11325, "FG": 11326, "Ġsensor": 11327, "ANN": 11328, "aba": 11329, "Ġsurg": 11330, "Ġfp": 11331, "_an": 11332, "-J": 11333, "-G": 11334, "ĠJob": 11335, "Convert": 11336, "ĠKEY": 11337, "Ġauthors": 11338, "_server": 11339, "\\r": 11340, "Ġ-*-": 11341, "flex": 11342, "Ġsoc": 11343, "Ret": 11344, "Ġsalt": 11345, "ĠClear": 11346, "(page": 11347, "-danger": 11348, "Ġrooms": 11349, "conv": 11350, "#{": 11351, ".op": 11352, "ĠArea": 11353, "_SC": 11354, "hen": 11355, "Ġbegins": 11356, "-y": 11357, "Ġexcited": 11358, "Ġignored": 11359, "Ġbonus": 11360, "student": 11361, "ĠMember": 11362, "Ġrelatively": 11363, "ĠLow": 11364, "ĠProdu": 11365, "ateway": 11366, "posure": 11367, "Ġthick": 11368, "aniel": 11369, "(view": 11370, "ĠCrush": 11371, "Extension": 11372, "Il": 11373, "eed": 11374, "LOC": 11375, ".im": 11376, ".Items": 11377, "Ġconflict": 11378, ".prevent": 11379, "ĠonCreate": 11380, "uv": 11381, "iser": 11382, "Ġwave": 11383, "Mar": 11384, "ĠCommunity": 11385, "iche": 11386, "ĠNothing": 11387, "[m": 11388, "ĠLee": 11389, "riends": 11390, "Ã¨re": 11391, "!!!": 11392, "anz": 11393, ".result": 11394, "ĠSK": 11395, "_PARAM": 11396, "Ġdemocr": 11397, "BackColor": 11398, ".exists": 11399, "\"It": 11400, "(options": 11401, "razy": 11402, "aser": 11403, "\\Database": 11404, "alendar": 11405, "_ass": 11406, "vertex": 11407, "inecraft": 11408, "Warning": 11409, "argo": 11410, "Ġactor": 11411, "ĠInstead": 11412, "ĠUsing": 11413, "Self": 11414, "@interface": 11415, "Ġspeaking": 11416, "ĠParis": 11417, "ĠLICENSE": 11418, ".node": 11419, "ĠFood": 11420, "EIF": 11421, "ĠBi": 11422, ".Start": 11423, "ĠIB": 11424, "Ġuniversity": 11425, "ĠHeader": 11426, ".product": 11427, "Copy": 11428, "etc": 11429, "rical": 11430, "Ġ>>>": 11431, "books": 11432, "Ġalgorithm": 11433, "Ġ'__": 11434, "(javax": 11435, "Ġnumerous": 11436, "Share": 11437, "Have": 11438, "Ġrecru": 11439, "Ġprove": 11440, ".substring": 11441, "health": 11442, "Ġdecimal": 11443, "Ġcommission": 11444, "scription": 11445, "xC": 11446, "Ġsummary": 11447, "atted": 11448, "Ġcloser": 11449, "finished": 11450, "ĠWood": 11451, "_fields": 11452, "ku": 11453, "_items": 11454, "Flag": 11455, "Ġconfidence": 11456, "ĠFederal": 11457, "dux": 11458, "Ġcompat": 11459, "Ġvertical": 11460, "Ã¨s": 11461, "_manager": 11462, "IDE": 11463, ":\",": 11464, "ĠWay": 11465, "Temp": 11466, "ĠSTR": 11467, "ritten": 11468, "Sync": 11469, "ĠAV": 11470, "ĠCEO": 11471, "ĠGuid": 11472, "Ġenvironmental": 11473, "Ġcorresponding": 11474, "ĉconsole": 11475, "Ġjustice": 11476, "ĠJS": 11477, "Ġlived": 11478, "gar": 11479, "ĠGraph": 11480, "ĠStat": 11481, "ĠiPhone": 11482, ".al": 11483, "ĠHD": 11484, "Ġoccur": 11485, "Ġthreshold": 11486, "Ġonclick": 11487, "REG": 11488, ".GraphicsUnit": 11489, "Meta": 11490, "Ġcum": 11491, ".gnu": 11492, "Ġobtained": 11493, "Ġcomplaint": 11494, "Ġeating": 11495, "Ġtar": 11496, "_task": 11497, "Ġopts": 11498, "(to": 11499, "Pass": 11500, "Ġplastic": 11501, "tility": 11502, "ĠWin": 11503, ".preventDefault": 11504, "pile": 11505, "ĠGar": 11506, "Ġquantity": 11507, "_last": 11508, "Ġgreatest": 11509, "Dao": 11510, "_DIS": 11511, "ĠUsed": 11512, "ĠHP": 11513, "riting": 11514, "SION": 11515, "blue": 11516, "domain": 11517, "Ġscores": 11518, "Normal": 11519, "_admin": 11520, "ĠASSERT": 11521, "Then": 11522, "***": 11523, "dist": 11524, "lon": 11525, "Ġhate": 11526, "shal": 11527, "ImageView": 11528, "database": 11529, "Ġpand": 11530, "Ġlogic": 11531, "=false": 11532, "bg": 11533, "ĠConfiguration": 11534, "Ġnur": 11535, "OG": 11536, "Ġmarried": 11537, ":+": 11538, "Ġdropped": 11539, "Ġregistration": 11540, "ultiple": 11541, "izers": 11542, "shape": 11543, ".copy": 11544, "Ġwearing": 11545, "ĠCath": 11546, "Ġdedicated": 11547, "Ġadvoc": 11548, "ĠFamily": 11549, "Ġstatements": 11550, "ematic": 11551, "ampionship": 11552, "Ġmotiv": 11553, "ĠHave": 11554, "Ġblow": 11555, "Job": 11556, "cert": 11557, "_vector": 11558, "install": 11559, "ĠCOPY": 11560, "embed": 11561, "DIR": 11562, "ĠSpring": 11563, "Ġexhib": 11564, "cdn": 11565, "ĠComment": 11566, "ĠOptional": 11567, ".player": 11568, "ĠDark": 11569, "(pos": 11570, "ĠShould": 11571, "Ġcentre": 11572, "ĠGuard": 11573, "Ã³w": 11574, "Ġtrouble": 11575, "ENER": 11576, "(unsigned": 11577, "_service": 11578, "Ġns": 11579, "uling": 11580, "ĠMexico": 11581, "ĠNY": 11582, "mysql": 11583, "Ġlic": 11584, "Mr": 11585, "-fl": 11586, "ĠCustomer": 11587, "idi": 11588, "rible": 11589, "Ġsizes": 11590, "_STRING": 11591, "validation": 11592, "ĠJon": 11593, "(Http": 11594, "addClass": 11595, "Nodes": 11596, "Ġfragment": 11597, "Ġspoke": 11598, "Ġwaste": 11599, "Join": 11600, "Ġillustr": 11601, "eli": 11602, "cient": 11603, "Ġaid": 11604, "Ġprosec": 11605, "Ġpassing": 11606, "Ġfaces": 11607, "Shape": 11608, "_Z": 11609, "iti": 11610, "Ġalle": 11611, "Ġrobot": 11612, "ĠSpe": 11613, "Ġreceiving": 11614, "ĠDetails": 11615, "Ġ\")": 11616, "mg": 11617, "_REF": 11618, "Ġcomparison": 11619, "*,": 11620, "ĠFound": 11621, "_session": 11622, "(U": 11623, "/F": 11624, "Ġxxx": 11625, "Network": 11626, "ders": 11627, "Ġcapture": 11628, "Ġcorre": 11629, "ĠLtd": 11630, "ĠAdv": 11631, "[@": 11632, "Ġclip": 11633, "Mill": 11634, "ĠProfile": 11635, "Ġendif": 11636, "Ġoblig": 11637, "describe": 11638, ".element": 11639, "riterion": 11640, "LD": 11641, "ered": 11642, "Ġfavour": 11643, "score": 11644, "ĠFilter": 11645, "attributes": 11646, "Ġchecks": 11647, "Inflater": 11648, "ĠPlus": 11649, "Ġscientific": 11650, "Ġprivacy": 11651, "Head": 11652, "Ġfeat": 11653, "Ġdegrees": 11654, "ĠPale": 11655, ";\">": 11656, "Ġfilms": 11657, "ĠAudio": 11658, "ĠTag": 11659, "ĠEnergy": 11660, "itar": 11661, "parator": 11662, "Ġfellow": 11663, "Ġevt": 11664, "ĠTri": 11665, "ĠDAM": 11666, "cloud": 11667, "ĠPassword": 11668, "ĠDemocrats": 11669, "ĠAcad": 11670, "$lang": 11671, "Ġreb": 11672, "ĠBur": 11673, "readcr": 11674, "Ġhex": 11675, "Console": 11676, "ctl": 11677, "ousel": 11678, "ĠWilliam": 11679, "Ġaz": 11680, "_PORT": 11681, "Ġpractices": 11682, "Ġanywhere": 11683, "ĠPosition": 11684, "iams": 11685, ".username": 11686, "placeholder": 11687, "Ġoder": 11688, "ĠSecretary": 11689, "ĠiT": 11690, "mond": 11691, "events": 11692, ".Sub": 11693, "Ġattached": 11694, "ĠnÃ£o": 11695, "Ġestate": 11696, ".action": 11697, "Ġfigures": 11698, "Ġsubscri": 11699, ".tag": 11700, "nam": 11701, ".plot": 11702, "noon": 11703, "liament": 11704, "Character": 11705, ".tab": 11706, "Ġwinter": 11707, "ĠVariable": 11708, "Ġtrees": 11709, "Ġproud": 11710, "(V": 11711, "_load": 11712, "Ġhier": 11713, "ĠEcon": 11714, "Ġfd": 11715, "Ġvictims": 11716, "Rest": 11717, "iana": 11718, "Ġfake": 11719, ".Println": 11720, "Ġstrlen": 11721, "Ġsad": 11722, "Ġble": 11723, "Prot": 11724, "Ġbuttons": 11725, "Ġtelevision": 11726, "Ġlogo": 11727, "extension": 11728, "ĉj": 11729, "stein": 11730, "aciones": 11731, "Ġsimp": 11732, "Ġrecorded": 11733, "Ġbrings": 11734, "Ġprincipal": 11735, "Ġfees": 11736, "(source": 11737, "kdir": 11738, "Ġutils": 11739, "Ġcorrectly": 11740, "fil": 11741, "Ġwel": 11742, "Pair": 11743, "-button": 11744, "scale": 11745, "verify": 11746, "[c": 11747, "Ġ---": 11748, "Ġescape": 11749, "ikes": 11750, "LowerCase": 11751, "ician": 11752, "Ġchapter": 11753, "ĠTYPE": 11754, "Ġshadow": 11755, "Ġawesome": 11756, "WE": 11757, "elif": 11758, "Ġlambda": 11759, "Ġdistinct": 11760, "Ġbare": 11761, "-off": 11762, "Ġcolour": 11763, ".appendChild": 11764, "olec": 11765, "aga": 11766, ".fill": 11767, "ĉsuper": 11768, "Ġadj": 11769, "(position": 11770, ".getItem": 11771, "Short": 11772, "Ġtotally": 11773, "VD": 11774, "ĠTre": 11775, "_ep": 11776, "vements": 11777, "ĠSolution": 11778, "Ġfundament": 11779, "Follow": 11780, "Ġfacility": 11781, "Ġhappening": 11782, "OF": 11783, ".textBox": 11784, "Span": 11785, "iden": 11786, "Ġexceed": 11787, "(parent": 11788, "Ġcp": 11789, "Ġhasn": 11790, "Ġpri": 11791, "Ġconsequ": 11792, "nen": 11793, "ĠINTO": 11794, "Ignore": 11795, "ĠFuture": 11796, "Ġcarbon": 11797, "ĠSteel": 11798, "fmt": 11799, "okie": 11800, "Ġspl": 11801, "(title": 11802, "-info": 11803, "Ġdeals": 11804, "Ġfixture": 11805, "ea": 11806, "Div": 11807, "Ġtested": 11808, "_return": 11809, "upported": 11810, "ĠCook": 11811, "Ġpaying": 11812, "ĠIll": 11813, "Ġarrested": 11814, "ĠPrime": 11815, "_callback": 11816, "driver": 11817, "Once": 11818, "abb": 11819, "_bytes": 11820, "ĠSets": 11821, "(Object": 11822, "Ġcc": 11823, "Ġshell": 11824, "alo": 11825, "(log": 11826, "ctors": 11827, ")</": 11828, "Ġneighborhood": 11829, "ailability": 11830, "vol": 11831, "Ġyouth": 11832, "Ġtechniques": 11833, "ĠSchema": 11834, "uh": 11835, "mente": 11836, "Ġrepository": 11837, "imm": 11838, "Ġcookie": 11839, "JS": 11840, "ovies": 11841, ":{": 11842, "Complete": 11843, "Since": 11844, "Ġlaugh": 11845, "_BO": 11846, "enable": 11847, "ĠDoes": 11848, "ĠWalk": 11849, "what": 11850, "kes": 11851, "Ġmultip": 11852, "iments": 11853, "eur": 11854, "Ġvictory": 11855, "Generator": 11856, "ĠMos": 11857, "rovers": 11858, "Ġcompute": 11859, "Ġproviders": 11860, "ĠMedic": 11861, "LP": 11862, "_CONFIG": 11863, "Ġveter": 11864, "sters": 11865, "_window": 11866, "umeric": 11867, ".Response": 11868, "Ġreplaced": 11869, ".root": 11870, "-free": 11871, "-container": 11872, "Ġmatching": 11873, "ĠEditor": 11874, "=${": 11875, "ĠSaf": 11876, "Ġsind": 11877, "(buffer": 11878, ".edu": 11879, "ĠNFL": 11880, "aya": 11881, "Ġdogs": 11882, "Ġdesire": 11883, "ĠMiddle": 11884, "Cart": 11885, "Theme": 11886, "Ġmob": 11887, "Ġdisplayed": 11888, "igit": 11889, "Ġadults": 11890, "\"\"\"": 11891, "Ġdelivered": 11892, "visible": 11893, "<<<": 11894, "ĠGO": 11895, "scroll": 11896, "xE": 11897, "Ġassigned": 11898, "ĠBool": 11899, "Ġwp": 11900, "Ġcombat": 11901, "ĠHaw": 11902, ".-": 11903, "Ġsupporting": 11904, ".Content": 11905, "ircraft": 11906, "Ġspin": 11907, "ĠCR": 11908, ".my": 11909, "tpl": 11910, "Ġspaces": 11911, "?,": 11912, "ĠSyria": 11913, "Ġpatterns": 11914, "-box": 11915, "Ġframework": 11916, "/%": 11917, "(long": 11918, "Ġteaching": 11919, "ARNING": 11920, "_keys": 11921, "Ġtables": 11922, "UNC": 11923, "inations": 11924, "-weight": 11925, "radio": 11926, "ĠPac": 11927, ".server": 11928, ".CharField": 11929, "ring": 11930, "Ġquote": 11931, "anna": 11932, "Ġwerden": 11933, "Ġcream": 11934, "Ġmachines": 11935, "-k": 11936, "Ġstim": 11937, "ĠStock": 11938, "rick": 11939, "Ġimportance": 11940, "rx": 11941, "Ãµes": 11942, "Ġstroke": 11943, "agra": 11944, "Ġtaste": 11945, "ĠDEBUG": 11946, "Thanks": 11947, "ĠRequired": 11948, "ova": 11949, "Media": 11950, "ĠsiÄĻ": 11951, "(base": 11952, "posts": 11953, "ĠfileName": 11954, "Checked": 11955, "Ġinterrupt": 11956, "python": 11957, "pair": 11958, "Ġcircle": 11959, "Ġiniti": 11960, "_stream": 11961, "Ġcompreh": 11962, "learn": 11963, "Public": 11964, "Ġhumans": 11965, "Ġbringing": 11966, "ographic": 11967, "_layer": 11968, "-like": 11969, "upportInitialize": 11970, "idebar": 11971, "Ġvotes": 11972, "Ġdesired": 11973, "Mask": 11974, "Ġrelation": 11975, ".Instance": 11976, "Help": 11977, "Ġinspir": 11978, "ĠMono": 11979, "ViewModel": 11980, "ometimes": 11981, "ĠbackgroundColor": 11982, "Ġrotation": 11983, "Ġmari": 11984, "/test": 11985, "INSERT": 11986, "Star": 11987, "phy": 11988, "Ids": 11989, "_GET": 11990, "Ġincreases": 11991, "_close": 11992, "_FORM": 11993, "aza": 11994, "TEXT": 11995, "ĠVan": 11996, "Ġlights": 11997, "ĠGuide": 11998, "Ġdates": 11999, ".Command": 12000, "aman": 12001, "Ġpaths": 12002, ".edit": 12003, "ĉadd": 12004, "dx": 12005, "Ġreaction": 12006, "ĠBeach": 12007, ".getMessage": 12008, "Environment": 12009, "interest": 12010, "Ġminister": 12011, "Ġreaders": 12012, "ĉF": 12013, "Ġdomestic": 12014, "Ġfiled": 12015, "City": 12016, "Ġmapping": 12017, "ĠDES": 12018, "Ġrepair": 12019, "tics": 12020, "ixture": 12021, "Ġnombre": 12022, ".ISupportInitialize": 12023, "zo": 12024, ".IsNullOr": 12025, "ĠCarolina": 12026, "ĠDer": 12027, "ĠEVENT": 12028, "Ġgest": 12029, "Ġhist": 12030, "resources": 12031, "Ġorphan": 12032, ".Are": 12033, "ĠInvest": 12034, "REFERRED": 12035, ".Logger": 12036, "ĠRoman": 12037, "Ġcultural": 12038, "feature": 12039, "pts": 12040, "bt": 12041, "Ġdot": 12042, "Ġdiam": 12043, "uspend": 12044, "_access": 12045, "Ġsurprise": 12046, "abil": 12047, "Ġvirt": 12048, "Ġbomb": 12049, "aron": 12050, "_IS": 12051, "Ġvast": 12052, "Real": 12053, "epend": 12054, "icted": 12055, "Ġpicked": 12056, "ĠFL": 12057, "ĠRepublicans": 12058, ".zeros": 12059, "Pressed": 12060, "sup": 12061, ".Core": 12062, "Microsoft": 12063, "services": 12064, "agic": 12065, "iveness": 12066, "Ġpdf": 12067, "Ġroles": 12068, "ras": 12069, "Ġindustrial": 12070, "Ġfacilities": 12071, "Ġni": 12072, "Ġba": 12073, "Ġcls": 12074, "ĉB": 12075, "Customer": 12076, "Ġimagine": 12077, "Ġexports": 12078, "OutputStream": 12079, "Ġmad": 12080, "(de": 12081, "Ġfro": 12082, "hus": 12083, "Ġcommittee": 12084, ",x": 12085, "Ġdivision": 12086, "(client": 12087, "(java": 12088, "optional": 12089, ".Equal": 12090, "ĠPhys": 12091, "ingu": 12092, "Ġsync": 12093, "ĠNa": 12094, "OLUM": 12095, "itÃ©": 12096, "Ġidentifier": 12097, "owed": 12098, "Ġextent": 12099, "Ġhur": 12100, "VA": 12101, "clar": 12102, "Ġedges": 12103, "Criteria": 12104, "Ġindeed": 12105, "inherit": 12106, "ĠNight": 12107, "Ġreporting": 12108, "Ġencounter": 12109, "Ġkinds": 12110, "_pred": 12111, "Ġconsidering": 12112, ".(": 12113, "Ġprotein": 12114, "Typ": 12115, "gricult": 12116, "ĠBall": 12117, "@Component": 12118, "ĠEss": 12119, "ĠRub": 12120, "ulp": 12121, "itud": 12122, ".attr": 12123, "iente": 12124, "Ġspell": 12125, "ĠJoe": 12126, "ENTER": 12127, "_host": 12128, "itan": 12129, "Ġmatters": 12130, "Ġemergency": 12131, "uated": 12132, "ĠChat": 12133, "={'": 12134, "contri": 12135, "arker": 12136, "iper": 12137, "Ġscheme": 12138, "(stderr": 12139, "Ġ*(": 12140, "ceiver": 12141, ".column": 12142, "Ġmarked": 12143, "_ATTR": 12144, "Ġbodies": 12145, "ĠIMPLIED": 12146, "Gap": 12147, "ĠPOST": 12148, "Ġcorporate": 12149, "Ġdimension": 12150, "Ġcontrast": 12151, "erview": 12152, "ĠERROR": 12153, "Ġcapable": 12154, "Ġadvertising": 12155, "urchase": 12156, "ĠPA": 12157, "ĠFrancisco": 12158, "Ġfacing": 12159, "git": 12160, "Ġbeer": 12161, "Ġsky": 12162, "download": 12163, "ĠCur": 12164, "mc": 12165, "anny": 12166, ".floor": 12167, "Ġcriteria": 12168, "ĠparseInt": 12169, "Ġaspect": 12170, "Ġbundle": 12171, "Could": 12172, "Ġtank": 12173, "-id": 12174, "Ġhurt": 12175, "Ġbroadcast": 12176, "OKEN": 12177, "ownt": 12178, "nullable": 12179, "Cap": 12180, "Ġalcohol": 12181, "ĠColl": 12182, "ĠHelper": 12183, "ĠAf": 12184, ".method": 12185, "Ġplanned": 12186, "pler": 12187, "ĠSite": 12188, "Ġresc": 12189, "oment": 12190, "ĠJavaScript": 12191, "SERVER": 12192, "Ġrhs": 12193, "eres": 12194, "(\",": 12195, "ifi": 12196, ".fields": 12197, "Ġparking": 12198, "Ġisland": 12199, "Ġsister": 12200, "Constraints": 12201, "ĠAust": 12202, "dim": 12203, "_points": 12204, "Ġgap": 12205, "_active": 12206, "Ġvoor": 12207, "ĠPO": 12208, "Bag": 12209, "-scale": 12210, "lambda": 12211, ".Dispose": 12212, "rule": 12213, "Ġowned": 12214, "ĠMedical": 12215, "entries": 12216, "Ġsolar": 12217, "Ġresulting": 12218, "Ġestimated": 12219, "Ġimproved": 12220, "Duration": 12221, "employee": 12222, "$.": 12223, "Actions": 12224, "Like": 12225, ",(": 12226, "(Request": 12227, "%s": 12228, ".Open": 12229, "Ġpixel": 12230, "Ġadapter": 12231, "Ġrevenue": 12232, "ogram": 12233, "ĠLA": 12234, "ĠMachine": 12235, "Ġfle": 12236, "Ġbike": 12237, "Insets": 12238, "Ġdisp": 12239, "Ġconsistent": 12240, "aÃ§Ã£o": 12241, "gender": 12242, "ĠThose": 12243, "perience": 12244, ".BackColor": 12245, ".play": 12246, "Ġrush": 12247, "Ġaxios": 12248, "Ġneck": 12249, "_mem": 12250, ".PREFERRED": 12251, "_first": 12252, "CB": 12253, "ĠWidget": 12254, "Ġseq": 12255, "har": 12256, "Ġhits": 12257, "Ġcontained": 12258, "rient": 12259, "water": 12260, "LOAD": 12261, "ĠVirginia": 12262, "ĠArm": 12263, "Ġ./": 12264, "_root": 12265, "Ġassistance": 12266, "[],": 12267, "sync": 12268, "Ġveget": 12269, "escape": 12270, "icer": 12271, "boost": 12272, "ĠFloat": 12273, "-W": 12274, "*>": 12275, ".pos": 12276, "Ġboys": 12277, "Ġwedding": 12278, "Ġagents": 12279, "=\"_": 12280, "ĠArmy": 12281, "Ġhint": 12282, "vision": 12283, "Ġtech": 12284, "ĠConnect": 12285, "Ġlegend": 12286, "ĠBet": 12287, ".Base": 12288, "Subject": 12289, "Ġlit": 12290, "Remove": 12291, "Ġ\":": 12292, "ĠFinal": 12293, "pearance": 12294, "ĠiTunes": 12295, "Ġparticipants": 12296, "ĠPython": 12297, "Ġbusy": 12298, "iel": 12299, "vertices": 12300, "ĠtemplateUrl": 12301, "ĠClose": 12302, "Img": 12303, "ĠCorporation": 12304, "timestamp": 12305, "Ġextend": 12306, "Ġwebsites": 12307, "Ġpossibility": 12308, "ĠkÃ¶": 12309, "Ġmeat": 12310, "Ġrepresentation": 12311, "_START": 12312, ".apply": 12313, "ĠValley": 12314, "ĠSuccess": 12315, "Hi": 12316, "Ġnob": 12317, "ĠIEnumerable": 12318, "_select": 12319, "geo": 12320, "Ġturning": 12321, "Ġfabric": 12322, "Ġperspective": 12323, "ĠSn": 12324, "Thank": 12325, ";j": 12326, ".Parameters": 12327, "Ġfacts": 12328, "Ġunt": 12329, ".instance": 12330, "-end": 12331, "ĠJOIN": 12332, "ĠHen": 12333, "Ġuri": 12334, "ĠInfo": 12335, "Ġconducted": 12336, "OURCE": 12337, "Ġwine": 12338, "John": 12339, ".Errorf": 12340, "ĠAge": 12341, "ounded": 12342, "Ġrealize": 12343, "Ġ];": 12344, "Ġsubsequ": 12345, ",m": 12346, "(User": 12347, "iano": 12348, "Ġaccompl": 12349, "isp": 12350, ".std": 12351, "ĠBed": 12352, ".setAttribute": 12353, "BR": 12354, "keep": 12355, "ĠALL": 12356, "Ġisol": 12357, "amma": 12358, "Package": 12359, "Ġoccasion": 12360, "-success": 12361, "ĠLIMITED": 12362, "strip": 12363, "istribution": 12364, "Colors": 12365, "Ġ+:+": 12366, "DidLoad": 12367, "aler": 12368, "Ġtid": 12369, "ĠLED": 12370, "ĠLinked": 12371, "ĠCart": 12372, "_READ": 12373, "Ġkilling": 12374, "ĠPHP": 12375, "fection": 12376, "Ġinstances": 12377, "cv": 12378, "\"/>": 12379, "Ġsf": 12380, "Ġtaxes": 12381, "_location": 12382, "ĠBitcoin": 12383, "uable": 12384, "rank": 12385, "ignore": 12386, "track": 12387, "Ġshouldn": 12388, "ĠOP": 12389, "Ġkm": 12390, "Ġhelper": 12391, "_head": 12392, "ĠWhether": 12393, "oco": 12394, "_bl": 12395, "Ġstatistics": 12396, "Ġbeauty": 12397, "Ġtog": 12398, "tip": 12399, "Ġcsv": 12400, "(sql": 12401, "stdlib": 12402, "weak": 12403, "Ġlikes": 12404, "Ġrepeat": 12405, "Ġapartment": 12406, "Ġemph": 12407, "_edit": 12408, "Ġvit": 12409, "ĉtype": 12410, "Even": 12411, "uten": 12412, "Ġcircumstances": 12413, "bian": 12414, "Ġsugar": 12415, "Windows": 12416, "Ġobserved": 12417, "/data": 12418, "Ġcalendar": 12419, "Ġstrike": 12420, "ĠRES": 12421, "_sc": 12422, "fony": 12423, "orem": 12424, "(z": 12425, "power": 12426, "etect": 12427, "ĠSat": 12428, ".description": 12429, "Ġgang": 12430, "ĠSports": 12431, "ongs": 12432, "ĠBundle": 12433, ".sum": 12434, "once": 12435, "Ġaccused": 12436, "Ġexplore": 12437, "Ġapproximately": 12438, "Ġlosing": 12439, "thesis": 12440, "ĠFund": 12441, "Ġdiagn": 12442, "Autowired": 12443, "properties": 12444, "Ġ_.": 12445, "Ġcnt": 12446, "cedure": 12447, "Ġyy": 12448, "Ġgrant": 12449, "sock": 12450, ".innerHTML": 12451, "ĠCONFIG": 12452, "='$": 12453, "UND": 12454, "Ġglob": 12455, "Ġdire": 12456, "uffle": 12457, "_MEM": 12458, "Ġauthentic": 12459, ">(\"": 12460, "Ġdecade": 12461, "ĠImport": 12462, "Ġoriginally": 12463, "ĠjQuery": 12464, "Ġindicate": 12465, "Ġourselves": 12466, "Sw": 12467, ".lbl": 12468, "enerate": 12469, "Ġbasically": 12470, "ĠHom": 12471, "Ġ+#+": 12472, "ĠBritain": 12473, "ĠKar": 12474, "toEqual": 12475, ".stop": 12476, "Ġmodal": 12477, "isi": 12478, "Ġsuggests": 12479, "Ġdtype": 12480, "Ġtur": 12481, "bf": 12482, "Ġconnections": 12483, "ĠBefore": 12484, "isted": 12485, "mouse": 12486, "Ġpulled": 12487, ".build": 12488, "Ġlegislation": 12489, "Ġforth": 12490, "pad": 12491, "ego": 12492, ".Now": 12493, "Ġexciting": 12494, "Ġcompr": 12495, "Ġshares": 12496, "Ġrig": 12497, "green": 12498, "_vec": 12499, "Ġenumerate": 12500, "Auto": 12501, "icator": 12502, "ĠRay": 12503, "asse": 12504, "Ġholiday": 12505, "Ġnullable": 12506, "gun": 12507, "_details": 12508, "Ġwrapper": 12509, "seq": 12510, "ĠYoung": 12511, "juana": 12512, "Ġ\"__": 12513, "license": 12514, "serve": 12515, "^(": 12516, "iders": 12517, ".Remove": 12518, "ropdown": 12519, "'S": 12520, "pin": 12521, "(token": 12522, ".Default": 12523, "Ġreasonable": 12524, "ampion": 12525, "ĠSociety": 12526, "Ġbei": 12527, "erves": 12528, "rad": 12529, "ĠFox": 12530, "_images": 12531, "Ġwheel": 12532, "')[": 12533, "Ġcfg": 12534, "(By": 12535, "Constructor": 12536, "Ġvary": 12537, ".swift": 12538, "Ġproxy": 12539, "ĉH": 12540, "ĠAnother": 12541, "ĠPen": 12542, "Ġchecking": 12543, "Ġjest": 12544, "manager": 12545, "Origin": 12546, "ugs": 12547, "oir": 12548, "Ġexpressed": 12549, "Ġmoder": 12550, "Ġagencies": 12551, "Ġih": 12552, "-hidden": 12553, "iously": 12554, "ĠRod": 12555, "Ġsole": 12556, "Med": 12557, ".Any": 12558, "Ġpc": 12559, "bal": 12560, "Example": 12561, "ĠSale": 12562, "Ġstrip": 12563, "ĠComp": 12564, "Ġpresidential": 12565, "Most": 12566, "putation": 12567, "(ref": 12568, "ĠFour": 12569, "_filename": 12570, "Ġenforcement": 12571, "ĠGeorg": 12572, "weights": 12573, "/l": 12574, "Ġaggress": 12575, "Ġdrawing": 12576, "andy": 12577, "<I": 12578, "-j": 12579, "aka": 12580, "href": 12581, "Ġteachers": 12582, "_Q": 12583, "(it": 12584, "ĠMB": 12585, "Ġtemporary": 12586, "irebase": 12587, "stra": 12588, "(label": 12589, "oup": 12590, "Ġtopics": 12591, "Ġportion": 12592, "idos": 12593, "ĠJewish": 12594, "Ġrecovery": 12595, "Ġstands": 12596, "#[": 12597, "Ġafternoon": 12598, "ĠArticle": 12599, "_att": 12600, "Ġexplan": 12601, "ĠPak": 12602, ".setOnClickListener": 12603, ".children": 12604, "Ġik": 12605, "+(": 12606, "lag": 12607, "Ġdisk": 12608, "Ġcontrovers": 12609, "\">&": 12610, "asp": 12611, "Ġwie": 12612, "ĠAustralian": 12613, "ĠYouTube": 12614, "Attr": 12615, "contains": 12616, "duce": 12617, "ĠMatt": 12618, "atern": 12619, "Ġvolunte": 12620, "Ġnewsp": 12621, "VP": 12622, "oltip": 12623, "Ġdelegate": 12624, "_meta": 12625, "Ġaccurate": 12626, "ĠExample": 12627, "%,": 12628, "ĠDaily": 12629, "Ġcabin": 12630, "ĠSW": 12631, "Ġlimits": 12632, "kip": 12633, "Ġarmy": 12634, "Ġending": 12635, "Ġboss": 12636, "ĠDialog": 12637, "Also": 12638, "ordan": 12639, "rowse": 12640, "-min": 12641, "Ġ\"&": 12642, "_loc": 12643, "UX": 12644, "Ġdevelopers": 12645, "Ġaccuracy": 12646, "Ġmaintenance": 12647, "Ġheav": 12648, "Ġfilters": 12649, ".ToolStrip": 12650, "Ġnarr": 12651, "ĠEmp": 12652, "ORDER": 12653, "ĠMobile": 12654, ".Serial": 12655, ".output": 12656, ".col": 12657, "Material": 12658, "uma": 12659, "Ġconsumers": 12660, "shift": 12661, "Ġpued": 12662, "Ġmini": 12663, "collection": 12664, "Ġkan": 12665, ".center": 12666, "History": 12667, "Ġbench": 12668, "itories": 12669, "Ġcrowd": 12670, "_call": 12671, "Ġpowers": 12672, "-E": 12673, "Ġdismiss": 12674, "Ġtalks": 12675, "ĠChannel": 12676, "forward": 12677, "_control": 12678, "/src": 12679, "iest": 12680, "Ġbeta": 12681, "(color": 12682, "_OBJECT": 12683, "ĠApi": 12684, "Ġeffectively": 12685, "Camera": 12686, "sd": 12687, "ussy": 12688, "Dict": 12689, "ĠEffect": 12690, "ibilities": 12691, "Ġreturning": 12692, "ĠFar": 12693, "Ġ'')": 12694, "Ġmodules": 12695, "ilation": 12696, "Ġ(%": 12697, "TRGL": 12698, "Ġstorm": 12699, "onna": 12700, "ĠEXP": 12701, "Ġspons": 12702, "Ġdispl": 12703, "fall": 12704, "ignKey": 12705, "_US": 12706, "etrics": 12707, "Ġhandles": 12708, "TL": 12709, "_amount": 12710, "owa": 12711, "brand": 12712, "ĠTool": 12713, "Ġusual": 12714, ".Z": 12715, "crement": 12716, "adium": 12717, "stock": 12718, "Ġserving": 12719, "ĠBon": 12720, "Ġlinear": 12721, "ĠTarget": 12722, "ĠRadio": 12723, "HL": 12724, "Shader": 12725, "omatic": 12726, "agues": 12727, "inity": 12728, "diff": 12729, "_iterator": 12730, "quot": 12731, "callback": 12732, "Ġsymptoms": 12733, "[_": 12734, "ĠBul": 12735, "ĠFeb": 12736, "undo": 12737, "_account": 12738, "Ġtypedef": 12739, "tras": 12740, "UserId": 12741, "ĠPenn": 12742, "ĠSupreme": 12743, "}>": 12744, "userId": 12745, "ĠKim": 12746, "Ġga": 12747, "Ġartists": 12748, "ĠAbstract": 12749, "okemon": 12750, "Ġham": 12751, "oval": 12752, "Ġcha": 12753, "aten": 12754, "Fixed": 12755, "Ġvulner": 12756, "ĠParameters": 12757, "quantity": 12758, ".Clear": 12759, "ServletRequest": 12760, "Ġya": 12761, "Ġsoul": 12762, "transaction": 12763, "Ġsolo": 12764, "Ġpairs": 12765, "ĠGre": 12766, "_word": 12767, "ĠCC": 12768, "Ġgi": 12769, "zie": 12770, "Ġscheduled": 12771, "rotation": 12772, "gypt": 12773, "ulous": 12774, "::_": 12775, "ĠEll": 12776, "<!": 12777, "lp": 12778, "aha": 12779, "Copyright": 12780, "Ġdram": 12781, "Ġdiagram": 12782, "ĠMem": 12783, "Ġgarden": 12784, "Comp": 12785, "Ġattempts": 12786, "uffix": 12787, ">()": 12788, "Ġphilosoph": 12789, "_rel": 12790, "Ġsv": 12791, ".second": 12792, "anto": 12793, ".Json": 12794, "ĠTele": 12795, "_local": 12796, "_send": 12797, "Ġaspects": 12798, "IBLE": 12799, "Ġrail": 12800, "Ġwidely": 12801, "ashed": 12802, "iar": 12803, "inf": 12804, "upper": 12805, "django": 12806, "_results": 12807, "issing": 12808, "Ġequivalent": 12809, "OUND": 12810, "Ġty": 12811, "Ġpotentially": 12812, "Advertisement": 12813, "ĠRecord": 12814, "resentation": 12815, "_widget": 12816, "ounding": 12817, "Ġreligion": 12818, "Ġconsc": 12819, "ĠLim": 12820, ".am": 12821, "Html": 12822, "Ġ':": 12823, "PATH": 12824, "_spec": 12825, "orted": 12826, "idades": 12827, "_shape": 12828, "Ġkeeps": 12829, ".Save": 12830, "ĠLoc": 12831, "ori": 12832, "ĠTEST": 12833, "unicip": 12834, "Ġregions": 12835, "Ġbelieves": 12836, "/en": 12837, "posite": 12838, "{'": 12839, "prepare": 12840, "_const": 12841, "sample": 12842, "ĠWilliams": 12843, "Ġstrt": 12844, "_Get": 12845, "ĠAndrew": 12846, ".active": 12847, "Ġlayers": 12848, "VisualStyle": 12849, "azy": 12850, "ĠKn": 12851, "Ġacid": 12852, "ĠAsia": 12853, "Ġexcess": 12854, "ĉmy": 12855, "Ġkeyboard": 12856, "ensus": 12857, "Ġcrew": 12858, "Ġmissed": 12859, "master": 12860, "ĠWild": 12861, "Ġnewly": 12862, "Ġwinner": 12863, "Ġstub": 12864,
[...]
