{"version": "1.0", "truncation": null, "padding": null, "added_tokens": [{"id": 0, "content": "<s>", "single_word": false, "lstrip": false, "rstrip": false, "normalized": false, "special": true}, {"id": 1, "content": "</s>", "single_word": false, "lstrip": false, "rstrip": false, "normalized": false, "special": true}, {"id": 2, "content": "<tool_call>", "single_word": false, "lstrip": false, "rstrip": false, "normalized": false, "special": true}, {"id": 3, "content": "</tool_call>", "single_word": false, "lstrip": false, "rstrip": false, "normalized": false, "special": true}, {"id": 4, "content": "<|im_sep|>", "single_word": false, "lstrip": false, "rstrip": false, "normalized": false, "special": true}, {"id": 5, "content": "<|fim_prefix|>", "single_word": false, "lstrip": false, "rstrip": false, "normalized": false, "special": true}, {"id": 6, "content": "<|fim_middle|>", "single_word": false, "lstrip": false, "rstrip": false, "normalized": false, "special": true}, {"id": 7, "content": "<|fim_suffix|>", "single_word": false, "lstrip": false, "rstrip": false, "normalized": false, "special": true}, {"id": 8, "content": "<think>", "single_word": false, "lstrip": false, "rstrip": false, "normalized": false, "special": false}, {"id": 9, "content": "</think>", "single_word": false, "lstrip": false, "rstrip": false, "normalized": false, "special": false}, {"id": 10, "content": "<tool_response>", "single_word": false, "lstrip": false, "rstrip": false, "normalized": false, "special": true}, {"id": 11, "content": "</tool_response>", "single_word": false, "lstrip": false, "rstrip": false, "normalized": false, "special": true}, {"id": 12, "content": "<tools>", "single_word": false, "lstrip": false, "rstrip": false, "normalized": false, "special": true}, {"id": 13, "content": "</tools>", "single_word": false, "lstrip": false, "rstrip": false, "normalized": false, "special": true}, {"id": 14, "content": "<arguments>", "single_word": false, "lstrip": false, "rstrip": false, "normalized": false, "special": true}, {"id": 15, "content": "</arguments>", "single_word": false, "lstrip": false, "rstrip": false, "normalized": false, "special": true}, {"id": 16, "content": "<parameters>", "single_word": false, "lstrip": false, "rstrip": false, "normalized": false, "special": true}, {"id": 17, "content": "</parameters>", "single_word": false, "lstrip": false, "rstrip": false, "normalized": false, "special": true}, {"id": 18, "content": "<function", "single_word": false, "lstrip": false, "rstrip": false, "normalized": false, "special": true}, {"id": 19, "content": "</function>", "single_word": false, "lstrip": false, "rstrip": false, "normalized": false, "special": true}, {"id": 20, "content": "<param", "single_word": false, "lstrip": false, "rstrip": false, "normalized": false, "special": true}, {"id": 21, "content": "</param>", "single_word": false, "lstrip": false, "rstrip": false, "normalized": false, "special": true}, {"id": 65048, "content": "<|im_start|>", "single_word": false, "lstrip": false, "rstrip": false, "normalized": false, "special": true}, {"id": 65049, "content": "<|im_end|>", "single_word": false, "lstrip": false, "rstrip": false, "normalized": false, "special": true}, {"id": 65050, "content": "<unk>", "single_word": false, "lstrip": false, "rstrip": false, "normalized": false, "special": true}, {"id": 65051, "content": "<|thought_begin|>", "single_word": false, "lstrip": false, "rstrip": false, "normalized": false, "special": true}, {"id": 65052, "content": "<|thought_end|>", "single_word": false, "lstrip": false, "rstrip": false, "normalized": false, "special": true}, {"id": 65053, "content": "<|tool_call|>", "single_word": false, "lstrip": false, "rstrip": false, "normalized": false, "special": true}, {"id": 65054, "content": "<|execute_start|>", "single_word": false, "lstrip": false, "rstrip": false, "normalized": false, "special": true}, {"id": 65055, "content": "<|execute_end|>", "single_word": false, "lstrip": false, "rstrip": false, "normalized": false, "special": true}, {"id": 65056, "content": "/think", "single_word": false, "lstrip": false, "rstrip": false, "normalized": false, "special": true}, {"id": 65057, "content": "/no_think", "single_word": false, "lstrip": false, "rstrip": false, "normalized": false, "special": true}, {"id": 65058, "content": "<unused_token_0>", "single_word": false, "lstrip": false, "rstrip": false, "normalized": true, "special": false}, {"id": 65059, "content": "<unused_token_1>", "single_word": false, "lstrip": false, "rstrip": false, "normalized": true, "special": false}, {"id": 65060, "content": "<unused_token_2>", "single_word": false, "lstrip": false, "rstrip": false, "normalized": true, "special": false}, {"id": 65061, "content": "<unused_token_3>", "single_word": false, "lstrip": false, "rstrip": false, "normalized": true, "special": false}, {"id": 65062, "content": "<unused_token_4>", "single_word": false, "lstrip": false, "rstrip": false, "normalized": true, "special": false}, {"id": 65063, "content": "<unused_token_5>", "single_word": false, "lstrip": false, "rstrip": false, "normalized": true, "special": false}, {"id": 65064, "content": "<unused_token_6>", "single_word": false, "lstrip": false, "rstrip": false, "normalized": true, "special": false}, {"id": 65065, "content": "<unused_token_7>", "single_word": false, "lstrip": false, "rstrip": false, "normalized": true, "special": false}, {"id": 65066, "content": "<unused_token_8>", "single_word": false, "lstrip": false, "rstrip": false, "normalized": true, "special": false}, {"id": 65067, "content": "<unused_token_9>", "single_word": false, "lstrip": false, "rstrip": false, "normalized": true, "special": false}, {"id": 65068, "content": "<unused_token_10>", "single_word": false, "lstrip": false, "rstrip": false, "normalized": true, "special": false}, {"id": 65069, "content": "<unused_token_11>", "single_word": false, "lstrip": false, "rstrip": false, "normalized": true, "special": false}, {"id": 65070, "content": "<unused_token_12>", "single_word": false, "lstrip": false, "rstrip": false, "normalized": true, "special": false}, {"id": 65071, "content": "<unused_token_13>", "single_word": false, "lstrip": false, "rstrip": false, "normalized": true, "special": false}, {"id": 65072, "content": "<unused_token_14>", "single_word": false, "lstrip": false, "rstrip": false, "normalized": true, "special": false}, {"id": 65073, "content": "<unused_token_15>", "single_word": false, "lstrip": false, "rstrip": false, "normalized": true, "special": false}, {"id": 65074, "content": "<unused_token_16>", "single_word": false, "lstrip": false, "rstrip": false, "normalized": true, "special": false}, {"id": 65075, "content": "<unused_token_17>", "single_word": false, "lstrip": false, "rstrip": false, "normalized": true, "special": false}, {"id": 65076, "content": "<unused_token_18>", "single_word": false, "lstrip": false, "rstrip": false, "normalized": true, "special": false}, {"id": 65077, "content": "<unused_token_19>", "single_word": false, "lstrip": false, "rstrip": false, "normalized": true, "special": false}, {"id": 65078, "content": "<unused_token_20>", "single_word": false, "lstrip": false, "rstrip": false, "normalized": true, "special": false}, {"id": 65079, "content": "<unused_token_21>", "single_word": false, "lstrip": false, "rstrip": false, "normalized": true, "special": false}, {"id": 65080, "content": "<unused_token_22>", "single_word": false, "lstrip": false, "rstrip": false, "normalized": true, "special": false}, {"id": 65081, "content": "<unused_token_23>", "single_word": false, "lstrip": false, "rstrip": false, "normalized": true, "special": false}, {"id": 65082, "content": "<unused_token_24>", "single_word": false, "lstrip": false, "rstrip": false, "normalized": true, "special": false}, {"id": 65083, "content": "<unused_token_25>", "single_word": false, "lstrip": false, "rstrip": false, "normalized": true, "special": false}, {"id": 65084, "content": "<unused_token_26>", "single_word": false, "lstrip": false, "rstrip": false, "normalized": true, "special": false}, {"id": 65085, "content": "<unused_token_27>", "single_word": false, "lstrip": false, "rstrip": false, "normalized": true, "special": false}, {"id": 65086, "content": "<unused_token_28>", "single_word": false, "lstrip": false, "rstrip": false, "normalized": true, "special": false}, {"id": 65087, "content": "<unused_token_29>", "single_word": false, "lstrip": false, "rstrip": false, "normalized": true, "special": false}, {"id": 65088, "content": "<unused_token_30>", "single_word": false, "lstrip": false, "rstrip": false, "normalized": true, "special": false}, {"id": 65089, "content": "<unused_token_31>", "single_word": false, "lstrip": false, "rstrip": false, "normalized": true, "special": false}, {"id": 65090, "content": "<unused_token_32>", "single_word": false, "lstrip": false, "rstrip": false, "normalized": true, "special": false}, {"id": 65091, "content": "<unused_token_33>", "single_word": false, "lstrip": false, "rstrip": false, "normalized": true, "special": false}, {"id": 65092, "content": "<unused_token_34>", "single_word": false, "lstrip": false, "rstrip": false, "normalized": true, "special": false}, {"id": 65093, "content": "<unused_token_35>", "single_word": false, "lstrip": false, "rstrip": false, "normalized": true, "special": false}, {"id": 65094, "content": "<unused_token_36>", "single_word": false, "lstrip": false, "rstrip": false, "normalized": true, "special": false}, {"id": 65095, "content": "<unused_token_37>", "single_word": false, "lstrip": false, "rstrip": false, "normalized": true, "special": false}, {"id": 65096, "content": "<unused_token_38>", "single_word": false, "lstrip": false, "rstrip": false, "normalized": true, "special": false}, {"id": 65097, "content": "<unused_token_39>", "single_word": false, "lstrip": false, "rstrip": false, "normalized": true, "special": false}, {"id": 65098, "content": "<unused_token_40>", "single_word": false, "lstrip": false, "rstrip": false, "normalized": true, "special": false}, {"id": 65099, "content": "<unused_token_41>", "single_word": false, "lstrip": false, "rstrip": false, "normalized": true, "special": false}, {"id": 65100, "content": "<unused_token_42>", "single_word": false, "lstrip": false, "rstrip": false, "normalized": true, "special": false}, {"id": 65101, "content": "<unused_token_43>", "single_word": false, "lstrip": false, "rstrip": false, "normalized": true, "special": false}, {"id": 65102, "content": "<unused_token_44>", "single_word": false, "lstrip": false, "rstrip": false, "normalized": true, "special": false}, {"id": 65103, "content": "<unused_token_45>", "single_word": false, "lstrip": false, "rstrip": false, "normalized": true, "special": false}, {"id": 65104, "content": "<unused_token_46>", "single_word": false, "lstrip": false, "rstrip": false, "normalized": true, "special": false}, {"id": 65105, "content": "<unused_token_47>", "single_word": false, "lstrip": false, "rstrip": false, "normalized": true, "special": false}, {"id": 65106, "content": "<unused_token_48>", "single_word": false, "lstrip": false, "rstrip": false, "normalized": true, "special": false}, {"id": 65107, "content": "<unused_token_49>", "single_word": false, "lstrip": false, "rstrip": false, "normalized": true, "special": false}, {"id": 65108, "content": "<unused_token_50>", "single_word": false, "lstrip": false, "rstrip": false, "normalized": true, "special": false}, {"id": 65109, "content": "<unused_token_51>", "single_word": false, "lstrip": false, "rstrip": false, "normalized": true, "special": false}, {"id": 65110, "content": "<unused_token_52>", "single_word": false, "lstrip": false, "rstrip": false, "normalized": true, "special": false}, {"id": 65111, "content": "<unused_token_53>", "single_word": false, "lstrip": false, "rstrip": false, "normalized": true, "special": false}, {"id": 65112, "content": "<unused_token_54>", "single_word": false, "lstrip": false, "rstrip": false, "normalized": true, "special": false}, {"id": 65113, "content": "<unused_token_55>", "single_word": false, "lstrip": false, "rstrip": false, "normalized": true, "special": false}, {"id": 65114, "content": "<unused_token_56>", "single_word": false, "lstrip": false, "rstrip": false, "normalized": true, "special": false}, {"id": 65115, "content": "<unused_token_57>", "single_word": false, "lstrip": false, "rstrip": false, "normalized": true, "special": false}, {"id": 65116, "content": "<unused_token_58>", "single_word": false, "lstrip": false, "rstrip": false, "normalized": true, "special": false}, {"id": 65117, "content": "<unused_token_59>", "single_word": false, "lstrip": false, "rstrip": false, "normalized": true, "special": false}, {"id": 65118, "content": "<unused_token_60>", "single_word": false, "lstrip": false, "rstrip": false, "normalized": true, "special": false}, {"id": 65119, "content": "<unused_token_61>", "single_word": false, "lstrip": false, "rstrip": false, "normalized": true, "special": false}, {"id": 65120, "content": "<unused_token_62>", "single_word": false, "lstrip": false, "rstrip": false, "normalized": true, "special": false}, {"id": 65121, "content": "<unused_token_63>", "single_word": false, "lstrip": false, "rstrip": false, "normalized": true, "special": false}, {"id": 65122, "content": "<unused_token_64>", "single_word": false, "lstrip": false, "rstrip": false, "normalized": true, "special": false}, {"id": 65123, "content": "<unused_token_65>", "single_word": false, "lstrip": false, "rstrip": false, "normalized": true, "special": false}, {"id": 65124, "content": "<unused_token_66>", "single_word": false, "lstrip": false, "rstrip": false, "normalized": true, "special": false}, {"id": 65125, "content": "<unused_token_67>", "single_word": false, "lstrip": false, "rstrip": false, "normalized": true, "special": false}, {"id": 65126, "content": "<unused_token_68>", "single_word": false, "lstrip": false, "rstrip": false, "normalized": true, "special": false}, {"id": 65127, "content": "<unused_token_69>", "single_word": false, "lstrip": false, "rstrip": false, "normalized": true, "special": false}, {"id": 65128, "content": "<unused_token_70>", "single_word": false, "lstrip": false, "rstrip": false, "normalized": true, "special": false}, {"id": 65129, "content": "<unused_token_71>", "single_word": false, "lstrip": false, "rstrip": false, "normalized": true, "special": false}, {"id": 65130, "content": "<unused_token_72>", "single_word": false, "lstrip": false, "rstrip": false, "normalized": true, "special": false}, {"id": 65131, "content": "<unused_token_73>", "single_word": false, "lstrip": false, "rstrip": false, "normalized": true, "special": false}, {"id": 65132, "content": "<unused_token_74>", "single_word": false, "lstrip": false, "rstrip": false, "normalized": true, "special": false}, {"id": 65133, "content": "<unused_token_75>", "single_word": false, "lstrip": false, "rstrip": false, "normalized": true, "special": false}, {"id": 65134, "content": "<unused_token_76>", "single_word": false, "lstrip": false, "rstrip": false, "normalized": true, "special": false}, {"id": 65135, "content": "<unused_token_77>", "single_word": false, "lstrip": false, "rstrip": false, "normalized": true, "special": false}, {"id": 65136, "content": "<unused_token_78>", "single_word": false, "lstrip": false, "rstrip": false, "normalized": true, "special": false}, {"id": 65137, "content": "<unused_token_79>", "single_word": false, "lstrip": false, "rstrip": false, "normalized": true, "special": false}, {"id": 65138, "content": "<unused_token_80>", "single_word": false, "lstrip": false, "rstrip": false, "normalized": true, "special": false}, {"id": 65139, "content": "<unused_token_81>", "single_word": false, "lstrip": false, "rstrip": false, "normalized": true, "special": false}, {"id": 65140, "content": "<unused_token_82>", "single_word": false, "lstrip": false, "rstrip": false, "normalized": true, "special": false}, {"id": 65141, "content": "<unused_token_83>", "single_word": false, "lstrip": false, "rstrip": false, "normalized": true, "special": false}, {"id": 65142, "content": "<unused_token_84>", "single_word": false, "lstrip": false, "rstrip": false, "normalized": true, "special": false}, {"id": 65143, "content": "<unused_token_85>", "single_word": false, "lstrip": false, "rstrip": false, "normalized": true, "special": false}, {"id": 65144, "content": "<unused_token_86>", "single_word": false, "lstrip": false, "rstrip": false, "normalized": true, "special": false}, {"id": 65145, "content": "<unused_token_87>", "single_word": false, "lstrip": false, "rstrip": false, "normalized": true, "special": false}, {"id": 65146, "content": "<unused_token_88>", "single_word": false, "lstrip": false, "rstrip": false, "normalized": true, "special": false}, {"id": 65147, "content": "<unused_token_89>", "single_word": false, "lstrip": false, "rstrip": false, "normalized": true, "special": false}, {"id": 65148, "content": "<unused_token_90>", "single_word": false, "lstrip": false, "rstrip": false, "normalized": true, "special": false}, {"id": 65149, "content": "<unused_token_91>", "single_word": false, "lstrip": false, "rstrip": false, "normalized": true, "special": false}, {"id": 65150, "content": "<unused_token_92>", "single_word": false, "lstrip": false, "rstrip": false, "normalized": true, "special": false}, {"id": 65151, "content": "<unused_token_93>", "single_word": false, "lstrip": false, "rstrip": false, "normalized": true, "special": false}, {"id": 65152, "content": "<unused_token_94>", "single_word": false, "lstrip": false, "rstrip": false, "normalized": true, "special": false}, {"id": 65153, "content": "<unused_token_95>", "single_word": false, "lstrip": false, "rstrip": false, "normalized": true, "special": false}, {"id": 65154, "content": "<unused_token_96>", "single_word": false, "lstrip": false, "rstrip": false, "normalized": true, "special": false}, {"id": 65155, "content": "<unused_token_97>", "single_word": false, "lstrip": false, "rstrip": false, "normalized": true, "special": false}, {"id": 65156, "content": "<unused_token_98>", "single_word": false, "lstrip": false, "rstrip": false, "normalized": true, "special": false}, {"id": 65157, "content": "<unused_token_99>", "single_word": false, "lstrip": false, "rstrip": false, "normalized": true, "special": false}, {"id": 65158, "content": "<unused_token_100>", "single_word": false, "lstrip": false, "rstrip": false, "normalized": true, "special": false}, {"id": 65159, "content": "<unused_token_101>", "single_word": false, "lstrip": false, "rstrip": false, "normalized": true, "special": false}, {"id": 65160, "content": "<unused_token_102>", "single_word": false, "lstrip": false, "rstrip": false, "normalized": true, "special": false}, {"id": 65161, "content": "<unused_token_103>", "single_word": false, "lstrip": false, "rstrip": false, "normalized": true, "special": false}, {"id": 65162, "content": "<unused_token_104>", "single_word": false, "lstrip": false, "rstrip": false, "normalized": true, "special": false}, {"id": 65163, "content": "<unused_token_105>", "single_word": false, "lstrip": false, "rstrip": false, "normalized": true, "special": false}, {"id": 65164, "content": "<unused_token_106>", "single_word": false, "lstrip": false, "rstrip": false, "normalized": true, "special": false}, {"id": 65165, "content": "<unused_token_107>", "single_word": false, "lstrip": false, "rstrip": false, "normalized": true, "special": false}, {"id": 65166, "content": "<unused_token_108>", "single_word": false, "lstrip": false, "rstrip": false, "normalized": true, "special": false}, {"id": 65167, "content": "<unused_token_109>", "single_word": false, "lstrip": false, "rstrip": false, "normalized": true, "special": false}, {"id": 65168, "content": "<unused_token_110>", "single_word": false, "lstrip": false, "rstrip": false, "normalized": true, "special": false}, {"id": 65169, "content": "<unused_token_111>", "single_word": false, "lstrip": false, "rstrip": false, "normalized": true, "special": false}, {"id": 65170, "content": "<unused_token_112>", "single_word": false, "lstrip": false, "rstrip": false, "normalized": true, "special": false}, {"id": 65171, "content": "<unused_token_113>", "single_word": false, "lstrip": false, "rstrip": false, "normalized": true, "special": false}, {"id": 65172, "content": "<unused_token_114>", "single_word": false, "lstrip": false, "rstrip": false, "normalized": true, "special": false}, {"id": 65173, "content": "<unused_token_115>", "single_word": false, "lstrip": false, "rstrip": false, "normalized": true, "special": false}, {"id": 65174, "content": "<unused_token_116>", "single_word": false, "lstrip": false, "rstrip": false, "normalized": true, "special": false}, {"id": 65175, "content": "<unused_token_117>", "single_word": false, "lstrip": false, "rstrip": false, "normalized": true, "special": false}, {"id": 65176, "content": "<unused_token_118>", "single_word": false, "lstrip": false, "rstrip": false, "normalized": true, "special": false}, {"id": 65177, "content": "<unused_token_119>", "single_word": false, "lstrip": false, "rstrip": false, "normalized": true, "special": false}, {"id": 65178, "content": "<unused_token_120>", "single_word": false, "lstrip": false, "rstrip": false, "normalized": true, "special": false}, {"id": 65179, "content": "<unused_token_121>", "single_word": false, "lstrip": false, "rstrip": false, "normalized": true, "special": false}, {"id": 65180, "content": "<unused_token_122>", "single_word": false, "lstrip": false, "rstrip": false, "normalized": true, "special": false}, {"id": 65181, "content": "<unused_token_123>", "single_word": false, "lstrip": false, "rstrip": false, "normalized": true, "special": false}, {"id": 65182, "content": "<unused_token_124>", "single_word": false, "lstrip": false, "rstrip": false, "normalized": true, "special": false}, {"id": 65183, "content": "<unused_token_125>", "single_word": false, "lstrip": false, "rstrip": false, "normalized": true, "special": false}, {"id": 65184, "content": "<unused_token_126>", "single_word": false, "lstrip": false, "rstrip": false, "normalized": true, "special": false}, {"id": 65185, "content": "<unused_token_127>", "single_word": false, "lstrip": false, "rstrip": false, "normalized": true, "special": false}, {"id": 65186, "content": "<unused_token_128>", "single_word": false, "lstrip": false, "rstrip": false, "normalized": true, "special": false}, {"id": 65187, "content": "<unused_token_129>", "single_word": false, "lstrip": false, "rstrip": false, "normalized": true, "special": false}, {"id": 65188, "content": "<unused_token_130>", "single_word": false, "lstrip": false, "rstrip": false, "normalized": true, "special": false}, {"id": 65189, "content": "<unused_token_131>", "single_word": false, "lstrip": false, "rstrip": false, "normalized": true, "special": false}, {"id": 65190, "content": "<unused_token_132>", "single_word": false, "lstrip": false, "rstrip": false, "normalized": true, "special": false}, {"id": 65191, "content": "<unused_token_133>", "single_word": false, "lstrip": false, "rstrip": false, "normalized": true, "special": false}, {"id": 65192, "content": "<unused_token_134>", "single_word": false, "lstrip": false, "rstrip": false, "normalized": true, "special": false}, {"id": 65193, "content": "<unused_token_135>", "single_word": false, "lstrip": false, "rstrip": false, "normalized": true, "special": false}, {"id": 65194, "content": "<unused_token_136>", "single_word": false, "lstrip": false, "rstrip": false, "normalized": true, "special": false}, {"id": 65195, "content": "<unused_token_137>", "single_word": false, "lstrip": false, "rstrip": false, "normalized": true, "special": false}, {"id": 65196, "content": "<unused_token_138>", "single_word": false, "lstrip": false, "rstrip": false, "normalized": true, "special": false}, {"id": 65197, "content": "<unused_token_139>", "single_word": false, "lstrip": false, "rstrip": false, "normalized": true, "special": false}, {"id": 65198, "content": "<unused_token_140>", "single_word": false, "lstrip": false, "rstrip": false, "normalized": true, "special": false}, {"id": 65199, "content": "<unused_token_141>", "single_word": false, "lstrip": false, "rstrip": false, "normalized": true, "special": false}, {"id": 65200, "content": "<unused_token_142>", "single_word": false, "lstrip": false, "rstrip": false, "normalized": true, "special": false}, {"id": 65201, "content": "<unused_token_143>", "single_word": false, "lstrip": false, "rstrip": false, "normalized": true, "special": false}, {"id": 65202, "content": "<unused_token_144>", "single_word": false, "lstrip": false, "rstrip": false, "normalized": true, "special": false}, {"id": 65203, "content": "<unused_token_145>", "single_word": false, "lstrip": false, "rstrip": false, "normalized": true, "special": false}, {"id": 65204, "content": "<unused_token_146>", "single_word": false, "lstrip": false, "rstrip": false, "normalized": true, "special": false}, {"id": 65205, "content": "<unused_token_147>", "single_word": false, "lstrip": false, "rstrip": false, "normalized": true, "special": false}, {"id": 65206, "content": "<unused_token_148>", "single_word": false, "lstrip": false, "rstrip": false, "normalized": true, "special": false}, {"id": 65207, "content": "<unused_token_149>", "single_word": false, "lstrip": false, "rstrip": false, "normalized": true, "special": false}, {"id": 65208, "content": "<unused_token_150>", "single_word": false, "lstrip": false, "rstrip": false, "normalized": true, "special": false}, {"id": 65209, "content": "<unused_token_151>", "single_word": false, "lstrip": false, "rstrip": false, "normalized": true, "special": false}, {"id": 65210, "content": "<unused_token_152>", "single_word": false, "lstrip": false, "rstrip": false, "normalized": true, "special": false}, {"id": 65211, "content": "<unused_token_153>", "single_word": false, "lstrip": false, "rstrip": false, "normalized": true, "special": false}, {"id": 65212, "content": "<unused_token_154>", "single_word": false, "lstrip": false, "rstrip": false, "normalized": true, "special": false}, {"id": 65213, "content": "<unused_token_155>", "single_word": false, "lstrip": false, "rstrip": false, "normalized": true, "special": false}, {"id": 65214, "content": "<unused_token_156>", "single_word": false, "lstrip": false, "rstrip": false, "normalized": true, "special": false}, {"id": 65215, "content": "<unused_token_157>", "single_word": false, "lstrip": false, "rstrip": false, "normalized": true, "special": false}, {"id": 65216, "content": "<unused_token_158>", "single_word": false, "lstrip": false, "rstrip": false, "normalized": true, "special": false}, {"id": 65217, "content": "<unused_token_159>", "single_word": false, "lstrip": false, "rstrip": false, "normalized": true, "special": false}, {"id": 65218, "content": "<unused_token_160>", "single_word": false, "lstrip": false, "rstrip": false, "normalized": true, "special": false}, {"id": 65219, "content": "<unused_token_161>", "single_word": false, "lstrip": false, "rstrip": false, "normalized": true, "special": false}, {"id": 65220, "content": "<unused_token_162>", "single_word": false, "lstrip": false, "rstrip": false, "normalized": true, "special": false}, {"id": 65221, "content": "<unused_token_163>", "single_word": false, "lstrip": false, "rstrip": false, "normalized": true, "special": false}, {"id": 65222, "content": "<unused_token_164>", "single_word": false, "lstrip": false, "rstrip": false, "normalized": true, "special": false}, {"id": 65223, "content": "<unused_token_165>", "single_word": false, "lstrip": false, "rstrip": false, "normalized": true, "special": false}, {"id": 65224, "content": "<unused_token_166>", "single_word": false, "lstrip": false, "rstrip": false, "normalized": true, "special": false}, {"id": 65225, "content": "<unused_token_167>", "single_word": false, "lstrip": false, "rstrip": false, "normalized": true, "special": false}, {"id": 65226, "content": "<unused_token_168>", "single_word": false, "lstrip": false, "rstrip": false, "normalized": true, "special": false}, {"id": 65227, "content": "<unused_token_169>", "single_word": false, "lstrip": false, "rstrip": false, "normalized": true, "special": false}, {"id": 65228, "content": "<unused_token_170>", "single_word": false, "lstrip": false, "rstrip": false, "normalized": true, "special": false}, {"id": 65229, "content": "<unused_token_171>", "single_word": false, "lstrip": false, "rstrip": false, "normalized": true, "special": false}, {"id": 65230, "content": "<unused_token_172>", "single_word": false, "lstrip": false, "rstrip": false, "normalized": true, "special": false}, {"id": 65231, "content": "<unused_token_173>", "single_word": false, "lstrip": false, "rstrip": false, "normalized": true, "special": false}, {"id": 65232, "content": "<unused_token_174>", "single_word": false, "lstrip": false, "rstrip": false, "normalized": true, "special": false}, {"id": 65233, "content": "<unused_token_175>", "single_word": false, "lstrip": false, "rstrip": false, "normalized": true, "special": false}, {"id": 65234, "content": "<unused_token_176>", "single_word": false, "lstrip": false, "rstrip": false, "normalized": true, "special": false}, {"id": 65235, "content": "<unused_token_177>", "single_word": false, "lstrip": false, "rstrip": false, "normalized": true, "special": false}, {"id": 65236, "content": "<unused_token_178>", "single_word": false, "lstrip": false, "rstrip": false, "normalized": true, "special": false}, {"id": 65237, "content": "<unused_token_179>", "single_word": false, "lstrip": false, "rstrip": false, "normalized": true, "special": false}, {"id": 65238, "content": "<unused_token_180>", "single_word": false, "lstrip": false, "rstrip": false, "normalized": true, "special": false}, {"id": 65239, "content": "<unused_token_181>", "single_word": false, "lstrip": false, "rstrip": false, "normalized": true, "special": false}, {"id": 65240, "content": "<unused_token_182>", "single_word": false, "lstrip": false, "rstrip": false, "normalized": true, "special": false}, {"id": 65241, "content": "<unused_token_183>", "single_word": false, "lstrip": false, "rstrip": false, "normalized": true, "special": false}, {"id": 65242, "content": "<unused_token_184>", "single_word": false, "lstrip": false, "rstrip": false, "normalized": true, "special": false}, {"id": 65243, "content": "<unused_token_185>", "single_word": false, "lstrip": false, "rstrip": false, "normalized": true, "special": false}, {"id": 65244, "content": "<unused_token_186>", "single_word": false, "lstrip": false, "rstrip": false, "normalized": true, "special": false}, {"id": 65245, "content": "<unused_token_187>", "single_word": false, "lstrip": false, "rstrip": false, "normalized": true, "special": false}, {"id": 65246, "content": "<unused_token_188>", "single_word": false, "lstrip": false, "rstrip": false, "normalized": true, "special": false}, {"id": 65247, "content": "<unused_token_189>", "single_word": false, "lstrip": false, "rstrip": false, "normalized": true, "special": false}, {"id": 65248, "content": "<unused_token_190>", "single_word": false, "lstrip": false, "rstrip": false, "normalized": true, "special": false}, {"id": 65249, "content": "<unused_token_191>", "single_word": false, "lstrip": false, "rstrip": false, "normalized": true, "special": false}, {"id": 65250, "content": "<unused_token_192>", "single_word": false, "lstrip": false, "rstrip": false, "normalized": true, "special": false}, {"id": 65251, "content": "<unused_token_193>", "single_word": false, "lstrip": false, "rstrip": false, "normalized": true, "special": false}, {"id": 65252, "content": "<unused_token_194>", "single_word": false, "lstrip": false, "rstrip": false, "normalized": true, "special": false}, {"id": 65253, "content": "<unused_token_195>", "single_word": false, "lstrip": false, "rstrip": false, "normalized": true, "special": false}, {"id": 65254, "content": "<unused_token_196>", "single_word": false, "lstrip": false, "rstrip": false, "normalized": true, "special": false}, {"id": 65255, "content": "<unused_token_197>", "single_word": false, "lstrip": false, "rstrip": false, "normalized": true, "special": false}, {"id": 65256, "content": "<unused_token_198>", "single_word": false, "lstrip": false, "rstrip": false, "normalized": true, "special": false}, {"id": 65257, "content": "<unused_token_199>", "single_word": false, "lstrip": false, "rstrip": false, "normalized": true, "special": false}, {"id": 65258, "content": "<unused_token_200>", "single_word": false, "lstrip": false, "rstrip": false, "normalized": true, "special": false}, {"id": 65259, "content": "<unused_token_201>", "single_word": false, "lstrip": false, "rstrip": false, "normalized": true, "special": false}, {"id": 65260, "content": "<unused_token_202>", "single_word": false, "lstrip": false, "rstrip": false, "normalized": true, "special": false}, {"id": 65261, "content": "<unused_token_203>", "single_word": false, "lstrip": false, "rstrip": false, "normalized": true, "special": false}, {"id": 65262, "content": "<unused_token_204>", "single_word": false, "lstrip": false, "rstrip": false, "normalized": true, "special": false}, {"id": 65263, "content": "<unused_token_205>", "single_word": false, "lstrip": false, "rstrip": false, "normalized": true, "special": false}, {"id": 65264, "content": "<unused_token_206>", "single_word": false, "lstrip": false, "rstrip": false, "normalized": true, "special": false}, {"id": 65265, "content": "<unused_token_207>", "single_word": false, "lstrip": false, "rstrip": false, "normalized": true, "special": false}, {"id": 65266, "content": "<unused_token_208>", "single_word": false, "lstrip": false, "rstrip": false, "normalized": true, "special": false}, {"id": 65267, "content": "<unused_token_209>", "single_word": false, "lstrip": false, "rstrip": false, "normalized": true, "special": false}, {"id": 65268, "content": "<unused_token_210>", "single_word": false, "lstrip": false, "rstrip": false, "normalized": true, "special": false}, {"id": 65269, "content": "<unused_token_211>", "single_word": false, "lstrip": false, "rstrip": false, "normalized": true, "special": false}, {"id": 65270, "content": "<unused_token_212>", "single_word": false, "lstrip": false, "rstrip": false, "normalized": true, "special": false}, {"id": 65271, "content": "<unused_token_213>", "single_word": false, "lstrip": false, "rstrip": false, "normalized": true, "special": false}, {"id": 65272, "content": "<unused_token_214>", "single_word": false, "lstrip": false, "rstrip": false, "normalized": true, "special": false}, {"id": 65273, "content": "<unused_token_215>", "single_word": false, "lstrip": false, "rstrip": false, "normalized": true, "special": false}, {"id": 65274, "content": "<unused_token_216>", "single_word": false, "lstrip": false, "rstrip": false, "normalized": true, "special": false}, {"id": 65275, "content": "<unused_token_217>", "single_word": false, "lstrip": false, "rstrip": false, "normalized": true, "special": false}, {"id": 65276, "content": "<unused_token_218>", "single_word": false, "lstrip": false, "rstrip": false, "normalized": true, "special": false}, {"id": 65277, "content": "<unused_token_219>", "single_word": false, "lstrip": false, "rstrip": false, "normalized": true, "special": false}, {"id": 65278, "content": "<unused_token_220>", "single_word": false, "lstrip": false, "rstrip": false, "normalized": true, "special": false}, {"id": 65279, "content": "<unused_token_221>", "single_word": false, "lstrip": false, "rstrip": false, "normalized": true, "special": false}, {"id": 65280, "content": "<unused_token_222>", "single_word": false, "lstrip": false, "rstrip": false, "normalized": true, "special": false}, {"id": 65281, "content": "<unused_token_223>", "single_word": false, "lstrip": false, "rstrip": false, "normalized": true, "special": false}, {"id": 65282, "content": "<unused_token_224>", "single_word": false, "lstrip": false, "rstrip": false, "normalized": true, "special": false}, {"id": 65283, "content": "<unused_token_225>", "single_word": false, "lstrip": false, "rstrip": false, "normalized": true, "special": false}, {"id": 65284, "content": "<unused_token_226>", "single_word": false, "lstrip": false, "rstrip": false, "normalized": true, "special": false}, {"id": 65285, "content": "<unused_token_227>", "single_word": false, "lstrip": false, "rstrip": false, "normalized": true, "special": false}, {"id": 65286, "content": "<unused_token_228>", "single_word": false, "lstrip": false, "rstrip": false, "normalized": true, "special": false}, {"id": 65287, "content": "<unused_token_229>", "single_word": false, "lstrip": false, "rstrip": false, "normalized": true, "special": false}, {"id": 65288, "content": "<unused_token_230>", "single_word": false, "lstrip": false, "rstrip": false, "normalized": true, "special": false}, {"id": 65289, "content": "<unused_token_231>", "single_word": false, "lstrip": false, "rstrip": false, "normalized": true, "special": false}, {"id": 65290, "content": "<unused_token_232>", "single_word": false, "lstrip": false, "rstrip": false, "normalized": true, "special": false}, {"id": 65291, "content": "<unused_token_233>", "single_word": false, "lstrip": false, "rstrip": false, "normalized": true, "special": false}, {"id": 65292, "content": "<unused_token_234>", "single_word": false, "lstrip": false, "rstrip": false, "normalized": true, "special": false}, {"id": 65293, "content": "<unused_token_235>", "single_word": false, "lstrip": false, "rstrip": false, "normalized": true, "special": false}, {"id": 65294, "content": "<unused_token_236>", "single_word": false, "lstrip": false, "rstrip": false, "normalized": true, "special": false}, {"id": 65295, "content": "<unused_token_237>", "single_word": false, "lstrip": false, "rstrip": false, "normalized": true, "special": false}, {"id": 65296, "content": "<unused_token_238>", "single_word": false, "lstrip": false, "rstrip": false, "normalized": true, "special": false}, {"id": 65297, "content": "<unused_token_239>", "single_word": false, "lstrip": false, "rstrip": false, "normalized": true, "special": false}, {"id": 65298, "content": "<unused_token_240>", "single_word": false, "lstrip": false, "rstrip": false, "normalized": true, "special": false}, {"id": 65299, "content": "<unused_token_241>", "single_word": false, "lstrip": false, "rstrip": false, "normalized": true, "special": false}, {"id": 65300, "content": "<unused_token_242>", "single_word": false, "lstrip": false, "rstrip": false, "normalized": true, "special": false}, {"id": 65301, "content": "<unused_token_243>", "single_word": false, "lstrip": false, "rstrip": false, "normalized": true, "special": false}, {"id": 65302, "content": "<unused_token_244>", "single_word": false, "lstrip": false, "rstrip": false, "normalized": true, "special": false}, {"id": 65303, "content": "<unused_token_245>", "single_word": false, "lstrip": false, "rstrip": false, "normalized": true, "special": false}, {"id": 65304, "content": "<unused_token_246>", "single_word": false, "lstrip": false, "rstrip": false, "normalized": true, "special": false}, {"id": 65305, "content": "<unused_token_247>", "single_word": false, "lstrip": false, "rstrip": false, "normalized": true, "special": false}, {"id": 65306, "content": "<unused_token_248>", "single_word": false, "lstrip": false, "rstrip": false, "normalized": true, "special": false}, {"id": 65307, "content": "<unused_token_249>", "single_word": false, "lstrip": false, "rstrip": false, "normalized": true, "special": false}, {"id": 65308, "content": "<unused_token_250>", "single_word": false, "lstrip": false, "rstrip": false, "normalized": true, "special": false}, {"id": 65309, "content": "<unused_token_251>", "single_word": false, "lstrip": false, "rstrip": false, "normalized": true, "special": false}, {"id": 65310, "content": "<unused_token_252>", "single_word": false, "lstrip": false, "rstrip": false, "normalized": true, "special": false}, {"id": 65311, "content": "<unused_token_253>", "single_word": false, "lstrip": false, "rstrip": false, "normalized": true, "special": false}, {"id": 65312, "content": "<unused_token_254>", "single_word": false, "lstrip": false, "rstrip": false, "normalized": true, "special": false}, {"id": 65313, "content": "<unused_token_255>", "single_word": false, "lstrip": false, "rstrip": false, "normalized": true, "special": false}, {"id": 65314, "content": "<unused_token_256>", "single_word": false, "lstrip": false, "rstrip": false, "normalized": true, "special": false}, {"id": 65315, "content": "<unused_token_257>", "single_word": false, "lstrip": false, "rstrip": false, "normalized": true, "special": false}, {"id": 65316, "content": "<unused_token_258>", "single_word": false, "lstrip": false, "rstrip": false, "normalized": true, "special": false}, {"id": 65317, "content": "<unused_token_259>", "single_word": false, "lstrip": false, "rstrip": false, "normalized": true, "special": false}, {"id": 65318, "content": "<unused_token_260>", "single_word": false, "lstrip": false, "rstrip": false, "normalized": true, "special": false}, {"id": 65319, "content": "<unused_token_261>", "single_word": false, "lstrip": false, "rstrip": false, "normalized": true, "special": false}, {"id": 65320, "content": "<unused_token_262>", "single_word": false, "lstrip": false, "rstrip": false, "normalized": true, "special": false}, {"id": 65321, "content": "<unused_token_263>", "single_word": false, "lstrip": false, "rstrip": false, "normalized": true, "special": false}, {"id": 65322, "content": "<unused_token_264>", "single_word": false, "lstrip": false, "rstrip": false, "normalized": true, "special": false}, {"id": 65323, "content": "<unused_token_265>", "single_word": false, "lstrip": false, "rstrip": false, "normalized": true, "special": false}, {"id": 65324, "content": "<unused_token_266>", "single_word": false, "lstrip": false, "rstrip": false, "normalized": true, "special": false}, {"id": 65325, "content": "<unused_token_267>", "single_word": false, "lstrip": false, "rstrip": false, "normalized": true, "special": false}, {"id": 65326, "content": "<unused_token_268>", "single_word": false, "lstrip": false, "rstrip": false, "normalized": true, "special": false}, {"id": 65327, "content": "<unused_token_269>", "single_word": false, "lstrip": false, "rstrip": false, "normalized": true, "special": false}, {"id": 65328, "content": "<unused_token_270>", "single_word": false, "lstrip": false, "rstrip": false, "normalized": true, "special": false}, {"id": 65329, "content": "<unused_token_271>", "single_word": false, "lstrip": false, "rstrip": false, "normalized": true, "special": false}, {"id": 65330, "content": "<unused_token_272>", "single_word": false, "lstrip": false, "rstrip": false, "normalized": true, "special": false}, {"id": 65331, "content": "<unused_token_273>", "single_word": false, "lstrip": false, "rstrip": false, "normalized": true, "special": false}, {"id": 65332, "content": "<unused_token_274>", "single_word": false, "lstrip": false, "rstrip": false, "normalized": true, "special": false}, {"id": 65333, "content": "<unused_token_275>", "single_word": false, "lstrip": false, "rstrip": false, "normalized": true, "special": false}, {"id": 65334, "content": "<unused_token_276>", "single_word": false, "lstrip": false, "rstrip": false, "normalized": true, "special": false}, {"id": 65335, "content": "<unused_token_277>", "single_word": false, "lstrip": false, "rstrip": false, "normalized": true, "special": false}, {"id": 65336, "content": "<unused_token_278>", "single_word": false, "lstrip": false, "rstrip": false, "normalized": true, "special": false}, {"id": 65337, "content": "<unused_token_279>", "single_word": false, "lstrip": false, "rstrip": false, "normalized": true, "special": false}, {"id": 65338, "content": "<unused_token_280>", "single_word": false, "lstrip": false, "rstrip": false, "normalized": true, "special": false}, {"id": 65339, "content": "<unused_token_281>", "single_word": false, "lstrip": false, "rstrip": false, "normalized": true, "special": false}, {"id": 65340, "content": "<unused_token_282>", "single_word": false, "lstrip": false, "rstrip": false, "normalized": true, "special": false}, {"id": 65341, "content": "<unused_token_283>", "single_word": false, "lstrip": false, "rstrip": false, "normalized": true, "special": false}, {"id": 65342, "content": "<unused_token_284>", "single_word": false, "lstrip": false, "rstrip": false, "normalized": true, "special": false}, {"id": 65343, "content": "<unused_token_285>", "single_word": false, "lstrip": false, "rstrip": false, "normalized": true, "special": false}, {"id": 65344, "content": "<unused_token_286>", "single_word": false, "lstrip": false, "rstrip": false, "normalized": true, "special": false}, {"id": 65345, "content": "<unused_token_287>", "single_word": false, "lstrip": false, "rstrip": false, "normalized": true, "special": false}, {"id": 65346, "content": "<unused_token_288>", "single_word": false, "lstrip": false, "rstrip": false, "normalized": true, "special": false}, {"id": 65347, "content": "<unused_token_289>", "single_word": false, "lstrip": false, "rstrip": false, "normalized": true, "special": false}, {"id": 65348, "content": "<unused_token_290>", "single_word": false, "lstrip": false, "rstrip": false, "normalized": true, "special": false}, {"id": 65349, "content": "<unused_token_291>", "single_word": false, "lstrip": false, "rstrip": false, "normalized": true, "special": false}, {"id": 65350, "content": "<unused_token_292>", "single_word": false, "lstrip": false, "rstrip": false, "normalized": true, "special": false}, {"id": 65351, "content": "<unused_token_293>", "single_word": false, "lstrip": false, "rstrip": false, "normalized": true, "special": false}, {"id": 65352, "content": "<unused_token_294>", "single_word": false, "lstrip": false, "rstrip": false, "normalized": true, "special": false}, {"id": 65353, "content": "<unused_token_295>", "single_word": false, "lstrip": false, "rstrip": false, "normalized": true, "special": false}, {"id": 65354, "content": "<unused_token_296>", "single_word": false, "lstrip": false, "rstrip": false, "normalized": true, "special": false}, {"id": 65355, "content": "<unused_token_297>", "single_word": false, "lstrip": false, "rstrip": false, "normalized": true, "special": false}, {"id": 65356, "content": "<unused_token_298>", "single_word": false, "lstrip": false, "rstrip": false, "normalized": true, "special": false}, {"id": 65357, "content": "<unused_token_299>", "single_word": false, "lstrip": false, "rstrip": false, "normalized": true, "special": false}, {"id": 65358, "content": "<unused_token_300>", "single_word": false, "lstrip": false, "rstrip": false, "normalized": true, "special": false}, {"id": 65359, "content": "<unused_token_301>", "single_word": false, "lstrip": false, "rstrip": false, "normalized": true, "special": false}, {"id": 65360, "content": "<unused_token_302>", "single_word": false, "lstrip": false, "rstrip": false, "normalized": true, "special": false}, {"id": 65361, "content": "<unused_token_303>", "single_word": false, "lstrip": false, "rstrip": false, "normalized": true, "special": false}, {"id": 65362, "content": "<unused_token_304>", "single_word": false, "lstrip": false, "rstrip": false, "normalized": true, "special": false}, {"id": 65363, "content": "<unused_token_305>", "single_word": false, "lstrip": false, "rstrip": false, "normalized": true, "special": false}, {"id": 65364, "content": "<unused_token_306>", "single_word": false, "lstrip": false, "rstrip": false, "normalized": true, "special": false}, {"id": 65365, "content": "<unused_token_307>", "single_word": false, "lstrip": false, "rstrip": false, "normalized": true, "special": false}, {"id": 65366, "content": "<unused_token_308>", "single_word": false, "lstrip": false, "rstrip": false, "normalized": true, "special": false}, {"id": 65367, "content": "<unused_token_309>", "single_word": false, "lstrip": false, "rstrip": false, "normalized": true, "special": false}, {"id": 65368, "content": "<unused_token_310>", "single_word": false, "lstrip": false, "rstrip": false, "normalized": true, "special": false}, {"id": 65369, "content": "<unused_token_311>", "single_word": false, "lstrip": false, "rstrip": false, "normalized": true, "special": false}, {"id": 65370, "content": "<unused_token_312>", "single_word": false, "lstrip": false, "rstrip": false, "normalized": true, "special": false}, {"id": 65371, "content": "<unused_token_313>", "single_word": false, "lstrip": false, "rstrip": false, "normalized": true, "special": false}, {"id": 65372, "content": "<unused_token_314>", "single_word": false, "lstrip": false, "rstrip": false, "normalized": true, "special": false}, {"id": 65373, "content": "<unused_token_315>", "single_word": false, "lstrip": false, "rstrip": false, "normalized": true, "special": false}, {"id": 65374, "content": "<unused_token_316>", "single_word": false, "lstrip": false, "rstrip": false, "normalized": true, "special": false}, {"id": 65375, "content": "<unused_token_317>", "single_word": false, "lstrip": false, "rstrip": false, "normalized": true, "special": false}, {"id": 65376, "content": "<unused_token_318>", "single_word": false, "lstrip": false, "rstrip": false, "normalized": true, "special": false}, {"id": 65377, "content": "<unused_token_319>", "single_word": false, "lstrip": false, "rstrip": false, "normalized": true, "special": false}, {"id": 65378, "content": "<unused_token_320>", "single_word": false, "lstrip": false, "rstrip": false, "normalized": true, "special": false}, {"id": 65379, "content": "<unused_token_321>", "single_word": false, "lstrip": false, "rstrip": false, "normalized": true, "special": false}, {"id": 65380, "content": "<unused_token_322>", "single_word": false, "lstrip": false, "rstrip": false, "normalized": true, "special": false}, {"id": 65381, "content": "<unused_token_323>", "single_word": false, "lstrip": false, "rstrip": false, "normalized": true, "special": false}, {"id": 65382, "content": "<unused_token_324>", "single_word": false, "lstrip": false, "rstrip": false, "normalized": true, "special": false}, {"id": 65383, "content": "<unused_token_325>", "single_word": false, "lstrip": false, "rstrip": false, "normalized": true, "special": false}, {"id": 65384, "content": "<unused_token_326>", "single_word": false, "lstrip": false, "rstrip": false, "normalized": true, "special": false}, {"id": 65385, "content": "<unused_token_327>", "single_word": false, "lstrip": false, "rstrip": false, "normalized": true, "special": false}, {"id": 65386, "content": "<unused_token_328>", "single_word": false, "lstrip": false, "rstrip": false, "normalized": true, "special": false}, {"id": 65387, "content": "<unused_token_329>", "single_word": false, "lstrip": false, "rstrip": false, "normalized": true, "special": false}, {"id": 65388, "content": "<unused_token_330>", "single_word": false, "lstrip": false, "rstrip": false, "normalized": true, "special": false}, {"id": 65389, "content": "<unused_token_331>", "single_word": false, "lstrip": false, "rstrip": false, "normalized": true, "special": false}, {"id": 65390, "content": "<unused_token_332>", "single_word": false, "lstrip": false, "rstrip": false, "normalized": true, "special": false}, {"id": 65391, "content": "<unused_token_333>", "single_word": false, "lstrip": false, "rstrip": false, "normalized": true, "special": false}, {"id": 65392, "content": "<unused_token_334>", "single_word": false, "lstrip": false, "rstrip": false, "normalized": true, "special": false}, {"id": 65393, "content": "<unused_token_335>", "single_word": false, "lstrip": false, "rstrip": false, "normalized": true, "special": false}, {"id": 65394, "content": "<unused_token_336>", "single_word": false, "lstrip": false, "rstrip": false, "normalized": true, "special": false}, {"id": 65395, "content": "<unused_token_337>", "single_word": false, "lstrip": false, "rstrip": false, "normalized": true, "special": false}, {"id": 65396, "content": "<unused_token_338>", "single_word": false, "lstrip": false, "rstrip": false, "normalized": true, "special": false}, {"id": 65397, "content": "<unused_token_339>", "single_word": false, "lstrip": false, "rstrip": false, "normalized": true, "special": false}, {"id": 65398, "content": "<unused_token_340>", "single_word": false, "lstrip": false, "rstrip": false, "normalized": true, "special": false}, {"id": 65399, "content": "<unused_token_341>", "single_word": false, "lstrip": false, "rstrip": false, "normalized": true, "special": false}, {"id": 65400, "content": "<unused_token_342>", "single_word": false, "lstrip": false, "rstrip": false, "normalized": true, "special": false}, {"id": 65401, "content": "<unused_token_343>", "single_word": false, "lstrip": false, "rstrip": false, "normalized": true, "special": false}, {"id": 65402, "content": "<unused_token_344>", "single_word": false, "lstrip": false, "rstrip": false, "normalized": true, "special": false}, {"id": 65403, "content": "<unused_token_345>", "single_word": false, "lstrip": false, "rstrip": false, "normalized": true, "special": false}, {"id": 65404, "content": "<unused_token_346>", "single_word": false, "lstrip": false, "rstrip": false, "normalized": true, "special": false}, {"id": 65405, "content": "<unused_token_347>", "single_word": false, "lstrip": false, "rstrip": false, "normalized": true, "special": false}, {"id": 65406, "content": "<unused_token_348>", "single_word": false, "lstrip": false, "rstrip": false, "normalized": true, "special": false}, {"id": 65407, "content": "<unused_token_349>", "single_word": false, "lstrip": false, "rstrip": false, "normalized": true, "special": false}, {"id": 65408, "content": "<unused_token_350>", "single_word": false, "lstrip": false, "rstrip": false, "normalized": true, "special": false}, {"id": 65409, "content": "<unused_token_351>", "single_word": false, "lstrip": false, "rstrip": false, "normalized": true, "special": false}, {"id": 65410, "content": "<unused_token_352>", "single_word": false, "lstrip": false, "rstrip": false, "normalized": true, "special": false}, {"id": 65411, "content": "<unused_token_353>", "single_word": false, "lstrip": false, "rstrip": false, "normalized": true, "special": false}, {"id": 65412, "content": "<unused_token_354>", "single_word": false, "lstrip": false, "rstrip": false, "normalized": true, "special": false}, {"id": 65413, "content": "<unused_token_355>", "single_word": false, "lstrip": false, "rstrip": false, "normalized": true, "special": false}, {"id": 65414, "content": "<unused_token_356>", "single_word": false, "lstrip": false, "rstrip": false, "normalized": true, "special": false}, {"id": 65415, "content": "<unused_token_357>", "single_word": false, "lstrip": false, "rstrip": false, "normalized": true, "special": false}, {"id": 65416, "content": "<unused_token_358>", "single_word": false, "lstrip": false, "rstrip": false, "normalized": true, "special": false}, {"id": 65417, "content": "<unused_token_359>", "single_word": false, "lstrip": false, "rstrip": false, "normalized": true, "special": false}, {"id": 65418, "content": "<unused_token_360>", "single_word": false, "lstrip": false, "rstrip": false, "normalized": true, "special": false}, {"id": 65419, "content": "<unused_token_361>", "single_word": false, "lstrip": false, "rstrip": false, "normalized": true, "special": false}, {"id": 65420, "content": "<unused_token_362>", "single_word": false, "lstrip": false, "rstrip": false, "normalized": true, "special": false}, {"id": 65421, "content": "<unused_token_363>", "single_word": false, "lstrip": false, "rstrip": false, "normalized": true, "special": false}, {"id": 65422, "content": "<unused_token_364>", "single_word": false, "lstrip": false, "rstrip": false, "normalized": true, "special": false}, {"id": 65423, "content": "<unused_token_365>", "single_word": false, "lstrip": false, "rstrip": false, "normalized": true, "special": false}, {"id": 65424, "content": "<unused_token_366>", "single_word": false, "lstrip": false, "rstrip": false, "normalized": true, "special": false}, {"id": 65425, "content": "<unused_token_367>", "single_word": false, "lstrip": false, "rstrip": false, "normalized": true, "special": false}, {"id": 65426, "content": "<unused_token_368>", "single_word": false, "lstrip": false, "rstrip": false, "normalized": true, "special": false}, {"id": 65427, "content": "<unused_token_369>", "single_word": false, "lstrip": false, "rstrip": false, "normalized": true, "special": false}, {"id": 65428, "content": "<unused_token_370>", "single_word": false, "lstrip": false, "rstrip": false, "normalized": true, "special": false}, {"id": 65429, "content": "<unused_token_371>", "single_word": false, "lstrip": false, "rstrip": false, "normalized": true, "special": false}, {"id": 65430, "content": "<unused_token_372>", "single_word": false, "lstrip": false, "rstrip": false, "normalized": true, "special": false}, {"id": 65431, "content": "<unused_token_373>", "single_word": false, "lstrip": false, "rstrip": false, "normalized": true, "special": false}, {"id": 65432, "content": "<unused_token_374>", "single_word": false, "lstrip": false, "rstrip": false, "normalized": true, "special": false}, {"id": 65433, "content": "<unused_token_375>", "single_word": false, "lstrip": false, "rstrip": false, "normalized": true, "special": false}, {"id": 65434, "content": "<unused_token_376>", "single_word": false, "lstrip": false, "rstrip": false, "normalized": true, "special": false}, {"id": 65435, "content": "<unused_token_377>", "single_word": false, "lstrip": false, "rstrip": false, "normalized": true, "special": false}, {"id": 65436, "content": "<unused_token_378>", "single_word": false, "lstrip": false, "rstrip": false, "normalized": true, "special": false}, {"id": 65437, "content": "<unused_token_379>", "single_word": false, "lstrip": false, "rstrip": false, "normalized": true, "special": false}, {"id": 65438, "content": "<unused_token_380>", "single_word": false, "lstrip": false, "rstrip": false, "normalized": true, "special": false}, {"id": 65439, "content": "<unused_token_381>", "single_word": false, "lstrip": false, "rstrip": false, "normalized": true, "special": false}, {"id": 65440, "content": "<unused_token_382>", "single_word": false, "lstrip": false, "rstrip": false, "normalized": true, "special": false}, {"id": 65441, "content": "<unused_token_383>", "single_word": false, "lstrip": false, "rstrip": false, "normalized": true, "special": false}, {"id": 65442, "content": "<unused_token_384>", "single_word": false, "lstrip": false, "rstrip": false, "normalized": true, "special": false}, {"id": 65443, "content": "<unused_token_385>", "single_word": false, "lstrip": false, "rstrip": false, "normalized": true, "special": false}, {"id": 65444, "content": "<unused_token_386>", "single_word": false, "lstrip": false, "rstrip": false, "normalized": true, "special": false}, {"id": 65445, "content": "<unused_token_387>", "single_word": false, "lstrip": false, "rstrip": false, "normalized": true, "special": false}, {"id": 65446, "content": "<unused_token_388>", "single_word": false, "lstrip": false, "rstrip": false, "normalized": true, "special": false}, {"id": 65447, "content": "<unused_token_389>", "single_word": false, "lstrip": false, "rstrip": false, "normalized": true, "special": false}, {"id": 65448, "content": "<unused_token_390>", "single_word": false, "lstrip": false, "rstrip": false, "normalized": true, "special": false}, {"id": 65449, "content": "<unused_token_391>", "single_word": false, "lstrip": false, "rstrip": false, "normalized": true, "special": false}, {"id": 65450, "content": "<unused_token_392>", "single_word": false, "lstrip": false, "rstrip": false, "normalized": true, "special": false}, {"id": 65451, "content": "<unused_token_393>", "single_word": false, "lstrip": false, "rstrip": false, "normalized": true, "special": false}, {"id": 65452, "content": "<unused_token_394>", "single_word": false, "lstrip": false, "rstrip": false, "normalized": true, "special": false}, {"id": 65453, "content": "<unused_token_395>", "single_word": false, "lstrip": false, "rstrip": false, "normalized": true, "special": false}, {"id": 65454, "content": "<unused_token_396>", "single_word": false, "lstrip": false, "rstrip": false, "normalized": true, "special": false}, {"id": 65455, "content": "<unused_token_397>", "single_word": false, "lstrip": false, "rstrip": false, "normalized": true, "special": false}, {"id": 65456, "content": "<unused_token_398>", "single_word": false, "lstrip": false, "rstrip": false, "normalized": true, "special": false}, {"id": 65457, "content": "<unused_token_399>", "single_word": false, "lstrip": false, "rstrip": false, "normalized": true, "special": false}, {"id": 65458, "content": "<unused_token_400>", "single_word": false, "lstrip": false, "rstrip": false, "normalized": true, "special": false}, {"id": 65459, "content": "<unused_token_401>", "single_word": false, "lstrip": false, "rstrip": false, "normalized": true, "special": false}, {"id": 65460, "content": "<unused_token_402>", "single_word": false, "lstrip": false, "rstrip": false, "normalized": true, "special": false}, {"id": 65461, "content": "<unused_token_403>", "single_word": false, "lstrip": false, "rstrip": false, "normalized": true, "special": false}, {"id": 65462, "content": "<unused_token_404>", "single_word": false, "lstrip": false, "rstrip": false, "normalized": true, "special": false}, {"id": 65463, "content": "<unused_token_405>", "single_word": false, "lstrip": false, "rstrip": false, "normalized": true, "special": false}, {"id": 65464, "content": "<unused_token_406>", "single_word": false, "lstrip": false, "rstrip": false, "normalized": true, "special": false}, {"id": 65465, "content": "<unused_token_407>", "single_word": false, "lstrip": false, "rstrip": false, "normalized": true, "special": false}, {"id": 65466, "content": "<unused_token_408>", "single_word": false, "lstrip": false, "rstrip": false, "normalized": true, "special": false}, {"id": 65467, "content": "<unused_token_409>", "single_word": false, "lstrip": false, "rstrip": false, "normalized": true, "special": false}, {"id": 65468, "content": "<unused_token_410>", "single_word": false, "lstrip": false, "rstrip": false, "normalized": true, "special": false}, {"id": 65469, "content": "<unused_token_411>", "single_word": false, "lstrip": false, "rstrip": false, "normalized": true, "special": false}, {"id": 65470, "content": "<unused_token_412>", "single_word": false, "lstrip": false, "rstrip": false, "normalized": true, "special": false}, {"id": 65471, "content": "<unused_token_413>", "single_word": false, "lstrip": false, "rstrip": false, "normalized": true, "special": false}, {"id": 65472, "content": "<unused_token_414>", "single_word": false, "lstrip": false, "rstrip": false, "normalized": true, "special": false}, {"id": 65473, "content": "<unused_token_415>", "single_word": false, "lstrip": false, "rstrip": false, "normalized": true, "special": false}, {"id": 65474, "content": "<unused_token_416>", "single_word": false, "lstrip": false, "rstrip": false, "normalized": true, "special": false}, {"id": 65475, "content": "<unused_token_417>", "single_word": false, "lstrip": false, "rstrip": false, "normalized": true, "special": false}, {"id": 65476, "content": "<unused_token_418>", "single_word": false, "lstrip": false, "rstrip": false, "normalized": true, "special": false}, {"id": 65477, "content": "<unused_token_419>", "single_word": false, "lstrip": false, "rstrip": false, "normalized": true, "special": false}, {"id": 65478, "content": "<unused_token_420>", "single_word": false, "lstrip": false, "rstrip": false, "normalized": true, "special": false}, {"id": 65479, "content": "<unused_token_421>", "single_word": false, "lstrip": false, "rstrip": false, "normalized": true, "special": false}, {"id": 65480, "content": "<unused_token_422>", "single_word": false, "lstrip": false, "rstrip": false, "normalized": true, "special": false}, {"id": 65481, "content": "<unused_token_423>", "single_word": false, "lstrip": false, "rstrip": false, "normalized": true, "special": false}, {"id": 65482, "content": "<unused_token_424>", "single_word": false, "lstrip": false, "rstrip": false, "normalized": true, "special": false}, {"id": 65483, "content": "<unused_token_425>", "single_word": false, "lstrip": false, "rstrip": false, "normalized": true, "special": false}, {"id": 65484, "content": "<unused_token_426>", "single_word": false, "lstrip": false, "rstrip": false, "normalized": true, "special": false}, {"id": 65485, "content": "<unused_token_427>", "single_word": false, "lstrip": false, "rstrip": false, "normalized": true, "special": false}, {"id": 65486, "content": "<unused_token_428>", "single_word": false, "lstrip": false, "rstrip": false, "normalized": true, "special": false}, {"id": 65487, "content": "<unused_token_429>", "single_word": false, "lstrip": false, "rstrip": false, "normalized": true, "special": false}, {"id": 65488, "content": "<unused_token_430>", "single_word": false, "lstrip": false, "rstrip": false, "normalized": true, "special": false}, {"id": 65489, "content": "<unused_token_431>", "single_word": false, "lstrip": false, "rstrip": false, "normalized": true, "special": false}, {"id": 65490, "content": "<unused_token_432>", "single_word": false, "lstrip": false, "rstrip": false, "normalized": true, "special": false}, {"id": 65491, "content": "<unused_token_433>", "single_word": false, "lstrip": false, "rstrip": false, "normalized": true, "special": false}, {"id": 65492, "content": "<unused_token_434>", "single_word": false, "lstrip": false, "rstrip": false, "normalized": true, "special": false}, {"id": 65493, "content": "<unused_token_435>", "single_word": false, "lstrip": false, "rstrip": false, "normalized": true, "special": false}, {"id": 65494, "content": "<unused_token_436>", "single_word": false, "lstrip": false, "rstrip": false, "normalized": true, "special": false}, {"id": 65495, "content": "<unused_token_437>", "single_word": false, "lstrip": false, "rstrip": false, "normalized": true, "special": false}, {"id": 65496, "content": "<unused_token_438>", "single_word": false, "lstrip": false, "rstrip": false, "normalized": true, "special": false}, {"id": 65497, "content": "<unused_token_439>", "single_word": false, "lstrip": false, "rstrip": false, "normalized": true, "special": false}, {"id": 65498, "content": "<unused_token_440>", "single_word": false, "lstrip": false, "rstrip": false, "normalized": true, "special": false}, {"id": 65499, "content": "<unused_token_441>", "single_word": false, "lstrip": false, "rstrip": false, "normalized": true, "special": false}, {"id": 65500, "content": "<unused_token_442>", "single_word": false, "lstrip": false, "rstrip": false, "normalized": true, "special": false}, {"id": 65501, "content": "<unused_token_443>", "single_word": false, "lstrip": false, "rstrip": false, "normalized": true, "special": false}, {"id": 65502, "content": "<unused_token_444>", "single_word": false, "lstrip": false, "rstrip": false, "normalized": true, "special": false}, {"id": 65503, "content": "<unused_token_445>", "single_word": false, "lstrip": false, "rstrip": false, "normalized": true, "special": false}, {"id": 65504, "content": "<unused_token_446>", "single_word": false, "lstrip": false, "rstrip": false, "normalized": true, "special": false}, {"id": 65505, "content": "<unused_token_447>", "single_word": false, "lstrip": false, "rstrip": false, "normalized": true, "special": false}, {"id": 65506, "content": "<unused_token_448>", "single_word": false, "lstrip": false, "rstrip": false, "normalized": true, "special": false}, {"id": 65507, "content": "<unused_token_449>", "single_word": false, "lstrip": false, "rstrip": false, "normalized": true, "special": false}, {"id": 65508, "content": "<unused_token_450>", "single_word": false, "lstrip": false, "rstrip": false, "normalized": true, "special": false}, {"id": 65509, "content": "<unused_token_451>", "single_word": false, "lstrip": false, "rstrip": false, "normalized": true, "special": false}, {"id": 65510, "content": "<unused_token_452>", "single_word": false, "lstrip": false, "rstrip": false, "normalized": true, "special": false}, {"id": 65511, "content": "<unused_token_453>", "single_word": false, "lstrip": false, "rstrip": false, "normalized": true, "special": false}, {"id": 65512, "content": "<unused_token_454>", "single_word": false, "lstrip": false, "rstrip": false, "normalized": true, "special": false}, {"id": 65513, "content": "<unused_token_455>", "single_word": false, "lstrip": false, "rstrip": false, "normalized": true, "special": false}, {"id": 65514, "content": "<unused_token_456>", "single_word": false, "lstrip": false, "rstrip": false, "normalized": true, "special": false}, {"id": 65515, "content": "<unused_token_457>", "single_word": false, "lstrip": false, "rstrip": false, "normalized": true, "special": false}, {"id": 65516, "content": "<unused_token_458>", "single_word": false, "lstrip": false, "rstrip": false, "normalized": true, "special": false}, {"id": 65517, "content": "<unused_token_459>", "single_word": false, "lstrip": false, "rstrip": false, "normalized": true, "special": false}, {"id": 65518, "content": "<unused_token_460>", "single_word": false, "lstrip": false, "rstrip": false, "normalized": true, "special": false}, {"id": 65519, "content": "<unused_token_461>", "single_word": false, "lstrip": false, "rstrip": false, "normalized": true, "special": false}, {"id": 65520, "content": "<unused_token_462>", "single_word": false, "lstrip": false, "rstrip": false, "normalized": true, "special": false}, {"id": 65521, "content": "<unused_token_463>", "single_word": false, "lstrip": false, "rstrip": false, "normalized": true, "special": false}, {"id": 65522, "content": "<unused_token_464>", "single_word": false, "lstrip": false, "rstrip": false, "normalized": true, "special": false}, {"id": 65523, "content": "<unused_token_465>", "single_word": false, "lstrip": false, "rstrip": false, "normalized": true, "special": false}, {"id": 65524, "content": "<unused_token_466>", "single_word": false, "lstrip": false, "rstrip": false, "normalized": true, "special": false}, {"id": 65525, "content": "<unused_token_467>", "single_word": false, "lstrip": false, "rstrip": false, "normalized": true, "special": false}, {"id": 65526, "content": "<unused_token_468>", "single_word": false, "lstrip": false, "rstrip": false, "normalized": true, "special": false}, {"id": 65527, "content": "<unused_token_469>", "single_word": false, "lstrip": false, "rstrip": false, "normalized": true, "special": false}, {"id": 65528, "content": "<unused_token_470>", "single_word": false, "lstrip": false, "rstrip": false, "normalized": true, "special": false}, {"id": 65529, "content": "<unused_token_471>", "single_word": false, "lstrip": false, "rstrip": false, "normalized": true, "special": false}, {"id": 65530, "content": "<unused_token_472>", "single_word": false, "lstrip": false, "rstrip": false, "normalized": true, "special": false}, {"id": 65531, "content": "<unused_token_473>", "single_word": false, "lstrip": false, "rstrip": false, "normalized": true, "special": false}, {"id": 65532, "content": "<unused_token_474>", "single_word": false, "lstrip": false, "rstrip": false, "normalized": true, "special": false}, {"id": 65533, "content": "<unused_token_475>", "single_word": false, "lstrip": false, "rstrip": false, "normalized": true, "special": false}, {"id": 65534, "content": "<unused_token_476>", "single_word": false, "lstrip": false, "rstrip": false, "normalized": true, "special": false}, {"id": 65535, "content": "<unused_token_477>", "single_word": false, "lstrip": false, "rstrip": false, "normalized": true, "special": false}], "normalizer": null, "pre_tokenizer": {"type": "Sequence", "pretokenizers": [{"type": "Split", "pattern": {"Regex": "\\p{N}{1,3}"}, "behavior": "Isolated", "invert": false}, {"type": "Split", "pattern": {"Regex": "(?i:'s|'t|'re|'ve|'m|'ll|'d)|[^\\r\\n\\p{L}\\p{N}]?\\p{L}+|\\p{N}+| ?[^\\s\\p{L}\\p{N}]+[\\r\\n]*|\\s*[\\r\\n]+|\\s+(?!\\S)|\\s+"}, "behavior": "Isolated", "invert": false}, {"type": "ByteLevel", "add_prefix_space": false, "trim_offsets": true, "use_regex": false}]}, "post_processor": {"type": "TemplateProcessing", "single": [{"SpecialToken": {"id": "<s>", "type_id": 0}}, {"Sequence": {"id": "A", "type_id": 0}}], "pair": [{"SpecialToken": {"id": "<s>", "type_id": 0}}, {"Sequence": {"id": "A", "type_id": 0}}, {"SpecialToken": {"id": "<s>", "type_id": 1}}, {"Sequence": {"id": "B", "type_id": 1}}], "special_tokens": {"<s>": {"id": "<s>", "ids": [0], "tokens": ["<s>"]}}}, "decoder": {"type": "ByteLevel", "add_prefix_space": true, "trim_offsets": true, "use_regex": true}, "model": {"type": "BPE", "dropout": null, "unk_token": "<unk>", "continuing_subword_prefix": null, "end_of_word_suffix": null, "fuse_unk": false, "byte_fallback": false, "ignore_merges": false, "vocab": {"<s>": 0, "</s>": 1, "<tool_call>": 2, "</tool_call>": 3, "<|im_sep|>": 4, "<|fim_prefix|>": 5, "<|fim_middle|>": 6, "<|fim_suffix|>": 7, "<think>": 8, "</think>": 9, "<tool_response>": 10, "</tool_response>": 11, "<tools>": 12, "</tools>": 13, "<arguments>": 14, "</arguments>": 15, "<parameters>": 16, "</parameters>": 17, "<function": 18, "</function>": 19, "<param": 20, "</param>": 21, "!": 22, "\"": 23, "#": 24, "$": 25, "%": 26, "&": 27, "'": 28, "(": 29, ")": 30, "*": 31, "+": 32, ",": 33, "-": 34, ".": 35, "/": 36, "0": 37, "1": 38, "2": 39, "3": 40, "4": 41, "5": 42, "6": 43, "7": 44, "8": 45, "9": 46, ":": 47, ";": 48, "<": 49, "=": 50, ">": 51, "?": 52, "@": 53, "A": 54, "B": 55, "C": 56, "D": 57, "E": 58, "F": 59, "G": 60, "H": 61, "I": 62, "J": 63, "K": 64, "L": 65, "M": 66, "N": 67, "O": 68, "P": 69, "Q": 70, "R": 71, "S": 72, "T": 73, "U": 74, "V": 75, "W": 76, "X": 77, "Y": 78, "Z": 79, "[": 80, "\\": 81, "]": 82, "^": 83, "_": 84, "`": 85, "a": 86, "b": 87, "c": 88, "d": 89, "e": 90, "f": 91, "g": 92, "h": 93, "i": 94, "j": 95, "k": 96, "l": 97, "m": 98, "n": 99, "o": 100, "p": 101, "q": 102, "r": 103, "s": 104, "t": 105, "u": 106, "v": 107, "w": 108, "x": 109, "y": 110, "z": 111, "{": 112, "|": 113, "}": 114, "~": 115, "¡": 116, "¢": 117, "£": 118, "¤": 119, "¥": 120, "¦": 121, "§": 122, "¨": 123, "©": 124, "ª": 125, "«": 126, "¬": 127, "®": 128, "¯": 129, "°": 130, "±": 131, "²": 132, "³": 133, "´": 134, "µ": 135, "¶": 136, "·": 137, "¸": 138, "¹": 139, "º": 140, "»": 141, "¼": 142, "½": 143, "¾": 144, "¿": 145, "À": 146, "Á": 147, "Â": 148, "Ã": 149, "Ä": 150, "Å": 151, "Æ": 152, "Ç": 153, "È": 154, "É": 155, "Ê": 156, "Ë": 157, "Ì": 158, "Í": 159, "Î": 160, "Ï": 161, "Ð": 162, "Ñ": 163, "Ò": 164, "Ó": 165, "Ô": 166, "Õ": 167, "Ö": 168, "×": 169, "Ø": 170, "Ù": 171, "Ú": 172, "Û": 173, "Ü": 174, "Ý": 175, "Þ": 176, "ß": 177, "à": 178, "á": 179, "â": 180, "ã": 181, "ä": 182, "å": 183, "æ": 184, "ç": 185, "è": 186, "é": 187, "ê": 188, "ë": 189, "ì": 190, "í": 191, "î": 192, "ï": 193, "ð": 194, "ñ": 195, "ò": 196, "ó": 197, "ô": 198, "õ": 199, "ö": 200, "÷": 201, "ø": 202, "ù": 203, "ú": 204, "û": 205, "ü": 206, "ý": 207, "þ": 208, "ÿ": 209, "Ā": 210, "ā": 211, "Ă": 212, "ă": 213, "Ą": 214, "ą": 215, "Ć": 216, "ć": 217, "Ĉ": 218, "ĉ": 219, "Ċ": 220, "ċ": 221, "Č": 222, "č": 223, "Ď": 224, "ď": 225, "Đ": 226, "đ": 227, "Ē": 228, "ē": 229, "Ĕ": 230, "ĕ": 231, "Ė": 232, "ė": 233, "Ę": 234, "ę": 235, "Ě": 236, "ě": 237, "Ĝ": 238, "ĝ": 239, "Ğ": 240, "ğ": 241, "Ġ": 242, "ġ": 243, "Ģ": 244, "ģ": 245, "Ĥ": 246, "ĥ": 247, "Ħ": 248, "ħ": 249, "Ĩ": 250, "ĩ": 251, "Ī": 252, "ī": 253, "Ĭ": 254, "ĭ": 255, "Į": 256, "į": 257, "İ": 258, "ı": 259, "Ĳ": 260, "ĳ": 261, "Ĵ": 262, "ĵ": 263, "Ķ": 264, "ķ": 265, "ĸ": 266, "Ĺ": 267, "ĺ": 268, "Ļ": 269, "ļ": 270, "Ľ": 271, "ľ": 272, "Ŀ": 273, "ŀ": 274, "Ł": 275, "ł": 276, "Ń": 277, "Ġt": 278, "he": 279, "Ġa": 280, "in": 281, "on": 282, "re": 283, "Ġthe": 284, "at": 285, "er": 286, "Ġs": 287, "Ġo": 288, "en": 289, "Ġc": 290, "Ġw": 291, "is": 292, "es": 293, "it": 294, "an": 295, "or": 296, "al": 297, "Ġp": 298, "ed": 299, "Ġf": 300, "Ġb": 301, "ar": 302, "Ġof": 303, "Ġan": 304, "ing": 305, "Ġm": 306, "Ġd": 307, "Ġin": 308, "ou": 309, "ion": 310, "ic": 311, "td": 312, "le": 313, "Ġand": 314, "Ġto": 315, "as": 316, "Ġ{": 317, "ro": 318, "Ġh": 319, "Ġ\\": 320, "Ġ}": 321, "ï¼": 322, "Ġth": 323, "ent": 324, "Ġe": 325, "ct": 326, "Ġn": 327, "><": 328, "Ġl": 329, "el": 330, "om": 331, "st": 332, "et": 333, "Ġre": 334, "il": 335, "im": 336, "ra": 337, "Ġ(": 338, "ĠT": 339, "ot": 340, "ol": 341, "id": 342, "Ġg": 343, "ig": 344, ".Ċ": 345, "ut": 346, "</": 347, "ve": 348, "ĠI": 349, "ation": 350, "ĠS": 351, "Ġis": 352, "ce": 353, "ĠA": 354, "ly": 355, "ch": 356, "us": 357, "Ġbe": 358, "ur": 359, "un": 360, "ow": 361, "Ġ$": 362, "ĠC": 363, "am": 364, "ad": 365, "Ġfor": 366, "Ġon": 367, "ver": 368, "âĢ": 369, "ul": 370, "Ġthat": 371, "os": 372, "Ġst": 373, "Ġhe": 374, "ith": 375, "ir": 376, "ĠM": 377, "ay": 378, "Ġ_": 379, "if": 380, "Ġas": 381, "00": 382, "Ġcon": 383, "Ġy": 384, "tr": 385, "ĠP": 386, "od": 387, "Ġwith": 388, "qu": 389, "ter": 390, "th": 391, "em": 392, "um": 393, "ĠB": 394, "Ġal": 395, "Ġit": 396, "Ġwh": 397, "ab": 398, "Ġpro": 399, "Ġde": 400, "ĠThe": 401, "ĠH": 402, "ath": 403, "Ġv": 404, "ag": 405, "se": 406, "her": 407, "ht": 408, "res": 409, "pe": 410, "Ġwe": 411, "iv": 412, "and": 413, "ac": 414, "Ġwas": 415, "ĠR": 416, "Ġex": 417, "Ġr": 418, "ĠD": 419, "ĠF": 420, "ate": 421, "ĠE": 422, "ld": 423, "Ġ-": 424, "ĠL": 425, "ess": 426, "Ġyou": 427, "Ġor": 428, "ĠW": 429, "ers": 430, "est": 431, "==": 432, "ist": 433, "ity": 434, "19": 435, "Ġare": 436, "Ġ\"": 437, "Ġcom": 438, "ction": 439, "pp": 440, "Ġse": 441, "ant": 442, "Ġat": 443, "math": 444, "'s": 445, "ill": 446, "ore": 447, "Ġby": 448, "ain": 449, "Ġsu": 450, "op": 451, "ight": 452, "rom": 453, "ĠN": 454, "oc": 455, "nd": 456, "Ġ=": 457, "ke": 458, "ĠG": 459, "ies": 460, "Ġ^": 461, "ive": 462, "ment": 463, "20": 464, "Ġnot": 465, "ure": 466, "Ġ'": 467, "ial": 468, "Ġun": 469, "ib": 470, "art": 471, "></": 472, "Ġha": 473, "end": 474, "Ġsh": 475, "Ġne": 476, "pl": 477, "Ġfrom": 478, "te": 479, "Ġch": 480, "Ġ)": 481, "Ġ,": 482, "ort": 483, "ge": 484, "Ġk": 485, "ould": 486, "pt": 487, "og": 488, "Ġle": 489, "ren": 490, "Ġ<": 491, "ie": 492, "ical": 493, "ĠJ": 494, "red": 495, "ud": 496, "Ġthis": 497, "ine": 498, "all": 499, "fe": 500, "iz": 501, "ich": 502, "Ġus": 503, "ell": 504, ">Ċ": 505, "ĠO": 506, "per": 507, "Ġ$\\": 508, "),": 509, "ust": 510, "Ġ.": 511, "10": 512, "Ġhave": 513, "Ġme": 514, "ard": 515, "our": 516, "Ġhis": 517, "rou": 518, "rm": 519, "ri": 520, "ome": 521, "Ġcan": 522, "up": 523, "ph": 524, "ated": 525, "Ġj": 526, "Ġab": 527, "able": 528, "ĠIn": 529, "hen": 530, "ime": 531, "ous": 532, "out": 533, "ans": 534, "ap": 535, "--": 536, "Ġ[": 537, "ide": 538, "ult": 539, "AA": 540, "ost": 541, "ak": 542, "Ġim": 543, "ther": 544, "ass": 545, "orm": 546, "Ġher": 547, "ind": 548, "Ġen": 549, "Ġall": 550, "The": 551, "mathrm": 552, "Ġwor": 553, "Ġcomp": 554, "Ġcl": 555, "ue": 556, "Ġwhich": 557, "ations": 558, "ip": 559, "Ġres": 560, "ition": 561, "cc": 562, "ast": 563, "12": 564, "Ġpl": 565, "Ġhad": 566, "ok": 567, "ong": 568, "ack": 569, "Ġdo": 570, "act": 571, "der": 572, "Ġqu": 573, "$Ċ": 574, "Ġdis": 575, "age": 576, "to": 577, "gh": 578, "..": 579, "ame": 580, "du": 581, "',": 582, "ence": 583, "ĠU": 584, ").": 585, "ĠK": 586, "ary": 587, "Ġbut": 588, "Ġ}$": 589, "ance": 590, "Ġad": 591, "ft": 592, "ep": 593, "Ġtr": 594, "Ġ+": 595, "ang": 596, "one": 597, ".,": 598, "ne": 599, "int": 600, "cl": 601, "ach": 602, "Ġwere": 603, ".\"": 604, "Ġone": 605, "ub": 606, "rac": 607, "11": 608, "ens": 609, "ice": 610, "ia": 611, "ress": 612, "ff": 613, "Ġout": 614, "Ġper": 615, "av": 616, "Ġtheir": 617, "ase": 618, "Ġthey": 619, "ĠV": 620, "15": 621, "Ġso": 622, "con": 623, "ĠTh": 624, "Ġgo": 625, "18": 626, "$$Ċ": 627, "ign": 628, "ber": 629, "oun": 630, "ose": 631, "ual": 632, "Ġman": 633, "ace": 634, "Ġcont": 635, "__": 636, ",\"": 637, "ents": 638, "Ġhas": 639, "ire": 640, "ions": 641, "Ġwill": 642, "'t": 643, "ely": 644, "are": 645, "13": 646, "Ġshe": 647, "Ġi": 648, "ite": 649, "ru": 650, "Ġup": 651, "14": 652, "Ġsp": 653, "16": 654, "âĢĶ": 655, "Ġmy": 656, "xt": 657, "Ġmore": 658, ")Ċ": 659, "urn": 660, "Ġother": 661, "ear": 662, "ook": 663, "form": 664, "row": 665, "Ġpart": 666, "ma": 667, "Ġev": 668, "vel": 669, "ound": 670, "de": 671, "so": 672, "IC": 673, "ĠY": 674, "Ġno": 675, "Ġx": 676, "rent": 677, "very": 678, "we": 679, "17": 680, "own": 681, "ys": 682, "Ġsa": 683, "ll": 684, "unction": 685, "ile": 686, "Ġar": 687, "000": 688, "ors": 689, "25": 690, "low": 691, "Ġthere": 692, "ory": 693, "Ġbeen": 694, "Ġapp": 695, "Ġif": 696, "oss": 697, "ord": 698, "Ġsc": 699, "ake": 700, "Ġwould": 701, "ks": 702, "Ġag": 703, "port": 704, "here": 705, "ect": 706, "Ġwho": 707, "ĠCh": 708, "Ġdes": 709, "}$": 710, "ces": 711, "wo": 712, "Ġhim": 713, "Ġpre": 714, "ĠHe": 715, "ms": 716, "ree": 717, "ater": 718, "ta": 719, "ry": 720, "Ġits": 721, "Ġob": 722, "aus": 723, "Ġyour": 724, "Ġli": 725, "Ġinto": 726, "Ġtime": 727, "ew": 728, "ple": 729, "Ġthan": 730, "Ġabout": 731, "201": 732, "ĠSt": 733, "pr": 734, "ish": 735, "Ġsy": 736, "erv": 737, "ĠIt": 738, "Ġwhen": 739, "ian": 740, "Ġ&": 741, "Ġte": 742, "ates": 743, "Ġsome": 744, "ray": 745, "Ġro": 746, "Ġover": 747, "ata": 748, "22": 749, "ings": 750, "hed": 751, "Ġspe": 752, "Ġcol": 753, "200": 754, "30": 755, "Ġpr": 756, "Ġdif": 757, "ov": 758, "ove": 759, "Ġkn": 760, "Ġany": 761, "vers": 762, "frac": 763, "ict": 764, "Ġrel": 765, "Ġbet": 766, ".\"Ċ": 767, "Ġalso": 768, "Ġthem": 769, "right": 770, "Ġmod": 771, "ark": 772, "eth": 773, "Ġbec": 774, "mathb": 775, "ally": 776, "ob": 777, "elf": 778, "],": 779, "ject": 780, "Ġinter": 781, "uc": 782, "Ġcons": 783, "the": 784, "\",": 785, "Ag": 786, "olog": 787, "Ġacc": 788, "lect": 789, "ays": 790, "ious": 791, "old": 792, "ps": 793, "ick": 794, "ific": 795, "ty": 796, "=\"": 797, "Ġ|": 798, "cre": 799, "rit": 800, "Ġtwo": 801, "mer": 802, "ons": 803, "Ġonly": 804, "ail": 805, "tain": 806, "ood": 807, "fect": 808, ";Ċ": 809, "Ġass": 810, "ild": 811, "24": 812, "Ġmay": 813, "irst": 814, "ener": 815, "Ġtra": 816, "Ġind": 817, "reat": 818, "cess": 819, "Ġwhat": 820, "\":": 821, "Ġ/": 822, "ied": 823, "oint": 824, "Ġval": 825, "ular": 826, "Ġwork": 827, "99": 828, "cal": 829, "Ġpe": 830, ":Ċ": 831, "In": 832, "hat": 833, "ink": 834, "ient": 835, "Ġla": 836, "eg": 837, "Ġsub": 838, "Ġunder": 839, "Ġrec": 840, "Ġthese": 841, "Ġcould": 842, "Ġour": 843, "27": 844, "les": 845, "50": 846, "ond": 847, "lic": 848, "ating": 849, "pect": 850, "Ġam": 851, "iss": 852, "erm": 853, "Ġem": 854, "Ġsuch": 855, "oth": 856, "23": 857, "ced": 858, "ution": 859, "Ġbl": 860, "Ġcomm": 861, "ĠThis": 862, "ble": 863, "fore": 864, "igh": 865, "``": 866, "stem": 867, "Ġph": 868, "ough": 869, "ss": 870, "ative": 871, "ise": 872, "Ġoff": 873, "Ġfe": 874, "ram": 875, "Ġco": 876, "ause": 877, "':": 878, "ics": 879, "fter": 880, "Ġsaid": 881, "Ġthen": 882, "26": 883, "199": 884, "ning": 885, "Ġlike": 886, "28": 887, "ility": 888, "Ġhow": 889, "Ġnew": 890, "36": 891, "Ġra": 892, "Ġact": 893, "40": 894, "var": 895, "turn": 896, "dition": 897, "Ġstud": 898, "ible": 899, "rough": 900, "ER": 901, "ween": 902, "Ġfirst": 903, "ade": 904, "ful": 905, "left": 906, "Ġdiffe": 907, "ational": 908, "29": 909, "ities": 910, "oy": 911, "Ġ*": 912, "Ġtrans": 913, "33": 914, "Ġnum": 915, "ffect": 916, "Ġsm": 917, "round": 918, "Ġknow": 919, "Ġac": 920, "imes": 921, "sp": 922, "itt": 923, "Ġbetween": 924, "ng": 925, "com": 926, "Ġfl": 927, "pro": 928, "Ġet": 929, "ax": 930, "(t": 931, "ont": 932, "Ġreg": 933, "tern": 934, ",Ċ": 935, "ĠWe": 936, "ange": 937, "){": 938, "get": 939, "Ġfol": 940, "ex": 941, "uch": 942, "Ġform": 943, "resent": 944, "ures": 945, "ize": 946, "wn": 947, "Ġpol": 948, "cept": 949, "ull": 950, "Ġdid": 951, "Ġshould": 952, "Ġback": 953, "Ġthrough": 954, "Ġwhere": 955, "Ġset": 956, "ract": 957, "ec": 958, "Ġyear": 959, "ĠUn": 960, "Ġsim": 961, "ICAg": 962, "Ġuse": 963, "Ġsee": 964, "ount": 965, "ments": 966, "Ġrem": 967, "Ġpar": 968, "//": 969, "iel": 970, "Ġneed": 971, "Ġint": 972, "io": 973, "Ġcor": 974, "ric": 975, "ug": 976, "Ġsystem": 977, "eng": 978, "ix": 979, "Ġmost": 980, "Ġfollow": 981, "iew": 982, "fl": 983, "clud": 984, "Ġinv": 985, "pos": 986, "Ġprodu": 987, "60": 988, "other": 989, "**": 990, "cy": 991, "array": 992, "Ġget": 993, "Ġz": 994, "Ġsur": 995, "37": 996, "AAAA": 997, "its": 998, "ock": 999, "ife": 1000, "ork": 1001, "}}": 1002, "Ġeach": 1003, "ĠAn": 1004, "Ġgener": 1005, "Ġdet": 1006, "ten": 1007, "Ġjust": 1008, "hes": 1009, "ature": 1010, "Ġstr": 1011, "Ġvar": 1012, "ople": 1013, "ower": 1014, "Ġequ": 1015, "Ġprov": 1016, "ily": 1017, "ident": 1018, "ined": 1019, "Ġatt": 1020, "_{": 1021, "35": 1022, "Ġresult": 1023, "ased": 1024, "Ġclass": 1025, "ever": 1026, "Ġinst": 1027, "198": 1028, "Ġdef": 1029, "ier": 1030, "cial": 1031, "trib": 1032, "ism": 1033, "this": 1034, "ds": 1035, "45": 1036, "ON": 1037, "led": 1038, "ward": 1039, "mathbf": 1040, "ues": 1041, "Ġused": 1042, "ĠRe": 1043, "ĠPro": 1044, "als": 1045, "Ġ)$": 1046, "Ġent": 1047, "Ġhand": 1048, "function": 1049, "IN": 1050, "Ġagain": 1051, "Ġlook": 1052, "Ġpers": 1053, "Ġeven": 1054, "38": 1055, "Ġu": 1056, "Ġafter": 1057, "{array": 1058, "21": 1059, "Ġest": 1060, "##": 1061, "48": 1062, "ins": 1063, "ized": 1064, "Ġwell": 1065, ");": 1066, "?\"": 1067, "ĠCom": 1068, "amb": 1069, "Ġlong": 1070, "velop": 1071, "(\"": 1072, "iet": 1073, "Ġfunction": 1074, "Ġway": 1075, "ĠSe": 1076, "ather": 1077, "Ġmodel": 1078, "mathcal": 1079, "^{": 1080, "},": 1081, "Ġsupp": 1082, "Ġpoint": 1083, "gan": 1084, "Ġpeople": 1085, "ator": 1086, "ited": 1087, "Ġexp": 1088, "ness": 1089, "Ġfact": 1090, "ample": 1091, "sc": 1092, "Ġright": 1093, "sh": 1094, "over": 1095, "Ġext": 1096, "ES": 1097, "Ġdifferent": 1098, "air": 1099, "75": 1100, "Ġgiv": 1101, "39": 1102, "ement": 1103, "Ġsame": 1104, "Ġdisc": 1105, "ctions": 1106, "44": 1107, "ool": 1108, "ages": 1109, "ĠX": 1110, "ght": 1111, "Ġel": 1112, "Ġsol": 1113, "Ġnow": 1114, "of": 1115, "ĠZ": 1116, "eta": 1117, "Ġsign": 1118, "uring": 1119, "Ġconst": 1120, "ale": 1121, "Ġshow": 1122, "Ġinte": 1123, "100": 1124, "Ġbecause": 1125, "Ġcar": 1126, "Ġmany": 1127, "ave": 1128, "Ġdata": 1129, "ype": 1130, "Ġpat": 1131, "Ġdown": 1132, "Ġevery": 1133, "Ġexper": 1134, "Ġappro": 1135, "val": 1136, "Ġvery": 1137, "ĠFor": 1138, "Ġmat": 1139, "ines": 1140, "ck": 1141, "ran": 1142, "46": 1143, "Ġbel": 1144, "Ġeffect": 1145, "arg": 1146, "put": 1147, "line": 1148, "Ġed": 1149, "und": 1150, "Ġwant": 1151, "Ġend": 1152, "ner": 1153, "ts": 1154, "Ġmin": 1155, "Ġpartic": 1156, "Ġke": 1157, "ĠQ": 1158, "ene": 1159, "ting": 1160, "Ġfin": 1161, "prime": 1162, "Ġhigh": 1163, "pha": 1164, "ization": 1165, "text": 1166, "dot": 1167, "Ġboth": 1168, "ince": 1169, "cent": 1170, "ern": 1171, "Ġmade": 1172, "Ġcall": 1173, "Ġmake": 1174, "ically": 1175, "AT": 1176, "ruct": 1177, "aking": 1178, "47": 1179, "for": 1180, "Ġap": 1181, "li": 1182, "Ġnumber": 1183, "irc": 1184, "ĠShe": 1185, "Ġthose": 1186, "ivers": 1187, "da": 1188, "man": 1189, "Ġgra": 1190, "ody": 1191, "Ġbefore": 1192, "AN": 1193, "gg": 1194, "49": 1195, "arch": 1196, "Ġmust": 1197, "Ġinclud": 1198, "way": 1199, "Th": 1200, "self": 1201, "Ġgood": 1202, "80": 1203, "ox": 1204, "AR": 1205, "Ġ:": 1206, "Ġcent": 1207, "Ġcomple": 1208, "Ġdevelop": 1209, "Ġcur": 1210, "Ġmuch": 1211, "197": 1212, "55": 1213, "Ġear": 1214, "ym": 1215, "ural": 1216, "Ġown": 1217, "ICAgICAg": 1218, "ices": 1219, "ĠAl": 1220, "Ġrep": 1221, "Ġrequ": 1222, "uss": 1223, "66": 1224, "ci": 1225, "ared": 1226, "gy": 1227, "Ġimport": 1228, "}Ċ": 1229, "ology": 1230, "70": 1231, "Ġaut": 1232, "rest": 1233, "Ġprocess": 1234, "Ġgrou": 1235, "Ġfound": 1236, "alpha": 1237, "ven": 1238, "Ġdec": 1239, "formation": 1240, "yle": 1241, "ho": 1242, "ĠBut": 1243, "rence": 1244, "-b": 1245, "ute": 1246, "ublic": 1247, "Ġdep": 1248, "Ġgl": 1249, "Ġbeing": 1250, "Ġdire": 1251, "Ġfind": 1252, "Ġposs": 1253, "ethod": 1254, "}{": 1255, "yp": 1256, "vent": 1257, "Ġdoes": 1258, "EN": 1259, "ton": 1260, "Ġreal": 1261, "arge": 1262, "Ġsoc": 1263, "oh": 1264, "read": 1265, "hem": 1266, "ĠIf": 1267, "Ġop": 1268, "Ġchild": 1269, "return": 1270, "app": 1271, "ength": 1272, "?Ċ": 1273, "ases": 1274, "32": 1275, "Ġ\\\\": 1276, "Ġlife": 1277, "Ġref": 1278, "Ġyears": 1279, "chn": 1280, "til": 1281, "90": 1282, "Ġproble": 1283, "par": 1284, "ider": 1285, "Ġincre": 1286, "OR": 1287, "34": 1288, "py": 1289, "]Ċ": 1290, "ĠAnd": 1291, "ield": 1292, "31": 1293, "ists": 1294, "ĠDe": 1295, "ash": 1296, "ars": 1297, "ode": 1298, "Ġpos": 1299, "ah": 1300, "rain": 1301, "Ġhel": 1302, "ional": 1303, "str": 1304, ").Ċ": 1305, "col": 1306, "AL": 1307, "any": 1308, "que": 1309, "au": 1310, "Ġbr": 1311, "land": 1312, "ants": 1313, "Ġread": 1314, "ted": 1315, "Ġloc": 1316, "Ġbu": 1317, "ought": 1318, "alk": 1319, "ĠPh": 1320, "Ġspec": 1321, "span": 1322, "ision": 1323, "Ġthink": 1324, "Ġpa": 1325, "be": 1326, "Ġexpl": 1327, "rol": 1328, "Ġmon": 1329, "Ġperson": 1330, "Ġcase": 1331, "ross": 1332, "Ġdist": 1333, "ĠAs": 1334, "ually": 1335, "Ġsmall": 1336, "meric": 1337, "Ġins": 1338, "Ġusing": 1339, "cond": 1340, "He": 1341, "Ġthree": 1342, "elta": 1343, "-s": 1344, "88": 1345, "tic": 1346, "Ġanal": 1347, "ĠNew": 1348, "Ġser": 1349, "ung": 1350, "lear": 1351, "ĠCon": 1352, "Ġresp": 1353, "77": 1354, "Ġes": 1355, "aw": 1356, "ann": 1357, "ved": 1358, "ivid": 1359, "ives": 1360, "min": 1361, "ral": 1362, "Ġque": 1363, "ively": 1364, "ential": 1365, "Ġgu": 1366, "ouse": 1367, "...": 1368, "Ġmem": 1369, "arm": 1370, "igure": 1371, "Ġcoun": 1372, "Ġserv": 1373, "ense": 1374, "Ġgr": 1375, "set": 1376, ")</": 1377, "202": 1378, "Ġhere": 1379, "ND": 1380, "We": 1381, "65": 1382, "yn": 1383, "```": 1384, "err": 1385, "ves": 1386, "Ġsom": 1387, "ters": 1388, "ulation": 1389, "95": 1390, "'d": 1391, "].": 1392, "ished": 1393, "Ġpresent": 1394, "Ġfam": 1395, "hip": 1396, "Ġwhile": 1397, "Ġsl": 1398, "Ġdi": 1399, "Ġprog": 1400, "ien": 1401, "Ġdon": 1402, "mathbb": 1403, "It": 1404, "ĠThey": 1405, "Ġnon": 1406, "Ġ$(": 1407, "196": 1408, "cr": 1409, "ĠHow": 1410, "atic": 1411, "Ġworld": 1412, "Ġmethod": 1413, "ability": 1414, "ffic": 1415, "Ġhum": 1416, "ambda": 1417, "Ġimp": 1418, "Ġdem": 1419, "ĠAr": 1420, "Ġline": 1421, "&&": 1422, "Ġgiven": 1423, "ior": 1424, "AC": 1425, "85": 1426, "Ġtake": 1427, "amp": 1428, "Ġadd": 1429, "Ġlet": 1430, "ality": 1431, "Ġbeh": 1432, "Ġtest": 1433, "Ġ{\\": 1434, "Ġmed": 1435, "ption": 1436, "els": 1437, "\">": 1438, "Ġstill": 1439, "ĠThere": 1440, ".l": 1441, "ience": 1442, "Ġcour": 1443, "mu": 1444, "-d": 1445, "Ġsay": 1446, "Ġhead": 1447, "OD": 1448, "Ġlead": 1449, ")$": 1450, "ĠâĢ": 1451, "ert": 1452, "ĠAmeric": 1453, "less": 1454, "RE": 1455, "ank": 1456, "az": 1457, "ired": 1458, "Ġhelp": 1459, "05": 1460, ",e": 1461, "Ġtoo": 1462, "Ġocc": 1463, "Ġmight": 1464, "Ġav": 1465, "alth": 1466, "Ġturn": 1467, "Ġwom": 1468, "ertain": 1469, ");Ċ": 1470, "inal": 1471, "ron": 1472, "01": 1473, "chool": 1474, "78": 1475, "ittle": 1476, "Ġorder": 1477, "Ġstand": 1478, "Ġoper": 1479, "acter": 1480, "Ġvalue": 1481, "Ġconf": 1482, "Ġlevel": 1483, "Ġquest": 1484, "ying": 1485, "Ġstate": 1486, "new": 1487, "ital": 1488, "Ġmain": 1489, "Ġwithout": 1490, "68": 1491, "Ġcontin": 1492, "):": 1493, "table": 1494, "ets": 1495, "Ġele": 1496, "Ġmeas": 1497, "ving": 1498, "raph": 1499, "oci": 1500, "stand": 1501, "po": 1502, "Ġpower": 1503, "aj": 1504, "iness": 1505, "Ġchar": 1506, "64": 1507, "Ġtem": 1508, "amma": 1509, "yl": 1510, "Ġ~": 1511, "Ġday": 1512, "ides": 1513, "ID": 1514, "OT": 1515, "98": 1516, "ĠEx": 1517, "view": 1518, "67": 1519, "egin": 1520, "Ġsk": 1521, "ole": 1522, "Ġaround": 1523, "ĠYou": 1524, "Ġexample": 1525, "}\\": 1526, "ane": 1527, "igma": 1528, "Ġcre": 1529, "Ġpres": 1530, "itive": 1531, "Ġseem": 1532, "iversity": 1533, "?\"Ċ": 1534, "ots": 1535, "._": 1536, "ason": 1537, "Ġloss": 1538, "Ġask": 1539, "Ġpass": 1540, "ified": 1541, "Ġey": 1542, "pi": 1543, "Ġdel": 1544, "akes": 1545, "Ġappe": 1546, "ST": 1547, "Ġmet": 1548, "Ġinformation": 1549, "Ġfollowing": 1550, "Ġmean": 1551, "ĠCl": 1552, "Ġstart": 1553, "Ġlear": 1554, "Ġanother": 1555, "rist": 1556, "Ġcondition": 1557, "bers": 1558, "ived": 1559, "Ġche": 1560, "Ġgreat": 1561, "Ġduring": 1562, "rem": 1563, "Ġide": 1564, "'Ċ": 1565, "ĠÃ": 1566, "not": 1567, "orn": 1568, "tt": 1569, "quad": 1570, "ĠLe": 1571, "ium": 1572, "oid": 1573, "Ġperform": 1574, "Ġinterest": 1575, ".S": 1576, "ried": 1577, "part": 1578, "Ġreturn": 1579, "Ġless": 1580, "angle": 1581, "Ġplace": 1582, "begin": 1583, "Ġimportant": 1584, "Ġthought": 1585, "69": 1586, "Ġobs": 1587, ".p": 1588, "atch": 1589, "Ġopen": 1590, "',Ċ": 1591, "hy": 1592, "ww": 1593, "ctor": 1594, "ately": 1595, "Ġ</": 1596, "cdot": 1597, "ik": 1598, "Ġsecond": 1599, "Ġlittle": 1600, "ĠSh": 1601, "Ġnever": 1602, "ination": 1603, "ways": 1604, "bar": 1605, "Ġpur": 1606, "Ġbre": 1607, "Ġcommun": 1608, "Ġmark": 1609, "try": 1610, "Ġcap": 1611, "Ġcal": 1612, "Ġtechn": 1613, "agn": 1614, "Ġorgan": 1615, "-f": 1616, "=t": 1617, "ivity": 1618, "Ġcell": 1619, "name": 1620, "Ġplay": 1621, "'m": 1622, "Ġinc": 1623, "Ġ]": 1624, "Ġver": 1625, "tribut": 1626, "ining": 1627, "ĠInd": 1628, "Ġagainst": 1629, "Ġlarge": 1630, "IT": 1631, "ĠOn": 1632, "'re": 1633, "Ġwater": 1634, "Ġve": 1635, "ĠGod": 1636, "HE": 1637, "ling": 1638, "Ġ{Ċ": 1639, "Ġder": 1640, "Ġwithin": 1641, "Ġgroup": 1642, "Ġcare": 1643, "Ġstat": 1644, "Ġpublic": 1645, "Ġlast": 1646, "43": 1647, "79": 1648, "Ġident": 1649, "play": 1650, "Ġwrit": 1651, "lambda": 1652, "cul": 1653, "\\mathrm": 1654, "ger": 1655, "41": 1656, "Ġprof": 1657, "med": 1658, "Ġmen": 1659, "\",\"": 1660, "Ġbas": 1661, "ush": 1662, "data": 1663, "ĠAd": 1664, "phi": 1665, "ently": 1666, "crib": 1667, "lt": 1668, "Ġobject": 1669, "gt": 1670, "ients": 1671, "Ġinfl": 1672, "Ch": 1673, "Ġstruct": 1674, "Ġleft": 1675, "ilar": 1676, "Ġvari": 1677, "Ġproper": 1678, "ression": 1679, "co": 1680, "conom": 1681, "Ġelect": 1682, "Ġfew": 1683, "Ġlim": 1684, "por": 1685, "Ġbook": 1686, "Ġdr": 1687, "ote": 1688, "ples": 1689, "Ġ.Ċ": 1690, "Ġhist": 1691, "use": 1692, "sw": 1693, "ething": 1694, "Ġold": 1695, "Ġparticular": 1696, "ency": 1697, "St": 1698, "Ġcome": 1699, "ief": 1700, "Ġgrow": 1701, "ither": 1702, "dis": 1703, "42": 1704, "AB": 1705, "Ġfre": 1706, "uck": 1707, "ysis": 1708, "Ġconsider": 1709, "ably": 1710, "ised": 1711, "NT": 1712, "nal": 1713, "ention": 1714, "Ġsince": 1715, "Ġq": 1716, "Ġresults": 1717, "ividual": 1718, ",r": 1719, "eter": 1720, "fer": 1721, "Ġvis": 1722, "Ġter": 1723, "sum": 1724, "Ġvol": 1725, "Ġadv": 1726, "Ġbro": 1727, "gr": 1728, "pped": 1729, "Ġsupport": 1730, "Ġgoing": 1731, "iety": 1732, "ilon": 1733, "ek": 1734, "II": 1735, "thing": 1736, "Ġmult": 1737, "ploy": 1738, "Ġstudy": 1739, "Ġbus": 1740, "Ġgre": 1741, "ury": 1742, "abl": 1743, "Ġlight": 1744, "mb": 1745, "Ġfeel": 1746, "ological": 1747, "Ġsing": 1748, "aps": 1749, ">-": 1750, "hor": 1751, "iod": 1752, "Ġlo": 1753, "son": 1754, "Ġsit": 1755, "58": 1756, "\\x": 1757, "uro": 1758, "Ġpract": 1759, "://": 1760, "den": 1761, "AAAAAAAA": 1762, "Ġgeneral": 1763, "Ġcontrol": 1764, "%$": 1765, "style": 1766, "oper": 1767, "Ġhuman": 1768, "MD": 1769, "LE": 1770, "-m": 1771, "ĠEng": 1772, "Ġoften": 1773, "Ġsocial": 1774, "Ġbo": 1775, "iron": 1776, "08": 1777, "Ġchang": 1778, "'ll": 1779, "inc": 1780, "Ġdeterm": 1781, "You": 1782, "An": 1783, "ains": 1784, "ga": 1785, "Ġdirect": 1786, "-p": 1787, "ission": 1788, "Ġdesign": 1789, "Ġrepresent": 1790, "AS": 1791, "Ġhapp": 1792, "This": 1793, "Ġproblem": 1794, "IG": 1795, "ental": 1796, "Ġener": 1797, "Ġproduct": 1798, "Ġput": 1799, "MT": 1800, "Ġsomething": 1801, "beta": 1802, "Ġreport": 1803, "Ġview": 1804, "||": 1805, "Ġindividual": 1806, "Ġallow": 1807, "type": 1808, "IS": 1809, "urther": 1810, "Ġbest": 1811, "oor": 1812, "Ġaway": 1813, "Ġsat": 1814, ",and": 1815, "Ġpot": 1816, "Ġfil": 1817, "Ġpossible": 1818, "outh": 1819, "ĠÂ": 1820, "Ġredu": 1821, "195": 1822, "iter": 1823, "vious": 1824, "ference": 1825, "Ġtop": 1826, "ĠRes": 1827, "aterial": 1828, "Ġlow": 1829, "97": 1830, "by": 1831, "ends": 1832, "Ġself": 1833, "ccess": 1834, "sigma": 1835, "urs": 1836, "Ġalways": 1837, "ource": 1838, "let": 1839, "As": 1840, "rad": 1841, "Ġcalled": 1842, "Ġlaw": 1843, "Ġprote": 1844, "ohn": 1845, "rel": 1846, "ina": 1847, "Ġprob": 1848, "ION": 1849, "Ġchildren": 1850, "ames": 1851, "times": 1852, "ering": 1853, "))": 1854, "Ġunderstand": 1855, "Ġ#": 1856, "che": 1857, "ead": 1858, "fic": 1859, "ume": 1860, "raw": 1861, "-t": 1862, "ĠUniversity": 1863, "Ġfour": 1864, "Ġdidn": 1865, "Ġ>": 1866, "ĠTo": 1867, "olution": 1868, "iving": 1869, "ape": 1870, "where": 1871, "Ġcharacter": 1872, "Ġschool": 1873, "Ġpop": 1874, "ĠTr": 1875, "Ġobserv": 1876, "Ġchange": 1877, "Ġleg": 1878, "sy": 1879, "Ġmeasure": 1880, "Ġobtain": 1881, "Ġrun": 1882, "Ġhome": 1883, "AM": 1884, "Ġdiscuss": 1885, "eps": 1886, "Ġsignific": 1887, "ĠWhat": 1888, "Ġabove": 1889, "ances": 1890, "Ġrest": 1891, "ĠBe": 1892, "vern": 1893, "lo": 1894, "day": 1895, "ott": 1896, "Ġcr": 1897, "Pro": 1898, "ĠCol": 1899, "07": 1900, "att": 1901, "Ġrelations": 1902, "ĠWhen": 1903, "ormal": 1904, "Ġopp": 1905, "ĠIs": 1906, "istic": 1907, "Ġeas": 1908, "Ġrespect": 1909, "EC": 1910, "Ġhard": 1911, "-c": 1912, "work": 1913, "apt": 1914, "EL": 1915, "Ġdescrib": 1916, "rag": 1917, "face": 1918, "Ġbody": 1919, "aut": 1920, "57": 1921, "ument": 1922, "Ġcost": 1923, "ification": 1924, "ided": 1925, "pre": 1926, "Ġmom": 1927, "Ġlist": 1928, "Ġcertain": 1929, "Ġclear": 1930, "idence": 1931, "Ġcho": 1932, "ĠChrist": 1933, "ateg": 1934, "Ġside": 1935, "ograph": 1936, "plic": 1937, "ustr": 1938, "ĠAt": 1939, "59": 1940, "ule": 1941, "Mz": 1942, "Ġsw": 1943, "Ġconc": 1944, "Ġthings": 1945, "Ġ}Ċ": 1946, "rop": 1947, "Ġgot": 1948, "cri": 1949, "theta": 1950, "Ġrow": 1951, "me": 1952, "Ġwar": 1953, "action": 1954, "ley": 1955, "Ġname": 1956, "ĠPl": 1957, "Ġrese": 1958, "Ġinvol": 1959, "../": 1960, "ĠNo": 1961, "AD": 1962, "06": 1963, "Ġmar": 1964, "\"Ċ": 1965, "Ġgive": 1966, "Ġtype": 1967, "Ġrad": 1968, "br": 1969, ".com": 1970, "Ġgovern": 1971, "Ġexpect": 1972, "leq": 1973, "ope": 1974, "ended": 1975, "_l": 1976, "Ġmove": 1977, "Ġopt": 1978, "Ġinvest": 1979, "Ġbetter": 1980, "thon": 1981, "Ġeyes": 1982, "ĠYork": 1983, "Ġund": 1984, "Ġwhe": 1985, "Ġperiod": 1986, "Ġuntil": 1987, ".g": 1988, "Ġposition": 1989, "ieve": 1990, "Ġlab": 1991, "ique": 1992, "Ġsugg": 1993, ".s": 1994, "olds": 1995, "Ġsuggest": 1996, "Ġsum": 1997, "angu": 1998, "ories": 1999, "Ġfr": 2000, "ats": 2001, "Ġenergy": 2002, "bs": 2003, "Ġtot": 2004, "ĠMar": 2005, "uation": 2006, "Ġfore": 2007, "itud": 2008, "ched": 2009, "Ġden": 2010, "Ġphys": 2011, "rt": 2012, "aken": 2013, "Ġbeg": 2014, "Ġiss": 2015, "though": 2016, "Ġfield": 2017, "Ġnext": 2018, "wh": 2019, "ĠComm": 2020, "ued": 2021, "ogn": 2022, "Ġnet": 2023, "Ġdev": 2024, "ĠSp": 2025, "Ġface": 2026, "09": 2027, "Ġmov": 2028, "ison": 2029, "Ġpolit": 2030, "ery": 2031, "Ġindic": 2032, "Ġaddition": 2033, "Ġtell": 2034, "Ġfar": 2035, "Ġtyp": 2036, "Ġcame": 2037, "rodu": 2038, "eb": 2039, "ĠThese": 2040, "ream": 2041, "Ġplan": 2042, "Ġfamily": 2043, "Ġmanag": 2044, "ĠHowever": 2045, "resp": 2046, "'ve": 2047, "af": 2048, "Ġcrit": 2049, "poch": 2050, "ĠAmerican": 2051, "Ġcommon": 2052, "Ġclos": 2053, "reg": 2054, "ee": 2055, "Ġroom": 2056, "Ġtreat": 2057, "Ġsimilar": 2058, "Ġcult": 2059, ".c": 2060, "ĠTe": 2061, "Ġarg": 2062, "Ġvalues": 2063, "ird": 2064, "Ġarm": 2065, "ĠWh": 2066, "partial": 2067, ":\"": 2068, "Ġexist": 2069, "Ġpred": 2070, "Ġlater": 2071, "\"I": 2072, ")}": 2073, "56": 2074, "tribution": 2075, "Ġbased": 2076, "orth": 2077, "Ġtext": 2078, "ians": 2079, "cing": 2080, "Ġmeans": 2081, "Ġsever": 2082, "Ġtoward": 2083, "Ġpress": 2084, "nu": 2085, "Ġkind": 2086, "most": 2087, "Ġsal": 2088, "Ġorig": 2089, "Ġhig": 2090, "ask": 2091, "(e": 2092, "Ġmaterial": 2093, "ĠOr": 2094, "gamma": 2095, "ify": 2096, "Ġmor": 2097, "_t": 2098, "Ġcirc": 2099, "Ġfac": 2100, "Ġspace": 2101, "alf": 2102, "ables": 2103, "Ġtimes": 2104, "Ġtw": 2105, "!Ċ": 2106, "ained": 2107, "arrow": 2108, "Ġquestion": 2109, "Ġlocal": 2110, "Ġrece": 2111, "ED": 2112, "Ġcourse": 2113, "ĠAll": 2114, "Ġnecess": 2115, "Ġleast": 2116, ".[": 2117, "```Ċ": 2118, "iver": 2119, "Ġmot": 2120, "Ġassoci": 2121, "Ġant": 2122, "idth": 2123, "enn": 2124, "Ġshown": 2125, "usion": 2126, "ubl": 2127, "AP": 2128, "viron": 2129, "Ġnear": 2130, "LC": 2131, "Ġeconom": 2132, "Ġcurrent": 2133, "Ġdevelopment": 2134, "ording": 2135, "Ġfri": 2136, "Ġris": 2137, "mm": 2138, "epend": 2139, "Ġpost": 2140, "Ã£o": 2141, "Ġhy": 2142, "Ġexam": 2143, "Ġrate": 2144, "ĠLet": 2145, "Ġbusiness": 2146, "Ġreason": 2147, "ajor": 2148, "uf": 2149, "racy": 2150, "duct": 2151, "Ġinit": 2152, "Ġmind": 2153, "osp": 2154, "Ġothers": 2155, "Ġanalysis": 2156, "Ġabs": 2157, "ai": 2158, ".</": 2159, "++": 2160, "delta": 2161, "Ġupon": 2162, "ened": 2163, "ailable": 2164, "Ġwords": 2165, "ards": 2166, "Ġamong": 2167, "ours": 2168, "Ġwr": 2169, "Ex": 2170, "Ġdom": 2171, "Ġwomen": 2172, "Ġsubject": 2173, "194": 2174, "Ġeng": 2175, "Ġprom": 2176, ";&": 2177, "Ġhowever": 2178, "Ġterm": 2179, "ered": 2180, "rho": 2181, "Ar": 2182, "Ġbehav": 2183, "Ġknown": 2184, "-l": 2185, "elt": 2186, "Ġtook": 2187, "To": 2188, "Ġstrong": 2189, "Ġsignificant": 2190, "bl": 2191, "02": 2192, "tau": 2193, ".e": 2194, "Ġalong": 2195, "87": 2196, "Ġseveral": 2197, "stit": 2198, "etic": 2199, "Ġmass": 2200, "Ġapplic": 2201, "atter": 2202, "Ġenough": 2203, "Nz": 2204, "apter": 2205, "Ġcomput": 2206, "Ġparam": 2207, "Ġthough": 2208, "Al": 2209, "lection": 2210, "Ġbecome": 2211, "Ġshort": 2212, "RO": 2213, "Ġseen": 2214, ".length": 2215, "ING": 2216, "Ġmus": 2217, "\\%$": 2218, ".j": 2219, "imal": 2220, "Ġill": 2221, "Mj": 2222, "Ġrather": 2223, "Ġemploy": 2224, ">N": 2225, "Ġinf": 2226, "Ġhouse": 2227, "Ġart": 2228, "ait": 2229, "ĠJohn": 2230, "Ġsuccess": 2231, "ival": 2232, "ĠBl": 2233, "imens": 2234, "96": 2235, "ledge": 2236, "pecial": 2237, "For": 2238, "ibility": 2239, "Ġprogram": 2240, "Ġlik": 2241, "Ġbound": 2242, "Ġland": 2243, "999": 2244, "Ġterms": 2245, "Ġbuild": 2246, "Re": 2247, "Ġcomb": 2248, "Ġsingle": 2249, "Ġaccount": 2250, "aring": 2251, "gen": 2252, "Ġimpro": 2253, "Ġasked": 2254, "ready": 2255, "Ġfree": 2256, "What": 2257, "Ġhealth": 2258, "Ġarea": 2259, "Ġkeep": 2260, "omega": 2261, "Ġfull": 2262, "sup": 2263, "Ġsuper": 2264, "Ġneg": 2265, "Ġtoget": 2266, "urch": 2267, "ET": 2268, "aster": 2269, "Ġtogether": 2270, "ĠThen": 2271, "ux": 2272, "big": 2273, "Ġeither": 2274, "Cl": 2275, "Nj": 2276, "Ġmil": 2277, "oot": 2278, "Ġtotal": 2279, "And": 2280, "ĠNe": 2281, "Ġconne": 2282, "Ġmoment": 2283, "aim": 2284, "ĠMr": 2285, "ators": 2286, "cont": 2287, "ĠHis": 2288, "ler": 2289, "ĠPr": 2290, "Ġwon": 2291, "ĠPhys": 2292, "03": 2293, "193": 2294, "ĠCo": 2295, "Ġtrue": 2296, "fficient": 2297, "ift": 2298, "Ġyoung": 2299, "Ġenc": 2300, "ĠSo": 2301, "EE": 2302, "Ġresearch": 2303, "Ġtre": 2304, "Ġapproach": 2305, "Ġpotential": 2306, "cer": 2307, "Ġair": 2308, "Ġauthor": 2309, "oney": 2310, "une": 2311, "\"),": 2312, "Delta": 2313, "circ": 2314, "ources": 2315, "sequ": 2316, "Ġflow": 2317, "atures": 2318, "ids": 2319, ",n": 2320, "Ġdie": 2321, "ml": 2322, "ches": 2323, "^{\\": 2324, "uff": 2325, "fty": 2326, "respond": 2327, "Ġstructure": 2328, "Ġwent": 2329, "ĠEn": 2330, "Ġdays": 2331, "ae": 2332, "Ġearly": 2333, "Ġnight": 2334, "asing": 2335, "oll": 2336, "=function": 2337, "Ġnat": 2338, ".A": 2339, "ember": 2340, "ĠThat": 2341, "see": 2342, "Ġhimself": 2343, "ĠAss": 2344, "Ġalready": 2345, "sych": 2346, "Ġeduc": 2347, "Ġspecial": 2348, "Ġdone": 2349, "Ġmajor": 2350, "rences": 2351, "anguage": 2352, "Ġdue": 2353, "div": 2354, "ged": 2355, "ored": 2356, "omet": 2357, "ending": 2358, "Ġpain": 2359, "Ġincluding": 2360, "mod": 2361, "Ġsize": 2362, "Ġlarg": 2363, "()": 2364, "Ġexperim": 2365, "===": 2366, "ĠEpoch": 2367, "ges": 2368, "ault": 2369, "Ġlove": 2370, "_s": 2371, "If": 2372, "ressed": 2373, "iol": 2374, "Ġsec": 2375, "Ġsystems": 2376, "Ġonce": 2377, "imate": 2378, "US": 2379, "python": 2380, "But": 2381, "Ġreally": 2382, "Ph": 2383, "OL": 2384, "Ġfurther": 2385, "89": 2386, "ĠMan": 2387, "aces": 2388, "idd": 2389, "side": 2390, "Ġcolspan": 2391, "Ġsens": 2392, "verage": 2393, "Ġavailable": 2394, "Ġbi": 2395, "iction": 2396, "ibr": 2397, "Ġlay": 2398, "roll": 2399, "infty": 2400, "erc": 2401, "sq": 2402, "elves": 2403, "istr": 2404, "Ġstudents": 2405, "bol": 2406, "vironment": 2407, "ips": 2408, "Ġcomplex": 2409, "icy": 2410, "position": 2411, "Ġmonth": 2412, "{\\": 2413, "iple": 2414, "Ġdeg": 2415, "Ġsure": 2416, ".'Ċ": 2417, "Ġable": 2418, "ocus": 2419, "At": 2420, "500": 2421, "Ġinde": 2422, "now": 2423, "ficult": 2424, "IL": 2425, "Ġquant": 2426, "Ġpast": 2427, "UR": 2428, "Ġwhether": 2429, "error": 2430, "rect": 2431, "Ġwind": 2432, "Ġsent": 2433, "Ġlooked": 2434, "De": 2435, "04": 2436, "add": 2437, "ĠOne": 2438, "Ġconditions": 2439, "ĠCar": 2440, "ising": 2441, "Ġheart": 2442, "Ġarr": 2443, "Ġwhole": 2444, "color": 2445, "Ġfrequ": 2446, "\\n": 2447, "empt": 2448, "fra": 2449, "Ġexperience": 2450, "hing": 2451, "Ġrelationship": 2452, "Ġtemper": 2453, "Ġtalk": 2454, "Ġcou": 2455, "Ġcannot": 2456, "61": 2457, "Ġprovide": 2458, "Ġwhy": 2459, "Lj": 2460, "Ġpp": 2461, "63": 2462, "chan": 2463, "itor": 2464, "ĠCan": 2465, "oph": 2466, "Ġaction": 2467, "na": 2468, "Ġrespons": 2469, "ref": 2470, "Ġbene": 2471, "Ġpatients": 2472, "display": 2473, "arget": 2474, "ado": 2475, "Ġmeet": 2476, "isf": 2477, "Ġmax": 2478, "ned": 2479, "Ġcorrespond": 2480, "My": 2481, "She": 2482, "ences": 2483, "Ġspecific": 2484, "-w": 2485, "sub": 2486, "Ġmaking": 2487, "Ġprim": 2488, "51": 2489, "ĠUnited": 2490, "iqu": 2491, "Ġdifficult": 2492, "imum": 2493, "Ġtheory": 2494, "ĠSoc": 2495, "ĠApp": 2496, "ĠTHE": 2497, "Ġpay": 2498, "Ġthing": 2499, "Ġcases": 2500, "Ġtold": 2501, "pper": 2502, "Ġcaus": 2503, "Ġpo": 2504, "uture": 2505, "vert": 2506, "Ġgen": 2507, "No": 2508, "ii": 2509, "order": 2510, "Ġtaken": 2511, "Ġhaving": 2512, "Ġsense": 2513, "Ġever": 2514, "icro": 2515, "Ġdou": 2516, "AG": 2517, "Ġdetail": 2518, "Ġproblems": 2519, "Ġproject": 2520, "Ġacross": 2521, "ustom": 2522, "62": 2523, "Ġfood": 2524, "Ġexc": 2525, "ĠQu": 2526, "iven": 2527, "ĠGe": 2528, "Ġang": 2529, "Ġrange": 2530, "Ġhigher": 2531, "CT": 2532, "ones": 2533, "pg": 2534, "Ġalmost": 2535, "Ġvarious": 2536, "Ġfail": 2537, "onse": 2538, "rix": 2539, "Ġste": 2540, "OM": 2541, "Ġgovernment": 2542, "eral": 2543, "Ġblack": 2544, "ands": 2545, "\\begin": 2546, "]=": 2547, "equ": 2548, "ĠSch": 2549, "irl": 2550, "Ġess": 2551, "ada": 2552, ">C": 2553, "Ġmarket": 2554, "ero": 2555, "Ġelse": 2556, ">S": 2557, "ceed": 2558, "Ġrele": 2559, "atory": 2560, "ware": 2561, "swer": 2562, ",'": 2563, "Im": 2564, "rid": 2565, "Ġ('": 2566, "(\\": 2567, "urope": 2568, "52": 2569, "aining": 2570, "Ġpaper": 2571, "Ġactiv": 2572, "ĠBy": 2573, "operator": 2574, "On": 2575, "urb": 2576, "itle": 2577, "inary": 2578, "ĠStates": 2579, "iam": 2580, "def": 2581, "ze": 2582, "ĠMe": 2583, "Ġ\\|": 2584, "IF": 2585, "Ġvers": 2586, "medi": 2587, "Ġhalf": 2588, "lected": 2589, "arr": 2590, "wg": 2591, "Ġ...": 2592, "OS": 2593, "ari": 2594, "ties": 2595, "ilities": 2596, "53": 2597, "Ġestabl": 2598, "alse": 2599, "Ġkey": 2600, ".C": 2601, "ister": 2602, "operatorname": 2603, "ĠSc": 2604, "Ġintrodu": 2605, "ĠSu": 2606, "itude": 2607, "ournal": 2608, "Ġsolution": 2609, "192": 2610, "Ġpath": 2611, ".t": 2612, "off": 2613, ".d": 2614, "Ġknew": 2615, "There": 2616, "ĠSte": 2617, "Ġyet": 2618, "Ġbegin": 2619, "Ġlower": 2620, "ĠPol": 2621, ".m": 2622, "Ġshall": 2623, "ortun": 2624, "Ġmother": 2625, "utes": 2626, "Ġlog": 2627, "/s": 2628, "Ġvo": 2629, "Ġpoints": 2630, "posed": 2631, "Ġach": 2632, "54": 2633, "Ġdoor": 2634, "ills": 2635, "Ġsepar": 2636, "Ġgroups": 2637, "Ġinflu": 2638, "Ġsound": 2639, "umn": 2640, "utions": 2641, "Ġitself": 2642, "Ġword": 2643, "(n": 2644, "Ġpriv": 2645, "Ġce": 2646, "ament": 2647, "Ġple": 2648, "ĠRo": 2649, "rame": 2650, "xi": 2651, "go": 2652, "htt": 2653, "uth": 2654, "ensity": 2655, "irm": 2656, "uracy": 2657, "Ġconcept": 2658, "ĠOF": 2659, "Ġnothing": 2660, "Ġsil": 2661, "iation": 2662, "-in": 2663, "Ġles": 2664, "omm": 2665, "Ġrequire": 2666, "org": 2667, "Un": 2668, "Ġrole": 2669, "Ġground": 2670, "ump": 2671, "Ġhistory": 2672, "Ġshows": 2673, "hib": 2674, "Ġsection": 2675, "Ġnature": 2676, "cle": 2677, "ĠAm": 2678, "ĠMed": 2679, "illed": 2680, ",a": 2681, "Ġsurface": 2682, "Ġpara": 2683, "Ġcy": 2684, "hers": 2685, "irt": 2686, "ured": 2687, "Ġaccept": 2688, "izing": 2689, "Ġspect": 2690, "Ġwalk": 2691, "Ġstyle": 2692, "Ġhold": 2693, "quot": 2694, "ĠWith": 2695, "dd": 2696, "psilon": 2697, "Ġchanges": 2698, "sqrt": 2699, "Ġpolitical": 2700, "Ġknowledge": 2701, "Ġfocus": 2702, "<table": 2703, "displaystyle": 2704, "CH": 2705, "Ġblood": 2706, "Ġnormal": 2707, "Ġprevious": 2708, "Ġage": 2709, "rack": 2710, "eters": 2711, "ius": 2712, ",t": 2713, "Ġdeath": 2714, "Ġmatter": 2715, "lex": 2716, "Ġamount": 2717, "back": 2718, "Ġmodels": 2719, "head": 2720, "Ġpercent": 2721, "Ġlearning": 2722, "Ġ;": 2723, "Ġoccur": 2724, "Ġhands": 2725, "-h": 2726, "73": 2727, "Ġrecord": 2728, "ymbol": 2729, "Ġcalcul": 2730, "Ġfelt": 2731, "&&(": 2732, "Ġtable": 2733, "orld": 2734, "Ġinclude": 2735, "ĠCal": 2736, "gl": 2737, "_{\\": 2738, "ixed": 2739, "Ġphot": 2740, "Ġsays": 2741, "Ġmembers": 2742, "Ġfall": 2743, "ening": 2744, "ondon": 2745, "Ġcells": 2746, "ĠPress": 2747, "ground": 2748, "IA": 2749, "_d": 2750, "ĠâĢĶ": 2751, "Ġassum": 2752, "ection": 2753, "Ġer": 2754, "pose": 2755, "ales": 2756, "Ġweight": 2757, "ires": 2758, "Ġsequ": 2759, "Ġdu": 2760, "ules": 2761, "ĠEurope": 2762, "ruction": 2763, "Om": 2764, "Ġsaw": 2765, "Ġperformance": 2766, "Ġbig": 2767, "Ã³n": 2768, "-S": 2769, "ached": 2770, "place": 2771, "Ġut": 2772, "ores": 2773, "Ġcompon": 2774, "ĠAb": 2775, "Ġlength": 2776, "Ġred": 2777, "Ġrecogn": 2778, "Ġge": 2779, "Ġmagn": 2780, "Ġwoman": 2781, "aced": 2782, "ĠPar": 2783, "][": 2784, "Ġsimple": 2785, "vare": 2786, "ino": 2787, "ĠCor": 2788, "roup": 2789, "ĠIntern": 2790, "tilde": 2791, "sf": 2792, "ises": 2793, "Ġclose": 2794, "Ġstates": 2795, "Ġmill": 2796, "Ġcut": 2797, "rown": 2798, "artment": 2799, "Ġeffects": 2800, "Ġbar": 2801, "fully": 2802, "72": 2803, "bre": 2804, "Ġsatisf": 2805, "Ġlanguage": 2806, "ĠFig": 2807, "$\\": 2808, "('": 2809, "ows": 2810, "Ġjob": 2811, "Ġdefin": 2812, "omes": 2813, "body": 2814, "Ġport": 2815, "mp": 2816, "Ġprec": 2817, "Ġconcern": 2818, "idered": 2819, "Ġservice": 2820, "Ġrequired": 2821, "ike": 2822, "Ġincrease": 2823, "Ġinitial": 2824, "ENT": 2825, "Ġfuture": 2826, "IV": 2827, "Math": 2828, "uk": 2829, "Ġstudies": 2830, "varepsilon": 2831, "bo": 2832, "Ġmoney": 2833, "Ġdiv": 2834, "aves": 2835, "no": 2836, "pecially": 2837, "Ġwhite": 2838, "Ġfront": 2839, "ĠSy": 2840, "ĠUS": 2841, "Con": 2842, "Ġfather": 2843, "Ġparent": 2844, "Ġthus": 2845, "inter": 2846, "Ġenvironment": 2847, ">M": 2848, "itted": 2849, "Ġcountry": 2850, "ply": 2851, "bed": 2852, "Ġdise": 2853, "Ġâ": 2854, "tical": 2855, "Ġcompany": 2856, "enc": 2857, "Ġcross": 2858, "ĠCent": 2859, "Ġsex": 2860, "uments": 2861, "Ġdistribution": 2862, "Ġnatural": 2863, "cret": 2864, "ster": 2865, "iff": 2866, "ky": 2867, "lish": 2868, "gor": 2869, "bt": 2870, "ĠBrit": 2871, "Ġconsidered": 2872, "Ġdefined": 2873, "andom": 2874, "Figure": 2875, "lor": 2876, "iddle": 2877, "CC": 2878, "haps": 2879, "Ġeval": 2880, "191": 2881, "Ġidea": 2882, "Ġfive": 2883, "Ġdeep": 2884, "Ġimage": 2885, "osed": 2886, "Ġwanted": 2887, "sim": 2888, "pping": 2889, "Ġrowspan": 2890, "UT": 2891, "Ġnecessary": 2892, "oms": 2893, "Ġmethods": 2894, "ĠMy": 2895, "Ġtri": 2896, "Fig": 2897, "Ġstandard": 2898, "but": 2899, "74": 2900, "Ġanything": 2901, "MS": 2902, "Ġconstant": 2903, "anced": 2904, "}_": 2905, ":[": 2906, "ynam": 2907, "Ġtreatment": 2908, "orem": 2909, "ĠPa": 2910, "Ġturned": 2911, "When": 2912, "Ġann": 2913, "ĠPer": 2914, "Ġsoft": 2915, "ha": 2916, "Type": 2917, "umber": 2918, "Ġbelow": 2919, "71": 2920, "erson": 2921, "Ġmechan": 2922, "ĠRep": 2923, "NA": 2924, "ĠSee": 2925, "Ġdeal": 2926, "tot": 2927, "opy": 2928, "Ġpattern": 2929, "ega": 2930, "Ġid": 2931, "Ġmakes": 2932, "Ġprofess": 2933, "Ġstep": 2934, "(a": 2935, "irit": 2936, "MC": 2937, "Ġeff": 2938, "Ġtraining": 2939, "Ġoffic": 2940, "Ġworking": 2941, "Ġclaim": 2942, "mselves": 2943, "ĠSci": 2944, ".f": 2945, "84": 2946, "Ġhtt": 2947, "Ġappear": 2948, "ĠNot": 2949, "Ġaccess": 2950, "class": 2951, "acc": 2952, "Ġtherefore": 2953, "=e": 2954, "Ġobtained": 2955, "Ġevent": 2956, "xim": 2957, "Ġthemselves": 2958, "Ġbed": 2959, "centr": 2960, "rug": 2961, "ĠMay": 2962, "Ġhor": 2963, "Ġregard": 2964, "ĠII": 2965, "-g": 2966, "Ġassociated": 2967, "/t": 2968, "cm": 2969, "urity": 2970, ".)": 2971, "101": 2972, ".jpg": 2973, "Ġliter": 2974, "ney": 2975, "ĠGerm": 2976, "93": 2977, "itting": 2978, "})": 2979, "ĠEl": 2980, "Ġgirl": 2981, "Ġneeded": 2982, "Ġimm": 2983, "ilt": 2984, "Ġ\\{": 2985, "91": 2986, "Ġbehind": 2987, "uous": 2988, "ret": 2989, "isc": 2990, "Ġfollows": 2991, "Ġproduction": 2992, "uit": 2993, "ĠWill": 2994, "itch": 2995, "ependent": 2996, "Ġheav": 2997, "ĠAcc": 2998, "Ġdark": 2999, "Ġrat": 3000, "Ġlimit": 3001, "Ġaff": 3002, "lying": 3003, "ili": 3004, "gorith": 3005, "Ġdescribed": 3006, "Ġfunctions": 3007, "verse": 3008, "Ġpositive": 3009, "airs": 3010, "Ġum": 3011, "acy": 3012, "IM": 3013, "190": 3014, "Ġusually": 3015, "bf": 3016, "istics": 3017, "value": 3018, "81": 3019, "uct": 3020, "How": 3021, "120": 3022, "mon": 3023, "Ġbehavior": 3024, "ĠEd": 3025, "ros": 3026, "Ġbegan": 3027, "Ġpri": 3028, "\\\\": 3029, "bert": 3030, "iding": 3031, "Ġtradition": 3032, "Ġconsist": 3033, "astic": 3034, "Ġimag": 3035, "Ġaffect": 3036, "ĠHer": 3037, "Ġexcept": 3038, "Ġneeds": 3039, "Ġestim": 3040, "rap": 3041, "83": 3042, "Ġworks": 3043, ".x": 3044, "Ġdepend": 3045, "bit": 3046, "Ġquite": 3047, "Ġentire": 3048, "Ġnetwork": 3049, "rangle": 3050, "Ġlikely": 3051, "Ġtarget": 3052, "Ġrisk": 3053, "tag": 3054, "ĠFran": 3055, "ĠIN": 3056, "ille": 3057, "_c": 3058, "Ġresponse": 3059, "300": 3060, "Ġsem": 3061, "pm": 3062, "Ġheld": 3063, "Ġequation": 3064, "ais": 3065, "ey": 3066, "Ġdoing": 3067, "ils": 3068, "Ġdemon": 3069, "Ġforce": 3070, "Is": 3071, "PS": 3072, "istance": 3073, "Ġcoll": 3074, "Ġwhose": 3075, "86": 3076, "Ġquick": 3077, "&gt": 3078, "obal": 3079, "([": 3080, "AAAAAAAAAAAAAAAA": 3081, "Ġactivity": 3082, "ĠSome": 3083, "erve": 3084, "ields": 3085, "cript": 3086, "Ġcompet": 3087, "Ġsix": 3088, "150": 3089, "Ġgrowth": 3090, "76": 3091, "_p": 3092, "ĠThus": 3093, "ios": 3094, "actions": 3095, "Ġfun": 3096, "ĠCont": 3097, "Ġtemperature": 3098, "82": 3099, "Ġbecame": 3100, "=n": 3101, "aving": 3102, "Ġpersonal": 3103, "lied": 3104, "Us": 3105, "ught": 3106, "ender": 3107, "Ġson": 3108, "like": 3109, "omen": 3110, "(r": 3111, "Ġcle": 3112, "Omega": 3113, "pri": 3114, "overed": 3115, "Ġret": 3116, "ĠFigure": 3117, "reen": 3118, "Ġ['": 3119, "with": 3120, "arent": 3121, "ols": 3122, "Ġconcentr": 3123, ">P": 3124, "Ġpor": 3125, "EM": 3126, "Ġrelig": 3127, "Ġevidence": 3128, "Ġlos": 3129, "Te": 3130, "Ġcheck": 3131, "ĠEnglish": 3132, "Ġrev": 3133, "_loss": 3134, "Ġdat": 3135, "94": 3136, "ites": 3137, "rs": 3138, "umb": 3139, "Ġcreat": 3140, "ĠGu": 3141, "trans": 3142, "Ġslow": 3143, "odes": 3144, "Ġstory": 3145, "ĠRev": 3146, "Ġweek": 3147, "Ġespecially": 3148, "ishing": 3149, ".M": 3150, "resh": 3151, "125": 3152, "Ġparticip": 3153, ".D": 3154, "ring": 3155, "iber": 3156, "tered": 3157, "Ġwall": 3158, "unt": 3159, "Ġcommunic": 3160, "ĠAct": 3161, "hel": 3162, "Ġlevels": 3163, "ĠIm": 3164, "oke": 3165, "vec": 3166, "log": 3167, "Ġdifference": 3168, "-st": 3169, "Ġvoice": 3170, "Ġrelated": 3171, "lement": 3172, "Ġ`": 3173, "(x": 3174, "Ġcustom": 3175, "ĠGr": 3176, "Ġcontr": 3177, "AK": 3178, "Ġquestions": 3179, "light": 3180, "Ġsource": 3181, "Ġsyn": 3182, "Ġbelieve": 3183, "ĠDes": 3184, "Ġjud": 3185, "Tr": 3186, "ula": 3187, "Ġfinal": 3188, "ĠDo": 3189, "92": 3190, "128": 3191, "EST": 3192, "Ġbreak": 3193, "abor": 3194, "www": 3195, "Ġcommunity": 3196, "Ġphysical": 3197, "ops": 3198, "arc": 3199, "Ġsqu": 3200, "Ġanswer": 3201, "atively": 3202, "Ġgave": 3203, "ension": 3204, "Ġattempt": 3205, "ging": 3206, "Ġlonger": 3207, "aries": 3208, "Ġcomplete": 3209, "psi": 3210, "Ġperm": 3211, "earch": 3212, "Ġaverage": 3213, "oved": 3214, "ham": 3215, "],[": 3216, "Ġlines": 3217, "orts": 3218, "Ci": 3219, "rams": 3220, "orks": 3221, "Ġgraph": 3222, "Ġinvestig": 3223, "oul": 3224, "epsilon": 3225, "Ġseries": 3226, "ĠCoun": 3227, "Ġagre": 3228, "Ġdoc": 3229, "aching": 3230, "arily": 3231, "Ġprinc": 3232, "plement": 3233, "Aw": 3234, "Ġpubl": 3235, "ĠAfter": 3236, "aff": 3237, "uration": 3238, "Ġpractice": 3239, "Ġwasn": 3240, "hood": 3241, ".get": 3242, "Ġpredict": 3243, ",i": 3244, "Ġexact": 3245, "frak": 3246, "ieved": 3247, "Ġobserved": 3248, "Ġways": 3249, "mathfrak": 3250, "abel": 3251, "Ġfriend": 3252, "ĠStr": 3253, "AQ": 3254, "Ġsus": 3255, "ĠStud": 3256, "print": 3257, "Ġcause": 3258, "ĠComp": 3259, "Ġintegr": 3260, "alle": 3261, "Ġfactor": 3262, "geq": 3263, "reet": 3264, "Ġmess": 3265, "Ġpsych": 3266, "Ġlooking": 3267, "dro": 3268, "Qu": 3269, "rought": 3270, "ems": 3271, "])": 3272, "Ġprovided": 3273, "cted": 3274, "Ġinput": 3275, "Ġintern": 3276, "UL": 3277, "ĠLondon": 3278, "Ġens": 3279, "ĠDr": 3280, "IR": 3281, "Ġcity": 3282, "Ġcolor": 3283, "dom": 3284, "ev": 3285, "Ġprobably": 3286, "mathsf": 3287, "Ġareas": 3288, "Ġnumbers": 3289, "Ġseems": 3290, "itation": 3291, "Ġpie": 3292, "Ġdemonstr": 3293, "bolds": 3294, "Ġpressure": 3295, "Ġbit": 3296, "wise": 3297, "];": 3298, "001": 3299, "Ġtax": 3300, ",s": 3301, "boldsymbol": 3302, "ony": 3303, "Ġir": 3304, "Ġtaking": 3305, "ste": 3306, "plot": 3307, "->": 3308, "Ġda": 3309, "osis": 3310, "acity": 3311, "QU": 3312, "Ġsimply": 3313, "Ġanaly": 3314, "raction": 3315, "Ind": 3316, "Ġreview": 3317, "aly": 3318, "Ġfactors": 3319, "ĠAf": 3320, "urg": 3321, "ĠAg": 3322, "ĠSim": 3323, "Ġimprove": 3324, "Ġadj": 3325, "ĠInc": 3326, "Ġeducation": 3327, "Ġfund": 3328, "Ġnational": 3329, "Ġcompar": 3330, "Ġpopulation": 3331, "Ġbenef": 3332, "Ġchall": 3333, "ford": 3334, "elling": 3335, "Ġoutside": 3336, "Ġpull": 3337, "Ġlot": 3338, "By": 3339, "Ġteam": 3340, "All": 3341, "Ġaccording": 3342, "Ġgreater": 3343, "ĠMc": 3344, "{C": 3345, "Ġtypes": 3346, "Ġsam": 3347, "rew": 3348, "ministr": 3349, "Ġpolicy": 3350, "iÃ³n": 3351, "Ġattention": 3352, "Ġbring": 3353, "ĠMod": 3354, "Ġexpected": 3355, "Ġten": 3356, "Ġartic": 3357, "pid": 3358, "(s": 3359, "Ġdam": 3360, "Ġcorrect": 3361, "Ġfav": 3362, "AY": 3363, "OC": 3364, "Ġexpression": 3365, "ica": 3366, "110": 3367, "ilos": 3368, "\":\"": 3369, "En": 3370, "Ġeconomic": 3371, "Ġquality": 3372, "ror": 3373, "Ġregion": 3374, "Ġcontext": 3375, "Ġsle": 3376, "osition": 3377, "-C": 3378, "Ġhours": 3379, "omp": 3380, "ĠMore": 3381, "Ġdraw": 3382, "Ġphase": 3383, "opt": 3384, "align": 3385, "OW": 3386, "Ġspeak": 3387, "Ġproced": 3388, "varphi": 3389, "Ġstren": 3390, "raft": 3391, "Ġteac": 3392, "tries": 3393, "Ġelements": 3394, "Ġtry": 3395, "ĠJournal": 3396, "ki": 3397, "Ġmach": 3398, "ĠAND": 3399, "Ġfeatures": 3400, "ĠWar": 3401, "Sh": 3402, "Ġsoon": 3403, "cale": 3404, "max": 3405, "Ġfa": 3406, "_f": 3407, "ĠBr": 3408, "Ġmanagement": 3409, "iles": 3410, "ecause": 3411, "ĠPart": 3412, "/d": 3413, "Ġinterpre": 3414, "Ġlearn": 3415, "Ġbasis": 3416, "Ġwritten": 3417, "lege": 3418, "Ġseemed": 3419, "Ġinside": 3420, "Ġincreased": 3421, "Ġsomeone": 3422, "Ġcontent": 3423, "Ġeffective": 3424, "Ġliving": 3425, ".b": 3426, "Ġattack": 3427, "nder": 3428, ".'": 3429, "oud": 3430, "ĠTrans": 3431, "Ġstra": 3432, "ĠMin": 3433, "Ġminutes": 3434, "Ġgas": 3435, "Ġadm": 3436, "index": 3437, "zz": 3438, "Ġimmedi": 3439, "lier": 3440, "Ġcat": 3441, "kn": 3442, "Ġinstead": 3443, "oe": 3444, "inally": 3445, "Ġdisease": 3446, "Ġalgorith": 3447, "anc": 3448, "ĠNational": 3449, "raining": 3450, "111": 3451, "Ġservices": 3452, "Ġlive": 3453, "Ġsituation": 3454, "bor": 3455, "ensive": 3456, "That": 3457, "ĠState": 3458, "ements": 3459, "Ġdeveloped": 3460, "Ġequal": 3461, ">A": 3462, "sl": 3463, "FIG": 3464, "which": 3465, "ana": 3466, "Ġoriginal": 3467, "date": 3468, "comp": 3469, "const": 3470, "atives": 3471, "ĠHar": 3472, "),Ċ": 3473, "Ġthird": 3474, "itary": 3475, ".pro": 3476, "inger": 3477, "Ġheard": 3478, "Ġfem": 3479, "Ġmaintain": 3480, "mber": 3481, "Ġbal": 3482, "Ġcentury": 3483, "Ġful": 3484, "Ġcount": 3485, "ĠChar": 3486, "Ġunderstanding": 3487, "key": 3488, "nn": 3489, "roke": 3490, "ĠST": 3491, "bra": 3492, "./": 3493, "lib": 3494, "ĠVal": 3495, "ATION": 3496, "Gamma": 3497, "Ġpack": 3498, "Ġtoday": 3499, "ĠInt": 3500, "cription": 3501, "Ġelement": 3502, "-M": 3503, "Ġmonths": 3504, "pmb": 3505, "180": 3506, "isions": 3507, "So": 3508, "ĠUs": 3509, "Ġpict": 3510, "ura": 3511, "ĠReg": 3512, "Wh": 3513, "anger": 3514, "iques": 3515, "uly": 3516, "Ġgame": 3517, "Ġmicro": 3518, "ounds": 3519, "Ġincreasing": 3520, "aN": 3521, "Le": 3522, "\")": 3523, "imin": 3524, "Ġeverything": 3525, "hemical": 3526, "iting": 3527, "Ġ(\\": 3528, "Ġfeet": 3529, "ĠDep": 3530, "ocal": 3531, "Ġbase": 3532, "Ġ,Ċ": 3533, "IP": 3534, "Ġimpact": 3535, "102": 3536, "Ġdistance": 3537, "/+": 3538, "ese": 3539, "Ġhot": 3540, "Ġdirection": 3541, "ancial": 3542, "Se": 3543, "Ġtou": 3544, "cos": 3545, "vant": 3546, "Ġpatient": 3547, "oly": 3548, "ordin": 3549, "overline": 3550, "Ġmatrix": 3551, "ĠPe": 3552, "Ġmeaning": 3553, "=[": 3554, "come": 3555, "Ġhyp": 3556, "hern": 3557, "Ġgives": 3558, "Ġlinear": 3559, "pec": 3560, "Ġsett": 3561, "Ġproperties": 3562, "Ġcreate": 3563, "VV": 3564, "mar": 3565, "Ġconsum": 3566, "ICAgICAgICAgICAg": 3567, "-n": 3568, "ett": 3569, "Ġdimens": 3570, "qq": 3571, "iform": 3572, "Ġ${": 3573, "Ġbad": 3574, "rench": 3575, "ded": 3576, "oles": 3577, "ĠBar": 3578, "oo": 3579, "width": 3580, "Ġ{'": 3581, "ington": 3582, "AF": 3583, "{m": 3584, "Ġhom": 3585, "Ġlate": 3586, "Ġreported": 3587, "Ġproperty": 3588, "-based": 3589, "Ġsample": 3590, "CiAg": 3591, "Ġbrought": 3592, "Ġrandom": 3593, "Ġfire": 3594, "Ġdecl": 3595, "ivil": 3596, "Ġein": 3597, ",this": 3598, "Ġdynam": 3599, "Ġessential": 3600, "Ġdecre": 3601, "Ġstay": 3602, "ĠFr": 3603, "Ġconduct": 3604, "Ġfigure": 3605, "âĢĻs": 3606, "iled": 3607, "ĠWorld": 3608, "aches": 3609, "tributed": 3610, "yond": 3611, "Ġinstit": 3612, "ulations": 3613, "Ġmiss": 3614, "\">Ċ": 3615, "Ġsubst": 3616, "Of": 3617, "189": 3618, "leg": 3619, "ulated": 3620, "CE": 3621, "Ġstarted": 3622, "onal": 3623, "Ġopportun": 3624, "Ġevents": 3625, "Ġmodern": 3626, "Ġprint": 3627, "lin": 3628, "Ġforms": 3629, "Ġexperien": 3630, "Ġca": 3631, "Ġviol": 3632, "}^{": 3633, "OP": 3634, "Ġaddress": 3635, "inct": 3636, "Ġhistor": 3637, "Ġwait": 3638, "eneral": 3639, "room": 3640, "Ġissues": 3641, "Ġemer": 3642, "Ġleave": 3643, "Ġprice": 3644, "Ġcomplet": 3645, "ĠSince": 3646, "men": 3647, "Ġsn": 3648, "NS": 3649, "igen": 3650, "asc": 3651, "izes": 3652, "ĠSystem": 3653, ".org": 3654, "Ġproducts": 3655, "']": 3656, "Ġapproxim": 3657, "ellow": 3658, "Ġinvolved": 3659, "Ġavoid": 3660, "Ġactually": 3661, "ĠSm": 3662, "Ġaud": 3663, "Ġparameters": 3664, "ustry": 3665, "Ġassess": 3666, "vey": 3667, "(){": 3668, "Ġconv": 3669, "Ij": 3670, "Ġpan": 3671, "Ġtrying": 3672, "ĠDis": 3673, "Ġalthough": 3674, "Ġalone": 3675, "-B": 3676, "Ġappropri": 3677, "Pl": 3678, "olic": 3679, "Ġoutput": 3680, "Ġcry": 3681, "df": 3682, "ĠLa": 3683, "ĠMon": 3684, "ĠAmerica": 3685, "fill": 3686, "ingu": 3687, "Ġprivate": 3688, "Ġsociety": 3689, "Ġdecision": 3690, "Ġimplement": 3691, "Ġcontact": 3692, ".y": 3693, "uel": 3694, "Ġcountries": 3695, "aint": 3696, "Ġsomet": 3697, "Ġcateg": 3698, "Ġcentral": 3699, "ades": 3700, "Ġcapital": 3701, "400": 3702, "Ġbott": 3703, "AE": 3704, ">B": 3705, "Ġwrite": 3706, "Ġprevent": 3707, "iment": 3708, "='": 3709, "more": 3710, "Ġeasy": 3711, "ography": 3712, "Ġdig": 3713, "Ġ\\}": 3714, "Ġerror": 3715, "Ã§Ã£o": 3716, "\"},": 3717, "enty": 3718, "Ġreve": 3719, "ato": 3720, ">.": 3721, "Ġcompared": 3722, "Ġmention": 3723, "Ġprovides": 3724, "ĠDav": 3725, "Ġcomes": 3726, "Ġdirectly": 3727, "Ġpage": 3728, "Ġbuilding": 3729, "108": 3730, "Ġdegree": 3731, ">F": 3732, "langle": 3733, "TA": 3734, "Ġ@": 3735, "Ġtrain": 3736, "Ġprop": 3737, "Ġpresence": 3738, "Ġparts": 3739, "apan": 3740, "Ġapplication": 3741, "%</": 3742, "Ġord": 3743, "{\"": 3744, "ding": 3745, "Ġadded": 3746, "under": 3747, "Ġfollowed": 3748, "Ġlarger": 3749, "used": 3750, "Ġactivities": 3751, "xy": 3752, "ĠAfric": 3753, ">D": 3754, "Ġlas": 3755, "Ġparticularly": 3756, "iant": 3757, "Ġexpress": 3758, "}}$": 3759, "Ġtakes": 3760, "do": 3761, "Ġhair": 3762, "Ġplant": 3763, "ĠFrom": 3764, "ĠSouth": 3765, "ken": 3766, "Ġdest": 3767, "Ġarch": 3768, "Ġsite": 3769, "etr": 3770, "vis": 3771, "ira": 3772, "Ġdrug": 3773, "Ġinstance": 3774, "New": 3775, "!\"": 3776, "gu": 3777, "Ġdemand": 3778, "Ġindex": 3779, "Ġbroad": 3780, "Ġdro": 3781, "105": 3782, "Col": 3783, "gth": 3784, "Ġprior": 3785, "eds": 3786, "ĠÎ": 3787, "Ġaspect": 3788, "Ġlack": 3789, "BB": 3790, "Ġsch": 3791, "Ġissue": 3792, "187": 3793, "ĠNow": 3794, "chi": 3795, "ĠInternational": 3796, "Ã©s": 3797, "Ġsequence": 3798, "Ġcode": 3799, "()Ċ": 3800, "Ġunit": 3801, "bon": 3802, "Ġspirit": 3803, "import": 3804, "Ġsun": 3805, "Ġ//": 3806, "Ġregular": 3807, "188": 3808, "ternal": 3809, "Ġcouldn": 3810, "Ġlost": 3811, "LA": 3812, ".;": 3813, "Ġaltern": 3814, "Ġspecies": 3815, "Ġnote": 3816, "Ġstri": 3817, ".The": 3818, "itions": 3819, "Ġrecent": 3820, "Ġdetect": 3821, ".P": 3822, "ronic": 3823, "Ġcorresponding": 3824, "inn": 3825, ">(": 3826, "Ġwriting": 3827, "Ġtransform": 3828, "Ġillustr": 3829, "Ġswe": 3830, "ĠGl": 3831, "Ġsometimes": 3832, "Ġprep": 3833, "140": 3834, "Ġmillion": 3835, "Ġscale": 3836, "Ġnumer": 3837, "Ġaw": 3838, "Ġinj": 3839, "Ġep": 3840, "_n": 3841, "Ġbir": 3842, "ferences": 3843, "ights": 3844, "px": 3845, "ĠNorth": 3846, "era": 3847, "Ġbeaut": 3848, "Ġinfluence": 3849, "Ġpresented": 3850, "(this": 3851, "/m": 3852, "Ġsearch": 3853, "adem": 3854, "Ad": 3855, "emb": 3856, "103": 3857, "ancy": 3858, "Be": 3859, "Ġtruth": 3860, "Ġtown": 3861, "Ġexec": 3862, "othes": 3863, "ĠWest": 3864, "Ġpour": 3865, "ares": 3866, "aling": 3867, "Ġdensity": 3868, "Ġrespectively": 3869, "ĠEr": 3870, "anks": 3871, "Ġvolume": 3872, "Ġax": 3873, "ming": 3874, "Ġbecomes": 3875, "Ġmusic": 3876, "Ġthinking": 3877, "ĠKing": 3878, "ĠChristian": 3879, "ials": 3880, "Ġmole": 3881, "Ġcolumn": 3882, "oin": 3883, "oat": 3884, "clus": 3885, "Oi": 3886, "Ġrepl": 3887, "-to": 3888, "dered": 3889, "ĠMat": 3890, "igr": 3891, "ĠCons": 3892, ":#": 3893, "/st": 3894, "(var": 3895, "Ġshare": 3896, "Ġcamp": 3897, "eks": 3898, "change": 3899, "ij": 3900, "Ġperhaps": 3901, "och": 3902, "OG": 3903, "estern": 3904, "Ġforward": 3905, "Ġdoesn": 3906, "TH": 3907, "Ġ{\"": 3908, "Ġcover": 3909, "Or": 3910, "Ġnuc": 3911, "urt": 3912, "Ġhear": 3913, "duc": 3914, "oon": 3915, "Ġchoice": 3916, "250": 3917, "Ġaccuracy": 3918, "Ġcoming": 3919, "Ġbasic": 3920, "Ġcompan": 3921, "Ġengine": 3922, "Ġmulti": 3923, ".L": 3924, "Ġapplied": 3925, ".R": 3926, "Ġweak": 3927, "109": 3928, "Ġacid": 3929, "Ġtor": 3930, "Ġblock": 3931, "Ġeth": 3932, "Ġdead": 3933, "Ġmap": 3934, "ĠJes": 3935, "ading": 3936, "SS": 3937, "oted": 3938, "ĠBritish": 3939, "Ġability": 3940, "Ġdetermined": 3941, "itte": 3942, "Ġ$^": 3943, "Ġconstit": 3944, "UN": 3945, "totype": 3946, "fort": 3947, "Ġbeyond": 3948, "186": 3949, "Ġparents": 3950, ",l": 3951, "Id": 3952, "Ġgetting": 3953, "Ġadditional": 3954, "top": 3955, "Ġfram": 3956, "box": 3957, "gment": 3958, ".n": 3959, "-e": 3960, "ico": 3961, "za": 3962, "203": 3963, "ĠRec": 3964, "Ġconstruct": 3965, "Ġextrem": 3966, "Ġmultiple": 3967, "Ġmyself": 3968, "ĠFl": 3969, "hr": 3970, "IE": 3971, "Ġnegative": 3972, "Ġindividuals": 3973, "Ġpurpose": 3974, "104": 3975, "ship": 3976, "ffe": 3977, "Ġemot": 3978, "Ġhope": 3979, "Ġmer": 3980, "ĠAc": 3981, "Ġmiddle": 3982, "Ġfriends": 3983, "Ġperfect": 3984, "rely": 3985, "_m": 3986, "ĠTable": 3987, "Ġstress": 3988, "-y": 3989, "Ġfear": 3990, "ĠPres": 3991, "ĠFirst": 3992, "Ġpick": 3993, "Ġled": 3994, "Ġbox": 3995, "ĠResearch": 3996, "Ġoffice": 3997, "etry": 3998, "Ġmut": 3999, "Ġcapt": 4000, "aged": 4001, "Ġhab": 4002, ">T": 4003, "Ġcenter": 4004, ".:": 4005, "Ġcard": 4006, "Ġautom": 4007, "cil": 4008, "Ġwatch": 4009, "###": 4010, "],Ċ": 4011, "UM": 4012, "ously": 4013, "Ġtowards": 4014, "undred": 4015, "135": 4016, "Ġgenerally": 4017, "Ġtas": 4018, "Ġqual": 4019, "Let": 4020, "With": 4021, "Ġculture": 4022, "Ġheat": 4023, ".h": 4024, "Ġscient": 4025, "ĠCH": 4026, "ldots": 4027, "Ġdra": 4028, "ership": 4029, "ĠEm": 4030, "ogen": 4031, "Ġincluded": 4032, "rightarrow": 4033, "ĠWilliam": 4034, "Ġreceived": 4035, "ĠJan": 4036, "Ġtransl": 4037, "Ġstage": 4038, "Ġfoot": 4039, "Ps": 4040, "Ġuseful": 4041, "Ġmis": 4042, "ara": 4043, "enth": 4044, "Ġearlier": 4045, "Ġlink": 4046, "Gl": 4047, "LT": 4048, "ĠServ": 4049, "Ġstrength": 4050, "allel": 4051, "!==": 4052, "124": 4053, "Ġpoor": 4054, "orph": 4055, "YX": 4056, "=r": 4057, "800": 4058, "Ġevalu": 4059, "['": 4060, "ests": 4061, "from": 4062, "tex": 4063, "alt": 4064, "dots": 4065, ".B": 4066, "Ġbur": 4067, "Ġmovement": 4068, "Ġproduced": 4069, "Ġunc": 4070, "Ġtask": 4071, "Ġconvers": 4072, "Ġchapter": 4073, "-P": 4074, "Ġcritical": 4075, "FB": 4076, "icht": 4077, "Ġwrong": 4078, "augh": 4079, "'.": 4080, "va": 4081, "Ġuser": 4082, "Ġstop": 4083, "ching": 4084, "Ġsurpr": 4085, "rum": 4086, "clusion": 4087, "Ġprocesses": 4088, "Ġnorm": 4089, "ĠRuss": 4090, "phas": 4091, "IB": 4092, "aled": 4093, "255": 4094, "Ġtend": 4095, "isms": 4096, "Ġconsequ": 4097, "Ġindependent": 4098, "Ġserious": 4099, "Ġshape": 4100, "Ii": 4101, "sin": 4102, "Ġvalid": 4103, ",c": 4104, "Ġones": 4105, ".-": 4106, "ospital": 4107, "Array": 4108, "107": 4109, "Ġslight": 4110, "ĠHist": 4111, "160": 4112, "Ġtried": 4113, "ords": 4114, "hemat": 4115, ".push": 4116, "ĠPat": 4117, "Ġcorrel": 4118, "ida": 4119, "Ġmorning": 4120, "(c": 4121, ".J": 4122, "Ġrefer": 4123, "127": 4124, "ZW": 4125, "tributes": 4126, "Ġacqu": 4127, "Ġmag": 4128, "130": 4129, "ka": 4130, "Ġconver": 4131, "Ġeasily": 4132, "Ġlabor": 4133, "omy": 4134, "121": 4135, "Ġfile": 4136, "}(": 4137, "Ġcourt": 4138, "106": 4139, "oman": 4140, "fin": 4141, ":{": 4142, "tation": 4143, "Ġoffer": 4144, "Ġmit": 4145, "Ġindustry": 4146, "ĠBer": 4147, "Ġzero": 4148, "joy": 4149, "ufact": 4150, "upp": 4151, "cles": 4152, "Ġfast": 4153, "olar": 4154, "lim": 4155, "Ġinform": 4156, ",-": 4157, "ĠBo": 4158, "ĠEar": 4159, "Ax": 4160, "Ġroad": 4161, "Ġetc": 4162, "Ġrelation": 4163, "ĠSection": 4164, "Ġproposed": 4165, "https": 4166, "ĠPre": 4167, "Ġneigh": 4168, "Ġbackground": 4169, "Ġfixed": 4170, "inks": 4171, "Ġdifferences": 4172, "ript": 4173, "Ġround": 4174, "iot": 4175, "Ġwave": 4176, "iling": 4177, "Ġrepe": 4178, "ayer": 4179, "ĠJapan": 4180, "ety": 4181, "::": 4182, "ctors": 4183, "YW": 4184, "112": 4185, "Ġfinancial": 4186, "orge": 4187, "exp": 4188, "Ob": 4189, "122": 4190, "urrent": 4191, "itable": 4192, "ias": 4193, "Ġexerc": 4194, "(i": 4195, "ception": 4196, "Ġrule": 4197, "Ġwide": 4198, "Ġcontrast": 4199, "ideo": 4200, "my": 4201, "115": 4202, "185": 4203, "Yes": 4204, "Ġcontract": 4205, "-D": 4206, "Ġbeginning": 4207, "ĠCommun": 4208, "ĠFrench": 4209, "Ġparty": 4210, "Ġrights": 4211, "Ġspeed": 4212, "Ġnam": 4213, "that": 4214, "FF": 4215, "king": 4216, "ibrary": 4217, "book": 4218, "Oh": 4219, "ĠMark": 4220, "stitute": 4221, "Ġdetermine": 4222, "Ġreading": 4223, "Ġlif": 4224, "ĠCour": 4225, "Ġdog": 4226, "Ġproduce": 4227, "OV": 4228, "Ġinflating": 4229, "known": 4230, "rapy": 4231, "Ġmemory": 4232, "(),": 4233, "race": 4234, "Ġappropriate": 4235, "ĠJew": 4236, "istry": 4237, "117": 4238, "Bl": 4239, "bG": 4240, "iency": 4241, "berg": 4242, "omas": 4243, "Ġlimited": 4244, "Ġmouth": 4245, "Ġphilos": 4246, "Ġimpl": 4247, "Ġinternational": 4248, "mark": 4249, "+\"": 4250, "Ġanim": 4251, "Ġglobal": 4252, "ĠWhile": 4253, "/c": 4254, "Ġclin": 4255, "Ġnor": 4256, "Ġadvant": 4257, "One": 4258, "ports": 4259, "Ġresources": 4260, "Ġsleep": 4261, "Ġclosed": 4262, "Table": 4263, "pite": 4264, "Ġrates": 4265, "ĠAlthough": 4266, "omb": 4267, "Ġflu": 4268, "Ġcreated": 4269, "Ġvariables": 4270, "ante": 4271, "AV": 4272, "Ġtrou": 4273, "bb": 4274, ";/": 4275, "Ġfit": 4276, "EP": 4277, "Ġhon": 4278, "ny": 4279, "Ġbooks": 4280, "Ġprimary": 4281, "Ġquickly": 4282, "123": 4283, "-r": 4284, "rote": 4285, "ĠOther": 4286, "Ġsort": 4287, "Ġemp": 4288, "IH": 4289, "Ġinn": 4290, ".E": 4291, "Ġcarry": 4292, "attle": 4293, "Ġearth": 4294, "Ġren": 4295, "Ġprobability": 4296, "OU": 4297, "ĠAug": 4298, "Ġtree": 4299, "\"You": 4300, "Str": 4301, "band": 4302, "Ġextra": 4303, "ech": 4304, "={": 4305, "=this": 4306, "ially": 4307, "Ġrecomm": 4308, "ults": 4309, "Ġhundred": 4310, "Ġvia": 4311, "Ġstru": 4312, "ĠAng": 4313, "Ġclearly": 4314, "chen": 4315, "Ġkept": 4316, "ĠChapter": 4317, "Ġstraight": 4318, "---": 4319, "Ġvector": 4320, "Ġfrequency": 4321, "600": 4322, "Ġremember": 4323, "Ġreached": 4324, "Ġphen": 4325, "Ġago": 4326, "Ġsteps": 4327, "Ġwife": 4328, "ession": 4329, "appa": 4330, "Ġrelative": 4331, "Ġsurv": 4332, "Ġwood": 4333, "ĠHere": 4334, "-A": 4335, "iers": 4336, "Ġpen": 4337, "Ġcontains": 4338, "Ġpret": 4339, "Ġsymb": 4340, "Ġimages": 4341, "uman": 4342, "Ġcomputer": 4343, "Ġideas": 4344, "Ġestablished": 4345, "cap": 4346, "ĠAssoci": 4347, "ĠNone": 4348, "Ġfeature": 4349, "Ġherself": 4350, "Ġdiscussed": 4351, ".prototype": 4352, "Ġfine": 4353, "Ġfair": 4354, "sec": 4355, "aily": 4356, "Ai": 4357, "Ġnull": 4358, "Ġmaximum": 4359, "ĠLord": 4360, "Ġreaction": 4361, "iful": 4362, "ERS": 4363, "pa": 4364, "ulate": 4365, "Ġchurch": 4366, "eration": 4367, "ĠJesus": 4368, "EF": 4369, "ĠJust": 4370, "ĠPaul": 4371, "Ġpublished": 4372, ",o": 4373, "Ġbreath": 4374, "ĠEven": 4375, "116": 4376, "Ġstrict": 4377, ",the": 4378, "Ġequival": 4379, "Ã¼r": 4380, "ĠScience": 4381, "itz": 4382, "Ġachieve": 4383, "Ġshowed": 4384, "Ġhost": 4385, "Ġcomponents": 4386, "Ġfirm": 4387, "TS": 4388, ">R": 4389, "ando": 4390, "Ġcred": 4391, "tribute": 4392, "asons": 4393, "Ġgone": 4394, "Ġindu": 4395, "Ġremain": 4396, "Ġadministr": 4397, "Ġvirt": 4398, "Ġeight": 4399, "Ġbrother": 4400, "Ġfat": 4401, "Ġcosts": 4402, "_id": 4403, "184": 4404, "Ġfeed": 4405, "lig": 4406, "test": 4407, "Ġproof": 4408, "):Ċ": 4409, "Ġsuff": 4410, "Ġball": 4411, "ĠTherefore": 4412, "114": 4413, "113": 4414, "Ġtransfer": 4415, "Ġwhom": 4416, "Ġdas": 4417, "ĠJe": 4418, "vere": 4419, "ifying": 4420, "izations": 4421, "uls": 4422, "ooth": 4423, "Ġratio": 4424, "Ġtrade": 4425, "NG": 4426, "stroke": 4427, "Ġcru": 4428, "Ġlives": 4429, "Ġtele": 4430, "Ġclean": 4431, "Ġleading": 4432, "Ġrules": 4433, "Ġmaterials": 4434, "ederal": 4435, "point": 4436, "flict": 4437, "estion": 4438, "Ġblue": 4439, "ibly": 4440, "Ġsold": 4441, "Ġoil": 4442, "ĠInter": 4443, "Ġcharge": 4444, "157": 4445, "ĠMor": 4446, "ĠSw": 4447, "ager": 4448, "url": 4449, "wide": 4450, "vention": 4451, "Ġaim": 4452, "overn": 4453, "Ġmoved": 4454, "oring": 4455, "Ġhydro": 4456, "Ġobjects": 4457, "ama": 4458, "Ġpopular": 4459, "Ġtravel": 4460, "Ġscience": 4461, "hens": 4462, "Ġmid": 4463, "Ġcontain": 4464, "Ġprogress": 4465, "pling": 4466, "Now": 4467, "XS": 4468, "Ġorganization": 4469, "PR": 4470, "link": 4471, "Ġfeeling": 4472, "Ġversion": 4473, "Ġcontinued": 4474, "ocks": 4475, "\\*": 4476, "Ġcommand": 4477, "Ġglass": 4478, "Ġalgorithm": 4479, "ocr": 4480, "ellig": 4481, "Ġskin": 4482, "Ġvariable": 4483, "Ġplus": 4484, "ja": 4485, "ĠLaw": 4486, "Ġspl": 4487, "EB": 4488, "118": 4489, "Ġimportance": 4490, "Ġtechnology": 4491, "Ġworth": 4492, "Ġvel": 4493, "Phi": 4494, "\").": 4495, "Ġassign": 4496, "Ġdate": 4497, "etric": 4498, "Ġoptim": 4499, "Ġactive": 4500, "ĠRel": 4501, "Data": 4502, "Ġobvious": 4503, "_b": 4504, "ICJ": 4505, "Ġdocument": 4506, "ĠTra": 4507, "Ne": 4508, "Ġequations": 4509, "Ġappears": 4510, "Pr": 4511, "Ġreference": 4512, "ĠSchool": 4513, "ĠChurch": 4514, "\"W": 4515, "axis": 4516, "Ġenjoy": 4517, "ĠOur": 4518, "Ġcit": 4519, "tes": 4520, "ĠAust": 4521, "pective": 4522, "Ġune": 4523, "Ġbuilt": 4524, "=(": 4525, "333": 4526, "Ġgrand": 4527, "Ġtrust": 4528, "Ġrestr": 4529, "}_{": 4530, "Ġband": 4531, "Ġsolutions": 4532, "encies": 4533, "MA": 4534, "126": 4535, "sb": 4536, "Ġmedical": 4537, ".w": 4538, "ĠTechn": 4539, "Ġthroughout": 4540, "Ġsources": 4541, "Ġsufficient": 4542, "la": 4543, "sis": 4544, "PP": 4545, "Ġboy": 4546, "asure": 4547, "Ġfloor": 4548, "Ġsto": 4549, "ugh": 4550, "Ġactual": 4551, "Ġcand": 4552, "ĠEq": 4553, "Ġedge": 4554, "Ġdiscussion": 4555, "amin": 4556, "Ġchann": 4557, "ountain": 4558, "Ġtransm": 4559, "ya": 4560, "-H": 4561, "Ġstudent": 4562, "Ġunique": 4563, "ca": 4564, "Ġfig": 4565, "ĠBro": 4566, "119": 4567, "Ġcompletely": 4568, "Ġhighly": 4569, "Ġemphas": 4570, "unch": 4571, "CR": 4572, "ĠCity": 4573, "requ": 4574, "Ġdetails": 4575, "Ġfaith": 4576, "Ġsecurity": 4577, "ĠEngland": 4578, "works": 4579, "Ġcold": 4580, "Ġtitle": 4581, "ategy": 4582, "ixt": 4583, "onic": 4584, "amm": 4585, "Ġreduced": 4586, "Ġarms": 4587, "Ġdomin": 4588, "abla": 4589, "Ġwonder": 4590, "Bb": 4591, "Ġstood": 4592, "They": 4593, "Ġcollect": 4594, "rupt": 4595, "ridge": 4596, "Ġready": 4597, "Ġselect": 4598, "Ġdefinition": 4599, "kappa": 4600, "-up": 4601, "Ġfinally": 4602, "fo": 4603, "Ġdiss": 4604, "ago": 4605, "Ġrespond": 4606, "EG": 4607, "$$": 4608, "Ġformer": 4609, "Ġstrateg": 4610, "osen": 4611, "ashington": 4612, "Ġgreen": 4613, "Ġthreat": 4614, "gar": 4615, "')Ċ": 4616, "ĠEuropean": 4617, "ustrial": 4618, "Ġou": 4619, "ĠSer": 4620, "Ġforeign": 4621, "Ġwindow": 4622, "Ġenter": 4623, "itors": 4624, "raint": 4625, "Ġrapid": 4626, "Do": 4627, "Not": 4628, "ams": 4629, "asion": 4630, "Ġrequires": 4631, "agement": 4632, "Ġfields": 4633, "ocation": 4634, "Ġsecret": 4635, "icle": 4636, "Ġsud": 4637, "!\"Ċ": 4638, "gs": 4639, "aur": 4640, "Ġexactly": 4641, "EX": 4642, "002": 4643, "183": 4644, "unk": 4645, "Ġvon": 4646, "Ġrunning": 4647, "gn": 4648, "Ġparameter": 4649, "http": 4650, "ĠVol": 4651, "})$": 4652, "].Ċ": 4653, "Ġnovel": 4654, "(b": 4655, "Ġcarried": 4656, "Ġfilm": 4657, "ĠGeneral": 4658, "Ġvan": 4659, "alled": 4660, "Ġeye": 4661, "zo": 4662, "Ġexamples": 4663, "REF": 4664, "Ġenh": 4665, "Ġtechniques": 4666, "Ġdouble": 4667, "Ġdisplay": 4668, "Ġstatement": 4669, "rab": 4670, "Big": 4671, "ĠChina": 4672, "omin": 4673, "Ġdesigned": 4674, "Ġreflect": 4675, "arp": 4676, "ipment": 4677, "Ġbrain": 4678, "/f": 4679, "Yz": 4680, "CD": 4681, "ĠLoss": 4682, "illing": 4683, "aded": 4684, "Ġuses": 4685, "Ġsmaller": 4686, "Ġroll": 4687, "\",Ċ": 4688, "well": 4689, "Ġthick": 4690, ">L": 4691, "Ġdefine": 4692, "Ġremains": 4693, "Ġletter": 4694, "Ġstatus": 4695, "Ġ!": 4696, "Name": 4697, "Ġcontroll": 4698, "Ġharm": 4699, "Lambda": 4700, "ĠSupp": 4701, "Ġpoly": 4702, "ĠInst": 4703, "Ġprograms": 4704, "Ġsudden": 4705, "ittee": 4706, "Zm": 4707, "-se": 4708, "itect": 4709, ",h": 4710, "Ġign": 4711, "rec": 4712, "ba": 4713, "uge": 4714, "Ġencou": 4715, "Ġpair": 4716, "Ġperformed": 4717, "OH": 4718, "ĠDepartment": 4719, "181": 4720, "aging": 4721, ",d": 4722, ".F": 4723, "inner": 4724, "((": 4725, "AI": 4726, ".)Ċ": 4727, "CI": 4728, "wards": 4729, "Ġcontinuous": 4730, "ette": 4731, "Ġfight": 4732, "zy": 4733, "Ġchanged": 4734, "Ġthous": 4735, "Ġargument": 4736, "ĠHouse": 4737, "Ġbank": 4738, "Ġsignal": 4739, "ache": 4740, "Ġanyone": 4741, "ube": 4742, "Ġadapt": 4743, "Ġimmediately": 4744, "isation": 4745, "nabla": 4746, "iny": 4747, "ĠOf": 4748, "Ġdiag": 4749, "Ġmotion": 4750, "Ġexists": 4751, "/step": 4752, "Ġapplications": 4753, "}},": 4754, "Ġplaced": 4755, "Ġwarm": 4756, "Ġhappened": 4757, "Ġcounter": 4758, "Ġcoe": 4759, "gram": 4760, "Ġassume": 4761, "Ġbond": 4762, "vision": 4763, "tributions": 4764, "Ġfully": 4765, "/b": 4766, "Ġsolid": 4767, "Ġbab": 4768, "ĠAnn": 4769, "Ġcam": 4770, "yr": 4771, "Ġprotect": 4772, ".H": 4773, "Ġmoving": 4774, "Ġweeks": 4775, "Ġfalse": 4776, "Ġallowed": 4777, "Ġvariety": 4778, "Ġchalleng": 4779, "ns": 4780, "apers": 4781, "wood": 4782, "Ġsets": 4783, "Ġreligious": 4784, "iable": 4785, "Ġschem": 4786, "Ġliterature": 4787, "Ġorigin": 4788, "Ġcivil": 4789, "mail": 4790, "Ġupper": 4791, "-align": 4792, "Ġforces": 4793, "Ġclust": 4794, "roy": 4795, "Ġcontinue": 4796, "\";": 4797, "rage": 4798, ".set": 4799, "[i": 4800, "Ġbran": 4801, "170": 4802, "ĠComput": 4803, "rc": 4804, "Ġhttps": 4805, "icit": 4806, "edom": 4807, "Ġcomponent": 4808, "Ġarray": 4809, "Ġ%": 4810, "icon": 4811, "ipal": 4812, "empl": 4813, "Ġspread": 4814, "urance": 4815, "ĠAut": 4816, "hold": 4817, "Ġvict": 4818, "ĠTheorem": 4819, "Ġstim": 4820, "Ġgold": 4821, "ĠHealth": 4822, "Val": 4823, "Res": 4824, "Ġoccup": 4825, "Ġoperation": 4826, "Ġmeeting": 4827, "Ġstar": 4828, "Ġdivid": 4829, "Ġyourself": 4830, "ĠBook": 4831, "Ġutil": 4832, "Ġreach": 4833, "Ġcompanies": 4834, "ĠOct": 4835, "TR": 4836, "Ġgiving": 4837, "Ġsaying": 4838, "Ġallows": 4839, "AH": 4840, "Ġcompl": 4841, "Ġexperiment": 4842, "Ġunits": 4843, "Ġhyper": 4844, "mat": 4845, "ilde": 4846, "ĠEduc": 4847, "atever": 4848, "otal": 4849, "ĠDavid": 4850, "ĠBlack": 4851, "Ab": 4852, "Ġlegal": 4853, "Ġworkers": 4854, "375": 4855, "antic": 4856, "Ġpassed": 4857, "Ġmeasured": 4858, "fig": 4859, "Ġcup": 4860, "Ġwat": 4861, "Ġmanufact": 4862, "Ġdream": 4863, "inding": 4864, "Ġcommunication": 4865, "Ġdiff": 4866, "Ġincludes": 4867, "aset": 4868, "field": 4869, "Ġlatter": 4870, "Ġconstruction": 4871, "Ġsym": 4872, "Ġmedia": 4873, "Ġsamples": 4874, "ĠJames": 4875, "BC": 4876, "Ġstaff": 4877, "Ġsaf": 4878, "-L": 4879, "Ġmember": 4880, "Ġworked": 4881, "iance": 4882, "Ġeveryone": 4883, "ĠLi": 4884, "ophy": 4885, "cular": 4886, "179": 4887, "Ġstock": 4888, "ao": 4889, "uary": 4890, "iat": 4891, "129": 4892, "ĠSub": 4893, "Ġlayer": 4894, "Ġsetting": 4895, "/l": 4896, "ĠGerman": 4897, "SE": 4898, "ĠMich": 4899, "Ġrob": 4900, "Ġnearly": 4901, "Ġnod": 4902, "ees": 4903, "\\t": 4904, "emma": 4905, "/w": 4906, "Ġking": 4907, "Ġbelong": 4908, "Ġdeb": 4909, "Ġmilitary": 4910, "Ġpicture": 4911, "ih": 4912, "elled": 4913, "Ġapply": 4914, "Ġbul": 4915, "Ġ==": 4916, "TER": 4917, "Ġsymm": 4918, "zen": 4919, "umin": 4920, "map": 4921, "term": 4922, "182": 4923, "Ġcas": 4924, "-F": 4925, "ework": 4926, "Ġhour": 4927, "nel": 4928, "131": 4929, "Ġpow": 4930, "Ġsitu": 4931, "Ġconflict": 4932, "Ġgradu": 4933, "crete": 4934, "ris": 4935, "ries": 4936, "Ġcircum": 4937, "Ġexistence": 4938, "orrow": 4939, "ael": 4940, "cient": 4941, "ĠWhy": 4942, "Ġdistinct": 4943, "Ġ}$Ċ": 4944, "ears": 4945, "cast": 4946, "gebra": 4947, "Ġhttp": 4948, "Ġmeant": 4949, "Ġabsol": 4950, "Ġemb": 4951, "Ġtransport": 4952, "SI": 4953, "Ġprotein": 4954, "Ġ\\%$": 4955, "comm": 4956, "ĪĴ": 4957, "Ġinteresting": 4958, "ZX": 4959, "Ġinternal": 4960, "iring": 4961, "ĠRich": 4962, "start": 4963, "Ġrelatively": 4964, "Ġveloc": 4965, "su": 4966, "Ġfavor": 4967, "Ġinteraction": 4968, "Ġaccom": 4969, "ensor": 4970, "Ġsea": 4971, "Ġhus": 4972, "Ġnews": 4973, "Ġwid": 4974, "void": 4975, "ady": 4976, "ĠHol": 4977, "active": 4978, "ĠApr": 4979, "ĠCalif": 4980, "ads": 4981, "Ġgoes": 4982, "odies": 4983, "ĠSociety": 4984, "Ġvisual": 4985, "Ġtraditional": 4986, "roph": 4987, "Ġstructures": 4988, "Ġbuy": 4989, "Ġcaused": 4990, "Ġchoose": 4991, "SP": 4992, "139": 4993, "?'Ċ": 4994, "subset": 4995, "yd": 4996, "Ġpurch": 4997, "iveness": 4998, "ĠSam": 4999, "}{\\": 5000, "enge": 5001, "144": 5002, "159": 5003, "Ġskills": 5004, "level": 5005, "inci": 5006, "Ġonto": 5007, "Ġbes": 5008, "irect": 5009, "Ġdiagn": 5010, "Ġmachine": 5011, "des": 5012, "Ġopin": 5013, "175": 5014, "Ġbehavi": 5015, "ef": 5016, "/p": 5017, "Ġapparent": 5018, "ML": 5019, "wid": 5020, "Ġsquare": 5021, "-con": 5022, ".ex": 5023, "otic": 5024, "Then": 5025, "icted": 5026, "osite": 5027, "Ġerr": 5028, "ĠDon": 5029, "151": 5030, "vest": 5031, ">G": 5032, "MOD": 5033, "ĠMrs": 5034, "152": 5035, "idden": 5036, "Ġextract": 5037, "what": 5038, "Ġbrief": 5039, ":h": 5040, "Zj": 5041, "ĠVer": 5042, "Ġ**": 5043, "Ġwouldn": 5044, "Ġreduce": 5045, "Ġincome": 5046, "Ġwrote": 5047, "NN": 5048, "Ġformation": 5049, "&quot": 5050, "ĠCong": 5051, "ĠEv": 5052, "...Ċ": 5053, "ĠChe": 5054, "Ġcharg": 5055, "kin": 5056, "ĠdÃ©": 5057, "Ġdecided": 5058, "ĠFurther": 5059, "ui": 5060, "ĠHigh": 5061, "ĠData": 5062, "Ġhop": 5063, "Ġsignificantly": 5064, "142": 5065, "Ġevolution": 5066, "Sigma": 5067, "Cont": 5068, "ĠSan": 5069, "oma": 5070, "Ġheavy": 5071, "ĠAp": 5072, "Ġindeed": 5073, "otimes": 5074, "From": 5075, "Ġincreases": 5076, "pers": 5077, "ĠYour": 5078, "ushed": 5079, "ls": 5080, "Ġphone": 5081, "ĠPark": 5082, "ĠJune": 5083, "-re": 5084, "inese": 5085, "Ġreasons": 5086, "Ġeffort": 5087, "Ġfinite": 5088, "Ġexplain": 5089, "ĠMus": 5090, "136": 5091, "_g": 5092, "rows": 5093, "RI": 5094, "&#": 5095, "ita": 5096, "Ġprocedure": 5097, "Ġstring": 5098, "clude": 5099, ">H": 5100, "Ġdanger": 5101, "atin": 5102, "Ġpeace": 5103, "ayout": 5104, "Ġuna": 5105, ",f": 5106, "isl": 5107, "ZG": 5108, "CA": 5109, "Ġproport": 5110, "idge": 5111, ".r": 5112, "Ġchance": 5113, "Ġhar": 5114, "MP": 5115, "can": 5116, "133": 5117, "Ġpas": 5118, "-Ċ": 5119, "Ġult": 5120, "jection": 5121, "iced": 5122, "132": 5123, "204": 5124, "ĠRed": 5125, "Ġprove": 5126, "ĠHam": 5127, "umer": 5128, "Ġpal": 5129, "DS": 5130, "Ġtwenty": 5131, "Ġstrategy": 5132, "lease": 5133, "Ġmessage": 5134, "Ġquantum": 5135, "ipp": 5136, "ilies": 5137, "Ġarrang": 5138, "ete": 5139, "Ġmeasures": 5140, "))Ċ": 5141, "156": 5142, "ĠSocial": 5143, "abil": 5144, "ĠMiss": 5145, "Ġnames": 5146, "atus": 5147, "Ġeffic": 5148, "166": 5149, "MG": 5150, "Ġactions": 5151, "ava": 5152, "ĠEast": 5153, "rite": 5154, "Ġburn": 5155, "ĠMost": 5156, "ĠMac": 5157, "337": 5158, "html": 5159, "ĠFe": 5160, "isted": 5161, "riage": 5162, "Ġunivers": 5163, "Ġcultural": 5164, "Am": 5165, "ĠBecause": 5166, "Ġspin": 5167, "ria": 5168, ",p": 5169, ":t": 5170, "Ġadjust": 5171, "Ġopened": 5172, "Ġ--": 5173, "irty": 5174, "Ġzu": 5175, "Ġpure": 5176, "cup": 5177, "Ġprofessional": 5178, "143": 5179, "Ġtransition": 5180, "Ġsales": 5181, "-T": 5182, "Ġcook": 5183, "ĠTest": 5184, "else": 5185, "amental": 5186, "ĠSur": 5187, "145": 5188, "153": 5189, "Ġmanner": 5190, "empor": 5191, "ancing": 5192, "ĠWashington": 5193, "Ġbirth": 5194, "ude": 5195, "vi": 5196, ";stroke": 5197, "141": 5198, "QQ": 5199, "-year": 5200, "Ġlabel": 5201, "Ġbill": 5202, "ĠEqu": 5203, "Ġfif": 5204, "aker": 5205, "ĠBi": 5206, "ander": 5207, "171": 5208, "Ġinteg": 5209, "178": 5210, "CL": 5211, "ĠIndian": 5212, "ĠOb": 5213, "Ġheight": 5214, "Ġestablish": 5215, "Ġ$^{": 5216, "Ġbelief": 5217, "Ġprepar": 5218, "qquad": 5219, ",M": 5220, "ZD": 5221, "Ġdrink": 5222, "Ġintroduced": 5223, "138": 5224, "Ġanimals": 5225, "force": 5226, "Ġchemical": 5227, "=a": 5228, "Ġplaces": 5229, "(l": 5230, "ĠFrance": 5231, "ua": 5232, "Ijog": 5233, "Ġnoted": 5234, "-R": 5235, "-G": 5236, "Ġarticle": 5237, "Ġcapacity": 5238, "Ġnoise": 5239, ".T": 5240, "Ġsin": 5241, "Ġtiss": 5242, "Ġidentified": 5243, "Mi": 5244, "nes": 5245, "ĠTwo": 5246, "Ġpray": 5247, "(f": 5248, "ras": 5249, "ario": 5250, "Ġcool": 5251, "ĠArt": 5252, "Ġsuggested": 5253, "ober": 5254, "aciÃ³n": 5255, "abs": 5256, "ĠSept": 5257, "ĠIII": 5258, "ornia": 5259, "Ġabsor": 5260, "Ġdry": 5261, "Ġneut": 5262, "Ġidentity": 5263, "Ġpiece": 5264, "-of": 5265, "161": 5266, "010": 5267, "Ġgoal": 5268, "oi": 5269, "ĠEach": 5270, ".W": 5271, "Ġincor": 5272, "875": 5273, "Ed": 5274, "Ġrise": 5275, "Ġsuccessful": 5276, "ĠAugust": 5277, "mercial": 5278, "Ġbottom": 5279, "(d": 5280, "-th": 5281, "nce": 5282, "Ġlocation": 5283, "625": 5284, "Ġsac": 5285, "155": 5286, "Ġboard": 5287, "}$Ċ": 5288, "Ġclasses": 5289, "Ġlearned": 5290, "fered": 5291, "Ġdoubt": 5292, "Ġimplic": 5293, "Az": 5294, "frame": 5295, "Ġmentioned": 5296, "Ġmanif": 5297, "Ġwa": 5298, "Ġformed": 5299, "Ġisn": 5300, "ĠGo": 5301, "Ġcop": 5302, "gress": 5303, "Ġhous": 5304, "Ġoperations": 5305, "imensional": 5306, "Ġrelevant": 5307, "Ġvill": 5308, "hest": 5309, "168": 5310, "YT": 5311, "Ġseparate": 5312, "Ġappeared": 5313, "177": 5314, "ĠProf": 5315, "âĢĶthe": 5316, "ĠCourt": 5317, "Ġpages": 5318, "widet": 5319, "widetilde": 5320, "Com": 5321, "137": 5322, "Ġwish": 5323, "Ġresid": 5324, "ĠHen": 5325, "Ġur": 5326, "Ġcoordin": 5327, "Sp": 5328, "_FIG": 5329, "poses": 5330, "Ġrac": 5331, ":function": 5332, "ĠPresident": 5333, "rael": 5334, "Ġonline": 5335, "PT": 5336, "Ġmur": 5337, "Ġconcentration": 5338, "inciples": 5339, "ini": 5340, "ĠAssociation": 5341, "ĠInstitute": 5342, "Ġtrack": 5343, "El": 5344, "Ġbeautiful": 5345, "Ġfailure": 5346, "Ġdaily": 5347, "Ġsupply": 5348, "Ġliqu": 5349, "iliar": 5350, "134": 5351, "Ġprinciple": 5352, "Ġexhib": 5353, "Ġexpressed": 5354, "Ġmedic": 5355, "ye": 5356, "Ġsmooth": 5357, "Ġtherm": 5358, "();Ċ": 5359, "Ġsav": 5360, ".png": 5361, ".I": 5362, "UB": 5363, ".G": 5364, "165": 5365, "cis": 5366, "Ġplot": 5367, "ĠOff": 5368, "abilities": 5369, "othing": 5370, "Ġcharacteristics": 5371, "otes": 5372, "ĠStreet": 5373, "Ġvir": 5374, "Ġformula": 5375, "ĠClass": 5376, "long": 5377, "Ġgrowing": 5378, "Ġcast": 5379, "wK": 5380, "ESS": 5381, "cious": 5382, "linear": 5383, "Ġsafe": 5384, "Ġsoul": 5385, "ultural": 5386, "Ġrepresentation": 5387, "ĠMart": 5388, "-sh": 5389, "-a": 5390, "176": 5391, "])Ċ": 5392, "Ġvertical": 5393, "Wx": 5394, "NC": 5395, "OB": 5396, "zing": 5397, "reci": 5398, "ĠNote": 5399, "Ġlat": 5400, "167": 5401, "AAAAAAAAAAAAAAAAAAAAAAAAAAAAAAAA": 5402, "Ġexperiments": 5403, "het": 5404, "ĠEst": 5405, "Ġresulting": 5406, "ĠWhite": 5407, ")(": 5408, "Ġpatterns": 5409, "sv": 5410, "fection": 5411, "Ġopportunity": 5412, "Text": 5413, "Ġreality": 5414, "Ġextent": 5415, "ĠGeorge": 5416, "]),": 5417, "Ġpun": 5418, "Ġscen": 5419, "Ġrock": 5420, "Des": 5421, "Ġ\\}$": 5422, "-pro": 5423, "Ġ?": 5424, "Ġmode": 5425, "Ġisol": 5426, "Ġoccurs": 5427, "/v": 5428, "Ġslightly": 5429, "Ġstudied": 5430, "UD": 5431, "List": 5432, "Ġded": 5433, "Ġphenomen": 5434, "ĠGree": 5435, "ĠSuch": 5436, "ometry": 5437, "=i": 5438, "Yj": 5439, "Ġstrugg": 5440, "Ġna": 5441, "ados": 5442, "Ġgenerated": 5443, "Ġideal": 5444, "ĠMarch": 5445, "HT": 5446, "Ġplane": 5447, "Ġoverall": 5448, "/Ċ": 5449, ",y": 5450, "kt": 5451, "Ġfarm": 5452, "nam": 5453, "149": 5454, "ĠCenter": 5455, "Ġdomain": 5456, "Ġgeneration": 5457, "pen": 5458, ")),": 5459, "bm": 5460, "EV": 5461, "Ġsoftware": 5462, "Ġpolic": 5463, "bal": 5464, "hors": 5465, "Me": 5466, "Ġfru": 5467, "Ġidentify": 5468, "Ġserve": 5469, "Ġattract": 5470, "bi": 5471, "ĠGovern": 5472, "lands": 5473, "Ġdied": 5474, "ido": 5475, "HR": 5476, "Ġhol": 5477, "Ġsynthe": 5478, "Ġcurve": 5479, "osph": 5480, "Ġrecently": 5481, "Ġschools": 5482, "aughter": 5483, "ĠDevelop": 5484, "Ġtim": 5485, "Ġdescription": 5486, "Xiv": 5487, "Ġconnection": 5488, "ĠJack": 5489, "Ġconcerned": 5490, "ĠMary": 5491, "ĠJuly": 5492, ">NaN": 5493, "ĠPsych": 5494, "uild": 5495, "Er": 5496, "148": 5497, "Ġmob": 5498, "erved": 5499, "ball": 5500, "147": 5501, "Ġcollection": 5502, "ELB": 5503, "\"+": 5504, "kw": 5505, "Ġrepro": 5506, "anging": 5507, "Ġprefer": 5508, "=!": 5509, "Ġleads": 5510, "FO": 5511, "stein": 5512, "Ġdrive": 5513, "Ġbalance": 5514, "169": 5515, "164": 5516, "ĠPal": 5517, "Ġvideo": 5518, "Ġdescribe": 5519, "Ġauthority": 5520, "neq": 5521, "Ġreturned": 5522, "Ġconnected": 5523, "time": 5524, "Ġequipment": 5525, "Ġgain": 5526, "Ġlaws": 5527, "ivation": 5528, "162": 5529, "Ġconfig": 5530, "Ġquiet": 5531, "Ġlooks": 5532, "Ġtests": 5533, "Ġrelationships": 5534, "Ġmist": 5535, "\".": 5536, "Ġsurround": 5537, "ĠPhil": 5538, "rer": 5539, "Ġdos": 5540, "Ġrequest": 5541, "case": 5542, "Ġitems": 5543, "Ġbenefits": 5544, "Ġexisting": 5545, "154": 5546, "ishes": 5547, "rane": 5548, "Ġscore": 5549, "\\{": 5550, "resents": 5551, "Ġcomparison": 5552, "select": 5553, "PC": 5554, "ĠMany": 5555, "EW": 5556, "Ġmedium": 5557, "173": 5558, "After": 5559, "Ġpolice": 5560, "Ġcontinu": 5561, "path": 5562, "Ġje": 5563, "Ġsexual": 5564, "003": 5565, "_REF": 5566, "Ġequivalent": 5567, ".is": 5568, "Ġaspects": 5569, "ĠWil": 5570, "Ġanti": 5571, "cho": 5572, "mary": 5573, "uy": 5574, "({": 5575, "Ġstation": 5576, "ĠSol": 5577, "Ġmarg": 5578, "Ġwalked": 5579, "Ġsubsequ": 5580, "Ġran": 5581, "256": 5582, "gence": 5583, "alysis": 5584, "overy": 5585, "146": 5586, "ĠArm": 5587, "ĠNet": 5588, "ĠRem": 5589, "Ġlaugh": 5590, "eline": 5591, "arian": 5592, "Ġunf": 5593, "Ġflat": 5594, "arn": 5595, "ĠDi": 5596, "XX": 5597, ",b": 5598, "oyal": 5599, "163": 5600, "Ġmoral": 5601, "Ġminimum": 5602, "Ġelectr": 5603, "uted": 5604, "Ġprepared": 5605, "Ġtempor": 5606, "Ġpeak": 5607, "Ġplants": 5608, "AND": 5609, "Ġmagnetic": 5610, "Ġadvantage": 5611, "Ġregions": 5612, "ELBEST": 5613, "ZT": 5614, "Ey": 5615, "Ġexperimental": 5616, "Ġpaid": 5617, "rees": 5618, "cf": 5619, "Ġtalking": 5620, "Ġcertainly": 5621, "utive": 5622, "ipped": 5623, "Ġclient": 5624, "ague": 5625, "Ġuniform": 5626, "ĠChinese": 5627, "idation": 5628, "image": 5629, "Ġensure": 5630, "know": 5631, "Ġformal": 5632, "opl": 5633, ")/": 5634, "stood": 5635, "Ġampl": 5636, "Ym": 5637, "Ġcorpor": 5638, "Ġjoint": 5639, "acing": 5640, "Ġos": 5641, "cz": 5642, "Ġfreedom": 5643, "PH": 5644, "Ġclinical": 5645, "Ġfresh": 5646, "ker": 5647, "Ġcopy": 5648, "âĢĶand": 5649, "Ġtechnique": 5650, "Ġrequirements": 5651, "Ġnation": 5652, "172": 5653, "ĠAre": 5654, "Ġexternal": 5655, "Ġexchange": 5656, "hi": 5657, "ĠReview": 5658, "ossible": 5659, "oming": 5660, "210": 5661, "}],": 5662, "ĠKe": 5663, "Ġagreement": 5664, "Ġteaching": 5665, "ells": 5666, "ĠSal": 5667, "ĠMath": 5668, "Par": 5669, "Ġuns": 5670, "ĠEvery": 5671, "-time": 5672, "ston": 5673, "URE": 5674, "mid": 5675, "Ġdut": 5676, "Ġboundary": 5677, "cher": 5678, "olf": 5679, "Au": 5680, "ĠTO": 5681, "Ġangle": 5682, "Ġsuggests": 5683, "SC": 5684, "Ġvelocity": 5685, "Ġaccur": 5686, "ĠArch": 5687, "ĠTheir": 5688, "ĠDem": 5689, "model": 5690, "vo": 5691, "Ġeat": 5692, "ĠCalifornia": 5693, "666": 5694, "Ġplanning": 5695, "Ġdans": 5696, "Ġoperator": 5697, "ĠDan": 5698, "205": 5699, "Ġtheore": 5700, "null": 5701, "Ġselected": 5702, "Ġmiles": 5703, "Ġraised": 5704, "Ġsmile": 5705, "Ġolder": 5706, "ln": 5707, "arter": 5708, "Ġhusband": 5709, "Ġconstraint": 5710, "MODELBEST": 5711, "Ġesc": 5712, "Ġhappy": 5713, "Ġmental": 5714, "stitution": 5715, ";\\": 5716, "Ġintr": 5717, "Ġfell": 5718, "Ġrepresents": 5719, "Ġindicate": 5720, "Ġprocessing": 5721, "Ġveh": 5722, "Ġcomfort": 5723, "AJ": 5724, "Ġgal": 5725, "Ġvent": 5726, "_data": 5727, "220": 5728, "Ġ{-": 5729, "Ġsympt": 5730, "KS": 5731, "itter": 5732, "Ġtasks": 5733, "Ġoffered": 5734, "Ġusers": 5735, "Ġcombination": 5736, "Ġsimpl": 5737, "Ġvisit": 5738, "Ġresponsible": 5739, "ansion": 5740, "stract": 5741, "agger": 5742, "ront": 5743, "Ġfing": 5744, "Ġist": 5745, "158": 5746, "QI": 5747, "Ġlie": 5748, "ĠThomas": 5749, "Ġproceed": 5750, "Ġhistorical": 5751, "Ġau": 5752, "Fl": 5753, "Ġhospital": 5754, "Ġcancer": 5755, "eed": 5756, "estic": 5757, ".sh": 5758, "Ã©e": 5759, "LL": 5760, "ags": 5761, "240": 5762, "Ġexplan": 5763, "ano": 5764, "Ġhref": 5765, "Ġmo": 5766, "ambridge": 5767, "ĠCollege": 5768, "Ġstarting": 5769, "arden": 5770, "-term": 5771, "ĠWork": 5772, "Ġring": 5773, "Ġmale": 5774, "ners": 5775, "Ġleaves": 5776, "cn": 5777, "Ġcontaining": 5778, "Ġpulled": 5779, ".In": 5780, "Ġsend": 5781, "udd": 5782, "230": 5783, "Ġarchitect": 5784, "La": 5785, "174": 5786, "HD": 5787, "Ġinterview": 5788, "je": 5789, "zeta": 5790, "Ġauthors": 5791, "String": 5792, "Ġcriter": 5793, "GE": 5794, "ena": 5795, "Ġstream": 5796, "Ġreceive": 5797, "Ġnone": 5798, "Ġthr": 5799, "222": 5800, "Ġselection": 5801, "height": 5802, "ologies": 5803, "Ġcouple": 5804, "Ġfamilies": 5805, "appe": 5806, "GB": 5807, "ville": 5808, "Ġtrees": 5809, "Ġnut": 5810, "ĠRobert": 5811, "ĠLou": 5812, "Ġvary": 5813, "Ġmes": 5814, "Ġmetal": 5815, "Ġuncertain": 5816, "Ġholds": 5817, "ĠPR": 5818, "Ġinstr": 5819, "greg": 5820, "apping": 5821, "ora": 5822, "Ġsubstant": 5823, "Ġotherwise": 5824, "Ġreduction": 5825, "Ġpresident": 5826, "ĠApril": 5827, "ipe": 5828, "Ġcandid": 5829, "/j": 5830, "Ġpowerful": 5831, "ĠGra": 5832, "Ġteacher": 5833, "Ġalternative": 5834, "Ġcomo": 5835, "icago": 5836, "mann": 5837, "Ġpractical": 5838, "Ġelectron": 5839, "Ġnp": 5840, "ocy": 5841, "Ġwin": 5842, "AW": 5843, "images": 5844, "rey": 5845, "ulture": 5846, ")},": 5847, "Ġexercise": 5848, "Object": 5849, "Ġpros": 5850, "Ġsites": 5851, "olved": 5852, "izer": 5853, "Ġcovered": 5854, "Ġpet": 5855, "Ġstanding": 5856, "Ġtool": 5857, "Ġseven": 5858, "bn": 5859, "Ġcos": 5860, "ĠCON": 5861, "ĠCanada": 5862, "Ġcalculated": 5863, "Ġpreviously": 5864, "Ġstopped": 5865, "Ġyield": 5866, "itis": 5867, "IST": 5868, "CP": 5869, "Ġchair": 5870, "Ġresistance": 5871, "Ġspent": 5872, "Ġspeech": 5873, "iller": 5874, "pol": 5875, "ĠUnder": 5876, "ĠBen": 5877, "Ġwit": 5878, "Ġ$|": 5879, "rim": 5880, "Ġtreated": 5881, "Ġconscious": 5882, "Ġframework": 5883, "ĠPublic": 5884, "Ġefficient": 5885, "coh": 5886, "Ġelectric": 5887, "=#": 5888, "Ġcompre": 5889, "ÃŃa": 5890, "Ġderived": 5891, "ĠCompany": 5892, "Ġtight": 5893, "\");": 5894, "Ġefforts": 5895, "Ġborn": 5896, "Ġanimal": 5897, "ilit": 5898, "Ġexplained": 5899, ")-": 5900, "Nm": 5901, "Ġcomment": 5902, "Co": 5903, "Ġmel": 5904, "CM": 5905, "useum": 5906, "Ġslowly": 5907, "Ġhappen": 5908, "ĠIndia": 5909, ">$": 5910, "ĠIsrael": 5911, ":href": 5912, "flow": 5913, "ferent": 5914, "Ġparallel": 5915, "().": 5916, "ographic": 5917, "[\"": 5918, "DR": 5919, "Ġfinding": 5920, "Ġtorch": 5921, "Ġrot": 5922, "UG": 5923, "Ġoffers": 5924, "ulf": 5925, "Ġnotice": 5926, "Ġgun": 5927, "Ġchosen": 5928, "Ġnetworks": 5929, "ĠBel": 5930, "teen": 5931, "Ġminor": 5932, "Ġsafety": 5933, "Ġdistingu": 5934, "Ġfundamental": 5935, "ĠGermany": 5936, "cember": 5937, "Ġcircumst": 5938, "Ġstore": 5939, "ĠDiv": 5940, "ĠUse": 5941, "Ġseason": 5942, "Ġiron": 5943, "Ġestimate": 5944, "Ġ..": 5945, "Ġcauses": 5946, "ader": 5947, "](": 5948, "omorph": 5949, ">E": 5950, "nt": 5951, "appro": 5952, "ĠCouncil": 5953, "Ġintellig": 5954, "Ġradio": 5955, "ĠDet": 5956, "ĠStep": 5957, "ĠMoreover": 5958, "ildren": 5959, "Ġinfin": 5960, "ĠNat": 5961, "Ġxlink": 5962, "gin": 5963, "Ġbow": 5964, "Ġspectrum": 5965, "See": 5966, "\"What": 5967, "Ġempt": 5968, "Ġapproaches": 5969, "Ġjo": 5970, "uer": 5971, "ĠFOR": 5972, "Ġinterested": 5973, "}}{": 5974, "Ġagent": 5975, "Ġdepends": 5976, "Ġmaster": 5977, "Ġtools": 5978, "ĠUsing": 5979, "Ġsummer": 5980, "Ġnarrow": 5981, "Ġevaluation": 5982, "ĠFeb": 5983, "Ġroot": 5984, "ĠGen": 5985, "Ġhit": 5986, "_acc": 5987, "Ġwidth": 5988, "Ġbright": 5989, "Ġpossess": 5990, "Ġmas": 5991, "700": 5992, "ĠEconom": 5993, "ĠElect": 5994, "board": 5995, "pd": 5996, "_col": 5997, "uke": 5998, "Ġwild": 5999, "ĠChem": 6000, "eless": 6001, "lies": 6002, "ocked": 6003, "Ġpossibility": 6004, "Ġauf": 6005, "AX": 6006, "ĠSec": 6007, "ĠConference": 6008, "Ġinvolve": 6009, "omic": 6010, "Ġinhib": 6011, "Ġcore": 6012, ",u": 6013, "Ġdial": 6014, "Ġinterests": 6015, "down": 6016, "uv": 6017, "LD": 6018, "script": 6019, "Ġrout": 6020, "Ġhadn": 6021, "Ġox": 6022, "Ġdesire": 6023, "Ġrich": 6024, "}),": 6025, "Ġconsistent": 6026, "Ġtherapy": 6027, "ĠAlso": 6028, "/n": 6029, "Ġeconomy": 6030, "anted": 6031, "Ġ]$": 6032, "antly": 6033, "Ġrepresented": 6034, "FR": 6035, "Ġprot": 6036, "alog": 6037, "Ġ/&": 6038, "Ġtesting": 6039, "jo": 6040, "Ġnucle": 6041, "Ġcitiz": 6042, "ingly": 6043, "pected": 6044, "phone": 6045, "Ã¡s": 6046, "usiness": 6047, "/g": 6048, "atically": 6049, "ĠHistory": 6050, ";use": 6051, "outhern": 6052, "ĠFin": 6053, "onent": 6054, "Ġhoriz": 6055, "Sc": 6056, "ervation": 6057, "XSwg": 6058, "Ġdecisions": 6059, "ĠIS": 6060, "Ġwaiting": 6061, "Ġdoll": 6062, "edge": 6063, "Ġwel": 6064, "Ġgod": 6065, "ptions": 6066, "Ġcomplic": 6067, "Ġ|Ċ": 6068, "Ġsides": 6069, "Ġbra": 6070, "Ġcarbon": 6071, "ĠEducation": 6072, "Ġorient": 6073, "amily": 6074, "LS": 6075, "orage": 6076, "rep": 6077, "'S": 6078, "Ġdepth": 6079, "Ġbaby": 6080, "opic": 6081, "sIF": 6082, "Ġexpand": 6083, "Ġproviding": 6084, "Ġtouch": 6085, "oken": 6086, "=Math": 6087, "Ġleaving": 6088, "Ġfemale": 6089, "ĠTraining": 6090, "/M": 6091, "van": 6092, "Ġprem": 6093, "Ġteachers": 6094, "LCBb": 6095, "Ġsubjects": 6096, "kg": 6097, "212": 6098, "ocol": 6099, ">\\": 6100, "ĠGreat": 6101, "ĠMal": 6102, "Ġlived": 6103, "Ġplans": 6104, "Qw": 6105, "ĠZh": 6106, "Ġremoved": 6107, "Ġcolon": 6108, "osing": 6109, "ilib": 6110, "Ġunderstood": 6111, "ĠCongress": 6112, "edy": 6113, "WF": 6114, "Ġtour": 6115, "iated": 6116, "XSwgW": 6117, "uffer": 6118, "Ġpul": 6119, "othe": 6120, "Â°": 6121, "Ġexplicit": 6122, "OO": 6123, "ovember": 6124, "anges": 6125, "ifically": 6126, "ella": 6127, "ĠfÃ¼r": 6128, "Ġsusp": 6129, "BAg": 6130, "cu": 6131, "\"],": 6132, "Ġdevice": 6133, "*,": 6134, "PD": 6135, "Ġsupported": 6136, "ĠSecond": 6137, "ICAgICAgICAg": 6138, "string": 6139, ".py": 6140, "onents": 6141, "zed": 6142, "Ġremark": 6143, "?'": 6144, "TT": 6145, "Ġvision": 6146, "oration": 6147, "Ġdamage": 6148, "ipl": 6149, "Ġjour": 6150, "Ġimplies": 6151, "Ġkit": 6152, "Ġfilled": 6153, "Ġtrac": 6154, "default": 6155, "ilton": 6156, "Ġscientific": 6157, "Ġfloat": 6158, "Ig": 6159, "how": 6160, "kay": 6161, "Ġhypothes": 6162, "Here": 6163, "venue": 6164, "Ġdiam": 6165, ":!": 6166, "Ġcommercial": 6167, "Ġqui": 6168, "standing": 6169, "icks": 6170, "sm": 6171, "Ġwhatever": 6172, "ĠWestern": 6173, "Ġsong": 6174, "Ġfrequently": 6175, "Ġborder": 6176, "/D": 6177, "itudes": 6178, "/C": 6179, "Ġindustrial": 6180, "Ġobservations": 6181, "aren": 6182, "Ġshowing": 6183, "Ġprotection": 6184, "vd": 6185, "rium": 6186, "Ġlib": 6187, "Ġnarr": 6188, "Ġcrow": 6189, "Ġapproximately": 6190, "Ġindicated": 6191, "Ġextended": 6192, "Ġknows": 6193, "state": 6194, "oving": 6195, "Ġpretty": 6196, "Ġinvestment": 6197, "Ġcolle": 6198, "ĠParis": 6199, "widehat": 6200, "Ġmort": 6201, "ĠRoman": 6202, "kl": 6203, "ĠAlex": 6204, "Ġmechanism": 6205, "Ġnorth": 6206, "ĠDec": 6207, "aign": 6208, "ĠPo": 6209, "uh": 6210, "ademic": 6211, "Ġdeveloping": 6212, "005": 6213, "ĠOut": 6214, "Ġparticles": 6215, "idel": 6216, "rier": 6217, "208": 6218, "Ġforg": 6219, "Ġspot": 6220, "Ġchain": 6221, "Ġfamiliar": 6222, "360": 6223, "Ġprinciples": 6224, "225": 6225, "900": 6226, "Ġta": 6227, "xford": 6228, "Ġsave": 6229, "isher": 6230, "Ġgar": 6231, "/S": 6232, "Ġexperiences": 6233, "Ġyes": 6234, "Ġremained": 6235, "Ġnodes": 6236, "values": 6237, "while": 6238, "UC": 6239, "Ġmajority": 6240, "xx": 6241, "Ġframe": 6242, "Ġneither": 6243, "Î±": 6244, "ĠAfrica": 6245, "Ġplate": 6246, "Ew": 6247, "vol": 6248, "')": 6249, "Ġcryst": 6250, "Ġpractices": 6251, "Ġexpos": 6252, "Ġkiss": 6253, "ellect": 6254, "dr": 6255, "Ġfraction": 6256, "EEE": 6257, "ĠTH": 6258, "ĠPeter": 6259, "ĠSeptember": 6260, "Ġenem": 6261, "Ġlocated": 6262, "orry": 6263, "Ġhat": 6264, "Ġshift": 6265, "Ġplayed": 6266, "ela": 6267, "img": 6268, "ĠLear": 6269, "mic": 6270, "Ġvac": 6271, "ĠJer": 6272, "lam": 6273, "ĠTime": 6274, "athe": 6275, "Ġcomposition": 6276, "207": 6277, "Per": 6278, "Ġholding": 6279, "param": 6280, "Ġchest": 6281, "Ġdimension": 6282, "ĠHel": 6283, "ellent": 6284, "ĠForm": 6285, "Ġmal": 6286, "Ġreports": 6287, "rot": 6288, "Ġfish": 6289, "inder": 6290, "Ġbenefit": 6291, "ceived": 6292, "Ġben": 6293, "Ġclim": 6294, "Ġtum": 6295, "ashion": 6296, "anned": 6297, "ĠUnion": 6298, "Ġneighbor": 6299, "Ġpersons": 6300, "Ġmerely": 6301, "oto": 6302, "ws": 6303, "ollow": 6304, "Ġaware": 6305, "BS": 6306, "ĠDNA": 6307, "oviet": 6308, "ĠMass": 6309, "Ġencourag": 6310, "aW": 6311, "Ġmathemat": 6312, "Ġsurvey": 6313, "App": 6314, "ĠProcess": 6315, "Ġgrav": 6316, "Ġstandards": 6317, "Ġmix": 6318, "Ġcritic": 6319, "Index": 6320, "ails": 6321, "eq": 6322, "ĠGroup": 6323, "Zh": 6324, ".),": 6325, "ĠÏ": 6326, "ĠJanuary": 6327, "Ġenvironmental": 6328, "ĠInformation": 6329, "PL": 6330, "Ġcycle": 6331, "Ġconnect": 6332, "211": 6333, "'],": 6334, "Ġhighest": 6335, "Ġstories": 6336, "ĠMex": 6337, "Ġarguments": 6338, "duction": 6339, "oes": 6340, "ĠAD": 6341, "rig": 6342, "Ġdaughter": 6343, "Ġbelieved": 6344, ">=": 6345, "Ġing": 6346, "Ġfrag": 6347, "Ġshif": 6348, "urban": 6349, "Ġaccepted": 6350, "Ġassumed": 6351, "dataframe": 6352, "Ġprices": 6353, "eli": 6354, "gw": 6355, "ĠSmith": 6356, "ĠAustral": 6357, "Ġshared": 6358, "zym": 6359, "eness": 6360, "004": 6361, "Ġthin": 6362, "Ġ$\\{": 6363, "\\frac": 6364, "-ch": 6365, "Ġspat": 6366, "{H": 6367, "Ġtypical": 6368, "istical": 6369, "ĠOh": 6370, "Mod": 6371, "Ġneck": 6372, "EA": 6373, "Ġstrategies": 6374, "Ġship": 6375, "Ġrank": 6376, "(p": 6377, "ĠStat": 6378, "Ġstars": 6379, "[r": 6380, "Ġexcess": 6381, "Ġusual": 6382, ",A": 6383, "ĠFre": 6384, "aneous": 6385, "itative": 6386, "Ġgirls": 6387, "ĠService": 6388, "GR": 6389, "Ġcalls": 6390, "user": 6391, "Ġsust": 6392, "cel": 6393, "roduction": 6394, "Ġtrend": 6395, "Ġscene": 6396, "ona": 6397, "ĠBra": 6398, "Ġhence": 6399, "Ġwhis": 6400, "ĠOctober": 6401, "asp": 6402, "ĠRichard": 6403, "Ġshot": 6404, "Ġforest": 6405, "_r": 6406, "ĠETA": 6407, "Ġrace": 6408, "Ġopinion": 6409, "Ġinner": 6410, "Ġmeasurements": 6411, "Ġwants": 6412, "Ġopposite": 6413, "Ġvit": 6414, "Ġrational": 6415, "Ġnamed": 6416, "ĠBoth": 6417, "Color": 6418, "Ġlegisl": 6419, "Ġrepeated": 6420, "Ġencoun": 6421, "Ġrelease": 6422, "oster": 6423, "Ġguess": 6424, "Ġ$[": 6425, "istant": 6426, "Ġviews": 6427, "Ġdress": 6428, "ĠSpr": 6429, "+=": 6430, "cks": 6431, "Ġans": 6432, "Iy": 6433, "Ġminim": 6434, "uries": 6435, "Ġperspective": 6436, ".(": 6437, "Ġ$=": 6438, "equiv": 6439, "-and": 6440, "Ġdetailed": 6441, "ifier": 6442, "ĠMa": 6443, "ĠIV": 6444, "bid": 6445, "ĠMag": 6446, "Up": 6447, "Ġnotes": 6448, "ĠCO": 6449, "abase": 6450, "CO": 6451, "}^": 6452, "Ġlips": 6453, "Time": 6454, "Ġgoods": 6455, "FT": 6456, ",but": 6457, "Ġfigures": 6458, "MB": 6459, "unic": 6460, "Ġcond": 6461, "-the": 6462, "acters": 6463, "Ġfort": 6464, "350": 6465, "!!": 6466, "/P": 6467, "[e": 6468, "Ġchannel": 6469, "Ġachieved": 6470, "ĠFour": 6471, "Ġma": 6472, "uses": 6473, "Ġsuddenly": 6474, "Ġunless": 6475, "Ġletters": 6476, "ĠSat": 6477, "Ġflex": 6478, "Ġtom": 6479, "},Ċ": 6480, "ĠDevelopment": 6481, "Ay": 6482, "sk": 6483, "Ġours": 6484, ";++": 6485, "Ġleaders": 6486, "Ġliquid": 6487, "Ġorganizations": 6488, "Ġfingers": 6489, "Ġalign": 6490, "Ġresponsibility": 6491, "Ġrub": 6492, "Ġsand": 6493, "-like": 6494, "ĠModel": 6495, "Ġwhereas": 6496, "Ġimpossible": 6497, "Ġmountain": 6498, "Ġsouth": 6499, "ethyl": 6500, "-W": 6501, "uzz": 6502, "ĠAnt": 6503, "Ġdrop": 6504, "ĠPort": 6505, "Ġhall": 6506, "Ġappreci": 6507, "ĠGreen": 6508, "ĠUSA": 6509, "CS": 6510, "ĠIts": 6511, "Ġstreet": 6512, "Ġsoil": 6513, "using": 6514, "lete": 6515, "ĠFrank": 6516, "udget": 6517, "Ġcaught": 6518, "Ġdiet": 6519, "conds": 6520, ";if": 6521, "Ġgent": 6522, "Ġtypically": 6523, "Ġplease": 6524, "Ġfinished": 6525, "rog": 6526, "Ġvot": 6527, "Ġstable": 6528, "elle": 6529, "Ġmeasurement": 6530, "ounced": 6531, "Ġansw": 6532, "Psi": 6533, "Ġremaining": 6534, "Ġmarked": 6535, "attributes": 6536, "Ġindicates": 6537, "ĠOver": 6538, "Ġpolar": 6539, "Ġ$(\\": 6540, "Ġcircumstances": 6541, "Ġcombined": 6542, "Ste": 6543, "218": 6544, "Ġ)Ċ": 6545, "Ġefficiency": 6546, "ivate": 6547, "Ġalgebra": 6548, "ĠFrancis": 6549, "load": 6550, "BN": 6551, "char": 6552, "PA": 6553, "Ġadop": 6554, "Ġsight": 6555, "rend": 6556, "atform": 6557, "Ġcollege": 6558, "Ġamb": 6559, "Mu": 6560, "Fe": 6561, "Ġreform": 6562, "Ġnode": 6563, "mas": 6564, "Ġdri": 6565, "ĠrÃ©": 6566, "LY": 6567, "ĠMo": 6568, "star": 6569, "Ġincorpor": 6570, "mosp": 6571, "idad": 6572, "attr": 6573, "cG": 6574, "gb": 6575, "urally": 6576, "oding": 6577, "ĠExper": 6578, "ĠOnly": 6579, "Ġtrial": 6580, "Ġrelax": 6581, "]:": 6582, "Ġfunctional": 6583, "\"It": 6584, "Ġtal": 6585, "Ġ=>": 6586, "ĠAccording": 6587, "NR": 6588, "ĠarXiv": 6589, "ĠMethod": 6590, "rome": 6591, "ĠFinally": 6592, "ĠLife": 6593, "ĠYet": 6594, "abled": 6595, "^{-": 6596, ".N": 6597, "Ġexpansion": 6598, "ĠCharles": 6599, "Ġinstitutions": 6600, "Ġuma": 6601, "-de": 6602, "house": 6603, "Ġgets": 6604, "AO": 6605, "Ġtechnical": 6606, "ĠCath": 6607, "uce": 6608, "Ġserved": 6609, "Ġconsists": 6610, "Ġderiv": 6611, "Ġanx": 6612, "ĠMer": 6613, "Ġscheme": 6614, "Ġestimated": 6615, "ilibrium": 6616, "Ġsubm": 6617, "Ġchallenge": 6618, "Ġappoint": 6619, "Ġchief": 6620, "Ġlargest": 6621, "-dimensional": 6622, "PI": 6623, "EY": 6624, "Ġrough": 6625, "Ġcorner": 6626, "Ġerrors": 6627, "Ġagents": 6628, "ĠFore": 6629, "Ni": 6630, "orthern": 6631, "Ġinteractions": 6632, "ĠJud": 6633, "pled": 6634, "perty": 6635, "ĠHence": 6636, "ĠRob": 6637, "Ġsubt": 6638, "Ġagree": 6639, "Pi": 6640, "Ġcommit": 6641, ".app": 6642, "enses": 6643, "bitr": 6644, "cs": 6645, "cluded": 6646, "ĠHenry": 6647, "aze": 6648, "ĠGood": 6649, "Ġemployees": 6650, "These": 6651, "Ġpositions": 6652, "ogene": 6653, "actor": 6654, "ĠChicago": 6655, "ZS": 6656, "Ġalt": 6657, "Ġmission": 6658, "ĠLemma": 6659, "Em": 6660, "content": 6661, "Ġpurposes": 6662, "]</": 6663, "ald": 6664, "/h": 6665, "comes": 6666, "Ġmatch": 6667, "Ġsupposed": 6668, "ruary": 6669, "206": 6670, "Ġmine": 6671, ".html": 6672, "Ġpolicies": 6673, "Es": 6674, "Ġthoughts": 6675, "Ġdoctor": 6676, "ĠMax": 6677, "cha": 6678, "ĠDecember": 6679, "ĠSoviet": 6680, "ĠBig": 6681, "=fill": 6682, "break": 6683, "Ġinvolves": 6684, "(o": 6685, "otion": 6686, "iders": 6687, "Ah": 6688, "Ġ||": 6689, "Ġinsp": 6690, "ĠFound": 6691, "ometric": 6692, "Ġegg": 6693, "Ġentirely": 6694, "Ġanalog": 6695, "Ġdetection": 6696, "Ġinstitution": 6697, "Ġinterpretation": 6698, "related": 6699, "ige": 6700, "Ġancient": 6701, "word": 6702, "Ġ=$": 6703, "emporary": 6704, "win": 6705, "Ġscreen": 6706, "Ġreligion": 6707, "ibilities": 6708, "Ġreplace": 6709, "nic": 6710, "Ġcircle": 6711, "-cent": 6712, "Ro": 6713, "{Ċ": 6714, "Ġload": 6715, "rank": 6716, "aked": 6717, "there": 6718, "Iw": 6719, "Ġprincipal": 6720, "Ġcloser": 6721, "ician": 6722, "Ġmarriage": 6723, "Proof": 6724, "apped": 6725, "Ġcontribution": 6726, "Ġaccomp": 6727, "ani": 6728, "Ġsymptoms": 6729, "real": 6730, "ĠAfrican": 6731, "Ġpieces": 6732, "ĠHall": 6733, "III": 6734, "calc": 6735, "orders": 6736, "209": 6737, "Ġcareer": 6738, "Ġchanging": 6739, "iro": 6740, "irms": 6741, "ĠDel": 6742, "};": 6743, "neg": 6744, "Ac": 6745, "ĠMad": 6746, "Ġbodies": 6747, "Ġevening": 6748, "etime": 6749, "cohol": 6750, "INE": 6751, "Ġaffected": 6752, "erg": 6753, "Ġaxis": 6754, "ĠQue": 6755, "Ġobjective": 6756, "Ġcredit": 6757, "input": 6758, "Ġplaying": 6759, "Ġsell": 6760, "Ġempty": 6761, "MW": 6762, "scr": 6763, "Int": 6764, "=s": 6765, "Ġapart": 6766, "mes": 6767, "215": 6768, "Ġdrawn": 6769, "mo": 6770, "ĠEarth": 6771, "ĠRad": 6772, "Ġconsult": 6773, "Ġgoals": 6774, "Ġfer": 6775, "Ġice": 6776, "herent": 6777, "Ġmixt": 6778, "QUFB": 6779, "faces": 6780, "slant": 6781, ")\\": 6782, "Ġrealized": 6783, "ĠBas": 6784, "Br": 6785, "Ġemployed": 6786, "ulating": 6787, "ĠSen": 6788, "ourse": 6789, "Ġdataset": 6790, ".exports": 6791, "eles": 6792, "ĠEngine": 6793, "Ġshap": 6794, "Ġoccasion": 6795, "Ġappearance": 6796, "[t": 6797, "Ġcorrelation": 6798, "ĠMet": 6799, "ynom": 6800, "ĠPlan": 6801, "Ġmaybe": 6802, "aper": 6803, "Ġabsence": 6804, "Some": 6805, "roid": 6806, "section": 6807, "Ġspiritual": 6808, "=o": 6809, "Ġfill": 6810, "Ġalle": 6811, "icles": 6812, "Ġbroken": 6813, "gra": 6814, ">W": 6815, ">+": 6816, "ART": 6817, "Ġmemb": 6818, "ses": 6819, "was": 6820, "Ġcarefully": 6821, "oses": 6822, "ĠWeb": 6823, "Ġconvent": 6824, "Ġoblig": 6825, "ĠCambridge": 6826, "lebr": 6827, "Ġdespite": 6828, "ĠDuring": 6829, "iously": 6830, "ifies": 6831, "item": 6832, "eting": 6833, "Ġspring": 6834, "ĠDie": 6835, "ĠLtd": 6836, "obs": 6837, "**Ċ": 6838, "Ġfib": 6839, "Ġmonitor": 6840, "Ġpointed": 6841, "oral": 6842, "Ġopening": 6843, "Ġmarried": 6844, "Ġgene": 6845, "Ġsitting": 6846, "Ġcrucial": 6847, "_D": 6848, "Ġagreed": 6849, "Ġtissue": 6850, "Ġoptions": 6851, "?(": 6852, "Ġkilled": 6853, "ĠOld": 6854, ",J": 6855, "ĠWhere": 6856, "war": 6857, "Ġfailed": 6858, "ĠSa": 6859, "Ġparties": 6860, "Ġion": 6861, "organ": 6862, "Ġmir": 6863, "Ġnerv": 6864, "ĠSie": 6865, "ĠNovember": 6866, "edit": 6867, "Ġassessment": 6868, "-type": 6869, "RU": 6870, "ois": 6871, "213": 6872, "Ġoccurred": 6873, "ĠVir": 6874, "osh": 6875, "RT": 6876, "Ez": 6877, "Ġitem": 6878, "Ġelectro": 6879, ")return": 6880, "ĠJose": 6881, "Ġtrouble": 6882, "ĠCA": 6883, "Ms": 6884, "Ġintellect": 6885, "ĠOnce": 6886, "vin": 6887, "Ġimper": 6888, "Ġpush": 6889, "[n": 6890, ",m": 6891, ".O": 6892, "pat": 6893, "Ġrein": 6894, "RA": 6895, "Ġlean": 6896, "rd": 6897, "ĠMichael": 6898, "'),": 6899, "Ġcharacters": 6900, "Ġlies": 6901, "Ġmais": 6902, "Ġforced": 6903, "Ġprojects": 6904, "ested": 6905, "valid": 6906, "uction": 6907, "Ġdistr": 6908, "Ġwww": 6909, "ĠSun": 6910, "Ġindepend": 6911, "Ġmac": 6912, "Ġsi": 6913, "Ġhelped": 6914, "Ġdynamics": 6915, "Ġcatch": 6916, "Ġforth": 6917, "Ġplas": 6918, "303": 6919, "Ġcab": 6920, "ko": 6921, "Ġguide": 6922, "234": 6923, "*(": 6924, "ĠNor": 6925, "ĠBank": 6926, "Ġsweet": 6927, "Ġfra": 6928, "Ġprison": 6929, "ĠIll": 6930, "Ġrecords": 6931, "HV": 6932, "just": 6933, "++)": 6934, "214": 6935, "sel": 6936, "Ġinequ": 6937, "ĠLike": 6938, "Ġintended": 6939, "_S": 6940, "osa": 6941, "Ġpark": 6942, "cluding": 6943, "ĠSystems": 6944, "Ġcreating": 6945, "Ġhung": 6946, "len": 6947, "sey": 6948, "Ġfindings": 6949, "ĠGovernment": 6950, "Don": 6951, "Ġfederal": 6952, "dy": 6953, "\")Ċ": 6954, "ICA": 6955, "Ġadministration": 6956, "ĠPost": 6957, "221": 6958, "Ġoverl": 6959, "cia": 6960, "anged": 6961, "rained": 6962, "ĠÂ±": 6963, "Ge": 6964, "Ġclassical": 6965, "Ġoption": 6966, "Ġlegs": 6967, "Ġsolve": 6968, "-N": 6969, "Ġreferred": 6970, "Ġthank": 6971, "Ġkne": 6972, "Ġriver": 6973, "itivity": 6974, "Ġnodded": 6975, "ĠHuman": 6976, "TC": 6977, "ĠSum": 6978, "Ġgro": 6979, "Ġwilling": 6980, "Ġresolution": 6981, "Ġoperating": 6982, "ĠStand": 6983, "itely": 6984, "Ġ\"#": 6985, "224": 6986, "contin": 6987, "Ġcharacteristic": 6988, "erate": 6989, "Ġprocedures": 6990, "kins": 6991, "Ġcomprehens": 6992, "xygen": 6993, "Ġrain": 6994, "Ġthousand": 6995, "Ġstead": 6996, "Ġkitchen": 6997, "olve": 6998, "ola": 6999, "ifications": 7000, "object": 7001, "231": 7002, "ATE": 7003, "Ġproved": 7004, "ructions": 7005, "Iz": 7006, "Ġvoid": 7007, "Ġoptimal": 7008, "ĠFalse": 7009, "ĠRepublic": 7010, "ĠAir": 7011, "Ġsister": 7012, "enced": 7013, "IO": 7014, "ĠMult": 7015, "Ġdivided": 7016, "Ġrecommend": 7017, "Ġstated": 7018, "Ġdisappe": 7019, "Ġcategory": 7020, "Ġsomewhat": 7021, "ĠStudies": 7022, "Ġconcer": 7023, "){\"": 7024, "ĠAny": 7025, "Ġsegment": 7026, "Since": 7027, "Ġsections": 7028, "_i": 7029, "inations": 7030, "Trans": 7031, "Ġspoke": 7032, "vg": 7033, "Ny": 7034, "ICE": 7035, "Ġtun": 7036, "/x": 7037, "Ġregarding": 7038, "\"]": 7039, "Ġarbitr": 7040, "/F": 7041, "Ġprofession": 7042, "bered": 7043, "ieties": 7044, "orter": 7045, "Ġacknow": 7046, "Ġboys": 7047, "Ġhorse": 7048, "ĠLand": 7049, "alian": 7050, "ĠLin": 7051, "ĠMem": 7052, "Ġstret": 7053, "ĠAdd": 7054, "Ġdevices": 7055, "RS": 7056, "Ġtables": 7057, "\"No": 7058, "Ġfeelings": 7059, "Ġaccompl": 7060, "CB": 7061, "Ġcampaign": 7062, "option": 7063, "ĠCommission": 7064, "Ġrecept": 7065, "Ġbare": 7066, "uan": 7067, "Ġtheoretical": 7068, "Ġtransformation": 7069, "zer": 7070, "Ġshoulder": 7071, "epth": 7072, "adow": 7073, "Ġloved": 7074, "/or": 7075, ">>": 7076, "Ġconfidence": 7077, ".min": 7078, "orical": 7079, "Ġlimits": 7080, "ben": 7081, "Ġguar": 7082, "Ġimproved": 7083, "Ġfluid": 7084, "ĠWho": 7085, "Ġfix": 7086, "theless": 7087, ";g": 7088, "Ġdense": 7089, "Ġassumption": 7090, "label": 7091, "Ġnav": 7092, "Ġinnov": 7093, "Mw": 7094, "ĠExp": 7095, "ĠRef": 7096, "Ġsmiled": 7097, "Ġsituations": 7098, "illa": 7099, "Ġwalls": 7100, "Ġresponses": 7101, "anda": 7102, "Man": 7103, "Ġdemonstrated": 7104, "ĠOrgan": 7105, "Ġextremely": 7106, "HO": 7107, "dLCBb": 7108, "Ġvous": 7109, "Ġparticle": 7110, "PE": 7111, "ĠSimilar": 7112, "ropy": 7113, "ĠRiver": 7114, "True": 7115, "Ġbehaviour": 7116, "Ġcu": 7117, "ĠTom": 7118, "Ġterr": 7119, "size": 7120, "Mm": 7121, "Ġdestroy": 7122, "Ġbattle": 7123, "235": 7124, "ictions": 7125, "Ġatmosp": 7126, "HJ": 7127, "Ġconcepts": 7128, "260": 7129, "Ġclosely": 7130, "plt": 7131, "ĠCommittee": 7132, "Ġedges": 7133, "ĠCa": 7134, "Ġdiscovered": 7135, "020": 7136, "Ġ$$": 7137, "Ġkill": 7138, "Ġreb": 7139, "Ġexperienced": 7140, "ĠPeople": 7141, "216": 7142, "Ġahead": 7143, "IX": 7144, "Ġconclusion": 7145, "dm": 7146, "Ġrou": 7147, "_train": 7148, "Ye": 7149, "abet": 7150, "ĠIr": 7151, "Ġelimin": 7152, "Ġtub": 7153, "yer": 7154, "ĠJewish": 7155, "Ġkin": 7156, "Ġannual": 7157, "Ġrecognition": 7158, "ĠIEEE": 7159, "ĠInte": 7160, "Ġkinds": 7161, "Ġpra": 7162, "Ġinvent": 7163, "Ġmeta": 7164, "Ġexcellent": 7165, "Ġtrib": 7166, "iner": 7167, "ymm": 7168, "Ġsigns": 7169, "Ġsky": 7170, "QB": 7171, "ĠLett": 7172, "030": 7173, "/T": 7174, "PO": 7175, "uable": 7176, "Ġarrived": 7177, "Ġweap": 7178, "update": 7179, "offset": 7180, "ĠCD": 7181, "320": 7182, "Ġcogn": 7183, "Ġadvert": 7184, "Ġgrad": 7185, "Ġtheorem": 7186, "Ġwitness": 7187, "Ġreader": 7188, "Dr": 7189, "ĠZe": 7190, "Ix": 7191, "Ġobservation": 7192, "]-": 7193, "Ġeventually": 7194, "oder": 7195, "struct": 7196, "Ġminute": 7197, "-pack": 7198, "270": 7199, "ĠNon": 7200, "Ġopportunities": 7201, "road": 7202, "Ġcreation": 7203, "/B": 7204, "ifferent": 7205, "Ġsymbol": 7206, "Ġacts": 7207, "Ġstrongly": 7208, "valType": 7209, "Ġrig": 7210, "icians": 7211, "450": 7212, "cules": 7213, "312": 7214, "Yw": 7215, "Ġbecoming": 7216, "iverse": 7217, "Ġstone": 7218, "Ġsevere": 7219, "Ġrecognized": 7220, "Ġinterval": 7221, "Ġhell": 7222, "hol": 7223, "ĠFurthermore": 7224, "floor": 7225, "Ġhandle": 7226, "Ġsen": 7227, "ĠBay": 7228, "isp": 7229, "Ġbacter": 7230, "Ġseeing": 7231, "Ġphilosophy": 7232, "ĠBritain": 7233, "eck": 7234, "ito": 7235, "ogle": 7236, "sect": 7237, "rian": 7238, ".max": 7239, "learn": 7240, "gery": 7241, "Ġjump": 7242, "ĠOxford": 7243, "eding": 7244, "Qi": 7245, "-E": 7246, "aine": 7247, "Qz": 7248, "Ġorders": 7249, "Hz": 7250, "Ġmixed": 7251, "uz": 7252, "ystem": 7253, "Ġsuitable": 7254, "Ġfle": 7255, "Ġcontained": 7256, "ĠJapanese": 7257, "Ġpowers": 7258, "MENT": 7259, "Ġparticipants": 7260, "Mr": 7261, "229": 7262, "Ġvictim": 7263, "eld": 7264, "Ġbear": 7265, "Ġeigen": 7266, "cd": 7267, "weight": 7268, "Ġkid": 7269, "CG": 7270, "ĠDay": 7271, "NW": 7272, "Ġtro": 7273, "Ġcm": 7274, "SD": 7275, "Ġclaims": 7276, "Ġdenote": 7277, "Ġnuclear": 7278, "Ġconven": 7279, "280": 7280, "Yy": 7281, "emale": 7282, "Can": 7283, "ctr": 7284, "Ġdelay": 7285, "ĠBox": 7286, "Ġantib": 7287, "Ġmotor": 7288, "inity": 7289, "ĠManagement": 7290, ">O": 7291, "wer": 7292, "ĠMil": 7293, "Ġcities": 7294, "LCA": 7295, "Ġmanager": 7296, "Ġrul": 7297, "ĠSil": 7298, "Ġsentence": 7299, "Ġdynamic": 7300, "512": 7301, "ador": 7302, "Ġhuge": 7303, "ITY": 7304, "cean": 7305, "Ġbath": 7306, "Ġhur": 7307, "Ġexpert": 7308, "=new": 7309, "Ġcustomers": 7310, "Ġprecis": 7311, "'I": 7312, "Ġdies": 7313, "icked": 7314, "ĠLong": 7315, "Ġwaves": 7316, "Ġdigital": 7317, "AAA": 7318, "Ġvoc": 7319, "Ġ$-": 7320, "adr": 7321, "Ġwidely": 7322, "aÃ§Ã£o": 7323, "fa": 7324, "Ãµes": 7325, "ĠLo": 7326, "Ġseek": 7327, "Ġrecall": 7328, "iate": 7329, "Ġscr": 7330, "iology": 7331, ",as": 7332, "Ġcompleted": 7333, "Ġwealth": 7334, "Ġfacts": 7335, "Ġunknown": 7336, "219": 7337, "Ġintegral": 7338, "ocket": 7339, "ĠGal": 7340, "Ġadult": 7341, "ĠLouis": 7342, "Ts": 7343, "While": 7344, "Ġsharp": 7345, "ima": 7346, "ĠMicro": 7347, "VVVV": 7348, "Ġsignificance": 7349, "Ġconversation": 7350, ",\\": 7351, "ĠCap": 7352, "ĠSl": 7353, "Ġdepart": 7354, "enter": 7355, ",I": 7356, "Ġleader": 7357, ")+": 7358, "223": 7359, "Ġlibrary": 7360, "Ġgreatest": 7361, "006": 7362, "ontal": 7363, "Ġmissing": 7364, "Sm": 7365, "Ġvariation": 7366, "233": 7367, "Ġadvanced": 7368, "Ġnurs": 7369, "ĠOffice": 7370, "Ġadvance": 7371, "245": 7372, "unc": 7373, "ĠPRO": 7374, "|Ċ": 7375, "Ġnice": 7376, "Ġconj": 7377, "Ġdrugs": 7378, "Why": 7379, "ĠProfess": 7380, "Ġbelie": 7381, "PG": 7382, "ĠProgram": 7383, "Class": 7384, "Ġgames": 7385, "Ġweb": 7386, "Ġthro": 7387, "Ġpreced": 7388, "{g": 7389, "Ġspeaking": 7390, "Ġcitizens": 7391, "Ġpropos": 7392, "217": 7393, "Ġgenerate": 7394, "ĠSet": 7395, "Ġsecondary": 7396, "ĠGold": 7397, "Ġvs": 7398, "ocratic": 7399, "(!": 7400, ",in": 7401, "Ġaccurate": 7402, "Ġinvar": 7403, "Ġbreast": 7404, "Ġconsiderable": 7405, "Ġembed": 7406, "lich": 7407, "Ġpolynom": 7408, "gypt": 7409, "Ġlic": 7410, "Ġpregn": 7411, "has": 7412, "Ġprimarily": 7413, "Ġnecessarily": 7414, "/N": 7415, "Ġabsolute": 7416, "Ġgalax": 7417, "ĠGreek": 7418, "Ġspaces": 7419, "asy": 7420, "Ġaudience": 7421, "Ġremove": 7422, "War": 7423, "ublished": 7424, "Ġdesired": 7425, "Ġprime": 7426, "Uy": 7427, "John": 7428, "Ġemotional": 7429, "275": 7430, "icate": 7431, "ĠAmericans": 7432, "oves": 7433, "Ġshook": 7434, "Ġpassage": 7435, "Ġadequ": 7436, "vy": 7437, "304": 7438, "gged": 7439, "fol": 7440, "Ġfuck": 7441, "ĠWind": 7442, "ĠBet": 7443, "Ġkeeping": 7444, "Ġeasier": 7445, "Ġscal": 7446, "ĠTor": 7447, "Ġaccel": 7448, "Ġcelebr": 7449, "ĠHy": 7450, "011": 7451, "+/": 7452, "Ġdram": 7453, "Ġcontrolled": 7454, "net": 7455, "fall": 7456, "uZ": 7457, "ĠIndeed": 7458, "underline": 7459, "Ġturns": 7460, "Ġaid": 7461, "auss": 7462, "232": 7463, "Ã©n": 7464, "Ġpolitics": 7465, "Ġsick": 7466, "Ġwatched": 7467, "Ġcash": 7468, "Ġconducted": 7469, "Ġchrom": 7470, "Ġcustomer": 7471, "Ġchem": 7472, "Ġcommunities": 7473, "Ġdecrease": 7474, "Ġbag": 7475, "Ġlip": 7476, "Ġhappens": 7477, "Ġlose": 7478, "Ġrevolution": 7479, "oped": 7480, "Sub": 7481, "pecific": 7482, "AU": 7483, "(u": 7484, "Ġnumerous": 7485, "Ġcooper": 7486, "arks": 7487, "Our": 7488, "Ġplatform": 7489, "Ġdependent": 7490, "Ġmuscle": 7491, "ĠInstead": 7492, "DB": 7493, "group": 7494, "Ġelev": 7495, "Ġhabit": 7496, "Ġkids": 7497, "-level": 7498, "ĠInternet": 7499, "_x": 7500, "Ġtrig": 7501, "Comp": 7502, "Ġshut": 7503, "truct": 7504, "ĠSpe": 7505, ".con": 7506, "di": 7507, "Ġvolt": 7508, "tre": 7509, "Ġpapers": 7510, "Ġjournal": 7511, "ĠBur": 7512, "ĠEnd": 7513, "format": 7514, "ĠBrown": 7515, "typeof": 7516, "Ġlargely": 7517, "dX": 7518, "istered": 7519, "243": 7520, "qqqq": 7521, "\\|": 7522, "_test": 7523, "ĠTex": 7524, "Go": 7525, "Qy": 7526, "ĠCOM": 7527, "aven": 7528, "vas": 7529, "Ġentry": 7530, "ĠTheory": 7531, "Ġye": 7532, "ĠPolit": 7533, "MR": 7534, "Ġoxygen": 7535, "QL": 7536, "Ġsuc": 7537, "Ġton": 7538, "Ġdegrees": 7539, "View": 7540, "227": 7541, "Are": 7542, "FL": 7543, "Ġstability": 7544, "Ġphr": 7545, "version": 7546, "ivo": 7547, "Ġantic": 7548, "you": 7549, "Ġpossibly": 7550, "ĠDef": 7551, "Ġsector": 7552, "Ġnotion": 7553, "endix": 7554, "ĠSir": 7555, "UE": 7556, "Ġcalc": 7557, "Ġdistrict": 7558, "DP": 7559, "-ph": 7560, "Ġdirector": 7561, "Ġimmediate": 7562, "going": 7563, "Ġeducational": 7564, "Ġmatters": 7565, "Ġends": 7566, "ARD": 7567, "ema": 7568, "hn": 7569, "Ġveget": 7570, "ĠConf": 7571, "241": 7572, "Ġdefault": 7573, "Ġsalt": 7574, "ĠON": 7575, ":\\": 7576, "ota": 7577, "Ġrevealed": 7578, "/L": 7579, "Ġentered": 7580, "oung": 7581, "Ġofficial": 7582, "265": 7583, "Ġbrown": 7584, "Ġseg": 7585, "igration": 7586, "Ġseconds": 7587, "Ġsole": 7588, "Ġcategories": 7589, "only": 7590, "Ġexposure": 7591, "Ġimplementation": 7592, "sch": 7593, "ĠWell": 7594, "444": 7595, "-K": 7596, "Ġaus": 7597, "/z": 7598, "Ġexplanation": 7599, "rection": 7600, "Ġguard": 7601, "Ġmainly": 7602, "Ã©r": 7603, "ĠLeg": 7604, "Ġconcerns": 7605, "Ġreactions": 7606, "Ġhurt": 7607, "Ġeffectively": 7608, "Ġdimensions": 7609, "car": 7610, "Ġhelps": 7611, "isk": 7612, "226": 7613, "Ġterrit": 7614, "Jj": 7615, "anish": 7616, "Ġfilter": 7617, "008": 7618, "Ġjustice": 7619, "Ġcompare": 7620, "number": 7621, "Ġinstall": 7622, "Ġreact": 7623, ".Size": 7624, "wered": 7625, "oston": 7626, "athy": 7627, "Ġble": 7628, "Ġclassification": 7629, "Ġdomestic": 7630, "inction": 7631, "Ġcurrently": 7632, "Ġresearc": 7633, "Ġforget": 7634, "Ġinh": 7635, "RY": 7636, "Ġpool": 7637, "273": 7638, "check": 7639, "ĠAnalysis": 7640, "Rh": 7641, "ĠEX": 7642, "Ġcollabor": 7643, "Ġcoffe": 7644, "Ġintensity": 7645, "ĠFebruary": 7646, "Qx": 7647, "(h": 7648, "Ġstatements": 7649, "007": 7650, "Ġsuppose": 7651, "{N": 7652, "reshold": 7653, "amples": 7654, "305": 7655, "Ġpropag": 7656, "His": 7657, "252": 7658, "ĠTw": 7659, "ometimes": 7660, "Ġurban": 7661, "Ġagric": 7662, "Ġgap": 7663, "andon": 7664, "ĠCat": 7665, ":n": 7666, "Ġmixture": 7667, "ether": 7668, "ĠJac": 7669, "ĠProceed": 7670, "transform": 7671, "/H": 7672, ".K": 7673, "Ġpert": 7674, "Ġequilibrium": 7675, "=-": 7676, "Ġoperators": 7677, "Ġbuck": 7678, "\"The": 7679, "Ġretain": 7680, "isters": 7681, "Ġsubs": 7682, "ĠAT": 7683, "Ġclub": 7684, "Ġhier": 7685, "ĠPower": 7686, "DD": 7687, "Ġju": 7688, "Ġyellow": 7689, "Ġturning": 7690, "Ġfacilit": 7691, "Ġspend": 7692, "Ġseat": 7693, "istent": 7694, "ĠUN": 7695, "Ġtail": 7696, "ictor": 7697, "merican": 7698, "Ġstuff": 7699, "Ġviolence": 7700, "\\u": 7701, "\\left": 7702, "Acc": 7703, "Ġperman": 7704, "Ġnicht": 7705, "Ġextension": 7706, "Ug": 7707, "}.": 7708, "Ġbegins": 7709, "eper": 7710, "ĠBre": 7711, "ĠUK": 7712, "Ġfiles": 7713, "Ġyouth": 7714, "Ġrecorded": 7715, "âĢĻt": 7716, "However": 7717, "Ġcapable": 7718, "Ġenhance": 7719, "coming": 7720, "ullet": 7721, "Ġinfection": 7722, "ĠTV": 7723, "Ġwatching": 7724, "OF": 7725, "ĠDire": 7726, "db": 7727, "aa": 7728, "ortunately": 7729, "Ġourselves": 7730, "ĠSk": 7731, "fb": 7732, "imm": 7733, "555": 7734, "Ġstorage": 7735, "Vl": 7736, "ĠCounty": 7737, "Pe": 7738, "Ġreject": 7739, "arl": 7740, "Ġsubsequent": 7741, "301": 7742, "Ġattend": 7743, ",D": 7744, "ERT": 7745, "ounded": 7746, "Ġexceed": 7747, "ĠClin": 7748, "/e": 7749, "Ġpurs": 7750, "238": 7751, "Ġconsidering": 7752, "Ġdistributed": 7753, "254": 7754, "ĠRet": 7755, "ocument": 7756, "uj": 7757, "ĠAnother": 7758, "Ġswitch": 7759, "ooking": 7760, "*</": 7761, "239": 7762, "ĠCr": 7763, "ĠUp": 7764, "ĠJul": 7765, "Ġconsequences": 7766, ",S": 7767, "osc": 7768, "248": 7769, "ungen": 7770, "May": 7771, "mean": 7772, ",w": 7773, "228": 7774, "Ġleadership": 7775, "ĠLog": 7776, "Ġstatic": 7777, "anta": 7778, "Although": 7779, "Xz": 7780, "Ġchallenges": 7781, "gal": 7782, "BA": 7783, "Ġwaste": 7784, "Ġtwice": 7785, "Ġpairs": 7786, "ĠTrue": 7787, "290": 7788, "ĠFather": 7789, "Gr": 7790, "Ġinsurance": 7791, "ensus": 7792, "Ġpy": 7793, "Ġphosph": 7794, "fil": 7795, "-packages": 7796, "ĠLuc": 7797, "Ġlit": 7798, "Ġ[[": 7799, "<sup": 7800, "ishment": 7801, "Ġrapidly": 7802, "issions": 7803, "isis": 7804, "ĠSing": 7805, "Ġfurn": 7806, "pes": 7807, "irmed": 7808, "itÃ©": 7809, "Ġarmy": 7810, "aria": 7811, "Ġfashion": 7812, "orough": 7813, "ĠCentral": 7814, "(m": 7815, "[A": 7816, "Ġknowing": 7817, "approx": 7818, "ABLE": 7819, "Ġdiscipl": 7820, "ĠLearning": 7821, "Ġthrow": 7822, "Os": 7823, "Ġenzym": 7824, "Ġcompact": 7825, "Ġadding": 7826, "Ġrose": 7827, "Nl": 7828, "Ġ(\"": 7829, "Ġhole": 7830, "ĠDesign": 7831, "xic": 7832, "Bh": 7833, "Ġradius": 7834, "SR": 7835, "fficients": 7836, "Ġpartial": 7837, "750": 7838, "BD": 7839, "237": 7840, "attering": 7841, "262": 7842, "Ġprofit": 7843, "Ġhero": 7844, "=u": 7845, "uced": 7846, "imately": 7847, "249": 7848, "Vy": 7849, "Ġspecified": 7850, "253": 7851, "Ġaccounts": 7852, "ANT": 7853, "Uw": 7854, "ĠJo": 7855, "Ġcoffee": 7856, "Ġfamous": 7857, "/y": 7858, "Ġfab": 7859, "ĠINT": 7860, "Value": 7861, "lik": 7862, "itan": 7863, "Ġexplore": 7864, "Ġjoin": 7865, "Ġbudget": 7866, "(-": 7867, "bour": 7868, "Ġanswers": 7869, "ĠControl": 7870, "Ġcircuit": 7871, "-V": 7872, "Ġcurves": 7873, "Mx": 7874, "ĠIns": 7875, "246": 7876, "embly": 7877, "Ġbeam": 7878, "Ġom": 7879, "km": 7880, "Ġintegration": 7881, "ĠProble": 7882, "eries": 7883, "Ġordered": 7884, "space": 7885, "Ġspatial": 7886, ".add": 7887, "OUR": 7888, "Ġcommonly": 7889, "Ġwinter": 7890, "_v": 7891, "hl": 7892, "plete": 7893, "orial": 7894, "ernel": 7895, "Ġped": 7896, "Ġfruit": 7897, "score": 7898, "Ġordinary": 7899, "ĠEffect": 7900, "Ġsimult": 7901, "Ġreasonable": 7902, "Ġnit": 7903, "rices": 7904, "aux": 7905, "Ġimmun": 7906, "Ġworse": 7907, "create": 7908, ".select": 7909, "Ġunion": 7910, "Ġroots": 7911, "xp": 7912, "ĠWal": 7913, "water": 7914, "Ġgest": 7915, "Ġdust": 7916, "261": 7917, "015": 7918, "cat": 7919, "Ġsimulation": 7920, "Ġvec": 7921, "kz": 7922, "anch": 7923, "THE": 7924, "draw": 7925, "âĪĴ": 7926, "Ġsteel": 7927, "Ġlayers": 7928, ",P": 7929, "Ġcompetition": 7930, "296": 7931, ".index": 7932, "Ġcalculate": 7933, "Ġdivision": 7934, "ĠÃĹ": 7935, "iration": 7936, "Ġdiagram": 7937, "Ġevident": 7938, ">V": 7939, "file": 7940, "\\}": 7941, "plots": 7942, "normal": 7943, "uality": 7944, "Ġmilk": 7945, "iture": 7946, "Ġsuit": 7947, "Ġcro": 7948, "}}\\": 7949, "ALL": 7950, "gi": 7951, "Ġstrange": 7952, "Ġworry": 7953, "Ġdepending": 7954, "Ġweather": 7955, "oir": 7956, "ILL": 7957, "Ġnin": 7958, "Ġassociation": 7959, "ĠOR": 7960, "omer": 7961, "IZ": 7962, "281": 7963, "Ġnumerical": 7964, "Ġalcohol": 7965, "ped": 7966, ",[": 7967, "cw": 7968, "Ġhighlight": 7969, "fast": 7970, "Ġmolecular": 7971, "Ġinvolving": 7972, "=l": 7973, "KG": 7974, "Ġcriteria": 7975, "ĠEgypt": 7976, "Ġwalking": 7977, "_j": 7978, "236": 7979, "ACT": 7980, "ICAgICAgICAgICAgICAg": 7981, "Ġdifferential": 7982, "Ġplays": 7983, "Ġ*/Ċ": 7984, "Ġbone": 7985, "ĠTechnology": 7986, "Ġsich": 7987, "'T": 7988, "Ġsnow": 7989, "Ġloop": 7990, "adian": 7991, "Ġvillage": 7992, "Note": 7993, "oday": 7994, "lu": 7995, "DF": 7996, "Ġtheories": 7997, "Ġconstraints": 7998, "ĠLabor": 7999, "Ġrecon": 8000, "ĠNever": 8001, "Ġmaps": 8002, "Ġnegot": 8003, "tenance": 8004, "Ġsugar": 8005, "Her": 8006, "Ġhidden": 8007, "Ġanalys": 8008, "nan": 8009, "Ġhypothesis": 8010, "242": 8011, "Ġvess": 8012, "UV": 8013, "\\right": 8014, ",B": 8015, "Ġmanufacture": 8016, "Ġplayers": 8017, "Ġconcerning": 8018, "Off": 8019, "ĠAv": 8020, "Ġdecide": 8021, "(y": 8022, "oured": 8023, "']Ċ": 8024, "Af": 8025, "eller": 8026, "Ġresource": 8027, "rene": 8028, "Ġuniversal": 8029, ";s": 8030, "Ġestimates": 8031, ".in": 8032, "Ġdescribes": 8033, "ottom": 8034, "=c": 8035, "atio": 8036, "iones": 8037, "bled": 8038, "{M": 8039, "ĠMartin": 8040, "/r": 8041, "azine": 8042, "Ġdiscover": 8043, "wa": 8044, "();": 8045, "}function": 8046, "Rem": 8047, "ĠRussian": 8048, "Ġtelling": 8049, "Ġpanel": 8050, "Ke": 8051, "Ġdropped": 8052, "ĠId": 8053, "Ġimprovement": 8054, "012": 8055, "ĠProceedings": 8056, "Ġdepos": 8057, "Ġconsumption": 8058, ",L": 8059, "Just": 8060, "247": 8061, ".V": 8062, "Ġasking": 8063, "aneously": 8064, "Ġmetab": 8065, "Ġcolumns": 8066, "Ġoutl": 8067, "Ġadopted": 8068, "ĠMedic": 8069, "Ġmanaged": 8070, "Ġproportion": 8071, "Ġdepartment": 8072, "251": 8073, "aud": 8074, "Ġconsideration": 8075, "Ġprompt": 8076, "UP": 8077, "Ġduty": 8078, "ĠLee": 8079, "ympt": 8080, "ersonal": 8081, "anguages": 8082, "Ġcoast": 8083, "open": 8084, "bing": 8085, "Ġjobs": 8086, "ĠJoseph": 8087, "uing": 8088, "Ġreson": 8089, "Ġsuperior": 8090, "seud": 8091, "ĠReport": 8092, ".text": 8093, "Ġdifficulty": 8094, "Ġbeat": 8095, "stream": 8096, "Ġstre": 8097, "IES": 8098, "Ġmechanisms": 8099, "Ġadvice": 8100, "310": 8101, "oting": 8102, "non": 8103, "bin": 8104, "agen": 8105, "BM": 8106, "Reg": 8107, "285": 8108, "esian": 8109, "Ġsan": 8110, "Ġfro": 8111, "ymph": 8112, "ECT": 8113, "Ġhal": 8114, "Ġeine": 8115, "kh": 8116, "Ġintroduction": 8117, "Ġunderlying": 8118, "SH": 8119, "Ġfault": 8120, "riend": 8121, "night": 8122, "Ġintroduce": 8123, "fraid": 8124, "Ġdinner": 8125, "Ġfocused": 8126, "Ġtruly": 8127, "burg": 8128, "Ġpercentage": 8129, "Ġarticles": 8130, "ĠSuper": 8131, "Ġsounds": 8132, "Ġcrime": 8133, "ployment": 8134, "imer": 8135, "writ": 8136, "hav": 8137, "ĠArab": 8138, "Ġstick": 8139, "Ġlen": 8140, "Ġshock": 8141, "bles": 8142, "Ġteach": 8143, "Ġemployment": 8144, "Ġclothes": 8145, "{R": 8146, "390": 8147, "Ġtopic": 8148, "Uz": 8149, "BR": 8150, "ea": 8151, "Ux": 8152, "font": 8153, "tz": 8154, "Ġrend": 8155, "ĠDen": 8156, "Ġrecognize": 8157, "Ġsorry": 8158, "Right": 8159, "Ġdriving": 8160, "reme": 8161, "Ġsucceed": 8162, "rich": 8163, "emp": 8164, "311": 8165, "[a": 8166, "auge": 8167, "Ġreturns": 8168, "Ġhealthy": 8169, "Ġdependence": 8170, "ĠSP": 8171, "Ġadults": 8172, "ĠCarol": 8173, "BO": 8174, "ĠAccuracy": 8175, "Ġreplied": 8176, "Ġstructural": 8177, "ĠRoad": 8178, "Ġhumans": 8179, "icular": 8180, "\\%": 8181, "Ġvisible": 8182, "erver": 8183, "Ġnewsp": 8184, "uilding": 8185, "||(": 8186, "ĠIntroduction": 8187, "Ġcollected": 8188, "iger": 8189, "Ġattitude": 8190, "ĠList": 8191, "Ġodd": 8192, "Ġperiods": 8193, "Ġapproximation": 8194, "Ġradiation": 8195, ";return": 8196, "MF": 8197, "Ġgrew": 8198, "cor": 8199, "iac": 8200, "oking": 8201, "Ġrect": 8202, "Ġportion": 8203, "302": 8204, "Ġoutcome": 8205, "ĠSpirit": 8206, "Ġmomentum": 8207, "ĠExpl": 8208, "CV": 8209, "Ġcoefficients": 8210, "met": 8211, "LAog": 8212, "tail": 8213, "inking": 8214, "umes": 8215, "rance": 8216, "attice": 8217, "-width": 8218, "244": 8219, "ĠNature": 8220, "Ġteeth": 8221, "Ġcart": 8222, "editType": 8223, "-J": 8224, "allow": 8225, "ĠnÃ£o": 8226, "406": 8227, "Ġsed": 8228, "ĠWood": 8229, "Ġevaluate": 8230, "Ġobserve": 8231, "Ġwire": 8232, "Ġearn": 8233, "267": 8234, "-ind": 8235, "arse": 8236, "Ġguy": 8237, "ĠMont": 8238, "ĠConsider": 8239, "Ġlogic": 8240, "Ġcomplexity": 8241, "ĠTer": 8242, "/G": 8243, "ĠMel": 8244, "Ġprofile": 8245, "-ex": 8246, "asm": 8247, "Ġquantity": 8248, "ĠHand": 8249, "Ġdrawing": 8250, "oz": 8251, "lie": 8252, "Ġanswered": 8253, "ĠEs": 8254, "Ġequally": 8255, "Ġinvestigation": 8256, "Ġreplaced": 8257, "Ġwebs": 8258, "ĠBusiness": 8259, "Ġfellow": 8260, "257": 8261, "Ġmostly": 8262, "ĠAdv": 8263, "009": 8264, "Ġremem": 8265, "ervice": 8266, "ĠGrand": 8267, "None": 8268, "akers": 8269, "_size": 8270, "adding": 8271, "Ġintent": 8272, "Ġclar": 8273, "ĠAnswer": 8274, "QD": 8275, "esis": 8276, "iral": 8277, "tl": 8278, "Ġpleasure": 8279, "Ġdemonstrate": 8280, "Ġdirected": 8281, "oked": 8282, "ĠEll": 8283, "full": 8284, "Ġplayer": 8285, "ĠDou": 8286, "-old": 8287, "MDAw": 8288, "Ġoptical": 8289, "Ġspecifically": 8290, "Ġacademic": 8291, "Ġsensitive": 8292, "orted": 8293, "Ġremind": 8294, "Ġallowing": 8295, "First": 8296, "ĠSund": 8297, "Ġmarkets": 8298, "list": 8299, "Ġfunds": 8300, "Ġafraid": 8301, "ĠMedical": 8302, "ĠPers": 8303, "asant": 8304, "269": 8305, "340": 8306, "Ġevil": 8307, "Ġconfiguration": 8308, "effect": 8309, "Ġdefect": 8310, "grid": 8311, "Ġil": 8312, "Ġcontributions": 8313, "_h": 8314, "pan": 8315, "igation": 8316, "Ġintellectual": 8317, "Ġpresents": 8318, "vv": 8319, "Ġcentre": 8320, ",R": 8321, "Ġdisturb": 8322, "\"><": 8323, "quare": 8324, "Ġblow": 8325, "bel": 8326, "Ġdesc": 8327, "erman": 8328, "Ġgarden": 8329, "Ġnur": 8330, "\"Yes": 8331, "Ġhardly": 8332, "Point": 8333, "Ġwriter": 8334, "414": 8335, "Ġliber": 8336, "Yx": 8337, "Ġvaluable": 8338, "dG": 8339, "Ġmetric": 8340, "328": 8341, "iy": 8342, "ente": 8343, "clusions": 8344, "Ġfirms": 8345, "Ġdefend": 8346, "Ġ->": 8347, "agon": 8348, "ECBAg": 8349, "RL": 8350, "ĠMale": 8351, "{x": 8352, ",g": 8353, "Ġelectronic": 8354, "Ġformat": 8355, "ĠAtt": 8356, "ĠLes": 8357, "DE": 8358, "Ġgentle": 8359, "DA": 8360, "Ġcov": 8361, "Ġfinger": 8362, "330": 8363, "Ġthirty": 8364, "Ġshell": 8365, ".data": 8366, "Ġlisted": 8367, "pered": 8368, "Ġhem": 8369, "Ġmolecules": 8370, "ĠBoard": 8371, "Ġorg": 8372, "YS": 8373, "Ġpil": 8374, "after": 8375, "Ġcert": 8376, "ĠLibrary": 8377, "ĠTim": 8378, "Ġcareful": 8379, "ĠBill": 8380, "272": 8381, ";r": 8382, "Ġsilence": 8383, "clusive": 8384, "ĠWater": 8385, "Ġchart": 8386, "Iu": 8387, "Ġsatisfied": 8388, "itial": 8389, "Ġinduced": 8390, "ĠThree": 8391, "Ġstages": 8392, "Ġsymmetry": 8393, "ĠLatin": 8394, "Ġrare": 8395, "Ġho": 8396, "888": 8397, "ĠCatholic": 8398, "ĠOper": 8399, "\"We": 8400, "(g": 8401, "Ġtall": 8402, "Ġalgorithms": 8403, "Ġinterface": 8404, "elihood": 8405, "777": 8406, "\"S": 8407, "ĠMach": 8408, "Cor": 8409, "ĠPubl": 8410, "vc": 8411, "tri": 8412, "ĠConst": 8413, "Ġtrained": 8414, "Ġcoefficient": 8415, "Ġvast": 8416, "ĠExt": 8417, "Ġrealize": 8418, "cin": 8419, "Ġextensive": 8420, "Ġdil": 8421, "ĠCam": 8422, "Ġvert": 8423, "Ġru": 8424, "Ġnine": 8425, "Mc": 8426, "ocial": 8427, "Ġcycl": 8428, "Ġtone": 8429, "Ġmovements": 8430, "288": 8431, "ĠHill": 8432, "Qg": 8433, "rb": 8434, "Ġdiffer": 8435, "Ġtaught": 8436, "Ġcluster": 8437, "aurant": 8438, "259": 8439, "Ġexception": 8440, "cell": 8441, "384": 8442, "Ġsubset": 8443, "CK": 8444, "ieval": 8445, "Ġmarketing": 8446, "State": 8447, "areness": 8448, "(function": 8449, "Key": 8450, "ĠSecret": 8451, "ĠWomen": 8452, "VD": 8453, "-v": 8454, "325": 8455, "264": 8456, "aul": 8457, "bur": 8458, "auc": 8459, "ĠMuseum": 8460, "Ġdecay": 8461, "idade": 8462, "quir": 8463, "defined": 8464, "ĠGet": 8465, "{F": 8466, "263": 8467, "ascular": 8468, "rogen": 8469, "unning": 8470, "Ġchap": 8471, "ĠTimes": 8472, "-day": 8473, "Ġprecisely": 8474, "Ġmagnitude": 8475, "Ġwav": 8476, "ĠSon": 8477, "Ġlisten": 8478, "soft": 8479, "Ass": 8480, "ques": 8481, "CTION": 8482, "Ġraise": 8483, "Image": 8484, "Ġtells": 8485, "Ġexamination": 8486, "ĠCre": 8487, "Ġstands": 8488, "Ġproteins": 8489, "tw": 8490, "/train": 8491, "Ġnoticed": 8492, "Ġtong": 8493, "Ġnom": 8494, "HS": 8495, "Ġtraffic": 8496, "ez": 8497, "Rec": 8498, "Ġcompens": 8499, "aret": 8500, "Ġsecure": 8501, "Ġeditor": 8502, "dagger": 8503, "fit": 8504, "298": 8505, "atrix": 8506, "Ġescape": 8507, "]$": 8508, "ĠHamilton": 8509, "266": 8510, "Ġincreasingly": 8511, "ocracy": 8512, "Ġcontemporary": 8513, "Another": 8514, "ogue": 8515, "ĠEp": 8516, "Ġcloud": 8517, "Ġconventional": 8518, "nb": 8519, "Ġwine": 8520, "Ġfourth": 8521, "ARY": 8522, "Def": 8523, "Ġunable": 8524, "Ġreleased": 8525, "Ġvul": 8526, "(A": 8527, "Ġtermin": 8528, "Lm": 8529, "white": 8530, "Ġtrip": 8531, "Ġaccum": 8532, "Ġpassing": 8533, "aylor": 8534, "277": 8535, "Ġarter": 8536, "Ġalter": 8537, "315": 8538, "Ġgrown": 8539, ".a": 8540, "Ġgrass": 8541, "Ġtoler": 8542, "quest": 8543, "Ġ).": 8544, "ulus": 8545, "Bo": 8546, "cb": 8547, "ĠType": 8548, ".st": 8549, "Ġdf": 8550, "Ġbinding": 8551, "ĠTur": 8552, "iar": 8553, "ĠStudy": 8554, "ulum": 8555, "Ġtensor": 8556, "Rl": 8557, "cx": 8558, "Ġruns": 8559, "iem": 8560, "Ġstatistical": 8561, "Ġpreparation": 8562, "Zl": 8563, "host": 8564, "ĠApplic": 8565, "erted": 8566, "Ġcontrad": 8567, "Ġsig": 8568, "Ã¨re": 8569, "Ġhouses": 8570, ".type": 8571, "ĠCare": 8572, ">J": 8573, "astern": 8574, "Ġavec": 8575, "Well": 8576, "rip": 8577, "Ġjoined": 8578, "irical": 8579, "Ġmodes": 8580, "noon": 8581, "Out": 8582, "Ġproperly": 8583, "Ġshel": 8584, "Ġtransmission": 8585, "ĠNav": 8586, "onald": 8587, "iana": 8588, "Ġtaste": 8589, "Îµ": 8590, "âĢĶa": 8591, "345": 8592, "Ġbuff": 8593, "291": 8594, "AZ": 8595, "Ġcrisis": 8596, "cons": 8597, "LO": 8598, "Ġneuro": 8599, "Ġclip": 8600, "Size": 8601, "Ġreconst": 8602, "scill": 8603, "ĠVis": 8604, "Ġexplo": 8605, "Ġske": 8606, "Ġstruggle": 8607, "claim": 8608, "Ġtranslation": 8609, "Ġpartner": 8610, "Ġenemy": 8611, "365": 8612, "Ġdism": 8613, "313": 8614, "Ġcontribute": 8615, "Ġsynd": 8616, "Ġrail": 8617, "Fy": 8618, "Ġwet": 8619, "ĠTexas": 8620, "ĠCorpor": 8621,
[...]
