{"version": "1.0", "truncation": null, "padding": null, "added_tokens": [{"id": 6388, "content": "<|endoftext|>", "single_word": false, "lstrip": false, "rstrip": false, "normalized": false, "special": true}, {"id": 6389, "content": "<|im_start|>", "single_word": false, "lstrip": false, "rstrip": false, "normalized": false, "special": true}, {"id": 6390, "content": "<|im_end|>", "single_word": false, "lstrip": false, "rstrip": false, "normalized": false, "special": true}, {"id": 6391, "content": "<|object_ref_start|>", "normalized": false, "lstrip": false, "rstrip": false, "single_word": false, "special": true}, {"id": 6392, "content": "<|object_ref_end|>", "normalized": false, "lstrip": false, "rstrip": false, "single_word": false, "special": true}, {"id": 6393, "content": "<|box_start|>", "normalized": false, "lstrip": false, "rstrip": false, "single_word": false, "special": true}, {"id": 6394, "content": "<|box_end|>", "normalized": false, "lstrip": false, "rstrip": false, "single_word": false, "special": true}, {"id": 6395, "content": "<|quad_start|>", "normalized": false, "lstrip": false, "rstrip": false, "single_word": false, "special": true}, {"id": 6396, "content": "<|quad_end|>", "normalized": false, "lstrip": false, "rstrip": false, "single_word": false, "special": true}, {"id": 6397, "content": "<|vision_start|>", "normalized": false, "lstrip": false, "rstrip": false, "single_word": false, "special": true}, {"id": 6398, "content": "<|vision_end|>", "normalized": false, "lstrip": false, "rstrip": false, "single_word": false, "special": true}, {"id": 6399, "content": "<|vision_pad|>", "normalized": false, "lstrip": false, "rstrip": false, "single_word": false, "special": true}, {"id": 6400, "content": "<|image_pad|>", "normalized": false, "lstrip": false, "rstrip": false, "single_word": false, "special": true}, {"id": 6401, "content": "<|video_pad|>", "normalized": false, "lstrip": false, "rstrip": false, "single_word": false, "special": true}, {"id": 6402, "content": "<tool_call>", "lstrip": false, "normalized": false, "rstrip": false, "single_word": false, "special": false}, {"id": 6403, "content": "</tool_call>", "lstrip": false, "normalized": false, "rstrip": false, "single_word": false, "special": false}, {"id": 6404, "content": "<|fim_prefix|>", "lstrip": false, "normalized": false, "rstrip": false, "single_word": false, "special": false}, {"id": 6405, "content": "<|fim_middle|>", "lstrip": false, "normalized": false, "rstrip": false, "single_word": false, "special": false}, {"id": 6406, "content": "<|fim_suffix|>", "lstrip": false, "normalized": false, "rstrip": false, "single_word": false, "special": false}, {"id": 6407, "content": "<|fim_pad|>", "lstrip": false, "normalized": false, "rstrip": false, "single_word": false, "special": false}, {"id": 6408, "content": "<|repo_name|>", "lstrip": false, "normalized": false, "rstrip": false, "single_word": false, "special": false}, {"id": 6409, "content": "<|file_sep|>", "lstrip": false, "normalized": false, "rstrip": false, "single_word": false, "special": false}, {"id": 6410, "content": "<tool_response>", "lstrip": false, "normalized": false, "rstrip": false, "single_word": false, "special": false}, {"id": 6411, "content": "</tool_response>", "lstrip": false, "normalized": false, "rstrip": false, "single_word": false, "special": false}, {"id": 6412, "content": "<think>", "lstrip": false, "normalized": false, "rstrip": false, "single_word": false, "special": false}, {"id": 6413, "content": "</think>", "lstrip": false, "normalized": false, "rstrip": false, "single_word": false, "special": false}], "normalizer": {"type": "NFC"}, "pre_tokenizer": {"type": "Sequence", "pretokenizers": [{"type": "Split", "pattern": {"Regex": "(?i:'s|'t|'re|'ve|'m|'ll|'d)|[^\\r\\n\\p{L}\\p{N}]?[\\p{L}\\p{M}]+|\\p{N}| ?[^\\s\\p{L}\\p{M}\\p{N}]+[\\r\\n]*|\\s*[\\r\\n]+|\\s+(?!\\S)|\\s+"}, "behavior": "Isolated", "invert": false}, {"type": "ByteLevel", "add_prefix_space": false, "trim_offsets": false, "use_regex": false}]}, "post_processor": {"type": "ByteLevel", "add_prefix_space": false, "trim_offsets": false, "use_regex": false}, "decoder": {"type": "ByteLevel", "add_prefix_space": false, "trim_offsets": false, "use_regex": false}, "model": {"type": "BPE", "dropout": null, "unk_token": null, "continuing_subword_prefix": "", "end_of_word_suffix": "", "fuse_unk": false, "byte_fallback": false, "ignore_merges": false, "vocab": {"!": 0, "\"": 1, "#": 2, "$": 3, "%": 4, "&": 5, "'": 6, "(": 7, ")": 8, "*": 9, "+": 10, ",": 11, "-": 12, ".": 13, "/": 14, "0": 15, "1": 16, "2": 17, "3": 18, "4": 19, "5": 20, "6": 21, "7": 22, "8": 23, "9": 24, ":": 25, ";": 26, "<": 27, "=": 28, ">": 29, "?": 30, "@": 31, "A": 32, "B": 33, "C": 34, "D": 35, "E": 36, "F": 37, "G": 38, "H": 39, "I": 40, "J": 41, "K": 42, "L": 43, "M": 44, "N": 45, "O": 46, "P": 47, "Q": 48, "R": 49, "S": 50, "T": 51, "U": 52, "V": 53, "W": 54, "X": 55, "Y": 56, "Z": 57, "[": 58, "\\": 59, "]": 60, "^": 61, "_": 62, "`": 63, "a": 64, "b": 65, "c": 66, "d": 67, "e": 68, "f": 69, "g": 70, "h": 71, "i": 72, "j": 73, "k": 74, "l": 75, "m": 76, "n": 77, "o": 78, "p": 79, "q": 80, "r": 81, "s": 82, "t": 83, "u": 84, "v": 85, "w": 86, "x": 87, "y": 88, "z": 89, "{": 90, "|": 91, "}": 92, "~": 93, "¡": 94, "¢": 95, "£": 96, "¤": 97, "¥": 98, "¦": 99, "§": 100, "¨": 101, "©": 102, "ª": 103, "«": 104, "¬": 105, "®": 106, "¯": 107, "°": 108, "±": 109, "²": 110, "³": 111, "´": 112, "µ": 113, "¶": 114, "·": 115, "¸": 116, "¹": 117, "º": 118, "»": 119, "¼": 120, "½": 121, "¾": 122, "¿": 123, "À": 124, "Á": 125, "Â": 126, "Ã": 127, "Ä": 128, "Å": 129, "Æ": 130, "Ç": 131, "È": 132, "É": 133, "Ê": 134, "Ë": 135, "Ì": 136, "Í": 137, "Î": 138, "Ï": 139, "Ð": 140, "Ñ": 141, "Ò": 142, "Ó": 143, "Ô": 144, "Õ": 145, "Ö": 146, "×": 147, "Ø": 148, "Ù": 149, "Ú": 150, "Û": 151, "Ü": 152, "Ý": 153, "Þ": 154, "ß": 155, "à": 156, "á": 157, "â": 158, "ã": 159, "ä": 160, "å": 161, "æ": 162, "ç": 163, "è": 164, "é": 165, "ê": 166, "ë": 167, "ì": 168, "í": 169, "î": 170, "ï": 171, "ð": 172, "ñ": 173, "ò": 174, "ó": 175, "ô": 176, "õ": 177, "ö": 178, "÷": 179, "ø": 180, "ù": 181, "ú": 182, "û": 183, "ü": 184, "ý": 185, "þ": 186, "ÿ": 187, "Ā": 188, "ā": 189, "Ă": 190, "ă": 191, "Ą": 192, "ą": 193, "Ć": 194, "ć": 195, "Ĉ": 196, "ĉ": 197, "Ċ": 198, "ċ": 199, "Č": 200, "č": 201, "Ď": 202, "ď": 203, "Đ": 204, "đ": 205, "Ē": 206, "ē": 207, "Ĕ": 208, "ĕ": 209, "Ė": 210, "ė": 211, "Ę": 212, "ę": 213, "Ě": 214, "ě": 215, "Ĝ": 216, "ĝ": 217, "Ğ": 218, "ğ": 219, "Ġ": 220, "ġ": 221, "Ģ": 222, "ģ": 223, "Ĥ": 224, "ĥ": 225, "Ħ": 226, "ħ": 227, "Ĩ": 228, "ĩ": 229, "Ī": 230, "ī": 231, "Ĭ": 232, "ĭ": 233, "Į": 234, "į": 235, "İ": 236, "ı": 237, "Ĳ": 238, "ĳ": 239, "Ĵ": 240, "ĵ": 241, "Ķ": 242, "ķ": 243, "ĸ": 244, "Ĺ": 245, "ĺ": 246, "Ļ": 247, "ļ": 248, "Ľ": 249, "ľ": 250, "Ŀ": 251, "ŀ": 252, "Ł": 253, "ł": 254, "Ń": 255, "ĠĠ": 256, "ĠĠĠĠ": 257, "in": 258, "Ġt": 259, "ĠĠĠĠĠĠĠĠ": 260, "er": 261, "ĠĠĠ": 262, "on": 263, "Ġa": 264, "re": 265, "at": 266, "st": 267, "or": 268, "Ġth": 269, "ĊĊ": 270, "Ġc": 271, "le": 272, "Ġs": 273, "it": 274, "an": 275, "ar": 276, "al": 277, "Ġthe": 278, "Ġp": 279, "Ġf": 280, "ou": 281, "Ġ=": 282, "is": 283, "ĠĠĠĠĠĠĠ": 284, "ing": 285, "es": 286, "Ġw": 287, "ion": 288, "ed": 289, "ic": 290, "Ġb": 291, "Ġd": 292, "et": 293, "Ġm": 294, "Ġo": 295, "ro": 296, "as": 297, "el": 298, "ct": 299, "nd": 300, "Ġin": 301, "Ġh": 302, "ent": 303, "id": 304, "Ġn": 305, "am": 306, "ĠĠĠĠĠĠĠĠĠĠĠ": 307, "Ġto": 308, "Ġre": 309, "--": 310, "Ġ{": 311, "Ġof": 312, "om": 313, "im": 314, "Ġ(": 315, "Ġand": 316, "ur": 317, "se": 318, "Ġl": 319, "ex": 320, "ĠS": 321, "ad": 322, "Ġ\"": 323, "ch": 324, "ut": 325, "if": 326, "Ġ}": 327, "em": 328, "ol": 329, "th": 330, "Ġg": 331, "ig": 332, "iv": 333, "ce": 334, "od": 335, "Ġv": 336, "ate": 337, "ĠT": 338, "ag": 339, "ot": 340, "us": 341, "ĠC": 342, "Ġst": 343, "ĠI": 344, "un": 345, "ul": 346, "ĠA": 347, "ow": 348, "Ġ'": 349, "ew": 350, "Ġ<": 351, "ation": 352, "Ġfor": 353, "ab": 354, "ort": 355, "um": 356, "Ġis": 357, "pe": 358, "tr": 359, "Ġy": 360, "ist": 361, "he": 362, "Ġe": 363, "lo": 364, "ĠM": 365, "Ġbe": 366, "ers": 367, "Ġon": 368, "Ġcon": 369, "ap": 370, "ub": 371, "ĠP": 372, "ass": 373, "int": 374, "ly": 375, "Ġ$": 376, "ir": 377, "nt": 378, "end": 379, "Ġde": 380, "ith": 381, "out": 382, "turn": 383, "our": 384, "lic": 385, "res": 386, "pt": 387, "Ġthis": 388, "Ġif": 389, "ĠD": 390, "ver": 391, "age": 392, "ĠB": 393, "ext": 394, "Ġthat": 395, "ĠR": 396, "Ġit": 397, "ĠF": 398, "Ġr": 399, "os": 400, "and": 401, "Ġas": 402, "ect": 403, "ke": 404, "con": 405, "ĠL": 406, "qu": 407, "Ġwith": 408, "de": 409, "ĠN": 410, "Ġal": 411, "op": 412, "up": 413, "get": 414, "ile": 415, "Ġan": 416, "ore": 417, "Ġpro": 418, "ain": 419, "ĠW": 420, "ĠE": 421, "Ġcom": 422, "Ġreturn": 423, "art": 424, "ĠH": 425, "ack": 426, "Ġor": 427, "est": 428, "ĠG": 429, "able": 430, "Ġ-": 431, "ine": 432, "ind": 433, "ity": 434, "Ġ+": 435, "ight": 436, "orm": 437, "ult": 438, "pl": 439, "Ġnew": 440, "Ġj": 441, "Ġfrom": 442, "Ġex": 443, "ĠO": 444, "ld": 445, "Ġ[": 446, "Ġle": 447, ".s": 448, "',": 449, "ant": 450, "Ġat": 451, "Ġch": 452, "ave": 453, "ang": 454, "Ġare": 455, "Ġint": 456, "âĢĻ": 457, "_t": 458, "ial": 459, "ive": 460, "Ġclass": 461, "Ġnot": 462, "og": 463, "ord": 464, "all": 465, "ff": 466, "ont": 467, "ime": 468, "are": 469, "ĠU": 470, "Ġpr": 471, "Ġ:": 472, "ies": 473, "ize": 474, "ure": 475, "Ġby": 476, "ire": 477, "ice": 478, "ast": 479, "ption": 480, "cl": 481, "##": 482, "Ġhe": 483, ").": 484, "Ġwas": 485, "ip": 486, "this": 487, "Ġu": 488, "ĠThe": 489, "ide": 490, "ace": 491, "ac": 492, "Ġwe": 493, "ject": 494, "ak": 495, "ve": 496, "ath": 497, "ust": 498, "que": 499, "Ġres": 500, "))": 501, "'s": 502, "Ġk": 503, "ans": 504, "Ġi": 505, "Ġus": 506, "one": 507, "ail": 508, "name": 509, "Ġ/": 510, "Ġ&": 511, "ach": 512, "div": 513, "ell": 514, "Ġhave": 515, "err": 516, "ull": 517, "ĠJ": 518, "_p": 519, "St": 520, "Ġpl": 521, "form": 522, "dd": 523, "Ġget": 524, "rr": 525, "ome": 526, "ĠâĢ": 527, "cc": 528, "In": 529, "les": 530, "ong": 531, "Ġcan": 532, "ĠV": 533, "pr": 534, "Ġun": 535, "row": 536, "Ġdo": 537, "ll": 538, "Ġel": 539, "Ġself": 540, "ated": 541, "ary": 542, "Ġ.": 543, "te": 544, "_c": 545, "Ġab": 546, "Ġ#": 547, "ob": 548, "app": 549, "Ġall": 550, "ition": 551, "ance": 552, "ear": 553, "Ġwill": 554, "ĠĠĠĠĠĠĠĠĠ": 555, "return": 556, "data": 557, "Re": 558, "ple": 559, "ther": 560, "Ġout": 561, "),": 562, "Ġhas": 563, "so": 564, "Ġup": 565, "ax": 566, "ge": 567, "per": 568, "ich": 569, "Ġbut": 570, "ĠĊ": 571, "Ġ_": 572, "add": 573, "self": 574, "ens": 575, "ake": 576, "Ġgo": 577, "Ġfunction": 578, "ĠK": 579, "Ġset": 580, ".m": 581, "ally": 582, "set": 583, "ep": 584, "âĢĻs": 585, "bo": 586, "def": 587, "ec": 588, "ĠIn": 589, "ph": 590, "Ġ|": 591, "ence": 592, "Id": 593, "ug": 594, "eth": 595, "cont": 596, "Ġso": 597, "pro": 598, "ss": 599, "own": 600, "oint": 601, "ous": 602, "The": 603, "ĠĠĠĠĠĠĠĠĠĠĠĠĠĠĠĠĠĠĠĠĠĠĠĠĠĠĠĠĠĠĠĠ": 604, "eg": 605, "key": 606, "ĠSt": 607, "Ġar": 608, "fer": 609, "Ġmore": 610, "ations": 611, "ents": 612, "Ġhis": 613, "Ġthey": 614, "ĠY": 615, "use": 616, "ne": 617, "ish": 618, "old": 619, "Ġper": 620, "ings": 621, "Ġdata": 622, "ef": 623, "Ġone": 624, "Ġname": 625, "Ġtrue": 626, "val": 627, "led": 628, "Ġne": 629, "Ġend": 630, "cre": 631, "ark": 632, "log": 633, "Ex": 634, "error": 635, "Ġnull": 636, "Ġmy": 637, "ict": 638, "ator": 639, "âĢĿ": 640, "Ġpre": 641, "Ġx": 642, "clude": 643, "arg": 644, "ov": 645, "Ġ>": 646, "Ġtheir": 647, "')": 648, "ick": 649, "LE": 650, "Ġprivate": 651, "tem": 652, "user": 653, "Ġ)": 654, "com": 655, "_b": 656, "Ġtime": 657, "roup": 658, "umber": 659, "Ġwhich": 660, "Ġany": 661, "we": 662, "Ġvalue": 663, "nder": 664, "gr": 665, "Ġno": 666, "fig": 667, "ions": 668, "Ġabout": 669, "Ġover": 670, "ca": 671, "SE": 672, "Ġro": 673, "sh": 674, "Type": 675, "son": 676, "new": 677, "ern": 678, "].": 679, "ical": 680, "uth": 681, "ix": 682, "Ġtype": 683, "var": 684, "Ġpart": 685, "value": 686, "utton": 687, "ose": 688, "Ã©": 689, "pos": 690, "ng": 691, "using": 692, "ates": 693, "ely": 694, "Ġwork": 695, "inal": 696, "Ġsp": 697, "Ġwhen": 698, "ĠĠĠĠĠĠ": 699, "to": 700, "lement": 701, "ash": 702, "Ġuse": 703, "Ġad": 704, "include": 705, "Ġother": 706, "ms": 707, "Ġbeen": 708, "ml": 709, "co": 710, "ann": 711, "lock": 712, "const": 713, "Ġsup": 714, "date": 715, "Ġhad": 716, "Ġwere": 717, "Ġwould": 718, "ĠâĢľ": 719, "iss": 720, "Ġour": 721, "class": 722, "raw": 723, "Data": 724, "Ġsome": 725, "fter": 726, "round": 727, "view": 728, "Ġthere": 729, "du": 730, "of": 731, "line": 732, "Ġher": 733, "ise": 734, "min": 735, "Int": 736, "Ġlike": 737, "ody": 738, "Ġlet": 739, "Ġalso": 740, "ĠIt": 741, "url": 742, "ors": 743, "igh": 744, "Ġthan": 745, "ating": 746, "ĠThis": 747, "ref": 748, "_S": 749, "Ġstatic": 750, "roll": 751, "Ġjust": 752, "Ġresult": 753, "ian": 754, "Ġthem": 755, "der": 756, "reak": 757, "Con": 758, "ule": 759, "arr": 760, "Ġinto": 761, "ied": 762, "Ġ\\": 763, "],": 764, "wo": 765, "als": 766, "Ġwhat": 767, "Ġpos": 768, "ages": 769, "ues": 770, "_T": 771, "(s": 772, "Ġcase": 773, "ponent": 774, "Ġz": 775, "let": 776, "red": 777, "Ġ,": 778, "(t": 779, "Ġfirst": 780, "word": 781, "ĠTr": 782, "cent": 783, "lection": 784, "Ġonly": 785, "Ġprint": 786, "mer": 787, "ock": 788, "Text": 789, "Ġits": 790, "Ġback": 791, "Ġneed": 792, "Ġcl": 793, "Ġsub": 794, "Ġla": 795, "((": 796, "Ġstart": 797, "ner": 798, "Ġent": 799, "its": 800, "item": 801, "ĠWe": 802, "ĠQ": 803, "ics": 804, "Ġunder": 805, ");": 806, "ices": 807, "SS": 808, "Ġthen": 809, "reat": 810, "ious": 811, "ek": 812, "irect": 813, "cript": 814, "ning": 815, "Ġmay": 816, "ible": 817, "und": 818, "sum": 819, "Ġhow": 820, "To": 821, "index": 822, "Ġind": 823, "ĠHe": 824, "ful": 825, "Ġshould": 826, "opy": 827, "ier": 828, "ote": 829, "Ġtest": 830, "Ġbet": 831, "ular": 832, "ting": 833, "Ġmake": 834, "Tr": 835, "Ġafter": 836, "rc": 837, "define": 838, "Ġright": 839, "right": 840, "Ġlong": 841, "ĠPro": 842, "ptions": 843, ".g": 844, "pace": 845, "mp": 846, "Ġmin": 847, "action": 848, "type": 849, "util": 850, "text": 851, "Ġfl": 852, "br": 853, "fore": 854, "ins": 855, "-s": 856, "ĠInt": 857, "Ġshe": 858, "Ġexp": 859, "unc": 860, "print": 861, "Ġform": 862, "Ġdr": 863, "input": 864, "Ġtrans": 865, "order": 866, "By": 867, "ities": 868, "uff": 869, "play": 870, "Ġcomp": 871, "ments": 872, "az": 873, "be": 874, "Ġnumber": 875, "Ġrequire": 876, "ĠEx": 877, "Ġkey": 878, "Ġtwo": 879, "Ġsize": 880, "Ġwhere": 881, "result": 882, "ĠĠĠĠĠĠĠĠĠĠĠĠĠĠĠĠĠĠĠĠĠĠĠĠĠĠĠĠĠĠĠ": 883, "uch": 884, "ative": 885, "ger": 886, "Ġarg": 887, "Ġwhile": 888, "Ġrec": 889, "Ġdif": 890, "Ġlook": 891, "ĊĊĊ": 892, "Ġcould": 893, "ends": 894, "ures": 895, "Ġknow": 896, "ets": 897, "ĠIf": 898, "ĠSh": 899, "back": 900, "Ġhand": 901, "Im": 902, "Ġmost": 903, "Ġnow": 904, "rough": 905, "(n": 906, "-m": 907, "Ġevery": 908, "-b": 909, "trans": 910, "Ġpoint": 911, "Ġmod": 912, "Ġerror": 913, "Ġtext": 914, "Ġshow": 915, "Ġfind": 916, "span": 917, "Ġcurrent": 918, "Ġused": 919, "Ġplay": 920, "Ġlog": 921, "Ġsee": 922, "Ġhelp": 923, "Ġthese": 924, "Ġdown": 925, "Ġeven": 926, "from": 927, "(d": 928, "label": 929, "ized": 930, "Ġitem": 931, "man": 932, "ample": 933, "He": 934, "Ġdid": 935, "Ġthrough": 936, "ĠAn": 937, "ouse": 938, "ler": 939, "Ġlast": 940, "Ġevent": 941, "ily": 942, "lear": 943, "Ġagain": 944, "html": 945, "uthor": 946, "Ġline": 947, "Ġdoes": 948, "ars": 949, "face": 950, "Ġ`": 951, "_A": 952, "ature": 953, "ected": 954, "Ġbefore": 955, "ale": 956, "other": 957, "Ġbecause": 958, "ik": 959, "reg": 960, "Ġdist": 961, "Ġstate": 962, "att": 963, "Ġhere": 964, "ined": 965, "Ġfinal": 966, "Key": 967, "LO": 968, "Ġrun": 969, "ĠX": 970, "ym": 971, "ces": 972, "_N": 973, "ared": 974, "ward": 975, "ited": 976, "itch": 977, "Box": 978, "ife": 979, "Ġac": 980, "Ġmodel": 981, "Ġcall": 982, "Ġatt": 983, "vert": 984, "Ġdec": 985, "oun": 986, "fr": 987, "formation": 988, "aj": 989, "Ġwell": 990, "ĠAs": 991, "aint": 992, "Ġsim": 993, "ĠAr": 994, "mon": 995, "til": 996, "):": 997, "Set": 998, "Ġpres": 999, "array": 1000, "We": 1001, "At": 1002, "ender": 1003, "Ġgood": 1004, "ational": 1005, "Ġusing": 1006, "_B": 1007, "Ġ:=": 1008, "time": 1009, "function": 1010, "by": 1011, "ĠĠĠĠĠĠĠĠĠĠĠĠĠĠĠĠĠ": 1012, "\\n": 1013, "summary": 1014, "Ġ($": 1015, "ident": 1016, "Ġmethod": 1017, "ott": 1018, "less": 1019, "package": 1020, "urs": 1021, "pre": 1022, "ma": 1023, "Ġfound": 1024, "par": 1025, "imes": 1026, ".e": 1027, "ains": 1028, "Ġpost": 1029, "-d": 1030, "Ġsuch": 1031, "select": 1032, "Ġthink": 1033, "Ġdiffer": 1034, "plate": 1035, "ĠFor": 1036, "Ġmuch": 1037, "uc": 1038, "char": 1039, "mit": 1040, "aking": 1041, "Ġgener": 1042, "ache": 1043, "work": 1044, "Ġcheck": 1045, "Ġ((": 1046, "the": 1047, "-c": 1048, "Ġopen": 1049, "Ġnext": 1050, "Ġfollow": 1051, "content": 1052, "image": 1053, "Un": 1054, "Ġgame": 1055, "rows": 1056, "Ġpath": 1057, "Ġeach": 1058, "ĠPl": 1059, "Ġsupport": 1060, "rem": 1061, "Ġown": 1062, "count": 1063, "ually": 1064, "ience": 1065, "search": 1066, "Ġsign": 1067, "Ġet": 1068, "ĠĠĠĠĠĠĠĠĠĠ": 1069, "ĠApp": 1070, "Ġthose": 1071, "off": 1072, "Ġsystem": 1073, "Ġbest": 1074, "code": 1075, "Ġsame": 1076, "uss": 1077, "ĠZ": 1078, "Ġmade": 1079, "true": 1080, "AB": 1081, "ified": 1082, "Ġgroup": 1083, "Ġfin": 1084, "Ġworld": 1085, "ty": 1086, "Ġprocess": 1087, "(b": 1088, "arn": 1089, "ives": 1090, "Ġmain": 1091, "AG": 1092, "valid": 1093, "Ġcolor": 1094, "Ġreport": 1095, "Ġtake": 1096, "Ġtop": 1097, "Ġfree": 1098, "ĠOn": 1099, "eta": 1100, "Ġaction": 1101, "Over": 1102, "ĠĠĠĠĠĠĠĠĠĠĠĠĠĠĠĠĠĠĠĠĠĠĠĠĠĠĠĠĠĠĠĠĠĠĠ": 1103, "not": 1104, "Ġindex": 1105, "her": 1106, "On": 1107, "Ġreal": 1108, "Ġmax": 1109, "land": 1110, "test": 1111, "Ġinput": 1112, "Ġart": 1113, "Ġbetween": 1114, "ground": 1115, "Class": 1116, "for": 1117, "ĠâĢĶ": 1118, "Ġke": 1119, "Ġtable": 1120, "sub": 1121, "Ġhead": 1122, "Ġmust": 1123, "Ġorder": 1124, "over": 1125, "Ġsay": 1126, "static": 1127, "head": 1128, "rg": 1129, "Ġproduct": 1130, "This": 1131, "Ġinformation": 1132, "private": 1133, "ced": 1134, "Param": 1135, "table": 1136, "Prop": 1137, "ĠAll": 1138, "box": 1139, "ĠTo": 1140, "iter": 1141, "Sh": 1142, "uration": 1143, "come": 1144, "ization": 1145, "bl": 1146, "check": 1147, "ags": 1148, "Ġresponse": 1149, "US": 1150, "Ġcode": 1151, "_H": 1152, "Ġwithout": 1153, "Ġsol": 1154, "Ġref": 1155, "aining": 1156, "Ġstill": 1157, "med": 1158, "Ġcap": 1159, "Ġfield": 1160, "iven": 1161, "âĢľ": 1162, "col": 1163, "(x": 1164, "link": 1165, "An": 1166, "ift": 1167, "Ġsecond": 1168, "Ġgoing": 1169, "Ġrange": 1170, "ness": 1171, "Ġfact": 1172, "ond": 1173, "osition": 1174, "Ġleft": 1175, "Ġdirect": 1176, "Pl": 1177, "As": 1178, "ret": 1179, "ross": 1180, "It": 1181, "},": 1182, "Ġallow": 1183, "size": 1184, "ism": 1185, "tract": 1186, "ane": 1187, "context": 1188, "no": 1189, "sp": 1190, "Ġdifferent": 1191, "Ġaround": 1192, "App": 1193, "Ġtarget": 1194, "Ġboth": 1195, "map": 1196, "Ġlevel": 1197, "book": 1198, "Or": 1199, "Ġdocument": 1200, "tribute": 1201, "ux": 1202, "ference": 1203, "post": 1204, "_e": 1205, "Ġlocal": 1206, "assert": 1207, "Ġcontent": 1208, "-f": 1209, "ived": 1210, "Ġdevelop": 1211, "UE": 1212, "_O": 1213, "Ġtoo": 1214, "Ġextends": 1215, "format": 1216, "inter": 1217, "ron": 1218, "xt": 1219, "oy": 1220, "Ġmonth": 1221, "Ġsuper": 1222, "bar": 1223, "ln": 1224, "ases": 1225, "Ġcontext": 1226, "-p": 1227, "md": 1228, "Ġ]": 1229, "sw": 1230, "script": 1231, "âĢĶ": 1232, "aster": 1233, "ĠĠĊ": 1234, "Le": 1235, "({": 1236, "ĠNo": 1237, "Ġposition": 1238, "aving": 1239, "response": 1240, "Style": 1241, "Up": 1242, "Ġthree": 1243, "Ġlaw": 1244, "_V": 1245, "Ġduring": 1246, "ves": 1247, "path": 1248, "Ġagainst": 1249, "_L": 1250, "cur": 1251, "With": 1252, "Ġpower": 1253, "ium": 1254, "left": 1255, "orth": 1256, "quals": 1257, "-g": 1258, "Ġwidth": 1259, "erg": 1260, ")(": 1261, "rl": 1262, "ons": 1263, "-t": 1264, "update": 1265, "sc": 1266, "Ġelement": 1267, "Ġsuccess": 1268, "ram": 1269, "Ġdate": 1270, "Ġtot": 1271, "All": 1272, "ification": 1273, "my": 1274, "Ġbig": 1275, "ĠAt": 1276, "ots": 1277, "Ġmap": 1278, ".$": 1279, "Ġfew": 1280, "source": 1281, "ĠCl": 1282, "irc": 1283, "local": 1284, "Ġanother": 1285, "ework": 1286, "ology": 1287, "state": 1288, "Ġeffect": 1289, "For": 1290, "ior": 1291, "start": 1292, "Ġ},": 1293, "Ġsince": 1294, "Ġnon": 1295, "iction": 1296, "Ġfull": 1297, "Ġturn": 1298, "ither": 1299, "Ġbody": 1300, "(_": 1301, "pi": 1302, "Ġ...": 1303, "Ġblock": 1304, "Ġkeep": 1305, "open": 1306, "Ġthings": 1307, "Ġcontrol": 1308, "Ġcome": 1309, "location": 1310, "model": 1311, "Ġsource": 1312, "oney": 1313, "odes": 1314, "ply": 1315, "Ġmill": 1316, "ĠĠĠĠĠĠĠĠĠĠĠĠĠĠĠĠĠĠĠĠĠ": 1317, "Ġoutput": 1318, "atrix": 1319, "Table": 1320, "Ġdisc": 1321, "ta": 1322, "field": 1323, "Ġrequired": 1324, ".,": 1325, "af": 1326, "Str": 1327, "Ġnever": 1328, "ada": 1329, "Ġ;": 1330, "Ġhard": 1331, "Ad": 1332, "used": 1333, "mod": 1334, "body": 1335, "(r": 1336, "Point": 1337, "Ġsmall": 1338, "Ġjob": 1339, "ĠThere": 1340, "Ġaddress": 1341, "ained": 1342, "Ġsum": 1343, "Ġlittle": 1344, "YPE": 1345, "aim": 1346, "Ġupdate": 1347, "aff": 1348, "ately": 1349, "ĠTe": 1350, "Ġlink": 1351, "me": 1352, "Ġgiven": 1353, "Ġbetter": 1354, "Ġalready": 1355, "Ġincluding": 1356, "ically": 1357, "prop": 1358, "If": 1359, "Ġparent": 1360, "vis": 1361, "Ġless": 1362, "/s": 1363, "ĠAss": 1364, "ired": 1365, "Ġaccount": 1366, "Ġvalid": 1367, "Ġfollowing": 1368, "Ġsearch": 1369, "Ġer": 1370, "EM": 1371, "ality": 1372, "Ġinvest": 1373, "ĠOR": 1374, "Ġsays": 1375, "Ġrest": 1376, "Ġinterest": 1377, "Ġperform": 1378, "lib": 1379, "Ġvalues": 1380, "rec": 1381, "plement": 1382, "point": 1383, "erved": 1384, "Ġcert": 1385, "Ġcell": 1386, "ari": 1387, "Ġplayer": 1388, "Ġcost": 1389, "(R": 1390, "atures": 1391, "Ġtotal": 1392, "UM": 1393, "ights": 1394, "Ġclear": 1395, "IR": 1396, "Ġrow": 1397, "Ġq": 1398, "Ġshort": 1399, "section": 1400, "max": 1401, "-h": 1402, "inc": 1403, "ably": 1404, "reated": 1405, "irm": 1406, "Ġinitial": 1407, "imal": 1408, "au": 1409, "control": 1410, "where": 1411, "Ġreason": 1412, "(a": 1413, "Ġwithin": 1414, "Ġdesign": 1415, "root": 1416, "Ġcent": 1417, "ability": 1418, "pose": 1419, "Ġconsider": 1420, "opt": 1421, "ulation": 1422, "null": 1423, "down": 1424, "side": 1425, "ĠShe": 1426, "Ġstop": 1427, "Ġlater": 1428, "ĠThat": 1429, "df": 1430, "req": 1431, "room": 1432, "Ġgive": 1433, "amb": 1434, "Ġcondition": 1435, "Ġcopy": 1436, "{{": 1437, "do": 1438, "Ġeither": 1439, "Ġimportant": 1440, "attr": 1441, "Ġfamily": 1442, "vers": 1443, "output": 1444, "Ġstep": 1445, "ances": 1446, "struction": 1447, "product": 1448, "And": 1449, "Ġtimes": 1450, "Ġfour": 1451, "Ġpresent": 1452, "translation": 1453, "Ġroom": 1454, "Ġonce": 1455, "center": 1456, "Ġresults": 1457, "Ġcontinue": 1458, "Ġgrow": 1459, "OP": 1460, "ols": 1461, "Ġmass": 1462, "ured": 1463, "omic": 1464, "Ġmean": 1465, "ips": 1466, "Ġuntil": 1467, "Ġarea": 1468, "uit": 1469, "Ġlength": 1470, "ĠWith": 1471, "event": 1472, "iff": 1473, "mb": 1474, "width": 1475, "Ġlight": 1476, "Ġside": 1477, "Ġexample": 1478, "cribe": 1479, "way": 1480, "Ġbased": 1481, "Vis": 1482, "Ġaway": 1483, "ively": 1484, "izer": 1485, "Sub": 1486, "ĠUp": 1487, "ibility": 1488, "Ġauthor": 1489, "Ġspecific": 1490, "ĠDo": 1491, "Ġalong": 1492, "Ġbegin": 1493, "Ġimp": 1494, "Ġwin": 1495, "Ġwhy": 1496, "ij": 1497, "Ġsingle": 1498, "ley": 1499, "unch": 1500, "empty": 1501, "Ġant": 1502, "ĠWhen": 1503, "Ġpossible": 1504, "_x": 1505, "olution": 1506, "vector": 1507, "ĠBy": 1508, "sl": 1509, "Ġtold": 1510, "current": 1511, "Ġequ": 1512, "da": 1513, "Ġwindow": 1514, "only": 1515, "Ġleast": 1516, "aring": 1517, "Ġcolumn": 1518, "rior": 1519, "Ġmaking": 1520, "ued": 1521, "emp": 1522, "\".": 1523, "Ġclose": 1524, "Ġpercent": 1525, "Ġwrite": 1526, "aged": 1527, "Ġspecial": 1528, "Ġcity": 1529, "Ġselect": 1530, "level": 1531, "imum": 1532, "Ġcourse": 1533, "Ġlate": 1534, "Ġamount": 1535, "ino": 1536, "ĠRep": 1537, "now": 1538, "vo": 1539, "ison": 1540, "idual": 1541, "ides": 1542, "rt": 1543, "Ġproperty": 1544, "go": 1545, "Ġlow": 1546, "Ġprice": 1547, "ymb": 1548, "Ġmeans": 1549, "ids": 1550, "ĠâĢĺ": 1551, "Ġtask": 1552, "Ġopt": 1553, "then": 1554, "Ġdet": 1555, "Ġreview": 1556, "Ġabove": 1557, "Ġquestion": 1558, "Ġword": 1559, "Ġprovide": 1560, "}}": 1561, "\\\\": 1562, "color": 1563, "ĠIS": 1564, "Ġwhether": 1565, "imate": 1566, "isc": 1567, "Ġhaving": 1568, "lem": 1569, "player": 1570, "abs": 1571, "Ġexc": 1572, "gether": 1573, "plied": 1574, "ao": 1575, "show": 1576, "/d": 1577, "ades": 1578, "Ġemploy": 1579, "Ġlarge": 1580, "ral": 1581, "\\x": 1582, "Ġhost": 1583, "while": 1584, "Ġrole": 1585, "top": 1586, "position": 1587, "Ġproblem": 1588, "sv": 1589, "Ġthough": 1590, "Ġpoints": 1591, "ĠĠĠĠĠĠĠĠĠĠĠĠĠĠĠĠĠĠĠĠĠĠĠĠĠ": 1592, "Ġactually": 1593, "style": 1594, "Ġconc": 1595, "ios": 1596, "Pr": 1597, "SC": 1598, "Ġspace": 1599, "Ġstore": 1600, "Ġformat": 1601, "most": 1602, "sm": 1603, "ĠAND": 1604, "Ġface": 1605, "Ġsave": 1606, "dev": 1607, "Cell": 1608, "next": 1609, "Ġexpected": 1610, "tributes": 1611, "dr": 1612, "ĠPer": 1613, "Ġbar": 1614, "fa": 1615, "Ġbecome": 1616, "images": 1617, "Ġmakes": 1618, "Ġglobal": 1619, "Ġcontact": 1620, "ĠPart": 1621, "values": 1622, "ilit": 1623, "Ġcharacter": 1624, "Ġprevious": 1625, "Ġmaterial": 1626, "Ġbelow": 1627, "Ġblack": 1628, "Ġcomponent": 1629, "stit": 1630, "property": 1631, "Ġroot": 1632, "CC": 1633, "Ġclaim": 1634, "ĠSub": 1635, "anged": 1636, "Ġlocation": 1637, "Ġnight": 1638, "lin": 1639, "pend": 1640, "reet": 1641, "Ġbox": 1642, "Ġstrong": 1643, "rel": 1644, "Ġinterface": 1645, "Ġtrack": 1646, "(S": 1647, "itted": 1648, "parent": 1649, "any": 1650, "\\u": 1651, "Ġsection": 1652, "ĠOne": 1653, "Ä±": 1654, "Ġtogether": 1655, "FO": 1656, "host": 1657, "ising": 1658, "Ġterms": 1659, "framework": 1660, "-r": 1661, "Ġapply": 1662, "Ġseveral": 1663, "ii": 1664, "main": 1665, "Rec": 1666, "ĠĠĠĠĠĠĠĠĠĠĠĠĠĠĠĠĠĠĠĠ": 1667, "From": 1668, "ĠFe": 1669, "Ġindividual": 1670, "unit": 1671, "Ġdu": 1672, "fs": 1673, "Ġfuture": 1674, "ached": 1675, "ires": 1676, "There": 1677, "posed": 1678, "icult": 1679, "Ġgames": 1680, "Ġknown": 1681, "Ġseen": 1682, "temp": 1683, "Per": 1684, "Ġvariable": 1685, "Ġge": 1686, "first": 1687, "Ġprovided": 1688, "find": 1689, "urther": 1690, "Ġstudy": 1691, "Ġnetwork": 1692, "rest": 1693, "Ġlimit": 1694, "ival": 1695, "Ġacross": 1696, "region": 1697, "olve": 1698, "Ġparticular": 1699, "ball": 1700, "Ġlearn": 1701, "inding": 1702, "One": 1703, "asure": 1704, "mark": 1705, "ĠType": 1706, "pc": 1707, "loor": 1708, "FT": 1709, "ecess": 1710, "Ġdescription": 1711, "Ġseries": 1712, "wards": 1713, "Ġhot": 1714, "ries": 1715, "Ġoriginal": 1716, "stream": 1717, "Ġframe": 1718, "adius": 1719, "Ġdraw": 1720, "Ġcomes": 1721, "angle": 1722, "Ġelect": 1723, "Ġfilter": 1724, "ised": 1725, "met": 1726, "see": 1727, "Ġfront": 1728, "group": 1729, "(-": 1730, "number": 1731, "vec": 1732, "entry": 1733, "LL": 1734, "Ġselected": 1735, "Ġaccording": 1736, "rag": 1737, "Ġhours": 1738, "Ġwar": 1739, "Ġmodels": 1740, "Ġearly": 1741, "length": 1742, "Ġinf": 1743, "Ġeasy": 1744, "âĢĵ": 1745, "Ġstudents": 1746, "light": 1747, "Ġvari": 1748, "Ġcannot": 1749, "Ġperiod": 1750, "ural": 1751, "Ġnet": 1752, "ĠNe": 1753, "Ġcommon": 1754, "ges": 1755, "Ġrandom": 1756, "with": 1757, "Ġhit": 1758, "insert": 1759, "Ġimplement": 1760, "atal": 1761, "returns": 1762, "edef": 1763, "ĠThese": 1764, "Ġamong": 1765, "Ġcirc": 1766, "Ġanswer": 1767, "Ġtreat": 1768, "Ġage": 1769, "Ġfive": 1770, "Ġclean": 1771, "ows": 1772, "dis": 1773, "Ġwords": 1774, "just": 1775, "last": 1776, "la": 1777, "Lo": 1778, "Ġissue": 1779, "rew": 1780, "elves": 1781, "Ġhalf": 1782, "Ġsimple": 1783, "Ġnothing": 1784, "RI": 1785, "require": 1786, "store": 1787, "double": 1788, "Ġshare": 1789, "Ġentry": 1790, "Ġchanges": 1791, "(A": 1792, "ĠHowever": 1793, "Ġwhole": 1794, "Ġneeded": 1795, "Ġlikely": 1796, "gen": 1797, "Ġrate": 1798, "inner": 1799, "cd": 1800, "ĠSm": 1801, "method": 1802, "Ġcorrect": 1803, "ĠMore": 1804, "ently": 1805, "ving": 1806, "PP": 1807, "aker": 1808, "ns": 1809, "omet": 1810, "Ġfeatures": 1811, "asing": 1812, "cret": 1813, "Ġcollection": 1814, "'.": 1815, "Ġsimilar": 1816, "graph": 1817, "Ġmoment": 1818, "Ġentire": 1819, "Down": 1820, "Ġmember": 1821, "-control": 1822, "plot": 1823, "part": 1824, "wise": 1825, "ĠMc": 1826, "Ġpush": 1827, "ried": 1828, "bit": 1829, "ided": 1830, "Ġtypes": 1831, "When": 1832, "Ġphot": 1833, "ĠStr": 1834, "Ġdefined": 1835, "Ġinstead": 1836, "strong": 1837, "ĠSec": 1838, "selected": 1839, "istic": 1840, "though": 1841, "rodu": 1842, "ka": 1843, "Ġfeature": 1844, "Ġvia": 1845, "'),": 1846, "Ġlim": 1847, "ĠĠĠĠĠĠĠĠĠĠĠĠĠĠĠĠĠĠĠĠĠĠĠĠĠĠĠĠĠĠĠĠĠĠĠĠĠĠĠĠĠĠĠĠĠĠĠ": 1848, "block": 1849, "tag": 1850, ")).": 1851, "exp": 1852, "Ġcomplete": 1853, "atural": 1854, "Ġgeneral": 1855, "asks": 1856, "''": 1857, "account": 1858, "Ġvector": 1859, "Ġfurther": 1860, "Ġdatabase": 1861, "attle": 1862, "Ġspeed": 1863, "process": 1864, "ceed": 1865, "ĠAfter": 1866, "rot": 1867, "oe": 1868, "Ġterm": 1869, "has": 1870, "Ġpotential": 1871, "lim": 1872, "orig": 1873, "Ġreturns": 1874, "Ġweight": 1875, "ighb": 1876, "Ġconditions": 1877, "Ġexception": 1878, "description": 1879, "-to": 1880, "aves": 1881, "ĠNow": 1882, "ĠMain": 1883, "_k": 1884, "transform": 1885, "stant": 1886, "Ġloss": 1887, "ĠĊĊ": 1888, "net": 1889, "Ġlower": 1890, "Ġperfect": 1891, "RL": 1892, "uge": 1893, "Ġexact": 1894, "Ġsix": 1895, "Ġmargin": 1896, "pack": 1897, "izes": 1898, "weight": 1899, "Ġgraph": 1900, "Ġattempt": 1901, "uses": 1902, "Ġround": 1903, "That": 1904, "Ġcampaign": 1905, "area": 1906, "Ġenergy": 1907, "like": 1908, "Ġhor": 1909, "can": 1910, "fg": 1911, "long": 1912, "MS": 1913, "rown": 1914, "lt": 1915, "Ġsepar": 1916, "cs": 1917, "Ġpolicy": 1918, "izing": 1919, "Each": 1920, "Ġtraining": 1921, "Ġprior": 1922, "Game": 1923, "PC": 1924, "Ġshall": 1925, "Ġoutside": 1926, "BC": 1927, "gn": 1928, "Ġground": 1929, "Ġunique": 1930, "sets": 1931, "Ġ$(": 1932, "Ġshows": 1933, "write": 1934, "Ġball": 1935, "Ġsimply": 1936, "Ġfast": 1937, "ante": 1938, "Ġfit": 1939, "ancel": 1940, "\\t": 1941, "coming": 1942, "Ġreported": 1943, "flow": 1944, "interface": 1945, "ners": 1946, "Ġunit": 1947, "project": 1948, "term": 1949, "Ġappear": 1950, "address": 1951, "hs": 1952, "Ġhom": 1953, ",-": 1954, "Ġdifficult": 1955, "Ġcoming": 1956, "iqu": 1957, "PS": 1958, "ĠSch": 1959, "Ġmenu": 1960, "sec": 1961, "Ġrelationship": 1962, "Ġparameters": 1963, "total": 1964, "Ġeffort": 1965, "Ġfields": 1966, "Ġfix": 1967, "Ġcases": 1968, "ĠSE": 1969, "asc": 1970, "Cl": 1971, "Ġperformance": 1972, "late": 1973, "Ġhigher": 1974, "cr": 1975, "Ġitself": 1976, "Ġsignificant": 1977, "append": 1978, "Ġrespect": 1979, "Output": 1980, "Ġmid": 1981, "Ġresource": 1982, "Ġdirection": 1983, "Ġadditional": 1984, "Ġnumbers": 1985, "Ġstatement": 1986, "ev": 1987, "ĠPoint": 1988, "Ġlines": 1989, "ctions": 1990, "Ġsubs": 1991, "components": 1992, "quare": 1993, "Function": 1994, "Ġchoose": 1995, "how": 1996, "Ġtransform": 1997, "Ġimplements": 1998, "gt": 1999, "ĠĠĠĠĠĠĠĠĠĠĠĠĠĠĠĠĠĠĠĠĠĠ": 2000, "den": 2001, "Ġnote": 2002, "pm": 2003, "Ġvert": 2004, "Ġgroups": 2005, "lang": 2006, "Ġrisk": 2007, "Ġincluded": 2008, "igr": 2009, "Ġsem": 2010, "ĠBlack": 2011, "ĠĠĠĠĠĠĠĠĠĠĠĠĠĠĠĠĠĠĠĠĠĠĠĠĠĠĠĠĠĠĠĠĠĠĠĠĠĠĠĠĠĠĠĠĠĠĠĠĠĠĠĠĠĠĠĠĠĠĠĠĠĠĠĠ": 2012, "-up": 2013, "Ġvan": 2014, "-M": 2015, "Ġaddition": 2016, "Ġvarious": 2017, "DF": 2018, "Ġincrease": 2019, "];": 2020, "atory": 2021, "Ġleave": 2022, "known": 2023, "iance": 2024, "Ġalign": 2025, "Ġstandard": 2026, "etic": 2027, "Ġstates": 2028, "aa": 2029, "Ġinternal": 2030, "Ġespecially": 2031, "Ġcross": 2032, "filter": 2033, "_i": 2034, "Ġproblems": 2035, "Ġwritten": 2036, "foot": 2037, "Ġimages": 2038, "First": 2039, "Ġforce": 2040, "(B": 2041, "RT": 2042, "ds": 2043, "Ġiter": 2044, "po": 2045, "_j": 2046, "bum": 2047, "Ġuseful": 2048, "ares": 2049, "})": 2050, "Ġmethods": 2051, "Left": 2052, "cal": 2053, "Ġallowed": 2054, "Ġelements": 2055, "Ġtrain": 2056, "Ġrelated": 2057, "ĠUse": 2058, "should": 2059, "Ġscale": 2060, "Ġaverage": 2061, "common": 2062, "imation": 2063, "fin": 2064, "Ġdecision": 2065, "obs": 2066, "Ġapproach": 2067, "SD": 2068, "display": 2069, "Ġchannel": 2070, "oring": 2071, "-re": 2072, "window": 2073, "ĠFirst": 2074, "Ġplus": 2075, "Ġsense": 2076, "Ġregion": 2077, "ĠFrom": 2078, "II": 2079, "close": 2080, "tt": 2081, "Ġpaper": 2082, "second": 2083, "Ġthemselves": 2084, "dom": 2085, "Ġrules": 2086, "RA": 2087, "mar": 2088, "Ass": 2089, ")/": 2090, "Ġbottom": 2091, "Ġcouple": 2092, "ĠSO": 2093, "success": 2094, "ĠOur": 2095, "case": 2096, "Ġheld": 2097, "Ġincludes": 2098, "target": 2099, "Ġoperation": 2100, "Ġproduction": 2101, "Ġoperator": 2102, "apped": 2103, "zen": 2104, "comp": 2105, "ĠHere": 2106, "Ġargument": 2107, "hood": 2108, "Ġestablish": 2109, "Ġprovides": 2110, "acket": 2111, "Ġuses": 2112, "ĠFunction": 2113, "Ġability": 2114, ")),": 2115, "Ġparameter": 2116, "ining": 2117, "fix": 2118, "inder": 2119, "Ġfunctions": 2120, "Ġchoice": 2121, "words": 2122, "ĠAny": 2123, "role": 2124, "Ġreference": 2125, "icks": 2126, "Ġregular": 2127, "Ġgoal": 2128, "Ġbuilt": 2129, "des": 2130, "Part": 2131, "hib": 2132, "game": 2133, "Ġnatural": 2134, "Ġassociated": 2135, "iting": 2136, "atives": 2137, "Ġlevels": 2138, "Ġnecessary": 2139, "cell": 2140, "Ġextrem": 2141, "Ġproperties": 2142, "Ġevidence": 2143, "Ġrule": 2144, "ae": 2145, "Ġrecently": 2146, "itions": 2147, "Ġotherwise": 2148, "Ġsystems": 2149, "Ġstructure": 2150, "anning": 2151, "Ġdirectly": 2152, "ris": 2153, "(k": 2154, "pite": 2155, "Max": 2156, "Ġerrors": 2157, "ĠWhile": 2158, "-based": 2159, "cor": 2160, "Ġdistance": 2161, "hi": 2162, "After": 2163, "Ġprimary": 2164, "Ġbi": 2165, "Ġcomments": 2166, "arrow": 2167, "amount": 2168, "document": 2169, "menu": 2170, "ĠOver": 2171, "bb": 2172, "Ġled": 2173, "gl": 2174, "Ġsample": 2175, "Ġoffers": 2176, "Ġshape": 2177, "ota": 2178, "Am": 2179, "element": 2180, "Vert": 2181, "run": 2182, "ĠSeptember": 2183, "Fe": 2184, "cing": 2185, "Col": 2186, "conf": 2187, "Ġequal": 2188, "Ġallows": 2189, "XX": 2190, "Ġmiddle": 2191, "Ġquickly": 2192, "ĠCG": 2193, "ho": 2194, "ĠBig": 2195, "Ġproper": 2196, "Ġmatrix": 2197, "Dir": 2198, "iring": 2199, "tab": 2200, "Main": 2201, "Ġelection": 2202, "column": 2203, "Ġorigin": 2204, "Ġeffects": 2205, "Ġsetting": 2206, "cons": 2207, "{}": 2208, "atio": 2209, "fit": 2210, "required": 2211, "non": 2212, "contact": 2213, "Ġsolution": 2214, "Ġblue": 2215, "si": 2216, "Ġpackage": 2217, "Ġnor": 2218, "bot": 2219, "ulate": 2220, "shot": 2221, "Ġexisting": 2222, "Ġcomplex": 2223, "DA": 2224, "Ġanalysis": 2225, "ĠĠĠĠĠĠĠĠĠĠĠĠĠĠĠĠĠĠĠĠĠĠĠĠĠĠĠĠĠĠĠĠĠĠĠĠĠĠĠĠĠĠĠĠĠĠĠĠĠĠĠ": 2226, "ĠAc": 2227, "impl": 2228, "more": 2229, "Ġleading": 2230, "Ġflow": 2231, "$_": 2232, "-item": 2233, "asy": 2234, "Ġshift": 2235, "Ġtf": 2236, "ells": 2237, "iny": 2238, "eff": 2239, "Ġhour": 2240, "CD": 2241, "ĠLo": 2242, "iate": 2243, "Ġroll": 2244, "Ġsetup": 2245, "models": 2246, "Ġconsidered": 2247, "Ġgrowth": 2248, "ĠIM": 2249, "Ġletter": 2250, "ĠĠĠĠĠĠĠĠĠĠĠĠĠĠĠĠĠĠĠĠĠĠĠĠĠĠĠĠ": 2251, "ette": 2252, "Ġknowledge": 2253, "primary": 2254, "Ġshot": 2255, "price": 2256, "-x": 2257, "Ġpiece": 2258, "comes": 2259, "Long": 2260, "Ġcompletely": 2261, "Ġpractice": 2262, "Ġselection": 2263, "*(": 2264, "Ġreader": 2265, "align": 2266, "arily": 2267, "Ġsales": 2268, "strict": 2269, "save": 2270, "Ġmeasure": 2271, "ĠTable": 2272, "ki": 2273, "Ġcontain": 2274, "Ġmanager": 2275, "ĠDecember": 2276, "ĠĠĠĠĠĠĠĠĠĠĠĠĠĠĠĠĠĠĠĠĠĠĠĠĠĠĠĠĠĠĠĠĠ": 2277, "brief": 2278, "call": 2279, "Ġdifference": 2280, "Ġreports": 2281, "Matrix": 2282, "Ġwhose": 2283, "Ġgives": 2284, "-right": 2285, "lying": 2286, "Ġpair": 2287, "Ġcapital": 2288, "Ġexists": 2289, "oi": 2290, "here": 2291, "Rel": 2292, "frame": 2293, "ĠLet": 2294, "Ġstar": 2295, "Ġsyn": 2296, "Ġconstant": 2297, "Ġpositive": 2298, "isions": 2299, "Ġcomponents": 2300, "Ġthroughout": 2301, "Ġpull": 2302, "Ġpages": 2303, "respond": 2304, "Ġgas": 2305, "Ġedge": 2306, "Ġbound": 2307, "Br": 2308, "Ġlearning": 2309, "Ġshown": 2310, "Ġclasses": 2311, "Ġobtain": 2312, "Ġlack": 2313, "_X": 2314, "bin": 2315, "Ġlaws": 2316, "Ġ),": 2317, "Ġwide": 2318, "ĠAuthor": 2319, "Ġmath": 2320, "Ġexactly": 2321, "mas": 2322, "Ġ);": 2323, "ields": 2324, "Ġfine": 2325, "car": 2326, "Ġaltern": 2327, "Ġgenerate": 2328, "make": 2329, "ĠOther": 2330, "Ġpanel": 2331, "front": 2332, "split": 2333, "Ġphysical": 2334, "Ġuns": 2335, "Ġdefine": 2336, "assign": 2337, "mut": 2338, "ometry": 2339, "ĠParam": 2340, "Ġnature": 2341, "sem": 2342, "{$": 2343, "opping": 2344, "Ġnearly": 2345, "Ġcool": 2346, "ously": 2347, "(y": 2348, "atically": 2349, "Ġtests": 2350, "ĠNote": 2351, "arts": 2352, "Now": 2353, "Ġpopulation": 2354, "Ġgreater": 2355, "Ġcosts": 2356, "ker": 2357, "band": 2358, "article": 2359, "validate": 2360, "Ġimmediately": 2361, "Ġfigure": 2362, "eller": 2363, "Ġrank": 2364, "Ġplot": 2365, "iation": 2366, "ĠBest": 2367, ".\\": 2368, "Ġraw": 2369, "CP": 2370, "eps": 2371, "Ġpartial": 2372, "bing": 2373, "Author": 2374, "ĠPat": 2375, "plus": 2376, "alpha": 2377, "Ġremain": 2378, "Ġbatch": 2379, "Ġzero": 2380, "-size": 2381, "equals": 2382, "allow": 2383, "axis": 2384, "edge": 2385, ":\\": 2386, "Ġmaximum": 2387, "Ġbirth": 2388, "look": 2389, "plies": 2390, "Ġbroad": 2391, "Ġmoving": 2392, "-time": 2393, "Ġsupported": 2394, ")]": 2395, "rier": 2396, "aver": 2397, "begin": 2398, "Ġimprove": 2399, "Ġdefinition": 2400, "rev": 2401, "Ġconcept": 2402, ")-": 2403, "Ġsets": 2404, "emon": 2405, "Ġmulti": 2406, "Ġstrict": 2407, "Ġpool": 2408, "expected": 2409, "Ġvariables": 2410, "vm": 2411, "kg": 2412, "Ġsteps": 2413, "ĠBen": 2414, ",y": 2415, "Ġtools": 2416, "/r": 2417, "cludes": 2418, "-a": 2419, "olar": 2420, "clear": 2421, "Ġpurpose": 2422, "panel": 2423, "Ġsin": 2424, "ulations": 2425, "Ġ).": 2426, "vention": 2427, "Ġrequires": 2428, "Ġnorm": 2429, "Ġweak": 2430, "uing": 2431, "Ġfirm": 2432, "atisf": 2433, "Ġdemand": 2434, "Ġalone": 2435, "ĠMax": 2436, "gener": 2437, "Ġma": 2438, "Ġexpression": 2439, "Ġagree": 2440, "Ġui": 2441, "ĠLaw": 2442, "win": 2443, "Ġhighly": 2444, "checked": 2445, "Ġoptim": 2446, "itation": 2447, "Ġtransport": 2448, "ission": 2449, "usion": 2450, "Ġprices": 2451, "Ġforms": 2452, "ĠTuesday": 2453, "Ġdt": 2454, "Total": 2455, "construct": 2456, "faces": 2457, "jection": 2458, "[-": 2459, "OC": 2460, "ertain": 2461, "ĠOk": 2462, "dc": 2463, "draw": 2464, "errors": 2465, "stitute": 2466, "More": 2467, "employ": 2468, "-B": 2469, "DR": 2470, "stack": 2471, "rate": 2472, "Ġincreasing": 2473, "points": 2474, "Ġcompared": 2475, "lig": 2476, "Ġbehavior": 2477, "berg": 2478, "ni": 2479, "sign": 2480, "ji": 2481, "ya": 2482, "Ġcells": 2483, "SA": 2484, "Ġsing": 2485, "Ġjump": 2486, "Ġbeyond": 2487, "inct": 2488, "exception": 2489, "}.": 2490, "Ġrates": 2491, "acks": 2492, "Ġstudies": 2493, "Ġgrowing": 2494, "(F": 2495, "structure": 2496, "Ġcertainly": 2497, "ĠGreen": 2498, "question": 2499, "ĠÎ": 2500, "Ġpoor": 2501, "Ġnumer": 2502, "claim": 2503, "Ġbinary": 2504, ".[": 2505, "Ġclosed": 2506, "Ġdeveloped": 2507, "operator": 2508, "Ġsym": 2509, "atively": 2510, "ky": 2511, "Ġalthough": 2512, "Ġsb": 2513, "Ġfailure": 2514, "Ġgenerated": 2515, "Ġincome": 2516, "isation": 2517, "She": 2518, "ĠII": 2519, "Ġdomain": 2520, "Ġreduce": 2521, "real": 2522, "Ġappears": 2523, "_I": 2524, "Ġcos": 2525, "ensity": 2526, "lines": 2527, "omin": 2528, "pects": 2529, "rent": 2530, "Our": 2531, "Ġdistribution": 2532, "While": 2533, "Write": 2534, "kin": 2535, "Ġdepth": 2536, "under": 2537, "-(": 2538, "Ġrent": 2539, "Ġaxis": 2540, "endor": 2541, "ĠSD": 2542, "iverse": 2543, "Ġbasis": 2544, "Ġscience": 2545, "Ġbudget": 2546, "izations": 2547, "Ġtruth": 2548, "dt": 2549, "Ġbattle": 2550, "rf": 2551, "ND": 2552, "results": 2553, "ĠInformation": 2554, "Ġconstruction": 2555, "but": 2556, "agent": 2557, "-L": 2558, "Ġimplementation": 2559, "Ġlarger": 2560, "ĠĠĠĠĠĠĠĠĠĠĠĠĠĠĠĠĠĠĠĠĠĠĠĠĠĠĠĠĠĠĠĠĠĠĠĠĠĠĠĠĠĠĠĠĠĠĠĠĠĠĠĠĠĠĠ": 2561, "Draw": 2562, "Ġcompleted": 2563, "Ġsupply": 2564, "Ġunits": 2565, "(u": 2566, "mi": 2567, "Ġfactor": 2568, "dec": 2569, "Ġstrength": 2570, "Ġbalance": 2571, "Ġsources": 2572, "arc": 2573, "task": 2574, "which": 2575, "bi": 2576, "contr": 2577, "Ġnegative": 2578, "normal": 2579, "'}": 2580, "Ġloading": 2581, "Ġstrategy": 2582, "poses": 2583, "Ġsignal": 2584, "Ġalpha": 2585, "Ġrefer": 2586, "Step": 2587, "Ġahead": 2588, "essor": 2589, "Ġagent": 2590, "fc": 2591, "ĠĠĠĠĠĠĠĠĠĠĠĠĠĠĠĠĠĠĠĠĠĠĠĠĠĠĠĠĠĠĠĠĠĠĠĠĠ": 2592, "Ġfixed": 2593, "Ġapplications": 2594, "levant": 2595, "xe": 2596, "Ġdegree": 2597, "Ġnotes": 2598, ",b": 2599, "MB": 2600, "Ġupper": 2601, "Here": 2602, "wp": 2603, "Ġhighest": 2604, "Sec": 2605, "Ġconnected": 2606, "Many": 2607, "Ġthus": 2608, "abilities": 2609, "Ġremains": 2610, "Ġstress": 2611, "orry": 2612, "mat": 2613, "Ġstarts": 2614, "Ġruns": 2615, "uler": 2616, "Ġcontaining": 2617, "Ġsuff": 2618, "Ġconsult": 2619, "Ġsequence": 2620, "MT": 2621, "Ġfamilies": 2622, "$(": 2623, "Ġtopic": 2624, "road": 2625, "ĠRef": 2626, "produ": 2627, "copy": 2628, "Ġscan": 2629, "component": 2630, "di": 2631, "Ġeconomy": 2632, "Ġstreet": 2633, "Ġpreviously": 2634, "ups": 2635, "Ġtraditional": 2636, "Any": 2637, "origin": 2638, "ĠFull": 2639, "Ġheat": 2640, "Ġonto": 2641, "Ġreached": 2642, "Ġextract": 2643, "help": 2644, "Ġeasier": 2645, "-of": 2646, "Ġ$.": 2647, "inds": 2648, "Ġrelative": 2649, "short": 2650, "Ġserve": 2651, "Ġmajority": 2652, "example": 2653, "Ġprocessing": 2654, "ĠSince": 2655, "gu": 2656, "rm": 2657, "Ġdynamic": 2658, "space": 2659, "La": 2660, "Ġintegr": 2661, "ervation": 2662, "Ġchain": 2663, "Ġgenerally": 2664, "CG": 2665, "job": 2666, "firm": 2667, "Ne": 2668, "Math": 2669, "Ġdespite": 2670, "chain": 2671, "Ġregarding": 2672, "Ġresolve": 2673, "poss": 2674, "force": 2675, "Ġpm": 2676, "Ġupdates": 2677, "Arr": 2678, "Ġtoward": 2679, "Ġrare": 2680, "classes": 2681, "Reference": 2682, "Ġrad": 2683, "Ġspread": 2684, "Ġvir": 2685, "full": 2686, "Ġcaused": 2687, "ĠEach": 2688, "Ġextension": 2689, "Ġhat": 2690, "bc": 2691, "Ġtherefore": 2692, "Ġminor": 2693, "selector": 2694, "nu": 2695, "tf": 2696, "margin": 2697, "Ġpi": 2698, "Ġeq": 2699, "bd": 2700, "Ġproduced": 2701, "system": 2702, "break": 2703, "overs": 2704, "CR": 2705, "ĠMany": 2706, "small": 2707, "fields": 2708, "oon": 2709, "ye": 2710, "Ġcritical": 2711, "that": 2712, "ĠTwo": 2713, "Ġbecomes": 2714, "urb": 2715, "Lower": 2716, "condition": 2717, "push": 2718, "Ġtasks": 2719, "ĠSmith": 2720, "Ġtrial": 2721, "about": 2722, "Note": 2723, "Ġplanning": 2724, "Ġseeing": 2725, "Ġagreement": 2726, "Ġcorner": 2727, "Fin": 2728, ")}": 2729, "Ġtransition": 2730, "Ġcandidate": 2731, "Ġtrend": 2732, "wide": 2733, "ĠBay": 2734, "Ġsmaller": 2735, "well": 2736, "Ġbelong": 2737, "Ġinner": 2738, "hat": 2739, "Ġlabels": 2740, "Ġangle": 2741, "ĠBecause": 2742, "Ġaim": 2743, "Ġraised": 2744, "resource": 2745, "types": 2746, "Ġconstruct": 2747, "Ġapplied": 2748, "oted": 2749, "ĠOutput": 2750, "operation": 2751, "osh": 2752, "-T": 2753, "Ġdocuments": 2754, "when": 2755, "Ġtemperature": 2756, "Ġmetal": 2757, "Ġattract": 2758, "Ġlabor": 2759, "Ġasset": 2760, "Ġsquare": 2761, "Ġexperiment": 2762, "fast": 2763, "Ġguar": 2764, "crete": 2765, "Ġfactors": 2766, "Ġselector": 2767, "loss": 2768, "BL": 2769, "Ġspan": 2770, "cos": 2771, "Ġspecies": 2772, "-D": 2773, "Ġadvantage": 2774, "initial": 2775, "Ġcompare": 2776, "Ġspect": 2777, "Full": 2778, "Ġcloud": 2779, "ĠUnder": 2780, "letter": 2781, "Ġautomatically": 2782, "Ġdelta": 2783, "Ġended": 2784, "These": 2785, "Ġindependent": 2786, "stop": 2787, "Ġlearned": 2788, "limit": 2789, "Ġmixed": 2790, "step": 2791, "super": 2792, "](": 2793, "continue": 2794, "spec": 2795, "Ġbin": 2796, "going": 2797, "each": 2798, "Ġestablished": 2799, "lor": 2800, "Ġgather": 2801, "Ġidentity": 2802, "resents": 2803, "acer": 2804, "unique": 2805, "ĠÂ·": 2806, "Ġvalidate": 2807, "member": 2808, "ifies": 2809, "Ġaccounts": 2810, "Section": 2811, "lemma": 2812, "ĠOnce": 2813, "Ġassume": 2814, "Ġremaining": 2815, "Ġpieces": 2816, "range": 2817, "sect": 2818, "olutely": 2819, "ĠĠĠĠĠĠĠĠĠĠĠĠĠĠĠĠĠĠĠĠĠĠĠĠĠĠĠĠĠĠĠĠĠĠ": 2820, "defined": 2821, "related": 2822, "Ġwid": 2823, "global": 2824, "Ġstars": 2825, "Ġrelevant": 2826, "bel": 2827, "ĠSpecial": 2828, "Ġtail": 2829, "cf": 2830, "Ġassign": 2831, "-out": 2832, "Results": 2833, "forms": 2834, "igure": 2835, "variable": 2836, "Ġbrief": 2837, "anda": 2838, "oral": 2839, "ĠÄ": 2840, "Ġapprox": 2841, "asset": 2842, "Ġcb": 2843, "stat": 2844, "original": 2845, "Ġpurposes": 2846, "pol": 2847, "Ġ``": 2848, "Ġsolutions": 2849, "Ġreverse": 2850, "onto": 2851, "Ġwind": 2852, "vi": 2853, "note": 2854, "Ġholds": 2855, "rep": 2856, "Ġkernel": 2857, "Ġblocks": 2858, "Ġoccurred": 2859, "possible": 2860, "Sup": 2861, "Ġ[-": 2862, "Let": 2863, "Ġchecked": 2864, "Ġlab": 2865, "Ġslightly": 2866, ",c": 2867, "umin": 2868, "etailed": 2869, "agger": 2870, "channel": 2871, "ez": 2872, "Ġtheory": 2873, ",n": 2874, "Ġverify": 2875, "Ġpacket": 2876, "formed": 2877, "tre": 2878, "Ġexercise": 2879, "Ġorders": 2880, "\\'": 2881, "-tr": 2882, "Ġcoverage": 2883, "Before": 2884, "ategy": 2885, "Ġlie": 2886, "month": 2887, "Use": 2888, "ĠPop": 2889, "dy": 2890, "Ġphase": 2891, "Ġtil": 2892, "Ġquant": 2893, "apply": 2894, "Ġjoint": 2895, "pool": 2896, "DP": 2897, "low": 2898, "Ġseed": 2899, "Ġodd": 2900, "Ġprocedure": 2901, "ĠAlthough": 2902, "accept": 2903, "Blue": 2904, "Ġdataset": 2905, "Ġexplain": 2906, "math": 2907, "iciency": 2908, "train": 2909, "Definition": 2910, "ĠSecond": 2911, "stitution": 2912, "Ġpresented": 2913, "Ġsamples": 2914, "quality": 2915, "internal": 2916, "loop": 2917, "ansion": 2918, "ĠĠĠĠĠĠĠĠĠĠĠĠĠĠĠĠĠĠĠĠĠĠĠĠĠĠĠĠĠĠĠĠĠĠĠĠĠĠĠĠĠ": 2919, "Ġideal": 2920, "Ġadapt": 2921, "Ġvalidation": 2922, "Ġpure": 2923, "Ġstores": 2924, "Ġidentify": 2925, "Condition": 2926, "ĠAccording": 2927, "Ġalternative": 2928, "Ġsurvey": 2929, "Ġturns": 2930, "Ġradius": 2931, "Cor": 2932, "Ġintr": 2933, "(q": 2934, "ĠĠĠĠĠĠĠĠĠĠĠĠĠĠĠĠĠĠĠĠĠĠĠĠĠĠĠĠĠĠĠĠĠĠĠĠ": 2935, "free": 2936, "-the": 2937, "-type": 2938, "ectors": 2939, "uting": 2940, "Ġran": 2941, "hot": 2942, "loading": 2943, "prec": 2944, "ĠTotal": 2945, "hand": 2946, "ibr": 2947, ",s": 2948, "Sm": 2949, "after": 2950, "Ġentries": 2951, ")\\": 2952, "uality": 2953, "Ġabsolute": 2954, "Ġtells": 2955, "arity": 2956, "Ġpossibly": 2957, "/x": 2958, "Ġod": 2959, "Ġversions": 2960, "Ġmodified": 2961, "TF": 2962, "Ġidentified": 2963, "Ġcoding": 2964, "=-": 2965, "Ġsheet": 2966, "Ġdetermined": 2967, "uns": 2968, "Ġrepresents": 2969, "Ġabsolutely": 2970, "Ġsmooth": 2971, "ĠUnless": 2972, "bound": 2973, "(H": 2974, "Ġleaves": 2975, "Ġnu": 2976, "-R": 2977, "Ġtechnical": 2978, "Ġtwice": 2979, "yr": 2980, "Ġhelpful": 2981, "Ġmeasures": 2982, "Ġworry": 2983, "oul": 2984, "Ġflight": 2985, "Ġproposed": 2986, "Ġstated": 2987, "Ġwinning": 2988, "LM": 2989, "Seg": 2990, "eq": 2991, "lf": 2992, "Ġfollows": 2993, "requ": 2994, "pleted": 2995, "Ġwindows": 2996, "Ġplane": 2997, "}\\": 2998, "west": 2999, "itz": 3000, "Ġreduced": 3001, "Ġcalculate": 3002, "Ġefficient": 3003, "Ġfeedback": 3004, "};": 3005, "Ġproof": 3006, "Ġsides": 3007, "ĠĠĠĠĠĠĠĠĠĠĠĠĠĠĠĠĠĠĠĠĠĠĠĠĠĠĠĠĠĠĠĠĠĠĠĠĠĠ": 3008, "Ġachieve": 3009, "Ġteacher": 3010, "Ġplays": 3011, "ĠThomas": 3012, "ĠSection": 3013, "Ġinputs": 3014, "Ġtypically": 3015, "reader": 3016, "issue": 3017, "Ġmetadata": 3018, "Ġhighlight": 3019, "Ġrain": 3020, "Ġdecisions": 3021, "ridge": 3022, "ression": 3023, "According": 3024, "Ġdollars": 3025, "âĢĿ.": 3026, "However": 3027, "Ġexplained": 3028, "Ġanswers": 3029, "Resources": 3030, "-H": 3031, "since": 3032, "Ġfamiliar": 3033, ",i": 3034, "Ġunion": 3035, "Ġreward": 3036, "Ġdp": 3037, "cap": 3038, "ĠPDF": 3039, "acts": 3040, "Ġprocesses": 3041, "Ġadds": 3042, "ĠâĨĴ": 3043, "ĠPS": 3044, "Other": 3045, "Ġpercentage": 3046, "Ġclassic": 3047, "Ġcharged": 3048, "ynam": 3049, "ĠIts": 3050, "black": 3051, "war": 3052, "Ġevening": 3053, "random": 3054, "Ġexplicit": 3055, "Ġarrived": 3056, "Ġds": 3057, "Ġchemical": 3058, "igma": 3059, "Ġentr": 3060, "Ġconsumer": 3061, "Ġrepeated": 3062, "Ġprotocol": 3063, "Ġleads": 3064, "bits": 3065, "(\\": 3066, "Ġimplemented": 3067, "Ġpermit": 3068, "Ġsupports": 3069, "lie": 3070, "Ġcontrols": 3071, "Ġextended": 3072, "Ok": 3073, "-level": 3074, "Pop": 3075, "ray": 3076, "Two": 3077, "eting": 3078, "Ġsolve": 3079, "ĠMatrix": 3080, "Ġfrequency": 3081, "gray": 3082, "Ġsentence": 3083, "Ġconcerned": 3084, "xi": 3085, "outs": 3086, "Ġdetailed": 3087, "Related": 3088, "Ġcarried": 3089, "avity": 3090, ")=": 3091, "ĠBoth": 3092, "report": 3093, "Ġfourth": 3094, "Ġchannels": 3095, "choice": 3096, "Ġtreated": 3097, "ĠStandard": 3098, "ivalent": 3099, "umps": 3100, "Ġdifferences": 3101, "Ġresearchers": 3102, "lg": 3103, "final": 3104, "aching": 3105, "Ġmu": 3106, "ifiers": 3107, "Ġcasino": 3108, "ems": 3109, "imize": 3110, "pling": 3111, "hal": 3112, "star": 3113, "Ġchosen": 3114, "/(": 3115, "high": 3116, "Ġlift": 3117, "Ġradi": 3118, "Ġadvance": 3119, "ection": 3120, "Ġsigns": 3121, "Ġvertex": 3122, "Ġwealth": 3123, "Ġsignificantly": 3124, "HS": 3125, "Ġnoise": 3126, "aux": 3127, "ĠDraw": 3128, "ĠâĪ": 3129, "ANN": 3130, "-G": 3131, "Convert": 3132, "\\r": 3133, "conv": 3134, "Ġbegins": 3135, "-y": 3136, "Ġexcited": 3137, "vertex": 3138, "ĠUsing": 3139, "Ġspeaking": 3140, "ĠBi": 3141, "Ġalgorithm": 3142, "Ġprove": 3143, "Ġsummary": 3144, "Ġconfidence": 3145, "Ġvertical": 3146, "ĠWay": 3147, "ritten": 3148, "Ġcorresponding": 3149, "Ġthreshold": 3150, "Ġobtained": 3151, "Ġquantity": 3152, "blue": 3153, "domain": 3154, "dist": 3155, "database": 3156, "shape": 3157, "Ġstatements": 3158, "ematic": 3159, "Ġblow": 3160, "cert": 3161, "Ġcentre": 3162, "-fl": 3163, "validation": 3164, "Join": 3165, "cient": 3166, "_Z": 3167, "Ġcomparison": 3168, "riterion": 3169, "LD": 3170, "score": 3171, "ĠFilter": 3172, "cloud": 3173, "Ġfigures": 3174, "nam": 3175, "extension": 3176, "Ġprincipal": 3177, "Ġcorrectly": 3178, "scale": 3179, "verify": 3180, "Ġchapter": 3181, "Ġlambda": 3182, "Ġdistinct": 3183, "VD": 3184, "ea": 3185, "Once": 3186, "Ġshell": 3187, "Complete": 3188, "Since": 3189, "what": 3190, "Ġmultip": 3191, "Ġcompute": 3192, "-free": 3193, "Ġmatching": 3194, "Ġdisplayed": 3195, "Ġassigned": 3196, "Ġsupporting": 3197, "Ġspin": 3198, "ĠCR": 3199, "Ġspaces": 3200, "Ġframework": 3201, "Ġteaching": 3202, "-weight": 3203, "ring": 3204, "-k": 3205, "ova": 3206, "pair": 3207, "Ġcircle": 3208, "learn": 3209, "Ġdesired": 3210, "Ġrelation": 3211, "Ġrotation": 3212, "Ġincreases": 3213, "Ġpaths": 3214, "dx": 3215, "Ġreaction": 3216, "interest": 3217, "Ġmapping": 3218, "feature": 3219, "abil": 3220, "sup": 3221, "ras": 3222, ",x": 3223, "ĠPhys": 3224, "Ġextent": 3225, "Ġindeed": 3226, "Ġreporting": 3227, "Ġconsidering": 3228, "uated": 3229, "Ġscheme": 3230, "Ġdimension": 3231, "Ġcontrast": 3232, "mc": 3233, "Cap": 3234, "oment": 3235, "dim": 3236, "Ġgap": 3237, "-scale": 3238, "lambda": 3239, "rule": 3240, "entries": 3241, "Ġresulting": 3242, "Ġestimated": 3243, "$.": 3244, "Ġconsistent": 3245, "har": 3246, "Ġcontained": 3247, "escape": 3248, "Ġagents": 3249, "ĠFinal": 3250, "ĠPython": 3251, "Ġpossibility": 3252, "Ġrepresentation": 3253, "ounded": 3254, "BR": 3255, "keep": 3256, "Ġisol": 3257, "amma": 3258, "Ġinstances": 3259, "rank": 3260, "track": 3261, "weak": 3262, "Ġobserved": 3263, "orem": 3264, "(z": 3265, "power": 3266, "once": 3267, "Ġapproximately": 3268, "thesis": 3269, "properties": 3270, "bf": 3271, "ĠBefore": 3272, "green": 3273, "seq": 3274, "ĠYoung": 3275, "serve": 3276, "^(": 3277, "Ġreasonable": 3278, "erves": 3279, "rad": 3280, "Ġvary": 3281, "manager": 3282, "Ġexpressed": 3283, "Example": 3284, "putation": 3285, "(ref": 3286, "weights": 3287, "href": 3288, "ĠPak": 3289, "Ġdisk": 3290, "ĠExample": 3291, "Ġlimits": 3292, "kip": 3293, "Ġaccuracy": 3294, "shift": 3295, "collection": 3296, "forward": 3297, "Ġbeta": 3298, "sd": 3299, "ĠĠĠĠĠĠĠĠĠĠĠĠĠĠĠĠĠĠĠĠĠĠĠĠĠĠĠĠĠĠĠĠĠĠĠĠĠĠĠĠĠĠĠĠĠ": 3300, "fall": 3301, "crement": 3302, "Ġlinear": 3303, "diff": 3304, "quantity": 3305, "Ġpairs": 3306, "rotation": 3307, "ashed": 3308, "inf": 3309, "upper": 3310, "Ġequivalent": 3311, "ounding": 3312, "Ġkeeps": 3313, "Ġregions": 3314, "sample": 3315, "Ġlayers": 3316, "Ġwinner": 3317, "isms": 3318, "Ġoccurs": 3319, "AE": 3320, "imator": 3321, "\\M": 3322, "bridge": 3323, "vy": 3324, "ĠSM": 3325, "Ġlogged": 3326, "away": 3327, "Ġexclusive": 3328, "Ġlargely": 3329, "Ġdiss": 3330, "axy": 3331, "parameters": 3332, "express": 3333, "Ġuniform": 3334, "Ġdepends": 3335, "confirm": 3336, "SI": 3337, "Ġdx": 3338, "antee": 3339, "inent": 3340, "Ġneither": 3341, "SO": 3342, "Ġexistence": 3343, "pay": 3344, "Ġcodes": 3345, "Ġtracks": 3346, "Ġimmediate": 3347, "Â·": 3348, "Ġbold": 3349, "Ġmoments": 3350, "-data": 3351, "Ġreduction": 3352, "Ġdy": 3353, "occ": 3354, "]}": 3355, "Ġsaving": 3356, "Ġsufficient": 3357, "Ġmaps": 3358, "Ġnearby": 3359, "batch": 3360, "Ġacts": 3361, "inv": 3362, "Ġrepresenting": 3363, "Ġdiscussed": 3364, "$$": 3365, "Region": 3366, "fff": 3367, "Ġbid": 3368, "/k": 3369, "ĠAB": 3370, "zero": 3371, "Ġsections": 3372, "Ġbridge": 3373, "eval": 3374, "Ġconcrete": 3375, "Ġhole": 3376, "Ġinterpret": 3377, ":=": 3378, "otic": 3379, "Ġease": 3380, "Ġprofessor": 3381, "plemented": 3382, "Ġcompens": 3383, "aches": 3384, "aded": 3385, "Ġderived": 3386, "Ġbounds": 3387, "ĠĠĠĠĠĠĠĠĠĠĠĠĠĠĠĠĠĠĠĠĠĠĠĠĠĠĠĠĠĠĠĠĠĠĠĠĠĠĠĠĠĠ": 3388, ",v": 3389, "mean": 3390, "adv": 3391, "ĠThus": 3392, "ĠDR": 3393, "Ġparagraph": 3394, "Ġnecessarily": 3395, "iffer": 3396, "Ġweights": 3397, "implementation": 3398, "lab": 3399, "bra": 3400, "will": 3401, "Ġstructures": 3402, "gg": 3403, "irms": 3404, "Black": 3405, "ĠIII": 3406, "Ġsuitable": 3407, "Ġexpansion": 3408, "igs": 3409, "Ġtranslation": 3410, "Best": 3411, "argument": 3412, "ĠLi": 3413, "Ġcovers": 3414, "-.": 3415, "Ġfails": 3416, "includes": 3417, "Ġly": 3418, "odd": 3419, "ucc": 3420, "erior": 3421, "Ġcounts": 3422, "Ġ&=": 3423, "tail": 3424, "ĠAsh": 3425, "FD": 3426, "chi": 3427, "world": 3428, "ĊĊĊĊĊ": 3429, "mediate": 3430, "velocity": 3431, "Pol": 3432, "adr": 3433, "some": 3434, "ĠNever": 3435, "Ġopponent": 3436, "comments": 3437, "ĠĊĊĊ": 3438, "complete": 3439, "isodes": 3440, "theast": 3441, "Ġhal": 3442, "!\\": 3443, "lower": 3444, "sim": 3445, "Ġinterior": 3446, "-class": 3447, "before": 3448, "Ġformula": 3449, "Ġindicates": 3450, "itting": 3451, "Ġwins": 3452, "ĠStep": 3453, "bold": 3454, "bottom": 3455, "Information": 3456, "Ġendpoint": 3457, "Ġpreferred": 3458, "een": 3459, "âĦ": 3460, "Ġindices": 3461, "indices": 3462, "ĠDar": 3463, "Ġterminal": 3464, "Ġefficiency": 3465, ",A": 3466, "Ġrealized": 3467, "Ġwrap": 3468, "haust": 3469, "ĠAG": 3470, ")$": 3471, "Ġmonthly": 3472, "found": 3473, "sheet": 3474, "mu": 3475, "ĠSuch": 3476, "times": 3477, "special": 3478, "Ġclosely": 3479, "_{": 3480, "}{": 3481, "ĠCSS": 3482, "ĠCondition": 3483, "setup": 3484, "TA": 3485, "extends": 3486, "ĠĠĠĠĠĠĠĠĠĠĠĠĠĠĠĠĠĠĠĠĠĠĠĠĠĠĠĠĠĠĠĠĠĠĠĠĠĠĠĠĠĠĠĠĠĠĠĠĠĠĠĠĠĠĠĠĠĠĠĠĠĠĠ": 3487, "Ġoutcome": 3488, "ĠTherefore": 3489, "geometry": 3490, "connected": 3491, "vertical": 3492, "Ġconsumption": 3493, "Ġcd": 3494, "lica": 3495, "Ġcampus": 3496, "setting": 3497, "important": 3498, "Ġdimensions": 3499, "single": 3500, "Ġgal": 3501, "Ġevolution": 3502, "vars": 3503, "portion": 3504, "Ġpushed": 3505, "Setting": 3506, "ĠĠĠĠĠĠĠĠĠĠĠĠĠĠĠĠĠĠĠĠĠĠĠĠĠĠĠĠĠĠĠĠĠĠĠĠĠĠĠĠĠĠĠĠ": 3507, "Ġvelocity": 3508, "bow": 3509, "Ġguarantee": 3510, "Ġevaluate": 3511, "Ġlies": 3512, "ĠFoot": 3513, "Ġprogramming": 3514, "inated": 3515, "Ġsimpl": 3516, "copyright": 3517, "sequence": 3518, "otted": 3519, "Ġutility": 3520, "tw": 3521, "Ġrespectively": 3522, "Ġnd": 3523, "ĠChapter": 3524, "Ġfluid": 3525, "Ġfunctional": 3526, "Ġtent": 3527, "Big": 3528, "van": 3529, "Ġcurve": 3530, "ogy": 3531, "Second": 3532, "Ġpapers": 3533, "âĢĭ": 3534, "Ġsessions": 3535, "appro": 3536, "Ġpixels": 3537, "constants": 3538, "gent": 3539, "-bar": 3540, "'\\": 3541, "proof": 3542, "proc": 3543, "Ġlunch": 3544, "Ġdust": 3545, "Ġfib": 3546, "Although": 3547, "Ġfundamental": 3548, "develop": 3549, "-K": 3550, "best": 3551, "Stat": 3552, "metric": 3553, "zed": 3554, "Ġformal": 3555, "Ġconsequences": 3556, "tools": 3557, "ĠWhich": 3558, "-check": 3559, "sin": 3560, "Ġcombine": 3561, "theta": 3562, "Ġslice": 3563, "Ġunderstood": 3564, "Ġinformed": 3565, "hd": 3566, "inciple": 3567, "archive": 3568, "Ġestimate": 3569, "urd": 3570, "mid": 3571, "dot": 3572, "was": 3573, ",k": 3574, "Ġexplanation": 3575, "ĠTraining": 3576, "big": 3577, "Ġpeak": 3578, "including": 3579, "Ġprinciples": 3580, "parameter": 3581, "generated": 3582, "Ġhorizontal": 3583, "ĠResources": 3584, "Ġsensitive": 3585, "iy": 3586, "Ġdriven": 3587, "Ġstronger": 3588, "ĠIR": 3589, "Under": 3590, "Ġfoundation": 3591, "Ġoutputs": 3592, "reference": 3593, "Ġsnapshot": 3594, "exists": 3595, "/P": 3596, "Ġepoch": 3597, "Ġtb": 3598, "Ġcatalog": 3599, "scan": 3600, "topic": 3601, "Using": 3602, "ĠCommunic": 3603, "cost": 3604, "Ġevaluation": 3605, "gal": 3606, "etermin": 3607, "conditions": 3608, "ulum": 3609, "Ġdetected": 3610, "deg": 3611, "Ġunderlying": 3612, "Ġobjective": 3613, "Ġscored": 3614, "Ġcrucial": 3615, "Ġcalculated": 3616, "ĠSA": 3617, "vd": 3618, "ĠÂ§": 3619, "SB": 3620, "nom": 3621, "bec": 3622, "Ġadmit": 3623, "Ġmetrics": 3624, "(K": 3625, "Ġfewer": 3626, "groups": 3627, "large": 3628, "even": 3629, "Ġapplies": 3630, "Ġcontribute": 3631, "Ġequals": 3632, "disc": 3633, "phi": 3634, "Ġdifficulty": 3635, "Ġcompact": 3636, "-test": 3637, "Ġrestrictions": 3638, "labels": 3639, "Ġmeasured": 3640, "interpret": 3641, "Ġ}.": 3642, "identity": 3643, "ĠBang": 3644, "ilon": 3645, "Ġvibr": 3646, "wen": 3647, "Ġmechanism": 3648, "izon": 3649, "Ġcaptured": 3650, "protocol": 3651, "Ġrestart": 3652, "Ġmodification": 3653, "need": 3654, "Ġgeometry": 3655, "Ġasks": 3656, "Ġhyper": 3657, "Ġtwenty": 3658, "Ġcontracts": 3659, "!,": 3660, "iations": 3661, "reement": 3662, "ĠRegion": 3663, "Ġbelongs": 3664, "absolute": 3665, "Ġrely": 3666, "average": 3667, "Ġliterature": 3668, "ĠSeg": 3669, "coll": 3670, "Ġsharp": 3671, "sf": 3672, "Ġdeeply": 3673, "Ġroughly": 3674, "Ġmr": 3675, "Ġak": 3676, "resolve": 3677, "ĠFinally": 3678, "ĠÏ": 3679, "collect": 3680, "ĠWilson": 3681, "cribed": 3682, "Ġdensity": 3683, "Ġregime": 3684, "energy": 3685, "Ġexhaust": 3686, "Ġprinciple": 3687, "network": 3688, "Ġestimates": 3689, "veral": 3690, "Ġrejected": 3691, "thetic": 3692, "depth": 3693, "ÃĹ": 3694, "Sample": 3695, "ĠHenry": 3696, "-i": 3697, "rat": 3698, "metadata": 3699, "maps": 3700, "aneous": 3701, "Ġsurvive": 3702, "Ġreducing": 3703, "Ġdependent": 3704, "ropy": 3705, "Ġ\\(": 3706, "Ġepisodes": 3707, "lm": 3708, "Ġdivided": 3709, "figure": 3710, "pus": 3711, "Ġtransparent": 3712, "Ġmirror": 3713, "Ġassistant": 3714, "Ġoutr": 3715, ";\\": 3716, "ĠBell": 3717, "ĠGro": 3718, "prim": 3719, "collapse": 3720, "Ġbc": 3721, "Ġarrow": 3722, "WR": 3723, "Ġsqrt": 3724, "Because": 3725, "]\\": 3726, "Ġhire": 3727, "Ġdetection": 3728, "Ġtransformation": 3729, "Ġimplicit": 3730, "Ġformation": 3731, "Ġconstants": 3732, "Ġcomposition": 3733, "Ġavailability": 3734, "Ġmatched": 3735, "constant": 3736, "ĠResults": 3737, "matrix": 3738, "into": 3739, "Ġrewrite": 3740, "Ġarchive": 3741, "Ġcompatible": 3742, "oret": 3743, "Ġcollapse": 3744, "olves": 3745, "ifference": 3746, "Ġcovering": 3747, "Ġpert": 3748, "supported": 3749, "Ġrepresentative": 3750, "Ġmetric": 3751, "ainty": 3752, "ifferent": 3753, "Ġstake": 3754, "viously": 3755, "notes": 3756, "Ġflip": 3757, "Ġray": 3758, "Ġequally": 3759, "Rep": 3760, "terms": 3761, "ibration": 3762, "may": 3763, "definition": 3764, "clean": 3765, "Ġimproving": 3766, "Ġlandscape": 3767, "iamond": 3768, "Ġrapidly": 3769, "cancel": 3770, "Ġtheta": 3771, "Ġcontribution": 3772, "there": 3773, "good": 3774, "LI": 3775, "follow": 3776, "Ġlp": 3777, "-one": 3778, "ĠĠĊĊ": 3779, "ĠDefine": 3780, "variables": 3781, "Ġproved": 3782, "Ġdefines": 3783, "also": 3784, "Ġseparated": 3785, "gets": 3786, "hard": 3787, "raise": 3788, "wr": 3789, "ensitive": 3790, "Ġcub": 3791, "Ġparticles": 3792, "Ġboundary": 3793, ")',": 3794, "iu": 3795, "ĠĠĠĠĠĠĠĠĠĠĠĠĠĠĠĠĠĠĠĠĠĠĠĠĠĠĠĠĠĠĠĠĠĠĠĠĠĠĠĠĠĠĠĠĠĠĠĠ": 3796, "Ġcollision": 3797, "symbol": 3798, "'''": 3799, "Ġparticle": 3800, "Ġlemma": 3801, "Ġrepeatedly": 3802, "\\.": 3803, "Ġindicating": 3804, "-specific": 3805, "-error": 3806, "Ġprobability": 3807, "Î±": 3808, "compare": 3809, "Ġapplying": 3810, "elect": 3811, "gorithms": 3812, "family": 3813, "Ġrm": 3814, "ĠDas": 3815, "shall": 3816, "have": 3817, "lr": 3818, "plane": 3819, "Ġlifetime": 3820, "ĠFigure": 3821, "Ġsimulation": 3822, "ĠÎ±": 3823, "Ġwage": 3824, "direction": 3825, "ĠMT": 3826, "Ġrecall": 3827, "kn": 3828, "beta": 3829, "-field": 3830, "Ġintroduce": 3831, "optim": 3832, "ĠSample": 3833, "Ġpredicted": 3834, "wind": 3835, "paper": 3836, "character": 3837, "Ġmc": 3838, "allest": 3839, "Ġintersection": 3840, "Ġrefers": 3841, "Ġdestruction": 3842, "Ġcontinuous": 3843, "ĠĠĠĠĠĠĠĠĠĠĠĠĠĠĠĠĠĠĠĠĠĠĠĠĠĠĠĠĠĠĠĠĠĠĠĠĠĠĠĠĠĠĠĠĠĠĠĠĠĠĠĠĠĠĠĠĠĠĠĠĠĠĠĠĠĠĠ": 3844, "det": 3845, "puted": 3846, "period": 3847, "pal": 3848, "Ġconver": 3849, "Hub": 3850, "encoded": 3851, "distance": 3852, "Final": 3853, "changes": 3854, "generate": 3855, "share": 3856, "\\E": 3857, "Alpha": 3858, "review": 3859, "Ġfraction": 3860, "}_": 3861, "around": 3862, "Ġrestriction": 3863, "Ġstudied": 3864, "ativ": 3865, "rightarrow": 3866, "erving": 3867, "depend": 3868, "Ġidentical": 3869, "hor": 3870, "Ġiteration": 3871, "Green": 3872, "âĢĻ,": 3873, "nr": 3874, "Ġplug": 3875, "Ġprediction": 3876, "olving": 3877, "middle": 3878, "algorithm": 3879, "Ġcompiled": 3880, "previous": 3881, "ĠDefinition": 3882, "Ġextensions": 3883, "}-": 3884, "through": 3885, "prod": 3886, "Ġstability": 3887, "Ġconfigured": 3888, "Ġmodes": 3889, "sur": 3890, "Ġ(\\": 3891, "two": 3892, "direct": 3893, "Ġties": 3894, "Ġlogical": 3895, "Ġapproaches": 3896, "Ġwhereas": 3897, "Ġcompensation": 3898, "Ġdemonstrate": 3899, "Ġinvoke": 3900, "Ġtemperatures": 3901, "series": 3902, "reason": 3903, "prob": 3904, "law": 3905, "correct": 3906, "unct": 3907, "Ġconcentration": 3908, "Ġgross": 3909, "heat": 3910, "ei": 3911, "{-": 3912, "norm": 3913, "ĠSetting": 3914, "Ġsucc": 3915, "Ġaddressed": 3916, "they": 3917, "via": 3918, "Ġsimult": 3919, "eu": 3920, "station": 3921, "Ġgradient": 3922, "'/": 3923, "Ġuniversal": 3924, "epoch": 3925, "olutions": 3926, "ĠBased": 3927, "Ġpromotion": 3928, "Ġsigma": 3929, "delta": 3930, "contract": 3931, "Ġnr": 3932, "standard": 3933, "Delta": 3934, "ĠÂ±": 3935, "features": 3936, "Ġbil": 3937, "syn": 3938, "Ġconstructed": 3939, "omes": 3940, "Special": 3941, "speed": 3942, "obb": 3943, "Ps": 3944, "relative": 3945, "uum": 3946, "transition": 3947, "Ġprominent": 3948, "Ġencoded": 3949, "Ġreserve": 3950, "bre": 3951, "rock": 3952, "ishes": 3953, "ĠNON": 3954, "tol": 3955, "skip": 3956, "ĠRad": 3957, "Ġintensity": 3958, "Both": 3959, "GM": 3960, "bid": 3961, "leading": 3962, "processing": 3963, "ĠNewton": 3964, "Such": 3965, "-state": 3966, "Ġdisaster": 3967, "Ġodds": 3968, "Geometry": 3969, "covered": 3970, "such": 3971, "adder": 3972, "Reply": 3973, "omial": 3974, "Ġprofiles": 3975, "hook": 3976, "eration": 3977, "mr": 3978, "arded": 3979, "allowed": 3980, "ĠĠĠĠĠĠĠĠĠĠĠĠĠĠĠĠĠĠĠĠĠĠĠĠĠĠĠĠĠĠĠĠĠĠĠĠĠĠĠĠĠĠĠĠĠĠĠĠĠĠĠĠĠ": 3981, "Ġexplicitly": 3982, "learning": 3983, "Ġreveals": 3984, "feedback": 3985, "both": 3986, "ordinary": 3987, "verified": 3988, "future": 3989, "Ġinvolve": 3990, "Ġoutline": 3991, "Ġâī": 3992, "procedure": 3993, "ĠConsider": 3994, "Ġrewards": 3995, "actors": 3996, "Ġauction": 3997, "Ġreceives": 3998, "Ġexperiments": 3999, "+i": 4000, "-cent": 4001, "mic": 4002, "Ġconvention": 4003, "Ġranges": 4004, "Ġpanels": 4005, "ollar": 4006, "Ġdifferently": 4007, "-known": 4008, "contin": 4009, "Ġtoy": 4010, "Opt": 4011, "dataset": 4012, "shell": 4013, "-$": 4014, "=i": 4015, "functions": 4016, "elements": 4017, "Ġhired": 4018, "ĠLie": 4019, "Ġtriangle": 4020, "Ġaffects": 4021, "ĠĠĠĠĠĠĠĠĠĠĠĠĠĠĠĠĠĠĠĠĠĠĠĠĠĠĠĠĠĠĠĠĠĠĠĠĠĠĠĠĠĠĠĠĠĠĠĠĠĠ": 4022, "leave": 4023, "dynamic": 4024, "Ġconstraint": 4025, "balance": 4026, "ĠNik": 4027, "Ġmeasurements": 4028, "Ġprojection": 4029, "Ġgamma": 4030, "paths": 4031, "Ġpointing": 4032, ")'": 4033, "Â£": 4034, "Ġrh": 4035, "Di": 4036, "Ġexclude": 4037, "âĪ": 4038, "Ġrestricted": 4039, "Ġcollective": 4040, "mn": 4041, "Ġequality": 4042, "prof": 4043, "Ġsolving": 4044, "Ġreflection": 4045, "comb": 4046, "ighth": 4047, "ĠNi": 4048, "Ġidentification": 4049, "Ġneighbour": 4050, "blocks": 4051, "Ġobservation": 4052, "Ġpreference": 4053, "Ġcalculation": 4054, "Ġclosure": 4055, "ĠEu": 4056, "rules": 4057, "ĠIndependent": 4058, "IAN": 4059, "hort": 4060, "Ġtens": 4061, "fixed": 4062, "Figure": 4063, ",N": 4064, "osity": 4065, "ceil": 4066, "Ġimmune": 4067, "ĠProblem": 4068, "Ġbarrier": 4069, "early": 4070, "ucle": 4071, "ulative": 4072, "Ġdefect": 4073, "relation": 4074, "-sp": 4075, "Ġnotion": 4076, "UV": 4077, "cou": 4078, "etection": 4079, "regular": 4080, "abeled": 4081, "verb": 4082, "ĠĠĠĠĠĠĠĠĠĠĠĠĠĠĠĠĠĠĠĠĠĠĠĠĠĠĠĠĠĠĠĠĠĠĠĠĠĠĠĠĠĠĠĠĠĠĠĠĠĠĠĠĠĠĠĠĠĠĠĠĠĠĠĠĠĠĠĠĠĠĠ": 4083, "ĠIndeed": 4084, "piece": 4085, "Ġbij": 4086, "invoke": 4087, "atial": 4088, "averse": 4089, "tri": 4090, "hit": 4091, "Ġabund": 4092, "Ġstopping": 4093, "Bay": 4094, "seed": 4095, "III": 4096, "production": 4097, "eyond": 4098, ",z": 4099, "Ġphi": 4100, "Ġrequiring": 4101, "ĠFollowing": 4102, "rob": 4103, "linear": 4104, "Ġcomplement": 4105, "take": 4106, "peak": 4107, "Ġoptimal": 4108, "ĠMoreover": 4109, "Ġinterpretation": 4110, "imits": 4111, "ĠKy": 4112, "Ġvectors": 4113, "Ġcertified": 4114, "did": 4115, "tain": 4116, "ande": 4117, "simple": 4118, "|\\": 4119, "Ġcoinc": 4120, "Ġranking": 4121, "Ġdiameter": 4122, "NY": 4123, "Which": 4124, "Ġbases": 4125, "Ġcomplexity": 4126, "ĠFig": 4127, "duction": 4128, "isen": 4129, "Ġbacteria": 4130, "Ġgenerating": 4131, "Ġmv": 4132, "actic": 4133, "ĠHamilton": 4134, "owing": 4135, "ĠLaunch": 4136, "Ġquoted": 4137, "complex": 4138, "kernel": 4139, "rites": 4140, "Ġshorter": 4141, "teacher": 4142, "ĠSent": 4143, "support": 4144, "Ġadjusted": 4145, "ometric": 4146, "Ġcarries": 4147, "Ġexpressions": 4148, "ĠFurthermore": 4149, "PDF": 4150, "pull": 4151, "agonal": 4152, "osc": 4153, "asures": 4154, "Ġnearest": 4155, "extract": 4156, "rod": 4157, "Ġtransformed": 4158, "aton": 4159, "),(": 4160, "Ġprecise": 4161, "Ġequation": 4162, "selection": 4163, "-O": 4164, "pres": 4165, "icular": 4166, "Ġprecisely": 4167, "Ġencoder": 4168, "eness": 4169, "ajs": 4170, "Ġcube": 4171, "entr": 4172, "Ġmechanisms": 4173, "occup": 4174, "sym": 4175, "Ġinfinite": 4176, "-order": 4177, "Ġcoupon": 4178, "tests": 4179, "Append": 4180, "alg": 4181, "cases": 4182, "\\C": 4183, "Ġgrain": 4184, "Ġverified": 4185, "Ġkin": 4186, "Ġimplies": 4187, "Finally": 4188, "ĠRand": 4189, "uced": 4190, "Ġmagnetic": 4191, "Ġsteady": 4192, "same": 4193, "steps": 4194, "-set": 4195, "Ġtolerance": 4196, "backs": 4197, "rowing": 4198, "Ġcomputed": 4199, "statement": 4200, "Ġri": 4201, "ĠâĪĴ": 4202, "onal": 4203, "Ġisolated": 4204, "{i": 4205, "ĠNeither": 4206, ")/(": 4207, "Ġproposals": 4208, "Ġassumption": 4209, "ĠRelated": 4210, "Ġdiscussing": 4211, "Ġradiation": 4212, "-hand": 4213, "rices": 4214, "percent": 4215, "Ġrational": 4216, "mk": 4217, "Ġdominant": 4218, "prom": 4219, "Ġreaches": 4220, "Equ": 4221, "ĠJacob": 4222, "ĠDA": 4223, ",w": 4224, "general": 4225, "Ġcompress": 4226, "Ġindirect": 4227, "Ġsmallest": 4228, "Ġpolar": 4229, "sections": 4230, "hour": 4231, "lash": 4232, "answers": 4233, "consider": 4234, "adj": 4235, "tasks": 4236, "ĠÃĹ": 4237, "licity": 4238, "antage": 4239, "must": 4240, "icates": 4241, "packet": 4242, "design": 4243, "logged": 4244, "/model": 4245, "^\\": 4246, "ĠLater": 4247, "Ġraises": 4248, "Ġsampling": 4249, "sigma": 4250, "inputs": 4251, "ĠDelta": 4252, "slice": 4253, "Ġ\\\\": 4254, "pur": 4255, "mill": 4256, "Chapter": 4257, "scr": 4258, "information": 4259, "Ġevaluated": 4260, "Ġinjection": 4261, "Ġintegral": 4262, "oust": 4263, "Ġspecification": 4264, "Ġtheoret": 4265, "phase": 4266, "Ġbetting": 4267, "ocks": 4268, "Ġalgorithms": 4269, "his": 4270, "camp": 4271, "Ġoptimization": 4272, "Ġreduces": 4273, "Ġscenarios": 4274, "Mc": 4275, "equ": 4276, "imeter": 4277, "Ġrecovered": 4278, "Ġensures": 4279, "ynomial": 4280, "Ġsphere": 4281, "Ġappearing": 4282, "vised": 4283, "Ġwinners": 4284, "Ġstrictly": 4285, "ket": 4286, "Ġsectors": 4287, "}(": 4288, "written": 4289, "Ġell": 4290, "Ġmagnitude": 4291, "units": 4292, "Ġdz": 4293, "finite": 4294, "Ġhoney": 4295, "-dev": 4296, "Ġintegers": 4297, "equal": 4298, "Ġchi": 4299, "codes": 4300, "circle": 4301, "ĠIch": 4302, "Ġbaseline": 4303, "mult": 4304, "binary": 4305, "reverse": 4306, "sembled": 4307, "ithmetic": 4308, "Ġsubset": 4309, "mv": 4310, "Ġvariants": 4311, "[\\": 4312, "lead": 4313, "effect": 4314, "ĠĠĠĠĠĠĠĠĠĠĠĠĠĠĠĠĠĠĠĠĠĠĠĠĠĠĠĠĠĠĠĠĠĠĠĠĠĠĠĠĠĠĠĠĠĠĠĠĠĠĠĠĠĠĠĠĠ": 4315, "places": 4316, "gebra": 4317, "\\models": 4318, "Ġ$$": 4319, "Ġaligned": 4320, "JO": 4321, "Ġoffline": 4322, "Ġcompeting": 4323, "Ġchains": 4324, "Ġstabil": 4325, "gm": 4326, "flat": 4327, "Rightarrow": 4328, "Ġvariations": 4329, "Ġvalidates": 4330, "Ġcorrection": 4331, ",\\": 4332, "multi": 4333, "reduce": 4334, "Ġnoting": 4335, "Ġdefining": 4336, "mass": 4337, "Ġaccepts": 4338, "Ġfitting": 4339, "nums": 4340, "Ġregarded": 4341, "glas": 4342, "gradient": 4343, "Ġsurfaces": 4344, "transport": 4345, "Ġorbit": 4346, "-power": 4347, "catalog": 4348, "-play": 4349, "Ġsatisfy": 4350, "Ġdetermines": 4351, "calc": 4352, "Ġlaboratory": 4353, "signal": 4354, "Ġtreating": 4355, "Ġcrossing": 4356, "Ġdraws": 4357, "ivial": 4358, "ufficient": 4359, "radius": 4360, "Ġbriefly": 4361, "Ġuncertainty": 4362, "ĠKal": 4363, "iem": 4364, "Ġix": 4365, "think": 4366, "Ġgenerates": 4367, "sqrt": 4368, "larg": 4369, "made": 4370, "ensively": 4371, "Ġcooling": 4372, "phant": 4373, "Ġscaling": 4374, "Following": 4375, "Four": 4376, "inde": 4377, "encoder": 4378, ",M": 4379, "Ġpackets": 4380, "su": 4381, "choose": 4382, "does": 4383, "autom": 4384, "windows": 4385, "Ġquad": 4386, "derive": 4387, "Pat": 4388, "agation": 4389, "modified": 4390, "appa": 4391, "Ġcelebrated": 4392, "Ġtends": 4393, "Ġsynthetic": 4394, "Ġminus": 4395, "Eq": 4396, "Ġprojected": 4397, "discount": 4398, "ĠNash": 4399, "Ġassertion": 4400, "Ġextracted": 4401, "positions": 4402, "utoff": 4403, "Ġdiscret": 4404, "vidence": 4405, "Overall": 4406, "urious": 4407, "ĠLower": 4408, "qq": 4409, "Ġtender": 4410, "held": 4411, "extensions": 4412, "shots": 4413, "Longrightarrow": 4414, "because": 4415, "Ġsubstitute": 4416, "Ġexponent": 4417, "compute": 4418, "Ġgrows": 4419, "paragraph": 4420, "^[": 4421, "quick": 4422, "tot": 4423, "Ġalphabet": 4424, "plays": 4425, "making": 4426, "Ġtet": 4427, "three": 4428, "ĠOverall": 4429, "restrict": 4430, "anh": 4431, "-space": 4432, "Ġinverse": 4433, "Ġdense": 4434, "Ġanalyses": 4435, "Ġspatial": 4436, "stable": 4437, "could": 4438, "expression": 4439, "Ġindependently": 4440, "Ġconsistency": 4441, "icients": 4442, "udes": 4443, "Ġ{\\": 4444, "Ġvacuum": 4445, "Ġdevoted": 4446, "transparent": 4447, "owski": 4448, "versions": 4449, "seen": 4450, "Ġlengths": 4451, "Ġfitted": 4452, "sq": 4453, "-no": 4454, "atics": 4455, "ĠVik": 4456, "Ġthermal": 4457, "Ġscales": 4458, "arding": 4459, "Ġbenchmark": 4460, "Ġintermediate": 4461, "Ġhomework": 4462, "Ġstatistical": 4463, "perform": 4464, "Ġwinds": 4465, "Ġdecom": 4466, "controls": 4467, "cern": 4468, "ties": 4469, "bet": 4470, "exist": 4471, "Ġcharacteristic": 4472, "moment": 4473, "Ġconservation": 4474, "Ġlikelihood": 4475, "-product": 4476, "ĠâĦ": 4477, "Based": 4478, "present": 4479, "ĠUniverse": 4480, "neg": 4481, "ĠĠĠĠĠĠĠĠĠĠĠĠĠĠĠĠĠĠĠĠĠĠĠĠĠĠĠĠĠĠĠĠĠĠĠĠĠĠĠĠĠĠĠĠĠĠĠĠĠĠĠĠĠĠĠĠ": 4482, "Ġclassical": 4483, "Ġenters": 4484, "ĠGram": 4485, "cross": 4486, "Ġshrink": 4487, "threshold": 4488, "Ġpromoted": 4489, "Fig": 4490, "failure": 4491, "BM": 4492, "ularity": 4493, "without": 4494, "every": 4495, "Ġdelimiter": 4496, "ĠUV": 4497, "Ġcomparable": 4498, "sales": 4499, "Ġquadr": 4500, "Ġanalyzed": 4501, "tau": 4502, "vari": 4503, "Ġdynamics": 4504, "esian": 4505, "ucceed": 4506, "ĠXX": 4507, "Ġcheckpoint": 4508, "bm": 4509, "-length": 4510, "Ġminimize": 4511, "Ġadapted": 4512, "Ġln": 4513, "Ġnormalized": 4514, "Ġei": 4515, "ĠUpon": 4516, "Â²": 4517, "ymmetric": 4518, "-ray": 4519, "September": 4520, "Ġarguing": 4521, "ĠPure": 4522, "Ġterminate": 4523, "lations": 4524, "yield": 4525, "Ġdominated": 4526, "ampling": 4527, "Ġefficiently": 4528, "Ġneural": 4529, "\\S": 4530, "ĠâĢĭ": 4531, "Ġloops": 4532, "ARGE": 4533, ")^": 4534, "disp": 4535, "Ġfg": 4536, "Ġlabeled": 4537, "Ġtherm": 4538, "ĠPP": 4539, "ĠGE": 4540, "stri": 4541, "orb": 4542, "âĢĲ": 4543, "based": 4544, "Ġcontractor": 4545, "Later": 4546, "Ġmaxim": 4547, "plitude": 4548, "ĠDouglas": 4549, "Ġhypothesis": 4550, "-world": 4551, "ĠDir": 4552, "ĠOptim": 4553, ",L": 4554, "Sch": 4555, "Ġquantum": 4556, "Îµ": 4557, "cales": 4558, "Ġslope": 4559, "logical": 4560, "Ġflux": 4561, "-law": 4562, "inspace": 4563, "ĠAtomic": 4564, "attering": 4565, "rection": 4566, "Ġnucle": 4567, "proj": 4568, "fulness": 4569, "hole": 4570, "quant": 4571, "Ġglobally": 4572, "positive": 4573, "disk": 4574, "ikh": 4575, "-\\": 4576, "wealth": 4577, "Ġregression": 4578, "Ġlecture": 4579, "Ġtrapped": 4580, "Ġestablishing": 4581, "AJ": 4582, "Ġcommentary": 4583, "Ġtransfers": 4584, "horizontal": 4585, "avier": 4586, "training": 4587, "Ġplots": 4588, "Ġdecay": 4589, "psi": 4590, "Ġacceleration": 4591, "Ġschemes": 4592, "Ġoccurring": 4593, "-string": 4594, "utility": 4595, "Ġprescribed": 4596, "implicit": 4597, "alog": 4598, "chemical": 4599, "mutation": 4600, "âĤģ": 4601, "Ġdots": 4602, "unders": 4603, "Ġnamely": 4604, "ĠHence": 4605, "Ġachieving": 4606, "she": 4607, "ĠLaboratory": 4608, "Ġconclude": 4609, "Complex": 4610, "tribution": 4611, "ĠGem": 4612, "TB": 4613, "Problem": 4614, "Ġsubstantially": 4615, "Ġepsilon": 4616, "Ġinequality": 4617, "Ġdetector": 4618, "brace": 4619, "had": 4620, "Ġclarity": 4621, "Ġket": 4622, "Ġsquares": 4623, "ĠSpiel": 4624, "Ġrho": 4625, "-driven": 4626, "Ġnt": 4627, "pline": 4628, "acute": 4629, "theorem": 4630, "alone": 4631, "quad": 4632, "Ġmasses": 4633, "ĠCarn": 4634, "olerance": 4635, "graphics": 4636, "/J": 4637, "}$": 4638, "+$": 4639, "Ġtreats": 4640, "Ġphrases": 4641, "epsilon": 4642, "Ġmarginal": 4643, "Ġtheoretical": 4644, "attice": 4645, "Ġderivative": 4646, "âĤĤ": 4647, "Ġtau": 4648, "ĠRCC": 4649, "poon": 4650, "ĠĠĠĠĠĠĠĠĠĠĠĠĠĠĠĠĠĠĠĠĠĠĠĠĠĠĠĠĠĠĠĠĠĠĠĠĠĠĠĠĠĠĠĠĠĠĠĠĠĠĠĠĠĠĠĠĠĠĠĠĠ": 4651, "ĠPolish": 4652, "Ġneighborhoods": 4653, "know": 4654, "ĠAu": 4655, "Launch": 4656, "states": 4657, "Ġfid": 4658, "December": 4659, "Ġloses": 4660, "Ġexploit": 4661, "gamma": 4662, "Ġimpose": 4663, "metry": 4664, "Ġsubtract": 4665, "raises": 4666, "Ġvariance": 4667, "expand": 4668, "prime": 4669, "Ġconsiderably": 4670, "itu": 4671, "Ġattraction": 4672, "\\s": 4673, "exclude": 4674, "channels": 4675, "fid": 4676, "endpoint": 4677, "Ġvalued": 4678, "DOT": 4679, "Das": 4680, "Ġsignatures": 4681, "ĠĠĠĠĠĠĠĠĠĠĠĠĠĠĠĠĠĠĠĠĠĠĠĠĠĠĠĠĠĠĠĠĠĠĠĠĠĠĠĠĠĠĠĠĠĠĠĠĠĠĠĠĠĠĠĠĠĠ": 4682, "omega": 4683, "\\P": 4684, "Ġreasoning": 4685, "accuracy": 4686, "ĠHyper": 4687, "actly": 4688, "again": 4689, "plots": 4690, "joint": 4691, "deep": 4692, "ĠÎ¼": 4693, "Ġlimiting": 4694, "Ġstructured": 4695, "ĠAJ": 4696, "ĠDL": 4697, "Ġdeleting": 4698, "sto": 4699, "olate": 4700, "fact": 4701, "$i": 4702, "ĠEq": 4703, "thus": 4704, "Ġgalaxy": 4705, "Ġdiscour": 4706, "Ġcorresponds": 4707, "ĠÎ²": 4708, "Ġcoupled": 4709, "cannot": 4710, "âĪĴ": 4711, "Î½": 4712, "finder": 4713, "spe": 4714, "Ġbandwidth": 4715, "establish": 4716, "ĠHI": 4717, "ĠHS": 4718, "appe": 4719, "Ġsparse": 4720, "ially": 4721, "Î»": 4722, "observable": 4723, "ĠPand": 4724, "/u": 4725, "Ġtransitions": 4726, "Bas": 4727, "forall": 4728, "Ġdrift": 4729, "Ġrelies": 4730, "CSS": 4731, "-function": 4732, "Ġfrequencies": 4733, "emma": 4734, "Ġmentions": 4735, "/q": 4736, "Ġomega": 4737, "goal": 4738, "Ġsingular": 4739, "-me": 4740, "Ġassembled": 4741, "bounds": 4742, "Ġconditioning": 4743, "four": 4744, "Ġhorizon": 4745, "closed": 4746, "Ġsuprem": 4747, "orange": 4748, "Ġcombining": 4749, "dale": 4750, "Ġambient": 4751, "Ġjumps": 4752, "Ġfinite": 4753, "quared": 4754, "Large": 4755, "Ġsumm": 4756, "ilde": 4757, "Ġabsorb": 4758, "/\\": 4759, "rink": 4760, "ĠâŁ": 4761, "Ġpaired": 4762, "=\\": 4763, "iliary": 4764, "Ġcomputation": 4765, "hire": 4766, "prove": 4767, "analysis": 4768, "Ġreplay": 4769, "\\d": 4770, "uity": 4771, "gold": 4772, "temperature": 4773, "games": 4774, "problem": 4775, "iii": 4776, "âŁ": 4777, "why": 4778, "Met": 4779, "Ġhydrogen": 4780, "Ġconditional": 4781, "predict": 4782, "completed": 4783, "Pi": 4784, "Ġnumerical": 4785, "Ġarithmetic": 4786, "policy": 4787, "hom": 4788, "compatible": 4789, "Ġappropriately": 4790, "registered": 4791, "especially": 4792, "lift": 4793, "Way": 4794, "+b": 4795, "Ġincentive": 4796, "Ġmatrices": 4797, "highlight": 4798, "imitives": 4799, "Ġfixing": 4800, "ugging": 4801, "represent": 4802, "Ġerg": 4803, "Ġsymbolic": 4804, "olv": 4805, "ĠFD": 4806, "lope": 4807, "Define": 4808, "Ġyields": 4809, "Ġinduced": 4810, "Ġincentives": 4811, "additional": 4812, "snapshot": 4813, "ĠFisher": 4814, "Ġidentifies": 4815, "edral": 4816, "Unless": 4817, "Ġbehavioral": 4818, "calculate": 4819, "Ġcoefficient": 4820, "Ġtrivial": 4821, "Ġscrutiny": 4822, "Ġguarantees": 4823, "{\\": 4824, "Ġpacking": 4825, "methods": 4826, "Ġproves": 4827, "Ġladder": 4828, "literal": 4829, "ÏĦ": 4830, "ĠTaking": 4831, "Ġcancellation": 4832, "planation": 4833, "Ġtemporal": 4834, "etas": 4835, "Ġinsertion": 4836, "Ġcurves": 4837, "leting": 4838, "Ġcriterion": 4839, "Ġmathematical": 4840, "iameter": 4841, "Ġmetals": 4842, "Its": 4843, "although": 4844, "Ġposed": 4845, "tracts": 4846, "Comb": 4847, "+)": 4848, "terminal": 4849, "Ġdiver": 4850, "Ġconcentrate": 4851, "iral": 4852, "Ġabundance": 4853, "Ġsums": 4854, "sat": 4855, "neighbor": 4856, "Ġinterpolation": 4857, "never": 4858, "major": 4859, "-,": 4860, "Ġworksheet": 4861, "stars": 4862, "Ġartifact": 4863, "cup": 4864, "cells": 4865, "flux": 4866, "iteration": 4867, "matched": 4868, "say": 4869, "Ġweighted": 4870, "Ġcoefficients": 4871, "fab": 4872, "Ġaveraged": 4873, "existing": 4874, "Ġrejection": 4875, "Ġsingleton": 4876, "reports": 4877, "-zero": 4878, "Training": 4879, "Ġreplica": 4880, "Ġarrows": 4881, "fty": 4882, "charged": 4883, "half": 4884, "frac": 4885, "Â±": 4886, "Ġmethodology": 4887, "ĠĠĠĠĠĠĠĠĠĠĠĠĠĠĠĠĠĠĠĠĠĠĠĠĠĠĠĠĠĠĠĠĠĠĠĠĠĠĠĠĠĠĠĠĠĠĠĠĠĠĠĠĠĠĠĠĠĠĠĠĠĠĠĠĠĠĠĠĠĠĠĠ": 4888, "Consider": 4889, "inement": 4890, "Ġrefined": 4891, "Ġrecom": 4892, "uning": 4893, "ĠBew": 4894, "students": 4895, "Ġdiagonal": 4896, "Ġâī¤": 4897, "-price": 4898, "ĠSach": 4899, "campaign": 4900, "numbers": 4901, "Ġbattlefield": 4902, "-two": 4903, "partial": 4904, ">M": 4905, "square": 4906, "herent": 4907, "Ġtraverse": 4908, "dependent": 4909, "Ġdeviation": 4910, "Ġxi": 4911, "factor": 4912, "Ġcalibration": 4913, "ĠFirm": 4914, "-degree": 4915, "ĠLiu": 4916, "cop": 4917, "Ġpreceding": 4918, "Ġscheduling": 4919, "ĠPV": 4920, "Ġempir": 4921, "dz": 4922, "+x": 4923, "Ġequations": 4924, "agnetic": 4925, "uncated": 4926, "Ġpsi": 4927, "nov": 4928, "Ïģ": 4929, "Ġcentr": 4930, "}},": 4931, "ĠĠĠĠĠĠĠĠĠĠĠĠĠĠĠĠĠĠĠĠĠĠĠĠĠĠĠĠĠĠĠĠĠĠĠĠĠĠĠĠĠĠĠĠĠĠĠĠĠĠĠĠĠĠĠĠĠĠĠĠĠĠĠĠĠ": 4932, "Ġinformative": 4933, "urement": 4934, "subset": 4935, "along": 4936, "coupon": 4937, "theses": 4938, "Ġperiodic": 4939, "uniform": 4940, "compress": 4941, "minus": 4942, "flight": 4943, "normalized": 4944, "ĠÏĦ": 4945, "ĠĠĠĠĠĠĠĠĠĠĠĠĠĠĠĠĠĠĠĠĠĠĠĠĠĠĠĠĠĠĠĠĠĠĠĠĠĠĠĠĠĠĠĠĠĠĠĠĠĠĠĠĠĠĠĠĠĠĠĠ": 4946, "âĢ²": 4947, "Ġreproduction": 4948, "isher": 4949, "Ġfriction": 4950, "Frequency": 4951, "sequently": 4952, "extr": 4953, "until": 4954, "Ġsupern": 4955, ",#": 4956, "Ġintroduces": 4957, "accum": 4958, "angled": 4959, "Ġsufficiently": 4960, "Ġeta": 4961, "Ġgraphs": 4962, "flip": 4963, "*$": 4964, "assigned": 4965, "Ġensemble": 4966, "pod": 4967, "Ġreadings": 4968, "ivation": 4969, "maximum": 4970, "Ġdagger": 4971, "asured": 4972, "Ġtransported": 4973, "Ġidentities": 4974, "Ġante": 4975, "exc": 4976, "bullet": 4977, "istical": 4978, "gas": 4979, "Ġobservable": 4980, "science": 4981, "$a": 4982, "âŁ©": 4983, "sources": 4984, "permit": 4985, "Ġirrelevant": 4986, "Ġsimplify": 4987, "compact": 4988, "Ġupward": 4989, "ersed": 4990, "ffects": 4991, "imap": 4992, ",V": 4993, "-ne": 4994, "estimate": 4995, "ellaneous": 4996, "Ġcaptures": 4997, "Tuesday": 4998, "chapter": 4999, "Ġemission": 5000, "rho": 5001, "would": 5002, "ddd": 5003, "Ich": 5004, "amiliar": 5005, "altern": 5006, "inform": 5007, "conc": 5008, "rium": 5009, "ĠHern": 5010, "Gamma": 5011, "Ġviolate": 5012, "percentage": 5013, "ĠCodes": 5014, "acency": 5015, "Ġapples": 5016, "Ġreplaces": 5017, "Ġranged": 5018, "âĹ": 5019, "appear": 5020, "mapping": 5021, "needed": 5022, "Ġnortheast": 5023, "Ġgrains": 5024, "Ġcohort": 5025, "quares": 5026, "Ä±k": 5027, "Ġcubic": 5028, "outputs": 5029, "degree": 5030, "paren": 5031, "limits": 5032, "extended": 5033, "samples": 5034, "refer": 5035, "ubic": 5036, "Ġestimation": 5037, "losures": 5038, "nothing": 5039, "Ġratios": 5040, "$f": 5041, "requires": 5042, "Ġbudgets": 5043, "Thomas": 5044, "gap": 5045, "Î·": 5046, "Ġcontour": 5047, "Ġneighboring": 5048, "Ġpend": 5049, "itet": 5050, "critical": 5051, "adaptive": 5052, "Carthy": 5053, "spin": 5054, "ensation": 5055, "-str": 5056, "Ġlatent": 5057, "+\\": 5058, "Ġextensively": 5059, "oled": 5060, "Ġample": 5061, ")+(": 5062, "Foot": 5063, "Ġtract": 5064, "erture": 5065, "Ġae": 5066, "between": 5067, "Smith": 5068, "Ek": 5069, "Ġmolecule": 5070, "Rad": 5071, "peated": 5072, "given": 5073, "Ġsteadily": 5074, "particle": 5075, "bull": 5076, "Ġdynamically": 5077, "invest": 5078, "Ġkj": 5079, "Ġdecreases": 5080, "Ġcorpus": 5081, "Ġisolate": 5082, "stead": 5083, "cool": 5084, "ĠTul": 5085, "negative": 5086, "identified": 5087, "Dash": 5088, "Ġweaker": 5089, "fra": 5090, "ernels": 5091, "owns": 5092, "ĠFrequency": 5093, "Ġconfirms": 5094, ")},": 5095, "Ġoscill": 5096, "Ġderive": 5097, "Ġcanonical": 5098, "Ġcompares": 5099, "species": 5100, "estion": 5101, "dimension": 5102, "Ġderivatives": 5103, "levels": 5104, "Ġrespects": 5105, "Ġrelaxation": 5106, "-election": 5107, "incre": 5108, "efficient": 5109, "ahead": 5110, "olecular": 5111, "following": 5112, "ilateral": 5113, "Ġcontributes": 5114, "+y": 5115, "amental": 5116, "Î¼": 5117, "mediately": 5118, "capt": 5119, "Ġchord": 5120, "metrics": 5121, "jump": 5122, "circ": 5123, "ĠOmega": 5124, "still": 5125, "tran": 5126, "}[": 5127, "Conclusion": 5128, "remaining": 5129, "Ġequival": 5130, "\\b": 5131, "Ġbids": 5132, "dash": 5133, "Indeed": 5134, ",H": 5135, "Ġdiffers": 5136, "Ġblues": 5137, "Ġrepresentations": 5138, "wid": 5139, "Ġcertainty": 5140, "analy": 5141, "Ġcorrespondence": 5142, "Ġfinder": 5143, "Ġheavier": 5144, "accel": 5145, "these": 5146, "presentation": 5147, "Ïĥ": 5148, "pecified": 5149, "missible": 5150, "Ġamplitude": 5151, "Ġrays": 5152, "outline": 5153, "layers": 5154, "Ġunstable": 5155, "estimated": 5156, "Ġcutoff": 5157, "spaces": 5158, "\\(": 5159, "Theta": 5160, "cheduling": 5161, "Ġinference": 5162, "population": 5163, "Ġscatter": 5164, "Ġdownward": 5165, "Thus": 5166, "achie": 5167, "ĠLambda": 5168, "Dic": 5169, "respect": 5170, "polation": 5171, "nor": 5172, "fork": 5173, "pherical": 5174, "ĠSpecifically": 5175, "ĠCond": 5176, "counts": 5177, "Ġbacterial": 5178, "Ġapproximate": 5179, "Ġtopology": 5180, "-inter": 5181, "Ġposterior": 5182, "Ġlumin": 5183, "Ġobserving": 5184, "{:": 5185, "easy": 5186, "assume": 5187, "Sink": 5188, "Ġsymmetry": 5189, "-val": 5190, "Ġmetallic": 5191, "Phi": 5192, "Lemma": 5193, "{x": 5194, "Ġrefine": 5195, "conditional": 5196, "-u": 5197, "cube": 5198, "polate": 5199, "+k": 5200, "already": 5201, "systems": 5202, "Ġempirical": 5203, "minor": 5204, "underline": 5205, "ilibrium": 5206, "Ġaccumulation": 5207, "Ġsimulated": 5208, "_*": 5209, "vir": 5210, "Ġemphasize": 5211, "Ġmerger": 5212, "structures": 5213, "parallel": 5214, "{|": 5215, "tiny": 5216, "*\\": 5217, "scheme": 5218, "means": 5219, "built": 5220, "Ġrandomized": 5221, "candidate": 5222, "Ġperimeter": 5223, "ĠâĨĳ": 5224, "exact": 5225, "ĠLM": 5226, "give": 5227, "pieces": 5228, "Spread": 5229, "Ġsimulations": 5230, "frequency": 5231, "physical": 5232, "ease": 5233, "etermined": 5234, "recent": 5235, "reasonable": 5236, "Ġnominal": 5237, "consumer": 5238, "-frame": 5239, "ISM": 5240, "ĠCombine": 5241, "ighbour": 5242, "Ġalgebra": 5243, "closure": 5244, "aussian": 5245, "reject": 5246, "istency": 5247, "Ġadaptive": 5248, "aligned": 5249, "ivative": 5250, "-war": 5251, "construction": 5252, "Ġstellar": 5253, "misc": 5254, "rk": 5255, "evaluate": 5256, "papers": 5257, "Ġpolynomial": 5258, "trial": 5259, "Ns": 5260, "ĠHaus": 5261, "ĠLem": 5262, "survey": 5263, "imates": 5264, "plug": 5265, "Ġentropy": 5266, "Specific": 5267, "ĠĠĠĠĠĠĠĠĠĠĠĠĠĠĠĠĠĠĠĠĠĠĠĠĠĠĠĠĠĠĠĠĠĠĠĠĠĠĠĠĠĠĠĠĠĠĠĠĠĠĠĠĠĠĠĠĠĠĠĠĠĠĠĠĠĠ": 5268, "ĠBrock": 5269, "remain": 5270, "Ġdiscounted": 5271, "ĠSpread": 5272, "_tf": 5273, "bab": 5274, "ĠÏĥ": 5275, "measure": 5276, "^{": 5277, "instances": 5278, "hift": 5279, "roduce": 5280, "ogeneous": 5281, "approx": 5282, "constraint": 5283, "terminate": 5284, "lies": 5285, "Ġprobabilities": 5286, "ÏĢ": 5287, "ĠâĪĪ": 5288, "ĠÎ»": 5289, "coding": 5290, "budget": 5291, "consult": 5292, "above": 5293, "PV": 5294, "ensemble": 5295, "ĠGaussian": 5296, "ipation": 5297, "Ġbundles": 5298, "coeff": 5299, "Ġrealization": 5300, "otp": 5301, "them": 5302, "Ġnormalization": 5303, "tie": 5304, "Ġinduce": 5305, "Ġaccelerated": 5306, "whether": 5307, "ipro": 5308, "Ġaverages": 5309, "anal": 5310, "snap": 5311, "Ġsubstitution": 5312, "ĠEk": 5313, "Ġconfirming": 5314, "reward": 5315, "ĠLap": 5316, "pled": 5317, "associated": 5318, "hel": 5319, "igram": 5320, "+c": 5321, "Ġselects": 5322, "entropy": 5323, "parable": 5324, "pletely": 5325, "ancellation": 5326, "functional": 5327, "Upon": 5328, "^-": 5329, "tracks": 5330, "loses": 5331, "[L": 5332, "ĠColeman": 5333, "Ġcrosses": 5334, "Ġseparating": 5335, "solution": 5336, "ĠSigma": 5337, ",W": 5338, "parated": 5339, "Ġparity": 5340, "periments": 5341, "updates": 5342, "=M": 5343, "Cond": 5344, "their": 5345, "Ġexhibits": 5346, "Ġsaturation": 5347, "fers": 5348, "Ġdistortion": 5349, "either": 5350, "otics": 5351, "Ġassigns": 5352, "Ġretaining": 5353, "latent": 5354, "curve": 5355, "clidean": 5356, "Ġsucceeds": 5357, "Taking": 5358, "ovich": 5359, "ynamics": 5360, "restart": 5361, "slash": 5362, "six": 5363, "phas": 5364, "Ġcatalyst": 5365, "avors": 5366, "jective": 5367, "Ġmarkdown": 5368, "Ġconstituents": 5369, "documents": 5370, "Ġpoles": 5371, "restricted": 5372, ",Z": 5373, "compiled": 5374, "cdot": 5375, "horn": 5376, "sessions": 5377, "âĨĴ": 5378, "structured": 5379, "ĠOber": 5380, "beg": 5381, "icont": 5382, "}=": 5383, "ĠWalsh": 5384, "specific": 5385, "Î²": 5386, "Ġconsequently": 5387, "phot": 5388, "Ġdownstream": 5389, "}_{": 5390, "Ġrounding": 5391, "near": 5392, "kov": 5393, "stood": 5394, "Ġsupers": 5395, "pure": 5396, "ĠÏĢ": 5397, "were": 5398, "Ġunderline": 5399, "sentence": 5400, ")e": 5401, "ĠConsequently": 5402, "winner": 5403, "noise": 5404, "dens": 5405, "Ġsquared": 5406, "Ġlocalization": 5407, "edly": 5408, "ĠDong": 5409, "subseteq": 5410, "}|": 5411, "rewrite": 5412, "Ġmutually": 5413, "Ġgeometric": 5414, "contained": 5415, "Ġborrowing": 5416, "Ġprocurement": 5417, "Ġstationary": 5418, "five": 5419, "Dar": 5420, "Ġoracle": 5421, "Ash": 5422, "orphism": 5423, "omal": 5424, "XR": 5425, "Ġinflux": 5426, "OE": 5427, "natural": 5428, "wald": 5429, "sharp": 5430, "KL": 5431, "Ġsouthwest": 5432, "distinct": 5433, "ĠâĬ": 5434, "availability": 5435, "Ġreliance": 5436, "holds": 5437, "possibly": 5438, "Ġmaximal": 5439, "Ġdifferentiate": 5440, "below": 5441, "\\db": 5442, "Ġrests": 5443, "ĠLore": 5444, "pitch": 5445, "ffield": 5446, "[K": 5447, "ĠSage": 5448, "runs": 5449, "pixels": 5450, ">i": 5451, "duced": 5452, "rece": 5453, "Ġrepetition": 5454, "ĠPsi": 5455, "Ġauxiliary": 5456, "$m": 5457, "Ġdye": 5458, "edd": 5459, "Ġvariability": 5460, "those": 5461, "Ġpropagation": 5462, "ĠNDP": 5463, "Ġoptimum": 5464, "Ġfrac": 5465, "vac": 5466, "Ġwinding": 5467, "than": 5468, "Ġfavors": 5469, "underscore": 5470, "ARA": 5471, "metal": 5472, "implemented": 5473, "Eu": 5474, "ĠProceedings": 5475, "olecule": 5476, "coverage": 5477, "Ġlattice": 5478, "ĠObjective": 5479, "Ġsymmetric": 5480, "Ġcomputational": 5481, "collision": 5482, "variants": 5483, "Ġcosmic": 5484, "comparison": 5485, "tractor": 5486, "Therefore": 5487, "agents": 5488, "$,": 5489, "individual": 5490, "Ġformulation": 5491, "Ġinfinity": 5492, "Ġmultiplied": 5493, "TeX": 5494, "study": 5495, "longrightarrow": 5496, "opl": 5497, "ĠDifference": 5498, "Ġtextbook": 5499, "Ġanalogy": 5500, "triangle": 5501, "Ġnth": 5502, "isations": 5503, "Ġark": 5504, "least": 5505, "+r": 5506, "quist": 5507, "Ġequilibrium": 5508, "ĠQuantum": 5509, "Ġcavity": 5510, "little": 5511, "Ġconvergence": 5512, "attempt": 5513, "Ġowing": 5514, "petition": 5515, "Ġsuf": 5516, "behavior": 5517, "allows": 5518, "*_": 5519, "Ġspectral": 5520, "Ġrevival": 5521, "_\\": 5522, "-opt": 5523, "Rand": 5524, "profiles": 5525, "Ġapproximation": 5526, "ðĿ": 5527, "Furthermore": 5528, "-series": 5529, "ĠSink": 5530, "purple": 5531, "Chi": 5532, "arith": 5533, "mixed": 5534, "mor": 5535, "Ġradial": 5536, "smooth": 5537, "Ïī": 5538, "income": 5539, "reserve": 5540, "Ġaperture": 5541, "cir": 5542, "defines": 5543, "things": 5544, "better": 5545, "Moreover": 5546, "Ġcomputes": 5547, "equiv": 5548, "Ġdiffusion": 5549, "isin": 5550, "scopic": 5551, "ĠInterestingly": 5552, "Ġsimultaneous": 5553, "Ġinterpretations": 5554, "odal": 5555, "fund": 5556, "Pure": 5557, "Ġsine": 5558, "ĠGamma": 5559, "udies": 5560, "regions": 5561, "\\)": 5562, "Ġtheorem": 5563, "Ġridge": 5564, "depends": 5565, "Exact": 5566, "Ġ$\\": 5567, "Ġcoupling": 5568, "pto": 5569, "Ġrk": 5570, "much": 5571, "Ġdotted": 5572, "spread": 5573, "Lambda": 5574, "Ġrelativ": 5575, "ifferences": 5576, "'(": 5577, "chains": 5578, "JC": 5579, "}{$": 5580, "Ġpermutation": 5581, "Ġrewritten": 5582, "Ġvisc": 5583, "Ġknob": 5584, "truth": 5585, "Ġemerges": 5586, "$\\": 5587, "Ġexponential": 5588, "prices": 5589, "ussed": 5590, "amilies": 5591, "glob": 5592, "âī": 5593, "leneck": 5594, "Ġuniqueness": 5595, "writes": 5596, "ĠÎµ": 5597, "ĠKerr": 5598, "reaction": 5599, "Mil": 5600, "Ġpredictive": 5601, "lef": 5602, "dimensions": 5603, "difference": 5604, "ypo": 5605, "advance": 5606, "BV": 5607, "Î³": 5608, "divide": 5609, "Ġrejects": 5610, "solve": 5611, "experiment": 5612, "shows": 5613, "Ġinterpolate": 5614, "Â¹": 5615, "formula": 5616, "practice": 5617, "ambient": 5618, "fails": 5619, "ĠMolecular": 5620, "Ġtruncated": 5621, "ponential": 5622, "psilon": 5623, "Ġcharacterization": 5624, "Ġclosures": 5625, "singleton": 5626, "isol": 5627, "otherwise": 5628, "ĠSheffield": 5629, "ĠZu": 5630, "diag": 5631, "Nu": 5632, "research": 5633, "projection": 5634, "ibrated": 5635, "umption": 5636, "ĠJC": 5637, "}s": 5638, "Ġprose": 5639, "mom": 5640, ":t": 5641, "Ġdecrement": 5642, "aket": 5643, "Ġbounded": 5644, "likelihood": 5645, "SZ": 5646, "performance": 5647, "bij": 5648, "provide": 5649, "election": 5650, "inverse": 5651, "Ġyi": 5652, "sequences": 5653, "Ġseparates": 5654, "Ġsnapshots": 5655, "+h": 5656, "strategy": 5657, "IQ": 5658, "Ġrents": 5659, "Sigma": 5660, "Ġattribution": 5661, "Ġeighteen": 5662, "fine": 5663, "Ġsummarize": 5664, "Ġâī¥": 5665, "-comp": 5666, "Neither": 5667, "-equ": 5668, "ummer": 5669, "acobian": 5670, "$:": 5671, "-choice": 5672, "Ġfearful": 5673, "Difference": 5674, "ĠAccordingly": 5675, "Bang": 5676, "|x": 5677, "Ġtrunc": 5678, "ĠÂµ": 5679, "ideal": 5680, "=q": 5681, "chosen": 5682, "perfect": 5683, "pink": 5684, "Ġresolves": 5685, "contracts": 5686, "-{": 5687, "Henry": 5688, "provided": 5689, "exercise": 5690, "umann": 5691, "Ġkernels": 5692, "offline": 5693, "-shot": 5694, "elman": 5695, "Ġ|\\": 5696, "-context": 5697, "different": 5698, "artifact": 5699, "ĠPhi": 5700, "izons": 5701, "decision": 5702, "Ġspherical": 5703, "Ġsqueezed": 5704, "Gram": 5705, "prior": 5706, "similar": 5707, "Ġplateau": 5708, "biased": 5709, "Ġcooled": 5710, "-energy": 5711, "succ": 5712, "cot": 5713, "\\f": 5714, "itious": 5715, "ĠAppendix": 5716, "subs": 5717, "Beta": 5718, "urbation": 5719, "Ġdivides": 5720, "instead": 5721, "Ġfractions": 5722, "comput": 5723, "battle": 5724, "KP": 5725, "seeing": 5726, "capital": 5727, "moving": 5728, "rays": 5729, "Ġdecomposition": 5730, "boundary": 5731, "greater": 5732, "Ġspectro": 5733, "Au": 5734, "ĠKeller": 5735, "angler": 5736, "(-(": 5737, "bounded": 5738, "ĠStatistical": 5739, "Ġspeculative": 5740, "Atomic": 5741, "starts": 5742, "Ġcompensated": 5743, "bard": 5744, "Ġconvex": 5745, "ochastic": 5746, "ogonal": 5747, "fluid": 5748, "Phys": 5749, "illation": 5750, "-ext": 5751, "Ġgeneralized": 5752, "hydro": 5753, "grow": 5754, "Ġnovelty": 5755, "captures": 5756, "chemes": 5757, "principal": 5758, "angent": 5759, "south": 5760, "rates": 5761, "ranges": 5762, "consum": 5763, "nature": 5764, "Ġdashed": 5765, "essim": 5766, "Ġshowcasing": 5767, "irical": 5768, "outside": 5769, "))/(": 5770, "cite": 5771, "spect": 5772, "vides": 5773, "gne": 5774, "Ġshocks": 5775, "ĠLevy": 5776, "Ġestimator": 5777, "Filtered": 5778, "Îº": 5779, "eight": 5780, "laws": 5781, "later": 5782, "ĠXR": 5783, "egers": 5784, "ĠKL": 5785, "ĠBH": 5786, "mint": 5787, "dots": 5788, "Ġsatisfies": 5789, "ĠCobb": 5790, "Ġgeomet": 5791, "Ġdevised": 5792, "liter": 5793, "agree": 5794, "thermal": 5795, "hyper": 5796, "Ġfractional": 5797, "explo": 5798, "Ġfeasibility": 5799, "Ġequiv": 5800, "concept": 5801, "-cons": 5802, "orent": 5803, "having": 5804, "Ġtangent": 5805, "Ġreused": 5806, "against": 5807, "Ġaffine": 5808, "Ġextinct": 5809, "prediction": 5810, "tright": 5811, "immune": 5812, "{k": 5813, "checkpoint": 5814, "monthly": 5815, "Ġfences": 5816, "Ġslows": 5817, "Ġabsorbing": 5818, "radi": 5819, "ĠSZ": 5820, "ĠÎ´": 5821, "shown": 5822, "ĠTU": 5823, "nearest": 5824, "BITS": 5825, "summ": 5826, "Ġanomal": 5827, "oracle": 5828, "Ai": 5829, "cele": 5830, "density": 5831, "strate": 5832, "acterial": 5833, "conomy": 5834, "Ġspline": 5835, "extent": 5836, "implify": 5837, "scatter": 5838, "Ġkinetic": 5839, "Subset": 5840, "Ġexploiting": 5841, "Xi": 5842, "ĠLastly": 5843, "Ġhalo": 5844, "few": 5845, "}<": 5846, "Ġcontraction": 5847, "langle": 5848, "arsity": 5849, "ilinear": 5850, "CDF": 5851, "computed": 5852, "egment": 5853, "borrow": 5854, "rangle": 5855, "Ġprimitives": 5856, "Ġcoincide": 5857, "Ġclassifiers": 5858, "restriction": 5859, "ĠÎº": 5860, "steady": 5861, "Ġlogistic": 5862, "Ġrollout": 5863, "requencies": 5864, "Ġscattering": 5865, "difficulty": 5866, "offers": 5867, "ellipsis": 5868, "Ġhires": 5869, "ffa": 5870, "ightly": 5871, "suit": 5872, "Ġdisproportionately": 5873, "stretch": 5874, "technical": 5875, "yses": 5876, "apl": 5877, "foundation": 5878, "Ġdeterministic": 5879, "tent": 5880, "tet": 5881, "Ġpessim": 5882, "ffd": 5883, "dbl": 5884, "\\v": 5885, "Ġnab": 5886, "Ġrefinement": 5887, "fcc": 5888, "adds": 5889, "actually": 5890, "Âµ": 5891, "growth": 5892, "udence": 5893, "Ġunbiased": 5894, "mirror": 5895, "Ġhypotheses": 5896, "corner": 5897, "preferred": 5898, "<H": 5899, "monic": 5900, "intersection": 5901, "ecessarily": 5902, "ynthesis": 5903, "ĠRHS": 5904, "according": 5905, "Ġadjacency": 5906, "ĠConclusion": 5907, "Hyper": 5908, "Ġnonlinear": 5909, "evaluation": 5910, "promotion": 5911, "highest": 5912, "strength": 5913, "orbit": 5914, "ĠExact": 5915, "ĠIW": 5916, "Psi": 5917, "igroup": 5918, "Describe": 5919, "-real": 5920, "ĠSCH": 5921, "-shell": 5922, "Ġpreserves": 5923, "Ġgamb": 5924, "combination": 5925, "\\L": 5926, "Ġreversing": 5927, "lbrace": 5928, "Ġcosine": 5929, "stud": 5930, "appropri": 5931, "}}}": 5932, "numer": 5933, "\\V": 5934, "KH": 5935, "reported": 5936, "Ġoccupies": 5937, "Ġusefulness": 5938, "baseline": 5939, "{T": 5940, "yen": 5941, "Ġsuffice": 5942, "paired": 5943, "rights": 5944, "clubs": 5945, "âĨĳ": 5946, "Ġminimizing": 5947, "among": 5948, "Gro": 5949, "pert": 5950, "Ġestimating": 5951, "Newton": 5952, "Lie": 5953, "Diamond": 5954, "Labor": 5955, "enumerate": 5956, "grave": 5957, "purpose": 5958, "asier": 5959, "Ġdispersed": 5960, "lecture": 5961, "composition": 5962, "Independent": 5963, "colon": 5964, "alternative": 5965, "reflection": 5966, "assistant": 5967, "Ky": 5968, "Ġproofs": 5969, "doll": 5970, "Ġmonot": 5971, "pairs": 5972, "stellar": 5973, "Omega": 5974, ")V": 5975, "Ġyielding": 5976, "Ġexpansions": 5977, "Ġmidterm": 5978, "ĠKP": 5979, "Ġbist": 5980, "supports": 5981, "acteria": 5982, "Ġellipt": 5983, "Ġunrestricted": 5984, "ĠâĨĵ": 5985, "canonical": 5986, "observation": 5987, "multip": 5988, "ĠCompatibility": 5989, "\\[": 5990, "Ġdenote": 5991, "Ġdepleted": 5992, "Ġanalogous": 5993, "bases": 5994, "apses": 5995, "Objective": 5996, "imating": 5997, "consistent": 5998, "Reject": 5999, "increase": 6000, "continuous": 6001, "Ġexhausting": 6002, "indsight": 6003, "Ġindifferent": 6004, "ĳĲ": 6005, "odynamics": 6006, "worksheet": 6007, "SOC": 6008, "boxed": 6009, ")n": 6010, "Ġquadratic": 6011, "benchmark": 6012, "sing": 6013, "|#": 6014, "ĠRecall": 6015, "Ġsabotage": 6016, "ĠFibonacci": 6017, "makes": 6018, "classic": 6019, "auction": 6020, "weighted": 6021, "ĠHubbard": 6022, "lama": 6023, "infinity": 6024, "ĠEuler": 6025, "|$": 6026, "ertainty": 6027, "berman": 6028, "Ġleakage": 6029, "dense": 6030, "ĠKH": 6031, "leftright": 6032, "ombo": 6033, "identify": 6034, "effects": 6035, "Lastly": 6036, "Ġferm": 6037, "proper": 6038, "integr": 6039, "vergence": 6040, "explained": 6041, "belongs": 6042, "Communic": 6043, "risk": 6044, "integral": 6045, "fraction": 6046, "Combine": 6047, "ĠÎĶ": 6048, "ĠĠĠĠĠĠĠĠĠĠĠĠĠĠĠĠĠĠĠĠĠĠĠĠĠĠĠĠĠĠĠĠĠĠĠĠĠĠĠĠĠĠĠĠĠĠĠĠĠĠĠĠĠĠĠĠĠĠĠĠĠĠĠĠĠĠĠĠĠĠĠĠĠĠĠĠĠĠ": 6049, "toy": 6050, "Ġharmonic": 6051, "ĠðĿ": 6052, "Ġwaypoints": 6053, "configured": 6054, "ĠEstr": 6055, "kB": 6056, "Â¤": 6057, "caling": 6058, "ĠConversely": 6059, "constructed": 6060, "Ġtug": 6061, "equality": 6062, "croft": 6063, "distribution": 6064, "been": 6065, "leftrightarrow": 6066, "during": 6067, "Interestingly": 6068, "confidence": 6069, "oward": 6070, "poons": 6071, "_gas": 6072, "peq": 6073, "loops": 6074, "applications": 6075, "deriv": 6076, "Ġcomputations": 6077, "illustr": 6078, "included": 6079, "lus": 6080, "Ġcalculus": 6081, "panels": 6082, "desired": 6083, "Refs": 6084, "Ġstabilization": 6085, "demand": 6086, "Ka": 6087, "Ġprobing": 6088, "vary": 6089, "saving": 6090, "representation": 6091, "âĢł": 6092, "oscopic": 6093, "Ġperfor": 6094, "simulation": 6095, "-sample": 6096, "McC": 6097, "Ġkappa": 6098, "Bell": 6099, "Ġequivalence": 6100, "ĠÎĵ": 6101, "contrast": 6102, "idis": 6103, "Ġpayoff": 6104, "Proceed": 6105, "{s": 6106, "ĠkB": 6107, "nge": 6108, "decay": 6109, "objective": 6110, "|.": 6111, "ĠEquation": 6112, "Ġdisjoint": 6113, "Ġcalibrated": 6114, "Ġequivalents": 6115, "indic": 6116, "cosity": 6117, "Ġorbits": 6118, "whose": 6119, "inant": 6120, "Î´": 6121, "Ġtrajectories": 6122, "Ġarbitrarily": 6123, "ĠClifford": 6124, "rapid": 6125, "Ġcontinuum": 6126, "ĠLemma": 6127, "Ġunilateral": 6128, "Compatibility": 6129, "Ġconject": 6130, "Ġentail": 6131, "OMETRY": 6132, "wins": 6133, "typically": 6134, "Ġcrossings": 6135, "Ġhomogeneous": 6136, "graphs": 6137, "outcome": 6138, "Ġreciprocal": 6139, "Ġhindsight": 6140, "Ġcollapses": 6141, "bundles": 6142, "ĠProposition": 6143, "traditional": 6144, "Ġdeterminant": 6145, "Kal": 6146, "\\D": 6147, "^{-": 6148, "ĠReject": 6149, "Ġcompounded": 6150, "Ġingestion": 6151, "sphere": 6152, "probability": 6153, "longleftrightarrow": 6154, "Ġappendix": 6155, "Lt": 6156, "MES": 6157, "adjusted": 6158, "Ġbottleneck": 6159, "ĠRao": 6160, "{}\\": 6161, "-density": 6162, "adapt": 6163, "Ġfict": 6164, "Ġphotons": 6165, "landscape": 6166, "Î¸": 6167, "ffb": 6168, "-gap": 6169, "istinguish": 6170, "Colon": 6171, "Ġsupplemented": 6172, "ĠMilky": 6173, "ivalence": 6174, "basis": 6175, "inear": 6176, "Ġweighting": 6177, "ĠFourier": 6178, "matching": 6179, "):\\": 6180, "knowledge": 6181, "exclusive": 6182, "ĠAmir": 6183, "newline": 6184, "feas": 6185, "higher": 6186, "-parameter": 6187, "alphabet": 6188, "ĠBasel": 6189, "ĠApplying": 6190, "âĤĢ": 6191, "Ġdensities": 6192, "Ġviewpoints": 6193, "modes": 6194, "ULER": 6195, "Ġtruthful": 6196, "Ġlogarith": 6197, "]^": 6198, "Ġnarrower": 6199, "SX": 6200, "Ġdeformation": 6201, "significant": 6202, "<d": 6203, "oretical": 6204, "ĠLÃ³pez": 6205, "reve": 6206, "Ġrotational": 6207, "gcd": 6208, "{n": 6209, "Wilson": 6210, "detector": 6211, "mathrm": 6212, "identification": 6213, "programming": 6214, "Dou": 6215, "Ġshaded": 6216, "cth": 6217, "covering": 6218, "potential": 6219, "Ġevolves": 6220, "Ġunfavorable": 6221, "Ġstabilized": 6222, "+(\\": 6223, "singular": 6224, "Ġmiscellaneous": 6225, "lac": 6226, "raised": 6227, "existence": 6228, "ordial": 6229, "stitutions": 6230, "Tau": 6231, "ĠMetals": 6232, "Ġillustrating": 6233, "scaling": 6234, "enerating": 6235, "theory": 6236, "centration": 6237, "Ġsummarizes": 6238, "explicit": 6239, "Ġsubstitutions": 6240, "gross": 6241, "recall": 6242, "implements": 6243, "twenty": 6244, "stress": 6245, "necessary": 6246, "]$": 6247, "predicted": 6248, "explain": 6249, "parity": 6250, "Ġejected": 6251, "implement": 6252, "Leod": 6253, "Ġorthogonal": 6254, "statements": 6255, "ĠMSE": 6256, "embedding": 6257, "supply": 6258, "packing": 6259, "Ġstochastic": 6260, "Ġderivation": 6261, "ĠLips": 6262, "universal": 6263, "problems": 6264, "rejected": 6265, "huge": 6266, "proved": 6267, "ĠHOL": 6268, "gather": 6269, "conditionally": 6270, "Ġminimise": 6271, "{(": 6272, "Ġcorrelates": 6273, "Ġasympt": 6274, "magnitude": 6275, "htt": 6276, ")}.": 6277, "imations": 6278, "Hamilton": 6279, "Ġhelium": 6280, "slope": 6281, "ranking": 6282, "approximately": 6283, "Ġcoolant": 6284, "Ġasymmetric": 6285, "))^": 6286, "says": 6287, "sampling": 6288, "BH": 6289, "Ġ\\|": 6290, "mentions": 6291, "-aligned": 6292, "Ġresiduals": 6293, "relevant": 6294, "undance": 6295, "modification": 6296, "''.": 6297, "ificantly": 6298, "ewith": 6299, "sense": 6300, "ĠLaTeX": 6301, "figures": 6302, "-period": 6303, "ĠBayesian": 6304, "Cole": 6305, "sparse": 6306, "ysts": 6307, "leads": 6308, "Ġviscosity": 6309, "TU": 6310, "ĠÎ½": 6311, "idders": 6312, "\\R": 6313, "ĠÏĩ": 6314, "Ä©": 6315, "Î¾": 6316, "ĠÎ¸": 6317, "ĠÎ£": 6318, "ÏĪ": 6319, "Ã¶z": 6320, "ĠÎ·": 6321, "ĠÎ¶": 6322, "ĠÎ¾": 6323, "labor": 6324, "lak": 6325, "eix": 6326, "inj": 6327, "ĠÏī": 6328, "ĠDic": 6329, "Ġquas": 6330, "Î¦": 6331, "âīĪ": 6332, "âĪĪ": 6333, "ãĢī": 6334, "âī¥": 6335, "âĪ¼": 6336, "âĪļ": 6337, "ï¬ģ": 6338, "lack": 6339, "ĠÎĽ": 6340, "ĠÎ¦": 6341, "ebar": 6342, "liance": 6343, "dor": 6344, ")âĢĻ": 6345, "ĠNÃ©": 6346, "ĠLÃ©": 6347, "Ã§Ä±": 6348, "ĠStabil": 6349, "Ġvare": 6350, "pens": 6351, "Ket": 6352, "ĠÎ©": 6353, "otin": 6354, "rare": 6355, "emerg": 6356, "Ġperturb": 6357, "inom": 6358, "ĠâīĪ": 6359, "Haus": 6360, "Spiel": 6361, "entang": 6362, "sab": 6363, "HOT": 6364, "boh": 6365, "iota": 6366, "clos": 6367, "valo": 6368, "latt": 6369, "Pand": 6370, "zam": 6371, "ĠNek": 6372, "impat": 6373, "sinh": 6374, "cong": 6375, "mechan": 6376, "Ġprimordial": 6377, "princip": 6378, "ĠSb": 6379, "obt": 6380, "trend": 6381, "suc": 6382, "Bra": 6383, "casino": 6384, "ĠFDP": 6385, "Ġlatt": 6386, "aS": 6387}, "merges": ["Ġ Ġ", "ĠĠ ĠĠ", "i n", "Ġ t", "ĠĠĠĠ ĠĠĠĠ", "e r", "ĠĠ Ġ", "o n", "Ġ a", "r e", "a t", "s t", "o r", "Ġt h", "Ċ Ċ", "Ġ c", "l e", "Ġ s", "i t", "a n", "a r", "a l", "Ġth e", "Ġ p", "Ġ f", "o u", "Ġ =", "i s", "ĠĠĠĠ ĠĠĠ", "in g", "e s", "Ġ w", "i on", "e d", "i c", "Ġ b", "Ġ d", "e t", "Ġ m", "Ġ o", "r o", "a s", "e l", "c t", "n d", "Ġ in", "Ġ h", "i d", "Ġ n", "a m", "ĠĠĠĠĠĠĠĠ ĠĠĠ", "Ġt o", "Ġ re", "- -", "Ġ {", "Ġo f", "o m", "i m", "Ġ (", "Ġa nd", "u r", "s e", "Ġ l", "e x", "Ġ S", "a d", "Ġ \"", "c h", "u t", "i f", "Ġ }", "e m", "o l", "t h", "Ġ g", "i g", "i v", "c e", "o d", "Ġ v", "at e", "Ġ T", "a g", "o t", "u s", "Ġ C", "Ġ st", "Ġ I", "u n", "u l", "Ġ A", "o w", "Ġ '", "e w", "Ġ <", "at ion", "Ġf or", "a b", "or t", "u m", "Ġ is", "p e", "t r", "Ġ y", "i st", "h e", "Ġ e", "l o", "Ġ M", "Ġb e", "er s", "Ġ on", "Ġc on", "a p", "u b", "Ġ P", "as s", "in t", "l y", "Ġ $", "i r", "n t", "Ġd e", "it h", "ou t", "ou r", "l ic", "re s", "p t", "Ġth is", "Ġ if", "Ġ D", "v er", "ag e", "Ġ B", "ex t", "Ġth at", "Ġ R", "Ġ it", "Ġ F", "Ġ r", "o s", "an d", "Ġa s", "e ct", "k e", "c on", "Ġ L", "q u", "Ġw ith", "d e", "Ġ N", "Ġa l", "o p", "u p", "g et", "i le", "Ġa n", "o re", "Ġp ro", "a in", "Ġ W", "Ġ E", "Ġc om", "Ġre turn", "ar t", "Ġ H", "Ġ or", "e st", "Ġ G", "ab le", "Ġ -", "in e", "in d", "it y", "Ġ +", "or m", "ul t", "p l", "Ġn ew", "Ġ j", "Ġ ex", "Ġ O", "l d", "Ġ [", "Ġ le", ". s", "' ,", "an t", "Ġa t", "Ġc h", "an g", "Ġa re", "Ġin t", "_ t", "i al", "iv e", "Ġn ot", "o g", "or d", "al l", "f f", "on t", "im e", "a re", "Ġ U", "Ġp r", "Ġ :", "i es", "u re", "Ġb y", "i re", "ic e", "a st", "pt ion", "c l", "# #", "Ġh e", ") .", "Ġw as", "i p", "th is", "Ġ u", "ĠT he", "id e", "a ce", "a c", "Ġw e", "j ect", "a k", "v e", "at h", "u st", "Ġre s", ") )", "' s", "Ġ k", "an s", "Ġ i", "Ġ us", "on e", "Ġ /", "Ġ &", "a ch", "d iv", "el l", "Ġh ave", "er r", "ul l", "Ġ J", "_ p", "S t", "Ġp l", "f orm", "d d", "Ġg et", "r r", "om e", "c c", "I n", "le s", "on g", "Ġc an", "Ġ V", "p r", "Ġ un", "ro w", "Ġd o", "l l", "Ġ el", "at ed", "ar y", "Ġ .", "t e", "_ c", "Ġa b", "Ġ #", "o b", "ap p", "Ġal l", "it ion", "an ce", "e ar", "ĠĠĠĠĠĠĠĠ Ġ", "re turn", "R e", "p le", "th er", "Ġ out", ") ,", "Ġh as", "s o", "Ġ up", "a x", "g e", "p er", "ic h", "Ġb ut", "Ġ Ċ", "Ġ _", "ad d", "a ke", "Ġg o", "Ġ K", "Ġs et", ". m", "al ly", "s et", "e p", "âĢĻ s", "b o", "de f", "e c", "ĠI n", "p h", "Ġ |", "I d", "u g", "et h", "con t", "Ġs o", "p ro", "s s", "ow n", "o int", "ou s", "T he", "e g", "ke y", "ĠS t", "Ġa r", "f er", "Ġm ore", "ation s", "ent s", "Ġh is", "Ġthe y", "Ġ Y", "u se", "n e", "is h", "ol d", "Ġp er", "ing s", "e f", "Ġon e", "v al", "le d", "Ġn e", "Ġ end", "c re", "ar k", "lo g", "E x", "err or", "Ġn ull", "Ġm y", "ic t", "at or", "Ġp re", "Ġ x", "ar g", "o v", "Ġ >", "Ġthe ir", "' )", "ic k", "L E", "t em", "us er", "Ġ )", "c om", "_ b", "Ġt ime", "Ġan y", "w e", "nd er", "g r", "Ġn o", "f ig", "ion s", "Ġab out", "Ġo ver", "c a", "S E", "Ġ ro", "s h", "s on", "n ew", "er n", "] .", "ic al", "ut h", "i x", "v ar", "Ġp art", "o se", "Ã ©", "p os", "n g", "us ing", "at es", "el y", "in al", "Ġs p", "ĠĠĠĠ ĠĠ", "t o", "as h", "Ġu se", "Ġa d", "in clude", "Ġo ther", "m s", "m l", "c o", "an n", "con st", "Ġs up", "d ate", "Ġh ad", "ĠâĢ ľ", "is s", "Ġ our", "Ġs ome", "d u", "o f", "l ine", "Ġh er", "is e", "m in", "I nt", "od y", "Ġle t", "Ġal so", "ĠI t", "ur l", "or s", "ig h", "Ġth an", "at ing", "re f", "_ S", "ro ll", "Ġj ust", "Ġres ult", "i an", "Ġthe m", "d er", "re ak", "C on", "u le", "ar r", "Ġint o", "i ed", "Ġ \\", "] ,", "w o", "al s", "Ġp os", "ag es", "u es", "_ T", "( s", "Ġ z", "le t", "re d", "Ġ ,", "( t", "w ord", "ĠT r", "c ent", "Ġon ly", "Ġpr int", "m er", "T ext", "Ġit s", "Ġb ack", "Ġne ed", "Ġc l", "Ġs ub", "Ġl a", "( (", "Ġst art", "n er", "Ġ ent", "it s", "it em", "ĠW e", "Ġ Q", "ic s", "Ġu nder", ") ;", "ic es", "S S", "re at", "i ous", "e k", "ire ct", "n ing", "u nd", "s um", "Ġh ow", "T o", "ind ex", "Ġin d", "ĠH e", "f ul", "op y", "i er", "ot e", "Ġt est", "Ġb et", "ul ar", "t ing", "Ġm ake", "T r", "Ġa fter", "r c", "def ine", "Ġr ight", "r ight", "Ġl ong", "ĠP ro", "ption s", ". g", "p ace", "m p", "Ġm in", "t ext", "Ġf l", "b r", "f ore", "in s", "- s", "ĠI nt", "Ġs he", "Ġex p", "un c", "pr int", "Ġfor m", "Ġd r", "ord er", "B y", "it ies", "u ff", "Ġcom p", "a z", "b e", "Ġn umber", "ĠE x", "Ġ key", "Ġt wo", "Ġs ize", "res ult", "u ch", "at ive", "g er", "Ġar g", "Ġre c", "Ġd if", "ĊĊ Ċ", "end s", "u res", "et s", "ĠI f", "ĠS h", "b ack", "Ġh and", "I m", "Ġn ow", "( n", "- m", "- b", "tr ans", "Ġp oint", "Ġm od", "Ġ error", "Ġt ext", "Ġf ind", "Ġus ed", "Ġl og", "Ġthe se", "Ġd own", "( d", "Ġit em", "m an", "am ple", "H e", "Ġd id", "Ġth rough", "ĠA n", "ou se", "l er", "Ġl ast", "le ar", "uth or", "Ġl ine", "Ġdo es", "ar s", "f ace", "Ġ `", "_ A", "at ure", "ect ed", "Ġbe fore", "a le", "o ther", "i k", "re g", "Ġd ist", "Ġst ate", "at t", "in ed", "Ġf inal", "L O", "Ġr un", "Ġ X", "y m", "c es", "_ N", "are d", "it ed", "it ch", "if e", "Ġa c", "Ġc all", "Ġat t", "ver t", "Ġde c", "ou n", "f r", "form ation", "a j", "Ġw ell", "ĠA s", "a int", "Ġs im", "ĠA r", "m on", ") :", "S et", "Ġp res", "W e", "A t", "end er", "Ġgo od", "ation al", "Ġus ing", "_ B", "Ġ: =", "t ime", "b y", "\\ n", "Ġ( $", "id ent", "ot t", "les s", "ur s", "p re", "m a", "p ar", "im es", ". e", "ain s", "- d", "Ġdif fer", "pl ate", "ĠF or", "Ġm uch", "u c", "ch ar", "m it", "ak ing", "ach e", "Ġ( (", "th e", "- c", "Ġn ext", "cont ent", "im age", "U n", "row s", "Ġp ath", "Ġe ach", "ĠP l", "re m", "u ally", "i ence", "Ġ et", "ĠĠĠĠĠĠĠĠ ĠĠ", "Ġth ose", "o ff", "Ġbe st", "us s", "Ġ Z", "A B", "if ied", "Ġg roup", "Ġf in", "t y", "( b", "ar n", "iv es", "Ġm ain", "A G", "val id", "Ġt ake", "Ġto p", "ĠO n", "et a", "O ver", "n ot", "Ġind ex", "h er", "O n", "Ġre al", "Ġm ax", "l and", "t est", "Ġar t", "g round", "f or", "ĠâĢ Ķ", "Ġ ke", "Ġt able", "s ub", "Ġhe ad", "Ġm ust", "Ġor der", "o ver", "he ad", "r g", "Ġin formation", "c ed", "t able", "ĠA ll", "bo x", "ĠT o", "it er", "S h", "ur ation", "c ome", "b l", "ag s", "U S", "_ H", "Ġwith out", "Ġs ol", "Ġre f", "ain ing", "m ed", "Ġc ap", "c ol", "( x", "A n", "if t", "Ġgo ing", "on d", "os ition", "Ġd irect", "P l", "A s", "re t", "ro ss", "I t", "} ,", "Ġall ow", "s ize", "is m", "an e", "cont ext", "n o", "s p", "Ġdiffer ent", "Ġa round", "m ap", "O r", "u x", "fer ence", "_ e", "- f", "iv ed", "U E", "_ O", "Ġto o", "form at", "int er", "r on", "x t", "o y", "Ġsup er", "b ar", "l n", "as es", "- p", "m d", "Ġ ]", "s w", "s cript", "ast er", "ĠĠ Ċ", "L e", "( {", "ĠN o", "Ġpos ition", "U p", "_ V", "v es", "p ath", "Ġagain st", "_ L", "c ur", "W ith", "i um", "or th", "qu als", "- g", "er g", ") (", "r l", "on s", "- t", "up date", "s c", "Ġe lement", "r am", "Ġd ate", "Ġto t", "A ll", "m y", "Ġb ig", "ĠA t", "ot s", "Ġm ap", ". $", "Ġf ew", "ĠC l", "ir c", "Ġan other", "st ate", "F or", "i or", "st art", "Ġ} ,", "Ġn on", "ict ion", "Ġf ull", "ith er", "Ġb ody", "( _", "p i", "Ġb lock", "Ġke ep", "Ġth ings", "Ġcom e", "one y", "od es", "p ly", "T able", "t a", "Ġrequire d", ". ,", "a f", "S tr", "Ġne ver", "ad a", "Ġ ;", "A d", "us ed", "m od", "b ody", "( r", "P oint", "Ġj ob", "ain ed", "Ġs um", "a im", "Ġup date", "a ff", "at ely", "ĠT e", "m e", "Ġg iven", "ic ally", "pro p", "I f", "v is", "Ġle ss", "/ s", "ĠA ss", "ire d", "Ġfollow ing", "Ġ er", "E M", "al ity", "ĠO R", "Ġre st", "Ġper form", "re c", "p oint", "Ġc ell", "ar i", "( R", "at ures", "Ġtot al", "U M", "ight s", "Ġc lear", "I R", "Ġ row", "Ġ q", "m ax", "- h", "in c", "ab ly", "re ated", "ir m", "im al", "a u", "( a", "Ġwith in", "ro ot", "Ġc ent", "p ose", "o pt", "ul ation", "n ull", "d own", "s ide", "ĠS he", "Ġst op", "d f", "re q", "ro om", "Ġg ive", "am b", "Ġc opy", "{ {", "d o", "Ġe ither", "at tr", "v ers", "Ġst ep", "A nd", "Ġt imes", "Ġf our", "Ġpres ent", "Ġro om", "Ġon ce", "cent er", "Ġresult s", "Ġg row", "O P", "ol s", "Ġm ass", "ure d", "om ic", "ip s", "Ġun til", "Ġare a", "u it", "ĠW ith", "if f", "m b", "Ġl ight", "Ġs ide", "Ġex ample", "V is", "iv ely", "S ub", "ĠU p", "Ġa uthor", "ĠD o", "Ġal ong", "Ġw in", "i j", "le y", "un ch", "Ġa nt", "_ x", "ĠB y", "s l", "Ġto ld", "Ġe qu", "d a", "on ly", "Ġle ast", "ar ing", "Ġm aking", "u ed", "em p", "\" .", "Ġper cent", "ag ed", "Ġc ity", "im um", "Ġl ate", "in o", "ĠR ep", "n ow", "v o", "is on", "id es", "r t", "g o", "Ġl ow", "Ġpr ice", "ym b", "id s", "ĠâĢ ĺ", "Ġo pt", "Ġd et", "Ġre view", "Ġw ord", "} }", "\\ \\", "ĠI S", "im ate", "is c", "Ġh aving", "le m", "ab s", "Ġex c", "get her", "pl ied", "a o", "sh ow", "/ d", "ad es", "r al", "\\ x", "Ġro le", "t op", "pos ition", "s v", "Ġpoint s", "Ġcon c", "i os", "P r", "S C", "Ġsp ace", "Ġst ore", "Ġform at", "s m", "Ġf ace", "Ġs ave", "de v", "C ell", "n ext", "d r", "ĠP er", "Ġb ar", "f a", "Ġbe come", "im ages", "ĠP art", "val ues", "Ġcom ponent", "st it", "Ġro ot", "C C", "Ġcl aim", "ĠS ub", "ang ed", "Ġn ight", "l in", "p end", "re et", "re l", "( S", "an y", "\\ u", "ĠO ne", "Ä ±", "Ġto gether", "F O", "is ing", "- r", "i i", "m ain", "Re c", "ĠF e", "un it", "Ġd u", "f s", "ach ed", "i res", "pos ed", "ic ult", "tem p", "P er", "Ġg e", "f ind", "ur ther", "re st", "iv al", "Ġac ross", "reg ion", "ol ve", "b all", "Ġle arn", "ind ing", "O ne", "as ure", "m ark", "p c", "lo or", "F T", "ward s", "Ġh ot", "Ġd raw", "Ġcom es", "ang le", "is ed", "m et", "se e", "g roup", "( -", "n umber", "ve c", "L L", "r ag", "Ġw ar", "Ġmodel s", "Ġin f", "l ight", "Ġcan not", "ur al", "Ġn et", "ĠN e", "g es", "w ith", "Ġh it", "at al", "return s", "ed ef", "Ġc irc", "Ġt reat", "Ġa ge", "Ġf ive", "ow s", "d is", "j ust", "l ast", "l a", "L o", "re w", "el ves", "Ġsim ple", "R I", "st ore", "( A", "Ġneed ed", "Ġr ate", "in ner", "c d", "ĠS m", "ĠM ore", "ent ly", "v ing", "P P", "ak er", "n s", "om et", "as ing", "cre t", "' .", "Ġent ire", "D own", "- control", "pl ot", "p art", "w ise", "ĠM c", "b it", "id ed", "ĠS tr", "ĠS ec", "select ed", "ist ic", "ro du", "k a", "' ),", "Ġl im", "b lock", "t ag", ") ).", "ex p", "Ġgener al", "' '", "ac count", "Ġf urther", "att le", "ce ed", "ĠA fter", "ro t", "o e", "h as", "l im", "or ig", "Ġreturn s", "Ġwe ight", "igh b", "Ġcondition s", "- to", "ĠN ow", "ĠM ain", "_ k", "trans form", "st ant", "Ġ ĊĊ", "n et", "R L", "u ge", "Ġs ix", "p ack", "we ight", "us es", "are a", "Ġh or", "c an", "f g", "l ong", "M S", "row n", "l t", "c s", "E ach", "Ġp rior", "P C", "Ġout side", "B C", "g n", "Ġg round", "set s", "Ġ$ (", "Ġshow s", "Ġb all", "Ġsim ply", "Ġf ast", "ant e", "Ġf it", "\\ t", "com ing", "Ġreport ed", "inter face", "n ers", "Ġun it", "pro ject", "h s", "Ġh om", ", -", "Ġcom ing", "i qu", "P S", "ĠS ch", "se c", "Ġfield s", "Ġf ix", "Ġc ases", "ĠS E", "as c", "C l", "Ġperform ance", "l ate", "c r", "Ġit self", "app end", "Ġm id", "e v", "ĠP oint", "Ġsub s", "qu are", "h ow", "Ġtrans form", "g t", "Ġnot e", "p m", "Ġgroup s", "l ang", "ig r", "Ġs em", "ĠĠĠĠĠĠĠĠĠĠĠĠĠĠĠĠĠĠĠĠĠĠĠĠĠĠĠĠĠĠĠĠ ĠĠĠĠĠĠĠĠĠĠĠĠĠĠĠĠĠĠĠĠĠĠĠĠĠĠĠĠĠĠĠĠ", "- up", "Ġv an", "- M", "D F", "] ;", "Ġle ave", "i ance", "et ic", "Ġst ates", "a a", "Ġc ross", "_ i", "Ġfor ce", "( B", "R T", "d s", "Ġit er", "p o", "_ j", "b um", "Ġuse ful", "a res", "} )", "Ġmethod s", "c al", "Ġallow ed", "Ġelement s", "ĠU se", "com mon", "im ation", "f in", "ob s", "S D", "or ing", "- re", "Ġpl us", "I I", "t t", "d om", "R A", "m ar", "A ss", ") /", "ĠS O", "ĠO ur", "app ed", "com p", "ack et", "Ġus es", ")) ,", "in ing", "f ix", "ind er", "Ġfunction s", "word s", "ĠAn y", "ro le", "Ġre ference", "ick s", "Ġgo al", "d es", "P art", "Ġn atural", "it ing", "at ives", "Ġlevel s", "c ell", "Ġr ule", "a e", "ition s", "Ġother wise", "Ġsystem s", "ann ing", "Ġdirect ly", "r is", "( k", "M ax", "Ġerror s", "c or", "Ġdist ance", "h i", "A fter", "Ġb i", "Ġcom ments", "ar row", "ĠO ver", "b b", "Ġle d", "g l", "Ġs ample", "ot a", "A m", "e lement", "r un", "F e", "c ing", "C ol", "con f", "Ġallow s", "X X", "ĠC G", "h o", "ĠB ig", "Ġpro per", "Ġm atrix", "D ir", "ir ing", "t ab", "M ain", "Ġe lection", "Ġeffect s", "Ġset ting", "con s", "{ }", "f it", "n on", "s i", "Ġn or", "b ot", "ul ate", "sh ot", "D A", "ĠA c", "im pl", "m ore", "Ġfl ow", "$ _", "- item", "as y", "Ġt f", "ell s", "in y", "e ff", "Ġh our", "C D", "ĠL o", "i ate", "Ġro ll", "Ġset up", "model s", "Ġconsider ed", "Ġgrow th", "ĠI M", "et te", "pr ice", "- x", "com es", "L ong", "* (", "ar ily", "s ave", "ĠT able", "k i", "ĠĠĠĠĠĠĠĠĠĠĠĠĠĠĠĠĠĠĠĠĠĠĠĠĠĠĠĠĠĠĠĠ Ġ", "c all", "Ġdiffer ence", "Ġreport s", "M atrix", "Ġg ives", "- right", "ly ing", "o i", "R el", "ĠL et", "Ġst ar", "is ions", "Ġthrough out", "Ġp ull", "Ġp ages", "Ġg as", "B r", "Ġclass es", "Ġl ack", "_ X", "b in", "Ġlaw s", "Ġ ),", "Ġw ide", "ĠA uthor", "Ġm ath", "Ġexact ly", "m as", "Ġ) ;", "Ġf ine", "c ar", "Ġgener ate", "m ake", "ĠO ther", "fr ont", "Ġun s", "m ut", "Ġn ature", "se m", "{ $", "ous ly", "( y", "Ġtest s", "ĠN ote", "art s", "N ow", "Ġcost s", "k er", "b and", "valid ate", "ell er", "Ġpl ot", "i ation", "ĠB est", ". \\", "C P", "ep s", "Ġpart ial", "b ing", "A uthor", "ĠP at", "pl us", "-s ize", "e quals", "all ow", "ax is", "ed ge", ": \\", "Ġmax imum", "pl ies", "- time", "Ġsupport ed", ") ]", "re v", ") -", "Ġset s", "em on", "Ġvariable s", "v m", "k g", "Ġstep s", ", y", "Ġto ols", "/ r", "- a", "ol ar", "c lear", "Ġs in", "ul ations", "Ġ ).", "Ġn orm", "Ġwe ak", "u ing", "Ġf irm", "Ġal one", "ĠM ax", "Ġm a", "Ġu i", "w in", "check ed", "Ġopt im", "it ation", "iss ion", "us ion", "Ġpr ices", "Ġfor ms", "Ġd t", "[ -", "O C", "ĠO k", "d c", "d raw", "error s", "M ore", "- B", "D R", "st ack", "r ate", "point s", "Ġcomp ared", "l ig", "n i", "j i", "y a", "Ġcell s", "S A", "Ġs ing", "in ct", "} .", "Ġr ates", "ack s", "Ġgrow ing", "( F", "Ġ Î", "cl aim", ". [", "Ġdevelop ed", "Ġs ym", "at ively", "k y", "Ġal though", "Ġs b", "Ġgener ated", "Ġin come", "is ation", "S he", "ĠI I", "re al", "_ I", "Ġc os", "ens ity", "om in", "re nt", "O ur", "k in", "u nder", "- (", "Ġre nt", "end or", "ĠS D", "d t", "Ġb attle", "r f", "N D", "result s", "ĠIn formation", "Ġcon struction", "b ut", "ag ent", "- L", "Ġimplement ation", "D raw", "Ġsup ply", "Ġun its", "( u", "m i", "Ġfact or", "de c", "ar c", "b i", "con tr", "' }", "pos es", "Ġsign al", "Ġre fer", "St ep", "Ġa head", "f c", "x e", "Ġnot es", ", b", "M B", "Ġup per", "w p", "S ec", "Ġth us", "m at", "Ġstart s", "Ġrun s", "ul er", "M T", "$ (", "Ġtop ic", "ro ad", "ĠR ef", "pro du", "c opy", "com ponent", "d i", "Ġst reet", "Ġprevious ly", "up s", "An y", "orig in", "ĠF ull", "Ġhe at", "Ġon to", "Ġre ached", "Ġex tract", "- of", "Ġ$ .", "ind s", "sh ort", "ex ample", "Ġprocess ing", "g u", "r m", "s pace", "L a", "Ġch ain", "Ġgener ally", "C G", "j ob", "f irm", "N e", "M ath", "ch ain", "Ġres olve", "pos s", "for ce", "Ġp m", "A rr", "Ġto ward", "Ġr are", "class es", "Re ference", "Ġr ad", "Ġv ir", "f ull", "ĠE ach", "Ġh at", "b c", "Ġthere fore", "Ġmin or", "select or", "n u", "t f", "Ġp i", "Ġe q", "b d", "b reak", "ov ers", "C R", "sm all", "field s", "o on", "y e", "th at", "ĠT wo", "Ġbe comes", "ur b", "Ġtask s", "ĠSm ith", "ab out", "N ote", "Ġpl anning", "Ġsee ing", "F in", ") }", "Ġtrans ition", "w ide", "Ġsmall er", "w ell", "Ġin ner", "h at", "Ġa im", "ot ed", "os h", "- T", "Ġat tract", "Ġas set", "Ġs quare", "f ast", "cre te", "Ġfact ors", "Ġselect or", "lo ss", "B L", "c os", "- D", "Ġcomp are", "F ull", "ĠU nder", "Ġend ed", "st op", "Ġlearn ed", "st ep", "] (", "Ġb in", "go ing", "e ach", "Ġestablish ed", "l or", "res ents", "ac er", "Ġvalid ate", "if ies", "Ġaccount s", "lem ma", "ĠOn ce", "se ct", "ĠĠĠĠĠĠĠĠĠĠĠĠĠĠĠĠĠĠĠĠĠĠĠĠĠĠĠĠĠĠĠĠ ĠĠ", "def ined", "rel ated", "Ġw id", "Ġst ars", "Ġre levant", "b el", "Ġt ail", "c f", "- out", "form s", "ig ure", "and a", "or al", "Ġ Ä", "ass et", "Ġc b", "st at", "orig inal", "p ol", "Ġ` `", "ont o", "Ġw ind", "v i", "n ote", "re p", "Ġblock s", "poss ible", "S up", "Ġ[ -", "L et", "Ġcheck ed", "Ġl ab", ", c", "um in", "ag ger", "e z", ", n", "form ed", "t re", "\\ '", "- tr", "mon th", "U se", "ĠP op", "d y", "app ly", "Ġj oint", "D P", "l ow", "Ġo dd", "m ath", "tr ain", "Ġpresent ed", "lo op", "ans ion", "ĠĠĠĠĠĠĠĠĠĠĠĠĠĠĠĠĠĠĠĠĠĠĠĠĠĠĠĠĠĠĠĠ ĠĠĠĠĠĠĠĠĠ", "Ġvalid ation", "Ġp ure", "Ġaltern ative", "Ġturn s", "Ġr adius", "C or", "Ġin tr", "( q", "ĠĠĠĠĠĠĠĠĠĠĠĠĠĠĠĠĠĠĠĠĠĠĠĠĠĠĠĠĠĠĠĠ ĠĠĠĠ", "- the", "- type", "ect ors", "ut ing", "Ġr an", "h ot", "pre c", "h and", ", s", "S m", "a fter", "Ġent ries", ") \\", "ar ity", "/ x", "Ġo d", "Ġmod ified", "T F", "= -", "Ġshe et", "un s", "( H", "Ġle aves", "Ġn u", "- R", "y r", "Ġhelp ful", "ou l", "Ġfl ight", "Ġpro posed", "Ġst ated", "Ġwin ning", "L M", "S eg", "e q", "l f", "Ġfollow s", "re qu", "Ġpl ane", "} \\", "w est", "it z", "} ;", "Ġpro of", "Ġs ides", "ĠĠĠĠĠĠĠĠĠĠĠĠĠĠĠĠĠĠĠĠĠĠĠĠĠĠĠĠĠĠĠĠ ĠĠĠĠĠĠ", "Ġinput s", "Ġr ain", "Ġdec isions", "âĢĿ .", "- H", ", i", "Ġun ion", "Ġre ward", "Ġd p", "c ap", "ĠP DF", "Ġprocess es", "ĠP S", "O ther", "Ġpercent age", "Ġclass ic", "ĠIt s", "bl ack", "w ar", "Ġeven ing", "Ġd s", "ig ma", "Ġent r", "b its", "( \\", "Ġimplement ed", "Ġper mit", "Ġsupport s", "Ġcontrol s", "O k", "- level", "P op", "T wo", "et ing", "Ġsol ve", "ĠM atrix", "x i", "out s", "Ġd etailed", "Rel ated", ") =", "Ġfour th", "Ġt reated", "ival ent", "l g", "f inal", "ach ing", "Ġm u", "em s", "im ize", "pl ing", "h al", "st ar", "/ (", "h igh", "Ġl ift", "Ġsign s", "Ġvert ex", "Ġsignificant ly", "H S", "Ġno ise", "a ux", "ĠD raw", "- G", "Con vert", "\\ r", "con v", "- y", "Ġexc ited", "vert ex", "ĠB i", "Ġpro ve", "Ġvert ical", "d ist", "Ġcent re", "valid ation", "_ Z", "L D", "n am", "Ġcorrect ly", "Ġdist inct", "V D", "e a", "On ce", "Ġsupport ing", "Ġsp in", "ĠC R", "- weight", "r ing", "- k", "ov a", "Ġcirc le", "lear n", "Ġpath s", "d x", "Ġre action", "inter est", "s up", "r as", ", x", "Ġreport ing", "Ġconsider ing", "u ated", "m c", "C ap", "om ent", "d im", "Ġg ap", "r ule", "ent ries", "Ġresult ing", "$ .", "h ar", "ĠF inal", "B R", "ke ep", "Ġis ol", "am ma", "tr ack", "we ak", "ore m", "( z", "on ce", "b f", "se q", "^ (", "Ġreason able", "r ad", "Ġv ary", "Ex ample", "( ref", "we ights", "h ref", "ĠP ak", "ĠEx ample", "Ġlim its", "k ip", "sh ift", "for ward", "Ġbet a", "s d", "f all", "Ġline ar", "d iff", "rot ation", "ash ed", "in f", "up per", "Ġequ ivalent", "Ġkeep s", "s ample", "Ġwin ner", "is ms", "A E", "im ator", "\\ M", "v y", "ĠS M", "ax y", "conf irm", "S I", "Ġd x", "in ent", "Ġne ither", "S O", "Ġc odes", "Ġtrack s", "Â ·", "Ġb old", "- data", "Ġd y", "] }", "Ġs aving", "Ġmap s", "in v", "$ $", "ff f", "Ġb id", "/ k", "ĠA B", "Ġsection s", "e val", "Ġcon crete", ": =", "ot ic", "plement ed", "Ġcomp ens", "ach es", "ad ed", "ĠĠĠĠĠĠĠĠĠĠĠĠĠĠĠĠĠĠĠĠĠĠĠĠĠĠĠĠĠĠĠĠ ĠĠĠĠĠĠĠĠĠĠ", ", v", "me an", "ad v", "ĠD R", "if fer", "Ġwe ights", "l ab", "g g", "ir ms", "ĠI II", "Ġexp ansion", "ig s", "B est", "ĠL i", "Ġc overs", "- .", "in cludes", "Ġl y", "od d", "u cc", "er ior", "Ġ& =", "t ail", "ĠA sh", "F D", "ch i", "P ol", "ad r", "s ome", "com ments", "Ġ ĊĊĊ", "is odes", "the ast", "Ġh al", "! \\", "s im", "- class", "it ting", "Ġw ins", "b old", "In formation", "Ġend point", "â Ħ", "Ġind ices", "ind ices", "ĠD ar", "Ġterm inal", ", A", "Ġreal ized", "ĠA G", ") $", "Ġmonth ly", "m u", "ĠS uch", "t imes", "_ {", "} {", "ĠC SS", "set up", "T A", "ext ends", "ĠĠĠĠĠĠĠĠĠĠĠĠĠĠĠĠĠĠĠĠĠĠĠĠĠĠĠĠĠĠĠĠ ĠĠĠĠĠĠĠĠĠĠĠĠĠĠĠĠĠĠĠĠĠĠĠĠĠĠĠĠĠĠĠ", "Ġout come", "ĠThere fore", "ge ometry", "vert ical", "Ġc d", "lic a", "set ting", "Ġg al", "var s", "Ġpush ed", "Set ting", "b ow", "Ġguar antee", "Ġl ies", "in ated", "Ġsim pl", "ott ed", "t w", "Ġrespect ively", "Ġ nd", "Ġfunction al", "Ġt ent", "B ig", "v an", "og y", "app ro", "g ent", "-b ar", "' \\", "pro of", "pro c", "Ġl unch", "Ġd ust", "- K", "b est", "St at", "z ed", "Ġform al", "to ols", "- check", "s in", "th eta", "h d", "ur d", "m id", "d ot", "w as", ", k", "ĠTr aining", "b ig", "gener ated", "i y", "Ġdr iven", "Ġstrong er", "ĠI R", "U nder", "Ġfound ation", "Ġoutput s", "re ference", "/ P", "Ġt b", "sc an", "top ic", "g al", "ul um", "Ġdet ected", "de g", "Ġunder lying", "ĠS A", "v d", "S B", "n om", "b ec", "Ġad mit", "( K", "Ġfew er", "group s", "Ġcon tribute", "Ġe quals", "d isc", "ph i", "Ġdifficult y", "- test", "label s", "Ġ} .", "ident ity", "ĠB ang", "Ġv ibr", "Ġre start", "Ġmod ification", "ne ed", "Ġge ometry", "! ,", "i ations", "Ġbelong s", "Ġre ly", "aver age", "ĠS eg", "s f", "Ġm r", "Ġa k", "res olve", "Ġ Ï", "Ġd ensity", "Ġex haust", "Ġpr inciple", "ver al", "th etic", "Ã Ĺ", "S ample", "- i", "r at", "map s", "ane ous", "Ġ\\ (", "l m", "fig ure", "p us", "Ġtrans parent", "; \\", "ĠB ell", "ĠG ro", "pr im", "Ġb c", "Ġar row", "W R", "] \\", "Ġh ire", "Ġdet ection", "Ġtrans formation", "Ġform ation", "Ġcom position", "const ant", "m atrix", "int o", "Ġre write", "ore t", "ol ves", "if ference", "aint y", "iffer ent", "Ġst ake", "not es", "Ġfl ip", "Ġequ ally", "Re p", "c ancel", "Ġthe ta", "L I", "Ġl p", "- one", "ĠĠ ĊĊ", "variable s", "al so", "Ġsepar ated", "get s", "w r", "Ġc ub", "Ġbound ary", ") ',", "i u", "'' '", "Ġrepeated ly", "\\ .", "- error", "Î ±", "Ġapply ing", "Ġr m", "ĠD as", "sh all", "h ave", "l r", "pl ane", "ĠF igure", "Ġsim ulation", "ĠÎ ±", "Ġw age", "ĠM T", "Ġrec all", "k n", "b eta", "opt im", "ĠS ample", "w ind", "Ġm c", "Ġref ers", "Ġde struction", "ĠĠĠĠĠĠĠĠĠĠĠĠĠĠĠĠĠĠĠĠĠĠĠĠĠĠĠĠĠĠĠĠ ĠĠĠĠĠĠĠĠĠĠĠĠĠĠĠĠĠĠĠĠĠĠĠĠĠĠĠĠĠĠĠĠĠĠĠ", "d et", "p al", "Ġcon ver", "H ub", "F inal", "gener ate", "sh are", "\\ E", "re view", "} _", "at iv", "right arrow", "de pend", "h or", "Ġiter ation", "âĢĻ ,", "n r", "Ġpl ug", "ol ving", "} -", "th rough", "pro d", "Ġst ability", "Ġmod es", "s ur", "Ġ( \\", "t wo", "d irect", "Ġt ies", "Ġlog ical", "Ġapproach es", "Ġwhere as", "Ġcompens ation", "pro b", "un ct", "Ġg ross", "he at", "e i", "{ -", "n orm", "Ġaddress ed", "Ġsim ult", "e u", "st ation", "' /", "con tract", "Ġn r", "Ġconstruct ed", "om es", "ob b", "P s", "rel ative", "u um", "trans ition", "b re", "ish es", "t ol", "ĠR ad", "Ġint ensity", "G M", "b id", "process ing", "S uch", "- state", "Ġodd s", "s uch", "add er", "Re ply", "om ial", "er ation", "m r", "allow ed", "ĠĠĠĠĠĠĠĠĠĠĠĠĠĠĠĠĠĠĠĠĠĠĠĠĠĠĠĠĠĠĠĠ ĠĠĠĠĠĠĠĠĠĠĠĠĠĠĠĠĠĠĠĠĠ", "Ġexplicit ly", "lear ning", "bo th", "ver ified", "Ġout line", "Ġre wards", "+ i", "- cent", "m ic", "Ġcon vention", "Ġdifferent ly", "- known", "cont in", "Ġto y", "O pt", "sh ell", "- $", "= i", "function s", "element s", "Ġh ired", "le ave", "ĠN ik", "Ġmeasure ments", "Ġpro jection", "path s", "Ġpoint ing", ") '", "Â £", "Ġr h", "D i", "Ġex clude", "â Ī", "m n", "Ġequal ity", "pro f", "Ġsol ving", "Ġref lection", "com b", "igh th", "ĠN i", "block s", "Ġpre ference", "ĠE u", "h ort", "Ġt ens", "F igure", ", N", "os ity", "Ġbar rier", "ear ly", "uc le", "ul ative", "-s p", "Ġnot ion", "U V", "c ou", "reg ular", "ver b", "Ġb ij", "at ial", "aver se", "tr i", "h it", "Ġab und", "se ed", "II I", ", z", "ro b", "line ar", "t ake", "pe ak", "Ġopt imal", "ĠMore over", "Ġinterpret ation", "im its", "ĠK y", "Ġv ectors", "Ġcert ified", "d id", "t ain", "and e", "| \\", "Ġrank ing", "N Y", "Ġb ases", "Ġcomplex ity", "ĠF ig", "Ġgener ating", "Ġm v", "ow ing", "Ġshort er", "ĠS ent", "P DF", "p ull", "os c", "as ures", "ex tract", "ro d", "Ġtransform ed", "at on", "), (", "Ġequ ation", "se lection", "- O", "p res", "ic ular", "aj s", "ent r", "occ up", "s ym", "- order", "test s", "App end", "al g", "c ases", "\\ C", "Ġk in", "Fin ally", "ĠR and", "uc ed", "st eps", "- set", "back s", "row ing", "Ġr i", "ĠâĪ Ĵ", "on al", "Ġisol ated", "{ i", "ĠNe ither", ")/ (", "Ġradi ation", "-h and", "r ices", "per cent", "Ġr ational", "m k", "E qu", "ĠD A", ", w", "gener al", "Ġind irect", "section s", "h our", "l ash", "ad j", "t asks", "lic ity", "ant age", "m ust", "ic ates", "pack et", "/ model", "^ \\", "s igma", "input s", "Ġ\\ \\", "p ur", "sc r", "in formation", "Ġin jection", "ou st", "Ġthe oret", "Ġbet ting", "ock s", "Ġal gorithms", "h is", "Ġoptim ization", "M c", "e qu", "vis ed", "Ġwin ners", "Ġstrict ly", "k et", "Ġs ectors", "} (", "w ritten", "Ġ ell", "un its", "Ġd z", "Ġh oney", "- dev", "Ġch i", "c odes", "ĠI ch", "m ult", "Ġsub set", "m v", "[ \\", "le ad", "ĠĠĠĠĠĠĠĠĠĠĠĠĠĠĠĠĠĠĠĠĠĠĠĠĠĠĠĠĠĠĠĠ ĠĠĠĠĠĠĠĠĠĠĠĠĠĠĠĠĠĠĠĠĠĠĠĠĠ", "ge bra", "\\ models", "Ġ$ $", "J O", "Ġch ains", "Ġst abil", "g m", "Ġvari ations", "Ġvalid ates", ", \\", "Ġnot ing", "m ass", "Ġfit ting", "gl as", "Ġor bit", "- play", "cal c", "Ġlabor atory", "sign al", "Ġcross ing", "Ġdraw s", "iv ial", "r adius", "Ġbrief ly", "ĠK al", "i em", "Ġi x", "Ġgener ates", "l arg", "ens ively", "Ġcool ing", "ph ant", "F our", "in de", ", M", "s u", "do es", "der ive", "P at", "ag ation", "mod ified", "app a", "Ġt ends", "Ġsyn thetic", "Ġmin us", "E q", "dis count", "ĠN ash", "Ġextract ed", "position s", "Over all", "ur ious", "q q", "Ġt ender", "sh ots", "Long rightarrow", "Ġsub stitute", "Ġex ponent", "Ġg rows", "^ [", "qu ick", "t ot", "m aking", "Ġt et", "ĠOver all", "re strict", "an h", "-s pace", "Ġsp atial", "st able", "Ġ{ \\", "trans parent", "ows ki", "vers ions", "Ġlength s", "Ġf itted", "s q", "- no", "ĠV ik", "Ġhom ework", "per form", "Ġw inds", "Ġde com", "control s", "c ern", "t ies", "b et", "ex ist", "Ġcharacter istic", "m oment", "- product", "n eg", "Ġclass ical", "Ġent ers", "ĠG ram", "c ross", "F ig", "B M", "ular ity", "with out", "ĠU V", "ta u", "var i", "es ian", "uc ceed", "ĠX X", "Ġcheck point", "b m", "Ġmin imize", "Ġadapt ed", "Ġl n", "Ġe i", "Â ²", "ym metric", "Ġarg uing", "ĠP ure", "l ations", "am pling", "Ġefficient ly", "Ġne ural", "\\ S", "ĠâĢ ĭ", ") ^", "dis p", "Ġf g", "Ġl abeled", "ĠP P", "ĠG E", "or b", "Ġmax im", "ĠD ir", ", L", "S ch", "Ġquant um", "Î µ", "ca les", "log ical", "Ġfl ux", "ins pace", "ĠAt omic", "Ġn ucle", "pro j", "ful ness", "qu ant", "ik h", "- \\", "Ġestablish ing", "A J", "tr aining", "Ġpl ots", "util ity", "Ġpres cribed", "al og", "mut ation", "Ġd ots", "und ers", "ĠH ence", "s he", "Ġcon clude", "ĠG em", "T B", "br ace", "h ad", "Ġcl arity", "Ġk et", "Ġr ho", "Ġn t", "pl ine", "the orem", "al one", "qu ad", "Ġmass es", "ĠC arn", "graph ics", "/ J", "} $", "+ $", "Ġtreat s", "eps ilon", "Ġtheoret ical", "att ice", "Ġt au", "ĠR CC", "po on", "k now", "ĠA u", "La unch", "st ates", "Ġf id", "g amma", "Ġsub tract", "Ġvari ance", "exp and", "pr ime", "Ġconsider ably", "it u", "\\ s", "ex clude", "f id", "end point", "D as", "Ġsign atures", "\\ P", "Ġreason ing", "ag ain", "pl ots", "j oint", "de ep", "ĠÎ ¼", "Ġlimit ing", "ĠA J", "ĠD L", "st o", "ol ate", "$ i", "ĠE q", "th us", "Ġgal axy", "Ġdisc our", "ĠÎ ²", "Ġcouple d", "âĪ Ĵ", "Î ½", "find er", "s pe", "ĠH I", "ĠH S", "ap pe", "ial ly", "Î »", "ĠP and", "/ u", "Ġtrans itions", "B as", "for all", "Ġdr ift", "C SS", "- function", "em ma", "/ q", "go al", "Ġsing ular", "-m e", "Ġas sembled", "Ġcondition ing", "f our", "Ġhor izon", "Ġsup rem", "d ale", "Ġjump s", "qu ared", "Ġsum m", "/ \\", "= \\", "h ire", "pro ve", "Ġre play", "\\ d", "u ity", "g old", "ii i", "â Ł", "M et", "Ġcondition al", "com pleted", "P i", "Ġnumer ical", "Ġar ithmetic", "h om", "l ift", "+ b", "high light", "Ġfix ing", "Ġ erg", "ol v", "ĠF D", "lo pe", "Ġy ields", "ed ral", "Un less", "Ġbehavior al", "{ \\", "method s", "Ġpro ves", "Ġl adder", "Ï Ħ", "ĠT aking", "et as", "let ing", "Ġc riterion", "It s", "Ġpos ed", "tract s", "+ )", "term inal", "ir al", "Ġabund ance", "Ġsum s", "s at", "ne ver", "- ,", "st ars", "c up", "cell s", "iter ation", "Ġweight ed", "f ab", "Ġre jection", "Tr aining", "Ġar rows", "fr ac", "Â ±", "Ġmethod ology", "ĠĠĠĠĠĠĠĠĠĠĠĠĠĠĠĠĠĠĠĠĠĠĠĠĠĠĠĠĠĠĠĠĠĠĠĠĠĠĠĠĠĠĠĠĠĠĠĠĠĠĠĠĠĠĠĠĠĠĠĠĠĠĠĠ ĠĠĠĠĠĠĠĠ", "Ġref ined", "Ġre com", "un ing", "ĠB ew", "Ġâī ¤", "- price", "ĠS ach", "Ġbattle field", "-t wo", "part ial", "> M", "s quare", "her ent", "depend ent", "Ġx i", "ĠF irm", "ĠLi u", "c op", "ĠP V", "d z", "+ x", "Ġequ ations", "unc ated", "n ov", "Ï ģ", "Ġcent r", "} },", "ĠĠĠĠĠĠĠĠĠĠĠĠĠĠĠĠĠĠĠĠĠĠĠĠĠĠĠĠĠĠĠĠĠĠĠĠĠĠĠĠĠĠĠĠĠĠĠĠĠĠĠĠĠĠĠĠĠĠĠĠĠĠĠĠ Ġ", "sub set", "al ong", "Ġperiod ic", "min us", "normal ized", "ĠÏ Ħ", "ĠĠĠĠĠĠĠĠĠĠĠĠĠĠĠĠĠĠĠĠĠĠĠĠĠĠĠĠĠĠĠĠ ĠĠĠĠĠĠĠĠĠĠĠĠĠĠĠĠĠĠĠĠĠĠĠĠĠĠĠĠ", "ish er", "ex tr", "un til", "Ġsup ern", ", #", "ang led", "Ġsufficient ly", "Ġet a", "Ġgraph s", "* $", "p od", "iv ation", "max imum", "Ġd agger", "as ured", "Ġtransport ed", "Ġant e", "ex c", "ist ical", "g as", "sc ience", "$ a", "âŁ ©", "per mit", "Ġup ward", "ers ed", "im ap", ", V", "- ne", "est imate", "ell aneous", "r ho", "dd d", "I ch", "in form", "con c", "ĠH ern", "G amma", "ĠC odes", "Ġr anged", "â Ĺ", "need ed", "Ġnor theast", "qu ares", "Ä± k", "Ġcub ic", "output s", "lim its", "re fer", "ub ic", "$ f", "requ ires", "Ġbudget s", "g ap", "Î ·", "Ġp end", "it et", "sp in", "ens ation", "+ \\", "o led", "Ġa e", "Sm ith", "E k", "R ad", "pe ated", "g iven", "b ull", "Ġk j", "Ġisol ate", "co ol", "ĠT ul", "ident ified", "D ash", "Ġwe aker", "own s", ") },", "Ġcomp ares", "spec ies", "est ion", "level s", "Ġrespect s", "in cre", "a head", "follow ing", "Ġcon tributes", "+ y", "Î ¼", "Ġch ord", "c irc", "tr an", "} [", "rem aining", "Ġequ ival", "\\ b", "Ġb ids", "d ash", ", H", "w id", "Ġcert ainty", "Ġfind er", "Ï ĥ", "out line", "Ġun stable", "Ġc utoff", "\\ (", "Ġin ference", "Ġdown ward", "D ic", "pol ation", "n or", "count s", "Ġapprox imate", "Ġtop ology", "- inter", "Ġpost erior", "Ġl umin", "{ :", "e asy", "Ġsym metry", "- val", "Ġmetal lic", "L emma", "{ x", "Ġref ine", "- u", "pol ate", "+ k", "system s", "Ġempir ical", "min or", "under line", "_ *", "v ir", "{ |", "t iny", "* \\", "me ans", "Ġrandom ized", "Ġper imeter", "ĠL M", "g ive", "Ġsim ulations", "etermin ed", "re cent", "reason able", "- frame", "ighb our", "Ġal gebra", "re ject", "Ġadapt ive", "iv ative", "con struction", "m isc", "r k", "tr ial", "N s", "ĠL em", "im ates", "pl ug", "Ġent ropy", "ĠĠĠĠĠĠĠĠĠĠĠĠĠĠĠĠĠĠĠĠĠĠĠĠĠĠĠĠĠĠĠĠĠĠĠĠĠĠĠĠĠĠĠĠĠĠĠĠĠĠĠĠĠĠĠĠĠĠĠĠĠĠĠĠ ĠĠ", "rem ain", "_t f", "b ab", "ĠÏ ĥ", "me asure", "^ {", "h ift", "rodu ce", "appro x", "l ies", "Ï Ģ", "ĠâĪ Ī", "ĠÎ »", "cons ult", "P V", "ip ation", "co eff", "Ġreal ization", "ot p", "th em", "ip ro", "an al", "Ġsub stitution", "ĠE k", "re ward", "ĠL ap", "ple d", "h el", "ig ram", "+ c", "Ġselect s", "ent ropy", "par able", "function al", "^ -", "tr acks", "[ L", "Ġcross es", "Ġsepar ating", "s olution", "ĠS igma", ", W", "par ated", "= M", "Con d", "the ir", "f ers", "e ither", "ot ics", "Ġassign s", "cur ve", "T aking", "ov ich", "ynam ics", "re start", "sl ash", "s ix", "ph as", "ject ive", "restrict ed", ", Z", "cd ot", "b eg", "ic ont", "} =", "Î ²", "ph ot", "Ġdown stream", "} _{", "Ġround ing", "n ear", "k ov", "Ġsup ers", "p ure", "ĠÏ Ģ", "Ġunder line", ") e", "w inner", "no ise", "d ens", "Ġlocal ization", "ed ly", "ĠD ong", "subset eq", "} |", "Ġge ometric", "cont ained", "f ive", "D ar", "A sh", "om al", "X R", "O E", "n atural", "K L", "dist inct", "Ġmax imal", "Ġdifferent iate", "bel ow", "Ġrest s", "ĠL ore", "p itch", "[ K", "ĠS age", "run s", "> i", "du ced", "re ce", "ĠP si", "$ m", "Ġd ye", "ed d", "Ġvari ability", "th ose", "ĠN DP", "Ġopt imum", "v ac", "Ġw inding", "th an", "met al", "im plemented", "E u", "Ġl attice", "Ġsym metric", "Ġcos mic", "tract or", "There fore", "ag ents", "$ ,", "Ġform ulation", "Ġmulti plied", "long rightarrow", "op l", "ĠD ifference", "Ġtext book", "tri angle", "Ġn th", "is ations", "Ġar k", "le ast", "+ r", "qu ist", "Ġequ ilibrium", "Ġc avity", "all ows", "* _", "Ġspect ral", "_ \\", "- opt", "R and", "Ġapprox imation", "ð Ŀ", "- series", "pur ple", "ar ith", "m or", "Ġrad ial", "Ï ī", "in come", "c ir", "th ings", "More over", "is in", "Ġsimult aneous", "Ġinterpret ations", "od al", "f und", "P ure", "Ġs ine", "ĠG amma", "reg ions", "\\ )", "Ġthe orem", "Ġ$ \\", "pt o", "Ġr k", "m uch", "Ġd otted", "' (", "ch ains", "J C", "} {$", "Ġper mutation", "Ġre written", "tr uth", "$ \\", "Ġexponent ial", "pr ices", "uss ed", "â ī", "w rites", "ĠÎ µ", "ĠK err", "re action", "le f", "d ifference", "adv ance", "B V", "Î ³", "div ide", "s olve", "show s", "Â ¹", "ĠM olecular", "ponent ial", "Ġcharacter ization", "is ol", "other wise", "ĠShe ffield", "ĠZ u", "di ag", "N u", "re search", "pro jection", "ibr ated", "um ption", "ĠJ C", "} s", "Ġpro se", "m om", ": t", "ak et", "Ġbound ed", "S Z", "b ij", "e lection", "Ġy i", "Ġsepar ates", "+ h", "I Q", "Ġrent s", "S igma", "f ine", "Ġâī ¥", "- comp", "Ne ither", "um mer", "$ :", "- choice", "D ifference", "ĠAccording ly", "B ang", "| x", "ide al", "= q", "Ġres olves", "contract s", "- {", "um ann", "Ġk ernels", "off line", "- shot", "el man", "Ġ| \\", "- context", "d ifferent", "Ġs pherical", "G ram", "p rior", "- energy", "s ucc", "c ot", "\\ f", "it ious", "sub s", "B eta", "urb ation", "b attle", "K P", "see ing", "Ġdecom position", "bound ary", "Ġspect ro", "A u", "ĠK eller", "ang ler", "(- (", "bound ed", "At omic", "start s", "Ġcompens ated", "og onal", "- ext", "Ġgeneral ized", "g row", "capt ures", "ang ent", "r ates", "con sum", "n ature", "Ġd ashed", "ir ical", "out side", ")) /(", "g ne", "Î º", "e ight", "ĠX R", "eg ers", "ĠK L", "ĠB H", "m int", "d ots", "ĠC obb", "Ġge omet", "Ġde vised", "l iter", "Ġfraction al", "exp lo", "Ġequ iv", "- cons", "ore nt", "h aving", "Ġre used", "again st", "tr ight", "{ k", "check point", "month ly", "ĠS Z", "ĠÎ ´", "sh own", "ĠT U", "sum m", "A i", "ce le", "d ensity", "ext ent", "Ġkin etic", "Sub set", "X i", "f ew", "} <", "l angle", "ars ity", "C DF", "com puted", "r angle", "Ġpr imitives", "Ġcoinc ide", "Ġclass ifiers", "ĠÎ º", "stead y", "Ġlog istic", "Ġroll out", "off ers", "Ġh ires", "ff a", "ight ly", "s uit", "ap l", "t ent", "t et", "Ġp essim", "ff d", "\\ v", "Ġn ab", "Ġref inement", "f cc", "add s", "Â µ", "Ġun biased", "cor ner", "< H", "mon ic", "inter section", "ecess arily", "ĠR HS", "Ġnon linear", "or bit", "ĠI W", "P si", "ig roup", "-re al", "Ġpres erves", "Ġg amb", "\\ L", "l brace", "Ġcos ine", "}} }", "\\ V", "K H", "report ed", "Ġuseful ness", "{ T", "Ġsuff ice", "right s", "am ong", "G ro", "D iamond", "gr ave", "pur pose", "as ier", "com position", "col on", "altern ative", "ref lection", "K y", "Ġproof s", ") V", "Ġmid term", "ĠK P", "Ġb ist", "support s", "Ġun restricted", "obs ervation", "\\ [", "Ġde pleted", "b ases", "im ating", "Re ject", "Ġexhaust ing", "inds ight", "Ġind ifferent", "ĳ Ĳ", "work sheet", "S OC", "box ed", ") n", "s ing", "| #", "class ic", "weight ed", "ĠE uler", "| $", "ĠK H", "lef tright", "om bo", "effect s", "pro per", "Comb ine", "ĠÎ Ķ", "to y", "Ġ ðĿ", "k B", "Â ¤", "cal ing", "construct ed", "Ġt ug", "e quality", "leftright arrow", "po ons", "pe q", "der iv", "l us", "des ired", "Re fs", "Ġstabil ization", "K a", "v ary", "s aving", "Ġper for", "sim ulation", "-s ample", "Mc C", "Ġk appa", "B ell", "Ġequival ence", "ĠÎ ĵ", "contr ast", "id is", "{ s", "Ġk B", "n ge", "| .", "Ġequival ents", "ind ic", "cos ity", "Ġor bits", "in ant", "Î ´", "ĠL emma", "Ġun ilateral", "Ġcon ject", "Ġent ail", "w ins", "Ġcross ings", "Ġhom ogeneous", "graph s", "out come", "Ġh indsight", "K al", "\\ D", "^ {-", "Ġcomp ounded", "prob ability", "long leftrightarrow", "L t", "ĠR ao", "{} \\", "-d ensity", "Ġf ict", "Ġphot ons", "Î ¸", "ff b", "-g ap", "Col on", "Ġsup plemented", "ival ence", "ine ar", "Ġweight ing", "): \\", "new line", "high er", "- parameter", "ĠApp lying", "m odes", "Ġtruth ful", "Ġlog arith", "] ^", "S X", "Ġde formation", "< d", "oret ical", "re ve", "g cd", "{ n", "math rm", "ident ification", "D ou", "ct h", "Ġstabil ized", "+ (\\", "l ac", "exist ence", "ord ial", "T au", "g ross", "rec all", "] $", "predict ed", "par ity", "im plement", "Le od", "ĠM SE", "sup ply", "pack ing", "Ġst ochastic", "ĠL ips", "h uge", "condition ally", "{ (", ") }.", "im ations", "s lope", "rank ing", "Ġcool ant", "Ġas ymmetric", ")) ^", "s ampling", "B H", "Ġ\\ |", "re levant", "und ance", "mod ification", "' '.", "ew ith", "fig ures", "ĠBay esian", "T U", "ĠÎ ½", "\\ R", "ĠÏ ĩ", "Ä ©", "Î ¾", "ĠÎ ¸", "ĠÎ £", "Ï Ī", "ĠÎ ·", "ĠÎ ¶", "ĠÎ ¾", "l ak", "e ix", "in j", "ĠÏ ī", "ĠD ic", "Î ¦", "âī Ī", "âĪ Ī", "âī ¥", "âĪ ¼", "âĪ ļ", "l ack", "ĠÎ Ľ", "ĠÎ ¦", "e bar", "d or", ") âĢĻ", "ĠN Ã©", "ĠL Ã©", "ĠSt abil", "Ġv are", "p ens", "K et", "ĠÎ ©", "ot in", "r are", "em erg", "Ġpert urb", "in om", "Ġâī Ī", "ent ang", "s ab", "bo h", "i ota", "val o", "l att", "P and", "z am", "ĠN ek", "sin h", "con g", "ĠS b", "ob t", "s uc", "ĠF DP", "Ġl att", "a S"]}}