{"version": "1.0", "truncation": null, "padding": null, "added_tokens": [{"id": 0, "content": "<s>", "single_word": false, "lstrip": false, "rstrip": false, "normalized": false, "special": true}, {"id": 1, "content": "</s>", "single_word": false, "lstrip": false, "rstrip": false, "normalized": false, "special": true}, {"id": 2, "content": "<tool_call>", "single_word": false, "lstrip": false, "rstrip": false, "normalized": false, "special": true}, {"id": 3, "content": "</tool_call>", "single_word": false, "lstrip": false, "rstrip": false, "normalized": false, "special": true}, {"id": 4, "content": "<|im_sep|>", "single_word": false, "lstrip": false, "rstrip": false, "normalized": false, "special": true}, {"id": 5, "content": "<|fim_prefix|>", "single_word": false, "lstrip": false, "rstrip": false, "normalized": false, "special": true}, {"id": 6, "content": "<|fim_middle|>", "single_word": false, "lstrip": false, "rstrip": false, "normalized": false, "special": true}, {"id": 7, "content": "<|fim_suffix|>", "single_word": false, "lstrip": false, "rstrip": false, "normalized": false, "special": true}, {"id": 8, "content": "<think>", "single_word": false, "lstrip": false, "rstrip": false, "normalized": false, "special": false}, {"id": 9, "content": "</think>", "single_word": false, "lstrip": false, "rstrip": false, "normalized": false, "special": false}, {"id": 10, "content": "<tool_response>", "single_word": false, "lstrip": false, "rstrip": false, "normalized": false, "special": true}, {"id": 11, "content": "</tool_response>", "single_word": false, "lstrip": false, "rstrip": false, "normalized": false, "special": true}, {"id": 12, "content": "<tools>", "single_word": false, "lstrip": false, "rstrip": false, "normalized": false, "special": true}, {"id": 13, "content": "</tools>", "single_word": false, "lstrip": false, "rstrip": false, "normalized": false, "special": true}, {"id": 14, "content": "<arguments>", "single_word": false, "lstrip": false, "rstrip": false, "normalized": false, "special": true}, {"id": 15, "content": "</arguments>", "single_word": false, "lstrip": false, "rstrip": false, "normalized": false, "special": true}, {"id": 16, "content": "<parameters>", "single_word": false, "lstrip": false, "rstrip": false, "normalized": false, "special": true}, {"id": 17, "content": "</parameters>", "single_word": false, "lstrip": false, "rstrip": false, "normalized": false, "special": true}, {"id": 18, "content": "<function", "single_word": false, "lstrip": false, "rstrip": false, "normalized": false, "special": true}, {"id": 19, "content": "</function>", "single_word": false, "lstrip": false, "rstrip": false, "normalized": false, "special": true}, {"id": 20, "content": "<param", "single_word": false, "lstrip": false, "rstrip": false, "normalized": false, "special": true}, {"id": 21, "content": "</param>", "single_word": false, "lstrip": false, "rstrip": false, "normalized": false, "special": true}, {"id": 7095, "content": "<|im_start|>", "single_word": false, "lstrip": false, "rstrip": false, "normalized": false, "special": true}, {"id": 7096, "content": "<|im_end|>", "single_word": false, "lstrip": false, "rstrip": false, "normalized": false, "special": true}, {"id": 7097, "content": "<unk>", "single_word": false, "lstrip": false, "rstrip": false, "normalized": false, "special": true}, {"id": 7098, "content": "<|thought_begin|>", "single_word": false, "lstrip": false, "rstrip": false, "normalized": false, "special": true}, {"id": 7099, "content": "<|thought_end|>", "single_word": false, "lstrip": false, "rstrip": false, "normalized": false, "special": true}, {"id": 7100, "content": "<|tool_call|>", "single_word": false, "lstrip": false, "rstrip": false, "normalized": false, "special": true}, {"id": 7101, "content": "<|execute_start|>", "single_word": false, "lstrip": false, "rstrip": false, "normalized": false, "special": true}, {"id": 7102, "content": "<|execute_end|>", "single_word": false, "lstrip": false, "rstrip": false, "normalized": false, "special": true}, {"id": 7103, "content": "/think", "single_word": false, "lstrip": false, "rstrip": false, "normalized": false, "special": true}, {"id": 7104, "content": "/no_think", "single_word": false, "lstrip": false, "rstrip": false, "normalized": false, "special": true}, {"id": 7105, "content": "<unused_token_0>", "single_word": false, "lstrip": false, "rstrip": false, "normalized": true, "special": false}, {"id": 7106, "content": "<unused_token_1>", "single_word": false, "lstrip": false, "rstrip": false, "normalized": true, "special": false}, {"id": 7107, "content": "<unused_token_2>", "single_word": false, "lstrip": false, "rstrip": false, "normalized": true, "special": false}, {"id": 7108, "content": "<unused_token_3>", "single_word": false, "lstrip": false, "rstrip": false, "normalized": true, "special": false}, {"id": 7109, "content": "<unused_token_4>", "single_word": false, "lstrip": false, "rstrip": false, "normalized": true, "special": false}, {"id": 7110, "content": "<unused_token_5>", "single_word": false, "lstrip": false, "rstrip": false, "normalized": true, "special": false}, {"id": 7111, "content": "<unused_token_6>", "single_word": false, "lstrip": false, "rstrip": false, "normalized": true, "special": false}, {"id": 7112, "content": "<unused_token_7>", "single_word": false, "lstrip": false, "rstrip": false, "normalized": true, "special": false}, {"id": 7113, "content": "<unused_token_8>", "single_word": false, "lstrip": false, "rstrip": false, "normalized": true, "special": false}, {"id": 7114, "content": "<unused_token_9>", "single_word": false, "lstrip": false, "rstrip": false, "normalized": true, "special": false}, {"id": 7115, "content": "<unused_token_10>", "single_word": false, "lstrip": false, "rstrip": false, "normalized": true, "special": false}, {"id": 7116, "content": "<unused_token_11>", "single_word": false, "lstrip": false, "rstrip": false, "normalized": true, "special": false}, {"id": 7117, "content": "<unused_token_12>", "single_word": false, "lstrip": false, "rstrip": false, "normalized": true, "special": false}, {"id": 7118, "content": "<unused_token_13>", "single_word": false, "lstrip": false, "rstrip": false, "normalized": true, "special": false}, {"id": 7119, "content": "<unused_token_14>", "single_word": false, "lstrip": false, "rstrip": false, "normalized": true, "special": false}, {"id": 7120, "content": "<unused_token_15>", "single_word": false, "lstrip": false, "rstrip": false, "normalized": true, "special": false}, {"id": 7121, "content": "<unused_token_16>", "single_word": false, "lstrip": false, "rstrip": false, "normalized": true, "special": false}, {"id": 7122, "content": "<unused_token_17>", "single_word": false, "lstrip": false, "rstrip": false, "normalized": true, "special": false}, {"id": 7123, "content": "<unused_token_18>", "single_word": false, "lstrip": false, "rstrip": false, "normalized": true, "special": false}, {"id": 7124, "content": "<unused_token_19>", "single_word": false, "lstrip": false, "rstrip": false, "normalized": true, "special": false}, {"id": 7125, "content": "<unused_token_20>", "single_word": false, "lstrip": false, "rstrip": false, "normalized": true, "special": false}, {"id": 7126, "content": "<unused_token_21>", "single_word": false, "lstrip": false, "rstrip": false, "normalized": true, "special": false}, {"id": 7127, "content": "<unused_token_22>", "single_word": false, "lstrip": false, "rstrip": false, "normalized": true, "special": false}, {"id": 7128, "content": "<unused_token_23>", "single_word": false, "lstrip": false, "rstrip": false, "normalized": true, "special": false}, {"id": 7129, "content": "<unused_token_24>", "single_word": false, "lstrip": false, "rstrip": false, "normalized": true, "special": false}, {"id": 7130, "content": "<unused_token_25>", "single_word": false, "lstrip": false, "rstrip": false, "normalized": true, "special": false}, {"id": 7131, "content": "<unused_token_26>", "single_word": false, "lstrip": false, "rstrip": false, "normalized": true, "special": false}, {"id": 7132, "content": "<unused_token_27>", "single_word": false, "lstrip": false, "rstrip": false, "normalized": true, "special": false}, {"id": 7133, "content": "<unused_token_28>", "single_word": false, "lstrip": false, "rstrip": false, "normalized": true, "special": false}, {"id": 7134, "content": "<unused_token_29>", "single_word": false, "lstrip": false, "rstrip": false, "normalized": true, "special": false}, {"id": 7135, "content": "<unused_token_30>", "single_word": false, "lstrip": false, "rstrip": false, "normalized": true, "special": false}, {"id": 7136, "content": "<unused_token_31>", "single_word": false, "lstrip": false, "rstrip": false, "normalized": true, "special": false}, {"id": 7137, "content": "<unused_token_32>", "single_word": false, "lstrip": false, "rstrip": false, "normalized": true, "special": false}, {"id": 7138, "content": "<unused_token_33>", "single_word": false, "lstrip": false, "rstrip": false, "normalized": true, "special": false}, {"id": 7139, "content": "<unused_token_34>", "single_word": false, "lstrip": false, "rstrip": false, "normalized": true, "special": false}, {"id": 7140, "content": "<unused_token_35>", "single_word": false, "lstrip": false, "rstrip": false, "normalized": true, "special": false}, {"id": 7141, "content": "<unused_token_36>", "single_word": false, "lstrip": false, "rstrip": false, "normalized": true, "special": false}, {"id": 7142, "content": "<unused_token_37>", "single_word": false, "lstrip": false, "rstrip": false, "normalized": true, "special": false}, {"id": 7143, "content": "<unused_token_38>", "single_word": false, "lstrip": false, "rstrip": false, "normalized": true, "special": false}, {"id": 7144, "content": "<unused_token_39>", "single_word": false, "lstrip": false, "rstrip": false, "normalized": true, "special": false}, {"id": 7145, "content": "<unused_token_40>", "single_word": false, "lstrip": false, "rstrip": false, "normalized": true, "special": false}, {"id": 7146, "content": "<unused_token_41>", "single_word": false, "lstrip": false, "rstrip": false, "normalized": true, "special": false}, {"id": 7147, "content": "<unused_token_42>", "single_word": false, "lstrip": false, "rstrip": false, "normalized": true, "special": false}, {"id": 7148, "content": "<unused_token_43>", "single_word": false, "lstrip": false, "rstrip": false, "normalized": true, "special": false}, {"id": 7149, "content": "<unused_token_44>", "single_word": false, "lstrip": false, "rstrip": false, "normalized": true, "special": false}, {"id": 7150, "content": "<unused_token_45>", "single_word": false, "lstrip": false, "rstrip": false, "normalized": true, "special": false}, {"id": 7151, "content": "<unused_token_46>", "single_word": false, "lstrip": false, "rstrip": false, "normalized": true, "special": false}, {"id": 7152, "content": "<unused_token_47>", "single_word": false, "lstrip": false, "rstrip": false, "normalized": true, "special": false}, {"id": 7153, "content": "<unused_token_48>", "single_word": false, "lstrip": false, "rstrip": false, "normalized": true, "special": false}, {"id": 7154, "content": "<unused_token_49>", "single_word": false, "lstrip": false, "rstrip": false, "normalized": true, "special": false}, {"id": 7155, "content": "<unused_token_50>", "single_word": false, "lstrip": false, "rstrip": false, "normalized": true, "special": false}, {"id": 7156, "content": "<unused_token_51>", "single_word": false, "lstrip": false, "rstrip": false, "normalized": true, "special": false}, {"id": 7157, "content": "<unused_token_52>", "single_word": false, "lstrip": false, "rstrip": false, "normalized": true, "special": false}, {"id": 7158, "content": "<unused_token_53>", "single_word": false, "lstrip": false, "rstrip": false, "normalized": true, "special": false}, {"id": 7159, "content": "<unused_token_54>", "single_word": false, "lstrip": false, "rstrip": false, "normalized": true, "special": false}, {"id": 7160, "content": "<unused_token_55>", "single_word": false, "lstrip": false, "rstrip": false, "normalized": true, "special": false}, {"id": 7161, "content": "<unused_token_56>", "single_word": false, "lstrip": false, "rstrip": false, "normalized": true, "special": false}, {"id": 7162, "content": "<unused_token_57>", "single_word": false, "lstrip": false, "rstrip": false, "normalized": true, "special": false}, {"id": 7163, "content": "<unused_token_58>", "single_word": false, "lstrip": false, "rstrip": false, "normalized": true, "special": false}, {"id": 7164, "content": "<unused_token_59>", "single_word": false, "lstrip": false, "rstrip": false, "normalized": true, "special": false}, {"id": 7165, "content": "<unused_token_60>", "single_word": false, "lstrip": false, "rstrip": false, "normalized": true, "special": false}, {"id": 7166, "content": "<unused_token_61>", "single_word": false, "lstrip": false, "rstrip": false, "normalized": true, "special": false}, {"id": 7167, "content": "<unused_token_62>", "single_word": false, "lstrip": false, "rstrip": false, "normalized": true, "special": false}, {"id": 7168, "content": "<unused_token_63>", "single_word": false, "lstrip": false, "rstrip": false, "normalized": true, "special": false}, {"id": 7169, "content": "<unused_token_64>", "single_word": false, "lstrip": false, "rstrip": false, "normalized": true, "special": false}, {"id": 7170, "content": "<unused_token_65>", "single_word": false, "lstrip": false, "rstrip": false, "normalized": true, "special": false}, {"id": 7171, "content": "<unused_token_66>", "single_word": false, "lstrip": false, "rstrip": false, "normalized": true, "special": false}, {"id": 7172, "content": "<unused_token_67>", "single_word": false, "lstrip": false, "rstrip": false, "normalized": true, "special": false}, {"id": 7173, "content": "<unused_token_68>", "single_word": false, "lstrip": false, "rstrip": false, "normalized": true, "special": false}, {"id": 7174, "content": "<unused_token_69>", "single_word": false, "lstrip": false, "rstrip": false, "normalized": true, "special": false}, {"id": 7175, "content": "<unused_token_70>", "single_word": false, "lstrip": false, "rstrip": false, "normalized": true, "special": false}, {"id": 7176, "content": "<unused_token_71>", "single_word": false, "lstrip": false, "rstrip": false, "normalized": true, "special": false}, {"id": 7177, "content": "<unused_token_72>", "single_word": false, "lstrip": false, "rstrip": false, "normalized": true, "special": false}, {"id": 7178, "content": "<unused_token_73>", "single_word": false, "lstrip": false, "rstrip": false, "normalized": true, "special": false}, {"id": 7179, "content": "<unused_token_74>", "single_word": false, "lstrip": false, "rstrip": false, "normalized": true, "special": false}, {"id": 7180, "content": "<unused_token_75>", "single_word": false, "lstrip": false, "rstrip": false, "normalized": true, "special": false}, {"id": 7181, "content": "<unused_token_76>", "single_word": false, "lstrip": false, "rstrip": false, "normalized": true, "special": false}, {"id": 7182, "content": "<unused_token_77>", "single_word": false, "lstrip": false, "rstrip": false, "normalized": true, "special": false}, {"id": 7183, "content": "<unused_token_78>", "single_word": false, "lstrip": false, "rstrip": false, "normalized": true, "special": false}, {"id": 7184, "content": "<unused_token_79>", "single_word": false, "lstrip": false, "rstrip": false, "normalized": true, "special": false}, {"id": 7185, "content": "<unused_token_80>", "single_word": false, "lstrip": false, "rstrip": false, "normalized": true, "special": false}, {"id": 7186, "content": "<unused_token_81>", "single_word": false, "lstrip": false, "rstrip": false, "normalized": true, "special": false}, {"id": 7187, "content": "<unused_token_82>", "single_word": false, "lstrip": false, "rstrip": false, "normalized": true, "special": false}, {"id": 7188, "content": "<unused_token_83>", "single_word": false, "lstrip": false, "rstrip": false, "normalized": true, "special": false}, {"id": 7189, "content": "<unused_token_84>", "single_word": false, "lstrip": false, "rstrip": false, "normalized": true, "special": false}, {"id": 7190, "content": "<unused_token_85>", "single_word": false, "lstrip": false, "rstrip": false, "normalized": true, "special": false}, {"id": 7191, "content": "<unused_token_86>", "single_word": false, "lstrip": false, "rstrip": false, "normalized": true, "special": false}, {"id": 7192, "content": "<unused_token_87>", "single_word": false, "lstrip": false, "rstrip": false, "normalized": true, "special": false}, {"id": 7193, "content": "<unused_token_88>", "single_word": false, "lstrip": false, "rstrip": false, "normalized": true, "special": false}, {"id": 7194, "content": "<unused_token_89>", "single_word": false, "lstrip": false, "rstrip": false, "normalized": true, "special": false}, {"id": 7195, "content": "<unused_token_90>", "single_word": false, "lstrip": false, "rstrip": false, "normalized": true, "special": false}, {"id": 7196, "content": "<unused_token_91>", "single_word": false, "lstrip": false, "rstrip": false, "normalized": true, "special": false}, {"id": 7197, "content": "<unused_token_92>", "single_word": false, "lstrip": false, "rstrip": false, "normalized": true, "special": false}, {"id": 7198, "content": "<unused_token_93>", "single_word": false, "lstrip": false, "rstrip": false, "normalized": true, "special": false}, {"id": 7199, "content": "<unused_token_94>", "single_word": false, "lstrip": false, "rstrip": false, "normalized": true, "special": false}, {"id": 7200, "content": "<unused_token_95>", "single_word": false, "lstrip": false, "rstrip": false, "normalized": true, "special": false}, {"id": 7201, "content": "<unused_token_96>", "single_word": false, "lstrip": false, "rstrip": false, "normalized": true, "special": false}, {"id": 7202, "content": "<unused_token_97>", "single_word": false, "lstrip": false, "rstrip": false, "normalized": true, "special": false}, {"id": 7203, "content": "<unused_token_98>", "single_word": false, "lstrip": false, "rstrip": false, "normalized": true, "special": false}, {"id": 7204, "content": "<unused_token_99>", "single_word": false, "lstrip": false, "rstrip": false, "normalized": true, "special": false}, {"id": 7205, "content": "<unused_token_100>", "single_word": false, "lstrip": false, "rstrip": false, "normalized": true, "special": false}, {"id": 7206, "content": "<unused_token_101>", "single_word": false, "lstrip": false, "rstrip": false, "normalized": true, "special": false}, {"id": 7207, "content": "<unused_token_102>", "single_word": false, "lstrip": false, "rstrip": false, "normalized": true, "special": false}, {"id": 7208, "content": "<unused_token_103>", "single_word": false, "lstrip": false, "rstrip": false, "normalized": true, "special": false}, {"id": 7209, "content": "<unused_token_104>", "single_word": false, "lstrip": false, "rstrip": false, "normalized": true, "special": false}, {"id": 7210, "content": "<unused_token_105>", "single_word": false, "lstrip": false, "rstrip": false, "normalized": true, "special": false}, {"id": 7211, "content": "<unused_token_106>", "single_word": false, "lstrip": false, "rstrip": false, "normalized": true, "special": false}, {"id": 7212, "content": "<unused_token_107>", "single_word": false, "lstrip": false, "rstrip": false, "normalized": true, "special": false}, {"id": 7213, "content": "<unused_token_108>", "single_word": false, "lstrip": false, "rstrip": false, "normalized": true, "special": false}, {"id": 7214, "content": "<unused_token_109>", "single_word": false, "lstrip": false, "rstrip": false, "normalized": true, "special": false}, {"id": 7215, "content": "<unused_token_110>", "single_word": false, "lstrip": false, "rstrip": false, "normalized": true, "special": false}, {"id": 7216, "content": "<unused_token_111>", "single_word": false, "lstrip": false, "rstrip": false, "normalized": true, "special": false}, {"id": 7217, "content": "<unused_token_112>", "single_word": false, "lstrip": false, "rstrip": false, "normalized": true, "special": false}, {"id": 7218, "content": "<unused_token_113>", "single_word": false, "lstrip": false, "rstrip": false, "normalized": true, "special": false}, {"id": 7219, "content": "<unused_token_114>", "single_word": false, "lstrip": false, "rstrip": false, "normalized": true, "special": false}, {"id": 7220, "content": "<unused_token_115>", "single_word": false, "lstrip": false, "rstrip": false, "normalized": true, "special": false}, {"id": 7221, "content": "<unused_token_116>", "single_word": false, "lstrip": false, "rstrip": false, "normalized": true, "special": false}, {"id": 7222, "content": "<unused_token_117>", "single_word": false, "lstrip": false, "rstrip": false, "normalized": true, "special": false}, {"id": 7223, "content": "<unused_token_118>", "single_word": false, "lstrip": false, "rstrip": false, "normalized": true, "special": false}, {"id": 7224, "content": "<unused_token_119>", "single_word": false, "lstrip": false, "rstrip": false, "normalized": true, "special": false}, {"id": 7225, "content": "<unused_token_120>", "single_word": false, "lstrip": false, "rstrip": false, "normalized": true, "special": false}, {"id": 7226, "content": "<unused_token_121>", "single_word": false, "lstrip": false, "rstrip": false, "normalized": true, "special": false}, {"id": 7227, "content": "<unused_token_122>", "single_word": false, "lstrip": false, "rstrip": false, "normalized": true, "special": false}, {"id": 7228, "content": "<unused_token_123>", "single_word": false, "lstrip": false, "rstrip": false, "normalized": true, "special": false}, {"id": 7229, "content": "<unused_token_124>", "single_word": false, "lstrip": false, "rstrip": false, "normalized": true, "special": false}, {"id": 7230, "content": "<unused_token_125>", "single_word": false, "lstrip": false, "rstrip": false, "normalized": true, "special": false}, {"id": 7231, "content": "<unused_token_126>", "single_word": false, "lstrip": false, "rstrip": false, "normalized": true, "special": false}, {"id": 7232, "content": "<unused_token_127>", "single_word": false, "lstrip": false, "rstrip": false, "normalized": true, "special": false}, {"id": 7233, "content": "<unused_token_128>", "single_word": false, "lstrip": false, "rstrip": false, "normalized": true, "special": false}, {"id": 7234, "content": "<unused_token_129>", "single_word": false, "lstrip": false, "rstrip": false, "normalized": true, "special": false}, {"id": 7235, "content": "<unused_token_130>", "single_word": false, "lstrip": false, "rstrip": false, "normalized": true, "special": false}, {"id": 7236, "content": "<unused_token_131>", "single_word": false, "lstrip": false, "rstrip": false, "normalized": true, "special": false}, {"id": 7237, "content": "<unused_token_132>", "single_word": false, "lstrip": false, "rstrip": false, "normalized": true, "special": false}, {"id": 7238, "content": "<unused_token_133>", "single_word": false, "lstrip": false, "rstrip": false, "normalized": true, "special": false}, {"id": 7239, "content": "<unused_token_134>", "single_word": false, "lstrip": false, "rstrip": false, "normalized": true, "special": false}, {"id": 7240, "content": "<unused_token_135>", "single_word": false, "lstrip": false, "rstrip": false, "normalized": true, "special": false}, {"id": 7241, "content": "<unused_token_136>", "single_word": false, "lstrip": false, "rstrip": false, "normalized": true, "special": false}, {"id": 7242, "content": "<unused_token_137>", "single_word": false, "lstrip": false, "rstrip": false, "normalized": true, "special": false}, {"id": 7243, "content": "<unused_token_138>", "single_word": false, "lstrip": false, "rstrip": false, "normalized": true, "special": false}, {"id": 7244, "content": "<unused_token_139>", "single_word": false, "lstrip": false, "rstrip": false, "normalized": true, "special": false}, {"id": 7245, "content": "<unused_token_140>", "single_word": false, "lstrip": false, "rstrip": false, "normalized": true, "special": false}, {"id": 7246, "content": "<unused_token_141>", "single_word": false, "lstrip": false, "rstrip": false, "normalized": true, "special": false}, {"id": 7247, "content": "<unused_token_142>", "single_word": false, "lstrip": false, "rstrip": false, "normalized": true, "special": false}, {"id": 7248, "content": "<unused_token_143>", "single_word": false, "lstrip": false, "rstrip": false, "normalized": true, "special": false}, {"id": 7249, "content": "<unused_token_144>", "single_word": false, "lstrip": false, "rstrip": false, "normalized": true, "special": false}, {"id": 7250, "content": "<unused_token_145>", "single_word": false, "lstrip": false, "rstrip": false, "normalized": true, "special": false}, {"id": 7251, "content": "<unused_token_146>", "single_word": false, "lstrip": false, "rstrip": false, "normalized": true, "special": false}, {"id": 7252, "content": "<unused_token_147>", "single_word": false, "lstrip": false, "rstrip": false, "normalized": true, "special": false}, {"id": 7253, "content": "<unused_token_148>", "single_word": false, "lstrip": false, "rstrip": false, "normalized": true, "special": false}, {"id": 7254, "content": "<unused_token_149>", "single_word": false, "lstrip": false, "rstrip": false, "normalized": true, "special": false}, {"id": 7255, "content": "<unused_token_150>", "single_word": false, "lstrip": false, "rstrip": false, "normalized": true, "special": false}, {"id": 7256, "content": "<unused_token_151>", "single_word": false, "lstrip": false, "rstrip": false, "normalized": true, "special": false}, {"id": 7257, "content": "<unused_token_152>", "single_word": false, "lstrip": false, "rstrip": false, "normalized": true, "special": false}, {"id": 7258, "content": "<unused_token_153>", "single_word": false, "lstrip": false, "rstrip": false, "normalized": true, "special": false}, {"id": 7259, "content": "<unused_token_154>", "single_word": false, "lstrip": false, "rstrip": false, "normalized": true, "special": false}, {"id": 7260, "content": "<unused_token_155>", "single_word": false, "lstrip": false, "rstrip": false, "normalized": true, "special": false}, {"id": 7261, "content": "<unused_token_156>", "single_word": false, "lstrip": false, "rstrip": false, "normalized": true, "special": false}, {"id": 7262, "content": "<unused_token_157>", "single_word": false, "lstrip": false, "rstrip": false, "normalized": true, "special": false}, {"id": 7263, "content": "<unused_token_158>", "single_word": false, "lstrip": false, "rstrip": false, "normalized": true, "special": false}, {"id": 7264, "content": "<unused_token_159>", "single_word": false, "lstrip": false, "rstrip": false, "normalized": true, "special": false}, {"id": 7265, "content": "<unused_token_160>", "single_word": false, "lstrip": false, "rstrip": false, "normalized": true, "special": false}, {"id": 7266, "content": "<unused_token_161>", "single_word": false, "lstrip": false, "rstrip": false, "normalized": true, "special": false}, {"id": 7267, "content": "<unused_token_162>", "single_word": false, "lstrip": false, "rstrip": false, "normalized": true, "special": false}, {"id": 7268, "content": "<unused_token_163>", "single_word": false, "lstrip": false, "rstrip": false, "normalized": true, "special": false}, {"id": 7269, "content": "<unused_token_164>", "single_word": false, "lstrip": false, "rstrip": false, "normalized": true, "special": false}, {"id": 7270, "content": "<unused_token_165>", "single_word": false, "lstrip": false, "rstrip": false, "normalized": true, "special": false}, {"id": 7271, "content": "<unused_token_166>", "single_word": false, "lstrip": false, "rstrip": false, "normalized": true, "special": false}, {"id": 7272, "content": "<unused_token_167>", "single_word": false, "lstrip": false, "rstrip": false, "normalized": true, "special": false}, {"id": 7273, "content": "<unused_token_168>", "single_word": false, "lstrip": false, "rstrip": false, "normalized": true, "special": false}, {"id": 7274, "content": "<unused_token_169>", "single_word": false, "lstrip": false, "rstrip": false, "normalized": true, "special": false}, {"id": 7275, "content": "<unused_token_170>", "single_word": false, "lstrip": false, "rstrip": false, "normalized": true, "special": false}, {"id": 7276, "content": "<unused_token_171>", "single_word": false, "lstrip": false, "rstrip": false, "normalized": true, "special": false}, {"id": 7277, "content": "<unused_token_172>", "single_word": false, "lstrip": false, "rstrip": false, "normalized": true, "special": false}, {"id": 7278, "content": "<unused_token_173>", "single_word": false, "lstrip": false, "rstrip": false, "normalized": true, "special": false}, {"id": 7279, "content": "<unused_token_174>", "single_word": false, "lstrip": false, "rstrip": false, "normalized": true, "special": false}, {"id": 7280, "content": "<unused_token_175>", "single_word": false, "lstrip": false, "rstrip": false, "normalized": true, "special": false}, {"id": 7281, "content": "<unused_token_176>", "single_word": false, "lstrip": false, "rstrip": false, "normalized": true, "special": false}, {"id": 7282, "content": "<unused_token_177>", "single_word": false, "lstrip": false, "rstrip": false, "normalized": true, "special": false}, {"id": 7283, "content": "<unused_token_178>", "single_word": false, "lstrip": false, "rstrip": false, "normalized": true, "special": false}, {"id": 7284, "content": "<unused_token_179>", "single_word": false, "lstrip": false, "rstrip": false, "normalized": true, "special": false}, {"id": 7285, "content": "<unused_token_180>", "single_word": false, "lstrip": false, "rstrip": false, "normalized": true, "special": false}, {"id": 7286, "content": "<unused_token_181>", "single_word": false, "lstrip": false, "rstrip": false, "normalized": true, "special": false}, {"id": 7287, "content": "<unused_token_182>", "single_word": false, "lstrip": false, "rstrip": false, "normalized": true, "special": false}, {"id": 7288, "content": "<unused_token_183>", "single_word": false, "lstrip": false, "rstrip": false, "normalized": true, "special": false}, {"id": 7289, "content": "<unused_token_184>", "single_word": false, "lstrip": false, "rstrip": false, "normalized": true, "special": false}, {"id": 7290, "content": "<unused_token_185>", "single_word": false, "lstrip": false, "rstrip": false, "normalized": true, "special": false}, {"id": 7291, "content": "<unused_token_186>", "single_word": false, "lstrip": false, "rstrip": false, "normalized": true, "special": false}, {"id": 7292, "content": "<unused_token_187>", "single_word": false, "lstrip": false, "rstrip": false, "normalized": true, "special": false}, {"id": 7293, "content": "<unused_token_188>", "single_word": false, "lstrip": false, "rstrip": false, "normalized": true, "special": false}, {"id": 7294, "content": "<unused_token_189>", "single_word": false, "lstrip": false, "rstrip": false, "normalized": true, "special": false}, {"id": 7295, "content": "<unused_token_190>", "single_word": false, "lstrip": false, "rstrip": false, "normalized": true, "special": false}, {"id": 7296, "content": "<unused_token_191>", "single_word": false, "lstrip": false, "rstrip": false, "normalized": true, "special": false}, {"id": 7297, "content": "<unused_token_192>", "single_word": false, "lstrip": false, "rstrip": false, "normalized": true, "special": false}, {"id": 7298, "content": "<unused_token_193>", "single_word": false, "lstrip": false, "rstrip": false, "normalized": true, "special": false}, {"id": 7299, "content": "<unused_token_194>", "single_word": false, "lstrip": false, "rstrip": false, "normalized": true, "special": false}, {"id": 7300, "content": "<unused_token_195>", "single_word": false, "lstrip": false, "rstrip": false, "normalized": true, "special": false}, {"id": 7301, "content": "<unused_token_196>", "single_word": false, "lstrip": false, "rstrip": false, "normalized": true, "special": false}, {"id": 7302, "content": "<unused_token_197>", "single_word": false, "lstrip": false, "rstrip": false, "normalized": true, "special": false}, {"id": 7303, "content": "<unused_token_198>", "single_word": false, "lstrip": false, "rstrip": false, "normalized": true, "special": false}, {"id": 7304, "content": "<unused_token_199>", "single_word": false, "lstrip": false, "rstrip": false, "normalized": true, "special": false}, {"id": 7305, "content": "<unused_token_200>", "single_word": false, "lstrip": false, "rstrip": false, "normalized": true, "special": false}, {"id": 7306, "content": "<unused_token_201>", "single_word": false, "lstrip": false, "rstrip": false, "normalized": true, "special": false}, {"id": 7307, "content": "<unused_token_202>", "single_word": false, "lstrip": false, "rstrip": false, "normalized": true, "special": false}, {"id": 7308, "content": "<unused_token_203>", "single_word": false, "lstrip": false, "rstrip": false, "normalized": true, "special": false}, {"id": 7309, "content": "<unused_token_204>", "single_word": false, "lstrip": false, "rstrip": false, "normalized": true, "special": false}, {"id": 7310, "content": "<unused_token_205>", "single_word": false, "lstrip": false, "rstrip": false, "normalized": true, "special": false}, {"id": 7311, "content": "<unused_token_206>", "single_word": false, "lstrip": false, "rstrip": false, "normalized": true, "special": false}, {"id": 7312, "content": "<unused_token_207>", "single_word": false, "lstrip": false, "rstrip": false, "normalized": true, "special": false}, {"id": 7313, "content": "<unused_token_208>", "single_word": false, "lstrip": false, "rstrip": false, "normalized": true, "special": false}, {"id": 7314, "content": "<unused_token_209>", "single_word": false, "lstrip": false, "rstrip": false, "normalized": true, "special": false}, {"id": 7315, "content": "<unused_token_210>", "single_word": false, "lstrip": false, "rstrip": false, "normalized": true, "special": false}, {"id": 7316, "content": "<unused_token_211>", "single_word": false, "lstrip": false, "rstrip": false, "normalized": true, "special": false}, {"id": 7317, "content": "<unused_token_212>", "single_word": false, "lstrip": false, "rstrip": false, "normalized": true, "special": false}, {"id": 7318, "content": "<unused_token_213>", "single_word": false, "lstrip": false, "rstrip": false, "normalized": true, "special": false}, {"id": 7319, "content": "<unused_token_214>", "single_word": false, "lstrip": false, "rstrip": false, "normalized": true, "special": false}, {"id": 7320, "content": "<unused_token_215>", "single_word": false, "lstrip": false, "rstrip": false, "normalized": true, "special": false}, {"id": 7321, "content": "<unused_token_216>", "single_word": false, "lstrip": false, "rstrip": false, "normalized": true, "special": false}, {"id": 7322, "content": "<unused_token_217>", "single_word": false, "lstrip": false, "rstrip": false, "normalized": true, "special": false}, {"id": 7323, "content": "<unused_token_218>", "single_word": false, "lstrip": false, "rstrip": false, "normalized": true, "special": false}, {"id": 7324, "content": "<unused_token_219>", "single_word": false, "lstrip": false, "rstrip": false, "normalized": true, "special": false}, {"id": 7325, "content": "<unused_token_220>", "single_word": false, "lstrip": false, "rstrip": false, "normalized": true, "special": false}, {"id": 7326, "content": "<unused_token_221>", "single_word": false, "lstrip": false, "rstrip": false, "normalized": true, "special": false}, {"id": 7327, "content": "<unused_token_222>", "single_word": false, "lstrip": false, "rstrip": false, "normalized": true, "special": false}, {"id": 7328, "content": "<unused_token_223>", "single_word": false, "lstrip": false, "rstrip": false, "normalized": true, "special": false}, {"id": 7329, "content": "<unused_token_224>", "single_word": false, "lstrip": false, "rstrip": false, "normalized": true, "special": false}, {"id": 7330, "content": "<unused_token_225>", "single_word": false, "lstrip": false, "rstrip": false, "normalized": true, "special": false}, {"id": 7331, "content": "<unused_token_226>", "single_word": false, "lstrip": false, "rstrip": false, "normalized": true, "special": false}, {"id": 7332, "content": "<unused_token_227>", "single_word": false, "lstrip": false, "rstrip": false, "normalized": true, "special": false}, {"id": 7333, "content": "<unused_token_228>", "single_word": false, "lstrip": false, "rstrip": false, "normalized": true, "special": false}, {"id": 7334, "content": "<unused_token_229>", "single_word": false, "lstrip": false, "rstrip": false, "normalized": true, "special": false}, {"id": 7335, "content": "<unused_token_230>", "single_word": false, "lstrip": false, "rstrip": false, "normalized": true, "special": false}, {"id": 7336, "content": "<unused_token_231>", "single_word": false, "lstrip": false, "rstrip": false, "normalized": true, "special": false}, {"id": 7337, "content": "<unused_token_232>", "single_word": false, "lstrip": false, "rstrip": false, "normalized": true, "special": false}, {"id": 7338, "content": "<unused_token_233>", "single_word": false, "lstrip": false, "rstrip": false, "normalized": true, "special": false}, {"id": 7339, "content": "<unused_token_234>", "single_word": false, "lstrip": false, "rstrip": false, "normalized": true, "special": false}, {"id": 7340, "content": "<unused_token_235>", "single_word": false, "lstrip": false, "rstrip": false, "normalized": true, "special": false}, {"id": 7341, "content": "<unused_token_236>", "single_word": false, "lstrip": false, "rstrip": false, "normalized": true, "special": false}, {"id": 7342, "content": "<unused_token_237>", "single_word": false, "lstrip": false, "rstrip": false, "normalized": true, "special": false}, {"id": 7343, "content": "<unused_token_238>", "single_word": false, "lstrip": false, "rstrip": false, "normalized": true, "special": false}, {"id": 7344, "content": "<unused_token_239>", "single_word": false, "lstrip": false, "rstrip": false, "normalized": true, "special": false}, {"id": 7345, "content": "<unused_token_240>", "single_word": false, "lstrip": false, "rstrip": false, "normalized": true, "special": false}, {"id": 7346, "content": "<unused_token_241>", "single_word": false, "lstrip": false, "rstrip": false, "normalized": true, "special": false}, {"id": 7347, "content": "<unused_token_242>", "single_word": false, "lstrip": false, "rstrip": false, "normalized": true, "special": false}, {"id": 7348, "content": "<unused_token_243>", "single_word": false, "lstrip": false, "rstrip": false, "normalized": true, "special": false}, {"id": 7349, "content": "<unused_token_244>", "single_word": false, "lstrip": false, "rstrip": false, "normalized": true, "special": false}, {"id": 7350, "content": "<unused_token_245>", "single_word": false, "lstrip": false, "rstrip": false, "normalized": true, "special": false}, {"id": 7351, "content": "<unused_token_246>", "single_word": false, "lstrip": false, "rstrip": false, "normalized": true, "special": false}, {"id": 7352, "content": "<unused_token_247>", "single_word": false, "lstrip": false, "rstrip": false, "normalized": true, "special": false}, {"id": 7353, "content": "<unused_token_248>", "single_word": false, "lstrip": false, "rstrip": false, "normalized": true, "special": false}, {"id": 7354, "content": "<unused_token_249>", "single_word": false, "lstrip": false, "rstrip": false, "normalized": true, "special": false}, {"id": 7355, "content": "<unused_token_250>", "single_word": false, "lstrip": false, "rstrip": false, "normalized": true, "special": false}, {"id": 7356, "content": "<unused_token_251>", "single_word": false, "lstrip": false, "rstrip": false, "normalized": true, "special": false}, {"id": 7357, "content": "<unused_token_252>", "single_word": false, "lstrip": false, "rstrip": false, "normalized": true, "special": false}, {"id": 7358, "content": "<unused_token_253>", "single_word": false, "lstrip": false, "rstrip": false, "normalized": true, "special": false}, {"id": 7359, "content": "<unused_token_254>", "single_word": false, "lstrip": false, "rstrip": false, "normalized": true, "special": false}, {"id": 7360, "content": "<unused_token_255>", "single_word": false, "lstrip": false, "rstrip": false, "normalized": true, "special": false}, {"id": 7361, "content": "<unused_token_256>", "single_word": false, "lstrip": false, "rstrip": false, "normalized": true, "special": false}, {"id": 7362, "content": "<unused_token_257>", "single_word": false, "lstrip": false, "rstrip": false, "normalized": true, "special": false}, {"id": 7363, "content": "<unused_token_258>", "single_word": false, "lstrip": false, "rstrip": false, "normalized": true, "special": false}, {"id": 7364, "content": "<unused_token_259>", "single_word": false, "lstrip": false, "rstrip": false, "normalized": true, "special": false}, {"id": 7365, "content": "<unused_token_260>", "single_word": false, "lstrip": false, "rstrip": false, "normalized": true, "special": false}, {"id": 7366, "content": "<unused_token_261>", "single_word": false, "lstrip": false, "rstrip": false, "normalized": true, "special": false}, {"id": 7367, "content": "<unused_token_262>", "single_word": false, "lstrip": false, "rstrip": false, "normalized": true, "special": false}, {"id": 7368, "content": "<unused_token_263>", "single_word": false, "lstrip": false, "rstrip": false, "normalized": true, "special": false}, {"id": 7369, "content": "<unused_token_264>", "single_word": false, "lstrip": false, "rstrip": false, "normalized": true, "special": false}, {"id": 7370, "content": "<unused_token_265>", "single_word": false, "lstrip": false, "rstrip": false, "normalized": true, "special": false}, {"id": 7371, "content": "<unused_token_266>", "single_word": false, "lstrip": false, "rstrip": false, "normalized": true, "special": false}, {"id": 7372, "content": "<unused_token_267>", "single_word": false, "lstrip": false, "rstrip": false, "normalized": true, "special": false}, {"id": 7373, "content": "<unused_token_268>", "single_word": false, "lstrip": false, "rstrip": false, "normalized": true, "special": false}, {"id": 7374, "content": "<unused_token_269>", "single_word": false, "lstrip": false, "rstrip": false, "normalized": true, "special": false}, {"id": 7375, "content": "<unused_token_270>", "single_word": false, "lstrip": false, "rstrip": false, "normalized": true, "special": false}, {"id": 7376, "content": "<unused_token_271>", "single_word": false, "lstrip": false, "rstrip": false, "normalized": true, "special": false}, {"id": 7377, "content": "<unused_token_272>", "single_word": false, "lstrip": false, "rstrip": false, "normalized": true, "special": false}, {"id": 7378, "content": "<unused_token_273>", "single_word": false, "lstrip": false, "rstrip": false, "normalized": true, "special": false}, {"id": 7379, "content": "<unused_token_274>", "single_word": false, "lstrip": false, "rstrip": false, "normalized": true, "special": false}, {"id": 7380, "content": "<unused_token_275>", "single_word": false, "lstrip": false, "rstrip": false, "normalized": true, "special": false}, {"id": 7381, "content": "<unused_token_276>", "single_word": false, "lstrip": false, "rstrip": false, "normalized": true, "special": false}, {"id": 7382, "content": "<unused_token_277>", "single_word": false, "lstrip": false, "rstrip": false, "normalized": true, "special": false}, {"id": 7383, "content": "<unused_token_278>", "single_word": false, "lstrip": false, "rstrip": false, "normalized": true, "special": false}, {"id": 7384, "content": "<unused_token_279>", "single_word": false, "lstrip": false, "rstrip": false, "normalized": true, "special": false}, {"id": 7385, "content": "<unused_token_280>", "single_word": false, "lstrip": false, "rstrip": false, "normalized": true, "special": false}, {"id": 7386, "content": "<unused_token_281>", "single_word": false, "lstrip": false, "rstrip": false, "normalized": true, "special": false}, {"id": 7387, "content": "<unused_token_282>", "single_word": false, "lstrip": false, "rstrip": false, "normalized": true, "special": false}, {"id": 7388, "content": "<unused_token_283>", "single_word": false, "lstrip": false, "rstrip": false, "normalized": true, "special": false}, {"id": 7389, "content": "<unused_token_284>", "single_word": false, "lstrip": false, "rstrip": false, "normalized": true, "special": false}, {"id": 7390, "content": "<unused_token_285>", "single_word": false, "lstrip": false, "rstrip": false, "normalized": true, "special": false}, {"id": 7391, "content": "<unused_token_286>", "single_word": false, "lstrip": false, "rstrip": false, "normalized": true, "special": false}, {"id": 7392, "content": "<unused_token_287>", "single_word": false, "lstrip": false, "rstrip": false, "normalized": true, "special": false}, {"id": 7393, "content": "<unused_token_288>", "single_word": false, "lstrip": false, "rstrip": false, "normalized": true, "special": false}, {"id": 7394, "content": "<unused_token_289>", "single_word": false, "lstrip": false, "rstrip": false, "normalized": true, "special": false}, {"id": 7395, "content": "<unused_token_290>", "single_word": false, "lstrip": false, "rstrip": false, "normalized": true, "special": false}, {"id": 7396, "content": "<unused_token_291>", "single_word": false, "lstrip": false, "rstrip": false, "normalized": true, "special": false}, {"id": 7397, "content": "<unused_token_292>", "single_word": false, "lstrip": false, "rstrip": false, "normalized": true, "special": false}, {"id": 7398, "content": "<unused_token_293>", "single_word": false, "lstrip": false, "rstrip": false, "normalized": true, "special": false}, {"id": 7399, "content": "<unused_token_294>", "single_word": false, "lstrip": false, "rstrip": false, "normalized": true, "special": false}, {"id": 7400, "content": "<unused_token_295>", "single_word": false, "lstrip": false, "rstrip": false, "normalized": true, "special": false}, {"id": 7401, "content": "<unused_token_296>", "single_word": false, "lstrip": false, "rstrip": false, "normalized": true, "special": false}, {"id": 7402, "content": "<unused_token_297>", "single_word": false, "lstrip": false, "rstrip": false, "normalized": true, "special": false}, {"id": 7403, "content": "<unused_token_298>", "single_word": false, "lstrip": false, "rstrip": false, "normalized": true, "special": false}, {"id": 7404, "content": "<unused_token_299>", "single_word": false, "lstrip": false, "rstrip": false, "normalized": true, "special": false}, {"id": 7405, "content": "<unused_token_300>", "single_word": false, "lstrip": false, "rstrip": false, "normalized": true, "special": false}, {"id": 7406, "content": "<unused_token_301>", "single_word": false, "lstrip": false, "rstrip": false, "normalized": true, "special": false}, {"id": 7407, "content": "<unused_token_302>", "single_word": false, "lstrip": false, "rstrip": false, "normalized": true, "special": false}, {"id": 7408, "content": "<unused_token_303>", "single_word": false, "lstrip": false, "rstrip": false, "normalized": true, "special": false}, {"id": 7409, "content": "<unused_token_304>", "single_word": false, "lstrip": false, "rstrip": false, "normalized": true, "special": false}, {"id": 7410, "content": "<unused_token_305>", "single_word": false, "lstrip": false, "rstrip": false, "normalized": true, "special": false}, {"id": 7411, "content": "<unused_token_306>", "single_word": false, "lstrip": false, "rstrip": false, "normalized": true, "special": false}, {"id": 7412, "content": "<unused_token_307>", "single_word": false, "lstrip": false, "rstrip": false, "normalized": true, "special": false}, {"id": 7413, "content": "<unused_token_308>", "single_word": false, "lstrip": false, "rstrip": false, "normalized": true, "special": false}, {"id": 7414, "content": "<unused_token_309>", "single_word": false, "lstrip": false, "rstrip": false, "normalized": true, "special": false}, {"id": 7415, "content": "<unused_token_310>", "single_word": false, "lstrip": false, "rstrip": false, "normalized": true, "special": false}, {"id": 7416, "content": "<unused_token_311>", "single_word": false, "lstrip": false, "rstrip": false, "normalized": true, "special": false}, {"id": 7417, "content": "<unused_token_312>", "single_word": false, "lstrip": false, "rstrip": false, "normalized": true, "special": false}, {"id": 7418, "content": "<unused_token_313>", "single_word": false, "lstrip": false, "rstrip": false, "normalized": true, "special": false}, {"id": 7419, "content": "<unused_token_314>", "single_word": false, "lstrip": false, "rstrip": false, "normalized": true, "special": false}, {"id": 7420, "content": "<unused_token_315>", "single_word": false, "lstrip": false, "rstrip": false, "normalized": true, "special": false}, {"id": 7421, "content": "<unused_token_316>", "single_word": false, "lstrip": false, "rstrip": false, "normalized": true, "special": false}, {"id": 7422, "content": "<unused_token_317>", "single_word": false, "lstrip": false, "rstrip": false, "normalized": true, "special": false}, {"id": 7423, "content": "<unused_token_318>", "single_word": false, "lstrip": false, "rstrip": false, "normalized": true, "special": false}, {"id": 7424, "content": "<unused_token_319>", "single_word": false, "lstrip": false, "rstrip": false, "normalized": true, "special": false}, {"id": 7425, "content": "<unused_token_320>", "single_word": false, "lstrip": false, "rstrip": false, "normalized": true, "special": false}, {"id": 7426, "content": "<unused_token_321>", "single_word": false, "lstrip": false, "rstrip": false, "normalized": true, "special": false}, {"id": 7427, "content": "<unused_token_322>", "single_word": false, "lstrip": false, "rstrip": false, "normalized": true, "special": false}, {"id": 7428, "content": "<unused_token_323>", "single_word": false, "lstrip": false, "rstrip": false, "normalized": true, "special": false}, {"id": 7429, "content": "<unused_token_324>", "single_word": false, "lstrip": false, "rstrip": false, "normalized": true, "special": false}, {"id": 7430, "content": "<unused_token_325>", "single_word": false, "lstrip": false, "rstrip": false, "normalized": true, "special": false}, {"id": 7431, "content": "<unused_token_326>", "single_word": false, "lstrip": false, "rstrip": false, "normalized": true, "special": false}, {"id": 7432, "content": "<unused_token_327>", "single_word": false, "lstrip": false, "rstrip": false, "normalized": true, "special": false}, {"id": 7433, "content": "<unused_token_328>", "single_word": false, "lstrip": false, "rstrip": false, "normalized": true, "special": false}, {"id": 7434, "content": "<unused_token_329>", "single_word": false, "lstrip": false, "rstrip": false, "normalized": true, "special": false}, {"id": 7435, "content": "<unused_token_330>", "single_word": false, "lstrip": false, "rstrip": false, "normalized": true, "special": false}, {"id": 7436, "content": "<unused_token_331>", "single_word": false, "lstrip": false, "rstrip": false, "normalized": true, "special": false}, {"id": 7437, "content": "<unused_token_332>", "single_word": false, "lstrip": false, "rstrip": false, "normalized": true, "special": false}, {"id": 7438, "content": "<unused_token_333>", "single_word": false, "lstrip": false, "rstrip": false, "normalized": true, "special": false}, {"id": 7439, "content": "<unused_token_334>", "single_word": false, "lstrip": false, "rstrip": false, "normalized": true, "special": false}, {"id": 7440, "content": "<unused_token_335>", "single_word": false, "lstrip": false, "rstrip": false, "normalized": true, "special": false}, {"id": 7441, "content": "<unused_token_336>", "single_word": false, "lstrip": false, "rstrip": false, "normalized": true, "special": false}, {"id": 7442, "content": "<unused_token_337>", "single_word": false, "lstrip": false, "rstrip": false, "normalized": true, "special": false}, {"id": 7443, "content": "<unused_token_338>", "single_word": false, "lstrip": false, "rstrip": false, "normalized": true, "special": false}, {"id": 7444, "content": "<unused_token_339>", "single_word": false, "lstrip": false, "rstrip": false, "normalized": true, "special": false}, {"id": 7445, "content": "<unused_token_340>", "single_word": false, "lstrip": false, "rstrip": false, "normalized": true, "special": false}, {"id": 7446, "content": "<unused_token_341>", "single_word": false, "lstrip": false, "rstrip": false, "normalized": true, "special": false}, {"id": 7447, "content": "<unused_token_342>", "single_word": false, "lstrip": false, "rstrip": false, "normalized": true, "special": false}, {"id": 7448, "content": "<unused_token_343>", "single_word": false, "lstrip": false, "rstrip": false, "normalized": true, "special": false}, {"id": 7449, "content": "<unused_token_344>", "single_word": false, "lstrip": false, "rstrip": false, "normalized": true, "special": false}, {"id": 7450, "content": "<unused_token_345>", "single_word": false, "lstrip": false, "rstrip": false, "normalized": true, "special": false}, {"id": 7451, "content": "<unused_token_346>", "single_word": false, "lstrip": false, "rstrip": false, "normalized": true, "special": false}, {"id": 7452, "content": "<unused_token_347>", "single_word": false, "lstrip": false, "rstrip": false, "normalized": true, "special": false}, {"id": 7453, "content": "<unused_token_348>", "single_word": false, "lstrip": false, "rstrip": false, "normalized": true, "special": false}, {"id": 7454, "content": "<unused_token_349>", "single_word": false, "lstrip": false, "rstrip": false, "normalized": true, "special": false}, {"id": 7455, "content": "<unused_token_350>", "single_word": false, "lstrip": false, "rstrip": false, "normalized": true, "special": false}, {"id": 7456, "content": "<unused_token_351>", "single_word": false, "lstrip": false, "rstrip": false, "normalized": true, "special": false}, {"id": 7457, "content": "<unused_token_352>", "single_word": false, "lstrip": false, "rstrip": false, "normalized": true, "special": false}, {"id": 7458, "content": "<unused_token_353>", "single_word": false, "lstrip": false, "rstrip": false, "normalized": true, "special": false}, {"id": 7459, "content": "<unused_token_354>", "single_word": false, "lstrip": false, "rstrip": false, "normalized": true, "special": false}, {"id": 7460, "content": "<unused_token_355>", "single_word": false, "lstrip": false, "rstrip": false, "normalized": true, "special": false}, {"id": 7461, "content": "<unused_token_356>", "single_word": false, "lstrip": false, "rstrip": false, "normalized": true, "special": false}, {"id": 7462, "content": "<unused_token_357>", "single_word": false, "lstrip": false, "rstrip": false, "normalized": true, "special": false}, {"id": 7463, "content": "<unused_token_358>", "single_word": false, "lstrip": false, "rstrip": false, "normalized": true, "special": false}, {"id": 7464, "content": "<unused_token_359>", "single_word": false, "lstrip": false, "rstrip": false, "normalized": true, "special": false}, {"id": 7465, "content": "<unused_token_360>", "single_word": false, "lstrip": false, "rstrip": false, "normalized": true, "special": false}, {"id": 7466, "content": "<unused_token_361>", "single_word": false, "lstrip": false, "rstrip": false, "normalized": true, "special": false}, {"id": 7467, "content": "<unused_token_362>", "single_word": false, "lstrip": false, "rstrip": false, "normalized": true, "special": false}, {"id": 7468, "content": "<unused_token_363>", "single_word": false, "lstrip": false, "rstrip": false, "normalized": true, "special": false}, {"id": 7469, "content": "<unused_token_364>", "single_word": false, "lstrip": false, "rstrip": false, "normalized": true, "special": false}, {"id": 7470, "content": "<unused_token_365>", "single_word": false, "lstrip": false, "rstrip": false, "normalized": true, "special": false}, {"id": 7471, "content": "<unused_token_366>", "single_word": false, "lstrip": false, "rstrip": false, "normalized": true, "special": false}, {"id": 7472, "content": "<unused_token_367>", "single_word": false, "lstrip": false, "rstrip": false, "normalized": true, "special": false}, {"id": 7473, "content": "<unused_token_368>", "single_word": false, "lstrip": false, "rstrip": false, "normalized": true, "special": false}, {"id": 7474, "content": "<unused_token_369>", "single_word": false, "lstrip": false, "rstrip": false, "normalized": true, "special": false}, {"id": 7475, "content": "<unused_token_370>", "single_word": false, "lstrip": false, "rstrip": false, "normalized": true, "special": false}, {"id": 7476, "content": "<unused_token_371>", "single_word": false, "lstrip": false, "rstrip": false, "normalized": true, "special": false}, {"id": 7477, "content": "<unused_token_372>", "single_word": false, "lstrip": false, "rstrip": false, "normalized": true, "special": false}, {"id": 7478, "content": "<unused_token_373>", "single_word": false, "lstrip": false, "rstrip": false, "normalized": true, "special": false}, {"id": 7479, "content": "<unused_token_374>", "single_word": false, "lstrip": false, "rstrip": false, "normalized": true, "special": false}, {"id": 7480, "content": "<unused_token_375>", "single_word": false, "lstrip": false, "rstrip": false, "normalized": true, "special": false}, {"id": 7481, "content": "<unused_token_376>", "single_word": false, "lstrip": false, "rstrip": false, "normalized": true, "special": false}, {"id": 7482, "content": "<unused_token_377>", "single_word": false, "lstrip": false, "rstrip": false, "normalized": true, "special": false}, {"id": 7483, "content": "<unused_token_378>", "single_word": false, "lstrip": false, "rstrip": false, "normalized": true, "special": false}, {"id": 7484, "content": "<unused_token_379>", "single_word": false, "lstrip": false, "rstrip": false, "normalized": true, "special": false}, {"id": 7485, "content": "<unused_token_380>", "single_word": false, "lstrip": false, "rstrip": false, "normalized": true, "special": false}, {"id": 7486, "content": "<unused_token_381>", "single_word": false, "lstrip": false, "rstrip": false, "normalized": true, "special": false}, {"id": 7487, "content": "<unused_token_382>", "single_word": false, "lstrip": false, "rstrip": false, "normalized": true, "special": false}, {"id": 7488, "content": "<unused_token_383>", "single_word": false, "lstrip": false, "rstrip": false, "normalized": true, "special": false}, {"id": 7489, "content": "<unused_token_384>", "single_word": false, "lstrip": false, "rstrip": false, "normalized": true, "special": false}, {"id": 7490, "content": "<unused_token_385>", "single_word": false, "lstrip": false, "rstrip": false, "normalized": true, "special": false}, {"id": 7491, "content": "<unused_token_386>", "single_word": false, "lstrip": false, "rstrip": false, "normalized": true, "special": false}, {"id": 7492, "content": "<unused_token_387>", "single_word": false, "lstrip": false, "rstrip": false, "normalized": true, "special": false}, {"id": 7493, "content": "<unused_token_388>", "single_word": false, "lstrip": false, "rstrip": false, "normalized": true, "special": false}, {"id": 7494, "content": "<unused_token_389>", "single_word": false, "lstrip": false, "rstrip": false, "normalized": true, "special": false}, {"id": 7495, "content": "<unused_token_390>", "single_word": false, "lstrip": false, "rstrip": false, "normalized": true, "special": false}, {"id": 7496, "content": "<unused_token_391>", "single_word": false, "lstrip": false, "rstrip": false, "normalized": true, "special": false}, {"id": 7497, "content": "<unused_token_392>", "single_word": false, "lstrip": false, "rstrip": false, "normalized": true, "special": false}, {"id": 7498, "content": "<unused_token_393>", "single_word": false, "lstrip": false, "rstrip": false, "normalized": true, "special": false}, {"id": 7499, "content": "<unused_token_394>", "single_word": false, "lstrip": false, "rstrip": false, "normalized": true, "special": false}, {"id": 7500, "content": "<unused_token_395>", "single_word": false, "lstrip": false, "rstrip": false, "normalized": true, "special": false}, {"id": 7501, "content": "<unused_token_396>", "single_word": false, "lstrip": false, "rstrip": false, "normalized": true, "special": false}, {"id": 7502, "content": "<unused_token_397>", "single_word": false, "lstrip": false, "rstrip": false, "normalized": true, "special": false}, {"id": 7503, "content": "<unused_token_398>", "single_word": false, "lstrip": false, "rstrip": false, "normalized": true, "special": false}, {"id": 7504, "content": "<unused_token_399>", "single_word": false, "lstrip": false, "rstrip": false, "normalized": true, "special": false}, {"id": 7505, "content": "<unused_token_400>", "single_word": false, "lstrip": false, "rstrip": false, "normalized": true, "special": false}, {"id": 7506, "content": "<unused_token_401>", "single_word": false, "lstrip": false, "rstrip": false, "normalized": true, "special": false}, {"id": 7507, "content": "<unused_token_402>", "single_word": false, "lstrip": false, "rstrip": false, "normalized": true, "special": false}, {"id": 7508, "content": "<unused_token_403>", "single_word": false, "lstrip": false, "rstrip": false, "normalized": true, "special": false}, {"id": 7509, "content": "<unused_token_404>", "single_word": false, "lstrip": false, "rstrip": false, "normalized": true, "special": false}, {"id": 7510, "content": "<unused_token_405>", "single_word": false, "lstrip": false, "rstrip": false, "normalized": true, "special": false}, {"id": 7511, "content": "<unused_token_406>", "single_word": false, "lstrip": false, "rstrip": false, "normalized": true, "special": false}, {"id": 7512, "content": "<unused_token_407>", "single_word": false, "lstrip": false, "rstrip": false, "normalized": true, "special": false}, {"id": 7513, "content": "<unused_token_408>", "single_word": false, "lstrip": false, "rstrip": false, "normalized": true, "special": false}, {"id": 7514, "content": "<unused_token_409>", "single_word": false, "lstrip": false, "rstrip": false, "normalized": true, "special": false}, {"id": 7515, "content": "<unused_token_410>", "single_word": false, "lstrip": false, "rstrip": false, "normalized": true, "special": false}, {"id": 7516, "content": "<unused_token_411>", "single_word": false, "lstrip": false, "rstrip": false, "normalized": true, "special": false}, {"id": 7517, "content": "<unused_token_412>", "single_word": false, "lstrip": false, "rstrip": false, "normalized": true, "special": false}, {"id": 7518, "content": "<unused_token_413>", "single_word": false, "lstrip": false, "rstrip": false, "normalized": true, "special": false}, {"id": 7519, "content": "<unused_token_414>", "single_word": false, "lstrip": false, "rstrip": false, "normalized": true, "special": false}, {"id": 7520, "content": "<unused_token_415>", "single_word": false, "lstrip": false, "rstrip": false, "normalized": true, "special": false}, {"id": 7521, "content": "<unused_token_416>", "single_word": false, "lstrip": false, "rstrip": false, "normalized": true, "special": false}, {"id": 7522, "content": "<unused_token_417>", "single_word": false, "lstrip": false, "rstrip": false, "normalized": true, "special": false}, {"id": 7523, "content": "<unused_token_418>", "single_word": false, "lstrip": false, "rstrip": false, "normalized": true, "special": false}, {"id": 7524, "content": "<unused_token_419>", "single_word": false, "lstrip": false, "rstrip": false, "normalized": true, "special": false}, {"id": 7525, "content": "<unused_token_420>", "single_word": false, "lstrip": false, "rstrip": false, "normalized": true, "special": false}, {"id": 7526, "content": "<unused_token_421>", "single_word": false, "lstrip": false, "rstrip": false, "normalized": true, "special": false}, {"id": 7527, "content": "<unused_token_422>", "single_word": false, "lstrip": false, "rstrip": false, "normalized": true, "special": false}, {"id": 7528, "content": "<unused_token_423>", "single_word": false, "lstrip": false, "rstrip": false, "normalized": true, "special": false}, {"id": 7529, "content": "<unused_token_424>", "single_word": false, "lstrip": false, "rstrip": false, "normalized": true, "special": false}, {"id": 7530, "content": "<unused_token_425>", "single_word": false, "lstrip": false, "rstrip": false, "normalized": true, "special": false}, {"id": 7531, "content": "<unused_token_426>", "single_word": false, "lstrip": false, "rstrip": false, "normalized": true, "special": false}, {"id": 7532, "content": "<unused_token_427>", "single_word": false, "lstrip": false, "rstrip": false, "normalized": true, "special": false}, {"id": 7533, "content": "<unused_token_428>", "single_word": false, "lstrip": false, "rstrip": false, "normalized": true, "special": false}, {"id": 7534, "content": "<unused_token_429>", "single_word": false, "lstrip": false, "rstrip": false, "normalized": true, "special": false}, {"id": 7535, "content": "<unused_token_430>", "single_word": false, "lstrip": false, "rstrip": false, "normalized": true, "special": false}, {"id": 7536, "content": "<unused_token_431>", "single_word": false, "lstrip": false, "rstrip": false, "normalized": true, "special": false}, {"id": 7537, "content": "<unused_token_432>", "single_word": false, "lstrip": false, "rstrip": false, "normalized": true, "special": false}, {"id": 7538, "content": "<unused_token_433>", "single_word": false, "lstrip": false, "rstrip": false, "normalized": true, "special": false}, {"id": 7539, "content": "<unused_token_434>", "single_word": false, "lstrip": false, "rstrip": false, "normalized": true, "special": false}, {"id": 7540, "content": "<unused_token_435>", "single_word": false, "lstrip": false, "rstrip": false, "normalized": true, "special": false}, {"id": 7541, "content": "<unused_token_436>", "single_word": false, "lstrip": false, "rstrip": false, "normalized": true, "special": false}, {"id": 7542, "content": "<unused_token_437>", "single_word": false, "lstrip": false, "rstrip": false, "normalized": true, "special": false}, {"id": 7543, "content": "<unused_token_438>", "single_word": false, "lstrip": false, "rstrip": false, "normalized": true, "special": false}, {"id": 7544, "content": "<unused_token_439>", "single_word": false, "lstrip": false, "rstrip": false, "normalized": true, "special": false}, {"id": 7545, "content": "<unused_token_440>", "single_word": false, "lstrip": false, "rstrip": false, "normalized": true, "special": false}, {"id": 7546, "content": "<unused_token_441>", "single_word": false, "lstrip": false, "rstrip": false, "normalized": true, "special": false}, {"id": 7547, "content": "<unused_token_442>", "single_word": false, "lstrip": false, "rstrip": false, "normalized": true, "special": false}, {"id": 7548, "content": "<unused_token_443>", "single_word": false, "lstrip": false, "rstrip": false, "normalized": true, "special": false}, {"id": 7549, "content": "<unused_token_444>", "single_word": false, "lstrip": false, "rstrip": false, "normalized": true, "special": false}, {"id": 7550, "content": "<unused_token_445>", "single_word": false, "lstrip": false, "rstrip": false, "normalized": true, "special": false}, {"id": 7551, "content": "<unused_token_446>", "single_word": false, "lstrip": false, "rstrip": false, "normalized": true, "special": false}, {"id": 7552, "content": "<unused_token_447>", "single_word": false, "lstrip": false, "rstrip": false, "normalized": true, "special": false}, {"id": 7553, "content": "<unused_token_448>", "single_word": false, "lstrip": false, "rstrip": false, "normalized": true, "special": false}, {"id": 7554, "content": "<unused_token_449>", "single_word": false, "lstrip": false, "rstrip": false, "normalized": true, "special": false}, {"id": 7555, "content": "<unused_token_450>", "single_word": false, "lstrip": false, "rstrip": false, "normalized": true, "special": false}, {"id": 7556, "content": "<unused_token_451>", "single_word": false, "lstrip": false, "rstrip": false, "normalized": true, "special": false}, {"id": 7557, "content": "<unused_token_452>", "single_word": false, "lstrip": false, "rstrip": false, "normalized": true, "special": false}, {"id": 7558, "content": "<unused_token_453>", "single_word": false, "lstrip": false, "rstrip": false, "normalized": true, "special": false}, {"id": 7559, "content": "<unused_token_454>", "single_word": false, "lstrip": false, "rstrip": false, "normalized": true, "special": false}, {"id": 7560, "content": "<unused_token_455>", "single_word": false, "lstrip": false, "rstrip": false, "normalized": true, "special": false}, {"id": 7561, "content": "<unused_token_456>", "single_word": false, "lstrip": false, "rstrip": false, "normalized": true, "special": false}, {"id": 7562, "content": "<unused_token_457>", "single_word": false, "lstrip": false, "rstrip": false, "normalized": true, "special": false}, {"id": 7563, "content": "<unused_token_458>", "single_word": false, "lstrip": false, "rstrip": false, "normalized": true, "special": false}, {"id": 7564, "content": "<unused_token_459>", "single_word": false, "lstrip": false, "rstrip": false, "normalized": true, "special": false}, {"id": 7565, "content": "<unused_token_460>", "single_word": false, "lstrip": false, "rstrip": false, "normalized": true, "special": false}, {"id": 7566, "content": "<unused_token_461>", "single_word": false, "lstrip": false, "rstrip": false, "normalized": true, "special": false}, {"id": 7567, "content": "<unused_token_462>", "single_word": false, "lstrip": false, "rstrip": false, "normalized": true, "special": false}, {"id": 7568, "content": "<unused_token_463>", "single_word": false, "lstrip": false, "rstrip": false, "normalized": true, "special": false}, {"id": 7569, "content": "<unused_token_464>", "single_word": false, "lstrip": false, "rstrip": false, "normalized": true, "special": false}, {"id": 7570, "content": "<unused_token_465>", "single_word": false, "lstrip": false, "rstrip": false, "normalized": true, "special": false}, {"id": 7571, "content": "<unused_token_466>", "single_word": false, "lstrip": false, "rstrip": false, "normalized": true, "special": false}, {"id": 7572, "content": "<unused_token_467>", "single_word": false, "lstrip": false, "rstrip": false, "normalized": true, "special": false}, {"id": 7573, "content": "<unused_token_468>", "single_word": false, "lstrip": false, "rstrip": false, "normalized": true, "special": false}, {"id": 7574, "content": "<unused_token_469>", "single_word": false, "lstrip": false, "rstrip": false, "normalized": true, "special": false}, {"id": 7575, "content": "<unused_token_470>", "single_word": false, "lstrip": false, "rstrip": false, "normalized": true, "special": false}, {"id": 7576, "content": "<unused_token_471>", "single_word": false, "lstrip": false, "rstrip": false, "normalized": true, "special": false}, {"id": 7577, "content": "<unused_token_472>", "single_word": false, "lstrip": false, "rstrip": false, "normalized": true, "special": false}, {"id": 7578, "content": "<unused_token_473>", "single_word": false, "lstrip": false, "rstrip": false, "normalized": true, "special": false}, {"id": 7579, "content": "<unused_token_474>", "single_word": false, "lstrip": false, "rstrip": false, "normalized": true, "special": false}, {"id": 7580, "content": "<unused_token_475>", "single_word": false, "lstrip": false, "rstrip": false, "normalized": true, "special": false}, {"id": 7581, "content": "<unused_token_476>", "single_word": false, "lstrip": false, "rstrip": false, "normalized": true, "special": false}, {"id": 7582, "content": "<unused_token_477>", "single_word": false, "lstrip": false, "rstrip": false, "normalized": true, "special": false}], "normalizer": null, "pre_tokenizer": {"type": "Sequence", "pretokenizers": [{"type": "Split", "pattern": {"Regex": "\\p{N}{1,3}"}, "behavior": "Isolated", "invert": false}, {"type": "Split", "pattern": {"Regex": "(?i:'s|'t|'re|'ve|'m|'ll|'d)|[^\\r\\n\\p{L}\\p{N}]?\\p{L}+|\\p{N}+| ?[^\\s\\p{L}\\p{N}]+[\\r\\n]*|\\s*[\\r\\n]+|\\s+(?!\\S)|\\s+"}, "behavior": "Isolated", "invert": false}, {"type": "ByteLevel", "add_prefix_space": false, "trim_offsets": true, "use_regex": false}]}, "post_processor": {"type": "TemplateProcessing", "single": [{"SpecialToken": {"id": "<s>", "type_id": 0}}, {"Sequence": {"id": "A", "type_id": 0}}], "pair": [{"SpecialToken": {"id": "<s>", "type_id": 0}}, {"Sequence": {"id": "A", "type_id": 0}}, {"SpecialToken": {"id": "<s>", "type_id": 1}}, {"Sequence": {"id": "B", "type_id": 1}}], "special_tokens": {"<s>": {"id": "<s>", "ids": [0], "tokens": ["<s>"]}}}, "decoder": {"type": "ByteLevel", "add_prefix_space": true, "trim_offsets": true, "use_regex": true}, "model": {"type": "BPE", "dropout": null, "unk_token": "<unk>", "continuing_subword_prefix": null, "end_of_word_suffix": null, "fuse_unk": false, "byte_fallback": false, "ignore_merges": false, "vocab": {"<s>": 0, "</s>": 1, "<tool_call>": 2, "</tool_call>": 3, "<|im_sep|>": 4, "<|fim_prefix|>": 5, "<|fim_middle|>": 6, "<|fim_suffix|>": 7, "<think>": 8, "</think>": 9, "<tool_response>": 10, "</tool_response>": 11, "<tools>": 12, "</tools>": 13, "<arguments>": 14, "</arguments>": 15, "<parameters>": 16, "</parameters>": 17, "<function": 18, "</function>": 19, "<param": 20, "</param>": 21, "!": 22, "\"": 23, "#": 24, "$": 25, "%": 26, "&": 27, "'": 28, "(": 29, ")": 30, "*": 31, "+": 32, ",": 33, "-": 34, ".": 35, "/": 36, "0": 37, "1": 38, "2": 39, "3": 40, "4": 41, "5": 42, "6": 43, "7": 44, "8": 45, "9": 46, ":": 47, ";": 48, "<": 49, "=": 50, ">": 51, "?": 52, "@": 53, "A": 54, "B": 55, "C": 56, "D": 57, "E": 58, "F": 59, "G": 60, "H": 61, "I": 62, "J": 63, "K": 64, "L": 65, "M": 66, "N": 67, "O": 68, "P": 69, "Q": 70, "R": 71, "S": 72, "T": 73, "U": 74, "V": 75, "W": 76, "X": 77, "Y": 78, "Z": 79, "[": 80, "\\": 81, "]": 82, "^": 83, "_": 84, "`": 85, "a": 86, "b": 87, "c": 88, "d": 89, "e": 90, "f": 91, "g": 92, "h": 93, "i": 94, "j": 95, "k": 96, "l": 97, "m": 98, "n": 99, "o": 100, "p": 101, "q": 102, "r": 103, "s": 104, "t": 105, "u": 106, "v": 107, "w": 108, "x": 109, "y": 110, "z": 111, "{": 112, "|": 113, "}": 114, "~": 115, "¡": 116, "¢": 117, "£": 118, "¤": 119, "¥": 120, "¦": 121, "§": 122, "¨": 123, "©": 124, "ª": 125, "«": 126, "¬": 127, "®": 128, "¯": 129, "°": 130, "±": 131, "²": 132, "³": 133, "´": 134, "µ": 135, "¶": 136, "·": 137, "¸": 138, "¹": 139, "º": 140, "»": 141, "¼": 142, "½": 143, "¾": 144, "¿": 145, "À": 146, "Á": 147, "Â": 148, "Ã": 149, "Ä": 150, "Å": 151, "Æ": 152, "Ç": 153, "È": 154, "É": 155, "Ê": 156, "Ë": 157, "Ì": 158, "Í": 159, "Î": 160, "Ï": 161, "Ð": 162, "Ñ": 163, "Ò": 164, "Ó": 165, "Ô": 166, "Õ": 167, "Ö": 168, "×": 169, "Ø": 170, "Ù": 171, "Ú": 172, "Û": 173, "Ü": 174, "Ý": 175, "Þ": 176, "ß": 177, "à": 178, "á": 179, "â": 180, "ã": 181, "ä": 182, "å": 183, "æ": 184, "ç": 185, "è": 186, "é": 187, "ê": 188, "ë": 189, "ì": 190, "í": 191, "î": 192, "ï": 193, "ð": 194, "ñ": 195, "ò": 196, "ó": 197, "ô": 198, "õ": 199, "ö": 200, "÷": 201, "ø": 202, "ù": 203, "ú": 204, "û": 205, "ü": 206, "ý": 207, "þ": 208, "ÿ": 209, "Ā": 210, "ā": 211, "Ă": 212, "ă": 213, "Ą": 214, "ą": 215, "Ć": 216, "ć": 217, "Ĉ": 218, "ĉ": 219, "Ċ": 220, "ċ": 221, "Č": 222, "č": 223, "Ď": 224, "ď": 225, "Đ": 226, "đ": 227, "Ē": 228, "ē": 229, "Ĕ": 230, "ĕ": 231, "Ė": 232, "ė": 233, "Ę": 234, "ę": 235, "Ě": 236, "ě": 237, "Ĝ": 238, "ĝ": 239, "Ğ": 240, "ğ": 241, "Ġ": 242, "ġ": 243, "Ģ": 244, "ģ": 245, "Ĥ": 246, "ĥ": 247, "Ħ": 248, "ħ": 249, "Ĩ": 250, "ĩ": 251, "Ī": 252, "ī": 253, "Ĭ": 254, "ĭ": 255, "Į": 256, "į": 257, "İ": 258, "ı": 259, "Ĳ": 260, "ĳ": 261, "Ĵ": 262, "ĵ": 263, "Ķ": 264, "ķ": 265, "ĸ": 266, "Ĺ": 267, "ĺ": 268, "Ļ": 269, "ļ": 270, "Ľ": 271, "ľ": 272, "Ŀ": 273, "ŀ": 274, "Ł": 275, "ł": 276, "Ń": 277, "Ġt": 278, "he": 279, "Ġa": 280, "in": 281, "ĠĠ": 282, "on": 283, "re": 284, "Ġthe": 285, "at": 286, "er": 287, "Ġs": 288, "Ġo": 289, "en": 290, "Ġc": 291, "Ġw": 292, "is": 293, "es": 294, "it": 295, "an": 296, "or": 297, "al": 298, "Ġp": 299, "ed": 300, "Ġf": 301, "Ġb": 302, "ar": 303, "Ġof": 304, "Ġan": 305, "ing": 306, "Ġm": 307, "Ġd": 308, "Ġin": 309, "ion": 310, "ic": 311, "td": 312, "le": 313, "Ġand": 314, "Ġto": 315, "as": 316, "Ġ{": 317, "ro": 318, "Ġh": 319, "ĠĠĠĠ": 320, "Ġ\\": 321, "Ġ}": 322, "Ġth": 323, "ent": 324, "Ġe": 325, "ct": 326, "Ġn": 327, "Ġl": 328, "el": 329, "om": 330, "st": 331, "et": 332, "Ġre": 333, "im": 334, "ra": 335, "Ġ(": 336, "ĠT": 337, "ot": 338, "ol": 339, "id": 340, "Ġg": 341, "ig": 342, ".Ċ": 343, "ut": 344, "ve": 345, "ĠI": 346, "ation": 347, "ĠS": 348, "Ġis": 349, "ce": 350, "ĠA": 351, "ly": 352, "ch": 353, "us": 354, "Ġbe": 355, "ur": 356, "un": 357, "ow": 358, "Ġ$": 359, "ĠC": 360, "am": 361, "ad": 362, "Ġfor": 363, "Ġon": 364, "ver": 365, "âĢ": 366, "ul": 367, "Ġthat": 368, "os": 369, "Ġst": 370, "Ġhe": 371, "ir": 372, "ĠM": 373, "ay": 374, "Ġ_": 375, "if": 376, "Ġas": 377, "00": 378, "Ġcon": 379, "Ġy": 380, "ĠĠĠ": 381, "tr": 382, "ĠP": 383, "od": 384, "Ġwith": 385, "qu": 386, "th": 387, "em": 388, "um": 389, "ĠB": 390, "Ġal": 391, "Ġit": 392, "ab": 393, "Ġpro": 394, "Ġde": 395, "ĠThe": 396, "ĠH": 397, "Ġv": 398, "ag": 399, "se": 400, "her": 401, "res": 402, "pe": 403, "Ġwe": 404, "iv": 405, "and": 406, "ac": 407, "Ġwas": 408, "ĠR": 409, "Ġex": 410, "Ġr": 411, "ĠD": 412, "ĠF": 413, "ate": 414, "ĠE": 415, "ld": 416, "Ġ-": 417, "ĠL": 418, "ess": 419, "Ġor": 420, "ĠW": 421, "ers": 422, "est": 423, "ist": 424, "ity": 425, "19": 426, "Ġare": 427, "Ġ\"": 428, "Ġcom": 429, "ction": 430, "pp": 431, "ĠĠĠĠĠĠĠĠ": 432, "ant": 433, "Ġat": 434, "math": 435, "'s": 436, "ill": 437, "ore": 438, "Ġby": 439, "op": 440, "ight": 441, "ĠN": 442, "nd": 443, "Ġ=": 444, "ke": 445, "ĠG": 446, "ies": 447, "ive": 448, "ment": 449, "20": 450, "Ġnot": 451, "ure": 452, "Ġ'": 453, "ial": 454, "Ġun": 455, "art": 456, "end": 457, "Ġne": 458, "pl": 459, "Ġfrom": 460, "te": 461, "Ġ)": 462, "Ġ,": 463, "ĠĠĊ": 464, "ort": 465, "ge": 466, "Ġk": 467, "pt": 468, "Ġle": 469, "ren": 470, "Ġ<": 471, "ĠJ": 472, "red": 473, "Ġthis": 474, "ine": 475, "all": 476, "fe": 477, "iz": 478, "Ġus": 479, "ell": 480, "ĠO": 481, "per": 482, "Ġ$\\": 483, "),": 484, "Ġ.": 485, "10": 486, "Ġhave": 487, "our": 488, "Ġhis": 489, "rm": 490, "ri": 491, "Ġcan": 492, "up": 493, "âĢľ": 494, "ated": 495, "Ġj": 496, "Ġab": 497, "able": 498, "ĠIn": 499, "ime": 500, "ous": 501, "out": 502, "ans": 503, "ap": 504, "--": 505, "Ġ[": 506, "ide": 507, "ult": 508, "âĢĿ": 509, "ak": 510, "ass": 511, "orm": 512, "Ġher": 513, "ind": 514, "Ġall": 515, "The": 516, "mathrm": 517, "Ġcomp": 518, "Ġcl": 519, "Ġwhich": 520, "ations": 521, "ip": 522, "cc": 523, "ast": 524, "12": 525, "Ġhad": 526, "ong": 527, "Ġdo": 528, "der": 529, "age": 530, "to": 531, "du": 532, "',": 533, "ĠU": 534, ").": 535, "ĠK": 536, "Ġbut": 537, "ance": 538, "Ġad": 539, "ep": 540, "Ġ+": 541, "ang": 542, "one": 543, ".,": 544, "ne": 545, "int": 546, "cl": 547, "ach": 548, "Ġwere": 549, "Ġone": 550, "ub": 551, "rac": 552, "11": 553, "ens": 554, "ice": 555, "ff": 556, "Ġout": 557, "Ġper": 558, "Ġtheir": 559, "Ġthey": 560, "ĠV": 561, "15": 562, "Ġso": 563, "con": 564, "Ġgo": 565, "18": 566, "$$Ċ": 567, "oun": 568, "ose": 569, "ents": 570, "Ġhas": 571, "ions": 572, "Ġwill": 573, "ely": 574, "are": 575, "13": 576, "Ġshe": 577, "Ġi": 578, "Ġup": 579, "14": 580, "16": 581, "âĢĶ": 582, "Ġmy": 583, "xt": 584, "Ġmore": 585, ")Ċ": 586, "Ġother": 587, "form": 588, "row": 589, "Ġpart": 590, "ma": 591, "de": 592, "so": 593, "ĠY": 594, "Ġno": 595, "Ġx": 596, "rent": 597, "we": 598, "17": 599, "own": 600, "ll": 601, "ile": 602, "Ġar": 603, "ors": 604, "25": 605, "low": 606, "Ġthere": 607, "Ġbeen": 608, "Ġif": 609, "ord": 610, "ake": 611, "Ġwould": 612, "here": 613, "}$": 614, "ces": 615, "wo": 616, "Ġpre": 617, "ĠHe": 618, "ms": 619, "ta": 620, "Ġits": 621, "aus": 622, "Ġinto": 623, "Ġtime": 624, "ple": 625, "Ġthan": 626, "ĠĠĠĠĠĠĠ": 627, "Ġabout": 628, "201": 629, "ĠSt": 630, "pr": 631, "ish": 632, "Ã©": 633, "ĠIt": 634, "Ġwhen": 635, "ian": 636, "Ġ&": 637, "ates": 638, "Ġsome": 639, "ray": 640, "Ġro": 641, "Ġover": 642, "22": 643, "ings": 644, "hed": 645, "200": 646, "30": 647, "Ġdif": 648, "ov": 649, "Ġany": 650, "frac": 651, "ict": 652, "Ġbet": 653, "Ġalso": 654, "Ġthem": 655, "right": 656, "Ġmod": 657, "ark": 658, "eth": 659, "mathb": 660, "ally": 661, "ob": 662, "],": 663, "uc": 664, "the": 665, "lect": 666, "ty": 667, "Ġ|": 668, "Ġtwo": 669, "mer": 670, "ons": 671, "Ġonly": 672, "ail": 673, "tain": 674, "fect": 675, ";Ċ": 676, "24": 677, "Ġmay": 678, "cess": 679, "Ġwhat": 680, "Ġ/": 681, "ied": 682, "oint": 683, "ular": 684, "Ġwork": 685, "99": 686, "cal": 687, ":Ċ": 688, "In": 689, "hat": 690, "ink": 691, "Ġla": 692, "eg": 693, "Ġsub": 694, "Ġunder": 695, "Ġthese": 696, "Ġcould": 697, "Ġour": 698, "27": 699, "les": 700, "ond": 701, "ating": 702, "erm": 703, "Ġsuch": 704, "oth": 705, "23": 706, "ĠThis": 707, "igh": 708, "ss": 709, "ative": 710, "ise": 711, "ics": 712, "fter": 713, "Ġthen": 714, "26": 715, "199": 716, "ning": 717, "Ġlike": 718, "28": 719, "Ġhow": 720, "Ġnew": 721, "36": 722, "40": 723, "var": 724, "turn": 725, "ER": 726, "Ġfirst": 727, "ful": 728, "left": 729, "ational": 730, "29": 731, "ities": 732, "oy": 733, "Ġtrans": 734, "round": 735, "Ġknow": 736, "Ġac": 737, "imes": 738, "sp": 739, "Ġbetween": 740, "ng": 741, "com": 742, "Ġfl": 743, "pro": 744, "Ġet": 745, "(t": 746, "ont": 747, ",Ċ": 748, "ĠWe": 749, "get": 750, "ex": 751, "uch": 752, "Ġform": 753, "ures": 754, "ize": 755, "ull": 756, "Ġdid": 757, "Ġshould": 758, "Ġback": 759, "Ġthrough": 760, "Ġwhere": 761, "Ġset": 762, "ec": 763, "Ġsim": 764, "Ġuse": 765, "Ġsee": 766, "ments": 767, "iel": 768, "Ġneed": 769, "Ġint": 770, "ug": 771, "Ġsystem": 772, "ix": 773, "Ġmost": 774, "Ġfollow": 775, "clud": 776, "pos": 777, "other": 778, "array": 779, "Ġget": 780, "Ġz": 781, "37": 782, "its": 783, "ock": 784, "ife": 785, "}}": 786, "Ġeach": 787, "ĠAn": 788, "Ġdet": 789, "Ġjust": 790, "ature": 791, "Ġequ": 792, "ily": 793, "ident": 794, "ined": 795, "_{": 796, "35": 797, "Ġresult": 798, "Ġclass": 799, "198": 800, "ier": 801, "cial": 802, "ism": 803, "this": 804, "ds": 805, "45": 806, "led": 807, "ward": 808, "mathbf": 809, "ues": 810, "Ġused": 811, "ĠRe": 812, "als": 813, "Ġ)$": 814, "Ġent": 815, "Ġhand": 816, "function": 817, "Ġagain": 818, "Ġlook": 819, "Ġeven": 820, "38": 821, "Ġu": 822, "Ġafter": 823, "{array": 824, "##": 825, "48": 826, "ins": 827, "ized": 828, "Ġwell": 829, ");": 830, "amb": 831, "Ġlong": 832, "Ġfunction": 833, "Ġway": 834, "ather": 835, "Ġmodel": 836, "mathcal": 837, "^{": 838, "},": 839, "Ġpoint": 840, "ator": 841, "ited": 842, "Ġexp": 843, "ness": 844, "Ġfact": 845, "ample": 846, "sc": 847, "Ġright": 848, "sh": 849, "over": 850, "Ġdifferent": 851, "75": 852, "39": 853, "Ġsame": 854, "Ġdisc": 855, "ctions": 856, "44": 857, "ages": 858, "ĠX": 859, "Ġel": 860, "Ġnow": 861, "of": 862, "ĠZ": 863, "eta": 864, "Ġsign": 865, "ale": 866, "Ġshow": 867, "100": 868, "Ġbecause": 869, "ave": 870, "Ġdata": 871, "Ġdown": 872, "Ġevery": 873, "val": 874, "ĠFor": 875, "ines": 876, "46": 877, "Ġbel": 878, "Ġeffect": 879, "arg": 880, "line": 881, "und": 882, "Ġend": 883, "Ġmin": 884, "Ġke": 885, "ĠQ": 886, "ting": 887, "Ġfin": 888, "prime": 889, "ization": 890, "text": 891, "dot": 892, "Ġboth": 893, "cent": 894, "ern": 895, "Ġmade": 896, "Ġcall": 897, "Ġmake": 898, "ically": 899, "47": 900, "for": 901, "Ġnumber": 902, "irc": 903, "ĠShe": 904, "Ġthose": 905, "da": 906, "man": 907, "ody": 908, "Ġbefore": 909, "gg": 910, "Ġmust": 911, "way": 912, "self": 913, "Ġgood": 914, "80": 915, "Ġ:": 916, "Ġcent": 917, "Ġdevelop": 918, "Ġmuch": 919, "55": 920, "ym": 921, "ural": 922, "Ġown": 923, "ices": 924, "}Ċ": 925, "ology": 926, "70": 927, "rest": 928, "Ġprocess": 929, "Ġfound": 930, "alpha": 931, "formation": 932, "ho": 933, "-b": 934, "Ġfind": 935, "}{": 936, "Ġdoes": 937, "ton": 938, "Ġreal": 939, "ĠIf": 940, "return": 941, "app": 942, "ases": 943, "32": 944, "Ġ\\\\": 945, "Ġref": 946, "par": 947, "ider": 948, "34": 949, "]Ċ": 950, "31": 951, "ists": 952, "ash": 953, "ars": 954, "str": 955, ").Ċ": 956, "col": 957, "any": 958, "au": 959, "land": 960, "span": 961, "Ġthink": 962, "be": 963, "Ġcase": 964, "Ġdist": 965, "ĠAs": 966, "ually": 967, "Ġsmall": 968, "Ġusing": 969, "He": 970, "Ġthree": 971, "-s": 972, "lear": 973, "ved": 974, "ivid": 975, "ives": 976, "min": 977, "ouse": 978, "set": 979, "202": 980, "Ġhere": 981, "ND": 982, "We": 983, "yn": 984, "err": 985, "ves": 986, "ulation": 987, "95": 988, "].": 989, "Ġpresent": 990, "Ġwhile": 991, "mathbb": 992, "It": 993, "Ġnon": 994, "Ġ$(": 995, "cr": 996, "Ġworld": 997, "Ġmethod": 998, "ability": 999, "ĠAr": 1000, "Ġline": 1001, "Ġgiven": 1002, "ior": 1003, "Ġtake": 1004, "Ġlet": 1005, "ality": 1006, "Ġtest": 1007, "Ġ{\\": 1008, "els": 1009, "Ġstill": 1010, "ĠThere": 1011, "ience": 1012, "mu": 1013, "Ġsay": 1014, "Ġhead": 1015, ")$": 1016, "ĠâĢ": 1017, "ert": 1018, "less": 1019, "ired": 1020, "Ġhelp": 1021, "05": 1022, "Ġtoo": 1023, "Ġturn": 1024, "ĠâĢľ": 1025, "inal": 1026, "ron": 1027, "01": 1028, "78": 1029, "Ġorder": 1030, "Ġvalue": 1031, "Ġlevel": 1032, "Ġstate": 1033, "new": 1034, "Ġmain": 1035, "Ġwithout": 1036, "):": 1037, "table": 1038, "ets": 1039, "ving": 1040, "po": 1041, "Ġpower": 1042, "aj": 1043, "amma": 1044, "ides": 1045, "OT": 1046, "view": 1047, "Ġaround": 1048, "Ġexample": 1049, "}\\": 1050, "ane": 1051, "Ġpres": 1052, "ots": 1053, "Ġloss": 1054, "ified": 1055, "pi": 1056, "ĠĊ": 1057, "Ġinformation": 1058, "Ġfollowing": 1059, "Ġmean": 1060, "ĠCl": 1061, "Ġstart": 1062, "Ġanother": 1063, "Ġcondition": 1064, "ived": 1065, "Ġduring": 1066, "rem": 1067, "not": 1068, "tt": 1069, "quad": 1070, "Ġperform": 1071, "Ġinterest": 1072, "ried": 1073, "part": 1074, "Ġreturn": 1075, "Ġless": 1076, "angle": 1077, "begin": 1078, "Ġimportant": 1079, "Ġopen": 1080, "ately": 1081, "cdot": 1082, "Ġsecond": 1083, "Ġlittle": 1084, "Ġnever": 1085, "bar": 1086, "Ġmark": 1087, "Ġcap": 1088, "-f": 1089, "Ġcell": 1090, "name": 1091, "Ġplay": 1092, "Ġ]": 1093, "ining": 1094, "Ġagainst": 1095, "Ġlarge": 1096, "ĠOn": 1097, "Ġwithin": 1098, "Ġgroup": 1099, "Ġlast": 1100, "play": 1101, "lambda": 1102, "cul": 1103, "\\mathrm": 1104, "ger": 1105, "med": 1106, "data": 1107, "phi": 1108, "ently": 1109, "lt": 1110, "gt": 1111, "Ġleft": 1112, "âĢĻ": 1113, "Ġproper": 1114, "co": 1115, "Ġfew": 1116, "Ġlim": 1117, "ote": 1118, "Ġ.Ċ": 1119, "use": 1120, "sw": 1121, "Ġparticular": 1122, "St": 1123, "Ġcome": 1124, "Ġgrow": 1125, "dis": 1126, "42": 1127, "Ġconsider": 1128, "ĠĠĠĠĠĠ": 1129, "ably": 1130, "ised": 1131, "Ġsince": 1132, "Ġq": 1133, "Ġresults": 1134, "sum": 1135, "pped": 1136, "Ġsupport": 1137, "Ġgoing": 1138, "ek": 1139, "II": 1140, "Ġstudy": 1141, "abl": 1142, "Ġlight": 1143, "hor": 1144, "\\x": 1145, "den": 1146, "Ġgeneral": 1147, "Ġcontrol": 1148, "LE": 1149, "inc": 1150, "An": 1151, "ains": 1152, "ga": 1153, "Ġdirect": 1154, "Ġdesign": 1155, "This": 1156, "Ġproblem": 1157, "Ġproduct": 1158, "MT": 1159, "beta": 1160, "Ġreport": 1161, "Ġindividual": 1162, "Ġallow": 1163, "type": 1164, "Ġbest": 1165, "Ġaway": 1166, "Ġpossible": 1167, "iter": 1168, "ference": 1169, "Ġtop": 1170, "Ġlow": 1171, "by": 1172, "ends": 1173, "Ġself": 1174, "sigma": 1175, "urs": 1176, "let": 1177, "As": 1178, "rad": 1179, "Ġlaw": 1180, "rel": 1181, "times": 1182, "ering": 1183, "))": 1184, "Ġ#": 1185, "ume": 1186, "raw": 1187, "-t": 1188, "Ġfour": 1189, "Ġ>": 1190, "ĠTo": 1191, "olution": 1192, "where": 1193, "ĠTr": 1194, "Ġmeasure": 1195, "Ġobtain": 1196, "Ġrun": 1197, "eps": 1198, "Ġabove": 1199, "ances": 1200, "Ġrest": 1201, "lo": 1202, "ott": 1203, "07": 1204, "att": 1205, "ĠWhen": 1206, "istic": 1207, "Ġrespect": 1208, "Ġhard": 1209, "-c": 1210, "work": 1211, "face": 1212, "Ġbody": 1213, "57": 1214, "Ġcost": 1215, "ification": 1216, "pre": 1217, "Ġclear": 1218, "Ġside": 1219, "ustr": 1220, "ĠAt": 1221, "Ġconc": 1222, "Ġthings": 1223, "Ġ}Ċ": 1224, "theta": 1225, "Ġrow": 1226, "Ġwar": 1227, "action": 1228, "ley": 1229, "Ġname": 1230, "ĠPl": 1231, "ĠNo": 1232, "Ġgive": 1233, "Ġtype": 1234, "Ġrad": 1235, "leq": 1236, "Ġinvest": 1237, "Ġbetter": 1238, "Ġperiod": 1239, "Ġuntil": 1240, ".g": 1241, "Ġposition": 1242, "Ġlab": 1243, ".s": 1244, "olds": 1245, "Ġsum": 1246, "Ġenergy": 1247, "Ġtot": 1248, "though": 1249, "Ġfield": 1250, "Ġnext": 1251, "Ġnet": 1252, "Ġface": 1253, "ison": 1254, "Ġaddition": 1255, "rodu": 1256, "eb": 1257, "ĠThese": 1258, "Ġfamily": 1259, "ĠHowever": 1260, "af": 1261, "Ġcommon": 1262, "reg": 1263, "Ġroom": 1264, "Ġtreat": 1265, "Ġsimilar": 1266, "Ġarg": 1267, "Ġvalues": 1268, "partial": 1269, "Ġlater": 1270, ")}": 1271, "tribution": 1272, "Ġbased": 1273, "Ġtext": 1274, "Ġmeans": 1275, "Ġtoward": 1276, "nu": 1277, "most": 1278, "Ġmaterial": 1279, "gamma": 1280, "ify": 1281, "_t": 1282, "Ġcirc": 1283, "Ġspace": 1284, "alf": 1285, "Ġtimes": 1286, "ained": 1287, "arrow": 1288, "Ġquestion": 1289, "Ġlocal": 1290, "Ġcourse": 1291, "ĠAll": 1292, "Ġleast": 1293, ".[": 1294, "Ġshown": 1295, "Ġcurrent": 1296, "epend": 1297, "Ġpost": 1298, "Ġrate": 1299, "ĠLet": 1300, "Ġreason": 1301, "Ġanalysis": 1302, "delta": 1303, "Ġwords": 1304, "Ġamong": 1305, "Ex": 1306, "Â·": 1307, "Ġterm": 1308, "rho": 1309, "Ġknown": 1310, "To": 1311, "Ġstrong": 1312, "Ġsignificant": 1313, "bl": 1314, "tau": 1315, ".e": 1316, "Ġalong": 1317, "87": 1318, "Ġseveral": 1319, "stit": 1320, "Ġmass": 1321, "ĠĠĠĠĠĠĠĠĠĠĠĠĠĠĠ": 1322, "Ġthough": 1323, "lection": 1324, "Ġbecome": 1325, "Ġshort": 1326, "Ġseen": 1327, "\\%$": 1328, "imal": 1329, "Ġemploy": 1330, "Ġinf": 1331, "Ġart": 1332, "Ġsuccess": 1333, "ival": 1334, "For": 1335, "ibility": 1336, "Ġbound": 1337, "Ġterms": 1338, "Re": 1339, "Ġsingle": 1340, "Ġaccount": 1341, "gen": 1342, "Ġfree": 1343, "Ġarea": 1344, "Ġkeep": 1345, "omega": 1346, "Ġfull": 1347, "sup": 1348, "Ġsuper": 1349, "aster": 1350, "Ġtogether": 1351, "ux": 1352, "big": 1353, "Ġeither": 1354, "Cl": 1355, "Ġtotal": 1356, "And": 1357, "Ġmoment": 1358, "aim": 1359, "cont": 1360, "ler": 1361, "Ġtrue": 1362, "ift": 1363, "Ġapproach": 1364, "Ġpotential": 1365, "Ġauthor": 1366, "oney": 1367, "Delta": 1368, "circ": 1369, "Ġflow": 1370, "atures": 1371, "ids": 1372, ",n": 1373, "ml": 1374, "^{\\": 1375, "uff": 1376, "fty": 1377, "respond": 1378, "Ġstructure": 1379, "ae": 1380, "Ġearly": 1381, "Ġnight": 1382, "asing": 1383, "ĠThat": 1384, "see": 1385, "Ġalready": 1386, "Ġspecial": 1387, "ĠĠĠĠĠĠĠĠĠĠĠĠĠĠĠĠĠĠĠĠĠĠĠĠĠĠĠĠĠĠĠĠ": 1388, "div": 1389, "ged": 1390, "ored": 1391, "Ġincluding": 1392, "mod": 1393, "Ġsize": 1394, "ges": 1395, "If": 1396, "ressed": 1397, "Ġsystems": 1398, "Ġonce": 1399, "imate": 1400, "Ġfurther": 1401, "side": 1402, "iction": 1403, "ibr": 1404, "roll": 1405, "infty": 1406, "sq": 1407, "Ġstudents": 1408, "ips": 1409, "Ġcomplex": 1410, "position": 1411, "Ġmonth": 1412, "{\\": 1413, "At": 1414, "500": 1415, "now": 1416, "Ġquant": 1417, "Ġwhether": 1418, "error": 1419, "Ġwind": 1420, "add": 1421, "ĠOne": 1422, "Ġconditions": 1423, "ĠCar": 1424, "ising": 1425, "Ġwhole": 1426, "color": 1427, "\\n": 1428, "fra": 1429, "Ġrelationship": 1430, "Ġcannot": 1431, "Ġprovide": 1432, "Ġwhy": 1433, "63": 1434, "Ġaction": 1435, "ref": 1436, "Ġmax": 1437, "She": 1438, "Ġspecific": 1439, "sub": 1440, "Ġmaking": 1441, "Ġdifficult": 1442, "imum": 1443, "Ġtheory": 1444, "ĠApp": 1445, "Ġcases": 1446, "Ġtold": 1447, "uture": 1448, "vert": 1449, "ii": 1450, "order": 1451, "Ġhaving": 1452, "Ġsense": 1453, "AG": 1454, "Ġproblems": 1455, "Ġacross": 1456, "62": 1457, "iven": 1458, "Ġrange": 1459, "Ġhigher": 1460, "Ġvarious": 1461, "Ġblack": 1462, "\\begin": 1463, "equ": 1464, "ĠSch": 1465, "ceed": 1466, "atory": 1467, "Im": 1468, "(\\": 1469, "Ġpaper": 1470, "ĠBy": 1471, "operator": 1472, "On": 1473, "def": 1474, "Ġ\\|": 1475, "Ġhalf": 1476, "arr": 1477, "Ġ...": 1478, "ari": 1479, "ties": 1480, "Ġkey": 1481, "operatorname": 1482, "itude": 1483, "Ġsolution": 1484, "Ġpath": 1485, "off": 1486, "There": 1487, "Ġbegin": 1488, "Ġlower": 1489, ".m": 1490, "Ġshall": 1491, "Ġlog": 1492, "/s": 1493, "Ġpoints": 1494, "posed": 1495, "54": 1496, "Ġsepar": 1497, "Ġgroups": 1498, "Ġitself": 1499, "Ġword": 1500, "(n": 1501, "xi": 1502, "go": 1503, "irm": 1504, "Ġconcept": 1505, "Ġnothing": 1506, "iation": 1507, "Ġrequire": 1508, "Un": 1509, "Ġrole": 1510, "Ġground": 1511, "ump": 1512, "Ġshows": 1513, "hib": 1514, "Ġsection": 1515, "Ġnature": 1516, "ured": 1517, "izing": 1518, "Ġspect": 1519, "ĠWith": 1520, "dd": 1521, "psilon": 1522, "Ġchanges": 1523, "sqrt": 1524, "Ġknowledge": 1525, "displaystyle": 1526, "Ġprevious": 1527, "Ġage": 1528, "rack": 1529, "Ġamount": 1530, "back": 1531, "Ġmodels": 1532, "head": 1533, "Ġpercent": 1534, "Ġlearning": 1535, "Ġ;": 1536, "-h": 1537, "ymbol": 1538, "Ġtable": 1539, "_{\\": 1540, "Ġsays": 1541, "Ġcells": 1542, "ground": 1543, "ĠâĢĶ": 1544, "ection": 1545, "pose": 1546, "Ġweight": 1547, "ires": 1548, "Ġdu": 1549, "Om": 1550, "Ġperformance": 1551, "Ġbig": 1552, "ached": 1553, "ĠĠĠĠĠĠĠĠĠ": 1554, "Ġut": 1555, "Ġlength": 1556, "Ġge": 1557, "Ġsimple": 1558, "ino": 1559, "tilde": 1560, "sf": 1561, "ises": 1562, "Ġclose": 1563, "Ġstates": 1564, "rown": 1565, "Ġeffects": 1566, "Ġbar": 1567, "ĠFig": 1568, "$\\": 1569, "Ġjob": 1570, "body": 1571, "mp": 1572, "Ġrequired": 1573, "Ġincrease": 1574, "Ġinitial": 1575, "Ġfuture": 1576, "Math": 1577, "Ġstudies": 1578, "varepsilon": 1579, "bo": 1580, "no": 1581, "Ġfront": 1582, "Ġparent": 1583, "Ġthus": 1584, "inter": 1585, ">M": 1586, "bed": 1587, "Ġâ": 1588, "Ġcross": 1589, "uments": 1590, "Ġdistribution": 1591, "Ġnatural": 1592, "cret": 1593, "iff": 1594, "ky": 1595, "Ġconsidered": 1596, "Ġdefined": 1597, "Figure": 1598, "lor": 1599, "CC": 1600, "Ġfive": 1601, "sim": 1602, "pping": 1603, "Ġnecessary": 1604, "Ġmethods": 1605, "Fig": 1606, "Ġstandard": 1607, "but": 1608, "74": 1609, "MS": 1610, "Ġconstant": 1611, "}_": 1612, "ynam": 1613, "orem": 1614, "When": 1615, "Type": 1616, "umber": 1617, "Ġbelow": 1618, "71": 1619, "ĠRep": 1620, "tot": 1621, "opy": 1622, "Ġmakes": 1623, "Ġstep": 1624, "(a": 1625, "Ġtraining": 1626, "Ġclaim": 1627, "mselves": 1628, "84": 1629, "Ġappear": 1630, "class": 1631, "acc": 1632, "Ġtherefore": 1633, "Ġobtained": 1634, "Ġevent": 1635, "xim": 1636, "Ġthemselves": 1637, "centr": 1638, "ĠII": 1639, "Ġassociated": 1640, "101": 1641, "93": 1642, "})": 1643, "Ġneeded": 1644, "Ġ\\{": 1645, "91": 1646, "isc": 1647, "Ġfollows": 1648, "Ġproduction": 1649, "uit": 1650, "itch": 1651, "Ġlimit": 1652, "lying": 1653, "Ġfunctions": 1654, "verse": 1655, "Ġpositive": 1656, "airs": 1657, "bf": 1658, "value": 1659, "mon": 1660, "Ġbehavior": 1661, "\\\\": 1662, "rap": 1663, "Ġentire": 1664, "Ġnetwork": 1665, "rangle": 1666, "Ġlikely": 1667, "Ġtarget": 1668, "Ġrisk": 1669, "tag": 1670, "_c": 1671, "Ġresponse": 1672, "Ġsem": 1673, "pm": 1674, "Ġheld": 1675, "Ġequation": 1676, "Ġforce": 1677, "PS": 1678, "Ġwhose": 1679, "erve": 1680, "ields": 1681, "cript": 1682, "Ġsix": 1683, "Ġgrowth": 1684, "76": 1685, "_p": 1686, "ĠThus": 1687, "ios": 1688, "Ġtemperature": 1689, "aving": 1690, "ender": 1691, "like": 1692, "(r": 1693, "Omega": 1694, "overed": 1695, "ĠFigure": 1696, "with": 1697, "ols": 1698, "EM": 1699, "Ġevidence": 1700, "Ġcheck": 1701, "94": 1702, "trans": 1703, "odes": 1704, "Ġespecially": 1705, "ishing": 1706, "125": 1707, "tered": 1708, "Ġlevels": 1709, "oke": 1710, "log": 1711, "Ġdifference": 1712, "Ġrelated": 1713, "lement": 1714, "Ġ`": 1715, "(x": 1716, "light": 1717, "Ġsource": 1718, "Ġsyn": 1719, "Tr": 1720, "Ġfinal": 1721, "ĠDo": 1722, "92": 1723, "Ġphysical": 1724, "ops": 1725, "arc": 1726, "Ġanswer": 1727, "atively": 1728, "Ġattempt": 1729, "Ġcomplete": 1730, "psi": 1731, "Ġaverage": 1732, "Ġlines": 1733, "orts": 1734, "Ġgraph": 1735, "oul": 1736, "epsilon": 1737, "Ġseries": 1738, "arily": 1739, "ĠAfter": 1740, "aff": 1741, "uration": 1742, "Ġpractice": 1743, ",i": 1744, "Ġexact": 1745, "frak": 1746, "Ġobserved": 1747, "mathfrak": 1748, "ĠStr": 1749, "print": 1750, "Ġfactor": 1751, "geq": 1752, "reet": 1753, "Ġprovided": 1754, "Ġinput": 1755, "UL": 1756, "IR": 1757, "Ġcity": 1758, "Ġcolor": 1759, "dom": 1760, "ev": 1761, "mathsf": 1762, "Ġnumbers": 1763, "itation": 1764, "wise": 1765, "];": 1766, ",s": 1767, "boldsymbol": 1768, "plot": 1769, "Ġsimply": 1770, "raction": 1771, "Ġreview": 1772, "Ġfactors": 1773, "Ġimprove": 1774, "Ġpopulation": 1775, "Ġoutside": 1776, "Ġpull": 1777, "By": 1778, "All": 1779, "Ġaccording": 1780, "Ġgreater": 1781, "ĠMc": 1782, "{C": 1783, "Ġtypes": 1784, "rew": 1785, "Ġpolicy": 1786, "Ġexpected": 1787, "(s": 1788, "Ġcorrect": 1789, "OC": 1790, "Ġexpression": 1791, "Ġregion": 1792, "Ġcontext": 1793, "Ġhours": 1794, "ĠMore": 1795, "Ġdraw": 1796, "Ġphase": 1797, "opt": 1798, "align": 1799, "varphi": 1800, "Ġelements": 1801, "ki": 1802, "ĠAND": 1803, "Ġfeatures": 1804, "Sh": 1805, "max": 1806, "Ġlearn": 1807, "Ġbasis": 1808, "Ġwritten": 1809, "Ġcontent": 1810, "Ġgas": 1811, "index": 1812, "kn": 1813, "Ġinstead": 1814, "oe": 1815, "inally": 1816, "anc": 1817, "bor": 1818, "That": 1819, "ements": 1820, "Ġdeveloped": 1821, "Ġequal": 1822, "which": 1823, "Ġoriginal": 1824, "date": 1825, "comp": 1826, "),Ċ": 1827, "key": 1828, "bra": 1829, "lib": 1830, "Gamma": 1831, "Ġelement": 1832, "-M": 1833, "isions": 1834, "Ġgame": 1835, "Ġincreasing": 1836, "imin": 1837, "iting": 1838, "Ġ(\\": 1839, "Ġ,Ċ": 1840, "Ġdistance": 1841, "Ġhot": 1842, "Ġdirection": 1843, "cos": 1844, "overline": 1845, "Ġmatrix": 1846, "ĠPe": 1847, "come": 1848, "Ġgives": 1849, "Ġlinear": 1850, "Ġproperties": 1851, "mar": 1852, "qq": 1853, "width": 1854, "{m": 1855, "Ġlate": 1856, "Ġreported": 1857, "Ġproperty": 1858, "-based": 1859, "Ġsample": 1860, "Ġrandom": 1861, "Ġfigure": 1862, "âĢĻs": 1863, "iled": 1864, "aches": 1865, "ulations": 1866, "Ġprint": 1867, "lin": 1868, "Ġforms": 1869, "}^{": 1870, "Ġaddress": 1871, "inct": 1872, "room": 1873, "Ġleave": 1874, "Ġprice": 1875, "ĠSince": 1876, "izes": 1877, "Ġactually": 1878, "Ġparameters": 1879, "vey": 1880, "Ġalthough": 1881, "Ġalone": 1882, "-B": 1883, "Pl": 1884, "Ġoutput": 1885, "df": 1886, "ĠLa": 1887, "Ġprivate": 1888, "Ġdecision": 1889, "Ġimplement": 1890, "Ġcontact": 1891, "Ġcapital": 1892, "AE": 1893, "Ġwrite": 1894, "more": 1895, "Ġeasy": 1896, "Ġ\\}": 1897, "Ġerror": 1898, "Ġcompared": 1899, "Ġprovides": 1900, "Ġcomes": 1901, "Ġdirectly": 1902, "Ġdegree": 1903, "langle": 1904, "TA": 1905, "Ġtrain": 1906, "ding": 1907, "under": 1908, "Ġlarger": 1909, "used": 1910, "}}$": 1911, "do": 1912, "ĠFrom": 1913, "etr": 1914, "gu": 1915, "Ġdemand": 1916, "Ġindex": 1917, "Ġbroad": 1918, "Col": 1919, "gth": 1920, "Ġprior": 1921, "ĠÎ": 1922, "Ġlack": 1923, "Ġissue": 1924, "ĠNow": 1925, "chi": 1926, "Ġsequence": 1927, "Ġcode": 1928, "Ġunit": 1929, "Ġaltern": 1930, "Ġspecies": 1931, "Ġnote": 1932, "itions": 1933, "Ġcorresponding": 1934, "Ġtransform": 1935, "Ġscale": 1936, "ights": 1937, "Ġpresented": 1938, "Ġsearch": 1939, "Ad": 1940, "Ġtruth": 1941, "ares": 1942, "Ġdensity": 1943, "Ġrespectively": 1944, "ming": 1945, "Ġbecomes": 1946, "Ġcolumn": 1947, "-to": 1948, "Ġshare": 1949, "ij": 1950, "Or": 1951, "oon": 1952, "Ġchoice": 1953, "Ġaccuracy": 1954, "Ġcoming": 1955, "Ġmulti": 1956, "Ġapplied": 1957, "Ġweak": 1958, "Ġblock": 1959, "Ġmap": 1960, "SS": 1961, "oted": 1962, "Ġability": 1963, "Ġdetermined": 1964, "Ġbeyond": 1965, "ĠĠĠĠĠĠĠĠĠĠ": 1966, "Id": 1967, "Ġadditional": 1968, "top": 1969, "box": 1970, "Ġconstruct": 1971, "Ġnegative": 1972, "Ġpurpose": 1973, "104": 1974, "ĠAc": 1975, "Ġmiddle": 1976, "Ġperfect": 1977, "rely": 1978, "ĠTable": 1979, "Ġstress": 1980, "-y": 1981, "ĠFirst": 1982, "Ġled": 1983, "Ġbox": 1984, "aged": 1985, "],Ċ": 1986, "UM": 1987, "ously": 1988, "Ġgenerally": 1989, "Let": 1990, "With": 1991, "Ġheat": 1992, "ldots": 1993, "Ġincluded": 1994, "rightarrow": 1995, "Ġuseful": 1996, "enth": 1997, "Ġlink": 1998, "Ġstrength": 1999, "Ġpoor": 2000, "800": 2001, "from": 2002, "tex": 2003, "dots": 2004, "Ġproduced": 2005, "Ġtask": 2006, "Ġchapter": 2007, "Ġcritical": 2008, "'.": 2009, "va": 2010, "Ġstop": 2011, "Ġprocesses": 2012, "Ġnorm": 2013, "Ġtend": 2014, "isms": 2015, "Ġindependent": 2016, "Ġshape": 2017, "sin": 2018, "Ġvalid": 2019, ",c": 2020, "ĠPat": 2021, "Ġrefer": 2022, "tributes": 2023, "ka": 2024, "Ġlabor": 2025, "}(": 2026, "ĠâĢĺ": 2027, "fin": 2028, "Ġzero": 2029, "Ġfast": 2030, "lim": 2031, ",-": 2032, "Ġrelation": 2033, "ĠSection": 2034, "Ġproposed": 2035, "Ġfixed": 2036, "Ġdifferences": 2037, "Ġround": 2038, "ctors": 2039, "exp": 2040, "Ġrule": 2041, "Ġwide": 2042, "Ġcontrast": 2043, "my": 2044, "-D": 2045, "Ġspeed": 2046, "that": 2047, "book": 2048, "âĢĵ": 2049, "stitute": 2050, "known": 2051, "race": 2052, "mark": 2053, "Ġglobal": 2054, "ĠWhile": 2055, "Ġnor": 2056, "One": 2057, "ports": 2058, "Ġclosed": 2059, "Table": 2060, "Ġrates": 2061, "ĠAlthough": 2062, "Ġvariables": 2063, "ante": 2064, "bb": 2065, "Ġfit": 2066, "Ġprimary": 2067, "Ġquickly": 2068, "123": 2069, "-r": 2070, "ĠOther": 2071, "attle": 2072, "Ġprobability": 2073, "Str": 2074, "band": 2075, "ially": 2076, "Ġvia": 2077, "ĠChapter": 2078, "Ġvector": 2079, "Ġfrequency": 2080, "600": 2081, "Ġreached": 2082, "Ġsteps": 2083, "appa": 2084, "Ġrelative": 2085, "ĠHere": 2086, "Ġimages": 2087, "Ġestablished": 2088, "cap": 2089, "Ġfeature": 2090, "Ġdiscussed": 2091, "Ġfine": 2092, "sec": 2093, "Ai": 2094, "Ġnull": 2095, "Ġmaximum": 2096, "Ġreaction": 2097, "pa": 2098, "ulate": 2099, "Ġstrict": 2100, "Ġachieve": 2101, "Ġhost": 2102, "Ġcomponents": 2103, "Ġfirm": 2104, "tribute": 2105, "Ġremain": 2106, "Ġcosts": 2107, "test": 2108, "Ġproof": 2109, "):Ċ": 2110, "Ġball": 2111, "ĠTherefore": 2112, "izations": 2113, "Ġclean": 2114, "Ġleading": 2115, "Ġrules": 2116, "point": 2117, "estion": 2118, "Ġblue": 2119, "url": 2120, "wide": 2121, "vention": 2122, "Ġaim": 2123, "ama": 2124, "Ġscience": 2125, "Ġmid": 2126, "Ġcontain": 2127, "pling": 2128, "Now": 2129, "link": 2130, "ocks": 2131, "Ġalgorithm": 2132, "Ġvariable": 2133, "Ġplus": 2134, "ĠLaw": 2135, "Phi": 2136, "Ġassign": 2137, "Ġdate": 2138, "Ġoptim": 2139, "Data": 2140, "_b": 2141, "Ġdocument": 2142, "Ne": 2143, "Ġequations": 2144, "Ġappears": 2145, "Pr": 2146, "Ġreference": 2147, "axis": 2148, "ĠOur": 2149, "Ġbuilt": 2150, "}_{": 2151, "Ġsolutions": 2152, "Ġthroughout": 2153, "Ġsources": 2154, "Ġsufficient": 2155, "la": 2156, "PP": 2157, "asure": 2158, "ĠEq": 2159, "Ġedge": 2160, "ya": 2161, "-H": 2162, "Ġunique": 2163, "ca": 2164, "Ġcompletely": 2165, "Ġhighly": 2166, "unch": 2167, "CR": 2168, "requ": 2169, "works": 2170, "ategy": 2171, "onic": 2172, "Ġreduced": 2173, "abla": 2174, "ridge": 2175, "Ġselect": 2176, "Ġdefinition": 2177, "kappa": 2178, "-up": 2179, "$$": 2180, "osen": 2181, "Ġwindow": 2182, "ams": 2183, "Ġrequires": 2184, "Ġfields": 2185, "Ġexactly": 2186, "gn": 2187, "Ġparameter": 2188, "].Ċ": 2189, "(b": 2190, "Ġcarried": 2191, "Ġstatement": 2192, "Big": 2193, "CD": 2194, "aded": 2195, "Ġuses": 2196, "Ġsmaller": 2197, "Ġroll": 2198, "well": 2199, "Ġdefine": 2200, "Ġremains": 2201, "Ġletter": 2202, "Lambda": 2203, "rec": 2204, "uge": 2205, "Ġpair": 2206, "inner": 2207, "((": 2208, "wards": 2209, "Ġcontinuous": 2210, "ette": 2211, "Ġargument": 2212, "Ġsignal": 2213, "ache": 2214, "Ġadapt": 2215, "Ġimmediately": 2216, "isation": 2217, "nabla": 2218, "iny": 2219, "Ġexists": 2220, "Ġapplications": 2221, "}},": 2222, "Ġassume": 2223, "yr": 2224, "Ġmoving": 2225, "Ġallowed": 2226, "Ġsets": 2227, "Ġliterature": 2228, "Ġorigin": 2229, "Ġupper": 2230, "Ġcontinue": 2231, "ĠĠĠĠĠĠĠĠĠĠĠĠ": 2232, "170": 2233, "rc": 2234, "Ġcomponent": 2235, "Ġspread": 2236, "ĠTheorem": 2237, "Ġoperation": 2238, "Ġstar": 2239, "Ġallows": 2240, "Ġexperiment": 2241, "Ġunits": 2242, "Ġhyper": 2243, "mat": 2244, "ilde": 2245, "ĠBlack": 2246, "Ġmeasured": 2247, "fig": 2248, "inding": 2249, "Ġincludes": 2250, "field": 2251, "Ġconstruction": 2252, "Ġsamples": 2253, "BC": 2254, "Ġmember": 2255, "ĠLi": 2256, "ao": 2257, "Ġsetting": 2258, "SE": 2259, "Ġnearly": 2260, "\\t": 2261, "emma": 2262, "Ġbelong": 2263, "Ġapply": 2264, "zen": 2265, "map": 2266, "term": 2267, "Ġhour": 2268, "crete": 2269, "Ġexistence": 2270, "cient": 2271, "Ġdistinct": 2272, "Ġtransport": 2273, "SI": 2274, "Ġinternal": 2275, "iring": 2276, "start": 2277, "su": 2278, "Ġnews": 2279, "Ġwid": 2280, "ads": 2281, "Ġtraditional": 2282, "Ġstructures": 2283, "Ġcaused": 2284, "Ġchoose": 2285, "subset": 2286, "}{\\": 2287, "level": 2288, "Ġonto": 2289, "des": 2290, "ef": 2291, "Ġsquare": 2292, "Ġextract": 2293, "what": 2294, "Ġbrief": 2295, "Ġreduce": 2296, "Ġincome": 2297, "Ġformation": 2298, "kin": 2299, "Ġsignificantly": 2300, "Ġevolution": 2301, "Sigma": 2302, "Ġindeed": 2303, "otimes": 2304, "From": 2305, "Ġincreases": 2306, "pers": 2307, "ushed": 2308, "-re": 2309, "Ġeffort": 2310, "Ġfinite": 2311, "Ġexplain": 2312, "_g": 2313, "rows": 2314, "RI": 2315, "Ġprocedure": 2316, "clude": 2317, "can": 2318, "-Ċ": 2319, "jection": 2320, "Ġprove": 2321, "Ġtwenty": 2322, "Ġstrategy": 2323, "Ġquantum": 2324, "Ġmeasures": 2325, "abil": 2326, "166": 2327, "rite": 2328, "337": 2329, "html": 2330, "ĠFe": 2331, "Am": 2332, "ĠBecause": 2333, "Ġspin": 2334, ":t": 2335, "Ġpure": 2336, "cup": 2337, "Ġtransition": 2338, "Ġsales": 2339, "-T": 2340, "145": 2341, "Ġbirth": 2342, "aker": 2343, "ĠBi": 2344, "Ġestablish": 2345, "qquad": 2346, ",M": 2347, "force": 2348, "Ġchemical": 2349, "-R": 2350, "-G": 2351, "Ġnoise": 2352, "Ġsin": 2353, "Ġidentified": 2354, "ĠTwo": 2355, "ras": 2356, "Ġcool": 2357, "abs": 2358, "ĠIII": 2359, "Ġidentity": 2360, "Ġpiece": 2361, "-of": 2362, "Ġgoal": 2363, "oi": 2364, "ĠEach": 2365, "Ġbottom": 2366, "(d": 2367, "Ġlocation": 2368, "Ġclasses": 2369, "Ġlearned": 2370, "frame": 2371, "Ġrelevant": 2372, "Ġpages": 2373, "widetilde": 2374, "Sp": 2375, "poses": 2376, "Ġconcentration": 2377, "inciples": 2378, "Ġtrack": 2379, "Ġfailure": 2380, "Ġsupply": 2381, "Ġprinciple": 2382, "Ġexpressed": 2383, "ye": 2384, "Ġsmooth": 2385, "Ġplot": 2386, "abilities": 2387, "Ġformula": 2388, "long": 2389, "Ġgrowing": 2390, "linear": 2391, "Ġrepresentation": 2392, "-a": 2393, "Ġvertical": 2394, "ĠNote": 2395, "Ġexperiments": 2396, "ĠEst": 2397, "Ġresulting": 2398, ")(": 2399, "sv": 2400, "Text": 2401, "Ġextent": 2402, "Ġ\\}$": 2403, "Ġoccurs": 2404, "Ġslightly": 2405, "Ġstudied": 2406, "ĠSuch": 2407, "ometry": 2408, "Ġgenerated": 2409, "Ġideal": 2410, "Ġplane": 2411, ",y": 2412, "Ġdomain": 2413, ")),": 2414, "bm": 2415, "Ġidentify": 2416, "Ġserve": 2417, "bi": 2418, "Ġcurve": 2419, "Ġrecently": 2420, "Ġdescription": 2421, "Ġconcerned": 2422, "ball": 2423, "Ġcollection": 2424, "Ġleads": 2425, "Ġbalance": 2426, "neq": 2427, "Ġconnected": 2428, "time": 2429, "Ġlaws": 2430, "ivation": 2431, "Ġtests": 2432, "\".": 2433, "case": 2434, "Ġexisting": 2435, "ishes": 2436, "\\{": 2437, "Ġcomparison": 2438, "select": 2439, "PC": 2440, "ĠMany": 2441, "After": 2442, "path": 2443, "003": 2444, "Ġequivalent": 2445, "({": 2446, "Ġran": 2447, "gence": 2448, "XX": 2449, ",b": 2450, "Ġpeak": 2451, "Ġmagnetic": 2452, "Ġadvantage": 2453, "Ġregions": 2454, "ZT": 2455, "cf": 2456, "Ġcertainly": 2457, "Ġuniform": 2458, "know": 2459, "Ġformal": 2460, ")/": 2461, "stood": 2462, "Ġjoint": 2463, "ker": 2464, "Ġcopy": 2465, "Ġagreement": 2466, "Ġteaching": 2467, "ells": 2468, "Ġuns": 2469, "-time": 2470, "mid": 2471, "Ġboundary": 2472, "Au": 2473, "Ġangle": 2474, "SC": 2475, "Ġvelocity": 2476, "model": 2477, "vo": 2478, "Ġplanning": 2479, "Ġoperator": 2480, "null": 2481, "Ġselected": 2482, "Ġraised": 2483, "ln": 2484, "Ġconstraint": 2485, "stitution": 2486, ";\\": 2487, "Ġintr": 2488, "Ġrepresents": 2489, "Ġprocessing": 2490, "AJ": 2491, "Ġtasks": 2492, "agger": 2493, "158": 2494, "Ġlie": 2495, "ĠThomas": 2496, "LL": 2497, "Ġleaves": 2498, "cn": 2499, "Ġcontaining": 2500, "La": 2501, "zeta": 2502, "GE": 2503, "222": 2504, "Ġselection": 2505, "Ġcouple": 2506, "Ġfamilies": 2507, "Ġvary": 2508, "Ġmetal": 2509, "Ġholds": 2510, "Ġotherwise": 2511, "Ġreduction": 2512, "Ġteacher": 2513, "Ġalternative": 2514, "Ġwin": 2515, "images": 2516, ")},": 2517, "Ġexercise": 2518, "izer": 2519, "bn": 2520, "Ġcos": 2521, "Ġcalculated": 2522, "Ġpreviously": 2523, "CP": 2524, "pol": 2525, "ĠUnder": 2526, "ĠBen": 2527, "Ġ$|": 2528, "Ġtreated": 2529, "Ġframework": 2530, "Ġefficient": 2531, "coh": 2532, "Ġderived": 2533, "ilit": 2534, "Ġexplained": 2535, ")-": 2536, "flow": 2537, "ferent": 2538, "DR": 2539, "Ġoffers": 2540, "Ġchosen": 2541, "Ġminor": 2542, "Ġfundamental": 2543, "Ġstore": 2544, "ĠUse": 2545, "Ġestimate": 2546, "](": 2547, "nt": 2548, "appro": 2549, "ĠStep": 2550, "ĠMoreover": 2551, "Ġapproaches": 2552, "}}{": 2553, "Ġagent": 2554, "Ġdepends": 2555, "Ġtools": 2556, "ĠUsing": 2557, "Ġevaluation": 2558, "Ġroot": 2559, "Ġhit": 2560, "Ġwidth": 2561, "lies": 2562, "Ġpossibility": 2563, "ĠSec": 2564, "Ġinvolve": 2565, "omic": 2566, "down": 2567, "LD": 2568, "Ġconsistent": 2569, "Ġeconomy": 2570, "Ġnucle": 2571, "atically": 2572, "onent": 2573, "ervation": 2574, "Ġdecisions": 2575, "edge": 2576, "Ġsides": 2577, "rep": 2578, "Ġdepth": 2579, "ĠTraining": 2580, "van": 2581, "212": 2582, "Qw": 2583, "Ġunderstood": 2584, "Ġexplicit": 2585, "OO": 2586, "anges": 2587, "Ġsupported": 2588, "ĠSecond": 2589, "zed": 2590, "ĠĠĠĠĠĠĠĠĠĠĠĠĠĠĠĠĠ": 2591, "ipl": 2592, "Ġimplies": 2593, "how": 2594, "Here": 2595, "icks": 2596, "sm": 2597, "rium": 2598, "Ġapproximately": 2599, "Ġextended": 2600, "state": 2601, "widehat": 2602, "Ġmechanism": 2603, "aign": 2604, "Ġparticles": 2605, "rier": 2606, "208": 2607, "Ġchain": 2608, "Ġfamiliar": 2609, "Ġprinciples": 2610, "Ġsave": 2611, "values": 2612, "while": 2613, "Ġmajority": 2614, "Ġframe": 2615, "Ġneither": 2616, "Î±": 2617, "Ew": 2618, "')": 2619, "dr": 2620, "Ġfraction": 2621, "ĠSeptember": 2622, "orry": 2623, "Ġhat": 2624, "Ġshift": 2625, "mic": 2626, "Ġcomposition": 2627, "207": 2628, "Ġdimension": 2629, "Ġreports": 2630, "rot": 2631, "inder": 2632, "Ġsurvey": 2633, "App": 2634, "ails": 2635, "eq": 2636, "ĠÏ": 2637, "ĠInformation": 2638, "Ġhighest": 2639, "Ġprices": 2640, "ĠSmith": 2641, "\\frac": 2642, "{H": 2643, "istical": 2644, "Ġrank": 2645, "Ġstars": 2646, ",A": 2647, "aneous": 2648, "user": 2649, "Ġtrend": 2650, "Ġshot": 2651, "Ġinner": 2652, "Ġmeasurements": 2653, "Ġrational": 2654, "ĠBoth": 2655, "Ġrepeated": 2656, "Ġ$[": 2657, "equiv": 2658, "Ġdetailed": 2659, "bid": 2660, "Up": 2661, "Ġnotes": 2662, "}^": 2663, "FT": 2664, "Ġfigures": 2665, "MB": 2666, "Ġchannel": 2667, "Ġma": 2668, "uses": 2669, "},Ċ": 2670, "Ġalign": 2671, "Ġwhereas": 2672, "ĠGreen": 2673, "ĠIts": 2674, "Ġstreet": 2675, "using": 2676, "Ġtypically": 2677, "Psi": 2678, "Ġremaining": 2679, "Ġindicates": 2680, "ĠOver": 2681, "Ġ$(\\": 2682, "Ġ)Ċ": 2683, "Ġefficiency": 2684, "Ġalgebra": 2685, "char": 2686, "rend": 2687, "Mu": 2688, "Fe": 2689, "mas": 2690, "star": 2691, "oding": 2692, "Ġtrial": 2693, "Ġfunctional": 2694, "ĠAccording": 2695, "ĠFinally": 2696, "^{-": 2697, "Ġexpansion": 2698, "-de": 2699, "Ġtechnical": 2700, "Ġscheme": 2701, "Ġestimated": 2702, "Ġcorner": 2703, "Ġerrors": 2704, "Ġagents": 2705, "pled": 2706, "ĠHence": 2707, "Ġsubt": 2708, "Ġagree": 2709, "Pi": 2710, "cluded": 2711, "ĠHenry": 2712, "aze": 2713, "These": 2714, "ĠLemma": 2715, "content": 2716, "Ġpurposes": 2717, "ald": 2718, "comes": 2719, "ĠMax": 2720, "ĠDecember": 2721, "ĠBig": 2722, "break": 2723, "otion": 2724, "ometric": 2725, "Ġdetection": 2726, "Ġinterpretation": 2727, "related": 2728, "word": 2729, "win": 2730, "Ġcircle": 2731, "{Ċ": 2732, "rank": 2733, "there": 2734, "Ġprincipal": 2735, "Ġcontribution": 2736, "real": 2737, "Ġpieces": 2738, "III": 2739, "irms": 2740, "};": 2741, "neg": 2742, "Ġevening": 2743, "erg": 2744, "Ġaxis": 2745, "Ġobjective": 2746, "input": 2747, "scr": 2748, "Int": 2749, "Ġconsult": 2750, "herent": 2751, "faces": 2752, "slant": 2753, ")\\": 2754, "Ġrealized": 2755, "Ġdataset": 2756, "aper": 2757, "section": 2758, "gra": 2759, "was": 2760, "oses": 2761, "Ġdespite": 2762, "ifies": 2763, "item": 2764, "eting": 2765, "obs": 2766, "Ġfib": 2767, "Ġcrucial": 2768, "war": 2769, "-type": 2770, "213": 2771, "Ġoccurred": 2772, "RT": 2773, "Ġitem": 2774, "ĠOnce": 2775, "Ġpush": 2776, "pat": 2777, "RA": 2778, "'),": 2779, "Ġlies": 2780, "valid": 2781, "Ġdynamics": 2782, "*(": 2783, "just": 2784, "214": 2785, "_S": 2786, "dy": 2787, "anged": 2788, "ĠÂ±": 2789, "Ġclassical": 2790, "Ġsolve": 2791, "contin": 2792, "Ġcharacteristic": 2793, "Ġrain": 2794, "olve": 2795, "Ġproved": 2796, "Ġoptimal": 2797, "Ġdivided": 2798, "Ġstated": 2799, "ĠAny": 2800, "Since": 2801, "Ġsections": 2802, "_i": 2803, "/x": 2804, "Ġregarding": 2805, "orter": 2806, "Ġcampaign": 2807, "Ġtheoretical": 2808, "Ġtransformation": 2809, "Ġconfidence": 2810, "Ġlimits": 2811, "Ġguar": 2812, "Ġfluid": 2813, "Ġfix": 2814, "Ġdense": 2815, "Ġassumption": 2816, "label": 2817, "ĠĠĠĠĠĠĠĠĠĠĠĠĠĠĠĠĠĠĠĠĠĠĠĠĠĠĠĠĠĠĠĠĠĠĠĠĠĠĠĠĠĠĠĠĠĠĠĠĠĠĠĠĠĠĠĠĠĠĠĠĠĠĠĠ": 2818, "anda": 2819, "Ġparticle": 2820, "size": 2821, "Ġbattle": 2822, "ictions": 2823, "Ġclosely": 2824, "Ġ$$": 2825, "Ġahead": 2826, "abet": 2827, "Ġsigns": 2828, "Ġarrived": 2829, "update": 2830, "Ġtheorem": 2831, "Ġreader": 2832, "Ġobservation": 2833, "ifferent": 2834, "Ġacts": 2835, "iverse": 2836, "ĠFurthermore": 2837, "Ġseeing": 2838, "sect": 2839, "learn": 2840, "Ġjump": 2841, "Ġorders": 2842, "Ġmixed": 2843, "Ġsuitable": 2844, "Ġcontained": 2845, "cd": 2846, "weight": 2847, "CG": 2848, "NW": 2849, "SD": 2850, "Ġdenote": 2851, "wer": 2852, "Ġmanager": 2853, "Ġsentence": 2854, "Ġdynamic": 2855, "Ġ$-": 2856, "fa": 2857, "ĠLo": 2858, "Ġrecall": 2859, "iate": 2860, "Ġcompleted": 2861, "Ġwealth": 2862, "Ġintegral": 2863, "While": 2864, "Ġsharp": 2865, ",\\": 2866, "Sm": 2867, "Ġadvance": 2868, "unc": 2869, "Class": 2870, "Ġgames": 2871, "{g": 2872, "Ġspeaking": 2873, "Ġgenerate": 2874, "has": 2875, "Ġnecessarily": 2876, "Ġabsolute": 2877, "Ġspaces": 2878, "Ġdesired": 2879, "vy": 2880, "304": 2881, "Ġeasier": 2882, "net": 2883, "fall": 2884, "ĠIndeed": 2885, "underline": 2886, "Ġturns": 2887, "Sub": 2888, "(u": 2889, "Our": 2890, "Ġdependent": 2891, "group": 2892, "-level": 2893, "_x": 2894, "Comp": 2895, "di": 2896, "Ġpapers": 2897, "format": 2898, "Ġlargely": 2899, "\\|": 2900, "Ġentry": 2901, "Ġstability": 2902, "Ġpossibly": 2903, "Ġnotion": 2904, "endix": 2905, "UE": 2906, "DP": 2907, "Ġimmediate": 2908, "going": 2909, ":\\": 2910, "ota": 2911, "only": 2912, "Ġimplementation": 2913, "-K": 2914, "Ġexplanation": 2915, "rection": 2916, "Ġdimensions": 2917, "car": 2918, "Ġfilter": 2919, "Ġcompare": 2920, "number": 2921, "RY": 2922, "Ġpool": 2923, "check": 2924, "Ġintensity": 2925, "Ġstatements": 2926, "{N": 2927, "Ġgap": 2928, "transform": 2929, "Ġequilibrium": 2930, "=-": 2931, "Ġsubs": 2932, "Ġtail": 2933, "\\u": 2934, "\\left": 2935, "Ġextension": 2936, "}.": 2937, "Ġbegins": 2938, "However": 2939, "coming": 2940, "db": 2941, "aa": 2942, "Pe": 2943, "ounded": 2944, "Ġconsidering": 2945, "ocument": 2946, "ĠUp": 2947, "Ġconsequences": 2948, "osc": 2949, "mean": 2950, ",w": 2951, "Ġstatic": 2952, "Although": 2953, "gal": 2954, "Ġtwice": 2955, "Ġpairs": 2956, "Ġrapidly": 2957, "approx": 2958, "Ġcompact": 2959, "Ġhole": 2960, "Ġradius": 2961, "fficients": 2962, "Ġpartial": 2963, "750": 2964, "attering": 2965, "Ġaccounts": 2966, "Ġbudget": 2967, "(-": 2968, "Ġanswers": 2969, "Ġcurves": 2970, "space": 2971, "Ġspatial": 2972, "Ġsimult": 2973, "Ġreasonable": 2974, "aux": 2975, "Ġunion": 2976, "Ġdust": 2977, "261": 2978, "cat": 2979, "Ġsimulation": 2980, "draw": 2981, "âĪĴ": 2982, "Ġlayers": 2983, "Ġcalculate": 2984, "ĠÃĹ": 2985, "\\}": 2986, "plots": 2987, "normal": 2988, "}}\\": 2989, "Ġworry": 2990, "ĠOR": 2991, "281": 2992, "Ġnumerical": 2993, "Ġhighlight": 2994, "fast": 2995, "_j": 2996, "Ġplays": 2997, "Note": 2998, "ĠNever": 2999, "Ġmaps": 3000, "Ġhypothesis": 3001, "UV": 3002, "\\right": 3003, "(y": 3004, "eller": 3005, "Ġresource": 3006, "Ġuniversal": 3007, "Ġestimates": 3008, "atio": 3009, "{M": 3010, "/r": 3011, "Ġpanel": 3012, "ĠProceedings": 3013, "Ġconsumption": 3014, ",L": 3015, "ympt": 3016, "open": 3017, "bing": 3018, "uing": 3019, "Ġdifficulty": 3020, "stream": 3021, "Ġmechanisms": 3022, "non": 3023, "bin": 3024, "BM": 3025, "esian": 3026, "Ġunderlying": 3027, "Ġintroduce": 3028, "Ġpercentage": 3029, "{R": 3030, "Ġtopic": 3031, "BR": 3032, "ea": 3033, "emp": 3034, "Ġreturns": 3035, "icular": 3036, "\\%": 3037, "Ġodd": 3038, "Ġapproximation": 3039, "Ġradiation": 3040, "cor": 3041, "Ġoutcome": 3042, "Ġcoefficients": 3043, "met": 3044, "tail": 3045, "attice": 3046, "allow": 3047, "Ġevaluate": 3048, "arse": 3049, "ĠConsider": 3050, "Ġcomplexity": 3051, "Ġquantity": 3052, "lie": 3053, "Ġequally": 3054, "iral": 3055, "Ġdemonstrate": 3056, "full": 3057, "Ġplayer": 3058, "Ġsensitive": 3059, "First": 3060, "effect": 3061, "Ġdefect": 3062, "pan": 3063, "Ġcentre": 3064, "quare": 3065, "Ġblow": 3066, "bel": 3067, "Point": 3068, "Ġmetric": 3069, "iy": 3070, "RL": 3071, "{x": 3072, "Ġformat": 3073, "DA": 3074, "Ġshell": 3075, "after": 3076, "Ġcert": 3077, "clusive": 3078, "Ġinduced": 3079, "Ġsymmetry": 3080, "Ġrare": 3081, "888": 3082, "Ġalgorithms": 3083, "Ġinterface": 3084, "Cor": 3085, "Ġcoefficient": 3086, "Ġvert": 3087, "Mc": 3088, "rb": 3089, "Ġdiffer": 3090, "Ġexception": 3091, "cell": 3092, "Ġsubset": 3093, "Key": 3094, "VD": 3095, "Ġdecay": 3096, "defined": 3097, "{F": 3098, "Ġprecisely": 3099, "Ġmagnitude": 3100, "ĠĠĠĠĠĠĠĠĠĠĠĠĠĠĠĠĠĠĠĠ": 3101, "Ass": 3102, "Ġtells": 3103, "tw": 3104, "HS": 3105, "Ġcompens": 3106, "dagger": 3107, "fit": 3108, "atrix": 3109, "]$": 3110, "Ġcloud": 3111, "Ġfourth": 3112, "(A": 3113, "277": 3114, "Ġ).": 3115, "ĠType": 3116, "}_{\\": 3117, "ulum": 3118, "Ġruns": 3119, "Ġstatistical": 3120, "host": 3121, "Ġmodes": 3122, "Îµ": 3123, "cons": 3124, "claim": 3125, "Ġtranslation": 3126, "Ġcontribute": 3127, "dt": 3128, "*Ċ": 3129, "-free": 3130, "Ġregime": 3131, "=\\": 3132, "Ġcontrols": 3133, "total": 3134, "Ġtemperatures": 3135, "Ġidentical": 3136, "Ġinterpret": 3137, "Ġyields": 3138, "Ġidentification": 3139, "Ġconstructed": 3140, "ĠâĪĴ": 3141, "length": 3142, "late": 3143, "{P": 3144, "Ġmoments": 3145, "307": 3146, "Ġdocuments": 3147, "code": 3148, "Eu": 3149, "mediate": 3150, "Ġdatabase": 3151, "Ġregarded": 3152, "Ġthermal": 3153, "Ġsup": 3154, "Ġemission": 3155, "gent": 3156, "Ġcorresponds": 3157, "Ġgather": 3158, "Î½": 3159, "_T": 3160, "true": 3161, "Ġepoch": 3162, "Ġflux": 3163, "/J": 3164, "Ġprediction": 3165, "cdots": 3166, "SA": 3167, ",x": 3168, "Ġassigned": 3169, "Ġreward": 3170, "ĠÂ§": 3171, "Thus": 3172, "Ġneural": 3173, "Ġisolated": 3174, "Ġflight": 3175, "bd": 3176, "Ġbounded": 3177, "Ġcoupling": 3178, ",N": 3179, "ĠFunction": 3180, "Ġpushed": 3181, "Ġrefers": 3182, "Ġbinary": 3183, "ÃĹ": 3184, "~\\": 3185, "ĠâĪ": 3186, "Ġmodified": 3187, "she": 3188, "Ġthreshold": 3189, "Ġpredicted": 3190, "Ġinequality": 3191, "More": 3192, "ĠFil": 3193, "Ġseed": 3194, "âĪ": 3195, "Ġconcrete": 3196, "Ġsingular": 3197, "Theta": 3198, "Ġcalculation": 3199, "leqslant": 3200, "Ġfeedback": 3201, "309": 3202, "ounding": 3203, "hand": 3204, "Ġsheet": 3205, "Ġblocks": 3206, "Ġcharged": 3207, "ogeneous": 3208, "Because": 3209, "ums": 3210, "pack": 3211, "haust": 3212, "Each": 3213, "ji": 3214, "Ġended": 3215, "inte": 3216, "rh": 3217, "Ġhelpful": 3218, "scape": 3219, "âĹ": 3220, "ĠExample": 3221, "Ġbin": 3222, "-hand": 3223, "Ġcompute": 3224, "Ġell": 3225, "Ġdollars": 3226, "Ġuncertainty": 3227, ",v": 3228, "{A": 3229, "Box": 3230, "uniform": 3231, "emic": 3232, "Ns": 3233, "parent": 3234, "Ġcomputed": 3235, "Ġdetected": 3236, "Ġexpressions": 3237, "314": 3238, "ĠSpecial": 3239, "Ġdiameter": 3240, "Ġlattice": 3241, "BL": 3242, "Ġchannels": 3243, "}^{\\": 3244, "Ġstarts": 3245, "Ġreducing": 3246, "Ġresearchers": 3247, "Ġdisk": 3248, "Ġ),": 3249, "Ġsatisfy": 3250, "Sch": 3251, "Ġinfinite": 3252, "wedge": 3253, "Car": 3254, "ĠBefore": 3255, "scatter": 3256, "{S": 3257, ",H": 3258, "ext": 3259, "Over": 3260, "show": 3261, "Ġspectral": 3262, "hetic": 3263, "\\mu": 3264, "iii": 3265, "Ġconclude": 3266, "}(\\": 3267, "PV": 3268, "332": 3269, "Ġcomplement": 3270, "Ġvectors": 3271, "emper": 3272, "Ġsurfaces": 3273, "uns": 3274, "Ġseparated": 3275, "Ġsampling": 3276, "ĠWhich": 3277, "Ġoptimization": 3278, "igned": 3279, "feature": 3280, "Ġweights": 3281, "Ġdominant": 3282, "sequently": 3283, "Ġhydrogen": 3284, "fs": 3285, "ĠMain": 3286, "Ġcomments": 3287, "ĠProposition": 3288, "}}{\\": 3289, "subseteq": 3290, "_B": 3291, "Ġnamely": 3292, "_L": 3293, "Ġpackage": 3294, "Ġinstances": 3295, "rays": 3296, "Ġsteady": 3297, "-out": 3298, "-class": 3299, "ensions": 3300, "Ġdriven": 3301, "453": 3302, "Ġupdate": 3303, "mit": 3304, "-scale": 3305, "ĠLie": 3306, "Ġvertex": 3307, "Ġhorizontal": 3308, "Ġvariations": 3309, "omal": 3310, "ector": 3311, "Ġwindows": 3312, "Ġrepresentative": 3313, "Ġraw": 3314, "-order": 3315, "Chapter": 3316, "+r": 3317, "perp": 3318, "Ġrotation": 3319, "/k": 3320, "/q": 3321, "Ġapplying": 3322, "Ġregression": 3323, "Ġdeeply": 3324, "ĠPop": 3325, "+e": 3326, "Ġ:Ċ": 3327, "024": 3328, "{O": 3329, "forward": 3330, "Ġgradient": 3331, "Ġmirror": 3332, "onential": 3333, "west": 3334, "uum": 3335, "Theorem": 3336, "Ġsimulations": 3337, "components": 3338, "Ġstronger": 3339, "Ġpreferred": 3340, "Ġpolynomial": 3341, "ĠCR": 3342, "Ġgeometry": 3343, "eterm": 3344, "ni": 3345, "Ġprecise": 3346, "ĠYoung": 3347, "Ġsummary": 3348, "plo": 3349, "ĠDar": 3350, "Ġexhaust": 3351, "(Ċ": 3352, "XR": 3353, "Ġevaluated": 3354, "Ġmathematical": 3355, "iability": 3356, "Two": 3357, "ieving": 3358, "Ġlaboratory": 3359, "next": 3360, "Ġvariance": 3361, "Ġbridge": 3362, "-sp": 3363, "Ġestimation": 3364, "olving": 3365, "ĠAppendix": 3366, "Ġsufficiently": 3367, "umps": 3368, "iations": 3369, "Ġmatrices": 3370, "Ġreflection": 3371, "center": 3372, "Ġconsumer": 3373, "prod": 3374, "Ġ[-": 3375, "Ġcandidate": 3376, "wind": 3377, "Ġscattering": 3378, "'$": 3379, "Ġinterior": 3380, ".\\": 3381, "Finally": 3382, "ĠWilson": 3383, "onto": 3384, "lem": 3385, "Ġslope": 3386, "cut": 3387, "athered": 3388, "Rep": 3389, "oplus": 3390, "Ġcub": 3391, "Ġmasses": 3392, "Ġempirical": 3393, "Ġsatisfies": 3394, "iments": 3395, "Ġinformed": 3396, "Other": 3397, "Ġaddressed": 3398, "about": 3399, "zero": 3400, "Ġbatch": 3401, "har": 3402, "Ġimplemented": 3403, "Ġamplitude": 3404, "-ray": 3405, "icity": 3406, "therefore": 3407, "Ġscales": 3408, "ditionally": 3409, "such": 3410, "IAN": 3411, "Ġinputs": 3412, "Ġdiffusion": 3413, "Ġkernel": 3414, "Ġcollective": 3415, "Ġfoundation": 3416, "fr": 3417, "ailed": 3418, "Part": 3419, "Ġscan": 3420, "sto": 3421, "Ġcomputation": 3422, "Set": 3423, "mn": 3424, "Ġautomatically": 3425, "expected": 3426, "dx": 3427, "Ġnonlinear": 3428, "Ġanalyses": 3429, "Ġconvergence": 3430, "-O": 3431, ".$": 3432, "Ġexplicitly": 3433, "plicity": 3434, "pc": 3435, "Ġrepresentations": 3436, "dc": 3437, "Ġlogical": 3438, "bullet": 3439, "/u": 3440, "Ġelection": 3441, "Ġdeviation": 3442, "si": 3443, "lines": 3444, "Before": 3445, "Ġrepresenting": 3446, "Ġcoverage": 3447, "Ġiteration": 3448, "{n": 3449, "366": 3450, "ĠPoint": 3451, "bc": 3452, "Ġtemporal": 3453, "Â²": 3454, "essions": 3455, "Ġindicating": 3456, "Ġexcited": 3457, "Ġgraphs": 3458, "\\r": 3459, "then": 3460, "ĠTotal": 3461, "truction": 3462, "(S": 3463, "pace": 3464, "cur": 3465, "Ġprogramming": 3466, "process": 3467, "Ġprojection": 3468, "{B": 3469, "ĠResults": 3470, "unct": 3471, "Ġcovers": 3472, "Ġmargin": 3473, "Ġorbit": 3474, "call": 3475, "omorphism": 3476, "ĠWay": 3477, "aton": 3478, "Ġmapping": 3479, "]}": 3480, "Ġsolving": 3481, "osity": 3482, "Ġlabels": 3483, "Ġasks": 3484, "Ġsphere": 3485, "Ġcovering": 3486, "Ġrestricted": 3487, "cludes": 3488, "hal": 3489, "clos": 3490, "een": 3491, "Ġintermediate": 3492, "cribed": 3493, "Ġreduces": 3494, "_N": 3495, "Ġsymmetric": 3496, "valuation": 3497, "Ġderivative": 3498, "ĠStandard": 3499, "Ġabsolutely": 3500, "Once": 3501, "Many": 3502, "Ġlunch": 3503, "inst": 3504, "ĠBell": 3505, "Ġparagraph": 3506, "Ġreasoning": 3507, "Ġadmit": 3508, "his": 3509, "orig": 3510, "fc": 3511, "Â±": 3512, "(B": 3513, "acts": 3514, "Ġtriangle": 3515, "ĠBest": 3516, "unders": 3517, "ĠAuthor": 3518, "Ġinverse": 3519, "LM": 3520, "ĠSE": 3521, "Ġequality": 3522, "];Ċ": 3523, "Ġsupporting": 3524, "Ġreverse": 3525, "ĠÂ·": 3526, ")).": 3527, "static": 3528, "{T": 3529, "Ġnearby": 3530, "negative": 3531, "Any": 3532, "Ġexponential": 3533, "Ġindirect": 3534, "regular": 3535, "Ġgrain": 3536, "search": 3537, "Ġpermit": 3538, "Ġease": 3539, "ĠGaussian": 3540, "+b": 3541, "626": 3542, "WR": 3543, "Ġanalyzed": 3544, "Ġdecreases": 3545, "last": 3546, "hard": 3547, "Ġrent": 3548, "Ġmatching": 3549, "Ġstores": 3550, "Ġbriefly": 3551, "Ġfewer": 3552, "longrightarrow": 3553, "antee": 3554, "Ġmath": 3555, "{d": 3556, "Ġpaths": 3557, "-known": 3558, "Ġapplies": 3559, "Ġbacteria": 3560, "range": 3561, "gers": 3562, "Step": 3563, "plus": 3564, "count": 3565, "034": 3566, "Max": 3567, "rate": 3568, "Ġlandscape": 3569, "Example": 3570, "Ġutility": 3571, "units": 3572, "colon": 3573, "make": 3574, "Ġfrequencies": 3575, "$,": 3576, "SO": 3577, "bow": 3578, "hbar": 3579, "\\s": 3580, "output": 3581, "result": 3582, "-specific": 3583, "Ġlikelihood": 3584, "{K": 3585, "post": 3586, "uity": 3587, "ĠCond": 3588, "first": 3589, "strong": 3590, "Ġprominent": 3591, "poon": 3592, "Ġsupports": 3593, "Ġspan": 3594, "Lemma": 3595, "erving": 3596, "Ġmarginal": 3597, "Ġcorrectly": 3598, "Ġprotocol": 3599, "Ġdecomposition": 3600, "Using": 3601, "FD": 3602, "bigg": 3603, "words": 3604, "ÏĦ": 3605, "Ġcomparable": 3606, "plate": 3607, "Ġchecked": 3608, "Ġdestruction": 3609, "root": 3610, "ĠProblem": 3611, "+x": 3612, "ket": 3613, "-size": 3614, "minus": 3615, "acle": 3616, "define": 3617, "column": 3618, "-state": 3619, ")=": 3620, "Ġdisplayed": 3621, "points": 3622, "ĠEquation": 3623, "Ġrely": 3624, "vised": 3625, "Ġderive": 3626, "-one": 3627, "Ġ``": 3628, "NY": 3629, "ilateral": 3630, "Ġcoupled": 3631, "Ġsurvive": 3632, "995": 3633, "Ġ\\(": 3634, "hire": 3635, "ĠLiu": 3636, "formed": 3637, "uning": 3638, "SB": 3639, "Ġtends": 3640, "Rel": 3641, "Ġgeneralized": 3642, "Ġguarantee": 3643, "+h": 3644, "(k": 3645, "Ġdevoted": 3646, "prim": 3647, "543": 3648, "brace": 3649, "Ġvacuum": 3650, "Ġmolecule": 3651, "Ġentries": 3652, "Ġextends": 3653, "{L": 3654, "textstyle": 3655, "closed": 3656, "comb": 3657, "968": 3658, "'),Ċ": 3659, "\\times": 3660, "Ġcodes": 3661, "Ġdens": 3662, "when": 3663, "JC": 3664, "ymmetric": 3665, "Ġtender": 3666, "Ġstrictly": 3667, "Pat": 3668, "Ġimmune": 3669, "bot": 3670, "Ġlift": 3671, "vector": 3672, "Ġcorrection": 3673, "+y": 3674, "Ïģ": 3675, ",W": 3676, "ĠConsequently": 3677, "Ġbounds": 3678, "odot": 3679, "block": 3680, "Under": 3681, "Ġimproving": 3682, "dev": 3683, "Ġconstants": 3684, "Ġimplicit": 3685, "plane": 3686, "Ġreveals": 3687, "train": 3688, "Ġtransformed": 3689, "Ġperiodic": 3690, "Ġreporting": 3691, "Ġmenu": 3692, "{a": 3693, "Ġpreceding": 3694, "Ġreaches": 3695, "+c": 3696, "Ġversions": 3697, "Ġcriterion": 3698, "Î»": 3699, "Ġapproximate": 3700, "Ġratios": 3701, "{k": 3702, "Ġroughly": 3703, "Ġclassic": 3704, "Eq": 3705, "Ġkeeps": 3706, "urd": 3707, "Ġposterior": 3708, "569": 3709, "707": 3710, "Ġchains": 3711, "arded": 3712, "heat": 3713, "Ġindices": 3714, "complete": 3715, "blue": 3716, "ithm": 3717, "imeq": 3718, "Î¼": 3719, "Ġsaving": 3720, "-k": 3721, "common": 3722, "048": 3723, "Ġcomputational": 3724, "Ġconvex": 3725, "Di": 3726, "ĠHamiltonian": 3727, "Use": 3728, "simeq": 3729, "power": 3730, "lower": 3731, "even": 3732, "ĠSM": 3733, "Ġrequiring": 3734, "Ġprofessor": 3735, "ĠDR": 3736, "Ġschemes": 3737, "Ġcaptured": 3738, "ĠAsh": 3739, "Ġderivatives": 3740, "outs": 3741, "Ġadds": 3742, "Ġaffects": 3743, "Xi": 3744, "features": 3745, "Ġnearest": 3746, "Ġgenerating": 3747, "mi": 3748, "advant": 3749, "Ġconservation": 3750, "rod": 3751, "Ġstake": 3752, "deg": 3753, "099": 3754, "Ġterminal": 3755, "ÏĢ": 3756, "Ġinjection": 3757, "Ġformulation": 3758, "will": 3759, "Long": 3760, "Ġrh": 3761, ")^": 3762, "Exp": 3763, "role": 3764, "system": 3765, "Ġbelongs": 3766, "072": 3767, "Ġrejected": 3768, "Ġentropy": 3769, "Ġconsiderably": 3770, "Ġstro": 3771, "lm": 3772, "_k": 3773, "Ġunem": 3774, "Ġ:=": 3775, "unit": 3776, "triangle": 3777, "Definition": 3778, "Ġscaling": 3779, "also": 3780, "-right": 3781, "Ġdefining": 3782, "Ġconvention": 3783, "black": 3784, "{V": 3785, "ĠBased": 3786, "erves": 3787, "models": 3788, "Ġdefines": 3789, "natural": 3790, "Ġindependently": 3791, "ordinary": 3792, "Ġcombine": 3793, "some": 3794, "649": 3795, "Rad": 3796, "+i": 3797, "Ġavailability": 3798, "Ġoccurring": 3799, "Ġdominated": 3800, "ipation": 3801, "Rightarrow": 3802, "Ġscenarios": 3803, "Ġshorter": 3804, "area": 3805, "bet": 3806, "ibration": 3807, "Therefore": 3808, "Vert": 3809, "odd": 3810, "Ġlifetime": 3811, "Ġ((": 3812, "Ġdiagonal": 3813, "Ġeq": 3814, "Ġhorizon": 3815, "Ġvalidation": 3816, "mapsto": 3817, "Ok": 3818, "Ġcontracts": 3819, "types": 3820, "Ġbaseline": 3821, "Ġbarrier": 3822, "taining": 3823, "/(": 3824, "\\'": 3825, "Ġgross": 3826, "vance": 3827, "energy": 3828, "Ġrestrictions": 3829, "Total": 3830, "setminus": 3831, "ĠFull": 3832, "{D": 3833, "{s": 3834, "prec": 3835, "Ġprofiles": 3836, "including": 3837, "Ġcooling": 3838, "Ġcorrespondence": 3839, "local": 3840, "According": 3841, "home": 3842, "fulness": 3843, "utation": 3844, "Ġcompensation": 3845, "month": 3846, "Phys": 3847, "Ġmetrics": 3848, "Ġgeometric": 3849, "cong": 3850, "Ġ($": 3851, "ĳĲ": 3852, "asses": 3853, "Ġsessions": 3854, "{b": 3855, ",k": 3856, "dW": 3857, "Ġbases": 3858, "ĠGro": 3859, "-.": 3860, "Ky": 3861, "have": 3862, "+o": 3863, "aver": 3864, "remaining": 3865, "necess": 3866, "dec": 3867, "ĠĠĠĠĠĠĠĠĠĠĠĠĠĠĠĠĠĠĠĠĠĠĠĠĠĠĠĠĠĠĠ": 3868, "Ġfails": 3869, "''": 3870, "Ġmaximal": 3871, "Ġpointing": 3872, "ĠIR": 3873, "imation": 3874, "ĠLater": 3875, "hole": 3876, "ĠSO": 3877, "graph": 3878, "Ġpreference": 3879, "+T": 3880, "Ġassistant": 3881, "viously": 3882, "923": 3883, "Ġlabeled": 3884, "fg": 3885, "mill": 3886, "Ġextracted": 3887, "stackrel": 3888, "$.": 3889, "Ġcollapse": 3890, "ĠDas": 3891, "Ġtens": 3892, "Ġsmallest": 3893, "Ġasset": 3894, "KL": 3895, "[\\": 3896, "Ġdifferently": 3897, "overrightarrow": 3898, "Ġalpha": 3899, "Ġtrivial": 3900, "Ġcounts": 3901, "cribe": 3902, "arity": 3903, "had": 3904, "Â£": 3905, "front": 3906, "eu": 3907, "\\pi": 3908, "ĠLaboratory": 3909, "\\mathbf": 3910, "tf": 3911, "uler": 3912, "},\\": 3913, "Ġconsistency": 3914, "Ġwage": 3915, "785": 3916, "underset": 3917, "Ġsynthetic": 3918, "Ġsquares": 3919, "Ġrelaxation": 3920, "Ġfitting": 3921, "BH": 3922, "Ġtransitions": 3923, "transition": 3924, "Ġranges": 3925, "Ġdetector": 3926, "Ġgalaxy": 3927, "Ġresolve": 3928, "-\\": 3929, ")]": 3930, "ighth": 3931, "Ll": 3932, "Ġloading": 3933, "Ġrestriction": 3934, "source": 3935, "Consider": 3936, "slash": 3937, "Ġestablishing": 3938, "best": 3939, "imeter": 3940, "Ġacceleration": 3941, "Ïĥ": 3942, "ifted": 3943, "Ġdetermines": 3944, "Ġâī": 3945, "_e": 3946, "-x": 3947, "Ġintersection": 3948, "they": 3949, "Ġstochastic": 3950, "hd": 3951, "Ġquoted": 3952, "(z": 3953, "inated": 3954, "Ġmonthly": 3955, "hedral": 3956, "cir": 3957, "Ġinference": 3958, "{r": 3959, "\\operatorname": 3960, "closure": 3961, "Ġgrows": 3962, "olves": 3963, "Ġmodification": 3964, "848": 3965, "ĠNewton": 3966, "BV": 3967, "Ġequals": 3968, "racted": 3969, "Ġradial": 3970, "Ġfitted": 3971, "Ġhomogeneous": 3972, "Ġadapted": 3973, "seq": 3974, "owski": 3975, "good": 3976, "Ġsetup": 3977, "Ġadjusted": 3978, "resses": 3979, "cou": 3980, "ĠFourier": 3981, "perm": 3982, "{E": 3983, "-law": 3984, "Ġneighbour": 3985, "world": 3986, "backslash": 3987, "Ġexclusive": 3988, "(R": 3989, "+k": 3990, "Second": 3991, "Ġcavity": 3992, "wen": 3993, "Ġlecture": 3994, "Ġintegers": 3995, "Ġstellar": 3996, "Ġminimize": 3997, "Fin": 3998, "binom": 3999, "-fl": 4000, "Ġverify": 4001, "ĠFollowing": 4002, "Ġlengths": 4003, "Ġplots": 4004, "Ġbid": 4005, "main": 4006, "Ġwinning": 4007, "context": 4008, "close": 4009, "pool": 4010, "current": 4011, "GM": 4012, "Ġtracks": 4013, "ogonal": 4014, "mathtt": 4015, "lat": 4016, "Ġoutline": 4017, "vee": 4018, "radiation": 4019, "Ġkinetic": 4020, "olutions": 4021, "ĠĠĠĠĠĠĠĠĠĠĠĠĠĠĠĠĠĠĠĠĠ": 4022, "Ġcrossing": 4023, "Ġpromotion": 4024, "opp": 4025, "dim": 4026, "\\mathcal": 4027, "Ġweighted": 4028, "-i": 4029, "Ġsymbolic": 4030, "Ġquadratic": 4031, "Ġfractions": 4032, "embled": 4033, "second": 4034, "Ġbehavioral": 4035, "shape": 4036, "-ne": 4037, "tra": 4038, "ISS": 4039, "herical": 4040, "Ġalgebraic": 4041, "positive": 4042, ")}{": 4043, "Ġcarries": 4044, "asks": 4045, "Ġconditional": 4046, "Ġtf": 4047, "through": 4048, "iliary": 4049, "Ġabundance": 4050, "geqslant": 4051, "Ġprobabilities": 4052, "ifiers": 4053, "bottom": 4054, "(_": 4055, "holds": 4056, "constants": 4057, "Ġcompatible": 4058, "âĦ": 4059, "Ġrecovered": 4060, "fess": 4061, "free": 4062, "rat": 4063, "Ġmetals": 4064, "ressions": 4065, "Ġlimiting": 4066, "Ġsupers": 4067, "arding": 4068, "ymmetry": 4069, "Ġachieving": 4070, "Ġmethodology": 4071, "{e": 4072, "cas": 4073, "parallel": 4074, "run": 4075, "Ġreceives": 4076, "{u": 4077, "Ġpropagation": 4078, "Ġsubstantially": 4079, "rev": 4080, "empty": 4081, "poons": 4082, "\\cdot": 4083, "hell": 4084, "pless": 4085, "Ġtolerance": 4086, "ĠQuantum": 4087, "downarrow": 4088, "forms": 4089, "construct": 4090, "because": 4091, "Ġvariability": 4092, "Which": 4093, "positions": 4094, "Ġupward": 4095, "Ġdiscussing": 4096, "Î²": 4097, "rates": 4098, "-,": 4099, "scale": 4100, "joint": 4101, "region": 4102, "Ġplug": 4103, "Black": 4104, "two": 4105, "{G": 4106, "Proposition": 4107, "Pop": 4108, "Ġ\\,": 4109, "Ġdy": 4110, "Section": 4111, "via": 4112, "Ġstationary": 4113, "Ġbeta": 4114, "Ġsubstitute": 4115, "Ġcanonical": 4116, "ĠDefinition": 4117, "article": 4118, "ĠSeg": 4119, "Ġinduce": 4120, ")}$": 4121, "+\\": 4122, "Ġemphasize": 4123, "develop": 4124, "ĠÎ¼": 4125, "ĠResources": 4126, "Ġstructured": 4127, "/\\": 4128, "ithmetic": 4129, "green": 4130, "pto": 4131, "Ġ$\\|": 4132, "isations": 4133, "Ġequivalence": 4134, "ĠPython": 4135, "Ġcombining": 4136, "before": 4137, "-driven": 4138, "âī": 4139, "circle": 4140, "radius": 4141, "Param": 4142, "Ġefficiently": 4143, "Ġpanels": 4144, "Ġaccumulation": 4145, "fficiency": 4146, "Ġdisaster": 4147, "response": 4148, ",#": 4149, "loading": 4150, "Ġprojected": 4151, "Ġnormalized": 4152, "Ġlemma": 4153, "hot": 4154, "ĠParam": 4155, "Ġasymptotic": 4156, "heet": 4157, "ensitive": 4158, "Ġoutputs": 4159, "ZK": 4160, "ĠÏĢ": 4161, "osl": 4162, "Ġdashed": 4163, "norm": 4164, "racks": 4165, "Ġ;Ċ": 4166, "relation": 4167, "loss": 4168, "Ġsimulated": 4169, "TF": 4170, "Ïī": 4171, "Ġsectors": 4172, "although": 4173, "Ġtreating": 4174, "conf": 4175, "arts": 4176, "stat": 4177, "Ġarrow": 4178, "Ġrealization": 4179, "scriptstyle": 4180, "{c": 4181, "Ġcharacterization": 4182, "adder": 4183, "âĨĴ": 4184, "{v": 4185, "price": 4186, "away": 4187, "det": 4188, "Ġconcentrate": 4189, "jective": 4190, "ĠÎ±": 4191, "iamond": 4192, "Ġrepeatedly": 4193, "nor": 4194, "_V": 4195, "\\sim": 4196, "ĠNi": 4197, "occup": 4198, "super": 4199, "ĠKal": 4200, "Ġties": 4201, "^\\": 4202, "-world": 4203, "Ġstopping": 4204, "Ġappearing": 4205, "Ġcontinuum": 4206, "especially": 4207, "Ġconsequently": 4208, "mult": 4209, "vary": 4210, "ĠUV": 4211, "-control": 4212, "Ġadaptive": 4213, "wr": 4214, "Ġbacterial": 4215, "note": 4216, "estim": 4217, "Ġtopology": 4218, "inners": 4219, "Ġmatched": 4220, "ĠFisher": 4221, "Ġensures": 4222, "gm": 4223, "ĠPak": 4224, "Ġgenerates": 4225, "Ġfriction": 4226, "ĠâĨĴ": 4227, "finite": 4228, "-field": 4229, "were": 4230, "-item": 4231, "Ġorthogonal": 4232, "Ġanalogous": 4233, "coll": 4234, "supp": 4235, "Ä±": 4236, "parameters": 4237, "Ġrejection": 4238, "fraction": 4239, "Ġdensities": 4240, "ĠRegion": 4241, "original": 4242, "kov": 4243, "utton": 4244, "Ġsymmetr": 4245, "Ġprescribed": 4246, "each": 4247, "Ġdeformation": 4248, "Ġunstable": 4249, "lesssim": 4250, "Ġenters": 4251, "circled": 4252, "Ġexhibits": 4253, "Ġidentities": 4254, "})}": 4255, "Cap": 4256, "Ġproposals": 4257, "ynamics": 4258, "Ġperturbation": 4259, "chain": 4260, "rock": 4261, "-comp": 4262, "rob": 4263, "Hence": 4264, "Ġexcitation": 4265, "constant": 4266, "{I": 4267, "Ġmu": 4268, "Ġsucc": 4269, "small": 4270, "written": 4271, "inement": 4272, "absolute": 4273, "Ġpacket": 4274, "-inter": 4275, "both": 4276, "Ġcollision": 4277, "contour": 4278, "md": 4279, "Ġcampus": 4280, ",V": 4281, "ĠĠĠĠĠĠĠĠĠĠĠĠĠĠĠĠĠĠĠĠĠĠĠĠĠ": 4282, "Ġray": 4283, "-sc": 4284, "Both": 4285, "ĠSpecifically": 4286, "Ġcoding": 4287, "ðĿ": 4288, "Ġreserve": 4289, "Ġwinds": 4290, "Ġclosure": 4291, "may": 4292, "termin": 4293, "),(": 4294, "Ġnoting": 4295, "ĠDraw": 4296, "Ġraises": 4297, "Style": 4298, "inent": 4299, "write": 4300, "Zu": 4301, "ĠRand": 4302, "Ġsubstitution": 4303, "Ġreproduction": 4304, "Ġanomal": 4305, "-weight": 4306, "ĠSample": 4307, "ĠÏĦ": 4308, "-frame": 4309, "Ġphrases": 4310, "{-": 4311, "+}": 4312, "Ġspherical": 4313, "Ġtransparent": 4314, "Ġante": 4315, "important": 4316, "Ġharmonic": 4317, "{X": 4318, "Î·": 4319, "Ġgrains": 4320, "Ġdrift": 4321, "-$": 4322, "emptyset": 4323, "ĠDouglas": 4324, "Ġdiffers": 4325, "Main": 4326, "lium": 4327, "vartheta": 4328, "foot": 4329, "Thomas": 4330, "letter": 4331, "Pol": 4332, "\\in": 4333, "Ġhired": 4334, "Ġdraws": 4335, "Ġlatent": 4336, "Ġcompeting": 4337, "ĠNik": 4338, "Lt": 4339, "find": 4340, "step": 4341, "Ġrays": 4342, "learning": 4343, "Ġspecification": 4344, "\\int": 4345, "success": 4346, "Full": 4347, "law": 4348, "Ġobserving": 4349, "-energy": 4350, "umerical": 4351, "private": 4352, "âĢł": 4353, "Matrix": 4354, "bound": 4355, "trial": 4356, "ĠGram": 4357, "qual": 4358, "Ġslice": 4359, "gets": 4360, "_H": 4361, "establ": 4362, "location": 4363, "ĠĠĠĠĠĠĠĠĠĠĠĠĠĠĠĠĠĠĠĠĠĠĠĠ": 4364, "Function": 4365, "entry": 4366, "matrix": 4367, "hind": 4368, "Down": 4369, "physical": 4370, "lon": 4371, "paper": 4372, "Ġcubic": 4373, "Ġproves": 4374, "property": 4375, "agent": 4376, "Ġintroduces": 4377, "Ġtrapped": 4378, "shot": 4379, "Ġvalued": 4380, "-two": 4381, "Î¸": 4382, "vectors": 4383, "disc": 4384, "mathscr": 4385, "found": 4386, "Ġpi": 4387, "Ġimpose": 4388, "}}Ċ": 4389, "alph": 4390, "plain": 4391, "iemann": 4392, "issible": 4393, "Ġanalogy": 4394, "}.Ċ": 4395, "odal": 4396, "Ġodds": 4397, "Ġensemble": 4398, "Ġabsorb": 4399, "jects": 4400, "orb": 4401, "groups": 4402, "Ġinterpretations": 4403, "into": 4404, "ikh": 4405, "sur": 4406, "Ġclarity": 4407, "core": 4408, "Î³": 4409, "prop": 4410, "Write": 4411, "ĠStatistical": 4412, "rowing": 4413, "Ka": 4414, "Ġcontributes": 4415, "address": 4416, "geometry": 4417, "_A": 4418, "Ġextensively": 4419, "Ġgamma": 4420, "ĠSA": 4421, "Ġhypotheses": 4422, "Ġly": 4423, "Ġattraction": 4424, "ĠOptim": 4425, "summary": 4426, "ĠBang": 4427, "represent": 4428, "example": 4429, ",z": 4430, "OE": 4431, "ĠKy": 4432, "Left": 4433, "filter": 4434, "Ġloops": 4435, "Ġchi": 4436, "ĠNeither": 4437, "ĠPolish": 4438, "Ġrewards": 4439, "Ġbenchmark": 4440, "figure": 4441, "Smith": 4442, "Ġsums": 4443, "Ġcelebrated": 4444, "prob": 4445, "ĠAu": 4446, "leading": 4447, "enumer": 4448, "rational": 4449, "\\sum": 4450, "ĠLower": 4451, "inear": 4452, "Ġestimator": 4453, "Î´": 4454, "Ġtangent": 4455, "{y": 4456, "Ġbandwidth": 4457, "optim": 4458, "fix": 4459, "Ġphotons": 4460, "obb": 4461, "Ġpromoted": 4462, "Ġweakly": 4463, "training": 4464, "Ġarithmetic": 4465, "Ġcosmic": 4466, "umption": 4467, "dz": 4468, "uparrow": 4469, "{t": 4470, "inf": 4471, "Ġassertion": 4472, "stud": 4473, "overset": 4474, "Green": 4475, "Ġcalibration": 4476, "Ġupdates": 4477, "Ġexponent": 4478, "science": 4479, "global": 4480, "\\text": 4481, "atibility": 4482, "require": 4483, "ĠĠĠĠĠĠĠĠĠĠĠĠĠĠĠĠĠĠĠĠĠĠ": 4484, "sing": 4485, "varrho": 4486, "Sec": 4487, "symbol": 4488, "Ġlocalization": 4489, "window": 4490, "connected": 4491, "ĠTaking": 4492, "Bigg": 4493, "Ġquas": 4494, "Ġvariants": 4495, "{i": 4496, "Such": 4497, "wealth": 4498, "ddot": 4499, "held": 4500, "MSE": 4501, "would": 4502, "expression": 4503, "Ġinfinity": 4504, "^*": 4505, "Ġminus": 4506, "Ġsparse": 4507, "wp": 4508, "ivalent": 4509, "ĠRecall": 4510, "Ġrelies": 4511, "Ġcertainty": 4512, "rl": 4513, "control": 4514, "Ġsimultaneous": 4515, "Ġhire": 4516, "cross": 4517, "Nu": 4518, "product": 4519, "Ġnominal": 4520, "agonal": 4521, "Ġdownward": 4522, "bridge": 4523, "Ek": 4524, "without": 4525, "character": 4526, "Ġarrows": 4527, "alg": 4528, "again": 4529, "standard": 4530, "Output": 4531, "ĠOk": 4532, "once": 4533, "Ġcontraction": 4534, "middle": 4535, "since": 4536, "puted": 4537, "]\\": 4538, "ĠSpiel": 4539, "-zero": 4540, "Ġrespects": 4541, "Ġluminosity": 4542, "Ġidentifies": 4543, "Ġviscosity": 4544, "Kt": 4545, "IQ": 4546, "Ġpixels": 4547, "ĠDA": 4548, "Ġepisodes": 4549, "SX": 4550, "lab": 4551, "speed": 4552, "Moreover": 4553, "})Ċ": 4554, "accept": 4555, "interest": 4556, "\\{\\": 4557, "Ġopponent": 4558, "Ġaveraged": 4559, "Ġlinearly": 4560, "say": 4561, "outcome": 4562, "Ġcorpus": 4563, "Ġassembled": 4564, "short": 4565, "dep": 4566, "bigr": 4567, "nonumber": 4568, "piece": 4569, "vdots": 4570, "\\xc": 4571, "income": 4572, "Ġconverges": 4573, "{f": 4574, "Ġweaker": 4575, ")/(": 4576, "udes": 4577, "respect": 4578, "\\langle": 4579, "ĠGE": 4580, "ĠSCH": 4581, "bigl": 4582, "ĠĠĠĠĠĠĠĠĠĠĠĠĠĠĠĠĠĠĠĠĠĠĠĠĠĠ": 4583, "ĠUpon": 4584, "illation": 4585, "ĠĠĠĠĠĠĠĠĠĠĠĠĠĠĠĠĠĠĠĠĠĠĠĠĠĠĠĠĠĠĠĠĠĠĠ": 4586, "flat": 4587, "-space": 4588, "urious": 4589, "Ġpoles": 4590, "'(": 4591, "rocal": 4592, "ĠFinal": 4593, "ĠTuesday": 4594, "every": 4595, "lef": 4596, "Ġeighteen": 4597, "vertex": 4598, "Ġverified": 4599, "making": 4600, "peak": 4601, "Ġexploit": 4602, "Ġsteadily": 4603, "Ġsimplify": 4604, "Ġpredictive": 4605, "asil": 4606, "Ġfractional": 4607, "vertical": 4608, "Ġguarantees": 4609, "\\rangle": 4610, "Four": 4611, "Ġextensions": 4612, "condition": 4613, "\\alpha": 4614, "Ġrefined": 4615, "Ġdelta": 4616, "|\\": 4617, "domain": 4618, "equal": 4619, ")^{": 4620, "umann": 4621, "help": 4622, "Ġoptimum": 4623, "square": 4624, "Ġowing": 4625, "Ġirrelevant": 4626, "Ġtrajectories": 4627, "(H": 4628, "Ġderivation": 4629, "ĠĠĠĠĠĠĠĠĠĠĠĠĠĠĠĠĠĠĠĠĠĠĠĠĠĠĠĠ": 4630, "validation": 4631, "Ġnu": 4632, "Ġaligned": 4633, "Ġwinner": 4634, "Ġ-\\": 4635, "anglement": 4636, "$.Ċ": 4637, "\\end": 4638, "cloud": 4639, "emporal": 4640, "Ġarguing": 4641, "Ġintegrals": 4642, "Îº": 4643, "ĠXX": 4644, "rule": 4645, "look": 4646, "keep": 4647, "Ġproofs": 4648, "ĠNash": 4649, "}:": 4650, "Ġwrap": 4651, "Ġexclude": 4652, "steps": 4653, "expl": 4654, "Ġtoy": 4655, "primary": 4656, "Met": 4657, "ĠConclusion": 4658, "push": 4659, "Ġposed": 4660, "Ġauxiliary": 4661, "Ġconditioning": 4662, "Ġscatter": 4663, "based": 4664, "than": 4665, "Ġpm": 4666, "Ġrepetition": 4667, "ancel": 4668, "Vd": 4669, "peaking": 4670, "validate": 4671, "Ġdistortion": 4672, "target": 4673, "ematic": 4674, "idate": 4675, "ollar": 4676, "Lr": 4677, "ei": 4678, "verb": 4679, "Author": 4680, "epoch": 4681, "propto": 4682, "ĠDefine": 4683, "should": 4684, "Ġnormalization": 4685, "Ġchiral": 4686, "Ġrandomized": 4687, "Ġreadings": 4688, "Ġconjecture": 4689, "sign": 4690, "otics": 4691, "overing": 4692, "period": 4693, "\\Delta": 4694, "policy": 4695, "Ġsquared": 4696, "ĠSent": 4697, "idis": 4698, "Ġaffine": 4699, "{Z": 4700, "results": 4701, "ĠHyper": 4702, "Ġalphabet": 4703, "Ġmutually": 4704, "amiliar": 4705, "fff": 4706, "Ġcube": 4707, "-set": 4708, "Ġincentive": 4709, "ported": 4710, "ĠPDF": 4711, "Ġincentives": 4712, "functions": 4713, "-war": 4714, "ĠMatrix": 4715, "Ġladder": 4716, "Ġappropriately": 4717, "contr": 4718, "Ġsqueezed": 4719, "Ġsaturation": 4720, "three": 4721, "TB": 4722, "Ġmultiplied": 4723, "mr": 4724, "ovich": 4725, "ITS": 4726, "ĠEuler": 4727, "issue": 4728, "Ġdots": 4729, "YPE": 4730, "store": 4731, "around": 4732, "assert": 4733, "spec": 4734, "Ġcontour": 4735, "December": 4736, "Ġcommentary": 4737, "account": 4738, "tained": 4739, "event": 4740, "apply": 4741, "oust": 4742, "Ġambient": 4743, "think": 4744, "ĠâĪĪ": 4745, "Special": 4746, "Ġestimating": 4747, "trightarrow": 4748, "Ġscheduling": 4749, "ande": 4750, "family": 4751, "construction": 4752, "ĠCondition": 4753, "}[": 4754, "Ġemerges": 4755, "(K": 4756, "Ġneighboring": 4757, "dig": 4758, "Ġranking": 4759, "Ġinsertion": 4760, "Bra": 4761, "adj": 4762, "Ġ=Ċ": 4763, "ĠConversely": 4764, "Ġorbits": 4765, "Ġobservable": 4766, "âĤ": 4767, "Cell": 4768, "margin": 4769, "balance": 4770, "Ġhalo": 4771, "exists": 4772, "Following": 4773, "ĠOutput": 4774, "Ġsummarize": 4775, "ighbor": 4776, "icals": 4777, "proof": 4778, "ĠFoot": 4779, "^{(": 4780, "Ġwins": 4781, "quant": 4782, "Ġdeterminant": 4783, "could": 4784, "Ġaccelerated": 4785, "ĠMolecular": 4786, "algebra": 4787, "ISM": 4788, "ortheast": 4789, "âĪļ": 4790, "ĠFigs": 4791, "player": 4792, "eff": 4793, "Ġdownstream": 4794, "exper": 4795, "Ġscored": 4796, "liter": 4797, "orting": 4798, "interpre": 4799, "ĠEuclidean": 4800, "ĠAccordingly": 4801, "their": 4802, "_X": 4803, "Ġperturbations": 4804, "plicit": 4805, "lg": 4806, "question": 4807, "elect": 4808, "stop": 4809, "jected": 4810, "Ġerg": 4811, "orange": 4812, "parameter": 4813, "bigcup": 4814, "ĠBayesian": 4815, "dist": 4816, "ĠUnless": 4817, "TU": 4818, "+Ċ": 4819, "Ġappendix": 4820, "ĠÎµ": 4821, "}=": 4822, "Ġpacking": 4823, "Ġcrosses": 4824, "Indeed": 4825, "method": 4826, "notin": 4827, "clear": 4828, "\\hat": 4829, "Ġloses": 4830, "ntz": 4831, "Ġflip": 4832, "ĠUniverse": 4833, "pal": 4834, "Ġcalculus": 4835, "portion": 4836, "ĠRelated": 4837, "mathit": 4838, "itives": 4839, "owing": 4840, "Ġample": 4841, "olate": 4842, "ugging": 4843, "double": 4844, "Ġnumerically": 4845, "formal": 4846, "Ġprose": 4847, "pres": 4848, "\\sigma": 4849, "Ġreciprocal": 4850, "Blue": 4851, "Ġentanglement": 4852, "odynamics": 4853, "Ġvanishes": 4854, "ĠÎ»": 4855, "KH": 4856, "Ġtransfers": 4857, "}}(": 4858, "Ġsolv": 4859, "{(": 4860, ".,Ċ": 4861, "Ġdisjoint": 4862, "Ġrests": 4863, "lope": 4864, "stant": 4865, "Ġridge": 4866, "ferred": 4867, "structure": 4868, "Ġhomework": 4869, "Furthermore": 4870, "noise": 4871, "ĠÏĥ": 4872, "ĠIM": 4873, "Ġcompiled": 4874, "Ġcomputations": 4875, "stead": 4876, "-u": 4877, "imple": 4878, "cot": 4879, "oscopic": 4880, "those": 4881, "Ġparity": 4882, "Ġvalidate": 4883, "\\theta": 4884, "ĠOverall": 4885, "-function": 4886, "Ġdotted": 4887, "atics": 4888, "ĠÎ´": 4889, "textbf": 4890, "-length": 4891, "Ġinterpolation": 4892, "Ġdeterministic": 4893, "Ġpackets": 4894, "ĠĠĠĠĠĠĠĠĠĠĠĠĠĠĠĠĠĠĠĠĠĠĠĠĠĠĠĠĠ": 4895, "September": 4896, "{U": 4897, "Alpha": 4898, "Seg": 4899, "processing": 4900, "description": 4901, "present": 4902, "Ġseparating": 4903, "dynamic": 4904, "selected": 4905, "textrm": 4906, "Ġrotational": 4907, "Ġdifferentiate": 4908, "Ġyielding": 4909, "pur": 4910, "ĠÎ²": 4911, "above": 4912, "\\mathbb": 4913, "gener": 4914, "ynthetic": 4915, "Ġaccepts": 4916, "separ": 4917, "\\)": 4918, "Das": 4919, "nothing": 4920, "Ġcasino": 4921, "cover": 4922, "Ġcompares": 4923, "Ġga": 4924, "Ġ&=": 4925, "-test": 4926, "shift": 4927, "Ġcoincide": 4928, "-valued": 4929, "|$": 4930, "phase": 4931, "prom": 4932, "dimensional": 4933, "[K": 4934, "$$\\": 4935, "Ġdye": 4936, "ooling": 4937, "Ġgenerality": 4938, "_\\": 4939, "clean": 4940, "Based": 4941, "ANN": 4942, "Ġtenth": 4943, "Ġmultiplicity": 4944, "Ġminimizing": 4945, "ĠSetting": 4946, "Ġencoded": 4947, "fields": 4948, "-product": 4949, "made": 4950, "seen": 4951, "entropy": 4952, "-equ": 4953, "package": 4954, "occ": 4955, "between": 4956, "program": 4957, "Ġelliptic": 4958, "KP": 4959, "similar": 4960, "(q": 4961, "Ġranged": 4962, "initial": 4963, "axy": 4964, "Ġmentions": 4965, "ensation": 4966, "Ġ\\)": 4967, "dash": 4968, "Ġwinding": 4969, "Ġheavier": 4970, "labels": 4971, "Ġapproximations": 4972, "ĠIndependent": 4973, "hom": 4974, "split": 4975, "Ġpermutation": 4976, "Ġbundles": 4977, "Ġfixing": 4978, "Ġapples": 4979, "certain": 4980, "Ġdx": 4981, "Ġencoder": 4982, "nr": 4983, "doc": 4984, "Ġcutoff": 4985, "ĠLorentz": 4986, "Ġcohort": 4987, "Ġpaired": 4988, "thus": 4989, "ĠInterestingly": 4990, "phantom": 4991, "Ġtextbook": 4992, "ĠSage": 4993, "-str": 4994, "document": 4995, "olerance": 4996, "Ġregularity": 4997, "Results": 4998, "roscopic": 4999, "avier": 5000, "kB": 5001, "rada": 5002, "Ġauction": 5003, "mut": 5004, "ĠPure": 5005, "Ġmerger": 5006, "Ġtransported": 5007, "them": 5008, "established": 5009, "Ġsuprem": 5010, "Ġglobally": 5011, "Ġ).Ċ": 5012, "Ġsine": 5013, "element": 5014, "Information": 5015, "iffusion": 5016, "four": 5017, "ĠIch": 5018, "Ġtreats": 5019, "sections": 5020, "Ġdevised": 5021, "Henry": 5022, "}x": 5023, "Ġperimeter": 5024, "Ġdiscret": 5025, "Ġconstituents": 5026, "Ġshrink": 5027, "ymmetr": 5028, "upsilon": 5029, "Mil": 5030, "early": 5031, "Ġuniqueness": 5032, "notes": 5033, "mc": 5034, "identity": 5035, "ĠHS": 5036, "radial": 5037, "}-": 5038, ")}(": 5039, "quist": 5040, "Ġquad": 5041, "Ġcaptures": 5042, "Ġrevival": 5043, "general": 5044, "Ġrefinement": 5045, "still": 5046, "uling": 5047, "xk": 5048, "Ġarbitrarily": 5049, "Ġconfirms": 5050, "-data": 5051, "Ġduality": 5052, "information": 5053, "Ġpolarized": 5054, "=M": 5055, "along": 5056, "upper": 5057, "^(": 5058, "Ġsingularity": 5059, "emer": 5060, "ĠÎ¸": 5061, "boxed": 5062, "elman": 5063, "Best": 5064, "\\rho": 5065, "ðĿĳ": 5066, "\\lambda": 5067, "istency": 5068, "Ġrewrite": 5069, "Ġrelativistic": 5070, "lr": 5071, "ĠMT": 5072, "-mass": 5073, "game": 5074, "Ġoscillation": 5075, "Ġcoincides": 5076, "cost": 5077, "random": 5078, "percent": 5079, "ĠÎº": 5080, "Lower": 5081, "apses": 5082, "Join": 5083, "Ġinformative": 5084, "Ġasymmetric": 5085, "\\to": 5086, "inv": 5087, "Ġimplements": 5088, "Ġusefulness": 5089, "Large": 5090, "\\sqrt": 5091, "hydrogen": 5092, "otropy": 5093, "mv": 5094, "menu": 5095, "Cond": 5096, "Ġket": 5097, "amount": 5098, "continue": 5099, "Ġcertified": 5100, "Ġ},": 5101, "ernels": 5102, "ĠÂµ": 5103, "ĠĠĠĠĠĠĠĠĠĠĠĠĠĠĠĠĠĠĠĠĠĠĠĠĠĠĠĠĠĠĠĠĠ": 5104, "did": 5105, "Ġpreserves": 5106, "bil": 5107, "Ġaverages": 5108, "why": 5109, "ĠFrequency": 5110, "Ġdivides": 5111, "Ġeta": 5112, "Lev": 5113, "Ġtheorems": 5114, "supset": 5115, "lang": 5116, "need": 5117, "Ġâī¤": 5118, "Ġaperture": 5119, "whether": 5120, "review": 5121, "Ġjumps": 5122, "diamond": 5123, "Ġreliance": 5124, "large": 5125, "Ġindifferent": 5126, "polar": 5127, "Ġ+Ċ": 5128, "states": 5129, "\\phi": 5130, "weights": 5131, "-shot": 5132, "until": 5133, "ĠRL": 5134, "Recall": 5135, "slice": 5136, "\\delta": 5137, "ĠPP": 5138, "cales": 5139, "Upsilon": 5140, ")e": 5141, "Ġ(Ċ": 5142, "Ġneighborhoods": 5143, "Ġisolate": 5144, "-ext": 5145, "vdash": 5146, "underbrace": 5147, "Ġradii": 5148, "Ġsemic": 5149, "acteria": 5150, "\\omega": 5151, "sem": 5152, "ivided": 5153, "-trivial": 5154, "itious": 5155, "Problem": 5156, ")}\\": 5157, "-power": 5158, "Ġdissipation": 5159, "take": 5160, "Taking": 5161, "sequence": 5162, "\\bar": 5163, "chemical": 5164, "mediately": 5165, "âĢĲ": 5166, "dens": 5167, "Ġdispersed": 5168, "yen": 5169, "Ġplateau": 5170, "Ġscrutiny": 5171, "trivial": 5172, "-bar": 5173, "whose": 5174, "ĠOst": 5175, "spades": 5176, "network": 5177, "kernel": 5178, "ritten": 5179, "gas": 5180, "Ġsignatures": 5181, ")',": 5182, "Ġshaded": 5183, "ongs": 5184, "Ġcooled": 5185, "Ġchord": 5186, "-check": 5187, "Ġhomomorphism": 5188, "-cons": 5189, "\\tilde": 5190, "bard": 5191, "Ġrewritten": 5192, "{th": 5193, "Bas": 5194, "must": 5195, "sharp": 5196, "Ġvariational": 5197, "ellation": 5198, "ĠDelta": 5199, "mass": 5200, "spadesuit": 5201, "))$": 5202, "knowledge": 5203, "respectively": 5204, "hyper": 5205, "attices": 5206, "}=\\": 5207, "Ġsummarizes": 5208, "sheet": 5209, "near": 5210, "viol": 5211, "Ġfeasibility": 5212, "varsigma": 5213, "temperature": 5214, "retch": 5215, "triangleright": 5216, "gorithms": 5217, "relative": 5218, "Ġix": 5219, "Ġrecom": 5220, "Ġsummation": 5221, "Ġdt": 5222, "Ġinvoke": 5223, "Ġrecombination": 5224, "mor": 5225, "Later": 5226, "sample": 5227, "according": 5228, "properties": 5229, "=Ċ": 5230, "files": 5231, "Ġsupplemented": 5232, "these": 5233, "does": 5234, "terminal": 5235, "ordial": 5236, "definition": 5237, "iscellaneous": 5238, "special": 5239, "caling": 5240, "coe": 5241, "lications": 5242, "ampling": 5243, "ummer": 5244, "proj": 5245, "ractor": 5246, "direct": 5247, "Ġretaining": 5248, "Ġunim": 5249, "Ġâī¥": 5250, "cases": 5251, "-degree": 5252, "$-": 5253, "flux": 5254, "choice": 5255, "shall": 5256, "Ġspars": 5257, "resource": 5258, "Ġshocks": 5259, "'}": 5260, "Ġborrowing": 5261, "optimal": 5262, "Ġleakage": 5263, "Ġkernels": 5264, "different": 5265, "mk": 5266, "final": 5267, "\\beta": 5268, "returns": 5269, "rk": 5270, "never": 5271, "rability": 5272, "Bay": 5273, "Ġfearful": 5274, "give": 5275, "racts": 5276, "fluid": 5277, "Ġperfor": 5278, "unique": 5279, "cosh": 5280, "Ġfermions": 5281, "accuracy": 5282, "cop": 5283, "Upon": 5284, "ĠPand": 5285, "Carthy": 5286, "âĢĻ,": 5287, "ĠLM": 5288, "olutely": 5289, "ĠApplying": 5290, "Ġspatially": 5291, "Ġcontractor": 5292, "dal": 5293, "ĠNeumann": 5294, "ĠâĦ": 5295, "Ġstabilization": 5296, "req": 5297, "Âµ": 5298, "Ġinvariants": 5299, "encoder": 5300, "growth": 5301, ">i": 5302, "means": 5303, "\\pm": 5304, "composition": 5305, "Ġadmissible": 5306, ")+(": 5307, "Draw": 5308, "job": 5309, "\\tau": 5310, "âĢ²": 5311, "ĠDL": 5312, "Ġspeculative": 5313, "}}},": 5314, "Dar": 5315, "sinh": 5316, "drag": 5317, "lack": 5318, "tran": 5319, "treated": 5320, "been": 5321, "acterial": 5322, "Game": 5323, "ARA": 5324, "Ġseparates": 5325, "track": 5326, "built": 5327, "pectral": 5328, "Ġnontrivial": 5329, "same": 5330, "-density": 5331, "Ġdynamically": 5332, "Ġhelium": 5333, "appear": 5334, "Ġxi": 5335, "sumption": 5336, "required": 5337, "ĠDong": 5338, "bigcirc": 5339, "autom": 5340, "horizontal": 5341, "rotation": 5342, "either": 5343, "Hub": 5344, "Ġwinners": 5345, "wald": 5346, "cit": 5347, "agents": 5348, "ĠOber": 5349, "rox": 5350, "among": 5351, "putation": 5352, "idual": 5353, "Ġbudgets": 5354, "Optim": 5355, "\\(": 5356, "Ġlogistic": 5357, "sequences": 5358, "poor": 5359, "Ġhomotopy": 5360, "rally": 5361, "\\,": 5362, "spaces": 5363, "uitively": 5364, "iya": 5365, "Ġviolate": 5366, "Ġgeodesic": 5367, "gold": 5368, "collection": 5369, "seeing": 5370, "panel": 5371, "ivalence": 5372, "rece": 5373, "Ġlogarithm": 5374, "functional": 5375, "ĠPV": 5376, "copy": 5377, "isol": 5378, "analysis": 5379, "ĠHI": 5380, "othesis": 5381, "}$,": 5382, "oretic": 5383, "arct": 5384, "Ġmetadata": 5385, "-play": 5386, "horn": 5387, "ossibility": 5388, "variable": 5389, "places": 5390, "Ġsuffice": 5391, ")n": 5392, "Equation": 5393, "Ash": 5394, "rites": 5395, "altern": 5396, "{q": 5397, "ĠShap": 5398, "gtr": 5399, "rents": 5400, "changes": 5401, "deep": 5402, "Wilson": 5403, "hook": 5404, "\\leq": 5405, "alyzed": 5406, "ichlet": 5407, "Ġblues": 5408, "Ġri": 5409, "Ġviscous": 5410, "Ġempirically": 5411, "developed": 5412, "ĠLLM": 5413, "individual": 5414, "Ġabsorbing": 5415, "}|": 5416, "Ġcoupon": 5417, "Figs": 5418, "Ġequivalently": 5419, "lead": 5420, "ĠBH": 5421, "grave": 5422, "âī¥": 5423, "ĠAssumption": 5424, "complex": 5425, ")'": 5426, "oward": 5427, "half": 5428, "critical": 5429, "sets": 5430, "equation": 5431, "rj": 5432, "^-": 5433, "production": 5434, "Ġtruncated": 5435, "ilinear": 5436, "Ġfavors": 5437, "Ġcosine": 5438, "varDelta": 5439, "Ġinterpolate": 5440, "vD": 5441, "follow": 5442, "much": 5443, "McC": 5444, "}}^{\\": 5445, "Complete": 5446, "liance": 5447, "aligned": 5448, "origin": 5449, "Ġarchive": 5450, "Ġtau": 5451, "-series": 5452, ")=\\": 5453, "ĠKerr": 5454, "ĠLevy": 5455, "Reference": 5456, "stri": 5457, "\\dot": 5458, "Sample": 5459, "compare": 5460, "direction": 5461, "Ġendpoint": 5462, "seed": 5463, "ĠÎĶ": 5464, "biased": 5465, "biggr": 5466, "weak": 5467, "OUS": 5468, "major": 5469, "correct": 5470, "component": 5471, "identified": 5472, "ĠClifford": 5473, "varpi": 5474, "leftarrow": 5475, "Ġnovelty": 5476, "-period": 5477, "Bell": 5478, "quality": 5479, "Ġexploiting": 5480, "immune": 5481, "versions": 5482, "velocity": 5483, "Ġoccupies": 5484, "\\gamma": 5485, "Ġprimordial": 5486, "ooled": 5487, "rains": 5488, "ĠAtomic": 5489, "Dir": 5490, "Newton": 5491, "PDF": 5492, "adapt": 5493, "Ġconfigured": 5494, "leftrightarrow": 5495, "embed": 5496, "Ġantit": 5497, "exc": 5498, "pay": 5499, "dag": 5500, "Ġnr": 5501, "Ġresiduals": 5502, "Ġuniformity": 5503, "Leftrightarrow": 5504, "Ġterminate": 5505, "ĠKL": 5506, "gtrsim": 5507, "given": 5508, "Appendix": 5509, "shell": 5510, "Ġselects": 5511, "indic": 5512, "Ġnd": 5513, "Ġlambda": 5514, "against": 5515, "simple": 5516, "aS": 5517, "Ġnortheast": 5518, "truth": 5519, "Ġdc": 5520, "depth": 5521, "internal": 5522, "Ġreplaces": 5523, "ĠHern": 5524, "\\nu": 5525, "thermal": 5526, "Ġisolates": 5527, "imath": 5528, "Ġconfirming": 5529, "Ġlattices": 5530, "udence": 5531, "textit": 5532, "hyp": 5533, "Ġconvergent": 5534, "measure": 5535, "alone": 5536, "Ġsouthwest": 5537, "Arr": 5538, "labeled": 5539, "Ġentail": 5540, "ĠDifference": 5541, "conc": 5542, "isenberg": 5543, "{aligned": 5544, "Ġconcave": 5545, "raise": 5546, "Ġsigma": 5547, "reference": 5548, "Training": 5549, "planation": 5550, "-shell": 5551, "endor": 5552, "interpolate": 5553, "}}.": 5554, "single": 5555, "ontin": 5556, "Ġcalibrated": 5557, "ĠDirichlet": 5558, "Ġbinomial": 5559, "Ġcancellation": 5560, "ideal": 5561, "uces": 5562, "little": 5563, "supply": 5564, "porting": 5565, "operation": 5566, "fixed": 5567, "Ġ);": 5568, "average": 5569, "spl": 5570, "nom": 5571, "central": 5572, "ĠLipschitz": 5573, "viation": 5574, "fine": 5575, "anh": 5576, "pecified": 5577, "'\\": 5578, "Ġworksheet": 5579, "fact": 5580, "classes": 5581, "Ġtheta": 5582, "stress": 5583, "Final": 5584, "Ġrejects": 5585, "}\\}$": 5586, "consider": 5587, "\\psi": 5588, "modified": 5589, "Ġillustrating": 5590, "Ġrefine": 5591, "{SO": 5592, "Ġmetallicity": 5593, "ĠBrock": 5594, "osterior": 5595, "factor": 5596, "contact": 5597, "outside": 5598, "ogon": 5599, "Neither": 5600, "Ġspectroscopic": 5601, "quee": 5602, "recall": 5603, "Ġcompensated": 5604, "manager": 5605, "Ġoracle": 5606, "Ġabundances": 5607, "Conclusion": 5608, "perfect": 5609, "ĠWalsh": 5610, "below": 5611, "Upd": 5612, "Ġoffline": 5613, "Ġmonotone": 5614, "Ġcorrelates": 5615, "{J": 5616, "ĠBew": 5617, "eleration": 5618, "beth": 5619, "Ġcomputes": 5620, "ĠCSS": 5621, "Ġ$|\\": 5622, "igroup": 5623, "}<": 5624, "Ġweighting": 5625, "tiny": 5626, "binary": 5627, "ffield": 5628, "collision": 5629, "bigoplus": 5630, "employ": 5631, "Fil": 5632, "Overall": 5633, "Ġgeneralizations": 5634, "statement": 5635, "ĠJC": 5636, "inguishable": 5637, "mathring": 5638, "paired": 5639, "assign": 5640, "sat": 5641, "Ġprobing": 5642, "responding": 5643, "acency": 5644, "ABM": 5645, "ĠColeman": 5646, "checked": 5647, "!\\": 5648, "lVert": 5649, "member": 5650, "cL": 5651, "independent": 5652, "metrics": 5653, "phot": 5654, "biggl": 5655, "ĠâĪļ": 5656, "âĢĿ.": 5657, "Ġhorizons": 5658, "channel": 5659, "dH": 5660, "Ġbattlefield": 5661, "ĠObjective": 5662, "Ġstabilized": 5663, "maps": 5664, "Ġexpansions": 5665, "problem": 5666, "ĠĠĠĠĠĠĠĠĠĠĠĠĠĠĠĠĠĠĠĠĠĠĠĠĠĠĠĠĠĠĠĠĠĠĠĠĠĠĠĠĠĠĠĠĠĠĠ": 5667, "scriptscriptstyle": 5668, "Ġ$-\\": 5669, "later": 5670, "Ġunbounded": 5671, "clubs": 5672, "Ġartifact": 5673, "anal": 5674, "save": 5675, "Ġpayoff": 5676, "closures": 5677, "Nik": 5678, "Ġunilateral": 5679, "population": 5680, "distance": 5681, "Ġnarrower": 5682, "vir": 5683, "Cole": 5684, "}$.": 5685, "archive": 5686, "Ġthermodynamics": 5687, "âĤĤ": 5688, "Ġassigns": 5689, "Ġunbiased": 5690, "hline": 5691, "ĠRefs": 5692, "invest": 5693, "tract": 5694, "comput": 5695, "Ġcompounded": 5696, "Ġsb": 5697, "Its": 5698, "Related": 5699, ")$$": 5700, "yses": 5701, "possibly": 5702, "placian": 5703, "Ġgeometries": 5704, "pair": 5705, "Ġphotometric": 5706, "evaluate": 5707, "Ġae": 5708, "errors": 5709, "âĨĳ": 5710, "atural": 5711, "continuous": 5712, "\\lim": 5713, "\\Omega": 5714, "valued": 5715, "Lie": 5716, "=q": 5717, ")}Ċ": 5718, "five": 5719, "gap": 5720, "design": 5721, "paths": 5722, "Ġkinematic": 5723, "ĠBayes": 5724, "Communic": 5725, "ĠâĬ": 5726, "substack": 5727, "brief": 5728, "performance": 5729, "âĪŀ": 5730, "better": 5731, "kii": 5732, "varnothing": 5733, "-parameter": 5734, "ĠFirm": 5735, "ranking": 5736, "succ": 5737, "Ġequiv": 5738, "share": 5739, "isin": 5740, "ĠÏī": 5741, "\\sin": 5742, "pure": 5743, "things": 5744, "orbit": 5745, "batch": 5746, "leted": 5747, "limit": 5748, "ĠĠĠĠĠĠĠĠĠĠĠĠĠĠĠĠĠĠĠĠĠĠĠĠĠĠĠĠĠĠĠĠĠĠĠĠĠĠĠĠĠĠĠĠĠĠĠĠĠĠĠ": 5749, "ceq": 5750, "Ġ|\\": 5751, "Ġprocurement": 5752, "Ġindistinguishable": 5753, "gray": 5754, "requires": 5755, "ynomial": 5756, "minor": 5757, "layers": 5758, "Ġsimplifies": 5759, "cancel": 5760, "dynamics": 5761, "\\varphi": 5762, "shots": 5763, "Ġinflux": 5764, "ĠSpread": 5765, "Ġbids": 5766, "}-\\": 5767, "\\cos": 5768, "_{-": 5769, "peated": 5770, "Bigl": 5771, "dashed": 5772, "Bigr": 5773, "uitable": 5774, "Ġevolves": 5775, "-noise": 5776, "\\partial": 5777, "Unless": 5778, "Ġsucceeds": 5779, "having": 5780, "Ġgalactic": 5781, "capital": 5782, "*$": 5783, "Ġdimensionality": 5784, "\\;": 5785, "^k": 5786, "ĠHeisenberg": 5787, "tools": 5788, "Ġpendulum": 5789, "}}(\\": 5790, "ensemble": 5791, "\\eta": 5792, "Ġcatalysts": 5793, "}t": 5794, "cfrac": 5795, "likelihood": 5796, "quick": 5797, "!,": 5798, "indices": 5799, "sqcup": 5800, "Ġcentrality": 5801, "bold": 5802, "Ġvibrational": 5803, "stellar": 5804, "\\Phi": 5805, "slope": 5806, "ĠKeller": 5807, "stable": 5808, "ĠLÃ©": 5809, "harmonic": 5810, "diff": 5811, "tocol": 5812, "cite": 5813, "ximation": 5814, "Ġtug": 5815, "owns": 5816, "atop": 5817, "Define": 5818, "\\mathsf": 5819, ")).Ċ": 5820, "nD": 5821, "feedback": 5822, "-error": 5823, "\\overline": 5824, "dorff": 5825, "Ġattribution": 5826, "Ġoptically": 5827, "cells": 5828, "hookrightarrow": 5829, "riterion": 5830, "Liu": 5831, "Ġclassifiers": 5832, "stated": 5833, "measures": 5834, "ĠEk": 5835, "Ġnt": 5836, "Ġsnapshot": 5837, "{pmatrix": 5838, "Ġdiscounted": 5839, "quares": 5840, "fitting": 5841, "Ġ\\\\Ċ": 5842, "}}}{\\": 5843, "approximately": 5844, "Ġcentred": 5845, "Ġbilinear": 5846, "dependent": 5847, "uH": 5848, "Ġdepleted": 5849, "Ġdiscourag": 5850, "Ġtraverse": 5851, "loop": 5852, "-He": 5853, "Ġpsi": 5854, "triangleq": 5855, "Ġdagger": 5856, "ĠHubbard": 5857, "Ġds": 5858, "oretical": 5859, "obre": 5860, "smooth": 5861, "Geometry": 5862, "ĠMSE": 5863, "graphs": 5864, "nova": 5865, "Setting": 5866, "Ġrents": 5867, "/model": 5868, "ĠRao": 5869, "ĠLastly": 5870, "calculate": 5871, "skip": 5872, "beg": 5873, "practice": 5874, "arrows": 5875, "Ġrounding": 5876, "nL": 5877, "ĠÏģ": 5878, "ĠSheffield": 5879, "Ġextinct": 5880, "potential": 5881, "Ġequivalents": 5882, "few": 5883, "scan": 5884, "Ġreplica": 5885, "risk": 5886, "lvert": 5887, "perturb": 5888, "ĠĠĠĠĠĠĠĠĠĠĠĠĠĠĠĠĠĠĠĠĠĠĠĠĠĠĠĠĠĠĠĠĠĠĠĠ": 5889, "ĠNON": 5890, "reve": 5891, "pieces": 5892, "hour": 5893, "camp": 5894, "bigcap": 5895, "ivially": 5896, "iffer": 5897, "parable": 5898, "Ġsmoothness": 5899, "Ġsupersymmetry": 5900, "ĠLaplacian": 5901, "_*": 5902, "metadata": 5903, "Ġln": 5904, "selection": 5905, "_I": 5906, "ĠGamma": 5907, "ĠMetals": 5908, "shown": 5909, "Condition": 5910, "representation": 5911, "Ġspurious": 5912, "ĠâĢ²": 5913, "thet": 5914, "Jacob": 5915, "regression": 5916, "Ġviewpoints": 5917, ")$,": 5918, "Î¦": 5919, "ĠĠĠĠĠĠĠĠĠĠĠĠĠĠĠĠĠĠĠĠĠĠĠĠĠĠĠĠĠĠĠĠĠĠĠĠĠ": 5920, "impro": 5921, "ddots": 5922, "Ġak": 5923, "lightly": 5924, "ĠĠĠĠĠĠĠĠĠĠĠĠĠĠĠĠĠĠĠĠĠĠĠĠĠĠĠĠĠĠĠĠĠĠ": 5925, "Substituting": 5926, "technical": 5927, "hit": 5928, "texttt": 5929, "ĠBasel": 5930, "Ġbottleneck": 5931, "Ġbetting": 5932, "\\p": 5933, "ĠSigma": 5934, "ractors": 5935, "bull": 5936, "Ġphotometry": 5937, "-weighted": 5938, "icke": 5939, "\\Gamma": 5940, "thin": 5941, "<d": 5942, "Combining": 5943, "behavior": 5944, "ĠMilky": 5945, "Ġtruncation": 5946, "ĠHOL": 5947, "terms": 5948, "jecture": 5949, "namely": 5950, "during": 5951, "feas": 5952, "dQ": 5953, "\\varepsilon": 5954, "reason": 5955, "Ġcheckpoint": 5956, "colone": 5957, "availability": 5958, "absor": 5959, "Launch": 5960, "iint": 5961, "structured": 5962, "clubsuit": 5963, "allowed": 5964, "Ġnois": 5965, "ĠFD": 5966, "estimated": 5967, "coloneqq": 5968, "divide": 5969, "Ġrestart": 5970, "objective": 5971, "chapter": 5972, "_Z": 5973, "implies": 5974, "ĠÎ½": 5975, "angent": 5976, "Ġingestion": 5977, "Hyper": 5978, "indeed": 5979, "curve": 5980, "mation": 5981, "snap": 5982, "-fitting": 5983, "\\}Ċ": 5984, "observed": 5985, "Applying": 5986, "simpl": 5987, "Consequently": 5988, "Ġ$.": 5989, "sol": 5990, "âĭ": 5991, "following": 5992, "-sample": 5993, "provided": 5994, "spin": 5995, "theory": 5996, "\\d": 5997, "teacher": 5998, "crement": 5999, "Ġnonempty": 6000, "spe": 6001, "iamonds": 6002, "etition": 6003, "slow": 6004, "interface": 6005, "reverse": 6006, "\\log": 6007, "Ġsemigroup": 6008, "degree": 6009, "framework": 6010, "report": 6011, "Ġattaining": 6012, "umptions": 6013, "Ġunfavorable": 6014, "rO": 6015, "instead": 6016, "Ġincoherent": 6017, "croft": 6018, "spect": 6019, "Region": 6020, "avity": 6021, "\\boldsymbol": 6022, "Ġ$Ċ": 6023, "prior": 6024, "erned": 6025, "pus": 6026, "geometric": 6027, "Ġimpatience": 6028, "}$.Ċ": 6029, "{equation": 6030, "quals": 6031, "Ġomega": 6032, "asset": 6033, "econom": 6034, "adm": 6035, "plays": 6036, "ĠÎ©": 6037, "dotted": 6038, "Ġpostulate": 6039, "Complex": 6040, "lB": 6041, "frequency": 6042, "ĠJacobian": 6043, "ivatives": 6044, "Ġlogged": 6045, "aused": 6046, "-price": 6047, "-string": 6048, "multi": 6049, "support": 6050, "leave": 6051, "particle": 6052, "Hamilton": 6053, "\\\\Ċ": 6054, "vac": 6055, "Ġreversing": 6056, "AGN": 6057, "six": 6058, "Ġselector": 6059, "\\chi": 6060, "Ġknob": 6061, "Statistical": 6062, "sight": 6063, "Fisher": 6064, "Ġaligns": 6065, "Sup": 6066, "ĠðĿĳ": 6067, "Ġbijection": 6068, "typically": 6069, "dataset": 6070, "finity": 6071, "task": 6072, ")$.": 6073, "nature": 6074, "monthly": 6075, "shr": 6076, "\\epsilon": 6077, "weighted": 6078, "predict": 6079, "Ġquadrature": 6080, "Ġslows": 6081, "hemes": 6082, "âŁ": 6083, "varOmega": 6084, "systems": 6085, "flight": 6086, "ðĿĲ": 6087, "Î¾": 6088, "ĠâĢł": 6089, "periodic": 6090, "Ġsparsity": 6091, "Ġfictitious": 6092, "OPH": 6093, "blocks": 6094, "ĠHausdorff": 6095, "-choice": 6096, "ĠCombine": 6097, "Gro": 6098, "Convert": 6099, "\\geq": 6100, "existing": 6101, "reduced": 6102, "reating": 6103, "Ġfences": 6104, "Ġcrossings": 6105, "\\widetilde": 6106, "higher": 6107, "allows": 6108, "future": 6109, "finder": 6110, "Ġtrivially": 6111, "induced": 6112, "levels": 6113, "syn": 6114, "\\rfloor": 6115, "fear": 6116, "ometries": 6117, "¦Ħ": 6118, "ymptotic": 6119, "Frequency": 6120, "varPhi": 6121, "-real": 6122, "ighbour": 6123, "\\nabla": 6124, "projection": 6125, "specific": 6126, "maximum": 6127, "already": 6128, "actually": 6129, "rages": 6130, "several": 6131, "Ġextremal": 6132, "probability": 6133, "Longrightarrow": 6134, "\\lfloor": 6135, "breve": 6136, "ĠâĢĶĊ": 6137, "-equilibrium": 6138, "Resources": 6139, "reduce": 6140, "measured": 6141, "least": 6142, "identification": 6143, "\\xi": 6144, "Ġepsilon": 6145, "classical": 6146, "Foot": 6147, "raised": 6148, "{eq": 6149, "anders": 6150, "-theoretic": 6151, "Ġcompactness": 6152, "corresponding": 6153, "}y": 6154, ")_{": 6155, "Ġkpc": 6156, "ĠSach": 6157, "isodes": 6158, "Ġiteratively": 6159, "otherwise": 6160, "Ġconceptually": 6161, "ombo": 6162, "Ġabl": 6163, "transparent": 6164, "bench": 6165, "fab": 6166, "pon": 6167, "Ġpessimistic": 6168, "ĠVisc": 6169, "Ġsqrt": 6170, "ampl": 6171, "_O": 6172, "olecule": 6173, "problems": 6174, "scriptsize": 6175, "ĠâĪ¼": 6176, "ularity": 6177, "ĠCobb": 6178, "toy": 6179, ")),Ċ": 6180, "idly": 6181, "{for": 6182, "argument": 6183, "Ġsubstitutions": 6184, "preceq": 6185, "elements": 6186, "Objective": 6187, "Ġtheoretic": 6188, "circledcirc": 6189, "compact": 6190, "irming": 6191, "Ġunrestricted": 6192, "ĠÎ·": 6193, "Ġejection": 6194, "quilibrium": 6195, "Ġbc": 6196, "recip": 6197, "ymb": 6198, "itself": 6199, "varkappa": 6200, "constraint": 6201, "hspace": 6202, "eS": 6203, "threshold": 6204, "confidence": 6205, "Ġbist": 6206, "rese": 6207, "ĠKP": 6208, "Ġdiverges": 6209, "Ġhalos": 6210, "south": 6211, "variance": 6212, "translation": 6213, "games": 6214, "Tuesday": 6215, "normalized": 6216, "Ġui": 6217, "ĠISM": 6218, "series": 6219, "ĠExact": 6220, "satisf": 6221, "associated": 6222, "across": 6223, "abular": 6224, "Ġrealisation": 6225, "Ġtruthful": 6226, "ĠSDSS": 6227, "told": 6228, "previous": 6229, "ĠCodes": 6230, "aleph": 6231, "ĠOmega": 6232, "bab": 6233, "Ġunderline": 6234, "signal": 6235, "Ġmaximizes": 6236, "ĠâĪŀ": 6237, "-truth": 6238, "cannot": 6239, "Ġzeta": 6240, "-optimal": 6241, "cool": 6242, "study": 6243, "hematical": 6244, "respondence": 6245, "ictly": 6246, "âĢĻĊ": 6247, "Ġsupernova": 6248, "together": 6249, "distribution": 6250, "-structure": 6251, "Ġadjacency": 6252, "]^": 6253, "mathop": 6254, "spread": 6255, "ĠÏĩ": 6256, "limits": 6257, "Ġprudence": 6258, "Ġcompounding": 6259, "ambient": 6260, "logistic": 6261, "ifford": 6262, "establish": 6263, "bounds": 6264, "\\widehat": 6265, "uents": 6266, "capt": 6267, "ĠâīĪ": 6268, "{in": 6269, "})^{": 6270, "LAR": 6271, "iteration": 6272, "&\\": 6273, "Ġcollapses": 6274, "ifficulty": 6275, "compared": 6276, "tie": 6277, "necessary": 6278, "rules": 6279, "truncated": 6280, "Ġejected": 6281, "Ġdeleting": 6282, "ĠSubstituting": 6283, "Douglas": 6284, "),\\": 6285, "labor": 6286, "choose": 6287, "asci": 6288, "ĠĠĠĠĠĠĠĠĠĠĠĠĠĠĠĠĠĠĠĠĠĠĠĠĠĠĠĠĠĠĠĠĠĠĠĠĠĠ": 6289, "laws": 6290, "Ġdecoupling": 6291, "factors": 6292, "Kal": 6293, "}^\\": 6294, "\\rightarrow": 6295, "Ġapprox": 6296, "ddagger": 6297, "Lastly": 6298, "}}.Ċ": 6299, "Ġmiscellaneous": 6300, "matched": 6301, "mixed": 6302, "\\Psi": 6303, "ggg": 6304, "reaction": 6305, "ĠFibonacci": 6306, "Ġark": 6307, "ibrated": 6308, "\\},": 6309, "sales": 6310, "implement": 6311, "enters": 6312, "-squares": 6313, "Ġgeneralizes": 6314, "Â¹": 6315, "Leod": 6316, "Ġoint": 6317, ".}": 6318, "Ġdisproportionately": 6319, "ease": 6320, "entries": 6321, "structures": 6322, "traditional": 6323, "Ġrecovers": 6324, "Ġattractor": 6325, "^+": 6326, "presentation": 6327, "\\vec": 6328, "decision": 6329, "Ġexhausting": 6330, "Ġgeodesics": 6331, "ĠÎĵ": 6332, "Ġprimitives": 6333, "\\h": 6334, ")^{\\": 6335, "$)": 6336, "Ġdp": 6337, "universal": 6338, "cand": 6339, "$f": 6340, "basis": 6341, "refer": 6342, "edd": 6343, "-gal": 6344, "ĠGyr": 6345, "broad": 6346, "berman": 6347, "exponent": 6348, "Ġsnapshots": 6349, "easy": 6350, "ĠStabil": 6351, "failure": 6352, "ifferences": 6353, "$_": 6354, "attempt": 6355, "Ġtimescales": 6356, "bigwedge": 6357, "students": 6358, "collapse": 6359, "escape": 6360, "metric": 6361, "Ġstabilizer": 6362, "pixels": 6363, "$a": 6364, "Conversely": 6365, "proper": 6366, "Ġreplay": 6367, "âĬ": 6368, "constructed": 6369, "ĠNij": 6370, "Ġresolves": 6371, "gradient": 6372, "âĪĤ": 6373, "magn": 6374, "thick": 6375, "ddd": 6376, "Ġposited": 6377, "ĠAssumptions": 6378, "implied": 6379, "Chi": 6380, "triangleleft": 6381, "flip": 6382, "-La": 6383, "selector": 6384, ")}.": 6385, "equals": 6386, "\\~": 6387, "generally": 6388, "dust": 6389, "CSS": 6390, "appears": 6391, "beyond": 6392, "conditions": 6393, "\\mathfrak": 6394, "proc": 6395, "'/": 6396, "eight": 6397, "encoded": 6398, "cert": 6399, "paragraph": 6400, "transf": 6401, "\\ln": 6402, "bmod": 6403, "checkmark": 6404, "predicted": 6405, "accum": 6406, "reducing": 6407, "tests": 6408, "Interestingly": 6409, "Ġregularized": 6410, "applied": 6411, "comments": 6412, "agree": 6413, "suc": 6414, "Ġcatalogues": 6415, "exception": 6416, "increasing": 6417, "Ġsabotage": 6418, "âĭħ": 6419, "ĠPSF": 6420, "density": 6421, "âĪĪ": 6422, "discussed": 6423, "Nash": 6424, "mint": 6425, "moving": 6426, "ussing": 6427, "Ġ\\(\\": 6428, "Ġnth": 6429, "-context": 6430, "mechan": 6431, "learned": 6432, "restr": 6433, "ghi": 6434, "ĠLemmas": 6435, "Ġdecompositions": 6436, "species": 6437, "Gram": 6438, "\\kappa": 6439, "ĠParticular": 6440, "setting": 6441, "-structured": 6442, "diss": 6443, "ĠSb": 6444, "Way": 6445, "Independent": 6446, "tainable": 6447, "ĠExponential": 6448, "Ġminimise": 6449, "neither": 6450, "})^": 6451, "ĠĠĠĠĠĠĠĠĠĠĠĠĠĠĠĠĠĠĠĠĠĠĠĠĠĠĠĠĠĠĠĠĠĠĠĠĠĠĠĠĠĠĠĠĠĠĠĠĠĠĠĠĠĠĠĠĠĠĠ": 6452, "firm": 6453, "creases": 6454, "greater": 6455, "ĠĠĠĠĠĠĠĠĠĠĠĠĠĠĠĠĠĠĠĠĠĠĠĠĠĠĠĠĠĠĠĠĠĠĠĠĠĠĠĠĠĠ": 6456, "ĠÎ£": 6457, "{[": 6458, "reader": 6459, "-posed": 6460, "goal": 6461, "ĠĠĠĠĠĠĠĠĠĠĠĠĠĠĠĠĠĠĠĠĠĠĠĠĠĠĠĠĠĠĠĠĠĠĠĠĠĠĠĠĠ": 6462, "boundary": 6463, "ĠÎ¦": 6464, "Ġasymptotics": 6465, "possible": 6466, "equivalent": 6467, "difference": 6468, "stitutions": 6469, "Proceedings": 6470, "consistent": 6471, "acke": 6472, "ĠâĨĳ": 6473, "\\forall": 6474, "longmapsto": 6475, "eterministic": 6476, "compute": 6477, "Bang": 6478, "cru": 6479, "windows": 6480, "-centred": 6481, "-tail": 6482, "Ġcrucially": 6483, "variables": 6484, "perform": 6485, "LoS": 6486, "supseteq": 6487, "produced": 6488, "ivalently": 6489, "Lem": 6490, "includes": 6491, "idders": 6492, "raphics": 6493, "verify": 6494, "budget": 6495, "become": 6496, "\\models": 6497, "inj": 6498, "topic": 6499, "lefthar": 6500, "equilibrium": 6501, "Ġsharpness": 6502, ")u": 6503, "undance": 6504, "arctan": 6505, "ĠLÃ³pez": 6506, "MES": 6507, "ominus": 6508, "^{-\\": 6509, "leftharpoons": 6510, "valuated": 6511, "âīĪ": 6512, "evolution": 6513, "varLambda": 6514, "Ġtractable": 6515, "makes": 6516, "}\\,": 6517, "sphere": 6518, "larg": 6519, "ĠRHS": 6520, "ĠFock": 6521, "Describe": 6522, "-gap": 6523, "invol": 6524, "rightleftharpoons": 6525, "Â¤": 6526, "dimension": 6527, "conver": 6528, "boxtimes": 6529, "fcc": 6530, "Ġvirial": 6531, "sufficient": 6532, "quantity": 6533, "tet": 6534, "Ġphi": 6535, "homogeneous": 6536, "registered": 6537, "Ġreused": 6538, "Ġclosures": 6539, "nearly": 6540, "adjusted": 6541, "setup": 6542, "highlight": 6543, "-diffusion": 6544, "Ġhindsight": 6545, "reasonable": 6546, "\\Sigma": 6547, "ĠCDF": 6548, "Ġquantile": 6549, "nucle": 6550, "ĠAmir": 6551, "OMET": 6552, "purple": 6553, "\\iota": 6554, "Ġcoolant": 6555, "}s": 6556, "\\Lambda": 6557, "complement": 6558, "\\D": 6559, "\\[": 6560, "ÏĪ": 6561, "decomposition": 6562, "arginal": 6563, "ĠKH": 6564, "Molecular": 6565, "Ġspline": 6566, "solution": 6567, "Ġboundedness": 6568, "{{\\": 6569, "cube": 6570, "ĠĠĠĠĠĠĠĠĠĠĠĠĠĠĠĠĠĠĠĠĠĠĠĠĠĠĠĠĠĠĠĠĠĠĠĠĠĠĠĠĠĠĠĠĠĠĠĠĠĠĠĠĠĠĠ": 6571, "\\R": 6572, "_tf": 6573, "various": 6574, "ĠĠĠĠĠĠĠĠĠĠĠĠĠĠĠĠĠĠĠĠĠĠĠĠĠĠĠĠĠĠĠĠĠĠĠĠĠĠĠĠĠĠĠĠĠĠĠĠ": 6575, "Ġrho": 6576, "pull": 6577, "sources": 6578, "recent": 6579, "despite": 6580, "<\\": 6581, "posals": 6582, "provide": 6583, "Ġsuf": 6584, "Ġrescaling": 6585, "inform": 6586, "Biggl": 6587, "numbers": 6588, "Ġfiducial": 6589, "\\big": 6590, "scheme": 6591, "adaptive": 6592, "jmath": 6593, "consult": 6594, "lift": 6595, "containing": 6596, "entire": 6597, "utility": 6598, "Ġsingleton": 6599, "remain": 6600, "ĠĠĠĠĠĠĠĠĠĠĠĠĠĠĠĠĠĠĠĠĠĠĠĠĠĠĠĠĠĠĠĠĠĠĠĠĠĠĠĠĠĠĠĠĠĠĠĠĠĠĠĠĠ": 6601, "controls": 6602, "ĠPhi": 6603, "(-\\": 6604, "extension": 6605, "principal": 6606, "kip": 6607, "igram": 6608, "ĠTU": 6609, "extended": 6610, "whereas": 6611, "grow": 6612, "defining": 6613, "combination": 6614, "ĠÏķ": 6615, "modes": 6616, "evidence": 6617, "cisely": 6618, "says": 6619, "ĠLaunch": 6620, "Ġpullback": 6621, "resulting": 6622, "leaves": 6623, "\\neq": 6624, "\\th": 6625, "horizon": 6626, "samples": 6627, "yielding": 6628, "bounded": 6629, "¬ģ": 6630, "Ġcharacterizations": 6631, "Ġradiate": 6632, "{#": 6633, "\\zeta": 6634, "Reply": 6635, "codes": 6636, "ffa": 6637, "relevant": 6638, "strength": 6639, "Ġfrac": 6640, "\\pmb": 6641, "Ġplugging": 6642, "regions": 6643, "reduction": 6644, "observation": 6645, "sentence": 6646, "alternative": 6647, "simply": 6648, "Laboratory": 6649, "disk": 6650, "propagation": 6651, "prove": 6652, "Ġradially": 6653, "Combine": 6654, "intensity": 6655, "shows": 6656, "coefficient": 6657, "diver": 6658, "bund": 6659, "Ġmc": 6660, "increase": 6661, "planning": 6662, "ĠĠĠĠĠĠĠĠĠĠĠĠĠĠĠĠĠĠĠĠĠĠĠĠĠĠĠĠĠĠĠĠĠĠĠĠĠĠĠĠĠĠĠĠĠ": 6663, "ĠâĪĤ": 6664, "sense": 6665, "-election": 6666, "Accordingly": 6667, "database": 6668, "reserve": 6669, "teaching": 6670, "ĠâĨĵ": 6671, "csc": 6672, "}{-": 6673, "expand": 6674, "lak": 6675, "-harm": 6676, "\\}.": 6677, "emph": 6678, "orner": 6679, "Ġbidders": 6680, "kinetic": 6681, "ĠĠĠĠĠĠĠĠĠĠĠĠĠĠĠĠĠĠĠĠĠĠĠĠĠĠĠĠĠĠĠĠĠĠĠĠĠĠĠĠĠĠĠĠĠĠĠĠĠĠ": 6682, "[Ċ": 6683, "endering": 6684, "surv": 6685, "runs": 6686, "ĠLambda": 6687, "ĠÎ¾": 6688, "rare": 6689, "dimensions": 6690, "ĠCommunic": 6691, "\\e": 6692, "experiment": 6693, "TeX": 6694, "glob": 6695, "charged": 6696, "verified": 6697, "arries": 6698, "Ġhoneycomb": 6699, "algorithm": 6700, "Ġmv": 6701, "}{|": 6702, "ĠIntuitively": 6703, "Ġintegrability": 6704, "ĠFOC": 6705, "alysts": 6706, "otone": 6707, "Ġshowcasing": 6708, "stars": 6709, "magnetic": 6710, "generate": 6711, "\\ell": 6712, "quantum": 6713, "ĠÎĽ": 6714, "moment": 6715, "-measure": 6716, "ragonal": 6717, "ĠProse": 6718, "triangledown": 6719, "ĠĠĠĠĠĠĠĠĠĠĠĠĠĠĠĠĠĠĠĠĠĠĠĠĠĠĠĠĠĠĠĠĠĠĠĠĠĠĠĠĠĠĠĠĠĠ": 6720, "Bew": 6721, "formula": 6722, "conditional": 6723, "interpolation": 6724, "Ġsupremum": 6725, "reported": 6726, "asier": 6727, "urement": 6728, "ffects": 6729, "-generating": 6730, "therm": 6731, "figures": 6732, "relativistic": 6733, "Ġmr": 6734, "exponential": 6735, "Pure": 6736, "|x": 6737, "overbrace": 6738, "effects": 6739, "needed": 6740, "exact": 6741, "representing": 6742, "Ġpretraining": 6743, "analog": 6744, "chains": 6745, "Difference": 6746, "inputs": 6747, "*{": 6748, "appearing": 6749, "detect": 6750, "=-\\": 6751, "methods": 6752, "requencies": 6753, "Longleftrightarrow": 6754, "Ġcoset": 6755, "agreement": 6756, "approach": 6757, "\\.": 6758, "procedure": 6759, "ĠTull": 6760, "Ġsystematics": 6761, "relax": 6762, ")(\\": 6763, "racket": 6764, "{matrix": 6765, "igured": 6766, "Ġsufficiency": 6767, "âĪĳ": 6768, "ignificantly": 6769, "nex": 6770, "iqueness": 6771, "Ġhires": 6772, "identical": 6773, "Bbb": 6774, "Ġrm": 6775, "presented": 6776, "nearest": 6777, "ĠBCG": 6778, "\\,\\": 6779, "\\quad": 6780, "Ġconditionally": 6781, "{dy": 6782, "particular": 6783, "leneck": 6784, "obtained": 6785, "fork": 6786, "difficult": 6787, "\\v": 6788, "characteristic": 6789, "additional": 6790, "completely": 6791, "Ġ\\{(": 6792, "helpful": 6793, "orthogonal": 6794, "\\k": 6795, "classic": 6796, "ĠâĪ«": 6797, "\\j": 6798, "artifact": 6799, "mirror": 6800, "families": 6801, "calculation": 6802, "fundamental": 6803, "imize": 6804, "prediction": 6805, "etson": 6806, "intercal": 6807, "gives": 6808, "spatial": 6809, "further": 6810, "inverse": 6811, "ollars": 6812, "ĠGemma": 6813, "blow": 6814, "\\Pi": 6815, "Ġdetuning": 6816, "ĠCompatibility": 6817, ")\\,": 6818, "-aligned": 6819, "\\limits": 6820, "plica": 6821, "lnot": 6822, "demonstr": 6823, "|.": 6824, "strict": 6825, "mapping": 6826, ")P": 6827, "determined": 6828, "Ġgambler": 6829, "phasize": 6830, "concept": 6831, "highly": 6832, "indicating": 6833, "ĠSmol": 6834, "\\f": 6835, "Ġbijective": 6836, "addition": 6837, "âŁ©": 6838, "Ġcharacterise": 6839, "Specifically": 6840, "SOC": 6841, "fitted": 6842, "roughly": 6843, "percentage": 6844, "variants": 6845, "^j": 6846, "ĠLiss": 6847, "Ġdrags": 6848, "Ġdz": 6849, "outputs": 6850, "-difference": 6851, "mom": 6852, "dense": 6853, "appropriately": 6854, "Ġ(\\(": 6855, "significant": 6856, "ramm": 6857, "neighborhood": 6858, "longleftrightarrow": 6859, "âĪĨ": 6860, "diag": 6861, "metallic": 6862, "Ġei": 6863, "ensively": 6864, "emission": 6865, "uminosity": 6866, "Ġyi": 6867, "ĠRadon": 6868, "discount": 6869, "canonical": 6870, "channels": 6871, "compatible": 6872, "archers": 6873, "observable": 6874, "Gaussian": 6875, "writes": 6876, "consumer": 6877, "\\over": 6878, "Ġhypergraph": 6879, "\\dfrac": 6880, "extract": 6881, "transport": 6882, "}}}Ċ": 6883, "-pull": 6884, "dominant": 6885, "ĠkB": 6886, "mentions": 6887, "completed": 6888, "twenty": 6889, "))\\": 6890, "answers": 6891, "\\image": 6892, "ĠPhysically": 6893, "Biggr": 6894, "uncertain": 6895, "-relevant": 6896, "âĪ«": 6897, "Ġerasure": 6898, "sched": 6899, "purpose": 6900, "demand": 6901, "numer": 6902, "{sec": 6903, "novel": 6904, "generated": 6905, "exercise": 6906, "processes": 6907, "osynthesis": 6908, "otheses": 6909, "Ġâī¡": 6910, "outline": 6911, "lbrack": 6912, "efficient": 6913, "varPsi": 6914, "restricted": 6915, "}\\)": 6916, "lemma": 6917, "supported": 6918, "adapted": 6919, "smaller": 6920, "considered": 6921, "Ġmillilit": 6922, "\\acute": 6923, "estimator": 6924, "\\leqslant": 6925, "immediate": 6926, "Ġunattainable": 6927, "existence": 6928, "\\U": 6929, "Lore": 6930, "papers": 6931, "restart": 6932, "\\b": 6933, "draws": 6934, "baseline": 6935, "estimate": 6936, "cubic": 6937, "edf": 6938, "ensated": 6939, "Ġattractors": 6940, "lll": 6941, "}|\\": 6942, "Ġelectrodynamics": 6943, "succeq": 6944, "treat": 6945, "ffd": 6946, "\\S": 6947, "updates": 6948, "certainly": 6949, "interpretation": 6950, "jecting": 6951, "stochastic": 6952, "Ġdelimiter": 6953, "Beta": 6954, "corner": 6955, "elerated": 6956, "ĠÂµm": 6957, "Ġequalization": 6958, "ĠLlama": 6959, "supers": 6960, "Ġwindings": 6961, "identify": 6962, "strategy": 6963, "blacks": 6964, "symmetric": 6965, "CDF": 6966, "concentration": 6967, "crossing": 6968, "ipschitz": 6969, "Ġ$$Ċ": 6970, "imits": 6971, "''(": 6972, "convex": 6973, "-moment": 6974, "ĠAGNs": 6975, "collective": 6976, "projected": 6977, "Ġfinder": 6978, "indirect": 6979, "Ġkappa": 6980, "^[": 6981, "\\rceil": 6982, "\\(\\": 6983, "snapshot": 6984, "\\underline": 6985, "integral": 6986, "{He": 6987, "ĠâĪĳ": 6988, "/dx": 6989, "Ġvalidates": 6990, "larger": 6991, "]}Ċ": 6992, "\\l": 6993, "ahead": 6994, "Spread": 6995, "reward": 6996, "gross": 6997, "implementation": 6998, "\\!\\": 6999, "(âĪĴ": 7000, "expansion": 7001, "provides": 7002, "packing": 7003, "resolve": 7004, "rounding": 7005, "\\mid": 7006, "winner": 7007, "representative": 7008, "literal": 7009, "stationary": 7010, "Ġdiagonalization": 7011, "\\}\\": 7012, "^s": 7013, "\\i": 7014, "distinct": 7015, "ouglas": 7016, "growing": 7017, ")âĪĴ": 7018, "fav": 7019, "Ġ$,": 7020, "_{-\\": 7021, "'''": 7022, "comparison": 7023, "Exact": 7024, "Ġmetallicities": 7025, "oupling": 7026, "derivative": 7027, "))/(": 7028, "ĠmV": 7029, "implicit": 7030, "useful": 7031, "celebr": 7032, "\\m": 7033, "ĠĠĠĠĠĠĠĠĠĠĠĠĠĠĠĠĠĠĠĠĠĠĠĠĠĠĠĠĠĠĠĠĠĠĠĠĠĠĠĠĠĠĠĠĠĠĠĠĠĠĠĠĠĠĠĠĠĠĠĠ": 7034, "\\cap": 7035, "squ": 7036, "\\therefore": 7037, "covers": 7038, "grain": 7039, "highest": 7040, "catalog": 7041, "quantile": 7042, "infinite": 7043, "matrices": 7044, "Ġ\\[": 7045, "âĤģ": 7046, "copyright": 7047, "asymp": 7048, "diameter": 7049, "âĪ¼": 7050, "versing": 7051, "Atomic": 7052, "ĠMcLeod": 7053, "represents": 7054, "arbitr": 7055, "\\g": 7056, "idean": 7057, "eterminant": 7058, "empirical": 7059, "gligible": 7060, "Ġdecrement": 7061, "|,": 7062, "imizing": 7063, "ĠNÃ©": 7064, "interior": 7065, "studies": 7066, "âīł": 7067, "subsetneq": 7068, "Ġtetragonal": 7069, "directly": 7070, "ĠNecessity": 7071, "extent": 7072, "simulation": 7073, "Euler": 7074, "\\usepackage": 7075, "principle": 7076, "odds": 7077, "matching": 7078, "poles": 7079, "\\lceil": 7080, "squared": 7081, "\\`": 7082, "starts": 7083, "displayed": 7084, "Ġresampling": 7085, "insertion": 7086, "packet": 7087, "exactly": 7088, "ĠXR": 7089, "ĊĊ": 7090, "ĊĊĊ": 7091, "ĊĊĊĊ": 7092, "ĊĊĊĊĊ": 7093, "assistant": 7094}, "merges": [["Ġ", "t"], ["h", "e"], ["Ġ", "a"], ["i", "n"], ["Ġ", "Ġ"], ["o", "n"], ["r", "e"], ["Ġt", "he"], ["a", "t"], ["e", "r"], ["Ġ", "s"], ["Ġ", "o"], ["e", "n"], ["Ġ", "c"], ["Ġ", "w"], ["i", "s"], ["e", "s"], ["i", "t"], ["a", "n"], ["o", "r"], ["a", "l"], ["Ġ", "p"], ["e", "d"], ["Ġ", "f"], ["Ġ", "b"], ["a", "r"], ["Ġo", "f"], ["Ġa", "n"], ["in", "g"], ["Ġ", "m"], ["Ġ", "d"], ["Ġ", "in"], ["i", "on"], ["i", "c"], ["t", "d"], ["l", "e"], ["Ġan", "d"], ["Ġt", "o"], ["a", "s"], ["Ġ", "{"], ["r", "o"], ["Ġ", "h"], ["ĠĠ", "ĠĠ"], ["Ġ", "\\"], ["Ġ", "}"], ["Ġt", "h"], ["en", "t"], ["Ġ", "e"], ["c", "t"], ["Ġ", "n"], ["Ġ", "l"], ["e", "l"], ["o", "m"], ["s", "t"], ["e", "t"], ["Ġ", "re"], ["i", "m"], ["r", "a"], ["Ġ", "("], ["Ġ", "T"], ["o", "t"], ["o", "l"], ["i", "d"], ["Ġ", "g"], ["i", "g"], [".", "Ċ"], ["u", "t"], ["v", "e"], ["Ġ", "I"], ["at", "ion"], ["Ġ", "S"], ["Ġ", "is"], ["c", "e"], ["Ġ", "A"], ["l", "y"], ["c", "h"], ["u", "s"], ["Ġb", "e"], ["u", "r"], ["u", "n"], ["o", "w"], ["Ġ", "$"], ["Ġ", "C"], ["a", "m"], ["a", "d"], ["Ġf", "or"], ["Ġ", "on"], ["v", "er"], ["â", "Ģ"], ["u", "l"], ["Ġth", "at"], ["o", "s"], ["Ġs", "t"], ["Ġ", "he"], ["i", "r"], ["Ġ", "M"], ["a", "y"], ["Ġ", "_"], ["i", "f"], ["Ġa", "s"], ["0", "0"], ["Ġc", "on"], ["Ġ", "y"], ["ĠĠ", "Ġ"], ["t", "r"], ["Ġ", "P"], ["o", "d"], ["q", "u"], ["t", "h"], ["e", "m"], ["u", "m"], ["Ġ", "B"], ["Ġa", "l"], ["Ġ", "it"], ["a", "b"], ["Ġp", "ro"], ["Ġd", "e"], ["ĠT", "he"], ["Ġ", "H"], ["Ġ", "v"], ["a", "g"], ["s", "e"], ["he", "r"], ["re", "s"], ["p", "e"], ["Ġw", "e"], ["i", "v"], ["an", "d"], ["a", "c"], ["Ġw", "as"], ["Ġ", "R"], ["Ġe", "x"], ["Ġ", "r"], ["Ġ", "D"], ["Ġ", "F"], ["at", "e"], ["Ġ", "E"], ["l", "d"], ["Ġ", "-"], ["Ġ", "L"], ["es", "s"], ["Ġo", "r"], ["Ġ", "W"], ["er", "s"], ["es", "t"], ["is", "t"], ["it", "y"], ["1", "9"], ["Ġa", "re"], ["Ġ", "\""], ["Ġc", "om"], ["ct", "ion"], ["p", "p"], ["ĠĠĠĠ", "ĠĠĠĠ"], ["an", "t"], ["Ġa", "t"], ["'", "s"], ["o", "re"], ["Ġb", "y"], ["o", "p"], ["Ġ", "N"], ["n", "d"], ["Ġ", "="], ["k", "e"], ["Ġ", "G"], ["i", "es"], ["i", "ve"], ["m", "ent"], ["2", "0"], ["Ġn", "ot"], ["u", "re"], ["Ġ", "'"], ["i", "al"], ["Ġ", "un"], ["ar", "t"], ["en", "d"], ["Ġn", "e"], ["p", "l"], ["t", "e"], ["Ġ", ")"], ["Ġ", ","], ["ĠĠ", "Ċ"], ["or", "t"], ["g", "e"], ["Ġ", "k"], ["p", "t"], ["Ġ", "le"], ["re", "n"], ["Ġ", "<"], ["Ġ", "J"], ["re", "d"], ["Ġth", "is"], ["in", "e"], ["al", "l"], ["f", "e"], ["i", "z"], ["Ġ", "us"], ["el", "l"], ["Ġ", "O"], ["p", "er"], ["Ġ$", "\\"], [")", ","], ["Ġ", "."], ["1", "0"], ["Ġh", "is"], ["r", "m"], ["r", "i"], ["Ġc", "an"], ["u", "p"], ["âĢ", "ľ"], ["at", "ed"], ["Ġ", "j"], ["Ġa", "b"], ["ab", "le"], ["ĠI", "n"], ["im", "e"], ["an", "s"], ["a", "p"], ["-", "-"], ["Ġ", "["], ["id", "e"], ["ul", "t"], ["âĢ", "Ŀ"], ["a", "k"], ["as", "s"], ["or", "m"], ["Ġhe", "r"], ["in", "d"], ["Ġal", "l"], ["T", "he"], ["math", "rm"], ["Ġcom", "p"], ["Ġc", "l"], ["ation", "s"], ["i", "p"], ["c", "c"], ["as", "t"], ["1", "2"], ["Ġh", "ad"], ["on", "g"], ["Ġd", "o"], ["d", "er"], ["ag", "e"], ["t", "o"], ["d", "u"], ["'", ","], ["Ġ", "U"], [")", "."], ["Ġ", "K"], ["Ġb", "ut"], ["an", "ce"], ["Ġa", "d"], ["e", "p"], ["Ġ", "+"], ["an", "g"], ["on", "e"], [".", ","], ["n", "e"], ["in", "t"], ["c", "l"], ["a", "ch"], ["Ġwe", "re"], ["Ġon", "e"], ["u", "b"], ["ra", "c"], ["1", "1"], ["en", "s"], ["ic", "e"], ["f", "f"], ["Ġo", "ut"], ["Ġp", "er"], ["Ġthe", "ir"], ["Ġthe", "y"], ["Ġ", "V"], ["1", "5"], ["Ġs", "o"], ["c", "on"], ["Ġg", "o"], ["1", "8"], ["os", "e"], ["ent", "s"], ["Ġh", "as"], ["ion", "s"], ["Ġw", "ill"], ["el", "y"], ["a", "re"], ["1", "3"], ["Ġs", "he"], ["Ġ", "i"], ["Ġ", "up"], ["1", "4"], ["1", "6"], ["âĢ", "Ķ"], ["Ġm", "y"], ["x", "t"], ["Ġm", "ore"], [")", "Ċ"], ["f", "orm"], ["ro", "w"], ["Ġp", "art"], ["m", "a"], ["d", "e"], ["s", "o"], ["Ġ", "Y"], ["Ġn", "o"], ["Ġ", "x"], ["ren", "t"], ["w", "e"], ["1", "7"], ["ow", "n"], ["l", "l"], ["i", "le"], ["Ġa", "r"], ["or", "s"], ["2", "5"], ["l", "ow"], ["Ġthe", "re"], ["Ġbe", "en"], ["Ġ", "if"], ["or", "d"], ["a", "ke"], ["he", "re"], ["}", "$"], ["c", "es"], ["w", "o"], ["Ġp", "re"], ["ĠH", "e"], ["m", "s"], ["t", "a"], ["Ġit", "s"], ["a", "us"], ["Ġin", "to"], ["Ġt", "ime"], ["p", "le"], ["Ġth", "an"], ["ĠĠĠĠ", "ĠĠĠ"], ["Ġab", "out"], ["20", "1"], ["ĠS", "t"], ["p", "r"], ["is", "h"], ["Ã", "©"], ["ĠI", "t"], ["i", "an"], ["Ġ", "&"], ["at", "es"], ["ra", "y"], ["Ġ", "ro"], ["Ġo", "ver"], ["2", "2"], ["ing", "s"], ["he", "d"], ["2", "00"], ["3", "0"], ["Ġd", "if"], ["o", "v"], ["Ġan", "y"], ["f", "rac"], ["ic", "t"], ["Ġb", "et"], ["Ġal", "so"], ["Ġthe", "m"], ["r", "ight"], ["Ġm", "od"], ["ar", "k"], ["et", "h"], ["math", "b"], ["al", "ly"], ["o", "b"], ["]", ","], ["u", "c"], ["t", "he"], ["le", "ct"], ["t", "y"], ["Ġ", "|"], ["Ġt", "wo"], ["m", "er"], ["on", "s"], ["Ġon", "ly"], ["fe", "ct"], [";", "Ċ"], ["2", "4"], ["Ġm", "ay"], ["c", "ess"], ["Ġ", "/"], ["i", "ed"], ["o", "int"], ["ul", "ar"], ["9", "9"], ["c", "al"], [":", "Ċ"], ["I", "n"], ["h", "at"], ["in", "k"], ["Ġl", "a"], ["e", "g"], ["Ġun", "der"], ["Ġthe", "se"], ["Ġo", "ur"], ["2", "7"], ["l", "es"], ["on", "d"], ["at", "ing"], ["er", "m"], ["ot", "h"], ["2", "3"], ["ig", "h"], ["s", "s"], ["at", "ive"], ["is", "e"], ["ic", "s"], ["Ġthe", "n"], ["2", "6"], ["19", "9"], ["n", "ing"], ["2", "8"], ["Ġh", "ow"], ["Ġne", "w"], ["3", "6"], ["4", "0"], ["v", "ar"], ["E", "R"], ["f", "ul"], ["ation", "al"], ["2", "9"], ["it", "ies"], ["o", "y"], ["Ġa", "c"], ["im", "es"], ["s", "p"], ["n", "g"], ["c", "om"], ["Ġf", "l"], ["p", "ro"], ["Ġe", "t"], ["(", "t"], ["on", "t"], [",", "Ċ"], ["ĠW", "e"], ["g", "et"], ["e", "x"], ["u", "ch"], ["Ġfor", "m"], ["u", "res"], ["iz", "e"], ["ul", "l"], ["Ġd", "id"], ["Ġw", "here"], ["Ġs", "et"], ["e", "c"], ["Ġs", "im"], ["Ġus", "e"], ["ment", "s"], ["i", "el"], ["Ġne", "ed"], ["Ġin", "t"], ["u", "g"], ["i", "x"], ["p", "os"], ["ot", "her"], ["ar", "ray"], ["Ġg", "et"], ["Ġ", "z"], ["3", "7"], ["it", "s"], ["if", "e"], ["}", "}"], ["Ġe", "ach"], ["ĠA", "n"], ["Ġd", "et"], ["at", "ure"], ["Ġe", "qu"], ["id", "ent"], ["in", "ed"], ["_", "{"], ["3", "5"], ["Ġcl", "ass"], ["19", "8"], ["i", "er"], ["c", "ial"], ["is", "m"], ["th", "is"], ["d", "s"], ["4", "5"], ["l", "ed"], ["mathb", "f"], ["u", "es"], ["Ġus", "ed"], ["ĠR", "e"], ["al", "s"], ["Ġ)", "$"], ["Ġ", "ent"], ["Ġh", "and"], ["3", "8"], ["Ġ", "u"], ["Ġa", "fter"], ["{", "array"], ["#", "#"], ["4", "8"], ["in", "s"], ["iz", "ed"], ["Ġw", "ell"], [")", ";"], ["am", "b"], ["Ġl", "ong"], ["Ġw", "ay"], ["at", "her"], ["Ġmod", "el"], ["math", "cal"], ["^", "{"], ["}", ","], ["Ġp", "oint"], ["at", "or"], ["it", "ed"], ["Ġex", "p"], ["n", "ess"], ["am", "ple"], ["s", "c"], ["Ġr", "ight"], ["s", "h"], ["o", "ver"], ["7", "5"], ["3", "9"], ["ction", "s"], ["4", "4"], ["ag", "es"], ["Ġ", "X"], ["Ġe", "l"], ["Ġn", "ow"], ["o", "f"], ["Ġ", "Z"], ["et", "a"], ["al", "e"], ["1", "00"], ["a", "ve"], ["Ġd", "own"], ["v", "al"], ["ĠF", "or"], ["in", "es"], ["4", "6"], ["Ġb", "el"], ["ar", "g"], ["l", "ine"], ["un", "d"], ["Ġ", "end"], ["Ġm", "in"], ["Ġ", "ke"], ["Ġ", "Q"], ["t", "ing"], ["Ġf", "in"], ["pr", "ime"], ["iz", "ation"], ["te", "xt"], ["d", "ot"], ["Ġb", "oth"], ["c", "ent"], ["er", "n"], ["Ġc", "all"], ["Ġm", "ake"], ["4", "7"], ["f", "or"], ["ir", "c"], ["ĠS", "he"], ["Ġth", "ose"], ["d", "a"], ["m", "an"], ["od", "y"], ["g", "g"], ["w", "ay"], ["Ġgo", "od"], ["8", "0"], ["Ġ", ":"], ["Ġc", "ent"], ["Ġm", "uch"], ["5", "5"], ["y", "m"], ["ur", "al"], ["ic", "es"], ["}", "Ċ"], ["7", "0"], ["re", "st"], ["Ġpro", "cess"], ["form", "ation"], ["h", "o"], ["-", "b"], ["Ġf", "ind"], ["}", "{"], ["Ġdo", "es"], ["t", "on"], ["Ġre", "al"], ["ĠI", "f"], ["re", "turn"], ["a", "pp"], ["as", "es"], ["3", "2"], ["Ġ\\", "\\"], ["Ġre", "f"], ["p", "ar"], ["id", "er"], ["3", "4"], ["]", "Ċ"], ["3", "1"], ["ist", "s"], ["as", "h"], ["ar", "s"], ["st", "r"], [")", ".Ċ"], ["c", "ol"], ["an", "y"], ["a", "u"], ["l", "and"], ["sp", "an"], ["Ġth", "ink"], ["b", "e"], ["Ġd", "ist"], ["ĠA", "s"], ["Ġus", "ing"], ["H", "e"], ["-", "s"], ["le", "ar"], ["v", "ed"], ["iv", "id"], ["iv", "es"], ["m", "in"], ["s", "et"], ["20", "2"], ["Ġhe", "re"], ["N", "D"], ["W", "e"], ["y", "n"], ["er", "r"], ["v", "es"], ["ul", "ation"], ["9", "5"], ["]", "."], ["mathb", "b"], ["I", "t"], ["Ġn", "on"], ["Ġ$", "("], ["c", "r"], ["ĠA", "r"], ["Ġl", "ine"], ["i", "or"], ["Ġt", "ake"], ["Ġle", "t"], ["al", "ity"], ["Ġt", "est"], ["Ġ{", "\\"], ["el", "s"], ["Ġst", "ill"], ["ĠThe", "re"], ["m", "u"], ["Ġs", "ay"], ["Ġhe", "ad"], [")", "$"], ["Ġ", "âĢ"], ["er", "t"], ["l", "ess"], ["i", "red"], ["0", "5"], ["Ġto", "o"], ["Ġ", "âĢľ"], ["in", "al"], ["r", "on"], ["0", "1"], ["7", "8"], ["Ġor", "der"], ["Ġst", "ate"], ["ne", "w"], ["Ġwith", "out"], [")", ":"], ["t", "able"], ["et", "s"], ["v", "ing"], ["p", "o"], ["a", "j"], ["am", "ma"], ["id", "es"], ["O", "T"], ["Ġa", "round"], ["Ġex", "ample"], ["}", "\\"], ["an", "e"], ["Ġp", "res"], ["ot", "s"], ["if", "ied"], ["p", "i"], ["Ġ", "Ċ"], ["Ġin", "formation"], ["Ġfollow", "ing"], ["ĠC", "l"], ["Ġst", "art"], ["Ġan", "other"], ["iv", "ed"], ["re", "m"], ["n", "ot"], ["t", "t"], ["qu", "ad"], ["Ġper", "form"], ["ri", "ed"], ["p", "art"], ["Ġre", "turn"], ["Ġl", "ess"], ["ang", "le"], ["at", "ely"], ["c", "dot"], ["Ġne", "ver"], ["b", "ar"], ["Ġm", "ark"], ["Ġc", "ap"], ["-", "f"], ["Ġc", "ell"], ["Ġ", "]"], ["in", "ing"], ["Ġagain", "st"], ["ĠO", "n"], ["Ġwith", "in"], ["Ġl", "ast"], ["pl", "ay"], ["c", "ul"], ["\\", "mathrm"], ["g", "er"], ["m", "ed"], ["ent", "ly"], ["l", "t"], ["g", "t"], ["âĢ", "Ļ"], ["Ġpro", "per"], ["c", "o"], ["Ġl", "im"], ["ot", "e"], ["Ġ", ".Ċ"], ["us", "e"], ["s", "w"], ["S", "t"], ["Ġcom", "e"], ["Ġg", "row"], ["d", "is"], ["4", "2"], ["ĠĠĠĠ", "ĠĠ"], ["ab", "ly"], ["is", "ed"], ["Ġ", "q"], ["Ġresult", "s"], ["s", "um"], ["pp", "ed"], ["Ġgo", "ing"], ["e", "k"], ["I", "I"], ["ab", "l"], ["Ġl", "ight"], ["h", "or"], ["\\", "x"], ["d", "en"], ["L", "E"], ["in", "c"], ["A", "n"], ["g", "a"], ["M", "T"], ["b", "eta"], ["Ġall", "ow"], ["ty", "pe"], ["Ġb", "est"], ["Ġa", "way"], ["it", "er"], ["Ġto", "p"], ["Ġl", "ow"], ["b", "y"], ["end", "s"], ["ur", "s"], ["le", "t"], ["A", "s"], ["ra", "d"], ["Ġla", "w"], ["re", "l"], ["t", "imes"], ["er", "ing"], [")", ")"], ["Ġ", "#"], ["um", "e"], ["ra", "w"], ["-", "t"], ["Ġf", "our"], ["Ġ", ">"], ["ĠT", "o"], ["w", "here"], ["ĠT", "r"], ["Ġr", "un"], ["ep", "s"], ["an", "ces"], ["Ġre", "st"], ["l", "o"], ["ot", "t"], ["0", "7"], ["at", "t"], ["ist", "ic"], ["-", "c"], ["Ġb", "ody"], ["5", "7"], ["p", "re"], ["Ġc", "lear"], ["Ġs", "ide"], ["ĠA", "t"], ["Ġcon", "c"], ["Ġth", "ings"], ["Ġ}", "Ċ"], ["the", "ta"], ["Ġ", "row"], ["Ġw", "ar"], ["a", "ction"], ["le", "y"], ["ĠP", "l"], ["ĠN", "o"], ["Ġg", "ive"], ["le", "q"], [".", "g"], ["Ġl", "ab"], [".", "s"], ["Ġs", "um"], ["Ġto", "t"], ["Ġne", "xt"], ["Ġn", "et"], ["is", "on"], ["ro", "du"], ["e", "b"], ["ĠThe", "se"], ["a", "f"], ["re", "g"], ["Ġro", "om"], ["Ġar", "g"], ["part", "ial"], [")", "}"], ["Ġto", "ward"], ["n", "u"], ["g", "amma"], ["if", "y"], ["_", "t"], ["Ġc", "irc"], ["al", "f"], ["Ġt", "imes"], ["ar", "row"], ["ĠA", "ll"], ["Ġle", "ast"], [".", "["], ["ep", "end"], ["Ġr", "ate"], ["ĠL", "et"], ["E", "x"], ["Â", "·"], ["Ġt", "erm"], ["r", "ho"], ["T", "o"], ["b", "l"], ["ta", "u"], [".", "e"], ["Ġal", "ong"], ["8", "7"], ["st", "it"], ["Ġm", "ass"], ["ĠĠĠĠĠĠĠĠ", "ĠĠĠĠĠĠĠ"], ["le", "ction"], ["im", "al"], ["Ġin", "f"], ["Ġar", "t"], ["iv", "al"], ["F", "or"], ["R", "e"], ["g", "en"], ["Ġare", "a"], ["Ġke", "ep"], ["Ġf", "ull"], ["s", "up"], ["u", "x"], ["b", "ig"], ["C", "l"], ["Ġtot", "al"], ["A", "nd"], ["a", "im"], ["con", "t"], ["l", "er"], ["if", "t"], ["one", "y"], ["c", "irc"], ["Ġf", "low"], ["at", "ures"], ["id", "s"], [",", "n"], ["m", "l"], ["^{", "\\"], ["u", "ff"], ["a", "e"], ["Ġn", "ight"], ["as", "ing"], ["se", "e"], ["d", "iv"], ["g", "ed"], ["ore", "d"], ["m", "od"], ["Ġs", "ize"], ["g", "es"], ["I", "f"], ["Ġsystem", "s"], ["Ġon", "ce"], ["im", "ate"], ["s", "ide"], ["ict", "ion"], ["ro", "ll"], ["in", "fty"], ["s", "q"], ["ip", "s"], ["{", "\\"], ["A", "t"], ["5", "00"], ["n", "ow"], ["err", "or"], ["Ġw", "ind"], ["ad", "d"], ["ĠO", "ne"], ["Ġcondition", "s"], ["ĠC", "ar"], ["is", "ing"], ["col", "or"], ["\\", "n"], ["f", "ra"], ["Ġcan", "not"], ["6", "3"], ["Ġa", "ction"], ["re", "f"], ["S", "he"], ["s", "ub"], ["im", "um"], ["ĠA", "pp"], ["Ġc", "ases"], ["Ġto", "ld"], ["ut", "ure"], ["ver", "t"], ["i", "i"], ["or", "der"], ["A", "G"], ["6", "2"], ["iv", "en"], ["\\", "begin"], ["e", "qu"], ["ĠS", "ch"], ["ce", "ed"], ["I", "m"], ["(", "\\"], ["ĠB", "y"], ["O", "n"], ["de", "f"], ["Ġ\\", "|"], ["Ġh", "alf"], ["ar", "r"], ["ar", "i"], ["t", "ies"], ["Ġke", "y"], ["operator", "name"], ["o", "ff"], ["The", "re"], [".", "m"], ["/", "s"], ["Ġpoint", "s"], ["pos", "ed"], ["5", "4"], ["(", "n"], ["x", "i"], ["g", "o"], ["ir", "m"], ["i", "ation"], ["U", "n"], ["Ġro", "le"], ["Ġg", "round"], ["um", "p"], ["Ġshow", "s"], ["Ġn", "ature"], ["ure", "d"], ["iz", "ing"], ["d", "d"], ["Ġa", "ge"], ["rac", "k"], ["Ġmodel", "s"], ["he", "ad"], ["Ġper", "cent"], ["Ġ", ";"], ["-", "h"], ["Ġt", "able"], ["_{", "\\"], ["Ġcell", "s"], ["g", "round"], ["Ġ", "âĢĶ"], ["e", "ction"], ["p", "ose"], ["Ġwe", "ight"], ["i", "res"], ["Ġd", "u"], ["O", "m"], ["Ġperform", "ance"], ["Ġb", "ig"], ["ac", "hed"], ["ĠĠĠĠĠĠĠĠ", "Ġ"], ["Ġ", "ut"], ["Ġg", "e"], ["Ġsim", "ple"], ["in", "o"], ["s", "f"], ["is", "es"], ["Ġcl", "ose"], ["Ġst", "ates"], ["row", "n"], ["Ġeffect", "s"], ["Ġb", "ar"], ["ĠF", "ig"], ["$", "\\"], ["Ġj", "ob"], ["b", "ody"], ["m", "p"], ["Ġf", "uture"], ["b", "o"], ["n", "o"], ["Ġth", "us"], [">", "M"], ["b", "ed"], ["Ġ", "â"], ["um", "ents"], ["if", "f"], ["k", "y"], ["l", "or"], ["C", "C"], ["Ġf", "ive"], ["s", "im"], ["pp", "ing"], ["Ġmethod", "s"], ["F", "ig"], ["b", "ut"], ["7", "4"], ["M", "S"], ["}", "_"], ["yn", "am"], ["ore", "m"], ["Ġbel", "ow"], ["7", "1"], ["ĠR", "ep"], ["t", "ot"], ["op", "y"], ["Ġst", "ep"], ["(", "a"], ["Ġcl", "aim"], ["8", "4"], ["cl", "ass"], ["ac", "c"], ["Ġobtain", "ed"], ["x", "im"], ["Ġthe", "mselves"], ["cent", "r"], ["ĠI", "I"], ["10", "1"], ["9", "3"], ["}", ")"], ["Ġneed", "ed"], ["Ġ\\", "{"], ["9", "1"], ["is", "c"], ["Ġfollow", "s"], ["u", "it"], ["it", "ch"], ["Ġlim", "it"], ["ly", "ing"], ["Ġfunction", "s"], ["ver", "se"], ["b", "f"], ["m", "on"], ["\\", "\\"], ["ra", "p"], ["Ġnet", "work"], ["r", "angle"], ["t", "ag"], ["_", "c"], ["Ġs", "em"], ["p", "m"], ["Ġhe", "ld"], ["Ġequ", "ation"], ["Ġfor", "ce"], ["P", "S"], ["er", "ve"], ["iel", "ds"], ["Ġs", "ix"], ["Ġgrow", "th"], ["7", "6"], ["_", "p"], ["i", "os"], ["end", "er"], ["(", "r"], ["ol", "s"], ["E", "M"], ["9", "4"], ["tr", "ans"], ["od", "es"], ["ish", "ing"], ["12", "5"], ["te", "red"], ["Ġlevel", "s"], ["o", "ke"], ["le", "ment"], ["Ġ", "`"], ["(", "x"], ["l", "ight"], ["T", "r"], ["Ġfin", "al"], ["ĠD", "o"], ["9", "2"], ["op", "s"], ["ar", "c"], ["Ġl", "ines"], ["ort", "s"], ["ar", "ily"], ["ĠA", "fter"], ["a", "ff"], ["ur", "ation"], [",", "i"], ["fra", "k"], ["math", "frak"], ["ĠS", "tr"], ["pr", "int"], ["Ġfact", "or"], ["ge", "q"], ["re", "et"], ["U", "L"], ["I", "R"], ["Ġc", "ity"], ["d", "om"], ["e", "v"], ["math", "sf"], ["it", "ation"], ["w", "ise"], ["]", ";"], [",", "s"], ["pl", "ot"], ["ra", "ction"], ["Ġre", "view"], ["Ġfact", "ors"], ["Ġout", "side"], ["Ġp", "ull"], ["B", "y"], ["A", "ll"], ["ĠM", "c"], ["{", "C"], ["re", "w"], ["(", "s"], ["O", "C"], ["Ġcon", "text"], ["ĠM", "ore"], ["Ġd", "raw"], ["op", "t"], ["var", "phi"], ["k", "i"], ["ĠA", "ND"], ["S", "h"], ["ma", "x"], ["Ġg", "as"], ["ind", "ex"], ["k", "n"], ["o", "e"], ["in", "ally"], ["an", "c"], ["b", "or"], ["T", "hat"], ["em", "ents"], ["Ġdevelop", "ed"], ["Ġequ", "al"], ["d", "ate"], ["com", "p"], ["),", "Ċ"], ["ke", "y"], ["b", "ra"], ["G", "amma"], ["-", "M"], ["is", "ions"], ["im", "in"], ["it", "ing"], ["Ġ(", "\\"], ["Ġ,", "Ċ"], ["Ġdist", "ance"], ["Ġh", "ot"], ["c", "os"], ["over", "line"], ["ĠP", "e"], ["Ġline", "ar"], ["Ġproper", "ties"], ["m", "ar"], ["q", "q"], ["{", "m"], ["Ġl", "ate"], ["Ġreport", "ed"], ["Ġproper", "ty"], ["Ġs", "ample"], ["âĢĻ", "s"], ["ul", "ations"], ["l", "in"], ["Ġfor", "ms"], ["}", "^{"], ["in", "ct"], ["ro", "om"], ["Ġle",
[...]
