{"version": "1.0", "truncation": null, "padding": null, "added_tokens": [{"id": 0, "content": "<s>", "single_word": false, "lstrip": false, "rstrip": false, "normalized": false, "special": true}, {"id": 1, "content": "</s>", "single_word": false, "lstrip": false, "rstrip": false, "normalized": false, "special": true}, {"id": 2, "content": "<tool_call>", "single_word": false, "lstrip": false, "rstrip": false, "normalized": false, "special": true}, {"id": 3, "content": "</tool_call>", "single_word": false, "lstrip": false, "rstrip": false, "normalized": false, "special": true}, {"id": 4, "content": "<|im_sep|>", "single_word": false, "lstrip": false, "rstrip": false, "normalized": false, "special": true}, {"id": 5, "content": "<|fim_prefix|>", "single_word": false, "lstrip": false, "rstrip": false, "normalized": false, "special": true}, {"id": 6, "content": "<|fim_middle|>", "single_word": false, "lstrip": false, "rstrip": false, "normalized": false, "special": true}, {"id": 7, "content": "<|fim_suffix|>", "single_word": false, "lstrip": false, "rstrip": false, "normalized": false, "special": true}, {"id": 8, "content": "<think>", "single_word": false, "lstrip": false, "rstrip": false, "normalized": false, "special": false}, {"id": 9, "content": "</think>", "single_word": false, "lstrip": false, "rstrip": false, "normalized": false, "special": false}, {"id": 10, "content": "<tool_response>", "single_word": false, "lstrip": false, "rstrip": false, "normalized": false, "special": true}, {"id": 11, "content": "</tool_response>", "single_word": false, "lstrip": false, "rstrip": false, "normalized": false, "special": true}, {"id": 12, "content": "<tools>", "single_word": false, "lstrip": false, "rstrip": false, "normalized": false, "special": true}, {"id": 13, "content": "</tools>", "single_word": false, "lstrip": false, "rstrip": false, "normalized": false, "special": true}, {"id": 14, "content": "<arguments>", "single_word": false, "lstrip": false, "rstrip": false, "normalized": false, "special": true}, {"id": 15, "content": "</arguments>", "single_word": false, "lstrip": false, "rstrip": false, "normalized": false, "special": true}, {"id": 16, "content": "<parameters>", "single_word": false, "lstrip": false, "rstrip": false, "normalized": false, "special": true}, {"id": 17, "content": "</parameters>", "single_word": false, "lstrip": false, "rstrip": false, "normalized": false, "special": true}, {"id": 18, "content": "<function", "single_word": false, "lstrip": false, "rstrip": false, "normalized": false, "special": true}, {"id": 19, "content": "</function>", "single_word": false, "lstrip": false, "rstrip": false, "normalized": false, "special": true}, {"id": 20, "content": "<param", "single_word": false, "lstrip": false, "rstrip": false, "normalized": false, "special": true}, {"id": 21, "content": "</param>", "single_word": false, "lstrip": false, "rstrip": false, "normalized": false, "special": true}, {"id": 48664, "content": "<|im_start|>", "single_word": false, "lstrip": false, "rstrip": false, "normalized": false, "special": true}, {"id": 48665, "content": "<|im_end|>", "single_word": false, "lstrip": false, "rstrip": false, "normalized": false, "special": true}, {"id": 48666, "content": "<unk>", "single_word": false, "lstrip": false, "rstrip": false, "normalized": false, "special": true}, {"id": 48667, "content": "<|thought_begin|>", "single_word": false, "lstrip": false, "rstrip": false, "normalized": false, "special": true}, {"id": 48668, "content": "<|thought_end|>", "single_word": false, "lstrip": false, "rstrip": false, "normalized": false, "special": true}, {"id": 48669, "content": "<|tool_call|>", "single_word": false, "lstrip": false, "rstrip": false, "normalized": false, "special": true}, {"id": 48670, "content": "<|execute_start|>", "single_word": false, "lstrip": false, "rstrip": false, "normalized": false, "special": true}, {"id": 48671, "content": "<|execute_end|>", "single_word": false, "lstrip": false, "rstrip": false, "normalized": false, "special": true}, {"id": 48672, "content": "/think", "single_word": false, "lstrip": false, "rstrip": false, "normalized": false, "special": true}, {"id": 48673, "content": "/no_think", "single_word": false, "lstrip": false, "rstrip": false, "normalized": false, "special": true}, {"id": 48674, "content": "<unused_token_0>", "single_word": false, "lstrip": false, "rstrip": false, "normalized": true, "special": false}, {"id": 48675, "content": "<unused_token_1>", "single_word": false, "lstrip": false, "rstrip": false, "normalized": true, "special": false}, {"id": 48676, "content": "<unused_token_2>", "single_word": false, "lstrip": false, "rstrip": false, "normalized": true, "special": false}, {"id": 48677, "content": "<unused_token_3>", "single_word": false, "lstrip": false, "rstrip": false, "normalized": true, "special": false}, {"id": 48678, "content": "<unused_token_4>", "single_word": false, "lstrip": false, "rstrip": false, "normalized": true, "special": false}, {"id": 48679, "content": "<unused_token_5>", "single_word": false, "lstrip": false, "rstrip": false, "normalized": true, "special": false}, {"id": 48680, "content": "<unused_token_6>", "single_word": false, "lstrip": false, "rstrip": false, "normalized": true, "special": false}, {"id": 48681, "content": "<unused_token_7>", "single_word": false, "lstrip": false, "rstrip": false, "normalized": true, "special": false}, {"id": 48682, "content": "<unused_token_8>", "single_word": false, "lstrip": false, "rstrip": false, "normalized": true, "special": false}, {"id": 48683, "content": "<unused_token_9>", "single_word": false, "lstrip": false, "rstrip": false, "normalized": true, "special": false}, {"id": 48684, "content": "<unused_token_10>", "single_word": false, "lstrip": false, "rstrip": false, "normalized": true, "special": false}, {"id": 48685, "content": "<unused_token_11>", "single_word": false, "lstrip": false, "rstrip": false, "normalized": true, "special": false}, {"id": 48686, "content": "<unused_token_12>", "single_word": false, "lstrip": false, "rstrip": false, "normalized": true, "special": false}, {"id": 48687, "content": "<unused_token_13>", "single_word": false, "lstrip": false, "rstrip": false, "normalized": true, "special": false}, {"id": 48688, "content": "<unused_token_14>", "single_word": false, "lstrip": false, "rstrip": false, "normalized": true, "special": false}, {"id": 48689, "content": "<unused_token_15>", "single_word": false, "lstrip": false, "rstrip": false, "normalized": true, "special": false}, {"id": 48690, "content": "<unused_token_16>", "single_word": false, "lstrip": false, "rstrip": false, "normalized": true, "special": false}, {"id": 48691, "content": "<unused_token_17>", "single_word": false, "lstrip": false, "rstrip": false, "normalized": true, "special": false}, {"id": 48692, "content": "<unused_token_18>", "single_word": false, "lstrip": false, "rstrip": false, "normalized": true, "special": false}, {"id": 48693, "content": "<unused_token_19>", "single_word": false, "lstrip": false, "rstrip": false, "normalized": true, "special": false}, {"id": 48694, "content": "<unused_token_20>", "single_word": false, "lstrip": false, "rstrip": false, "normalized": true, "special": false}, {"id": 48695, "content": "<unused_token_21>", "single_word": false, "lstrip": false, "rstrip": false, "normalized": true, "special": false}, {"id": 48696, "content": "<unused_token_22>", "single_word": false, "lstrip": false, "rstrip": false, "normalized": true, "special": false}, {"id": 48697, "content": "<unused_token_23>", "single_word": false, "lstrip": false, "rstrip": false, "normalized": true, "special": false}, {"id": 48698, "content": "<unused_token_24>", "single_word": false, "lstrip": false, "rstrip": false, "normalized": true, "special": false}, {"id": 48699, "content": "<unused_token_25>", "single_word": false, "lstrip": false, "rstrip": false, "normalized": true, "special": false}, {"id": 48700, "content": "<unused_token_26>", "single_word": false, "lstrip": false, "rstrip": false, "normalized": true, "special": false}, {"id": 48701, "content": "<unused_token_27>", "single_word": false, "lstrip": false, "rstrip": false, "normalized": true, "special": false}, {"id": 48702, "content": "<unused_token_28>", "single_word": false, "lstrip": false, "rstrip": false, "normalized": true, "special": false}, {"id": 48703, "content": "<unused_token_29>", "single_word": false, "lstrip": false, "rstrip": false, "normalized": true, "special": false}, {"id": 48704, "content": "<unused_token_30>", "single_word": false, "lstrip": false, "rstrip": false, "normalized": true, "special": false}, {"id": 48705, "content": "<unused_token_31>", "single_word": false, "lstrip": false, "rstrip": false, "normalized": true, "special": false}, {"id": 48706, "content": "<unused_token_32>", "single_word": false, "lstrip": false, "rstrip": false, "normalized": true, "special": false}, {"id": 48707, "content": "<unused_token_33>", "single_word": false, "lstrip": false, "rstrip": false, "normalized": true, "special": false}, {"id": 48708, "content": "<unused_token_34>", "single_word": false, "lstrip": false, "rstrip": false, "normalized": true, "special": false}, {"id": 48709, "content": "<unused_token_35>", "single_word": false, "lstrip": false, "rstrip": false, "normalized": true, "special": false}, {"id": 48710, "content": "<unused_token_36>", "single_word": false, "lstrip": false, "rstrip": false, "normalized": true, "special": false}, {"id": 48711, "content": "<unused_token_37>", "single_word": false, "lstrip": false, "rstrip": false, "normalized": true, "special": false}, {"id": 48712, "content": "<unused_token_38>", "single_word": false, "lstrip": false, "rstrip": false, "normalized": true, "special": false}, {"id": 48713, "content": "<unused_token_39>", "single_word": false, "lstrip": false, "rstrip": false, "normalized": true, "special": false}, {"id": 48714, "content": "<unused_token_40>", "single_word": false, "lstrip": false, "rstrip": false, "normalized": true, "special": false}, {"id": 48715, "content": "<unused_token_41>", "single_word": false, "lstrip": false, "rstrip": false, "normalized": true, "special": false}, {"id": 48716, "content": "<unused_token_42>", "single_word": false, "lstrip": false, "rstrip": false, "normalized": true, "special": false}, {"id": 48717, "content": "<unused_token_43>", "single_word": false, "lstrip": false, "rstrip": false, "normalized": true, "special": false}, {"id": 48718, "content": "<unused_token_44>", "single_word": false, "lstrip": false, "rstrip": false, "normalized": true, "special": false}, {"id": 48719, "content": "<unused_token_45>", "single_word": false, "lstrip": false, "rstrip": false, "normalized": true, "special": false}, {"id": 48720, "content": "<unused_token_46>", "single_word": false, "lstrip": false, "rstrip": false, "normalized": true, "special": false}, {"id": 48721, "content": "<unused_token_47>", "single_word": false, "lstrip": false, "rstrip": false, "normalized": true, "special": false}, {"id": 48722, "content": "<unused_token_48>", "single_word": false, "lstrip": false, "rstrip": false, "normalized": true, "special": false}, {"id": 48723, "content": "<unused_token_49>", "single_word": false, "lstrip": false, "rstrip": false, "normalized": true, "special": false}, {"id": 48724, "content": "<unused_token_50>", "single_word": false, "lstrip": false, "rstrip": false, "normalized": true, "special": false}, {"id": 48725, "content": "<unused_token_51>", "single_word": false, "lstrip": false, "rstrip": false, "normalized": true, "special": false}, {"id": 48726, "content": "<unused_token_52>", "single_word": false, "lstrip": false, "rstrip": false, "normalized": true, "special": false}, {"id": 48727, "content": "<unused_token_53>", "single_word": false, "lstrip": false, "rstrip": false, "normalized": true, "special": false}, {"id": 48728, "content": "<unused_token_54>", "single_word": false, "lstrip": false, "rstrip": false, "normalized": true, "special": false}, {"id": 48729, "content": "<unused_token_55>", "single_word": false, "lstrip": false, "rstrip": false, "normalized": true, "special": false}, {"id": 48730, "content": "<unused_token_56>", "single_word": false, "lstrip": false, "rstrip": false, "normalized": true, "special": false}, {"id": 48731, "content": "<unused_token_57>", "single_word": false, "lstrip": false, "rstrip": false, "normalized": true, "special": false}, {"id": 48732, "content": "<unused_token_58>", "single_word": false, "lstrip": false, "rstrip": false, "normalized": true, "special": false}, {"id": 48733, "content": "<unused_token_59>", "single_word": false, "lstrip": false, "rstrip": false, "normalized": true, "special": false}, {"id": 48734, "content": "<unused_token_60>", "single_word": false, "lstrip": false, "rstrip": false, "normalized": true, "special": false}, {"id": 48735, "content": "<unused_token_61>", "single_word": false, "lstrip": false, "rstrip": false, "normalized": true, "special": false}, {"id": 48736, "content": "<unused_token_62>", "single_word": false, "lstrip": false, "rstrip": false, "normalized": true, "special": false}, {"id": 48737, "content": "<unused_token_63>", "single_word": false, "lstrip": false, "rstrip": false, "normalized": true, "special": false}, {"id": 48738, "content": "<unused_token_64>", "single_word": false, "lstrip": false, "rstrip": false, "normalized": true, "special": false}, {"id": 48739, "content": "<unused_token_65>", "single_word": false, "lstrip": false, "rstrip": false, "normalized": true, "special": false}, {"id": 48740, "content": "<unused_token_66>", "single_word": false, "lstrip": false, "rstrip": false, "normalized": true, "special": false}, {"id": 48741, "content": "<unused_token_67>", "single_word": false, "lstrip": false, "rstrip": false, "normalized": true, "special": false}, {"id": 48742, "content": "<unused_token_68>", "single_word": false, "lstrip": false, "rstrip": false, "normalized": true, "special": false}, {"id": 48743, "content": "<unused_token_69>", "single_word": false, "lstrip": false, "rstrip": false, "normalized": true, "special": false}, {"id": 48744, "content": "<unused_token_70>", "single_word": false, "lstrip": false, "rstrip": false, "normalized": true, "special": false}, {"id": 48745, "content": "<unused_token_71>", "single_word": false, "lstrip": false, "rstrip": false, "normalized": true, "special": false}, {"id": 48746, "content": "<unused_token_72>", "single_word": false, "lstrip": false, "rstrip": false, "normalized": true, "special": false}, {"id": 48747, "content": "<unused_token_73>", "single_word": false, "lstrip": false, "rstrip": false, "normalized": true, "special": false}, {"id": 48748, "content": "<unused_token_74>", "single_word": false, "lstrip": false, "rstrip": false, "normalized": true, "special": false}, {"id": 48749, "content": "<unused_token_75>", "single_word": false, "lstrip": false, "rstrip": false, "normalized": true, "special": false}, {"id": 48750, "content": "<unused_token_76>", "single_word": false, "lstrip": false, "rstrip": false, "normalized": true, "special": false}, {"id": 48751, "content": "<unused_token_77>", "single_word": false, "lstrip": false, "rstrip": false, "normalized": true, "special": false}, {"id": 48752, "content": "<unused_token_78>", "single_word": false, "lstrip": false, "rstrip": false, "normalized": true, "special": false}, {"id": 48753, "content": "<unused_token_79>", "single_word": false, "lstrip": false, "rstrip": false, "normalized": true, "special": false}, {"id": 48754, "content": "<unused_token_80>", "single_word": false, "lstrip": false, "rstrip": false, "normalized": true, "special": false}, {"id": 48755, "content": "<unused_token_81>", "single_word": false, "lstrip": false, "rstrip": false, "normalized": true, "special": false}, {"id": 48756, "content": "<unused_token_82>", "single_word": false, "lstrip": false, "rstrip": false, "normalized": true, "special": false}, {"id": 48757, "content": "<unused_token_83>", "single_word": false, "lstrip": false, "rstrip": false, "normalized": true, "special": false}, {"id": 48758, "content": "<unused_token_84>", "single_word": false, "lstrip": false, "rstrip": false, "normalized": true, "special": false}, {"id": 48759, "content": "<unused_token_85>", "single_word": false, "lstrip": false, "rstrip": false, "normalized": true, "special": false}, {"id": 48760, "content": "<unused_token_86>", "single_word": false, "lstrip": false, "rstrip": false, "normalized": true, "special": false}, {"id": 48761, "content": "<unused_token_87>", "single_word": false, "lstrip": false, "rstrip": false, "normalized": true, "special": false}, {"id": 48762, "content": "<unused_token_88>", "single_word": false, "lstrip": false, "rstrip": false, "normalized": true, "special": false}, {"id": 48763, "content": "<unused_token_89>", "single_word": false, "lstrip": false, "rstrip": false, "normalized": true, "special": false}, {"id": 48764, "content": "<unused_token_90>", "single_word": false, "lstrip": false, "rstrip": false, "normalized": true, "special": false}, {"id": 48765, "content": "<unused_token_91>", "single_word": false, "lstrip": false, "rstrip": false, "normalized": true, "special": false}, {"id": 48766, "content": "<unused_token_92>", "single_word": false, "lstrip": false, "rstrip": false, "normalized": true, "special": false}, {"id": 48767, "content": "<unused_token_93>", "single_word": false, "lstrip": false, "rstrip": false, "normalized": true, "special": false}, {"id": 48768, "content": "<unused_token_94>", "single_word": false, "lstrip": false, "rstrip": false, "normalized": true, "special": false}, {"id": 48769, "content": "<unused_token_95>", "single_word": false, "lstrip": false, "rstrip": false, "normalized": true, "special": false}, {"id": 48770, "content": "<unused_token_96>", "single_word": false, "lstrip": false, "rstrip": false, "normalized": true, "special": false}, {"id": 48771, "content": "<unused_token_97>", "single_word": false, "lstrip": false, "rstrip": false, "normalized": true, "special": false}, {"id": 48772, "content": "<unused_token_98>", "single_word": false, "lstrip": false, "rstrip": false, "normalized": true, "special": false}, {"id": 48773, "content": "<unused_token_99>", "single_word": false, "lstrip": false, "rstrip": false, "normalized": true, "special": false}, {"id": 48774, "content": "<unused_token_100>", "single_word": false, "lstrip": false, "rstrip": false, "normalized": true, "special": false}, {"id": 48775, "content": "<unused_token_101>", "single_word": false, "lstrip": false, "rstrip": false, "normalized": true, "special": false}, {"id": 48776, "content": "<unused_token_102>", "single_word": false, "lstrip": false, "rstrip": false, "normalized": true, "special": false}, {"id": 48777, "content": "<unused_token_103>", "single_word": false, "lstrip": false, "rstrip": false, "normalized": true, "special": false}, {"id": 48778, "content": "<unused_token_104>", "single_word": false, "lstrip": false, "rstrip": false, "normalized": true, "special": false}, {"id": 48779, "content": "<unused_token_105>", "single_word": false, "lstrip": false, "rstrip": false, "normalized": true, "special": false}, {"id": 48780, "content": "<unused_token_106>", "single_word": false, "lstrip": false, "rstrip": false, "normalized": true, "special": false}, {"id": 48781, "content": "<unused_token_107>", "single_word": false, "lstrip": false, "rstrip": false, "normalized": true, "special": false}, {"id": 48782, "content": "<unused_token_108>", "single_word": false, "lstrip": false, "rstrip": false, "normalized": true, "special": false}, {"id": 48783, "content": "<unused_token_109>", "single_word": false, "lstrip": false, "rstrip": false, "normalized": true, "special": false}, {"id": 48784, "content": "<unused_token_110>", "single_word": false, "lstrip": false, "rstrip": false, "normalized": true, "special": false}, {"id": 48785, "content": "<unused_token_111>", "single_word": false, "lstrip": false, "rstrip": false, "normalized": true, "special": false}, {"id": 48786, "content": "<unused_token_112>", "single_word": false, "lstrip": false, "rstrip": false, "normalized": true, "special": false}, {"id": 48787, "content": "<unused_token_113>", "single_word": false, "lstrip": false, "rstrip": false, "normalized": true, "special": false}, {"id": 48788, "content": "<unused_token_114>", "single_word": false, "lstrip": false, "rstrip": false, "normalized": true, "special": false}, {"id": 48789, "content": "<unused_token_115>", "single_word": false, "lstrip": false, "rstrip": false, "normalized": true, "special": false}, {"id": 48790, "content": "<unused_token_116>", "single_word": false, "lstrip": false, "rstrip": false, "normalized": true, "special": false}, {"id": 48791, "content": "<unused_token_117>", "single_word": false, "lstrip": false, "rstrip": false, "normalized": true, "special": false}, {"id": 48792, "content": "<unused_token_118>", "single_word": false, "lstrip": false, "rstrip": false, "normalized": true, "special": false}, {"id": 48793, "content": "<unused_token_119>", "single_word": false, "lstrip": false, "rstrip": false, "normalized": true, "special": false}, {"id": 48794, "content": "<unused_token_120>", "single_word": false, "lstrip": false, "rstrip": false, "normalized": true, "special": false}, {"id": 48795, "content": "<unused_token_121>", "single_word": false, "lstrip": false, "rstrip": false, "normalized": true, "special": false}, {"id": 48796, "content": "<unused_token_122>", "single_word": false, "lstrip": false, "rstrip": false, "normalized": true, "special": false}, {"id": 48797, "content": "<unused_token_123>", "single_word": false, "lstrip": false, "rstrip": false, "normalized": true, "special": false}, {"id": 48798, "content": "<unused_token_124>", "single_word": false, "lstrip": false, "rstrip": false, "normalized": true, "special": false}, {"id": 48799, "content": "<unused_token_125>", "single_word": false, "lstrip": false, "rstrip": false, "normalized": true, "special": false}, {"id": 48800, "content": "<unused_token_126>", "single_word": false, "lstrip": false, "rstrip": false, "normalized": true, "special": false}, {"id": 48801, "content": "<unused_token_127>", "single_word": false, "lstrip": false, "rstrip": false, "normalized": true, "special": false}, {"id": 48802, "content": "<unused_token_128>", "single_word": false, "lstrip": false, "rstrip": false, "normalized": true, "special": false}, {"id": 48803, "content": "<unused_token_129>", "single_word": false, "lstrip": false, "rstrip": false, "normalized": true, "special": false}, {"id": 48804, "content": "<unused_token_130>", "single_word": false, "lstrip": false, "rstrip": false, "normalized": true, "special": false}, {"id": 48805, "content": "<unused_token_131>", "single_word": false, "lstrip": false, "rstrip": false, "normalized": true, "special": false}, {"id": 48806, "content": "<unused_token_132>", "single_word": false, "lstrip": false, "rstrip": false, "normalized": true, "special": false}, {"id": 48807, "content": "<unused_token_133>", "single_word": false, "lstrip": false, "rstrip": false, "normalized": true, "special": false}, {"id": 48808, "content": "<unused_token_134>", "single_word": false, "lstrip": false, "rstrip": false, "normalized": true, "special": false}, {"id": 48809, "content": "<unused_token_135>", "single_word": false, "lstrip": false, "rstrip": false, "normalized": true, "special": false}, {"id": 48810, "content": "<unused_token_136>", "single_word": false, "lstrip": false, "rstrip": false, "normalized": true, "special": false}, {"id": 48811, "content": "<unused_token_137>", "single_word": false, "lstrip": false, "rstrip": false, "normalized": true, "special": false}, {"id": 48812, "content": "<unused_token_138>", "single_word": false, "lstrip": false, "rstrip": false, "normalized": true, "special": false}, {"id": 48813, "content": "<unused_token_139>", "single_word": false, "lstrip": false, "rstrip": false, "normalized": true, "special": false}, {"id": 48814, "content": "<unused_token_140>", "single_word": false, "lstrip": false, "rstrip": false, "normalized": true, "special": false}, {"id": 48815, "content": "<unused_token_141>", "single_word": false, "lstrip": false, "rstrip": false, "normalized": true, "special": false}, {"id": 48816, "content": "<unused_token_142>", "single_word": false, "lstrip": false, "rstrip": false, "normalized": true, "special": false}, {"id": 48817, "content": "<unused_token_143>", "single_word": false, "lstrip": false, "rstrip": false, "normalized": true, "special": false}, {"id": 48818, "content": "<unused_token_144>", "single_word": false, "lstrip": false, "rstrip": false, "normalized": true, "special": false}, {"id": 48819, "content": "<unused_token_145>", "single_word": false, "lstrip": false, "rstrip": false, "normalized": true, "special": false}, {"id": 48820, "content": "<unused_token_146>", "single_word": false, "lstrip": false, "rstrip": false, "normalized": true, "special": false}, {"id": 48821, "content": "<unused_token_147>", "single_word": false, "lstrip": false, "rstrip": false, "normalized": true, "special": false}, {"id": 48822, "content": "<unused_token_148>", "single_word": false, "lstrip": false, "rstrip": false, "normalized": true, "special": false}, {"id": 48823, "content": "<unused_token_149>", "single_word": false, "lstrip": false, "rstrip": false, "normalized": true, "special": false}, {"id": 48824, "content": "<unused_token_150>", "single_word": false, "lstrip": false, "rstrip": false, "normalized": true, "special": false}, {"id": 48825, "content": "<unused_token_151>", "single_word": false, "lstrip": false, "rstrip": false, "normalized": true, "special": false}, {"id": 48826, "content": "<unused_token_152>", "single_word": false, "lstrip": false, "rstrip": false, "normalized": true, "special": false}, {"id": 48827, "content": "<unused_token_153>", "single_word": false, "lstrip": false, "rstrip": false, "normalized": true, "special": false}, {"id": 48828, "content": "<unused_token_154>", "single_word": false, "lstrip": false, "rstrip": false, "normalized": true, "special": false}, {"id": 48829, "content": "<unused_token_155>", "single_word": false, "lstrip": false, "rstrip": false, "normalized": true, "special": false}, {"id": 48830, "content": "<unused_token_156>", "single_word": false, "lstrip": false, "rstrip": false, "normalized": true, "special": false}, {"id": 48831, "content": "<unused_token_157>", "single_word": false, "lstrip": false, "rstrip": false, "normalized": true, "special": false}, {"id": 48832, "content": "<unused_token_158>", "single_word": false, "lstrip": false, "rstrip": false, "normalized": true, "special": false}, {"id": 48833, "content": "<unused_token_159>", "single_word": false, "lstrip": false, "rstrip": false, "normalized": true, "special": false}, {"id": 48834, "content": "<unused_token_160>", "single_word": false, "lstrip": false, "rstrip": false, "normalized": true, "special": false}, {"id": 48835, "content": "<unused_token_161>", "single_word": false, "lstrip": false, "rstrip": false, "normalized": true, "special": false}, {"id": 48836, "content": "<unused_token_162>", "single_word": false, "lstrip": false, "rstrip": false, "normalized": true, "special": false}, {"id": 48837, "content": "<unused_token_163>", "single_word": false, "lstrip": false, "rstrip": false, "normalized": true, "special": false}, {"id": 48838, "content": "<unused_token_164>", "single_word": false, "lstrip": false, "rstrip": false, "normalized": true, "special": false}, {"id": 48839, "content": "<unused_token_165>", "single_word": false, "lstrip": false, "rstrip": false, "normalized": true, "special": false}, {"id": 48840, "content": "<unused_token_166>", "single_word": false, "lstrip": false, "rstrip": false, "normalized": true, "special": false}, {"id": 48841, "content": "<unused_token_167>", "single_word": false, "lstrip": false, "rstrip": false, "normalized": true, "special": false}, {"id": 48842, "content": "<unused_token_168>", "single_word": false, "lstrip": false, "rstrip": false, "normalized": true, "special": false}, {"id": 48843, "content": "<unused_token_169>", "single_word": false, "lstrip": false, "rstrip": false, "normalized": true, "special": false}, {"id": 48844, "content": "<unused_token_170>", "single_word": false, "lstrip": false, "rstrip": false, "normalized": true, "special": false}, {"id": 48845, "content": "<unused_token_171>", "single_word": false, "lstrip": false, "rstrip": false, "normalized": true, "special": false}, {"id": 48846, "content": "<unused_token_172>", "single_word": false, "lstrip": false, "rstrip": false, "normalized": true, "special": false}, {"id": 48847, "content": "<unused_token_173>", "single_word": false, "lstrip": false, "rstrip": false, "normalized": true, "special": false}, {"id": 48848, "content": "<unused_token_174>", "single_word": false, "lstrip": false, "rstrip": false, "normalized": true, "special": false}, {"id": 48849, "content": "<unused_token_175>", "single_word": false, "lstrip": false, "rstrip": false, "normalized": true, "special": false}, {"id": 48850, "content": "<unused_token_176>", "single_word": false, "lstrip": false, "rstrip": false, "normalized": true, "special": false}, {"id": 48851, "content": "<unused_token_177>", "single_word": false, "lstrip": false, "rstrip": false, "normalized": true, "special": false}, {"id": 48852, "content": "<unused_token_178>", "single_word": false, "lstrip": false, "rstrip": false, "normalized": true, "special": false}, {"id": 48853, "content": "<unused_token_179>", "single_word": false, "lstrip": false, "rstrip": false, "normalized": true, "special": false}, {"id": 48854, "content": "<unused_token_180>", "single_word": false, "lstrip": false, "rstrip": false, "normalized": true, "special": false}, {"id": 48855, "content": "<unused_token_181>", "single_word": false, "lstrip": false, "rstrip": false, "normalized": true, "special": false}, {"id": 48856, "content": "<unused_token_182>", "single_word": false, "lstrip": false, "rstrip": false, "normalized": true, "special": false}, {"id": 48857, "content": "<unused_token_183>", "single_word": false, "lstrip": false, "rstrip": false, "normalized": true, "special": false}, {"id": 48858, "content": "<unused_token_184>", "single_word": false, "lstrip": false, "rstrip": false, "normalized": true, "special": false}, {"id": 48859, "content": "<unused_token_185>", "single_word": false, "lstrip": false, "rstrip": false, "normalized": true, "special": false}, {"id": 48860, "content": "<unused_token_186>", "single_word": false, "lstrip": false, "rstrip": false, "normalized": true, "special": false}, {"id": 48861, "content": "<unused_token_187>", "single_word": false, "lstrip": false, "rstrip": false, "normalized": true, "special": false}, {"id": 48862, "content": "<unused_token_188>", "single_word": false, "lstrip": false, "rstrip": false, "normalized": true, "special": false}, {"id": 48863, "content": "<unused_token_189>", "single_word": false, "lstrip": false, "rstrip": false, "normalized": true, "special": false}, {"id": 48864, "content": "<unused_token_190>", "single_word": false, "lstrip": false, "rstrip": false, "normalized": true, "special": false}, {"id": 48865, "content": "<unused_token_191>", "single_word": false, "lstrip": false, "rstrip": false, "normalized": true, "special": false}, {"id": 48866, "content": "<unused_token_192>", "single_word": false, "lstrip": false, "rstrip": false, "normalized": true, "special": false}, {"id": 48867, "content": "<unused_token_193>", "single_word": false, "lstrip": false, "rstrip": false, "normalized": true, "special": false}, {"id": 48868, "content": "<unused_token_194>", "single_word": false, "lstrip": false, "rstrip": false, "normalized": true, "special": false}, {"id": 48869, "content": "<unused_token_195>", "single_word": false, "lstrip": false, "rstrip": false, "normalized": true, "special": false}, {"id": 48870, "content": "<unused_token_196>", "single_word": false, "lstrip": false, "rstrip": false, "normalized": true, "special": false}, {"id": 48871, "content": "<unused_token_197>", "single_word": false, "lstrip": false, "rstrip": false, "normalized": true, "special": false}, {"id": 48872, "content": "<unused_token_198>", "single_word": false, "lstrip": false, "rstrip": false, "normalized": true, "special": false}, {"id": 48873, "content": "<unused_token_199>", "single_word": false, "lstrip": false, "rstrip": false, "normalized": true, "special": false}, {"id": 48874, "content": "<unused_token_200>", "single_word": false, "lstrip": false, "rstrip": false, "normalized": true, "special": false}, {"id": 48875, "content": "<unused_token_201>", "single_word": false, "lstrip": false, "rstrip": false, "normalized": true, "special": false}, {"id": 48876, "content": "<unused_token_202>", "single_word": false, "lstrip": false, "rstrip": false, "normalized": true, "special": false}, {"id": 48877, "content": "<unused_token_203>", "single_word": false, "lstrip": false, "rstrip": false, "normalized": true, "special": false}, {"id": 48878, "content": "<unused_token_204>", "single_word": false, "lstrip": false, "rstrip": false, "normalized": true, "special": false}, {"id": 48879, "content": "<unused_token_205>", "single_word": false, "lstrip": false, "rstrip": false, "normalized": true, "special": false}, {"id": 48880, "content": "<unused_token_206>", "single_word": false, "lstrip": false, "rstrip": false, "normalized": true, "special": false}, {"id": 48881, "content": "<unused_token_207>", "single_word": false, "lstrip": false, "rstrip": false, "normalized": true, "special": false}, {"id": 48882, "content": "<unused_token_208>", "single_word": false, "lstrip": false, "rstrip": false, "normalized": true, "special": false}, {"id": 48883, "content": "<unused_token_209>", "single_word": false, "lstrip": false, "rstrip": false, "normalized": true, "special": false}, {"id": 48884, "content": "<unused_token_210>", "single_word": false, "lstrip": false, "rstrip": false, "normalized": true, "special": false}, {"id": 48885, "content": "<unused_token_211>", "single_word": false, "lstrip": false, "rstrip": false, "normalized": true, "special": false}, {"id": 48886, "content": "<unused_token_212>", "single_word": false, "lstrip": false, "rstrip": false, "normalized": true, "special": false}, {"id": 48887, "content": "<unused_token_213>", "single_word": false, "lstrip": false, "rstrip": false, "normalized": true, "special": false}, {"id": 48888, "content": "<unused_token_214>", "single_word": false, "lstrip": false, "rstrip": false, "normalized": true, "special": false}, {"id": 48889, "content": "<unused_token_215>", "single_word": false, "lstrip": false, "rstrip": false, "normalized": true, "special": false}, {"id": 48890, "content": "<unused_token_216>", "single_word": false, "lstrip": false, "rstrip": false, "normalized": true, "special": false}, {"id": 48891, "content": "<unused_token_217>", "single_word": false, "lstrip": false, "rstrip": false, "normalized": true, "special": false}, {"id": 48892, "content": "<unused_token_218>", "single_word": false, "lstrip": false, "rstrip": false, "normalized": true, "special": false}, {"id": 48893, "content": "<unused_token_219>", "single_word": false, "lstrip": false, "rstrip": false, "normalized": true, "special": false}, {"id": 48894, "content": "<unused_token_220>", "single_word": false, "lstrip": false, "rstrip": false, "normalized": true, "special": false}, {"id": 48895, "content": "<unused_token_221>", "single_word": false, "lstrip": false, "rstrip": false, "normalized": true, "special": false}, {"id": 48896, "content": "<unused_token_222>", "single_word": false, "lstrip": false, "rstrip": false, "normalized": true, "special": false}, {"id": 48897, "content": "<unused_token_223>", "single_word": false, "lstrip": false, "rstrip": false, "normalized": true, "special": false}, {"id": 48898, "content": "<unused_token_224>", "single_word": false, "lstrip": false, "rstrip": false, "normalized": true, "special": false}, {"id": 48899, "content": "<unused_token_225>", "single_word": false, "lstrip": false, "rstrip": false, "normalized": true, "special": false}, {"id": 48900, "content": "<unused_token_226>", "single_word": false, "lstrip": false, "rstrip": false, "normalized": true, "special": false}, {"id": 48901, "content": "<unused_token_227>", "single_word": false, "lstrip": false, "rstrip": false, "normalized": true, "special": false}, {"id": 48902, "content": "<unused_token_228>", "single_word": false, "lstrip": false, "rstrip": false, "normalized": true, "special": false}, {"id": 48903, "content": "<unused_token_229>", "single_word": false, "lstrip": false, "rstrip": false, "normalized": true, "special": false}, {"id": 48904, "content": "<unused_token_230>", "single_word": false, "lstrip": false, "rstrip": false, "normalized": true, "special": false}, {"id": 48905, "content": "<unused_token_231>", "single_word": false, "lstrip": false, "rstrip": false, "normalized": true, "special": false}, {"id": 48906, "content": "<unused_token_232>", "single_word": false, "lstrip": false, "rstrip": false, "normalized": true, "special": false}, {"id": 48907, "content": "<unused_token_233>", "single_word": false, "lstrip": false, "rstrip": false, "normalized": true, "special": false}, {"id": 48908, "content": "<unused_token_234>", "single_word": false, "lstrip": false, "rstrip": false, "normalized": true, "special": false}, {"id": 48909, "content": "<unused_token_235>", "single_word": false, "lstrip": false, "rstrip": false, "normalized": true, "special": false}, {"id": 48910, "content": "<unused_token_236>", "single_word": false, "lstrip": false, "rstrip": false, "normalized": true, "special": false}, {"id": 48911, "content": "<unused_token_237>", "single_word": false, "lstrip": false, "rstrip": false, "normalized": true, "special": false}, {"id": 48912, "content": "<unused_token_238>", "single_word": false, "lstrip": false, "rstrip": false, "normalized": true, "special": false}, {"id": 48913, "content": "<unused_token_239>", "single_word": false, "lstrip": false, "rstrip": false, "normalized": true, "special": false}, {"id": 48914, "content": "<unused_token_240>", "single_word": false, "lstrip": false, "rstrip": false, "normalized": true, "special": false}, {"id": 48915, "content": "<unused_token_241>", "single_word": false, "lstrip": false, "rstrip": false, "normalized": true, "special": false}, {"id": 48916, "content": "<unused_token_242>", "single_word": false, "lstrip": false, "rstrip": false, "normalized": true, "special": false}, {"id": 48917, "content": "<unused_token_243>", "single_word": false, "lstrip": false, "rstrip": false, "normalized": true, "special": false}, {"id": 48918, "content": "<unused_token_244>", "single_word": false, "lstrip": false, "rstrip": false, "normalized": true, "special": false}, {"id": 48919, "content": "<unused_token_245>", "single_word": false, "lstrip": false, "rstrip": false, "normalized": true, "special": false}, {"id": 48920, "content": "<unused_token_246>", "single_word": false, "lstrip": false, "rstrip": false, "normalized": true, "special": false}, {"id": 48921, "content": "<unused_token_247>", "single_word": false, "lstrip": false, "rstrip": false, "normalized": true, "special": false}, {"id": 48922, "content": "<unused_token_248>", "single_word": false, "lstrip": false, "rstrip": false, "normalized": true, "special": false}, {"id": 48923, "content": "<unused_token_249>", "single_word": false, "lstrip": false, "rstrip": false, "normalized": true, "special": false}, {"id": 48924, "content": "<unused_token_250>", "single_word": false, "lstrip": false, "rstrip": false, "normalized": true, "special": false}, {"id": 48925, "content": "<unused_token_251>", "single_word": false, "lstrip": false, "rstrip": false, "normalized": true, "special": false}, {"id": 48926, "content": "<unused_token_252>", "single_word": false, "lstrip": false, "rstrip": false, "normalized": true, "special": false}, {"id": 48927, "content": "<unused_token_253>", "single_word": false, "lstrip": false, "rstrip": false, "normalized": true, "special": false}, {"id": 48928, "content": "<unused_token_254>", "single_word": false, "lstrip": false, "rstrip": false, "normalized": true, "special": false}, {"id": 48929, "content": "<unused_token_255>", "single_word": false, "lstrip": false, "rstrip": false, "normalized": true, "special": false}, {"id": 48930, "content": "<unused_token_256>", "single_word": false, "lstrip": false, "rstrip": false, "normalized": true, "special": false}, {"id": 48931, "content": "<unused_token_257>", "single_word": false, "lstrip": false, "rstrip": false, "normalized": true, "special": false}, {"id": 48932, "content": "<unused_token_258>", "single_word": false, "lstrip": false, "rstrip": false, "normalized": true, "special": false}, {"id": 48933, "content": "<unused_token_259>", "single_word": false, "lstrip": false, "rstrip": false, "normalized": true, "special": false}, {"id": 48934, "content": "<unused_token_260>", "single_word": false, "lstrip": false, "rstrip": false, "normalized": true, "special": false}, {"id": 48935, "content": "<unused_token_261>", "single_word": false, "lstrip": false, "rstrip": false, "normalized": true, "special": false}, {"id": 48936, "content": "<unused_token_262>", "single_word": false, "lstrip": false, "rstrip": false, "normalized": true, "special": false}, {"id": 48937, "content": "<unused_token_263>", "single_word": false, "lstrip": false, "rstrip": false, "normalized": true, "special": false}, {"id": 48938, "content": "<unused_token_264>", "single_word": false, "lstrip": false, "rstrip": false, "normalized": true, "special": false}, {"id": 48939, "content": "<unused_token_265>", "single_word": false, "lstrip": false, "rstrip": false, "normalized": true, "special": false}, {"id": 48940, "content": "<unused_token_266>", "single_word": false, "lstrip": false, "rstrip": false, "normalized": true, "special": false}, {"id": 48941, "content": "<unused_token_267>", "single_word": false, "lstrip": false, "rstrip": false, "normalized": true, "special": false}, {"id": 48942, "content": "<unused_token_268>", "single_word": false, "lstrip": false, "rstrip": false, "normalized": true, "special": false}, {"id": 48943, "content": "<unused_token_269>", "single_word": false, "lstrip": false, "rstrip": false, "normalized": true, "special": false}, {"id": 48944, "content": "<unused_token_270>", "single_word": false, "lstrip": false, "rstrip": false, "normalized": true, "special": false}, {"id": 48945, "content": "<unused_token_271>", "single_word": false, "lstrip": false, "rstrip": false, "normalized": true, "special": false}, {"id": 48946, "content": "<unused_token_272>", "single_word": false, "lstrip": false, "rstrip": false, "normalized": true, "special": false}, {"id": 48947, "content": "<unused_token_273>", "single_word": false, "lstrip": false, "rstrip": false, "normalized": true, "special": false}, {"id": 48948, "content": "<unused_token_274>", "single_word": false, "lstrip": false, "rstrip": false, "normalized": true, "special": false}, {"id": 48949, "content": "<unused_token_275>", "single_word": false, "lstrip": false, "rstrip": false, "normalized": true, "special": false}, {"id": 48950, "content": "<unused_token_276>", "single_word": false, "lstrip": false, "rstrip": false, "normalized": true, "special": false}, {"id": 48951, "content": "<unused_token_277>", "single_word": false, "lstrip": false, "rstrip": false, "normalized": true, "special": false}, {"id": 48952, "content": "<unused_token_278>", "single_word": false, "lstrip": false, "rstrip": false, "normalized": true, "special": false}, {"id": 48953, "content": "<unused_token_279>", "single_word": false, "lstrip": false, "rstrip": false, "normalized": true, "special": false}, {"id": 48954, "content": "<unused_token_280>", "single_word": false, "lstrip": false, "rstrip": false, "normalized": true, "special": false}, {"id": 48955, "content": "<unused_token_281>", "single_word": false, "lstrip": false, "rstrip": false, "normalized": true, "special": false}, {"id": 48956, "content": "<unused_token_282>", "single_word": false, "lstrip": false, "rstrip": false, "normalized": true, "special": false}, {"id": 48957, "content": "<unused_token_283>", "single_word": false, "lstrip": false, "rstrip": false, "normalized": true, "special": false}, {"id": 48958, "content": "<unused_token_284>", "single_word": false, "lstrip": false, "rstrip": false, "normalized": true, "special": false}, {"id": 48959, "content": "<unused_token_285>", "single_word": false, "lstrip": false, "rstrip": false, "normalized": true, "special": false}, {"id": 48960, "content": "<unused_token_286>", "single_word": false, "lstrip": false, "rstrip": false, "normalized": true, "special": false}, {"id": 48961, "content": "<unused_token_287>", "single_word": false, "lstrip": false, "rstrip": false, "normalized": true, "special": false}, {"id": 48962, "content": "<unused_token_288>", "single_word": false, "lstrip": false, "rstrip": false, "normalized": true, "special": false}, {"id": 48963, "content": "<unused_token_289>", "single_word": false, "lstrip": false, "rstrip": false, "normalized": true, "special": false}, {"id": 48964, "content": "<unused_token_290>", "single_word": false, "lstrip": false, "rstrip": false, "normalized": true, "special": false}, {"id": 48965, "content": "<unused_token_291>", "single_word": false, "lstrip": false, "rstrip": false, "normalized": true, "special": false}, {"id": 48966, "content": "<unused_token_292>", "single_word": false, "lstrip": false, "rstrip": false, "normalized": true, "special": false}, {"id": 48967, "content": "<unused_token_293>", "single_word": false, "lstrip": false, "rstrip": false, "normalized": true, "special": false}, {"id": 48968, "content": "<unused_token_294>", "single_word": false, "lstrip": false, "rstrip": false, "normalized": true, "special": false}, {"id": 48969, "content": "<unused_token_295>", "single_word": false, "lstrip": false, "rstrip": false, "normalized": true, "special": false}, {"id": 48970, "content": "<unused_token_296>", "single_word": false, "lstrip": false, "rstrip": false, "normalized": true, "special": false}, {"id": 48971, "content": "<unused_token_297>", "single_word": false, "lstrip": false, "rstrip": false, "normalized": true, "special": false}, {"id": 48972, "content": "<unused_token_298>", "single_word": false, "lstrip": false, "rstrip": false, "normalized": true, "special": false}, {"id": 48973, "content": "<unused_token_299>", "single_word": false, "lstrip": false, "rstrip": false, "normalized": true, "special": false}, {"id": 48974, "content": "<unused_token_300>", "single_word": false, "lstrip": false, "rstrip": false, "normalized": true, "special": false}, {"id": 48975, "content": "<unused_token_301>", "single_word": false, "lstrip": false, "rstrip": false, "normalized": true, "special": false}, {"id": 48976, "content": "<unused_token_302>", "single_word": false, "lstrip": false, "rstrip": false, "normalized": true, "special": false}, {"id": 48977, "content": "<unused_token_303>", "single_word": false, "lstrip": false, "rstrip": false, "normalized": true, "special": false}, {"id": 48978, "content": "<unused_token_304>", "single_word": false, "lstrip": false, "rstrip": false, "normalized": true, "special": false}, {"id": 48979, "content": "<unused_token_305>", "single_word": false, "lstrip": false, "rstrip": false, "normalized": true, "special": false}, {"id": 48980, "content": "<unused_token_306>", "single_word": false, "lstrip": false, "rstrip": false, "normalized": true, "special": false}, {"id": 48981, "content": "<unused_token_307>", "single_word": false, "lstrip": false, "rstrip": false, "normalized": true, "special": false}, {"id": 48982, "content": "<unused_token_308>", "single_word": false, "lstrip": false, "rstrip": false, "normalized": true, "special": false}, {"id": 48983, "content": "<unused_token_309>", "single_word": false, "lstrip": false, "rstrip": false, "normalized": true, "special": false}, {"id": 48984, "content": "<unused_token_310>", "single_word": false, "lstrip": false, "rstrip": false, "normalized": true, "special": false}, {"id": 48985, "content": "<unused_token_311>", "single_word": false, "lstrip": false, "rstrip": false, "normalized": true, "special": false}, {"id": 48986, "content": "<unused_token_312>", "single_word": false, "lstrip": false, "rstrip": false, "normalized": true, "special": false}, {"id": 48987, "content": "<unused_token_313>", "single_word": false, "lstrip": false, "rstrip": false, "normalized": true, "special": false}, {"id": 48988, "content": "<unused_token_314>", "single_word": false, "lstrip": false, "rstrip": false, "normalized": true, "special": false}, {"id": 48989, "content": "<unused_token_315>", "single_word": false, "lstrip": false, "rstrip": false, "normalized": true, "special": false}, {"id": 48990, "content": "<unused_token_316>", "single_word": false, "lstrip": false, "rstrip": false, "normalized": true, "special": false}, {"id": 48991, "content": "<unused_token_317>", "single_word": false, "lstrip": false, "rstrip": false, "normalized": true, "special": false}, {"id": 48992, "content": "<unused_token_318>", "single_word": false, "lstrip": false, "rstrip": false, "normalized": true, "special": false}, {"id": 48993, "content": "<unused_token_319>", "single_word": false, "lstrip": false, "rstrip": false, "normalized": true, "special": false}, {"id": 48994, "content": "<unused_token_320>", "single_word": false, "lstrip": false, "rstrip": false, "normalized": true, "special": false}, {"id": 48995, "content": "<unused_token_321>", "single_word": false, "lstrip": false, "rstrip": false, "normalized": true, "special": false}, {"id": 48996, "content": "<unused_token_322>", "single_word": false, "lstrip": false, "rstrip": false, "normalized": true, "special": false}, {"id": 48997, "content": "<unused_token_323>", "single_word": false, "lstrip": false, "rstrip": false, "normalized": true, "special": false}, {"id": 48998, "content": "<unused_token_324>", "single_word": false, "lstrip": false, "rstrip": false, "normalized": true, "special": false}, {"id": 48999, "content": "<unused_token_325>", "single_word": false, "lstrip": false, "rstrip": false, "normalized": true, "special": false}, {"id": 49000, "content": "<unused_token_326>", "single_word": false, "lstrip": false, "rstrip": false, "normalized": true, "special": false}, {"id": 49001, "content": "<unused_token_327>", "single_word": false, "lstrip": false, "rstrip": false, "normalized": true, "special": false}, {"id": 49002, "content": "<unused_token_328>", "single_word": false, "lstrip": false, "rstrip": false, "normalized": true, "special": false}, {"id": 49003, "content": "<unused_token_329>", "single_word": false, "lstrip": false, "rstrip": false, "normalized": true, "special": false}, {"id": 49004, "content": "<unused_token_330>", "single_word": false, "lstrip": false, "rstrip": false, "normalized": true, "special": false}, {"id": 49005, "content": "<unused_token_331>", "single_word": false, "lstrip": false, "rstrip": false, "normalized": true, "special": false}, {"id": 49006, "content": "<unused_token_332>", "single_word": false, "lstrip": false, "rstrip": false, "normalized": true, "special": false}, {"id": 49007, "content": "<unused_token_333>", "single_word": false, "lstrip": false, "rstrip": false, "normalized": true, "special": false}, {"id": 49008, "content": "<unused_token_334>", "single_word": false, "lstrip": false, "rstrip": false, "normalized": true, "special": false}, {"id": 49009, "content": "<unused_token_335>", "single_word": false, "lstrip": false, "rstrip": false, "normalized": true, "special": false}, {"id": 49010, "content": "<unused_token_336>", "single_word": false, "lstrip": false, "rstrip": false, "normalized": true, "special": false}, {"id": 49011, "content": "<unused_token_337>", "single_word": false, "lstrip": false, "rstrip": false, "normalized": true, "special": false}, {"id": 49012, "content": "<unused_token_338>", "single_word": false, "lstrip": false, "rstrip": false, "normalized": true, "special": false}, {"id": 49013, "content": "<unused_token_339>", "single_word": false, "lstrip": false, "rstrip": false, "normalized": true, "special": false}, {"id": 49014, "content": "<unused_token_340>", "single_word": false, "lstrip": false, "rstrip": false, "normalized": true, "special": false}, {"id": 49015, "content": "<unused_token_341>", "single_word": false, "lstrip": false, "rstrip": false, "normalized": true, "special": false}, {"id": 49016, "content": "<unused_token_342>", "single_word": false, "lstrip": false, "rstrip": false, "normalized": true, "special": false}, {"id": 49017, "content": "<unused_token_343>", "single_word": false, "lstrip": false, "rstrip": false, "normalized": true, "special": false}, {"id": 49018, "content": "<unused_token_344>", "single_word": false, "lstrip": false, "rstrip": false, "normalized": true, "special": false}, {"id": 49019, "content": "<unused_token_345>", "single_word": false, "lstrip": false, "rstrip": false, "normalized": true, "special": false}, {"id": 49020, "content": "<unused_token_346>", "single_word": false, "lstrip": false, "rstrip": false, "normalized": true, "special": false}, {"id": 49021, "content": "<unused_token_347>", "single_word": false, "lstrip": false, "rstrip": false, "normalized": true, "special": false}, {"id": 49022, "content": "<unused_token_348>", "single_word": false, "lstrip": false, "rstrip": false, "normalized": true, "special": false}, {"id": 49023, "content": "<unused_token_349>", "single_word": false, "lstrip": false, "rstrip": false, "normalized": true, "special": false}, {"id": 49024, "content": "<unused_token_350>", "single_word": false, "lstrip": false, "rstrip": false, "normalized": true, "special": false}, {"id": 49025, "content": "<unused_token_351>", "single_word": false, "lstrip": false, "rstrip": false, "normalized": true, "special": false}, {"id": 49026, "content": "<unused_token_352>", "single_word": false, "lstrip": false, "rstrip": false, "normalized": true, "special": false}, {"id": 49027, "content": "<unused_token_353>", "single_word": false, "lstrip": false, "rstrip": false, "normalized": true, "special": false}, {"id": 49028, "content": "<unused_token_354>", "single_word": false, "lstrip": false, "rstrip": false, "normalized": true, "special": false}, {"id": 49029, "content": "<unused_token_355>", "single_word": false, "lstrip": false, "rstrip": false, "normalized": true, "special": false}, {"id": 49030, "content": "<unused_token_356>", "single_word": false, "lstrip": false, "rstrip": false, "normalized": true, "special": false}, {"id": 49031, "content": "<unused_token_357>", "single_word": false, "lstrip": false, "rstrip": false, "normalized": true, "special": false}, {"id": 49032, "content": "<unused_token_358>", "single_word": false, "lstrip": false, "rstrip": false, "normalized": true, "special": false}, {"id": 49033, "content": "<unused_token_359>", "single_word": false, "lstrip": false, "rstrip": false, "normalized": true, "special": false}, {"id": 49034, "content": "<unused_token_360>", "single_word": false, "lstrip": false, "rstrip": false, "normalized": true, "special": false}, {"id": 49035, "content": "<unused_token_361>", "single_word": false, "lstrip": false, "rstrip": false, "normalized": true, "special": false}, {"id": 49036, "content": "<unused_token_362>", "single_word": false, "lstrip": false, "rstrip": false, "normalized": true, "special": false}, {"id": 49037, "content": "<unused_token_363>", "single_word": false, "lstrip": false, "rstrip": false, "normalized": true, "special": false}, {"id": 49038, "content": "<unused_token_364>", "single_word": false, "lstrip": false, "rstrip": false, "normalized": true, "special": false}, {"id": 49039, "content": "<unused_token_365>", "single_word": false, "lstrip": false, "rstrip": false, "normalized": true, "special": false}, {"id": 49040, "content": "<unused_token_366>", "single_word": false, "lstrip": false, "rstrip": false, "normalized": true, "special": false}, {"id": 49041, "content": "<unused_token_367>", "single_word": false, "lstrip": false, "rstrip": false, "normalized": true, "special": false}, {"id": 49042, "content": "<unused_token_368>", "single_word": false, "lstrip": false, "rstrip": false, "normalized": true, "special": false}, {"id": 49043, "content": "<unused_token_369>", "single_word": false, "lstrip": false, "rstrip": false, "normalized": true, "special": false}, {"id": 49044, "content": "<unused_token_370>", "single_word": false, "lstrip": false, "rstrip": false, "normalized": true, "special": false}, {"id": 49045, "content": "<unused_token_371>", "single_word": false, "lstrip": false, "rstrip": false, "normalized": true, "special": false}, {"id": 49046, "content": "<unused_token_372>", "single_word": false, "lstrip": false, "rstrip": false, "normalized": true, "special": false}, {"id": 49047, "content": "<unused_token_373>", "single_word": false, "lstrip": false, "rstrip": false, "normalized": true, "special": false}, {"id": 49048, "content": "<unused_token_374>", "single_word": false, "lstrip": false, "rstrip": false, "normalized": true, "special": false}, {"id": 49049, "content": "<unused_token_375>", "single_word": false, "lstrip": false, "rstrip": false, "normalized": true, "special": false}, {"id": 49050, "content": "<unused_token_376>", "single_word": false, "lstrip": false, "rstrip": false, "normalized": true, "special": false}, {"id": 49051, "content": "<unused_token_377>", "single_word": false, "lstrip": false, "rstrip": false, "normalized": true, "special": false}, {"id": 49052, "content": "<unused_token_378>", "single_word": false, "lstrip": false, "rstrip": false, "normalized": true, "special": false}, {"id": 49053, "content": "<unused_token_379>", "single_word": false, "lstrip": false, "rstrip": false, "normalized": true, "special": false}, {"id": 49054, "content": "<unused_token_380>", "single_word": false, "lstrip": false, "rstrip": false, "normalized": true, "special": false}, {"id": 49055, "content": "<unused_token_381>", "single_word": false, "lstrip": false, "rstrip": false, "normalized": true, "special": false}, {"id": 49056, "content": "<unused_token_382>", "single_word": false, "lstrip": false, "rstrip": false, "normalized": true, "special": false}, {"id": 49057, "content": "<unused_token_383>", "single_word": false, "lstrip": false, "rstrip": false, "normalized": true, "special": false}, {"id": 49058, "content": "<unused_token_384>", "single_word": false, "lstrip": false, "rstrip": false, "normalized": true, "special": false}, {"id": 49059, "content": "<unused_token_385>", "single_word": false, "lstrip": false, "rstrip": false, "normalized": true, "special": false}, {"id": 49060, "content": "<unused_token_386>", "single_word": false, "lstrip": false, "rstrip": false, "normalized": true, "special": false}, {"id": 49061, "content": "<unused_token_387>", "single_word": false, "lstrip": false, "rstrip": false, "normalized": true, "special": false}, {"id": 49062, "content": "<unused_token_388>", "single_word": false, "lstrip": false, "rstrip": false, "normalized": true, "special": false}, {"id": 49063, "content": "<unused_token_389>", "single_word": false, "lstrip": false, "rstrip": false, "normalized": true, "special": false}, {"id": 49064, "content": "<unused_token_390>", "single_word": false, "lstrip": false, "rstrip": false, "normalized": true, "special": false}, {"id": 49065, "content": "<unused_token_391>", "single_word": false, "lstrip": false, "rstrip": false, "normalized": true, "special": false}, {"id": 49066, "content": "<unused_token_392>", "single_word": false, "lstrip": false, "rstrip": false, "normalized": true, "special": false}, {"id": 49067, "content": "<unused_token_393>", "single_word": false, "lstrip": false, "rstrip": false, "normalized": true, "special": false}, {"id": 49068, "content": "<unused_token_394>", "single_word": false, "lstrip": false, "rstrip": false, "normalized": true, "special": false}, {"id": 49069, "content": "<unused_token_395>", "single_word": false, "lstrip": false, "rstrip": false, "normalized": true, "special": false}, {"id": 49070, "content": "<unused_token_396>", "single_word": false, "lstrip": false, "rstrip": false, "normalized": true, "special": false}, {"id": 49071, "content": "<unused_token_397>", "single_word": false, "lstrip": false, "rstrip": false, "normalized": true, "special": false}, {"id": 49072, "content": "<unused_token_398>", "single_word": false, "lstrip": false, "rstrip": false, "normalized": true, "special": false}, {"id": 49073, "content": "<unused_token_399>", "single_word": false, "lstrip": false, "rstrip": false, "normalized": true, "special": false}, {"id": 49074, "content": "<unused_token_400>", "single_word": false, "lstrip": false, "rstrip": false, "normalized": true, "special": false}, {"id": 49075, "content": "<unused_token_401>", "single_word": false, "lstrip": false, "rstrip": false, "normalized": true, "special": false}, {"id": 49076, "content": "<unused_token_402>", "single_word": false, "lstrip": false, "rstrip": false, "normalized": true, "special": false}, {"id": 49077, "content": "<unused_token_403>", "single_word": false, "lstrip": false, "rstrip": false, "normalized": true, "special": false}, {"id": 49078, "content": "<unused_token_404>", "single_word": false, "lstrip": false, "rstrip": false, "normalized": true, "special": false}, {"id": 49079, "content": "<unused_token_405>", "single_word": false, "lstrip": false, "rstrip": false, "normalized": true, "special": false}, {"id": 49080, "content": "<unused_token_406>", "single_word": false, "lstrip": false, "rstrip": false, "normalized": true, "special": false}, {"id": 49081, "content": "<unused_token_407>", "single_word": false, "lstrip": false, "rstrip": false, "normalized": true, "special": false}, {"id": 49082, "content": "<unused_token_408>", "single_word": false, "lstrip": false, "rstrip": false, "normalized": true, "special": false}, {"id": 49083, "content": "<unused_token_409>", "single_word": false, "lstrip": false, "rstrip": false, "normalized": true, "special": false}, {"id": 49084, "content": "<unused_token_410>", "single_word": false, "lstrip": false, "rstrip": false, "normalized": true, "special": false}, {"id": 49085, "content": "<unused_token_411>", "single_word": false, "lstrip": false, "rstrip": false, "normalized": true, "special": false}, {"id": 49086, "content": "<unused_token_412>", "single_word": false, "lstrip": false, "rstrip": false, "normalized": true, "special": false}, {"id": 49087, "content": "<unused_token_413>", "single_word": false, "lstrip": false, "rstrip": false, "normalized": true, "special": false}, {"id": 49088, "content": "<unused_token_414>", "single_word": false, "lstrip": false, "rstrip": false, "normalized": true, "special": false}, {"id": 49089, "content": "<unused_token_415>", "single_word": false, "lstrip": false, "rstrip": false, "normalized": true, "special": false}, {"id": 49090, "content": "<unused_token_416>", "single_word": false, "lstrip": false, "rstrip": false, "normalized": true, "special": false}, {"id": 49091, "content": "<unused_token_417>", "single_word": false, "lstrip": false, "rstrip": false, "normalized": true, "special": false}, {"id": 49092, "content": "<unused_token_418>", "single_word": false, "lstrip": false, "rstrip": false, "normalized": true, "special": false}, {"id": 49093, "content": "<unused_token_419>", "single_word": false, "lstrip": false, "rstrip": false, "normalized": true, "special": false}, {"id": 49094, "content": "<unused_token_420>", "single_word": false, "lstrip": false, "rstrip": false, "normalized": true, "special": false}, {"id": 49095, "content": "<unused_token_421>", "single_word": false, "lstrip": false, "rstrip": false, "normalized": true, "special": false}, {"id": 49096, "content": "<unused_token_422>", "single_word": false, "lstrip": false, "rstrip": false, "normalized": true, "special": false}, {"id": 49097, "content": "<unused_token_423>", "single_word": false, "lstrip": false, "rstrip": false, "normalized": true, "special": false}, {"id": 49098, "content": "<unused_token_424>", "single_word": false, "lstrip": false, "rstrip": false, "normalized": true, "special": false}, {"id": 49099, "content": "<unused_token_425>", "single_word": false, "lstrip": false, "rstrip": false, "normalized": true, "special": false}, {"id": 49100, "content": "<unused_token_426>", "single_word": false, "lstrip": false, "rstrip": false, "normalized": true, "special": false}, {"id": 49101, "content": "<unused_token_427>", "single_word": false, "lstrip": false, "rstrip": false, "normalized": true, "special": false}, {"id": 49102, "content": "<unused_token_428>", "single_word": false, "lstrip": false, "rstrip": false, "normalized": true, "special": false}, {"id": 49103, "content": "<unused_token_429>", "single_word": false, "lstrip": false, "rstrip": false, "normalized": true, "special": false}, {"id": 49104, "content": "<unused_token_430>", "single_word": false, "lstrip": false, "rstrip": false, "normalized": true, "special": false}, {"id": 49105, "content": "<unused_token_431>", "single_word": false, "lstrip": false, "rstrip": false, "normalized": true, "special": false}, {"id": 49106, "content": "<unused_token_432>", "single_word": false, "lstrip": false, "rstrip": false, "normalized": true, "special": false}, {"id": 49107, "content": "<unused_token_433>", "single_word": false, "lstrip": false, "rstrip": false, "normalized": true, "special": false}, {"id": 49108, "content": "<unused_token_434>", "single_word": false, "lstrip": false, "rstrip": false, "normalized": true, "special": false}, {"id": 49109, "content": "<unused_token_435>", "single_word": false, "lstrip": false, "rstrip": false, "normalized": true, "special": false}, {"id": 49110, "content": "<unused_token_436>", "single_word": false, "lstrip": false, "rstrip": false, "normalized": true, "special": false}, {"id": 49111, "content": "<unused_token_437>", "single_word": false, "lstrip": false, "rstrip": false, "normalized": true, "special": false}, {"id": 49112, "content": "<unused_token_438>", "single_word": false, "lstrip": false, "rstrip": false, "normalized": true, "special": false}, {"id": 49113, "content": "<unused_token_439>", "single_word": false, "lstrip": false, "rstrip": false, "normalized": true, "special": false}, {"id": 49114, "content": "<unused_token_440>", "single_word": false, "lstrip": false, "rstrip": false, "normalized": true, "special": false}, {"id": 49115, "content": "<unused_token_441>", "single_word": false, "lstrip": false, "rstrip": false, "normalized": true, "special": false}, {"id": 49116, "content": "<unused_token_442>", "single_word": false, "lstrip": false, "rstrip": false, "normalized": true, "special": false}, {"id": 49117, "content": "<unused_token_443>", "single_word": false, "lstrip": false, "rstrip": false, "normalized": true, "special": false}, {"id": 49118, "content": "<unused_token_444>", "single_word": false, "lstrip": false, "rstrip": false, "normalized": true, "special": false}, {"id": 49119, "content": "<unused_token_445>", "single_word": false, "lstrip": false, "rstrip": false, "normalized": true, "special": false}, {"id": 49120, "content": "<unused_token_446>", "single_word": false, "lstrip": false, "rstrip": false, "normalized": true, "special": false}, {"id": 49121, "content": "<unused_token_447>", "single_word": false, "lstrip": false, "rstrip": false, "normalized": true, "special": false}, {"id": 49122, "content": "<unused_token_448>", "single_word": false, "lstrip": false, "rstrip": false, "normalized": true, "special": false}, {"id": 49123, "content": "<unused_token_449>", "single_word": false, "lstrip": false, "rstrip": false, "normalized": true, "special": false}, {"id": 49124, "content": "<unused_token_450>", "single_word": false, "lstrip": false, "rstrip": false, "normalized": true, "special": false}, {"id": 49125, "content": "<unused_token_451>", "single_word": false, "lstrip": false, "rstrip": false, "normalized": true, "special": false}, {"id": 49126, "content": "<unused_token_452>", "single_word": false, "lstrip": false, "rstrip": false, "normalized": true, "special": false}, {"id": 49127, "content": "<unused_token_453>", "single_word": false, "lstrip": false, "rstrip": false, "normalized": true, "special": false}, {"id": 49128, "content": "<unused_token_454>", "single_word": false, "lstrip": false, "rstrip": false, "normalized": true, "special": false}, {"id": 49129, "content": "<unused_token_455>", "single_word": false, "lstrip": false, "rstrip": false, "normalized": true, "special": false}, {"id": 49130, "content": "<unused_token_456>", "single_word": false, "lstrip": false, "rstrip": false, "normalized": true, "special": false}, {"id": 49131, "content": "<unused_token_457>", "single_word": false, "lstrip": false, "rstrip": false, "normalized": true, "special": false}, {"id": 49132, "content": "<unused_token_458>", "single_word": false, "lstrip": false, "rstrip": false, "normalized": true, "special": false}, {"id": 49133, "content": "<unused_token_459>", "single_word": false, "lstrip": false, "rstrip": false, "normalized": true, "special": false}, {"id": 49134, "content": "<unused_token_460>", "single_word": false, "lstrip": false, "rstrip": false, "normalized": true, "special": false}, {"id": 49135, "content": "<unused_token_461>", "single_word": false, "lstrip": false, "rstrip": false, "normalized": true, "special": false}, {"id": 49136, "content": "<unused_token_462>", "single_word": false, "lstrip": false, "rstrip": false, "normalized": true, "special": false}, {"id": 49137, "content": "<unused_token_463>", "single_word": false, "lstrip": false, "rstrip": false, "normalized": true, "special": false}, {"id": 49138, "content": "<unused_token_464>", "single_word": false, "lstrip": false, "rstrip": false, "normalized": true, "special": false}, {"id": 49139, "content": "<unused_token_465>", "single_word": false, "lstrip": false, "rstrip": false, "normalized": true, "special": false}, {"id": 49140, "content": "<unused_token_466>", "single_word": false, "lstrip": false, "rstrip": false, "normalized": true, "special": false}, {"id": 49141, "content": "<unused_token_467>", "single_word": false, "lstrip": false, "rstrip": false, "normalized": true, "special": false}, {"id": 49142, "content": "<unused_token_468>", "single_word": false, "lstrip": false, "rstrip": false, "normalized": true, "special": false}, {"id": 49143, "content": "<unused_token_469>", "single_word": false, "lstrip": false, "rstrip": false, "normalized": true, "special": false}, {"id": 49144, "content": "<unused_token_470>", "single_word": false, "lstrip": false, "rstrip": false, "normalized": true, "special": false}, {"id": 49145, "content": "<unused_token_471>", "single_word": false, "lstrip": false, "rstrip": false, "normalized": true, "special": false}, {"id": 49146, "content": "<unused_token_472>", "single_word": false, "lstrip": false, "rstrip": false, "normalized": true, "special": false}, {"id": 49147, "content": "<unused_token_473>", "single_word": false, "lstrip": false, "rstrip": false, "normalized": true, "special": false}, {"id": 49148, "content": "<unused_token_474>", "single_word": false, "lstrip": false, "rstrip": false, "normalized": true, "special": false}, {"id": 49149, "content": "<unused_token_475>", "single_word": false, "lstrip": false, "rstrip": false, "normalized": true, "special": false}, {"id": 49150, "content": "<unused_token_476>", "single_word": false, "lstrip": false, "rstrip": false, "normalized": true, "special": false}, {"id": 49151, "content": "<unused_token_477>", "single_word": false, "lstrip": false, "rstrip": false, "normalized": true, "special": false}], "normalizer": null, "pre_tokenizer": {"type": "Sequence", "pretokenizers": [{"type": "Split", "pattern": {"Regex": "\\p{N}{1,3}"}, "behavior": "Isolated", "invert": false}, {"type": "Split", "pattern": {"Regex": "(?i:'s|'t|'re|'ve|'m|'ll|'d)|[^\\r\\n\\p{L}\\p{N}]?\\p{L}+|\\p{N}+| ?[^\\s\\p{L}\\p{N}]+[\\r\\n]*|\\s*[\\r\\n]+|\\s+(?!\\S)|\\s+"}, "behavior": "Isolated", "invert": false}, {"type": "ByteLevel", "add_prefix_space": false, "trim_offsets": true, "use_regex": false}]}, "post_processor": {"type": "TemplateProcessing", "single": [{"SpecialToken": {"id": "<s>", "type_id": 0}}, {"Sequence": {"id": "A", "type_id": 0}}], "pair": [{"SpecialToken": {"id": "<s>", "type_id": 0}}, {"Sequence": {"id": "A", "type_id": 0}}, {"SpecialToken": {"id": "<s>", "type_id": 1}}, {"Sequence": {"id": "B", "type_id": 1}}], "special_tokens": {"<s>": {"id": "<s>", "ids": [0], "tokens": ["<s>"]}}}, "decoder": {"type": "ByteLevel", "add_prefix_space": true, "trim_offsets": true, "use_regex": true}, "model": {"type": "BPE", "dropout": null, "unk_token": "<unk>", "continuing_subword_prefix": null, "end_of_word_suffix": null, "fuse_unk": false, "byte_fallback": false, "ignore_merges": false, "vocab": {"<s>": 0, "</s>": 1, "<tool_call>": 2, "</tool_call>": 3, "<|im_sep|>": 4, "<|fim_prefix|>": 5, "<|fim_middle|>": 6, "<|fim_suffix|>": 7, "<think>": 8, "</think>": 9, "<tool_response>": 10, "</tool_response>": 11, "<tools>": 12, "</tools>": 13, "<arguments>": 14, "</arguments>": 15, "<parameters>": 16, "</parameters>": 17, "<function": 18, "</function>": 19, "<param": 20, "</param>": 21, "!": 22, "\"": 23, "#": 24, "$": 25, "%": 26, "&": 27, "'": 28, "(": 29, ")": 30, "*": 31, "+": 32, ",": 33, "-": 34, ".": 35, "/": 36, "0": 37, "1": 38, "2": 39, "3": 40, "4": 41, "5": 42, "6": 43, "7": 44, "8": 45, "9": 46, ":": 47, ";": 48, "<": 49, "=": 50, ">": 51, "?": 52, "@": 53, "A": 54, "B": 55, "C": 56, "D": 57, "E": 58, "F": 59, "G": 60, "H": 61, "I": 62, "J": 63, "K": 64, "L": 65, "M": 66, "N": 67, "O": 68, "P": 69, "Q": 70, "R": 71, "S": 72, "T": 73, "U": 74, "V": 75, "W": 76, "X": 77, "Y": 78, "Z": 79, "[": 80, "\\": 81, "]": 82, "^": 83, "_": 84, "`": 85, "a": 86, "b": 87, "c": 88, "d": 89, "e": 90, "f": 91, "g": 92, "h": 93, "i": 94, "j": 95, "k": 96, "l": 97, "m": 98, "n": 99, "o": 100, "p": 101, "q": 102, "r": 103, "s": 104, "t": 105, "u": 106, "v": 107, "w": 108, "x": 109, "y": 110, "z": 111, "{": 112, "|": 113, "}": 114, "~": 115, "¡": 116, "¢": 117, "£": 118, "¤": 119, "¥": 120, "¦": 121, "§": 122, "¨": 123, "©": 124, "ª": 125, "«": 126, "¬": 127, "®": 128, "¯": 129, "°": 130, "±": 131, "²": 132, "³": 133, "´": 134, "µ": 135, "¶": 136, "·": 137, "¸": 138, "¹": 139, "º": 140, "»": 141, "¼": 142, "½": 143, "¾": 144, "¿": 145, "À": 146, "Á": 147, "Â": 148, "Ã": 149, "Ä": 150, "Å": 151, "Æ": 152, "Ç": 153, "È": 154, "É": 155, "Ê": 156, "Ë": 157, "Ì": 158, "Í": 159, "Î": 160, "Ï": 161, "Ð": 162, "Ñ": 163, "Ò": 164, "Ó": 165, "Ô": 166, "Õ": 167, "Ö": 168, "×": 169, "Ø": 170, "Ù": 171, "Ú": 172, "Û": 173, "Ü": 174, "Ý": 175, "Þ": 176, "ß": 177, "à": 178, "á": 179, "â": 180, "ã": 181, "ä": 182, "å": 183, "æ": 184, "ç": 185, "è": 186, "é": 187, "ê": 188, "ë": 189, "ì": 190, "í": 191, "î": 192, "ï": 193, "ð": 194, "ñ": 195, "ò": 196, "ó": 197, "ô": 198, "õ": 199, "ö": 200, "÷": 201, "ø": 202, "ù": 203, "ú": 204, "û": 205, "ü": 206, "ý": 207, "þ": 208, "ÿ": 209, "Ā": 210, "ā": 211, "Ă": 212, "ă": 213, "Ą": 214, "ą": 215, "Ć": 216, "ć": 217, "Ĉ": 218, "ĉ": 219, "Ċ": 220, "ċ": 221, "Č": 222, "č": 223, "Ď": 224, "ď": 225, "Đ": 226, "đ": 227, "Ē": 228, "ē": 229, "Ĕ": 230, "ĕ": 231, "Ė": 232, "ė": 233, "Ę": 234, "ę": 235, "Ě": 236, "ě": 237, "Ĝ": 238, "ĝ": 239, "Ğ": 240, "ğ": 241, "Ġ": 242, "ġ": 243, "Ģ": 244, "ģ": 245, "Ĥ": 246, "ĥ": 247, "Ħ": 248, "ħ": 249, "Ĩ": 250, "ĩ": 251, "Ī": 252, "ī": 253, "Ĭ": 254, "ĭ": 255, "Į": 256, "į": 257, "İ": 258, "ı": 259, "Ĳ": 260, "ĳ": 261, "Ĵ": 262, "ĵ": 263, "Ķ": 264, "ķ": 265, "ĸ": 266, "Ĺ": 267, "ĺ": 268, "Ļ": 269, "ļ": 270, "Ľ": 271, "ľ": 272, "Ŀ": 273, "ŀ": 274, "Ł": 275, "ł": 276, "Ń": 277, "Ġt": 278, "he": 279, "Ġa": 280, "in": 281, "ĠĠ": 282, "on": 283, "re": 284, "Ġthe": 285, "at": 286, "er": 287, "Ġs": 288, "Ġo": 289, "en": 290, "Ġc": 291, "Ġw": 292, "is": 293, "es": 294, "it": 295, "an": 296, "or": 297, "al": 298, "Ġp": 299, "ed": 300, "Ġf": 301, "Ġb": 302, "ar": 303, "Ġof": 304, "Ġan": 305, "ing": 306, "Ġm": 307, "Ġd": 308, "Ġin": 309, "ou": 310, "ion": 311, "ic": 312, "td": 313, "le": 314, "Ġand": 315, "Ġto": 316, "as": 317, "Ġ{": 318, "ro": 319, "Ġh": 320, "ĠĠĠĠ": 321, "Ġ\\": 322, "Ġ}": 323, "ï¼": 324, "Ġth": 325, "ent": 326, "Ġe": 327, "ä¸": 328, "ct": 329, "Ġn": 330, "><": 331, "Ġl": 332, "el": 333, "om": 334, "st": 335, "ï¼Į": 336, "et": 337, "Ġre": 338, "il": 339, "im": 340, "ra": 341, "Ġ(": 342, "ĠT": 343, "ot": 344, "ol": 345, "id": 346, "Ġg": 347, "ig": 348, ".Ċ": 349, "ut": 350, "</": 351, "ve": 352, "ĠI": 353, "ation": 354, "ĠS": 355, "Ġis": 356, "ce": 357, "ĠA": 358, "ly": 359, "ch": 360, "ãĢ": 361, "çļ": 362, "us": 363, "Ġbe": 364, "ur": 365, "çļĦ": 366, "un": 367, "ow": 368, "Ġ$": 369, "ĠC": 370, "am": 371, "ad": 372, "Ġfor": 373, "Ġon": 374, "ver": 375, "âĢ": 376, "ul": 377, "Ġthat": 378, "os": 379, "Ġst": 380, "Ġhe": 381, "ith": 382, "ir": 383, "ĠM": 384, "ay": 385, "Ġ_": 386, "if": 387, "Ġas": 388, "00": 389, "Ġcon": 390, "Ġy": 391, "ĠĠĠ": 392, "tr": 393, "ãĢĤ": 394, "ãģ": 395, "ĠP": 396, "od": 397, "Ġwith": 398, "qu": 399, "ĠÐ": 400, "ter": 401, "th": 402, "em": 403, "um": 404, "ĠB": 405, "Ġal": 406, "Ġit": 407, "Ġwh": 408, "ab": 409, "Ġpro": 410, "Ġde": 411, "ĠThe": 412, "ĠH": 413, "ath": 414, "Ġv": 415, "ag": 416, "se": 417, "her": 418, "ht": 419, "res": 420, "Ð¾": 421, "pe": 422, "Ġwe": 423, "iv": 424, "and": 425, "ac": 426, "Ġwas": 427, "ĠR": 428, "Ġex": 429, "Ġr": 430, "ĠD": 431, "ĠF": 432, "ate": 433, "ĠE": 434, "ld": 435, "Ġ-": 436, "ĠL": 437, "ess": 438, "Ġyou": 439, "Ġor": 440, "ĠW": 441, "ers": 442, "est": 443, "==": 444, "Ðµ": 445, "ist": 446, "ity": 447, "19": 448, "Ġare": 449, "Ġ\"": 450, "Ġcom": 451, "ction": 452, "pp": 453, "ĠĠĠĠĠĠĠĠ": 454, "Ġse": 455, "ant": 456, "Ġat": 457, "math": 458, "æĺ": 459, "'s": 460, "ill": 461, "ore": 462, "Ġby": 463, "ain": 464, "Ġsu": 465, "op": 466, "ight": 467, "Ð°": 468, "rom": 469, "ĠN": 470, "oc": 471, "nd": 472, "Ġ=": 473, "ke": 474, "ĠG": 475, "ä½": 476, "ies": 477, "Ġ^": 478, "ive": 479, "ment": 480, "20": 481, "Ġnot": 482, "ure": 483, "Ġ'": 484, "ial": 485, "Ġun": 486, "ib": 487, "ÑĤ": 488, "art": 489, "></": 490, "Ð¸": 491, "Ġha": 492, "end": 493, "Ġsh": 494, "Ġne": 495, "pl": 496, "Ġfrom": 497, "te": 498, "Ġch": 499, "Ġ)": 500, "Ġ,": 501, "ĠĠĊ": 502, "ort": 503, "ge": 504, "Ġk": 505, "ould": 506, "pt": 507, "og": 508, "Ġle": 509, "ren": 510, "Ġ<": 511, "ie": 512, "ical": 513, "ĠJ": 514, "red": 515, "ud": 516, "Ġthis": 517, "ine": 518, "all": 519, "fe": 520, "Ð½": 521, "iz": 522, "ãĢĤĊ": 523, "ich": 524, "Ġus": 525, "ell": 526, ">Ċ": 527, "ĠO": 528, "per": 529, "Ġ$\\": 530, "ĠĠĠĠĠ": 531, "Ñģ": 532, "),": 533, "ust": 534, "Ġ.": 535, "10": 536, "Ġhave": 537, "Ġme": 538, "ard": 539, "our": 540, "Ġhis": 541, "rou": 542, "Ð¾Ð": 543, "è¯": 544, "ÑĢ": 545, "rm": 546, "ri": 547, "ome": 548, "Ġcan": 549, "ãĤ": 550, "up": 551, "âĢľ": 552, "ph": 553, "ated": 554, "Ġj": 555, "Ġab": 556, "able": 557, "ĠIn": 558, "hen": 559, "ime": 560, "ous": 561, "out": 562, "ans": 563, "ap": 564, "--": 565, "Ġ[": 566, "ide": 567, "ult": 568, "AA": 569, "âĢĿ": 570, "ost": 571, "ak": 572, "Ġim": 573, "ther": 574, "ass": 575, "orm": 576, "Ġher": 577, "ind": 578, "Ġen": 579, "Ġall": 580, "The": 581, "ãĢģ": 582, "mathrm": 583, "Ġwor": 584, "Ġcomp": 585, "åŃ": 586, "Ġcl": 587, "ue": 588, "Ġwhich": 589, "ations": 590, "ip": 591, "Ġres": 592, "ition": 593, "cc": 594, "æĸ": 595, "ast": 596, "12": 597, "Ġpl": 598, "Ġhad": 599, "ok": 600, "ong": 601, "ack": 602, "Ġdo": 603, "act": 604, "der": 605, "Ġqu": 606, "$Ċ": 607, "Ġdis": 608, "age": 609, "to": 610, "gh": 611, "..": 612, "ame": 613, "du": 614, "',": 615, "ence": 616, "ĠU": 617, ").": 618, "ĠK": 619, "ary": 620, "Ġbut": 621, "Ġ}$": 622, "ance": 623, "Ġad": 624, "ft": 625, "ep": 626, "Ġtr": 627, "Ġ+": 628, "ang": 629, "one": 630, "====": 631, ".,": 632, "ne": 633, "int": 634, "å¥": 635, "cl": 636, "ach": 637, "Ġwere": 638, ".\"": 639, "Ġone": 640, "ub": 641, "rac": 642, "11": 643, "ens": 644, "ice": 645, "ia": 646, "ress": 647, "ff": 648, "Ġout": 649, "Ġper": 650, "av": 651, "Ġtheir": 652, "ase": 653, "Ġthey": 654, "ĠV": 655, "15": 656, "Ġso": 657, "con": 658, "ĠTh": 659, "Ġgo": 660, "18": 661, "$$Ċ": 662, "ign": 663, "ber": 664, "oun": 665, "ose": 666, "ual": 667, "Ġman": 668, "ace": 669, "Ð»": 670, "Ġcont": 671, "__": 672, ",\"": 673, "ents": 674, "Ġhas": 675, "ire": 676, "ions": 677, "Ġwill": 678, "'t": 679, "ely": 680, "are": 681, "13": 682, "Ġshe": 683, "Ġi": 684, "ite": 685, "ru": 686, "Ġup": 687, "14": 688, "Ġsp": 689, "16": 690, "è¡": 691, "âĢĶ": 692, "Ġmy": 693, "xt": 694, "Ġmore": 695, ")Ċ": 696, "urn": 697, "Ġother": 698, "ear": 699, "ook": 700, "form": 701, "row": 702, "Ġpart": 703, "ma": 704, "Ġev": 705, "vel": 706, "ound": 707, "de": 708, "so": 709, "IC": 710, "ĠY": 711, "Ġno": 712, "Ġx": 713, "ĠĠĠĊ": 714, "rent": 715, "very": 716, "we": 717, "17": 718, "own": 719, "ys": 720, "Ġsa": 721, "ll": 722, "unction": 723, "ä¸Ń": 724, "ile": 725, "Ġar": 726, "000": 727, "åĴ": 728, "ors": 729, "25": 730, "low": 731, "Ġthere": 732, "ory": 733, "Ġbeen": 734, "Ġapp": 735, "Ġif": 736, "oss": 737, "ord": 738, "Ġsc": 739, "ake": 740, "Ġwould": 741, "ks": 742, "Ġag": 743, "port": 744, "here": 745, "ect": 746, "Ġwho": 747, "ĠCh": 748, "Ġdes": 749, "Ñĥ": 750, "}$": 751, "ces": 752, "wo": 753, "Ġhim": 754, "Ġpre": 755, "ĠHe": 756, "ms": 757, "ree": 758, "ater": 759, "ta": 760, "ry": 761, "Ġits": 762, "Ġob": 763, "aus": 764, "Ðº": 765, "Ġyour": 766, "Ġli": 767, "Ġinto": 768, "Ġtime": 769, "ew": 770, "ple": 771, "Ġthan": 772, "ĠĠĠĠĠĠĠ": 773, "Ġabout": 774, "201": 775, "ĠSt": 776, "pr": 777, "ish": 778, "Ã©": 779, "Ġsy": 780, "erv": 781, "ĠIt": 782, "Ġwhen": 783, "ian": 784, "Ġ&": 785, "Ġte": 786, "ates": 787, "Ġsome": 788, "ray": 789, "Ġro": 790, "Ġover": 791, "ata": 792, "22": 793, "ings": 794, "hed": 795, "Ġspe": 796, "Ġcol": 797, "200": 798, "30": 799, "Ġpr": 800, "Ġdif": 801, "ov": 802, "ove": 803, "Ġkn": 804, "Ġany": 805, "vers": 806, "frac": 807, "ict": 808, "Ġrel": 809, "Ġbet": 810, ".\"Ċ": 811, "Ġalso": 812, "Ġthem": 813, "right": 814, "Ġmod": 815, "ark": 816, "eth": 817, "Ġbec": 818, "mathb": 819, "ally": 820, "ob": 821, "elf": 822, "],": 823, "ject": 824, "Ġinter": 825, "uc": 826, "Ġcons": 827, "Ñı": 828, "the": 829, "\",": 830, "Ag": 831, "Ñĭ": 832, "olog": 833, "Ġacc": 834, "lect": 835, "ays": 836, "ious": 837, "old": 838, "ps": 839, "ick": 840, "ific": 841, "ty": 842, "=\"": 843, "Ġ|": 844, "cre": 845, "rit": 846, "Ġtwo": 847, "mer": 848, "ons": 849, "Ġonly": 850, "ail": 851, "tain": 852, "ood": 853, "fect": 854, ";Ċ": 855, "Ġass": 856, "ĠĠĠĠĠĠĠĠĠĠĠĠĠĠĠĠ": 857, "æ³": 858, "ild": 859, "24": 860, "Ġmay": 861, "irst": 862, "ener": 863, "Ġtra": 864, "Ġind": 865, "Ð¼": 866, "reat": 867, "cess": 868, "Ġwhat": 869, "\":": 870, "Ġ/": 871, "ied": 872, "Ð²": 873, "oint": 874, "Ġval": 875, "ular": 876, "Ġwork": 877, "99": 878, "cal": 879, "Ġpe": 880, ":Ċ": 881, "In": 882, "hat": 883, "ink": 884, "ient": 885, "Ġla": 886, "eg": 887, "Ġsub": 888, "Ġunder": 889, "Ġrec": 890, "Ġthese": 891, "Ġcould": 892, "âĢĿĊ": 893, "Ġour": 894, "27": 895, "les": 896, "50": 897, "ond": 898, "lic": 899, "ĠÐ¿": 900, "ating": 901, "pect": 902, "Ġam": 903, "iss": 904, "erm": 905, "Ġem": 906, "Ġsuch": 907, "ÑĮ": 908, "oth": 909, "23": 910, "ced": 911, "ution": 912, "Ġbl": 913, "Ġcomm": 914, "ĠThis": 915, "ble": 916, "fore": 917, "igh": 918, "``": 919, "stem": 920, "ï¼ļ": 921, "Ġph": 922, "ough": 923, "----": 924, "ss": 925, "ative": 926, "ise": 927, "Ġoff": 928, "Ġfe": 929, "ram": 930, "Ġco": 931, "ause": 932, "':": 933, "ä½ł": 934, "ics": 935, "fter": 936, "Ġsaid": 937, "Ġthen": 938, "26": 939, "199": 940, "ning": 941, "Ġlike": 942, "28": 943, "ility": 944, "Ġhow": 945, "Ġnew": 946, "36": 947, "Ġra": 948, "Ġact": 949, "40": 950, "var": 951, "turn": 952, "dition": 953, "Ġstud": 954, "ible": 955, "rough": 956, "ER": 957, "ween": 958, "========": 959, "Ġfirst": 960, "æµ": 961, "ade": 962, "ful": 963, "left": 964, "Ġdiffe": 965, "ational": 966, "29": 967, "ities": 968, "oy": 969, "Ð´": 970, "Ġ*": 971, "Ġtrans": 972, "33": 973, "ÑģÑĤ": 974, "Ġnum": 975, "ffect": 976, "Ġsm": 977, "round": 978, "Ġknow": 979, "Ġac": 980, "imes": 981, "sp": 982, "itt": 983, "Ġbetween": 984, "ng": 985, "com": 986, "Ġfl": 987, "pro": 988, "Ġet": 989, "ax": 990, "(t": 991, "ont": 992, "Ġreg": 993, "tern": 994, ",Ċ": 995, "ĠWe": 996, "ange": 997, "){": 998, "get": 999, "Ġfol": 1000, "ex": 1001, "uch": 1002, "Ġform": 1003, "resent": 1004, "ures": 1005, "ize": 1006, "wn": 1007, "Ġpol": 1008, "cept": 1009, "ull": 1010, "Ġdid": 1011, "Ġshould": 1012, "Ġback": 1013, "Ġthrough": 1014, "Ġwhere": 1015, "Ġset": 1016, "ract": 1017, "ec": 1018, "Ġyear": 1019, "ĠUn": 1020, "Ġsim": 1021, "Ġuse": 1022, "Ġsee": 1023, "ount": 1024, "ments": 1025, "Ġrem": 1026, "Ġpar": 1027, "//": 1028, "iel": 1029, "Ġneed": 1030, "Ġint": 1031, "io": 1032, "Ġcor": 1033, "ric": 1034, "ug": 1035, "Ġsystem": 1036, "eng": 1037, "ix": 1038, "Ġmost": 1039, "Ġfollow": 1040, "iew": 1041, "ĠÐ²": 1042, "fl": 1043, "clud": 1044, "Ġinv": 1045, "pos": 1046, "Ġprodu": 1047, "60": 1048, "other": 1049, "**": 1050, "cy": 1051, "____": 1052, "array": 1053, "Ġget": 1054, "Ġz": 1055, "Ñĩ": 1056, "Ġsur": 1057, "37": 1058, "AAAA": 1059, "its": 1060, "ock": 1061, "ife": 1062, "ork": 1063, "}}": 1064, "Ġeach": 1065, "ĠAn": 1066, "Ġgener": 1067, "Ġdet": 1068, "ten": 1069, "Ġjust": 1070, "hes": 1071, "ature": 1072, "Ġstr": 1073, "Ġvar": 1074, "ople": 1075, "ower": 1076, "Ġequ": 1077, "Ġprov": 1078, "ily": 1079, "ident": 1080, "ined": 1081, "Ġatt": 1082, "_{": 1083, "35": 1084, "Ġresult": 1085, "ased": 1086, "Ġclass": 1087, "ever": 1088, "ï¼Ł": 1089, "Ġinst": 1090, "198": 1091, "Ġdef": 1092, "ier": 1093, "cial": 1094, "trib": 1095, "ism": 1096, "this": 1097, "ds": 1098, "45": 1099, "ĠÑģ": 1100, "ON": 1101, "led": 1102, "ward": 1103, "mathbf": 1104, "ues": 1105, "Ġused": 1106, "ĠRe": 1107, "ĠPro": 1108, "als": 1109, "Ġ)$": 1110, "Ġent": 1111, "Ġhand": 1112, "function": 1113, "ÐµÐ½": 1114, "âĢ¦": 1115, "IN": 1116, "Ġagain": 1117, "Ġlook": 1118, "Ġpers": 1119, "Ġeven": 1120, "38": 1121, "Ġu": 1122, "ç®": 1123, "Ġafter": 1124, "{array": 1125, "21": 1126, "Ġest": 1127, "##": 1128, "48": 1129, "å¥½": 1130, "ins": 1131, "ized": 1132, "Ġwell": 1133, ");": 1134, "?\"": 1135, "ĠCom": 1136, "amb": 1137, "Ġlong": 1138, "velop": 1139, "(\"": 1140, "iet": 1141, "Ġfunction": 1142, "Ġway": 1143, "ĠSe": 1144, "ather": 1145, "Ġmodel": 1146, "mathcal": 1147, "^{": 1148, "},": 1149, "Ġsupp": 1150, "Ġpoint": 1151, "gan": 1152, "Ġpeople": 1153, "ator": 1154, "ited": 1155, "Ġexp": 1156, "ness": 1157, "Ġfact": 1158, "ample": 1159, "sc": 1160, "Ġright": 1161, "ĠÐ½": 1162, "sh": 1163, "over": 1164, "Ġext": 1165, "ES": 1166, "æ³ķ": 1167, "Ġdifferent": 1168, "air": 1169, "75": 1170, "Ġgiv": 1171, "39": 1172, "ement": 1173, "Ġsame": 1174, "Ġdisc": 1175, "ctions": 1176, "44": 1177, "ool": 1178, "ages": 1179, "ĠX": 1180, "ght": 1181, "Ġel": 1182, "Ġsol": 1183, "Ġnow": 1184, "of": 1185, "ĠZ": 1186, "eta": 1187, "Ġsign": 1188, "uring": 1189, "Ġconst": 1190, "ale": 1191, "Ġshow": 1192, "Ġinte": 1193, "100": 1194, "Ġbecause": 1195, "ÑĢÐ°": 1196, "Ġcar": 1197, "Ġê": 1198, "Ġmany": 1199, "ave": 1200, "Ġdata": 1201, "ype": 1202, "Ġpat": 1203, "Ġdown": 1204, "Ġevery": 1205, "Ġexper": 1206, "Ġappro": 1207, "val": 1208, "Ġvery": 1209, "ĠFor": 1210, "Ġmat": 1211, "ines": 1212, "ãģ®": 1213, "ck": 1214, "ran": 1215, "46": 1216, "Ġbel": 1217, "Ġeffect": 1218, "arg": 1219, "put": 1220, "line": 1221, "Ġed": 1222, "und": 1223, "Ġwant": 1224, "Ġend": 1225, "ner": 1226, "ts": 1227, "Ġmin": 1228, "Ġpartic": 1229, "Ġke": 1230, "ĠQ": 1231, "ene": 1232, "ting": 1233, "Ġfin": 1234, "Ð·": 1235, "prime": 1236, "Ġhigh": 1237, "ĠÐ¸": 1238, "pha": 1239, "ization": 1240, "text": 1241, "dot": 1242, "Ġboth": 1243, "ince": 1244, "cent": 1245, "ern": 1246, "Ġmade": 1247, "Ġcall": 1248, "Ġmake": 1249, "ically": 1250, "AT": 1251, "ruct": 1252, "Ð¾Ð²": 1253, "aking": 1254, "47": 1255, "for": 1256, "Ġap": 1257, "li": 1258, "Ġnumber": 1259, "irc": 1260, "ĠShe": 1261, "Ġthose": 1262, "ivers": 1263, "da": 1264, "man": 1265, "Ġgra": 1266, "ody": 1267, "Ġbefore": 1268, "AN": 1269, "gg": 1270, "49": 1271, "arch": 1272, "Ġmust": 1273, "Ġinclud": 1274, "way": 1275, "Th": 1276, "self": 1277, "Ġgood": 1278, "80": 1279, "ox": 1280, "AR": 1281, "Ġ:": 1282, "Ġcent": 1283, "Ġcomple": 1284, "Ġdevelop": 1285, "Ġcur": 1286, "Ġmuch": 1287, "197": 1288, "55": 1289, "Ġear": 1290, "ym": 1291, "ural": 1292, "Ġown": 1293, "ices": 1294, "ĠAl": 1295, "ï¼ī": 1296, "Ġrep": 1297, "Ġrequ": 1298, "uss": 1299, "66": 1300, "ä½ĵ": 1301, "ci": 1302, "ared": 1303, "gy": 1304, "Ġimport": 1305, "}Ċ": 1306, "ology": 1307, "70": 1308, "Ġaut": 1309, "rest": 1310, "Ġprocess": 1311, "Ġgrou": 1312, "Ġfound": 1313, "alpha": 1314, "ven": 1315, "Ġdec": 1316, "formation": 1317, "yle": 1318, "ho": 1319, "ĠBut": 1320, "rence": 1321, "-b": 1322, "ute": 1323, "ublic": 1324, "Ġdep": 1325, "Ġgl": 1326, "Ġbeing": 1327, "Ġdire": 1328, "Ġfind": 1329, "Ġposs": 1330, "ethod": 1331, "}{": 1332, "yp": 1333, "vent": 1334, "Ġdoes": 1335, "EN": 1336, "ĠÐ¾": 1337, "ton": 1338, "Ġreal": 1339, "Ñħ": 1340, "arge": 1341, "Ġsoc": 1342, "oh": 1343, "read": 1344, "hem": 1345, "Ð¿": 1346, "ĠIf": 1347, "Ġop": 1348, "Ġchild": 1349, "return": 1350, "app": 1351, "ength": 1352, "?Ċ": 1353, "ases": 1354, "32": 1355, "Ġ\\\\": 1356, "Ġlife": 1357, "Ġref": 1358, "Ġyears": 1359, "chn": 1360, "til": 1361, "90": 1362, "Ġproble": 1363, "par": 1364, "ider": 1365, "Ġincre": 1366, "OR": 1367, "34": 1368, "py": 1369, "]Ċ": 1370, "ĠAnd": 1371, "ield": 1372, "31": 1373, "ists": 1374, "ĠDe": 1375, "ash": 1376, "ars": 1377, "ode": 1378, "Ġpos": 1379, "ah": 1380, "rain": 1381, "Ġhel": 1382, "ional": 1383, "str": 1384, ").Ċ": 1385, "col": 1386, "AL": 1387, "any": 1388, "que": 1389, "ï¼Ī": 1390, "au": 1391, "Ġbr": 1392, "land": 1393, "ants": 1394, "Ġread": 1395, "ted": 1396, "Ġloc": 1397, "Ġbu": 1398, "ought": 1399, "alk": 1400, "ĠPh": 1401, "Ġspec": 1402, "span": 1403, "ision": 1404, "Ġthink": 1405, "Ġpa": 1406, "be": 1407, "Ġexpl": 1408, "rol": 1409, "Ġmon": 1410, "Ġperson": 1411, "Ġcase": 1412, "ross": 1413, "Ġdist": 1414, "ĠAs": 1415, "ually": 1416, "Ġsmall": 1417, "meric": 1418, "Ġins": 1419, "Ġusing": 1420, "cond": 1421, "He": 1422, "Ġthree": 1423, "elta": 1424, "-s": 1425, "88": 1426, "tic": 1427, "Ġanal": 1428, "ĠNew": 1429, "Ġser": 1430, "ung": 1431, "lear": 1432, "ĠCon": 1433, "Ġresp": 1434, "77": 1435, "Ġes": 1436, "aw": 1437, "ann": 1438, "ved": 1439, "ivid": 1440, "ives": 1441, "min": 1442, "ral": 1443, "Ġque": 1444, "ively": 1445, "ential": 1446, "Ġgu": 1447, "ouse": 1448, "...": 1449, "ĠÐº": 1450, "Ġmem": 1451, "arm": 1452, "igure": 1453, "Ġcoun": 1454, "Ġserv": 1455, "ense": 1456, "ĠĠĠĠĠĠĠĠĠĠĠ": 1457, "Ġgr": 1458, "set": 1459, ")</": 1460, "202": 1461, "Ġhere": 1462, "ND": 1463, "ÐµÑĤ": 1464, "We": 1465, "65": 1466, "yn": 1467, "```": 1468, "Ð¹": 1469, "err": 1470, "ves": 1471, "Ġsom": 1472, "Ð±": 1473, "ters": 1474, "ulation": 1475, "95": 1476, "'d": 1477, "].": 1478, "ished": 1479, "Ġpresent": 1480, "Ġfam": 1481, "hip": 1482, "Ġwhile": 1483, "Ġsl": 1484, "Ġdi": 1485, "Ġprog": 1486, "ien": 1487, "Ġdon": 1488, "mathbb": 1489, "It": 1490, "ĠThey": 1491, "Ġnon": 1492, "Ġ$(": 1493, "196": 1494, "cr": 1495, "ĠHow": 1496, "atic": 1497, "Ġworld": 1498, "Ġmethod": 1499, "ability": 1500, "ffic": 1501, "Ġhum": 1502, "ambda": 1503, "Ġimp": 1504, "Ġdem": 1505, "ĠAr": 1506, "Ġline": 1507, "&&": 1508, "Ġgiven": 1509, "ior": 1510, "AC": 1511, "85": 1512, "Ġtake": 1513, "amp": 1514, "Ġadd": 1515, "Ġlet": 1516, "ality": 1517, "Ġbeh": 1518, "ÑĢÐµ": 1519, "Ġtest": 1520, "Ġ{\\": 1521, "Ġmed": 1522, "ption": 1523, "els": 1524, "åķ": 1525, "\">": 1526, "Ġstill": 1527, "ĠThere": 1528, ".l": 1529, "ience": 1530, "Ġcour": 1531, "mu": 1532, "-d": 1533, "Ġsay": 1534, "Ġhead": 1535, "OD": 1536, "Ġlead": 1537, ")$": 1538, "ĠâĢ": 1539, "ert": 1540, "ĠAmeric": 1541, "less": 1542, "RE": 1543, "ank": 1544, "az": 1545, "ired": 1546, "Ġhelp": 1547, "05": 1548, ",e": 1549, "Ġtoo": 1550, "Ġocc": 1551, "Ġmight": 1552, "Ġav": 1553, "alth": 1554, "Ġturn": 1555, "Ġwom": 1556, "ĠâĢľ": 1557, "ertain": 1558, ");Ċ": 1559, "inal": 1560, "ron": 1561, "01": 1562, "chool": 1563, "ĠÐ´": 1564, "78": 1565, "ittle": 1566, "Ġorder": 1567, "Ġstand": 1568, "âĸ": 1569, "Ġoper": 1570, "acter": 1571, "Ġvalue": 1572, "æĸĩ": 1573, "Ġconf": 1574, "Ġlevel": 1575, "Ġquest": 1576, "ying": 1577, "Ġstate": 1578, "new": 1579, "Ð³": 1580, "ital": 1581, "Ð¾Ð»": 1582, "Ġmain": 1583, "Ġwithout": 1584, "68": 1585, "Ġcontin": 1586, "):": 1587, "table": 1588, "ets": 1589, "Ġele": 1590, "Ġmeas": 1591, "ving": 1592, "raph": 1593, "oci": 1594, "stand": 1595, "po": 1596, "Ġpower": 1597, "aj": 1598, "iness": 1599, "Ġchar": 1600, "64": 1601, "Ġtem": 1602, "amma": 1603, "yl": 1604, "Ġ~": 1605, "Ġday": 1606, "ides": 1607, "ID": 1608, "OT": 1609, "98": 1610, "ĠEx": 1611, "view": 1612, "67": 1613, "egin": 1614, "Ġsk": 1615, "ole": 1616, "Ġaround": 1617, "ĠYou": 1618, "Ġexample": 1619, "}\\": 1620, "ane": 1621, "igma": 1622, "Ġcre": 1623, "Ġpres": 1624, "itive": 1625, "Ġseem": 1626, "iversity": 1627, "?\"Ċ": 1628, "ots": 1629, "._": 1630, "ason": 1631, "Ġloss": 1632, "Ġask": 1633, "Ñİ": 1634, "Ġpass": 1635, "ified": 1636, "Ġey": 1637, "pi": 1638, "ĠĊ": 1639, "Ġdel": 1640, "akes": 1641, "Ġappe": 1642, "ST": 1643, "Ġmet": 1644, "Ġinformation": 1645, "Ġfollowing": 1646, "Ġmean": 1647, "--------": 1648, "ĠCl": 1649, "Ġstart": 1650, "Ġlear": 1651, "Ġanother": 1652, "rist": 1653, "Ġcondition": 1654, "bers": 1655, "ived": 1656, "Ð½Ð¸": 1657, "Ġche": 1658, "Ġgreat": 1659, "Ġduring": 1660, "rem": 1661, "Ġide": 1662, "'Ċ": 1663, "ĠÃ": 1664, "not": 1665, "orn": 1666, "tt": 1667, "quad": 1668, "ĠLe": 1669, "ium": 1670, "oid": 1671, "Ġperform": 1672, "Ġinterest": 1673, ".S": 1674, "ried": 1675, "part": 1676, "Ġreturn": 1677, "Ġless": 1678, "angle": 1679, "Ġplace": 1680, "begin": 1681, "Ġimportant": 1682, "Ġthought": 1683, "69": 1684, "Ġobs": 1685, ".p": 1686, "atch": 1687, "Ġopen": 1688, "',Ċ": 1689, "hy": 1690, "ww": 1691, "ctor": 1692, "ately": 1693, "Ġ</": 1694, "cdot": 1695, "ik": 1696, "Ġsecond": 1697, "Ġlittle": 1698, "à¤": 1699, "ĠSh": 1700, "Ġnever": 1701, "ination": 1702, "ways": 1703, "bar": 1704, "Ġpur": 1705, "Ð½Ñĭ": 1706, "Ġbre": 1707, "Ġcommun": 1708, "Ġmark": 1709, "try": 1710, "Ġcap": 1711, "Ġcal": 1712, "Ġtechn": 1713, "Ð¾Ð¼": 1714, "agn": 1715, "Ġorgan": 1716, "-f": 1717, "=t": 1718, "ivity": 1719, "Ġcell": 1720, "name": 1721, "Ġplay": 1722, "'m": 1723, "Ġinc": 1724, "Ġ]": 1725, "Ġver": 1726, "Ð½Ð¾": 1727, "tribut": 1728, "ining": 1729, "ĠInd": 1730, "Ġagainst": 1731, "Ġlarge": 1732, "IT": 1733, "ĠOn": 1734, "'re": 1735, "Ġwater": 1736, "Ġve": 1737, "ĠGod": 1738, "HE": 1739, "ling": 1740, "Ġ{Ċ": 1741, "Ġder": 1742, "Ġwithin": 1743, "Ġgroup": 1744, "Ġcare": 1745, "Ġstat": 1746, "Ġpublic": 1747, "Ġlast": 1748, "43": 1749, "79": 1750, "Ġident": 1751, "play": 1752, "Ġwrit": 1753, "lambda": 1754, "cul": 1755, "\\mathrm": 1756, "================": 1757, "ger": 1758, "41": 1759, "Ġprof": 1760, "med": 1761, "Ð°ÑĤ": 1762, "Ġmen": 1763, "\",\"": 1764, "Ġbas": 1765, "ush": 1766, "data": 1767, "ĠAd": 1768, "phi": 1769, "ently": 1770, "crib": 1771, "lt": 1772, "Ġobject": 1773, "gt": 1774, "________": 1775, "ients": 1776, "Ġinfl": 1777, "Ch": 1778, "Ġstruct": 1779, "Ð¸ÑĤ": 1780, "Ġleft": 1781, "ilar": 1782, "Ġvari": 1783, "Ã¡": 1784, "âĢĻ": 1785, "Ġproper": 1786, "ression": 1787, "co": 1788, "conom": 1789, "Ã³": 1790, "Ġelect": 1791, "Ġfew": 1792, "Ġlim": 1793, "por": 1794, "Ġbook": 1795, "Ġdr": 1796, "ote": 1797, "ples": 1798, "Ġ.Ċ": 1799, "Ġhist": 1800, "use": 1801, "sw": 1802, "ething": 1803, "Ð¾Ð´": 1804, "Ġold": 1805, "Ġparticular": 1806, "ency": 1807, "St": 1808, "Ġcome": 1809, "ief": 1810, "Ġgrow": 1811, "ither": 1812, "dis": 1813, "42": 1814, "AB": 1815, "Ġfre": 1816, "uck": 1817, "ysis": 1818, "ĠÐ¼": 1819, "Ġconsider": 1820, "ĠĠĠĠĠĠ": 1821, "ably": 1822, "ised": 1823, "NT": 1824, "nal": 1825, "ention": 1826, "Ġsince": 1827, "Ġq": 1828, "Ġresults": 1829, "ividual": 1830, ",r": 1831, "eter": 1832, "fer": 1833, "Ġvis": 1834, "Ġter": 1835, "sum": 1836, "Ġvol": 1837, "Ġadv": 1838, "Ð¾ÑĢ": 1839, "Ġbro": 1840, "gr": 1841, "pped": 1842, "Ġsupport": 1843, "Ġgoing": 1844, "iety": 1845, "ilon": 1846, "ÑĪ": 1847, "ek": 1848, "II": 1849, "thing": 1850, "Ġmult": 1851, "ploy": 1852, "Ġstudy": 1853, "Ġbus": 1854, "Ġgre": 1855, "ury": 1856, "abl": 1857, "Ġlight": 1858, "mb": 1859, "Ġfeel": 1860, "ological": 1861, "Ġsing": 1862, "aps": 1863, ">-": 1864, "hor": 1865, "ÐµÐ»": 1866, "iod": 1867, "Ġlo": 1868, "ĠÑĤ": 1869, "son": 1870, "Ġsit": 1871, "58": 1872, "\\x": 1873, "uro": 1874, "Ġpract": 1875, "://": 1876, "den": 1877, "AAAAAAAA": 1878, "Ġgeneral": 1879, "Ġcontrol": 1880, "%$": 1881, "style": 1882, "Ð¶": 1883, "oper": 1884, "Ġhuman": 1885, "MD": 1886, "LE": 1887, "-m": 1888, "ĠEng": 1889, "Ġoften": 1890, "Ġsocial": 1891, "Ġbo": 1892, "iron": 1893, "08": 1894, "Ġchang": 1895, "'ll": 1896, "inc": 1897, "Ġdeterm": 1898, "You": 1899, "An": 1900, "ains": 1901, "ga": 1902, "Ġdirect": 1903, "ĠÐ½Ð°": 1904, "-p": 1905, "ission": 1906, "Ġdesign": 1907, "Ġrepresent": 1908, "AS": 1909, "Ġhapp": 1910, "This": 1911, "Ġproblem": 1912, "IG": 1913, "ental": 1914, "Ġener": 1915, "Ġproduct": 1916, "Ġput": 1917, "MT": 1918, "Ġsomething": 1919, "beta": 1920, "Ġreport": 1921, "ÑĨ": 1922, "Ġview": 1923, "||": 1924, "Ġindividual": 1925, "Ġallow": 1926, "type": 1927, "IS": 1928, "urther": 1929, "Ġbest": 1930, "oor": 1931, "Ġaway": 1932, "Ġsat": 1933, ",and": 1934, "Ġpot": 1935, "Ġfil": 1936, "Ġpossible": 1937, "outh": 1938, "ĠÂ": 1939, "Ġredu": 1940, "195": 1941, "iter": 1942, "vious": 1943, "ference": 1944, "Ġtop": 1945, "ĠRes": 1946, "aterial": 1947, "Ġlow": 1948, "97": 1949, "by": 1950, "ends": 1951, "Ġself": 1952, "ccess": 1953, "sigma": 1954, "urs": 1955, "Ġalways": 1956, "ource": 1957, "let": 1958, "As": 1959, "rad": 1960, "Ġcalled": 1961, "Ġlaw": 1962, "Ġprote": 1963, "ohn": 1964, "rel": 1965, "ina": 1966, "Ġprob": 1967, "ION": 1968, "Ġchildren": 1969, "ames": 1970, "times": 1971, "ering": 1972, "))": 1973, "Ġunderstand": 1974, "Ġ#": 1975, "che": 1976, "ead": 1977, "fic": 1978, "ume": 1979, "Ð¾Ð³": 1980, "raw": 1981, "-t": 1982, "ĠUniversity": 1983, "Ġfour": 1984, "Ġdidn": 1985, "Ġ>": 1986, "ĠTo": 1987, "olution": 1988, "iving": 1989, "ape": 1990, "where": 1991, "Ġcharacter": 1992, "Ġschool": 1993, "Ġpop": 1994, "ĠTr": 1995, "Ġobserv": 1996, "Ġchange": 1997, "ÐµÑĢ": 1998, "Ġleg": 1999, "sy": 2000, "Ġmeasure": 2001, "Ġobtain": 2002, "Ġrun": 2003, "Ġhome": 2004, "AM": 2005, "Ġdiscuss": 2006, "eps": 2007, "Ġsignific": 2008, "ĠWhat": 2009, "Ġabove": 2010, "ances": 2011, "Ġrest": 2012, "ĠBe": 2013, "vern": 2014, "lo": 2015, "day": 2016, "ott": 2017, "Ġcr": 2018, "Pro": 2019, "ĠCol": 2020, "07": 2021, "att": 2022, "Ġrelations": 2023, "ĠWhen": 2024, "ormal": 2025, "Ġopp": 2026, "ĠIs": 2027, "istic": 2028, "Ġeas": 2029, "Ġrespect": 2030, "EC": 2031, "Ġhard": 2032, "-c": 2033, "work": 2034, "apt": 2035, "EL": 2036, "Ġdescrib": 2037, "rag": 2038, "face": 2039, "Ġbody": 2040, "aut": 2041, "57": 2042, "ument": 2043, "Ġcost": 2044, "ification": 2045, "ided": 2046, "pre": 2047, "ãģ¯": 2048, "Ġmom": 2049, "Ġlist": 2050, "ãĤĴ": 2051, "Ġcertain": 2052, "Ġclear": 2053, "idence": 2054, "Ġcho": 2055, "ĠChrist": 2056, "ateg": 2057, "Ġside": 2058, "ograph": 2059, "plic": 2060, "ustr": 2061, "Ð°Ð»": 2062, "ĠAt": 2063, "59": 2064, "ule": 2065, "Ġsw": 2066, "Ġconc": 2067, "Ġthings": 2068, "Ġ}Ċ": 2069, "rop": 2070, "Ġgot": 2071, "cri": 2072, "theta": 2073, "Ġrow": 2074, "me": 2075, "Ġwar": 2076, "action": 2077, "ley": 2078, "Ġname": 2079, "ĠPl": 2080, "Ġrese": 2081, "Ġinvol": 2082, "../": 2083, "ĠNo": 2084, "AD": 2085, "06": 2086, "Ġmar": 2087, "\"Ċ": 2088, "Ġgive": 2089, "Ġtype": 2090, "Ġrad": 2091, "br": 2092, ".com": 2093, "Ġgovern": 2094, "Ġexpect": 2095, "leq": 2096, "ope": 2097, "ended": 2098, "_l": 2099, "Ġmove": 2100, "Ġopt": 2101, "Ġinvest": 2102, "Ġbetter": 2103, "ÃŃ": 2104, "thon": 2105, "Ġeyes": 2106, "ĠYork": 2107, "Ġund": 2108, "Ġwhe": 2109, "Ġperiod": 2110, "Ġuntil": 2111, ".g": 2112, "ĠâĢĵ": 2113, "Ġposition": 2114, "ieve": 2115, "Ġlab": 2116, "ique": 2117, "Ġsugg": 2118, ".s": 2119, "olds": 2120, "Ġsuggest": 2121, "Ġsum": 2122, "angu": 2123, "ories": 2124, "Ġfr": 2125, "ats": 2126, "Ġenergy": 2127, "bs": 2128, "Ġtot": 2129, "ĠMar": 2130, "uation": 2131, "Ġfore": 2132, "itud": 2133, "ched": 2134, "Ġden": 2135, "Ġphys": 2136, "rt": 2137, "aken": 2138, "Ġbeg": 2139, "Ġiss": 2140, "though": 2141, "Ġfield": 2142, "Ġnext": 2143, "wh": 2144, "ÐµÐ½Ð¸": 2145, "ĠComm": 2146, "ued": 2147, "ogn": 2148, "Ġnet": 2149, "Ġdev": 2150, "ĠSp": 2151, "Ġface": 2152, "09": 2153, "Ġmov": 2154, "ison": 2155, "Ġpolit": 2156, "ery": 2157, "Ġindic": 2158, "Ġaddition": 2159, "Ġtell": 2160, "Ġfar": 2161, "Ġtyp": 2162, "Ġcame": 2163, "rodu": 2164, "eb": 2165, "ĠThese": 2166, "ream": 2167, "Ġplan": 2168, "Ġfamily": 2169, "Ġmanag": 2170, "ĠHowever": 2171, "resp": 2172, "'ve": 2173, "af": 2174, "Ġcrit": 2175, "poch": 2176, "ĠAmerican": 2177, "Ġcommon": 2178, "Ġclos": 2179, "reg": 2180, "ee": 2181, "Ġroom": 2182, "Ġtreat": 2183, "Ġsimilar": 2184, "Ġcult": 2185, ".c": 2186, "ĠTe": 2187, "Ġarg": 2188, "Ġvalues": 2189, "ird": 2190, "Ġarm": 2191, "ĠWh": 2192, "partial": 2193, "Ã£": 2194, ":\"": 2195, "Ġexist": 2196, "Ġpred": 2197, "Ġlater": 2198, "\"I": 2199, ")}": 2200, "56": 2201, "ĠÐ±": 2202, "tribution": 2203, "Ġbased": 2204, "orth": 2205, "Ġtext": 2206, "ians": 2207, "Ð¾Ð¹": 2208, "cing": 2209, "Ġmeans": 2210, "Ġsever": 2211, "Ġtoward": 2212, "Ġpress": 2213, "Ã¼": 2214, "nu": 2215, "Ġkind": 2216, "most": 2217, "Ġsal": 2218, "Ġorig": 2219, "Ġhig": 2220, "ask": 2221, "(e": 2222, "Ġmaterial": 2223, "ĠOr": 2224, "gamma": 2225, "ify": 2226, "Ġmor": 2227, "_t": 2228, "Ġcirc": 2229, "Ġfac": 2230, "Ġspace": 2231, "alf": 2232, "ables": 2233, "Ġtimes": 2234, "Ġtw": 2235, "!Ċ": 2236, "ained": 2237, "arrow": 2238, "Ġquestion": 2239, "Ġlocal": 2240, "Ġrece": 2241, "ED": 2242, "Ġcourse": 2243, "ĠAll": 2244, "Ġnecess": 2245, "Ġleast": 2246, ".[": 2247, "```Ċ": 2248, "iver": 2249, "Ġmot": 2250, "Ġassoci": 2251, "Ġant": 2252, "idth": 2253, "enn": 2254, "Ġshown": 2255, "usion": 2256, "ubl": 2257, "AP": 2258, "viron": 2259, "Ġnear": 2260, "LC": 2261, "Ġeconom": 2262, "Ġcurrent": 2263, "Ġdevelopment": 2264, "ording": 2265, "Ġfri": 2266, "Ġris": 2267, "mm": 2268, "epend": 2269, "Ġpost": 2270, "Ã£o": 2271, "Ġhy": 2272, "Ġexam": 2273, "Ġrate": 2274, "ĠLet": 2275, "Ġbusiness": 2276, "Ã§": 2277, "Ġreason": 2278, "ajor": 2279, "uf": 2280, "racy": 2281, "duct": 2282, "Ġinit": 2283, "Ġmind": 2284, "osp": 2285, "Ġothers": 2286, "Ġanalysis": 2287, "Ġabs": 2288, "ai": 2289, ".</": 2290, "++": 2291, "delta": 2292, "Ġupon": 2293, "ened": 2294, "ailable": 2295, "Ġwords": 2296, "ards": 2297, "Ġamong": 2298, "ours": 2299, "Ġwr": 2300, "Ex": 2301, "Ġdom": 2302, "Ġwomen": 2303, "Ġsubject": 2304, "194": 2305, "Ġeng": 2306, "Â·": 2307, "Ġprom": 2308, ";&": 2309, "Ġhowever": 2310, "Ġterm": 2311, "ered": 2312, "rho": 2313, "Ar": 2314, "Ġbehav": 2315, "Ġknown": 2316, "-l": 2317, "elt": 2318, "Ġtook": 2319, "To": 2320, "Ġstrong": 2321, "Ġsignificant": 2322, "bl": 2323, "02": 2324, "tau": 2325, ".e": 2326, "Ġalong": 2327, "87": 2328, "Ġseveral": 2329, "stit": 2330, "etic": 2331, "Ġmass": 2332, "Ġapplic": 2333, "atter": 2334, "Ġenough": 2335, "Nz": 2336, "apter": 2337, "Ġcomput": 2338, "ĠĠĠĠĠĠĠĠĠĠĠĠĠĠĠ": 2339, "Ġparam": 2340, "Ġthough": 2341, "Al": 2342, "lection": 2343, "Ġbecome": 2344, "Ġshort": 2345, "RO": 2346, "Ġseen": 2347, ".length": 2348, "ING": 2349, "Ġmus": 2350, "\\%$": 2351, ".j": 2352, "imal": 2353, "Ġill": 2354, "Ġrather": 2355, "Ġemploy": 2356, ">N": 2357, "Ġinf": 2358, "Ġhouse": 2359, "Ġart": 2360, "ait": 2361, "ĠJohn": 2362, "Ġsuccess": 2363, "ival": 2364, "ĠBl": 2365, "imens": 2366, "96": 2367, "ledge": 2368, "pecial": 2369, "For": 2370, "ibility": 2371, "Ġprogram": 2372, "Ġlik": 2373, "Ġbound": 2374, "Ġland": 2375, "999": 2376, "Ġterms": 2377, "Ġbuild": 2378, "Re": 2379, "Ġcomb": 2380, "Ġsingle": 2381, "....": 2382, "Ġaccount": 2383, "aring": 2384, "gen": 2385, "Ġimpro": 2386, "Ġasked": 2387, "ready": 2388, "Ġfree": 2389, "What": 2390, "Ġhealth": 2391, "Ġarea": 2392, "Ġkeep": 2393, "omega": 2394, "Ġfull": 2395, "sup": 2396, "Ġsuper": 2397, "Ġneg": 2398, "Ġtoget": 2399, "urch": 2400, "ET": 2401, "aster": 2402, "Ġtogether": 2403, "ĠThen": 2404, "ux": 2405, "big": 2406, "Ġeither": 2407, "Cl": 2408, "****": 2409, "Ġmil": 2410, "oot": 2411, "Ġtotal": 2412, "And": 2413, "ĠNe": 2414, "Ġconne": 2415, "Ġmoment": 2416, "aim": 2417, "ĠMr": 2418, "ators": 2419, "cont": 2420, "ĠHis": 2421, "ler": 2422, "ĠPr": 2423, "ĠÐ·": 2424, "Ġwon": 2425, "ĠPhys": 2426, "03": 2427, "193": 2428, "ĠCo": 2429, "Ð»Ð¸": 2430, "Ġtrue": 2431, "fficient": 2432, "ift": 2433, "Ġyoung": 2434, "Ġenc": 2435, "ĠSo": 2436, "EE": 2437, "Ġresearch": 2438, "Ġtre": 2439, "Ġapproach": 2440, "Ġpotential": 2441, "cer": 2442, "Ġair": 2443, "Ġauthor": 2444, "oney": 2445, "une": 2446, "\"),": 2447, "Delta": 2448, "circ": 2449, "ources": 2450, "sequ": 2451, "Ġflow": 2452, "atures": 2453, "ids": 2454, "ÑģÐº": 2455, ",n": 2456, "Ġdie": 2457, "ml": 2458, "ches": 2459, "^{\\": 2460, "uff": 2461, "fty": 2462, "respond": 2463, "Ġstructure": 2464, "Ġwent": 2465, "ĠEn": 2466, "Ġdays": 2467, "ae": 2468, "Ġearly": 2469, "Ġnight": 2470, "asing": 2471, "oll": 2472, "=function": 2473, "Ġnat": 2474, "Ã¤": 2475, ".A": 2476, "ember": 2477, "ĠThat": 2478, "see": 2479, "Ġhimself": 2480, "ĠAss": 2481, "Ġalready": 2482, "sych": 2483, "Ġeduc": 2484, "Ġspecial": 2485, "Ġdone": 2486, "ĠĠĠĠĠĠĠĠĠĠĠĠĠĠĠĠĠĠĠĠĠĠĠĠĠĠĠĠĠĠĠĠ": 2487, "Ġmajor": 2488, "rences": 2489, "anguage": 2490, "Ġdue": 2491, "div": 2492, "ged": 2493, "ored": 2494, "omet": 2495, "ending": 2496, "Ġpain": 2497, "Ġincluding": 2498, "mod": 2499, "Ġsize": 2500, "Ġlarg": 2501, "ĠÑĥ": 2502, "()": 2503, "Ġexperim": 2504, "===": 2505, "ĠEpoch": 2506, "ges": 2507, "ault": 2508, "Ġlove": 2509, "_s": 2510, "If": 2511, "ressed": 2512, "iol": 2513, "Ġsec": 2514, "Ġsystems": 2515, "Ġonce": 2516, "imate": 2517, "US": 2518, "python": 2519, "But": 2520, "Ġreally": 2521, "Ph": 2522, "OL": 2523, "Ġfurther": 2524, "89": 2525, "ĠMan": 2526, "aces": 2527, "idd": 2528, "side": 2529, "Ġsens": 2530, "verage": 2531, "Ġavailable": 2532, "Ġbi": 2533, "iction": 2534, "ibr": 2535, "Ġlay": 2536, "roll": 2537, "infty": 2538, "erc": 2539, "sq": 2540, "elves": 2541, "istr": 2542, "Ġstudents": 2543, "bol": 2544, "vironment": 2545, "ips": 2546, "Ġcomplex": 2547, "icy": 2548, "position": 2549, "Ġmonth": 2550, "{\\": 2551, "iple": 2552, "Ġdeg": 2553, "Ġsure": 2554, ".'Ċ": 2555, "Ġable": 2556, "ocus": 2557, "At": 2558, "500": 2559, "Ġinde": 2560, "now": 2561, "ficult": 2562, "IL": 2563, "Ġquant": 2564, "Ġpast": 2565, "UR": 2566, "Ġwhether": 2567, "error": 2568, "rect": 2569, "Ġwind": 2570, "Ġsent": 2571, "Ġlooked": 2572, "De": 2573, "04": 2574, "add": 2575, "ĠOne": 2576, "Ġconditions": 2577, "ĠCar": 2578, "ising": 2579, "Ġheart": 2580, "Ġarr": 2581, "Ġwhole": 2582, "color": 2583, "Ġfrequ": 2584, "ĠÐ½Ðµ": 2585, "\\n": 2586, "empt": 2587, "fra": 2588, "Ġexperience": 2589, "hing": 2590, "Ġrelationship": 2591, "Ġtemper": 2592, "Ġtalk": 2593, "Ð½Ð°": 2594, "Ġcou": 2595, "Ġcannot": 2596, "61": 2597, "Ġprovide": 2598, "Ġwhy": 2599, "Lj": 2600, "Ġpp": 2601, "63": 2602, "chan": 2603, "itor": 2604, "ĠCan": 2605, "oph": 2606, "Ġaction": 2607, "na": 2608, "Ġrespons": 2609, "ref": 2610, "Ġbene": 2611, "Ġpatients": 2612, "display": 2613, "Ĥ¬": 2614, "ĠÑ": 2615, "arget": 2616, "ado": 2617, "Ġmeet": 2618, "isf": 2619, "Ġmax": 2620, "ned": 2621, "Ġcorrespond": 2622, "My": 2623, "She": 2624, "ences": 2625, "Ġspecific": 2626, "-w": 2627, "sub": 2628, "Ġmaking": 2629, "Ġprim": 2630, "51": 2631, "ĠUnited": 2632, "iqu": 2633, "Ġdifficult": 2634, "imum": 2635, "Ġtheory": 2636, "ĠSoc": 2637, "ĠApp": 2638, "ĠTHE": 2639, "Ġpay": 2640, "Ġthing": 2641, "Ġcases": 2642, "Ġtold": 2643, "pper": 2644, "Ġcaus": 2645, "Ġpo": 2646, "uture": 2647, "vert": 2648, "Ġgen": 2649, "No": 2650, "ii": 2651, "order": 2652, "Ġtaken": 2653, "Ġhaving": 2654, "Ġsense": 2655, "Ġever": 2656, "icro": 2657, "Ġdou": 2658, "AG": 2659, "Ġdetail": 2660, "Ġproblems": 2661, "Ġproject": 2662, "Ġacross": 2663, "ustom": 2664, "ÐµÐ¼": 2665, "62": 2666, "Ġfood": 2667, "Ġexc": 2668, "ĠQu": 2669, "iven": 2670, "ĠGe": 2671, "Ġang": 2672, "Ġrange": 2673, "Ġhigher": 2674, "CT": 2675, "ones": 2676, "pg": 2677, "Ġalmost": 2678, "Ġvarious": 2679, "Ġfail": 2680, "onse": 2681, "rix": 2682, "Ġste": 2683, "OM": 2684, "Ġgovernment": 2685, "eral": 2686, "Ġblack": 2687, "ands": 2688, "\\begin": 2689, "]=": 2690, "equ": 2691, "ĠSch": 2692, "irl": 2693, "Ġess": 2694, "ada": 2695, ">C": 2696, "Ġmarket": 2697, "ero": 2698, "Ġelse": 2699, "ceed": 2700, "Ġrele": 2701, "atory": 2702, "ware": 2703, "swer": 2704, ",'": 2705, "Im": 2706, "rid": 2707, "Ġ('": 2708, "(\\": 2709, "urope": 2710, "52": 2711, "aining": 2712, "Ġpaper": 2713, "Ġactiv": 2714, "ĠBy": 2715, "operator": 2716, "On": 2717, "urb": 2718, "itle": 2719, "inary": 2720, "ĠStates": 2721, "iam": 2722, "def": 2723, "ze": 2724, "ĠMe": 2725, "Ġ\\|": 2726, "IF": 2727, "Ġvers": 2728, "medi": 2729, "Ġhalf": 2730, "lected": 2731, "arr": 2732, "wg": 2733, "Ġ...": 2734, "OS": 2735, "ari": 2736, "ties": 2737, "ilities": 2738, "53": 2739, "Ġestabl": 2740, "alse": 2741, "Ġkey": 2742, ".C": 2743, "ister": 2744, "operatorname": 2745, "ĠSc": 2746, "Ġintrodu": 2747, "ĠSu": 2748, "itude": 2749, "ournal": 2750, "Ġsolution": 2751, "192": 2752, "Ġpath": 2753, ".t": 2754, "off": 2755, ".d": 2756, "Ġknew": 2757, "There": 2758, "ĠSte": 2759, "Ġyet": 2760, "Ġbegin": 2761, "Ġlower": 2762, "ĠPol": 2763, ".m": 2764, "Ġshall": 2765, "ortun": 2766, "Ġmother": 2767, "utes": 2768, "Ġlog": 2769, "/s": 2770, "Ġvo": 2771, "Ġpoints": 2772, "posed": 2773, "Ġach": 2774, "54": 2775, "Ġdoor": 2776, "ills": 2777, "Ġsepar": 2778, "Ġgroups": 2779, "Ġinflu": 2780, "Ġsound": 2781, "umn": 2782, "utions": 2783, "Ġitself": 2784, "Ġword": 2785, "(n": 2786, "Ġpriv": 2787, "Ġce": 2788, "ament": 2789, "Ġple": 2790, "ĠRo": 2791, "rame": 2792, "xi": 2793, "go": 2794, "htt": 2795, "uth": 2796, "ensity": 2797, "irm": 2798, "uracy": 2799, "Ġconcept": 2800, "ĠOF": 2801, "Ġnothing": 2802, "Ġsil": 2803, "iation": 2804, "-in": 2805, "Ġles": 2806, "omm": 2807, "Ġrequire": 2808, "org": 2809, "Un": 2810, "Ġrole": 2811, "Ġground": 2812, "ump": 2813, "Ġhistory": 2814, "Ġshows": 2815, "hib": 2816, "Ġsection": 2817, "Ġnature": 2818, "cle": 2819, "ĠAm": 2820, "ĠMed": 2821, "illed": 2822, "ĠÑĩ": 2823, ",a": 2824, "Ġsurface": 2825, "Ġpara": 2826, "Ġcy": 2827, "hers": 2828, "irt": 2829, "ured": 2830, "Ġaccept": 2831, "izing": 2832, "Ġspect": 2833, "Ġwalk": 2834, "Ġstyle": 2835, "Ġhold": 2836, "quot": 2837, "ĠWith": 2838, "dd": 2839, "psilon": 2840, "Ġchanges": 2841, "sqrt": 2842, "Ġpolitical": 2843, "Ġknowledge": 2844, "Ġfocus": 2845, "displaystyle": 2846, "CH": 2847, "Ġblood": 2848, "Ġnormal": 2849, "Ġprevious": 2850, "Ġage": 2851, "rack": 2852, "eters": 2853, "ius": 2854, ",t": 2855, "Ġdeath": 2856, "Ġmatter": 2857, "lex": 2858, "Ġamount": 2859, "back": 2860, "Ġmodels": 2861, "head": 2862, "Ġpercent": 2863, "Ġlearning": 2864, "Ġ;": 2865, "Ġoccur": 2866, "Ġhands": 2867, "-h": 2868, "73": 2869, "Ġrecord": 2870, "ymbol": 2871, "ĠÃł": 2872, "Ġcalcul": 2873, "Ġfelt": 2874, "&&(": 2875, "Ġtable": 2876, "orld": 2877, "Ġinclude": 2878, "ĠCal": 2879, "gl": 2880, "_{\\": 2881, "ixed": 2882, "Ġphot": 2883, "Ġsays": 2884, "Ġmembers": 2885, "Ð¾Ð±": 2886, "Ġfall": 2887, "ening": 2888, "ondon": 2889, "Ġcells": 2890, "ĠPress": 2891, "ground": 2892, "IA": 2893, "_d": 2894, "ĠâĢĶ": 2895, "Ġassum": 2896, "ection": 2897, "Ġer": 2898, "pose": 2899, "ales": 2900, "Ġweight": 2901, "ires": 2902, "Ġsequ": 2903, "Ġdu": 2904, "ules": 2905, "ĠEurope": 2906, "ÐºÐ°": 2907, "ruction": 2908, "Om": 2909, "Ġsaw": 2910, "Ġperformance": 2911, "Ġbig": 2912, "Ã³n": 2913, "-S": 2914, "ached": 2915, "place": 2916, "ĠĠĠĠĠĠĠĠĠ": 2917, "Ġut": 2918, "ores": 2919, "Ġcompon": 2920, "ĠAb": 2921, "Ġlength": 2922, "Ġred": 2923, "Ġrecogn": 2924, "Ġge": 2925, "Ġmagn": 2926, "Ġwoman": 2927, "aced": 2928, "ĠPar": 2929, "][": 2930, "Ġsimple": 2931, "vare": 2932, "ino": 2933, "ĠCor": 2934, "roup": 2935, "ĠIntern": 2936, "tilde": 2937, "sf": 2938, "ises": 2939, "Ġclose": 2940, "Ġstates": 2941, "Ġmill": 2942, "Ġcut": 2943, "rown": 2944, "artment": 2945, "Ġeffects": 2946, "Ġbar": 2947, "fully": 2948, "72": 2949, "bre": 2950, "Ġsatisf": 2951, "Ġlanguage": 2952, "ĠFig": 2953, "$\\": 2954, "('": 2955, "ows": 2956, "Ġjob": 2957, "Ġdefin": 2958, "omes": 2959, "body": 2960, "Ġport": 2961, "mp": 2962, "Ġprec": 2963, "Ġconcern": 2964, "idered": 2965, "Ġservice": 2966, "Ġrequired": 2967, "ike": 2968, "Ġincrease": 2969, "Ġinitial": 2970, "ENT": 2971, "Ġfuture": 2972, "IV": 2973, "Math": 2974, "uk": 2975, "Ġstudies": 2976, "varepsilon": 2977, "bo": 2978, "Ġmoney": 2979, "Ġdiv": 2980, "aves": 2981, "no": 2982, "pecially": 2983, "Ġwhite": 2984, "Ġfront": 2985, "ĠSy": 2986, "ĠUS": 2987, "Con": 2988, "Ġfather": 2989, "Ġparent": 2990, "Ġthus": 2991, "inter": 2992, "Ġenvironment": 2993, "itted": 2994, "Ġcountry": 2995, "ply": 2996, "bed": 2997, "Ġdise": 2998, "Ġâ": 2999, "tical": 3000, "Ġcompany": 3001, "enc": 3002, "Ġcross": 3003, "ĠCent": 3004, "Ġsex": 3005, "uments": 3006, "Ġdistribution": 3007, "Ġnatural": 3008, "cret": 3009, "ster": 3010, "iff": 3011, "ky": 3012, "lish": 3013, "gor": 3014, "bt": 3015, "ĠBrit": 3016, "Ġconsidered": 3017, "Ġdefined": 3018, "andom": 3019, "Figure": 3020, "lor": 3021, "iddle": 3022, "CC": 3023, "Ð»Ð°": 3024, "haps": 3025, "Ġeval": 3026, "191": 3027, "Ð¾Ð½": 3028, "Ġidea": 3029, "Ġfive": 3030, "Ġdeep": 3031, "Ġimage": 3032, "osed": 3033, "Ġwanted": 3034, "sim": 3035, "pping": 3036, "UT": 3037, "Ġnecessary": 3038, "oms": 3039, "Ġmethods": 3040, "Ð¾Ñģ": 3041, "ĠMy": 3042, "Ġtri": 3043, "Fig": 3044, "Ġstandard": 3045, "but": 3046, "74": 3047, "Ġanything": 3048, "MS": 3049, "Ġconstant": 3050, "anced": 3051, "}_": 3052, ":[": 3053, "ynam": 3054, "Ġtreatment": 3055, "orem": 3056, "ĠPa": 3057, "Ġturned": 3058, "When": 3059, "Ġann": 3060, "ĠPer": 3061, "Ð¾Ð³Ð¾": 3062, "Ġsoft": 3063, "ha": 3064, "Type": 3065, "umber": 3066, "Ġbelow": 3067, "71": 3068, "erson": 3069, "Ġmechan": 3070, "ĠÐ³": 3071, "ĠRep": 3072, "NA": 3073, "ÑĢÑĥ": 3074, "ĠSee": 3075, "Ġdeal": 3076, "tot": 3077, "opy": 3078, "Ġpattern": 3079, "ega": 3080, "Ġid": 3081, "Ġmakes": 3082, "Ġprofess": 3083, "Ġstep": 3084, "(a": 3085, "irit": 3086, "MC": 3087, "Ġeff": 3088, "Ġtraining": 3089, "Ġoffic": 3090, "Ġworking": 3091, "Ġclaim": 3092, "mselves": 3093, "ĠSci": 3094, ".f": 3095, "84": 3096, "Ġhtt": 3097, "Ġappear": 3098, "ĠNot": 3099, "Ġaccess": 3100, "class": 3101, "acc": 3102, "Ġtherefore": 3103, "=e": 3104, "Ġobtained": 3105, "Ġevent": 3106, "xim": 3107, "Ġthemselves": 3108, "Ġbed": 3109, "centr": 3110, "rug": 3111, "ĠMay": 3112, "Ġhor": 3113, "Ġregard": 3114, "ĠII": 3115, "ĠÃ©": 3116, "-g": 3117, "Ġassociated": 3118, "/t": 3119, "cm": 3120, "urity": 3121, "ÑĤÐ¾": 3122, ".)": 3123, "101": 3124, ".jpg": 3125, "Ġliter": 3126, "ney": 3127, "ĠGerm": 3128, "93": 3129, "itting": 3130, "})": 3131, "ĠEl": 3132, "Ġgirl": 3133, "Ġneeded": 3134, "Ġimm": 3135, "ilt": 3136, "Ġ\\{": 3137, "91": 3138, "Ġbehind": 3139, "åŃĹ": 3140, "uous": 3141, "________________": 3142, "ret": 3143, "isc": 3144, "Ð¸Ð¼": 3145, "Ġfollows": 3146, "Ġproduction": 3147, "uit": 3148, "Ð»Ñı": 3149, "ĠWill": 3150, "itch": 3151, "ependent": 3152, "Ġheav": 3153, "ĠAcc": 3154, "Ġdark": 3155, "Ġrat": 3156, "Ġlimit": 3157, "Ġaff": 3158, "lying": 3159, "ili": 3160, "gorith": 3161, "Ġdescribed": 3162, "Ġfunctions": 3163, "verse": 3164, "Ġpositive": 3165, "airs": 3166, "Ġum": 3167, "acy": 3168, "IM": 3169, "190": 3170, "Ġusually": 3171, "bf": 3172, "istics": 3173, "value": 3174, "81": 3175, "uct": 3176, "How": 3177, "120": 3178, "mon": 3179, "Ġbehavior": 3180, "ĠEd": 3181, "à¥": 3182, "ros": 3183, "Ġbegan": 3184, "Ġpri": 3185, "Ð°Ð½": 3186, "\\\\": 3187, "bert": 3188, "iding": 3189, "Ġtradition": 3190, "Ġconsist": 3191, "astic": 3192, "Ġimag": 3193, "Ġaffect": 3194, "ĠHer": 3195, "Ġexcept": 3196, "Ġneeds": 3197, "Ġestim": 3198, "rap": 3199, "83": 3200, "Ġworks": 3201, ".x": 3202, "Ġdepend": 3203, "bit": 3204, "Ġquite": 3205, "Ġentire": 3206, "Ġnetwork": 3207, "rangle": 3208, "Ġlikely": 3209, "Ġtarget": 3210, "Ġrisk": 3211, "tag": 3212, "ĠFran": 3213, "ĠIN": 3214, "ille": 3215, "_c": 3216, "Ġresponse": 3217, "300": 3218, "Ġsem": 3219, "pm": 3220, "Ġheld": 3221, "Ġequation": 3222, "ais": 3223, "ey": 3224, "Ġdoing": 3225, "ils": 3226, "Ġdemon": 3227, "Ġforce": 3228, "Is": 3229, "PS": 3230, "istance": 3231, "Ġcoll": 3232, "Ġwhose": 3233, "86": 3234, "Ġquick": 3235, "obal": 3236, "([": 3237, "AAAAAAAAAAAAAAAA": 3238, "Ġactivity": 3239, "ĠSome": 3240, "erve": 3241, "ields": 3242, "cript": 3243, "Ġcompet": 3244, "Ġsix": 3245, "150": 3246, "Ġgrowth": 3247, "76": 3248, "_p": 3249, "ĠThus": 3250, "ios": 3251, "actions": 3252, "Ġfun": 3253, "ĠCont": 3254, "Ġtemperature": 3255, "82": 3256, "Ġbecame": 3257, "=n": 3258, "aving": 3259, "Ġpersonal": 3260, "lied": 3261, "Us": 3262, "ught": 3263, "ender": 3264, "Ġson": 3265, "like": 3266, "omen": 3267, "(r": 3268, "åķĬ": 3269, "Ġcle": 3270, "Omega": 3271, "pri": 3272, "Ã¨": 3273, "overed": 3274, "Ġret": 3275, "ĠFigure": 3276, "reen": 3277, "Ġ['": 3278, "with": 3279, "arent": 3280, "ols": 3281, "Ġconcentr": 3282, "Ġpor": 3283, "EM": 3284, "Ġrelig": 3285, "Ġevidence": 3286, "Ġlos": 3287, "Te": 3288, "Ġcheck": 3289, "ĠEnglish": 3290, "Ġrev": 3291, "_loss": 3292, "Ġdat": 3293, "94": 3294, "ites": 3295, "rs": 3296, "umb": 3297, "Ġcreat": 3298, "ĠGu": 3299, "trans": 3300, "Ġslow": 3301, "odes": 3302, "Ġstory": 3303, "ĠRev": 3304, "Ġweek": 3305, "Ġespecially": 3306, "ishing": 3307, ".M": 3308, "resh": 3309, "125": 3310, "Ġparticip": 3311, ".D": 3312, "ring": 3313, "iber": 3314, "tered": 3315, "Ġwall": 3316, "unt": 3317, "Ġcommunic": 3318, "ĠAct": 3319, "hel": 3320, "Ġlevels": 3321, "ĠIm": 3322, "oke": 3323, "vec": 3324, "log": 3325, "Ġdifference": 3326, "-st": 3327, "Ġvoice": 3328, "Ġrelated": 3329, "lement": 3330, "Ã¶": 3331, "Ġ`": 3332, "(x": 3333, "Ġcustom": 3334, "ĠGr": 3335, "Ġcontr": 3336, "AK": 3337, "Ġquestions": 3338, "light": 3339, "Ġsource": 3340, "Ġsyn": 3341, "Ġbelieve": 3342, "ĠDes": 3343, "Ġjud": 3344, "Tr": 3345, "ula": 3346, "Ġfinal": 3347, "ĠDo": 3348, "92": 3349, "128": 3350, "EST": 3351, "Ġbreak": 3352, "abor": 3353, "www": 3354, "Ġcommunity": 3355, "Ġphysical": 3356, "ops": 3357, "arc": 3358, "Ġsqu": 3359, "Ġanswer": 3360, "atively": 3361, "####": 3362, "Ġgave": 3363, "ĠĠĠĠĊ": 3364, "ension": 3365, "Ġattempt": 3366, "ging": 3367, "Ġlonger": 3368, "aries": 3369, "Ġcomplete": 3370, "psi": 3371, "Ġperm": 3372, "earch": 3373, "Ġaverage": 3374, "oved": 3375, "ham": 3376, "],[": 3377, "Ġlines": 3378, "orts": 3379, "Ci": 3380, "rams": 3381, "orks": 3382, "Ġgraph": 3383, "Ġinvestig": 3384, "oul": 3385, "epsilon": 3386, "Ġseries": 3387, "ĠCoun": 3388, "Ġagre": 3389, "Ġdoc": 3390, "aching": 3391, "arily": 3392, "Ġprinc": 3393, "plement": 3394, "Aw": 3395, "Ġpubl": 3396, "ĠAfter": 3397, "aff": 3398, "uration": 3399, "Ġpractice": 3400, "Ġwasn": 3401, "hood": 3402, ".get": 3403, "Ġpredict": 3404, ",i": 3405, "Ġexact": 3406, "frak": 3407, "ieved": 3408, "Ġobserved": 3409, "Ġways": 3410, "mathfrak": 3411, "abel": 3412, "Ġfriend": 3413, "ĠStr": 3414, "AQ": 3415, "Ġsus": 3416, "ĠStud": 3417, "print": 3418, "Ġcause": 3419, "ĠComp": 3420, "Ġintegr": 3421, "alle": 3422, "Ġfactor": 3423, "geq": 3424, "reet": 3425, "Ġmess": 3426, "Ġpsych": 3427, "Ġlooking": 3428, "dro": 3429, "Qu": 3430, "rought": 3431, "ems": 3432, "])": 3433, "Ġprovided": 3434, "cted": 3435, "Ġinput": 3436, "Ġintern": 3437, "UL": 3438, "ĠLondon": 3439, "Ġens": 3440, "ĠDr": 3441, "IR": 3442, "Ġcity": 3443, "Ġcolor": 3444, "dom": 3445, "ev": 3446, "Ġprobably": 3447, "mathsf": 3448, "Ġareas": 3449, "----------------": 3450, "Ġnumbers": 3451, "Ġseems": 3452, "itation": 3453, "Ġpie": 3454, "Ġdemonstr": 3455, "bolds": 3456, "Ġpressure": 3457, "Ġbit": 3458, "wise": 3459, "];": 3460, "001": 3461, "Ġtax": 3462, ",s": 3463, "boldsymbol": 3464, "ony": 3465, "ĠÐ»": 3466, "Ġir": 3467, "ï¼ŁĊ": 3468, "Ġtaking": 3469, "ste": 3470, "Ð°Ð½Ð¸": 3471, "plot": 3472, "->": 3473, "Ġda": 3474, "osis": 3475, "acity": 3476, "QU": 3477, "Ġsimply": 3478, "Ġanaly": 3479, "raction": 3480, "Ind": 3481, "Ġreview": 3482, "aly": 3483, "Ġfactors": 3484, "ĠAf": 3485, "urg": 3486, "ĠAg": 3487, "ĠSim": 3488, "Ġimprove": 3489, "Ġadj": 3490, "ĠInc": 3491, "Ġeducation": 3492, "Ġfund": 3493, "Ġnational": 3494, "ÐµÐ¹": 3495, "Ġcompar": 3496, "Ġpopulation": 3497, "Ġbenef": 3498, "Ġchall": 3499, "ford": 3500, "elling": 3501, "Ġoutside": 3502, "Ġpull": 3503, "Ġlot": 3504, "By": 3505, "Ġteam": 3506, "All": 3507, "Ġaccording": 3508, "Ġgreater": 3509, "ĠMc": 3510, "{C": 3511, "Ġtypes": 3512, "Ġsam": 3513, "rew": 3514, "Ð¾Ðº": 3515, "ministr": 3516, "Ġpolicy": 3517, "iÃ³n": 3518, "Ġattention": 3519, "Ġbring": 3520, "ĠMod": 3521, "Ġexpected": 3522, "è¯ķ": 3523, "Ġten": 3524, "Ġartic": 3525, "pid": 3526, "(s": 3527, "Ġdam": 3528, "Ġcorrect": 3529, "Ġfav": 3530, "AY": 3531, "OC": 3532, "Ġexpression": 3533, "ica": 3534, "110": 3535, "ilos": 3536, "\":\"": 3537, "En": 3538, "Ġeconomic": 3539, "Ġquality": 3540, "ror": 3541, "Ġregion": 3542, "Ġcontext": 3543, "Ġsle": 3544, "osition": 3545, "-C": 3546, "Ġhours": 3547, "omp": 3548, "ĠMore": 3549, "Ġdraw": 3550, "Ġphase": 3551, "opt": 3552, "align": 3553, "OW": 3554, "Ġspeak": 3555, "Ġproced": 3556, "varphi": 3557, "Ġstren": 3558, "raft": 3559, "Ġteac": 3560, "tries": 3561, "Ġelements": 3562, "Ġtry": 3563, "ĠÐ°": 3564, "ĠJournal": 3565, "ki": 3566, "Ġmach": 3567, "ĠAND": 3568, "Ð°Ð¼": 3569, "Ġfeatures": 3570, "ĠWar": 3571, "Sh": 3572, "Ġsoon": 3573, "cale": 3574, "max": 3575, "Ġfa": 3576, "_f": 3577, "ĠBr": 3578, "Ġmanagement": 3579, "iles": 3580, "ecause": 3581, "ĠPart": 3582, "/d": 3583, "Ġinterpre": 3584, "Ġlearn": 3585, "Ġbasis": 3586, "Ġwritten": 3587, "ĠÐ¾ÑĤ": 3588, "lege": 3589, "Ġseemed": 3590, "Ġinside": 3591, "Ġincreased": 3592, "Ġsomeone": 3593, "Ġcontent": 3594, "Ġeffective": 3595, "Ġliving": 3596, ".b": 3597, "Ġattack": 3598, "nder": 3599, ".'": 3600, "oud": 3601, "ĠTrans": 3602, "Ġstra": 3603, "ĠMin": 3604, "Ġminutes": 3605, "Ġgas": 3606, "Ġadm": 3607, "index": 3608, "zz": 3609, "Ġimmedi": 3610, "lier": 3611, "Ġcat": 3612, "kn": 3613, "Ġinstead": 3614, "oe": 3615, "inally": 3616, "Ġdisease": 3617, "Ġalgorith": 3618, "anc": 3619, "ĠNational": 3620, "raining": 3621, "111": 3622, "Ġservices": 3623, "Ġlive": 3624, "Ġsituation": 3625, "bor": 3626, "ensive": 3627, "That": 3628, "ĠState": 3629, "ements": 3630, "Ġdeveloped": 3631, "Ġequal": 3632, ">A": 3633, "sl": 3634, "FIG": 3635, "which": 3636, "ana": 3637, "Ġoriginal": 3638, "date": 3639, "comp": 3640, "const": 3641, "atives": 3642, "ĠHar": 3643, "),Ċ": 3644, "Ġthird": 3645, "itary": 3646, ".pro": 3647, "inger": 3648, "Ġheard": 3649, "Ġfem": 3650, "Ġmaintain": 3651, "mber": 3652, "Ġbal": 3653, "Ġcentury": 3654, "Ġful": 3655, "Ġcount": 3656, "ĠChar": 3657, "Ġunderstanding": 3658, "key": 3659, "nn": 3660, "roke": 3661, "ĠST": 3662, "bra": 3663, "./": 3664, "lib": 3665, "ĠVal": 3666, "ATION": 3667, "Gamma": 3668, "Ġpack": 3669, "Ġtoday": 3670, "ÐºÐ¸": 3671, "Īĺ": 3672, "ĠInt": 3673, "cription": 3674, "Ġelement": 3675, "-M": 3676, "Ġmonths": 3677, "pmb": 3678, "180": 3679, "isions": 3680, "So": 3681, "ĠUs": 3682, "Ġpict": 3683, "ura": 3684, "ĠReg": 3685, "Wh": 3686, "anger": 3687, "iques": 3688, "uly": 3689, "Ġgame": 3690, "Ġmicro": 3691, "ounds": 3692, "Ġincreasing": 3693, "aN": 3694, "Le": 3695, "\")": 3696, "imin": 3697, "Ġeverything": 3698, "hemical": 3699, "iting": 3700, "Ġ(\\": 3701, "Ġfeet": 3702, "ĠDep": 3703, "ocal": 3704, "Ð°ÑĢ": 3705, "Ġbase": 3706, "Ġ,Ċ": 3707, "IP": 3708, "Ġimpact": 3709, "102": 3710, "Ġdistance": 3711, "/+": 3712, "ese": 3713, "Ġhot": 3714, "Ġdirection": 3715, "ancial": 3716, "Se": 3717, "Ġtou": 3718, "cos": 3719, "vant": 3720, "Ġpatient": 3721, "oly": 3722, "ordin": 3723, "overline": 3724, "Ġmatrix": 3725, "ĠPe": 3726, "Ġmeaning": 3727, "=[": 3728, "come": 3729, "Ġhyp": 3730, "hern": 3731, "Ġgives": 3732, "Ġlinear": 3733, "pec": 3734, "Ġsett": 3735, "Ġproperties": 3736, "Ġcreate": 3737, "VV": 3738, "mar": 3739, "Ġconsum": 3740, "-n": 3741, "ett": 3742, "Ġdimens": 3743, "qq": 3744, "iform": 3745, "Ġ${": 3746, "Ġbad": 3747, "rench": 3748, "ded": 3749, "oles": 3750, "ĠBar": 3751, "oo": 3752, "width": 3753, "Ġ{'": 3754, "ington": 3755, "AF": 3756, "Ð¸Ð½": 3757, "{m": 3758, "Ġhom": 3759, "Ġlate": 3760, "Ġreported": 3761, "Ġproperty": 3762, "-based": 3763, "Ġsample": 3764, "Ġbrought": 3765, "Ġrandom": 3766, "Ġfire": 3767, "Ġdecl": 3768, "ivil": 3769, "Ġein": 3770, "Ġdynam": 3771, "Ġessential": 3772, "Ġdecre": 3773, "Ġstay": 3774, "ĠFr": 3775, "Ġconduct": 3776, "Ġfigure": 3777, "âĢĻs": 3778, "iled": 3779, "ĠWorld": 3780, "aches": 3781, "tributed": 3782, "yond": 3783, "Ġinstit": 3784, "ulations": 3785, "Ġmiss": 3786, "\">Ċ": 3787, "Ġsubst": 3788, "Of": 3789, "189": 3790, "leg": 3791, "ulated": 3792, "CE": 3793, "Ġstarted": 3794, "onal": 3795, "Ġopportun": 3796, "Ġevents": 3797, "Ġmodern": 3798, "Ġprint": 3799, "lin": 3800, "Ġforms": 3801, "Ġexperien": 3802, "Ġca": 3803, "Ġviol": 3804, "}^{": 3805, "OP": 3806, "Ġaddress": 3807, "inct": 3808, "Ġhistor": 3809, "Ġwait": 3810, "eneral": 3811, "room": 3812, "Ġissues": 3813, "Ġemer": 3814, "Ġleave": 3815, "Ġprice": 3816, "Ġcomplet": 3817, "ĠSince": 3818, "men": 3819, "Ġsn": 3820, "NS": 3821, "igen": 3822, "asc": 3823, "izes": 3824, "ĠSystem": 3825, ".org": 3826, "ÑĦ": 3827, "Ġproducts": 3828, "']": 3829, "Ġapproxim": 3830, "ellow": 3831, "Ġinvolved": 3832, "Ġavoid": 3833, "Ġactually": 3834, "ĠSm": 3835, "Ġaud": 3836, "Ġparameters": 3837, "ustry": 3838, "Ġassess": 3839, "vey": 3840, "(){": 3841, "Ġconv": 3842, "Ġpan": 3843, "Ġtrying": 3844, "ĠDis": 3845, "Ġalthough": 3846, "Ġalone": 3847, "-B": 3848, "Ġappropri": 3849, "Pl": 3850, "olic": 3851, "Ġoutput": 3852, "Ġcry": 3853, "df": 3854, "ĠÐ·Ð°": 3855, "ĠLa": 3856, "ĠMon": 3857, "ĠAmerica": 3858, "fill": 3859, "ingu": 3860, "Ġprivate": 3861, "Ġsociety": 3862, "Ġdecision": 3863, "Ġimplement": 3864, "Ġcontact": 3865, ".y": 3866, "uel": 3867, "Ġcountries": 3868, "aint": 3869, "Ġsomet": 3870, "Ġcateg": 3871, "Ġcentral": 3872, "ades": 3873, "Ġcapital": 3874, "400": 3875, "Ġbott": 3876, "AE": 3877, "âĢĺ": 3878, ">B": 3879, "Ġwrite": 3880, "Ġprevent": 3881, "iment": 3882, "='": 3883, "more": 3884, "Ġeasy": 3885, "ography": 3886, "Ġdig": 3887, "Ġ\\}": 3888, "Ġerror": 3889, "Ã§Ã£o": 3890, "\"},": 3891, "enty": 3892, "Ġreve": 3893, "ato": 3894, ">.": 3895, "Ġcompared": 3896, "Ġmention": 3897, "Ġprovides": 3898, "ĠDav": 3899, "Ġcomes": 3900, "Ġdirectly": 3901, "Ġpage": 3902, "Ġbuilding": 3903, "108": 3904, "Ġdegree": 3905, ">F": 3906, "langle": 3907, "TA": 3908, "Ġ@": 3909, "Ġtrain": 3910, "Ġprop": 3911, "Ġpresence": 3912, "Ġparts": 3913, "apan": 3914, "Ġapplication": 3915, "%</": 3916, "æµĭ": 3917, "Ġord": 3918, "{\"": 3919, "ding": 3920, "Ġadded": 3921, "under": 3922, "Ġfollowed": 3923, "Ġlarger": 3924, "used": 3925, "Ġactivities": 3926, "xy": 3927, "ĠAfric": 3928, "Ġlas": 3929, "Ġparticularly": 3930, "iant": 3931, "Ġexpress": 3932, "}}$": 3933, "Ġtakes": 3934, "do": 3935, "Ġhair": 3936, "Ġplant": 3937, "ĠFrom": 3938, "ĠSouth": 3939, "ken": 3940, "Ġdest": 3941, "Ġarch": 3942, "Ġsite": 3943, "etr": 3944, "vis": 3945, "ira": 3946, "Ġdrug": 3947, "Ġinstance": 3948, "New": 3949, "!\"": 3950, "gu": 3951, "Ġdemand": 3952, "Ġindex": 3953, "Ġbroad": 3954, "Ġdro": 3955, "105": 3956, "Col": 3957, "gth": 3958, "Ġprior": 3959, "eds": 3960, "ĠÎ": 3961, "Ġaspect": 3962, "Ġlack": 3963, "BB": 3964, "Ġsch": 3965, "Ġissue": 3966, "187": 3967, "ĠNow": 3968, "chi": 3969, "ĠInternational": 3970, "Ã©s": 3971, "Ġsequence": 3972, "Ġcode": 3973, "()Ċ": 3974, "Ġunit": 3975, "bon": 3976, "Ġspirit": 3977, "import": 3978, "Ġsun": 3979, "Ġ//": 3980, "Ġregular": 3981, "188": 3982, "ternal": 3983, "Ġcouldn": 3984, "Ġlost": 3985, "LA": 3986, ".;": 3987, "Ġaltern": 3988, "Ġspecies": 3989, "Ġnote": 3990, "Ġstri": 3991, ".The": 3992, "itions": 3993, "Ġrecent": 3994, "Ġdetect": 3995, ".P": 3996, "ronic": 3997, "Ġcorresponding": 3998, "inn": 3999, ">(": 4000, "Ġwriting": 4001, "Ġtransform": 4002, "Ġillustr": 4003, "Ġswe": 4004, "ĠGl": 4005, "Ġsometimes": 4006, "Ġprep": 4007, "Ãª": 4008, "140": 4009, "Ġmillion": 4010, "Ġscale": 4011, "Ġnumer": 4012, "Ġaw": 4013, "Ġinj": 4014, "Ġep": 4015, "_n": 4016, ",âĢĿ": 4017, "Ġbir": 4018, "ferences": 4019, "ights": 4020, "px": 4021, "ĠNorth": 4022, "era": 4023, "Ġbeaut": 4024, "Ġinfluence": 4025, "Ġpresented": 4026, "(this": 4027, "/m": 4028, "Ġsearch": 4029, "adem": 4030, "Ad": 4031, "../../": 4032, "emb": 4033, "103": 4034, "ancy": 4035, "Be": 4036, "Ġtruth": 4037, "Ġtown": 4038, "Ġexec": 4039, "othes": 4040, "ĠWest": 4041, "Ġpour": 4042, "ares": 4043, "aling": 4044, "Ġdensity": 4045, "Ġrespectively": 4046, "ĠEr": 4047, "anks": 4048, "Ġvolume": 4049, "Ġax": 4050, "ming": 4051, "Ġbecomes": 4052, "Ġmusic": 4053, "Ġthinking": 4054, "ĠKing": 4055, "ĠChristian": 4056, "ials": 4057, "Ġmole": 4058, "Ġcolumn": 4059, "oin": 4060, "oat": 4061, "clus": 4062, "Ġrepl": 4063, "-to": 4064, "dered": 4065, "ÐµÐ´": 4066, "ĠMat": 4067, "igr": 4068, "ĠCons": 4069, ":#": 4070, "/st": 4071, "(var": 4072, "Ġshare": 4073, "Ġcamp": 4074, "eks": 4075, "change": 4076, "ij": 4077, "Ġperhaps": 4078, "och": 4079, "OG": 4080, "estern": 4081, "Ġforward": 4082, "Ġdoesn": 4083, "TH": 4084, "Ġ{\"": 4085, "Ġcover": 4086, "Or": 4087, "Ġnuc": 4088, "urt": 4089, "Ġhear": 4090, "duc": 4091, "oon": 4092, "Ġchoice": 4093, "250": 4094, "Ġaccuracy": 4095, "Ġcoming": 4096, "Ġbasic": 4097, "Ġcompan": 4098, "Ġengine": 4099, "Ġmulti": 4100, ".L": 4101, "Ġapplied": 4102, ".R": 4103, "Ġweak": 4104, "109": 4105, "Ġacid": 4106, "Ġtor": 4107, "Ġblock": 4108, "Ġeth": 4109, "Ġdead": 4110, "Ġmap": 4111, "ĠJes": 4112, "ading": 4113, "ãģĤ": 4114, "SS": 4115, "oted": 4116, "ĠBritish": 4117, "Ġability": 4118, "Ġdetermined": 4119, "itte": 4120, "Ġ$^": 4121, "Ġconstit": 4122, "UN": 4123, "ÐµÐ½Ð¸Ñı": 4124, "totype": 4125, "fort": 4126, "Ġbeyond": 4127, "186": 4128, "Ġparents": 4129, ",l": 4130, "ĠĠĠĠĠĠĠĠĠĠ": 4131, "Id": 4132, "Ġgetting": 4133, "Ġadditional": 4134, "top": 4135, "Ġfram": 4136, "box": 4137, "gment": 4138, ".n": 4139, "-e": 4140, "ico": 4141, "za": 4142, "203": 4143, "ĠRec": 4144, "Ġconstruct": 4145, "Ġextrem": 4146, "Ġmultiple": 4147, "Ġmyself": 4148, "ĠFl": 4149, "hr": 4150, "IE": 4151, "Ġnegative": 4152, "Ġindividuals": 4153, "Ġpurpose": 4154, "104": 4155, "ship": 4156, "ffe": 4157, "Ġemot": 4158, "Ġhope": 4159, "Ġmer": 4160, "ĠAc": 4161, "Ġmiddle": 4162, "Ġfriends": 4163, "Ġperfect": 4164, "rely": 4165, "_m": 4166, "ĠTable": 4167, "Ġstress": 4168, "-y": 4169, "Ġfear": 4170, "ĠPres": 4171, "ĠFirst": 4172, "Ġpick": 4173, "Ġled": 4174, "Ġbox": 4175, "ĠResearch": 4176, "Ġoffice": 4177, "etry": 4178, "Ġmut": 4179, "Ġcapt": 4180, "aged": 4181, "Ġhab": 4182, ">T": 4183, "Ġcenter": 4184, ".:": 4185, "Ġcard": 4186, "Ġautom": 4187, "cil": 4188, "Ġwatch": 4189, "###": 4190, "],Ċ": 4191, "UM": 4192, "ously": 4193, "Ġtowards": 4194, "undred": 4195, "135": 4196, "Ġgenerally": 4197, "Ġtas": 4198, "Ġqual": 4199, "Let": 4200, "With": 4201, "Ġculture": 4202, "Ġheat": 4203, ".h": 4204, "Ġscient": 4205, "ĠCH": 4206, "ldots": 4207, "Ġdra": 4208, "ership": 4209, "ĠEm": 4210, "ogen": 4211, "Ġincluded": 4212, "rightarrow": 4213, "ĠWilliam": 4214, "Ġreceived": 4215, "ĠÐ¿Ð¾": 4216, "ĠJan": 4217, "Ġtransl": 4218, "Ġstage": 4219, "Ġfoot": 4220, "Ps": 4221, "Ġuseful": 4222, "Ġmis": 4223, "ara": 4224, "enth": 4225, "Ġearlier": 4226, "Ġlink": 4227, "Gl": 4228, "LT": 4229, "ĠServ": 4230, "Ġstrength": 4231, "allel": 4232, "!==": 4233, "124": 4234, "Ġpoor": 4235, "orph": 4236, "YX": 4237, "=r": 4238, "800": 4239, "Ġevalu": 4240, "['": 4241, "ests": 4242, "from": 4243, "tex": 4244, "alt": 4245, "dots": 4246, ".B": 4247, "Ġbur": 4248, "Ġmovement": 4249, "Ġproduced": 4250, "Ġunc": 4251, "Ġtask": 4252, "Ġconvers": 4253, "Ġchapter": 4254, "-P": 4255, "Ġcritical": 4256, "FB": 4257, "icht": 4258, "Ġwrong": 4259, "augh": 4260, "'.": 4261, "va": 4262, "Ġuser": 4263, "Ġstop": 4264, "ching": 4265, "Ġsurpr": 4266, "rum": 4267, "clusion": 4268, "Ġprocesses": 4269, "Ġnorm": 4270, "ĠRuss": 4271, "phas": 4272, "IB": 4273, "aled": 4274, "255": 4275, "Ġtend": 4276, "isms": 4277, "Ġconsequ": 4278, "Ġindependent": 4279, "Ġserious": 4280, "Ġshape": 4281, "Ii": 4282, "sin": 4283, "Ġvalid": 4284, ",c": 4285, "Ġones": 4286, ".-": 4287, "ospital": 4288, "Array": 4289, "107": 4290, "Ġslight": 4291, "ĠHist": 4292, "160": 4293, "Ġtried": 4294, "ords": 4295, "hemat": 4296, ".push": 4297, "ĠPat": 4298, "Ġcorrel": 4299, "ida": 4300, "Ġmorning": 4301, "(c": 4302, ".J": 4303, "Ġrefer": 4304, "127": 4305, "ZW": 4306, "tributes": 4307, "Ġacqu": 4308, "Ġmag": 4309, "130": 4310, "ka": 4311, "Ġconver": 4312, "Ġeasily": 4313, "Ġlabor": 4314, "omy": 4315, "121": 4316, "Ġfile": 4317, "}(": 4318, "ĠâĢĺ": 4319, "Ġcourt": 4320, "106": 4321, "oman": 4322, "fin": 4323, ":{": 4324, "tation": 4325, "Ġoffer": 4326, "Ġmit": 4327, "Ġindustry": 4328, "ĠBer": 4329, "Ġzero": 4330, "joy": 4331, "ufact": 4332, "upp": 4333, "cles": 4334, "Ġfast": 4335, "olar": 4336, "lim": 4337, "Ġinform": 4338, ",-": 4339, "ĠBo": 4340, "ĠEar": 4341, "Ax": 4342, "Ġroad": 4343, "Ġetc": 4344, "Ġrelation": 4345, "ĠĠĠĠĠĠĠĠĠĠĠĠĠĠĠĠĠĠĠ": 4346, "ĠSection": 4347, "Ġproposed": 4348, "https": 4349, "ĠPre": 4350, "Ġneigh": 4351, "Ġbackground": 4352, "Ġfixed": 4353, "inks": 4354, "Ġdifferences": 4355, "ript": 4356, "Ġround": 4357, "iot": 4358, "Ġwave": 4359, "iling": 4360, "Ġrepe": 4361, "ayer": 4362, "ĠJapan": 4363, "ety": 4364, "::": 4365, "ctors": 4366, "YW": 4367, "112": 4368, "Ġfinancial": 4369, "orge": 4370, "exp": 4371, "Ob": 4372, "122": 4373, "urrent": 4374, "itable": 4375, "ias": 4376, "Ġexerc": 4377, "(i": 4378, "ception": 4379, "Ġrule": 4380, "Ġwide": 4381, "Ġcontrast": 4382, "ideo": 4383, "my": 4384, "========================": 4385, "115": 4386, "185": 4387, "Yes": 4388, "Ġcontract": 4389, "-D": 4390, "Ġbeginning": 4391, "ĠCommun": 4392, "ĠÐµ": 4393, "ĠFrench": 4394, "Ġparty": 4395, "Ġrights": 4396, "Ġspeed": 4397, "Ġnam": 4398, "that": 4399, "FF": 4400, "king": 4401, "ibrary": 4402, "book": 4403, "Oh": 4404, "âĢĵ": 4405, "ĠMark": 4406, "stitute": 4407, "Ġdetermine": 4408, "Ġreading": 4409, "Ġlif": 4410, "ĠCour": 4411, "Ġdog": 4412, "Ġproduce": 4413, "OV": 4414, "Ġinflating": 4415, "known": 4416, "rapy": 4417, "Ġmemory": 4418, "(),": 4419, "race": 4420, "Ġappropriate": 4421, "ï¼ļĊ": 4422, "ĠJew": 4423, "istry": 4424, "117": 4425, "Bl": 4426, "ç®Ģ": 4427, "bG": 4428, "iency": 4429, "berg": 4430, "omas": 4431, "Ġlimited": 4432, "Ġmouth": 4433, "Ġphilos": 4434, "Ġimpl": 4435, "Ġinternational": 4436, "mark": 4437, "+\"": 4438, "Ġanim": 4439, "Ġglobal": 4440, "ĠWhile": 4441, "/c": 4442, "Ġclin": 4443, "Ġnor": 4444, "Ġadvant": 4445, "======": 4446, "One": 4447, "ports": 4448, "Ġresources": 4449, "Ġsleep": 4450, "Ġclosed": 4451, "Table": 4452, "pite": 4453, "Ġrates": 4454, "ĠAlthough": 4455, "omb": 4456, "Ġflu": 4457, "Ġcreated": 4458, "Ġvariables": 4459, "ante": 4460, "AV": 4461, "Ġtrou": 4462, "bb": 4463, ";/": 4464, "Ġfit": 4465, "EP": 4466, "Ġhon": 4467, "ny": 4468, "Ġbooks": 4469, "Ġprimary": 4470, "********": 4471, "Ġquickly": 4472, "123": 4473, "-r": 4474, "rote": 4475, "ĠOther": 4476, "Ġsort": 4477, "Ġemp": 4478, "IH": 4479, "Ġinn": 4480, ".E": 4481, "Ġcarry": 4482, "attle": 4483, "Ġearth": 4484, "Ġren": 4485, "Ġprobability": 4486, "OU": 4487, "ĠAug": 4488, "âĢ¢": 4489, "Ġtree": 4490, "Str": 4491, "band": 4492, "Ġextra": 4493, "ech": 4494, "={": 4495, "=this": 4496, "ially": 4497, "Ġrecomm": 4498, "ults": 4499, "Ġhundred": 4500, "Ġvia": 4501, "Ġstru": 4502, "ĠAng": 4503, "Ġclearly": 4504, "chen": 4505, "Ġkept": 4506, "ĠChapter": 4507, "Ġstraight": 4508, "---": 4509, "Ġvector": 4510, "Ð¸Ð»": 4511, "Ġfrequency": 4512, "600": 4513, "Ġremember": 4514, "Ġ[========================": 4515, "Ġreached": 4516, "Ġphen": 4517, "Ġago": 4518, "Ġsteps": 4519, "Ġwife": 4520, "ession": 4521, "appa": 4522, "Ġrelative": 4523, "Ġsurv": 4524, "Ġwood": 4525, "ĠHere": 4526, "-A": 4527, "iers": 4528, "Ġpen": 4529, "ÐµÐº": 4530, "Ġcontains": 4531, "Ġpret": 4532, "Ġsymb": 4533, "Ġimages": 4534, "uman": 4535, "Ġcomputer": 4536, "Ġideas": 4537, "Ġestablished": 4538, "cap": 4539, "ĠAssoci": 4540, "ĠNone": 4541, "Ġfeature": 4542, "Ġherself": 4543, "Ġdiscussed": 4544, "Ġfine": 4545, "Ġfair": 4546, "sec": 4547, "aily": 4548, "Ai": 4549, "Ġnull": 4550, "Ġmaximum": 4551, "ĠLord": 4552, "Ġreaction": 4553, "iful": 4554, "ERS": 4555, "pa": 4556, "ulate": 4557, "======]": 4558, "Ġ[==============================]": 4559, "Ġchurch": 4560, "eration": 4561, "ĠJesus": 4562, "EF": 4563, "ĠJust": 4564, "ĠPaul": 4565, "Ġpublished": 4566, ",o": 4567, "Ġbreath": 4568, "ĠEven": 4569, "116": 4570, "Ġstrict": 4571, ",the": 4572, "Ġequival": 4573, "Ã¼r": 4574, "ĠScience": 4575, "itz": 4576, "Ġachieve": 4577, "Ġshowed": 4578, "Ġhost": 4579, "Ġcomponents": 4580, "Ġfirm": 4581, "TS": 4582, ">R": 4583, "ando": 4584, "Ġcred": 4585, "tribute": 4586, "asons": 4587, "Ġgone": 4588, "Ġindu": 4589, "Ġremain": 4590, "Ġadministr": 4591, "Ġvirt": 4592, "Ġeight": 4593, "Ġbrother": 4594, "Ġfat": 4595, "Ġcosts": 4596, "_id": 4597, "184": 4598, "Ġfeed": 4599, "lig": 4600, "test": 4601, "Ġproof": 4602, "):Ċ": 4603, "Ġsuff": 4604, "Ġball": 4605, "ĠTherefore": 4606, "114": 4607, "113": 4608, "Ġtransfer": 4609, "Ġwhom": 4610, "Ġdas": 4611, "ĠJe": 4612, "vere": 4613, "ifying": 4614, "izations": 4615, "uls": 4616, "ooth": 4617, "Ġratio": 4618, "Ġtrade": 4619, "NG": 4620, "stroke": 4621, "Ġcru": 4622, "Ġlives": 4623, "Ġtele": 4624, "Ġclean": 4625, "Ġleading": 4626, "Ġrules": 4627, "Ġmaterials": 4628, "ederal": 4629, "point": 4630, "flict": 4631, "estion": 4632, "Ġblue": 4633, "Ð°Ð²": 4634, "ibly": 4635, "Ġsold": 4636, "Ġoil": 4637, "ĠInter": 4638, "Ġcharge": 4639, "157": 4640, "ĠMor": 4641, "ĠSw": 4642, "ager": 4643, "url": 4644, "wide": 4645, "vention": 4646, "Ġaim": 4647, "overn": 4648, "Ġmoved": 4649, "oring": 4650, "Ġhydro": 4651, "Ġobjects": 4652, "ama": 4653, "Ġpopular": 4654, "Ġtravel": 4655, "Ġscience": 4656, "hens": 4657, "Ġmid": 4658, "Ġcontain": 4659, "Ġprogress": 4660, "pling": 4661, "Now": 4662, "XS": 4663, "Ġorganization": 4664, "PR": 4665, "link": 4666, "Ġfeeling": 4667, "Ġversion": 4668, "Ġcontinued": 4669, "ocks": 4670, "\\*": 4671, "Ġcommand": 4672, "Ġglass": 4673, "Ġalgorithm": 4674, "ocr": 4675, "ellig": 4676, "Ġskin": 4677, "Ġvariable": 4678, "Ġplus": 4679, "ja": 4680, "ĠLaw": 4681, "Ġspl": 4682, "EB": 4683, "118": 4684, "Ġimportance": 4685, "Ġtechnology": 4686, "Ġworth": 4687, "Ġvel": 4688, "Phi": 4689, "\").": 4690, "Ġassign": 4691, "Ġdate": 4692, "etric": 4693, "Ġoptim": 4694, "Ġactive": 4695, "ĠRel": 4696, "Data": 4697, "Ġobvious": 4698, "_b": 4699, "Ġdocument": 4700, "ĠTra": 4701, "Ne": 4702, "Ġequations": 4703, "Ġappears": 4704, "Pr": 4705, "Ġreference": 4706, "ĠSchool": 4707, "ĠChurch": 4708, "\"W": 4709, "axis": 4710, "Ġenjoy": 4711, "ĠOur": 4712, "Ġcit": 4713, "tes": 4714, "ĠAust": 4715, "pective": 4716, "Ġune": 4717, "Ġbuilt": 4718, "=(": 4719, "333": 4720, "Ġgrand": 4721, "Ġtrust": 4722, "Ġrestr": 4723, "}_{": 4724, "Ġband": 4725, "Ġsolutions": 4726, "encies": 4727, "MA": 4728, "126": 4729, "sb": 4730, "Ġmedical": 4731, ".w": 4732, "ĠTechn": 4733, "Ġthroughout": 4734, "Ġsources": 4735, "Ġsufficient": 4736, "la": 4737, "sis": 4738, "PP": 4739, "Ġboy": 4740, "asure": 4741, "Ġfloor": 4742, "Ġsto": 4743, "ugh": 4744, "Ġactual": 4745, "Ġcand": 4746, "ĠEq": 4747, "Ġedge": 4748, "Ġdiscussion": 4749, "amin": 4750, "Ġchann": 4751, "ountain": 4752, "Ġtransm": 4753, "ya": 4754, "-H": 4755, "Ġstudent": 4756, "Ġunique": 4757, "ca": 4758, "Ġfig": 4759, "ĠBro": 4760, "119": 4761, "Ġcompletely": 4762, "Ġhighly": 4763, "Ġemphas": 4764, "unch": 4765, "CR": 4766, "ĠCity": 4767, "requ": 4768, "Ġdetails": 4769, "Ġfaith": 4770, "Ġsecurity": 4771, "ĠEngland": 4772, "works": 4773, "Ġcold": 4774, "Ġtitle": 4775, "ategy": 4776, "ixt": 4777, "onic": 4778, "amm": 4779, "Ġreduced": 4780, "Ġarms": 4781, "Ġdomin": 4782, "abla": 4783, "Ġwonder": 4784, "ĠÐĴ": 4785, "Bb": 4786, "Ġstood": 4787, "They": 4788, "Ġcollect": 4789, "rupt": 4790, "ridge": 4791, "Ġready": 4792, "ĠĠĠĠĠĠĠĠĠĠĠĠĠ": 4793, "Ġselect": 4794, "Ġdefinition": 4795, "kappa": 4796, "-up": 4797, "Ġfinally": 4798, "fo": 4799, "Ġdiss": 4800, "ago": 4801, "Ġrespond": 4802, "EG": 4803, "$$": 4804, "Ġformer": 4805, "ĠÐŁ": 4806, "Ġstrateg": 4807, "osen": 4808, "ashington": 4809, "Ġgreen": 4810, "Ġthreat": 4811, "gar": 4812, "')Ċ": 4813, "ĠEuropean": 4814, "ustrial": 4815, "Ġou": 4816, "ĠSer": 4817, "Ġforeign": 4818, "Ġwindow": 4819, "Ġenter": 4820, "itors": 4821, "raint": 4822, "Ġrapid": 4823, "Do": 4824, "Not": 4825, "ams": 4826, "asion": 4827, "Ġrequires": 4828, "agement": 4829, "Ġfields": 4830, "ocation": 4831, "Ġsecret": 4832, "icle": 4833, "Ġsud": 4834, "!\"Ċ": 4835, "gs": 4836, "aur": 4837, "Ġexactly": 4838, "EX": 4839, "002": 4840, "183": 4841, "unk": 4842, "Ġvon": 4843, "Ġrunning": 4844, "gn": 4845, "Ġparameter": 4846, "http": 4847, "ĠVol": 4848, "})$": 4849, "].Ċ": 4850, "Ġnovel": 4851, "(b": 4852, "Ġcarried": 4853, "Ġfilm": 4854, "ĠGeneral": 4855, "Ġvan": 4856, "alled": 4857, "Ġeye": 4858, "zo": 4859, "Ġexamples": 4860, "REF": 4861, "Ġenh": 4862, "Ġtechniques": 4863, "Ġdouble": 4864, "Ġdisplay": 4865, "Ġstatement": 4866, "rab": 4867, "Big": 4868, "ĠChina": 4869, "omin": 4870, "Ġdesigned": 4871, "Ġreflect": 4872, "arp": 4873, "ipment": 4874, "Ġbrain": 4875, "/f": 4876, "CD": 4877, "ĠLoss": 4878, "illing": 4879, "aded": 4880, "Ġuses": 4881, "Ġsmaller": 4882, "Ġroll": 4883, "\",Ċ": 4884, "well": 4885, "Ġthick": 4886, ">L": 4887, "Ġdefine": 4888, "Ġremains": 4889, "Ġletter": 4890, "Ġstatus": 4891, "Ġ!": 4892, "Name": 4893, "Ġcontroll": 4894, "Ġharm": 4895, "Lambda": 4896, "ĠSupp": 4897, "Ġpoly": 4898, "ĠInst": 4899, "Ġprograms": 4900, "Ġsudden": 4901, "ittee": 4902, "-se": 4903, "itect": 4904, ",h": 4905, "Ġign": 4906, "rec": 4907, "ba": 4908, "uge": 4909, "Ġencou": 4910, "Ġpair": 4911, "Ġperformed": 4912, "OH": 4913, "ĠDepartment": 4914, "181": 4915, "aging": 4916, ",d": 4917, ".F": 4918, "inner": 4919, "((": 4920, "AI": 4921, ".)Ċ": 4922, "CI": 4923, "wards": 4924, "Ġcontinuous": 4925, "ette": 4926, "Ġfight": 4927, "zy": 4928, "Ġchanged": 4929, "Ġthous": 4930, "Ġargument": 4931, "ĠHouse": 4932, "Ġbank": 4933, "Ġsignal": 4934, "ache": 4935, "Ġanyone": 4936, "ube": 4937, "Ġadapt": 4938, "Ġimmediately": 4939, "isation": 4940, "nabla": 4941, "iny": 4942, "ĠOf": 4943, "Ġdiag": 4944, "Ġmotion": 4945, "Ġexists": 4946, "ÑĢÐ¸": 4947, "/step": 4948, "Ġapplications": 4949, "}},": 4950, "Ġplaced": 4951, "Ġwarm": 4952, "Ġhappened": 4953, "Ġcounter": 4954, "Ġcoe": 4955, "gram": 4956, "Ġassume": 4957, "Ġbond": 4958, "vision": 4959, "tributions": 4960, "Ġfully": 4961, "/b": 4962, "Ġsolid": 4963, "Ġbab": 4964, "ĠAnn": 4965, "Ġcam": 4966, "yr": 4967, "Ġprotect": 4968, ".H": 4969, "Ġmoving": 4970, "Ġweeks": 4971, "Ġfalse": 4972, "Ġallowed": 4973, "Ġvariety": 4974, "Ġchalleng": 4975, "ns": 4976, "apers": 4977, "wood": 4978, "Ġsets": 4979, "Ġreligious": 4980, "iable": 4981, "Ġschem": 4982, "Ġliterature": 4983, "Ġorigin": 4984, "Ġcivil": 4985, "mail": 4986, "Ġupper": 4987, "-align": 4988, "Ġforces": 4989, "Ġclust": 4990, "roy": 4991, "Ġcontinue": 4992, "ĠĠĠĠĠĠĠĠĠĠĠĠ": 4993, "\";": 4994, "ĠĠĠĠĠĠĠĠĠĠĠĠĠĠĠĠĠĠĠĠĠĠĠ": 4995, "rage": 4996, ".set": 4997, "[i": 4998, "Ġbran": 4999, "170": 5000, "ĠComput": 5001, "rc": 5002, "Ġhttps": 5003, "icit": 5004, "edom": 5005, "Ġcomponent": 5006, "Ġarray": 5007, "Ġ%": 5008, "icon": 5009, "ipal": 5010, "empl": 5011, "Ġspread": 5012, "urance": 5013, "ĠAut": 5014, "hold": 5015, "Ġvict": 5016, "ĠTheorem": 5017, "Ġstim": 5018, "Ġgold": 5019, "ĠHealth": 5020, "Val": 5021, "Res": 5022, "Ġoccup": 5023, "Ġoperation": 5024, "Ġmeeting": 5025, "Ġstar": 5026, "Ġdivid": 5027, "Ġyourself": 5028, "ĠBook": 5029, "Ġutil": 5030, "Ġreach": 5031, "Ġcompanies": 5032, "ĠOct": 5033, "TR": 5034, "Ġgiving": 5035, "Ġsaying": 5036, "Ġallows": 5037, "AH": 5038, "Ġcompl": 5039, "Ġexperiment": 5040, "Ġunits": 5041, "Ġhyper": 5042, "mat": 5043, "ilde": 5044, "ĠEduc": 5045, "atever": 5046, "otal": 5047, "ĠDavid": 5048, "ĠBlack": 5049, "Ab": 5050, "Ġlegal": 5051, "Ġworkers": 5052, "375": 5053, "antic": 5054, "Ġpassed": 5055, "Ġmeasured": 5056, "fig": 5057, "Ġcup": 5058, "Ġwat": 5059, "Ġmanufact": 5060, "Ġdream": 5061, "inding": 5062, "Ġcommunication": 5063, "Ġdiff": 5064, "Ġincludes": 5065, "aset": 5066, "field": 5067, "Ġlatter": 5068, "Ġconstruction": 5069, "Ġsym": 5070, "Ġmedia": 5071, "Ġsamples": 5072, "ĠJames": 5073, "BC": 5074, "Ġstaff": 5075, "Ġsaf": 5076, "-L": 5077, "Ġmember": 5078, "Ġworked": 5079, "iance": 5080, "Ġeveryone": 5081, "ĠLi": 5082, "ophy": 5083, "cular": 5084, "179": 5085, "Ġstock": 5086, "ao": 5087, "uary": 5088, "iat": 5089, "129": 5090, "ĠSub": 5091, "Ġlayer": 5092, "Ġsetting": 5093, "/l": 5094, "ĠGerman": 5095, "SE": 5096, "ĠMich": 5097, "Ġrob": 5098, "Ġnearly": 5099, "Ġnod": 5100, "ees": 5101, "\\t": 5102, "emma": 5103, "/w": 5104, "Ġking": 5105, "Ġbelong": 5106, "Ġdeb": 5107, "Ġmilitary": 5108, "Ġpicture": 5109, "ih": 5110, "elled": 5111, "Ġapply": 5112, "Ġbul": 5113, "Ġ==": 5114, "TER": 5115, "Ġsymm": 5116, "zen": 5117, "umin": 5118, "map": 5119, "term": 5120, "182": 5121, "Ġcas": 5122, "-F": 5123, "ework": 5124, "ÐµÐ½Ð¸Ðµ": 5125, "Ġhour": 5126, "nel": 5127, "131": 5128, "Ġpow": 5129, "Ġsitu": 5130, "Ġconflict": 5131, "Ġgradu": 5132, "crete": 5133, "ris": 5134, "ries": 5135, "Ġcircum": 5136, "Ġexistence": 5137, "orrow": 5138, "ael": 5139, "cient": 5140, "ĠWhy": 5141, "Ġdistinct": 5142, "Ġ}$Ċ": 5143, "ears": 5144, "cast": 5145, "gebra": 5146, "Ġhttp": 5147, "Ġmeant": 5148, "Ġabsol": 5149, "ĠÐ¸Ð·": 5150, "Ġemb": 5151, "Ð½Ð¾Ð³Ð¾": 5152, "Ġtransport": 5153, "SI": 5154, "Ġprotein": 5155, "Ġ\\%$": 5156, "comm": 5157, "ĪĴ": 5158, "Ġinteresting": 5159, "ZX": 5160, "Ġinternal": 5161, "iring": 5162, "ĠRich": 5163, "start": 5164, "Ġrelatively": 5165, "Ġveloc": 5166, "su": 5167, "Ġfavor": 5168, "Ġinteraction": 5169, "Ġaccom": 5170, "ensor": 5171, "Ġsea": 5172, "Ġhus": 5173, "Ġnews": 5174, "Ġwid": 5175, "void": 5176, "ady": 5177, "ĠHol": 5178, "active": 5179, "ĠApr": 5180, "ĠCalif": 5181, "ads": 5182, "Ġgoes": 5183, "odies": 5184, "ĠSociety": 5185, "Ġvisual": 5186, "Ġtraditional": 5187, "roph": 5188, "Ġstructures": 5189, "Ġbuy": 5190, "Ġcaused": 5191, "Ġchoose": 5192, "SP": 5193, "139": 5194, "subset": 5195, "yd": 5196, "Ġpurch": 5197, "iveness": 5198, "ĠSam": 5199, "}{\\": 5200, "enge": 5201, "144": 5202, "159": 5203, "Ġskills": 5204, "level": 5205, "inci": 5206, "Ġonto": 5207, "Ġbes": 5208, "irect": 5209, "Ġdiagn": 5210, "Ġmachine": 5211, "des": 5212, "Ġopin": 5213, "175": 5214, "Ġbehavi": 5215, "ef": 5216, "/p": 5217, "Ġapparent": 5218, "ML": 5219, "wid": 5220, "Ġsquare": 5221, "-con": 5222, ".ex": 5223, "otic": 5224, "Then": 5225, "icted": 5226, "osite": 5227, "Ġerr": 5228, "ĠDon": 5229, "151": 5230, "vest": 5231, "MOD": 5232, "ĠMrs": 5233, "152": 5234, "idden": 5235, "Ġextract": 5236, "what": 5237, "Ġbrief": 5238, ":h": 5239, "ĠVer": 5240, "Ġ**": 5241, "Ġwouldn": 5242, "Ġreduce": 5243, "Ġincome": 5244, "Ġwrote": 5245, "NN": 5246, "Ġformation": 5247, "ĠCong": 5248, "ĠEv": 5249, "...Ċ": 5250, "ĠChe": 5251, "Ġcharg": 5252, "kin": 5253, "ĠdÃ©": 5254, "Ġdecided": 5255, "ĠFurther": 5256, "ui": 5257, "ĠHigh": 5258, "ĠData": 5259, "Ġhop": 5260, "Ġsignificantly": 5261, "142": 5262, "Ġevolution": 5263, "Sigma": 5264, "Cont": 5265, "ĠSan": 5266, "oma": 5267, "Ġheavy": 5268, "ĠAp": 5269, "Ġindeed": 5270, "otimes": 5271, "From": 5272, "Ġincreases": 5273, "pers": 5274, "ĠYour": 5275, "ushed": 5276, "ls": 5277, "Ġphone": 5278, "ĠPark": 5279, "ĠJune": 5280, "-re": 5281, "inese": 5282, "Ġreasons": 5283, "Ġeffort": 5284, "Ġfinite": 5285, "Ġexplain": 5286, "ĠMus": 5287, "136": 5288, "_g": 5289, "rows": 5290, "RI": 5291, "&#": 5292, "ita": 5293, "Ġprocedure": 5294, "Ġstring": 5295, "clude": 5296, "Ġdanger": 5297, "atin": 5298, "Ġpeace": 5299, "ayout": 5300, "Ġuna": 5301, ",f": 5302, "isl": 5303, "ZG": 5304, "CA": 5305, "Ġproport": 5306, "idge": 5307, ".r": 5308, "Ġchance": 5309, "Ġhar": 5310, "MP": 5311, "can": 5312, "133": 5313, "Ġpas": 5314, "-Ċ": 5315, "Ð½ÑĭÐ¹": 5316, "Ġult": 5317, "jection": 5318, "iced": 5319, "132": 5320, "204": 5321, "ĠRed": 5322, "Ġprove": 5323, "ĠHam": 5324, "umer": 5325, "Ġpal": 5326, "DS": 5327, "Ġtwenty": 5328, "Ġstrategy": 5329, "lease": 5330, "Ġmessage": 5331, "Ġquantum": 5332, "ipp": 5333, "ilies": 5334, "Ġarrang": 5335, "ete": 5336, "Ġmeasures": 5337, "))Ċ": 5338, "156": 5339, "ĠSocial": 5340, "abil": 5341, "ĠMiss": 5342, "Ġnames": 5343, "atus": 5344, "Ġeffic": 5345, "166": 5346, "MG": 5347, "Ġactions": 5348, "ava": 5349, "ĠEast": 5350, "rite": 5351, "Ġburn": 5352, "ĠMost": 5353, "ĠMac": 5354, "337": 5355, "html": 5356, "ĠFe": 5357, "isted": 5358, "riage": 5359, "Ġunivers": 5360, "Ġcultural": 5361, "Am": 5362, "ĠBecause": 5363, "Ġspin": 5364, "ria": 5365, ",p": 5366, ":t": 5367, "Ġadjust": 5368, "Ġopened": 5369, "Ġ--": 5370, "irty": 5371, "Ġzu": 5372, "Ġpure": 5373, "cup": 5374, "Ġprofessional": 5375, "143": 5376, "Ġtransition": 5377, "Ġsales": 5378, "-T": 5379, "Ġcook": 5380, "ĠTest": 5381, "else": 5382, "amental": 5383, "ĠSur": 5384, "145": 5385, "153": 5386, "Ġmanner": 5387, "empor": 5388, "ancing": 5389, "ĠWashington": 5390, "Ġbirth": 5391, "ude": 5392, "vi": 5393, ";stroke": 5394, "141": 5395, "QQ": 5396, "Ã±": 5397, "-year": 5398, "Ġlabel": 5399, "Ġbill": 5400, "ĠEqu": 5401, "Ġfif": 5402, "aker": 5403, "ĠBi": 5404, "ander": 5405, "171": 5406, "Ġinteg": 5407, "178": 5408, "CL": 5409, "ĠIndian": 5410, "ĠOb": 5411, "Ġheight": 5412, "Ġestablish": 5413, "Ġ$^{": 5414, "Ġbelief": 5415, "Ġprepar": 5416, "qquad": 5417, ",M": 5418, "ZD": 5419, "Ġdrink": 5420, "Ġintroduced": 5421, "138": 5422, "Ġanimals": 5423, "force": 5424, "Ġchemical": 5425, "=a": 5426, "Ġplaces": 5427, ".âĢĿ": 5428, "(l": 5429, "ĠFrance": 5430, "ua": 5431, "Ġnoted": 5432, "-R": 5433, "........": 5434, "-G": 5435, "Ġarticle": 5436, "Ġcapacity": 5437, "Ġnoise": 5438, ".T": 5439, "================================": 5440, "Ġsin": 5441, "Ġtiss": 5442, "Ġidentified": 5443, "Mi": 5444, "nes": 5445, "ĠTwo": 5446, "(f": 5447, "ras": 5448, "ario": 5449, "Ġcool": 5450, "ĠArt": 5451, "Ġsuggested": 5452, "ober": 5453, "aciÃ³n": 5454, "abs": 5455, "ĠSept": 5456, "ĠIII": 5457, "ornia": 5458, "Ġabsor": 5459, "Ġdry": 5460, "Ġneut": 5461, "Ġidentity": 5462, "Ġpiece": 5463, "-of": 5464, "161": 5465, "010": 5466, "Ġgoal": 5467, "oi": 5468, "ĠEach": 5469, ".W": 5470, "Ġincor": 5471, "875": 5472, "Ed": 5473, "Ġrise": 5474, "Ġsuccessful": 5475, "ĠAugust": 5476, "mercial": 5477, "Ġbottom": 5478, "(d": 5479, "-th": 5480, "nce": 5481, "Ġlocation": 5482, "625": 5483, "Ġsac": 5484, "155": 5485, "Ġboard": 5486, "}$Ċ": 5487, "Ġclasses": 5488, "Ġlearned": 5489, "fered": 5490, "Ġdoubt": 5491, "Ġimplic": 5492, "Az": 5493, "frame": 5494, "Ġmentioned": 5495, "Ġmanif": 5496, "Ġwa": 5497, "Ġformed": 5498, "Ġisn": 5499, "ĠGo": 5500, "Ġcop": 5501, "gress": 5502, "Ġhous": 5503, "Ġoperations": 5504, "imensional": 5505, "Ġrelevant": 5506, "Ġvill": 5507, "hest": 5508, "168": 5509, "YT": 5510, "Ġseparate": 5511, "Ġappeared": 5512, "177": 5513, "ĠProf": 5514, "âĢĶthe": 5515, "ĠCourt": 5516, "Ġpages": 5517, "widet": 5518, "widetilde": 5519, "Com": 5520, "137": 5521, "Ġwish": 5522, "Ġresid": 5523, "ĠHen": 5524, "Ġur": 5525, "Ġcoordin": 5526, "Sp": 5527, "poses": 5528, "Ġrac": 5529, "ĠÐ¡": 5530, "ĠPresident": 5531, "rael": 5532, "Ġonline": 5533, "PT": 5534, "Ġmur": 5535, "Ġconcentration": 5536, "inciples": 5537, "ini": 5538, "ĠAssociation": 5539, "ĠInstitute": 5540, "Ġtrack": 5541, "El": 5542, "Ġbeautiful": 5543, "Ġfailure": 5544, "Ġdaily": 5545, "Ġsupply": 5546, "Ġliqu": 5547, "iliar": 5548, "134": 5549, "Ġprinciple": 5550, "Ġexhib": 5551, "Ġexpressed": 5552, "Ġmedic": 5553, "ye": 5554, "Ġsmooth": 5555, "Ġtherm": 5556, "();Ċ": 5557, "Ġsav": 5558, ".png": 5559, ".I": 5560, "UB": 5561, ".G": 5562, "165": 5563, "cis": 5564, "Ġplot": 5565, "ĠOff": 5566, "abilities": 5567, "othing": 5568, "Ġcharacteristics": 5569, "otes": 5570, "ĠStreet": 5571, "Ġvir": 5572, "Ġformula": 5573, "ĠClass": 5574, "long": 5575, "Ġgrowing": 5576, "Ġcast": 5577, "ESS": 5578, "cious": 5579, "linear": 5580, "Ġsafe": 5581, "Ġsoul": 5582, "ultural": 5583, "Ġrepresentation": 5584, "ĠMart": 5585, "-sh": 5586, "-a": 5587, "176": 5588, "])Ċ": 5589, "Ġvertical": 5590, "Wx": 5591, "NC": 5592, "OB": 5593, "zing": 5594, "reci": 5595, "ĠNote": 5596, "Ġlat": 5597, "167": 5598, "Ġexperiments": 5599, "het": 5600, "ĠEst": 5601, "Ġresulting": 5602, "ĠWhite": 5603, ")(": 5604, "Ġpatterns": 5605, "sv": 5606, "fection": 5607, "Ġopportunity": 5608, "Text": 5609, "Ġreality": 5610, "Ġextent": 5611, "ĠGeorge": 5612, "]),": 5613, "Ġpun": 5614, "Ġscen": 5615, "Ġrock": 5616, "Des": 5617, "Ġ\\}$": 5618, "-pro": 5619, "Ġ?": 5620, "Ġmode": 5621, "Ġisol": 5622, "Ġoccurs": 5623, "/v": 5624, "Ġslightly": 5625, "ĠÑĩÑĤÐ¾": 5626, "Ġstudied": 5627, "UD": 5628, "List": 5629, "Ġded": 5630, "Ġphenomen": 5631, "ĠGree": 5632, "ĠSuch": 5633, "ometry": 5634, "=i": 5635, "Ġstrugg": 5636, "Ġna": 5637, "ados": 5638, "Ġgenerated": 5639, "Ġideal": 5640, "ĠMarch": 5641, "HT": 5642, "Ġplane": 5643, "Ġoverall": 5644, "/Ċ": 5645, ",y": 5646, "kt": 5647, "Ġfarm": 5648, "nam": 5649, "149": 5650, "ĠCenter": 5651, "Ġdomain": 5652, "Ġgeneration": 5653, "pen": 5654, ")),": 5655, "bm": 5656, "EV": 5657, "Ġsoftware": 5658, "Ġpolic": 5659, "bal": 5660, "hors": 5661, "Me": 5662, "Ġfru": 5663, "Ġidentify": 5664, "Ġserve": 5665, "Ġattract": 5666, "bi": 5667, "ĠGovern": 5668, "lands": 5669, "Ġdied": 5670, "ido": 5671, "HR": 5672, "Ġhol": 5673, "Ġsynthe": 5674, "Ġcurve": 5675, "osph": 5676, "Ġrecently": 5677, "Ġschools": 5678, "aughter": 5679, "ĠDevelop": 5680, "Ġtim": 5681, "Ġdescription": 5682, "Xiv": 5683, "Ġconnection": 5684, "ĠJack": 5685, "ĠÂ«": 5686, "Ġconcerned": 5687, "ĠMary": 5688, "ĠJuly": 5689, "ĠPsych": 5690, "uild": 5691, "Er": 5692, "148": 5693, "Ġmob": 5694, "erved": 5695, "ball": 5696, "147": 5697, "Ġcollection": 5698, "ELB": 5699, "\"+": 5700, "kw": 5701, "Ġrepro": 5702, "anging": 5703, "Ġprefer": 5704, "=!": 5705, "Ġleads": 5706, "FO": 5707, "stein": 5708, "Ġdrive": 5709, "Ġbalance": 5710, "169": 5711, "164": 5712, "ĠPal": 5713, "Ġvideo": 5714, "Ġdescribe": 5715, "Ġauthority": 5716, "neq": 5717, "Ġreturned": 5718, "Ġconnected": 5719, "time": 5720, "Ġequipment": 5721, "________________________________": 5722, "Ġgain": 5723, "Ġlaws": 5724, "ivation": 5725, "162": 5726, "Ġconfig": 5727, "Ġquiet": 5728, "Ãº": 5729, "Ġlooks": 5730, "Ġtests": 5731, "Ġrelationships": 5732, "Ġmist": 5733, "\".": 5734, "Ġsurround": 5735, "ĠPhil": 5736, "rer": 5737, "Ġdos": 5738, "Ġrequest": 5739, "case": 5740, "Ġitems": 5741, "Ġbenefits": 5742, "Ġexisting": 5743, "154": 5744, "ishes": 5745, "rane": 5746, "Ġscore": 5747, "\\{": 5748, "resents": 5749, "Ġcomparison": 5750, "select": 5751, "PC": 5752, "ĠMany": 5753, "EW": 5754, "Ġmedium": 5755, "173": 5756, "After": 5757, "Ġpolice": 5758, "Ġcontinu": 5759, "path": 5760, "Ġje": 5761, "Ġsexual": 5762, "003": 5763, "Ġequivalent": 5764, ".is": 5765, "Ġaspects": 5766, "ĠWil": 5767, "Ġanti": 5768, "cho": 5769, "mary": 5770, "uy": 5771, "({": 5772, "Ġstation": 5773, "ĠSol": 5774, "Ġmarg": 5775, "Ġwalked": 5776, "Ġsubsequ": 5777, "Ġran": 5778, "256": 5779, "gence": 5780, "alysis": 5781, "overy": 5782, "146": 5783, "ĠArm": 5784, "ĠNet": 5785, "ĠRem": 5786, "Ġlaugh": 5787, "eline": 5788, "arian": 5789, "Ġunf": 5790, "Ġflat": 5791, "arn": 5792, "ĠDi": 5793, "XX": 5794, ",b": 5795, "oyal": 5796, "163": 5797, "Ġmoral": 5798, "Ġminimum": 5799, "Ġelectr": 5800, "uted": 5801, "Ġprepared": 5802, "Ġtempor": 5803, "Ġpeak": 5804, "Ġplants": 5805, "AND": 5806, "Ġmagnetic": 5807, "Ġadvantage": 5808, "Ġregions": 5809, "ZT": 5810, "ĠÐ´Ð»Ñı": 5811, "Ey": 5812, "Ġexperimental": 5813, "Ġpaid": 5814, "rees": 5815, "cf": 5816, "Ġtalking": 5817, "Ġcertainly": 5818, "utive": 5819, "ipped": 5820, "Ġclient": 5821, "ague": 5822, "Ġuniform": 5823, "ĠChinese": 5824, "idation": 5825, "image": 5826, "Ġensure": 5827, "know": 5828, "Ġformal": 5829, "opl": 5830, ")/": 5831, "stood": 5832, "Ġampl": 5833, "Ym": 5834, "Ġcorpor": 5835, "Ġjoint": 5836, "acing": 5837, "Ġos": 5838, "cz": 5839, "Ġfreedom": 5840, "PH": 5841, "Ġclinical": 5842, "Ġfresh": 5843, "ker": 5844, "Ġcopy": 5845, "âĢĶand": 5846, "Ġtechnique": 5847, "Ġrequirements": 5848, "Ġnation": 5849, "172": 5850, "ĠAre": 5851, "Ġexternal": 5852, "Ġexchange": 5853, "hi": 5854, "ĠReview": 5855, "ossible": 5856, "oming": 5857, "210": 5858, "}],": 5859, "ĠKe": 5860, "Ġagreement": 5861, "Ġteaching": 5862, "ells": 5863, "ĠSal": 5864, "ĠMath": 5865, "Par": 5866, "Ġuns": 5867, "ĠEvery": 5868, "-time": 5869, "ston": 5870, "URE": 5871, "mid": 5872, "Ġdut": 5873, "Ġboundary": 5874, "cher": 5875, "olf": 5876, "Ð¸Ñģ": 5877, "Au": 5878, "ĠTO": 5879, "Ġangle": 5880, "Ġsuggests": 5881, "SC": 5882, "Ġvelocity": 5883, "Ġaccur": 5884, "ĠArch": 5885, "ĠTheir": 5886, "ĠDem": 5887, "model": 5888, "vo": 5889, "Ġeat": 5890, "ĠCalifornia": 5891, "666": 5892, "Ġplanning": 5893, "Ġdans": 5894, "Ġoperator": 5895, "ĠDan": 5896, "205": 5897, "Ġtheore": 5898, "null": 5899, "Ġselected": 5900, "Ġmiles": 5901, "Ġraised": 5902, "Ġsmile": 5903, "Ġolder": 5904, "ln": 5905, "arter": 5906, "Ġhusband": 5907, "Ġconstraint": 5908, "Ġesc": 5909, "Ġhappy": 5910, "Ġmental": 5911, "stitution": 5912, ";\\": 5913, "Ġintr": 5914, "Ġfell": 5915, "Ġrepresents": 5916, "Ġindicate": 5917, "Ġprocessing": 5918, "Ġveh": 5919, "Ġcomfort": 5920, "AJ": 5921, "Ġgal": 5922, "Ġvent": 5923, "_data": 5924, "220": 5925, "Ġ{-": 5926, "Ġsympt": 5927, "KS": 5928, "itter": 5929, "Â»": 5930, "Ġtasks": 5931, "Ġoffered": 5932, "Ġusers": 5933, "Ġcombination": 5934, "Ġsimpl": 5935, "Ġvisit": 5936, "Ġresponsible": 5937, "ansion": 5938, "stract": 5939, "agger": 5940, "ront": 5941, "Ġfing": 5942, "Ġist": 5943, "158": 5944, "QI": 5945, "Ġlie": 5946, "ĠThomas": 5947, "Ġproceed": 5948, "Ġhistorical": 5949, "Ġau": 5950, "Fl": 5951, "Ġhospital": 5952, "ÐµÐ½ÑĤ": 5953, "Ġcancer": 5954, "eed": 5955, "estic": 5956, ".sh": 5957, "Ã©e": 5958, "LL": 5959, "ags": 5960, "240": 5961, "Ġexplan": 5962, "ano": 5963, "Ġhref": 5964, "Ġmo": 5965, "ambridge": 5966, "ĠCollege": 5967, "Ġstarting": 5968, "arden": 5969, "-term": 5970, "ĠWork": 5971, "Ġring": 5972, "Ġmale": 5973, "ners": 5974, "Ġleaves": 5975, "cn": 5976, "Ġcontaining": 5977, "Ġpulled": 5978, ".In": 5979, "Ġsend": 5980, "udd": 5981, "230": 5982, "Ġarchitect": 5983, "La": 5984, "174": 5985, "HD": 5986, "Ġinterview": 5987, "je": 5988, "zeta": 5989, "Ġauthors": 5990, "String": 5991, "Ġcriter": 5992, "GE": 5993, "ena": 5994, "Ġstream": 5995, "Ġreceive": 5996, "Ġnone": 5997, "Ġthr": 5998, "222": 5999, "Ġselection": 6000, "height": 6001, "ologies": 6002, "Ġcouple": 6003, "Ġfamilies": 6004, "appe": 6005, "GB": 6006, "ville": 6007, "Ġtrees": 6008, "Ġnut": 6009, "ĠRobert": 6010, "ĠLou": 6011, "Ġvary": 6012, "Ġmes": 6013, "Ġmetal": 6014, "Ġuncertain": 6015, "Ġholds": 6016, "ĠPR": 6017, "Ġinstr": 6018, "greg": 6019, "apping": 6020, "ora": 6021, "Ġsubstant": 6022, "Ġotherwise": 6023, "Ġreduction": 6024, "Ġpresident": 6025, "ĠApril": 6026, "ipe": 6027, "Ġcandid": 6028, "/j": 6029, "Ġpowerful": 6030, "ĠGra": 6031, "Ġteacher": 6032, "Ġalternative": 6033, "Ġcomo": 6034, "icago": 6035, "mann": 6036, "Ġpractical": 6037, "Ġelectron": 6038, "Ġnp": 6039, "ocy": 6040, "Ġwin": 6041, "AW": 6042, "images": 6043, "rey": 6044, "ulture": 6045, ")},": 6046, "Ġexercise": 6047, "Object": 6048, "Ġpros": 6049, "Ġsites": 6050, "olved": 6051, "izer": 6052, "Ġcovered": 6053, "Ġpet": 6054, "Ġstanding": 6055, "Ġtool": 6056, "Ġseven": 6057, "bn": 6058, "Ġcos": 6059, "ĠCON": 6060, "ĠCanada": 6061, "Ġcalculated": 6062, "Ġpreviously": 6063, "Ġstopped": 6064, "Ġyield": 6065, "itis": 6066, "IST": 6067, "CP": 6068, "Ġchair": 6069, "Ġresistance": 6070, "Ġspent": 6071, "Ġspeech": 6072, "iller": 6073, "pol": 6074, "ĠUnder": 6075, "ĠBen": 6076, "Ġwit": 6077, "Ġ$|": 6078, "rim": 6079, "Ġtreated": 6080, "Ġconscious": 6081, "Ġframework": 6082, "ĠPublic": 6083, "Ġefficient": 6084, "coh": 6085, "Ġelectric": 6086, "=#": 6087, "Ġcompre": 6088, "ÃŃa": 6089, "Ġderived": 6090, "ĠCompany": 6091, "Ġtight": 6092, "\");": 6093, "Ġefforts": 6094, "Ġborn": 6095, "Ġanimal": 6096, "ilit": 6097, "Ġexplained": 6098, ")-": 6099, "Nm": 6100, "Ġcomment": 6101, "Co": 6102, "Ġmel": 6103, "CM": 6104, "useum": 6105, "Ġslowly": 6106, "Ġhappen": 6107, "ĠIndia": 6108, ">$": 6109, "ĠIsrael": 6110, "flow": 6111, "ferent": 6112, "Ġparallel": 6113, "().": 6114, "ographic": 6115, "[\"": 6116, "DR": 6117, "Ġfinding": 6118, "Ġtorch": 6119, "Ġrot": 6120, "UG": 6121, "Ġoffers": 6122, "ulf": 6123, "Ġnotice": 6124, "Ġgun": 6125, "Ġchosen": 6126, "Ġnetworks": 6127, "ĠBel": 6128, "teen": 6129, "Ġminor": 6130, "Ġsafety": 6131, "Ġdistingu": 6132, "Ġfundamental": 6133, "ĠGermany": 6134, "cember": 6135, "Ġcircumst": 6136, "Ġstore": 6137, "ĠDiv": 6138, "ĠUse": 6139, "Ġseason": 6140, "Ġiron": 6141, "Ġestimate": 6142, "Ġ..": 6143, "Ġcauses": 6144, "ader": 6145, "](": 6146, "omorph": 6147, "nt": 6148, "appro": 6149, "ĠCouncil": 6150, "Ġintellig": 6151, "Ġradio": 6152, "ĠDet": 6153, "ĠStep": 6154, "ĠMoreover": 6155, "ildren": 6156, "Ġinfin": 6157, "ĠNat": 6158, "gin": 6159, "Ġbow": 6160, "Ġspectrum": 6161, "See": 6162, "\"What": 6163, "Ġempt": 6164, "Ġapproaches": 6165, "Ġjo": 6166, "uer": 6167, "Ġà¤": 6168, "ĠFOR": 6169, "Ġinterested": 6170, "}}{": 6171, "Ġagent": 6172, "Ġdepends": 6173, "Ġmaster": 6174, "Ġtools": 6175, "ĠUsing": 6176, "Ġsummer": 6177, "Ġnarrow": 6178, "Ġevaluation": 6179, "ĠFeb": 6180, "Ġroot": 6181, "ĠGen": 6182, "Ġhit": 6183, "_acc": 6184, "Ġwidth": 6185, "Ġbright": 6186, "Ġpossess": 6187, "Ġmas": 6188, "700": 6189, "ĠEconom": 6190, "ĠElect": 6191, "board": 6192, "pd": 6193, "_col": 6194, "uke": 6195, "Ġwild": 6196, "ĠChem": 6197, "eless": 6198, "lies": 6199, "ocked": 6200, "Ġpossibility": 6201, "Ġauf": 6202, "AX": 6203, "ĠSec": 6204, "ĠConference": 6205, "Ġinvolve": 6206, "omic": 6207, "Ġinhib": 6208, "Ġcore": 6209, ",u": 6210, "Ġdial": 6211, "Ġinterests": 6212, "down": 6213, "uv": 6214, "LD": 6215, "script": 6216, "Ġrout": 6217, "Ġhadn": 6218, "Ġox": 6219, "Ġdesire": 6220, "Ġrich": 6221, "}),": 6222, "Ġconsistent": 6223, "Ġtherapy": 6224, "ĠAlso": 6225, "/n": 6226, "Ġeconomy": 6227, "anted": 6228, "Ġ]$": 6229, "antly": 6230, "Ġrepresented": 6231, "FR": 6232, "Ġprot": 6233, "alog": 6234, "Ġtesting": 6235, "jo": 6236, "Ġnucle": 6237, "Ġcitiz": 6238, "ingly": 6239, "pected": 6240, "phone": 6241, "Ã¡s": 6242, "usiness": 6243, "/g": 6244, "atically": 6245, "ĠHistory": 6246, "outhern": 6247, "ĠFin": 6248, "onent": 6249, "Ġhoriz": 6250, "Sc": 6251, "ervation": 6252, "Ġdecisions": 6253, "ĠIS": 6254, "Ġwaiting": 6255, "Ġdoll": 6256, "edge": 6257, "Ġwel": 6258, "Ġgod": 6259, "ptions": 6260, "Ġcomplic": 6261, "Ġ|Ċ": 6262, "Ġsides": 6263, "Ġbra": 6264, "Ġcarbon": 6265, "ĠEducation": 6266, "Ġorient": 6267, "amily": 6268, "LS": 6269, "orage": 6270, "rep": 6271, "'S": 6272, "Ġdepth": 6273, "Ġbaby": 6274, "opic": 6275, "Ġexpand": 6276, "Ġproviding": 6277, "Ġtouch": 6278, "oken": 6279, "Ġleaving": 6280, "Ġfemale": 6281, "ĠTraining": 6282, "/M": 6283, "van": 6284, "Ġprem": 6285, "Ġteachers": 6286, "Ġsubjects": 6287, "kg": 6288, "212": 6289, "ocol": 6290, ">\\": 6291, "ĠGreat": 6292, "ĠMal": 6293, "Ġlived": 6294, "Ġplans": 6295, "ĠZh": 6296, "Ġremoved": 6297, "Ġcolon": 6298, "osing": 6299, "ilib": 6300, "Ġunderstood": 6301, "ĠCongress": 6302, "edy": 6303, "WF": 6304, "Ġtour": 6305, "iated": 6306, "uffer": 6307, "Ġpul": 6308, "Ã´": 6309, "othe": 6310, "Â°": 6311, "Ġexplicit": 6312, "OO": 6313, "ovember": 6314, "anges": 6315, "ifically": 6316, "ella": 6317, "ĠfÃ¼r": 6318, "Ġsusp": 6319, "cu": 6320, "\"],": 6321, "Ġdevice": 6322, "*,": 6323, "PD": 6324, "Ġsupported": 6325, "ĠSecond": 6326, "string": 6327, ".py": 6328, "onents": 6329, "zed": 6330, "Ġremark": 6331, "ĠĠĠĠĠĠĠĠĠĠĠĠĠĠĠĠĠ": 6332, "?'": 6333, "TT": 6334, "Ġvision": 6335, "oration": 6336, "Ġdamage": 6337, "ipl": 6338, "Ġjour": 6339, "ĠÐļ": 6340, "Ġimplies": 6341, "Ġkit": 6342, "Ġfilled": 6343, "Ġtrac": 6344, "default": 6345, "ilton": 6346, "Ġscientific": 6347, "Ġfloat": 6348, "Ig": 6349, "how": 6350, "kay": 6351, "Ġhypothes": 6352, "Here": 6353, "venue": 6354, "Ġdiam": 6355, ":!": 6356, "Ġcommercial": 6357, "Ġqui": 6358, "standing": 6359, "icks": 6360, "sm": 6361, "Ġwhatever": 6362, "ĠWestern": 6363, "Ġsong": 6364, "Ġfrequently": 6365, "Ġborder": 6366, "/D": 6367, "itudes": 6368, "/C": 6369, "Ġindustrial": 6370, "Ġobservations": 6371, "aren": 6372, "Ġshowing": 6373, "Ġprotection": 6374, "vd": 6375, "rium": 6376, "Ġlib": 6377, "Ð°Ñı": 6378, "Ġnarr": 6379, "Ġcrow": 6380, "Ġapproximately": 6381, "Ġindicated": 6382, "Ġextended": 6383, "Ġknows": 6384, "state": 6385, "oving": 6386, "Ġpretty": 6387, "Ġinvestment": 6388, "Ġcolle": 6389, "à¥į": 6390, "ĠParis": 6391, "widehat": 6392, "Ġmort": 6393, "ĠRoman": 6394, "kl": 6395, "ĠAlex": 6396, "Ġmechanism": 6397, "Ġnorth": 6398, "ĠDec": 6399, "aign": 6400, "ĠPo": 6401, "\"></": 6402, "uh": 6403, "ademic": 6404, "Ġdeveloping": 6405, "005": 6406, "ĠOut": 6407, "Ġparticles": 6408, "idel": 6409, "rier": 6410, "208": 6411, "Ġforg": 6412, "Ġspot": 6413, "Ġchain": 6414, "Ġfamiliar": 6415, "360": 6416, "Ġprinciples": 6417, "225": 6418, "900": 6419, "Ġta": 6420, "xford": 6421, "Ġsave": 6422, "isher": 6423, "Ġgar": 6424, "/S": 6425, "Ġexperiences": 6426, "Ġyes": 6427, "Ġremained": 6428, "Ġnodes": 6429, "values": 6430, "while": 6431, "UC": 6432, "Ġmajority": 6433, "xx": 6434, "Ġframe": 6435, "Ġneither": 6436, "Î±": 6437, "ĠAfrica": 6438, "Ġplate": 6439, "Ew": 6440, "vol": 6441, "')": 6442, "Ġcryst": 6443, "Ġpractices": 6444, "Ġexpos": 6445, "ellect": 6446, "dr": 6447, "Ġfraction": 6448, "EEE": 6449, "ĠTH": 6450, "ĠPeter": 6451, "ĠSeptember": 6452, "Ġenem": 6453, "Ġlocated": 6454, "orry": 6455, "Ġhat": 6456, "Ġshift": 6457, "Ġplayed": 6458, "ela": 6459, "img": 6460, "ĠÐĿ": 6461, "ĠLear": 6462, "mic": 6463, "Ġvac": 6464, "ĠJer": 6465, "lam": 6466, "ĠTime": 6467, "athe": 6468, "Ġcomposition": 6469, "207": 6470, "Per": 6471, "Ð¸Ð¹": 6472, "Ġholding": 6473, "param": 6474, "Ġchest": 6475, "Ġdimension": 6476, "ĠHel": 6477, "ellent": 6478, "ĠForm": 6479, "Ġmal": 6480, "Ġreports": 6481, "rot": 6482, "Ġfish": 6483, "inder": 6484, "Ġbenefit": 6485, "ceived": 6486, "Ġben": 6487, "Ġclim": 6488, "Ġtum": 6489, "ashion": 6490, "anned": 6491, "ĠUnion": 6492, "Ġneighbor": 6493, "Ġpersons": 6494, "Ġmerely": 6495, "oto": 6496, "ws": 6497, "ollow": 6498, "Ġaware": 6499, "BS": 6500, "ĠDNA": 6501, "oviet": 6502, "ĠMass": 6503, "Ġencourag": 6504, "aW": 6505, "Ġmathemat": 6506, "Ġsurvey": 6507, "App": 6508, "ĠProcess": 6509, "Ġgrav": 6510, "Ġstandards": 6511, "Ġmix": 6512, "Ġcritic": 6513, "Index": 6514, "ails": 6515, "eq": 6516, "ĠGroup": 6517, "Zh": 6518, ".),": 6519, "ĠÏ": 6520, "ĠJanuary": 6521, "Ġenvironmental": 6522, "ĠInformation": 6523, "PL": 6524, "Ġcycle": 6525, "Ġconnect": 6526, "211": 6527, "'],": 6528, "Ġhighest": 6529, "Ġstories": 6530, "ĠMex": 6531, "ÃŁ": 6532, "Ġarguments": 6533, "duction": 6534, "oes": 6535, "ĠAD": 6536, "rig": 6537, "Ġdaughter": 6538, "Ġbelieved": 6539, ">=": 6540, "Ġing": 6541, "Ġfrag": 6542, "Ġshif": 6543, "urban": 6544, "Ġaccepted": 6545, "Ġassumed": 6546, "dataframe": 6547, "Ġprices": 6548, "eli": 6549, "gw": 6550, "ĠSmith": 6551, "ĠAustral": 6552, "Ġshared": 6553, "zym": 6554, "eness": 6555, "004": 6556, "Ġthin": 6557, "Ġ$\\{": 6558, "\\frac": 6559, "-ch": 6560, "Ġspat": 6561, "{H": 6562, "Ġtypical": 6563, "istical": 6564, "ĠOh": 6565, "ÐŁ": 6566, "Mod": 6567, "Ġneck": 6568, "EA": 6569, "Ġstrategies": 6570, "Ġship": 6571, "Ġrank": 6572, "ĠÂ£": 6573, "(p": 6574, "ĠStat": 6575, "Ġstars": 6576, "[r": 6577, "Ġexcess": 6578, "Ġusual": 6579, ",A": 6580, "ĠFre": 6581, "aneous": 6582, "itative": 6583, "Ġgirls": 6584, "ĠService": 6585, "GR": 6586, "Ġcalls": 6587, "user": 6588, "Ġsust": 6589, "cel": 6590, "roduction": 6591, "Ġtrend": 6592, "Ġscene": 6593, "ona": 6594, "ĠBra": 6595, "Ġhence": 6596, "Ġwhis": 6597, "ĠOctober": 6598, "asp": 6599, "ĠRichard": 6600, "Ġshot": 6601, "Ġforest": 6602, "_r": 6603, "ĠETA": 6604, "Ġrace": 6605, "Ġopinion": 6606, "Ġinner": 6607, "Ġmeasurements": 6608, "Ġwants": 6609, "Ġopposite": 6610, "Ġvit": 6611, "Ġrational": 6612, "Ġnamed": 6613, "ĠBoth": 6614, "Color": 6615, "Ġlegisl": 6616, "Ġrepeated": 6617, "Ġencoun": 6618, "Ġrelease": 6619, "oster": 6620, "Ġguess": 6621, "Ġ$[": 6622, "istant": 6623, "Ġviews": 6624, "Ġdress": 6625, "ĠSpr": 6626, "+=": 6627, "cks": 6628, "Ġans": 6629, "Ġminim": 6630, "uries": 6631, "Ġperspective": 6632, ".(": 6633, "Ġ$=": 6634, "equiv": 6635, "-and": 6636, "Ġdetailed": 6637, "ifier": 6638, "ĠMa": 6639, "ĠIV": 6640, "bid": 6641, "ĠMag": 6642, "Up": 6643, "Ġnotes": 6644, "ĠCO": 6645, "abase": 6646, "CO": 6647, "}^": 6648, "Ġlips": 6649, "Time": 6650, "Ġgoods": 6651, "FT": 6652, ",but": 6653, "////": 6654, "Ġfigures": 6655, "MB": 6656, "unic": 6657, "Ġcond": 6658, "-the": 6659, "acters": 6660, "Ġfort": 6661, "350": 6662, "!!": 6663, "/P": 6664, "[e": 6665, "Ġchannel": 6666, "Ġachieved": 6667, "ĠFour": 6668, "Ġma": 6669, "uses": 6670, "Ġsuddenly": 6671, "Ġunless": 6672, "Ġletters": 6673, "ĠSat": 6674, "Ġflex": 6675, "Ġtom": 6676, "},Ċ": 6677, "ĠDevelopment": 6678, "Ay": 6679, "sk": 6680, "Ġours": 6681, ";++": 6682, "Ġleaders": 6683, "Ġliquid": 6684, "Ġorganizations": 6685, "Ġfingers": 6686, "Ġalign": 6687, "Ġresponsibility": 6688, "Ġrub": 6689, "Ġsand": 6690, "-like": 6691, "ĠModel": 6692, "Ġwhereas": 6693, "Ġimpossible": 6694, "Ġmountain": 6695, "Ġsouth": 6696, "ethyl": 6697, "-W": 6698, "uzz": 6699, "ĠAnt": 6700, "Ġdrop": 6701, "ĠPort": 6702, "Ġhall": 6703, "Ġappreci": 6704, "ĠGreen": 6705, "ĠUSA": 6706, "CS": 6707, "ĠIts": 6708, "Ġstreet": 6709, "Ġsoil": 6710, "using": 6711, "lete": 6712, "ĠFrank": 6713, "udget": 6714, "Ġcaught": 6715, "Ġdiet": 6716, "conds": 6717, "Ġgent": 6718, "Ġtypically": 6719, "Ġplease": 6720, "Ġfinished": 6721, "rog": 6722, "Ġvot": 6723, "Ġstable": 6724, "elle": 6725, "Ġmeasurement": 6726, "ounced": 6727, "Ġansw": 6728, "Psi": 6729, "Ġremaining": 6730, "Ġmarked": 6731, "attributes": 6732, "Ġindicates": 6733, "ĠOver": 6734, "Ġpolar": 6735, "Ġ$(\\": 6736, "Ġcircumstances": 6737, "Ġcombined": 6738, "Ste": 6739, "218": 6740, "Ġ)Ċ": 6741, "Ġefficiency": 6742, "ivate": 6743, "Ġalgebra": 6744, "ĠFrancis": 6745, "load": 6746, "BN": 6747, "char": 6748, "PA": 6749, "Ġadop": 6750, "Ġsight": 6751, "rend": 6752, "atform": 6753, "Ġcollege": 6754, "Ġamb": 6755, "Mu": 6756, "Fe": 6757, "Ġreform": 6758, "Ġnode": 6759, "mas": 6760, "Ġdri": 6761, "ĠrÃ©": 6762, "LY": 6763, "ĠMo": 6764, "star": 6765, "Ġincorpor": 6766, "mosp": 6767, "idad": 6768, "attr": 6769, "cG": 6770, "gb": 6771, "urally": 6772, "oding": 6773, "ĠExper": 6774, "ĠOnly": 6775, "Ġtrial": 6776, "Ġrelax": 6777, "]:": 6778, "Ġfunctional": 6779, "\"It": 6780, "Ġtal": 6781, "Ġ=>": 6782, "ĠAccording": 6783, "NR": 6784, "ĠarXiv": 6785, "ĠMethod": 6786, "rome": 6787, "ĠFinally": 6788, "ĠLife": 6789, "ĠYet": 6790, "abled": 6791, "^{-": 6792, ".N": 6793, "Ġexpansion": 6794, "ĠCharles": 6795, "Ġinstitutions": 6796, "Ġuma": 6797, "-de": 6798, "house": 6799, "Ġgets": 6800, "AO": 6801, "Ġtechnical": 6802, "ĠCath": 6803, "uce": 6804, "Ġserved": 6805, "Ġconsists": 6806, "Ġderiv": 6807, "Ġanx": 6808, "ĠMer": 6809, "Ġscheme": 6810, "Ġestimated": 6811, "ilibrium": 6812, "Ġsubm": 6813, "Ġchallenge": 6814, "Ġappoint": 6815, "Ġchief": 6816, "Ġlargest": 6817, "-dimensional": 6818, "PI": 6819, "EY": 6820, "Ġrough": 6821, "Ġcorner": 6822, "Ġerrors": 6823, "Ġagents": 6824, "ĠFore": 6825, "Ni": 6826, "orthern": 6827, "Ġinteractions": 6828, "pled": 6829, "perty": 6830, "ĠHence": 6831, "ĠRob": 6832, "Ġsubt": 6833, "Ġagree": 6834, "Pi": 6835, "Ġcommit": 6836, ".app": 6837, "enses": 6838, "bitr": 6839, "cs": 6840, "cluded": 6841, "ĠHenry": 6842, "aze": 6843, "ĠGood": 6844, "Ġemployees": 6845, "These": 6846, "Ġpositions": 6847, "ogene": 6848, "actor": 6849, "ĠChicago": 6850, "ZS": 6851, "Ġalt": 6852, "Ġmission": 6853, "ĠLemma": 6854, "Em": 6855, "content": 6856, "Ġpurposes": 6857, "ald": 6858, "/h": 6859, "comes": 6860, "Ġmatch": 6861, "Ġsupposed": 6862, "ruary": 6863, "206": 6864, "Ġmine": 6865, ".html": 6866, "Ġpolicies": 6867, "Es": 6868, "Ġthoughts": 6869, "Ġdoctor": 6870, "ĠMax": 6871, "cha": 6872, "ĠDecember": 6873, "ĠSoviet": 6874, "ĠBig": 6875, "=fill": 6876, "break": 6877, "Ġinvolves": 6878, "(o": 6879, "otion": 6880, "iders": 6881, "Ah": 6882, "Ġ||": 6883, "Ġinsp": 6884, "ĠFound": 6885, "ometric": 6886, "Ġegg": 6887, "Ġentirely": 6888, "Ġanalog": 6889, "Ġdetection": 6890, "Ġinstitution": 6891, "Ġinterpretation": 6892, "related": 6893, "ige": 6894, "Ġancient": 6895, "word": 6896, "Ġ=$": 6897, "emporary": 6898, "win": 6899, "Ġscreen": 6900, "Ġreligion": 6901, "ibilities": 6902, "Ġreplace": 6903, "nic": 6904, "Ġcircle": 6905, "-cent": 6906, "Ro": 6907, "{Ċ": 6908, "Ġload": 6909, "rank": 6910, "aked": 6911, "there": 6912, "Iw": 6913, "Ġprincipal": 6914, "Ġcloser": 6915, "ician": 6916, "Ġmarriage": 6917, "Proof": 6918, "apped": 6919, "Ġcontribution": 6920, "Ġaccomp": 6921, "ani": 6922, "Ġsymptoms": 6923, "real": 6924, "ĠAfrican": 6925, "Ġpieces": 6926, "ĠHall": 6927, "III": 6928, "calc": 6929, "orders": 6930, "209": 6931, "Ġcareer": 6932, "Ġchanging": 6933, "iro": 6934, "irms": 6935, "ĠDel": 6936, "};": 6937, "neg": 6938, "Ac": 6939, "ĠMad": 6940, "Ġbodies": 6941, "Ġevening": 6942, "etime": 6943, "cohol": 6944, "INE": 6945, "Ġaffected": 6946, "erg": 6947, "Ġaxis": 6948, "ĠQue": 6949, "Ġobjective": 6950, "Ġcredit": 6951, "input": 6952, "Ġplaying": 6953, "Ġsell": 6954, "Ġempty": 6955, "MW": 6956, "scr": 6957, "ĠÐŀ": 6958, "Int": 6959, "=s": 6960, "Ġapart": 6961, "mes": 6962, "215": 6963, "Ġdrawn": 6964, "mo": 6965, "ĠEarth": 6966, "ĠRad": 6967, "Ġconsult": 6968, "Ġgoals": 6969, "Ġfer": 6970, "Ġice": 6971, "herent": 6972, "Ġmixt": 6973, "faces": 6974, "slant": 6975, ")\\": 6976, "Ġrealized": 6977, "ĠBas": 6978, "Br": 6979, "Ġemployed": 6980, "ulating": 6981, "ĠSen": 6982, "ourse": 6983, "Ġdataset": 6984, "eles": 6985, "ĠEngine": 6986, "Ġshap": 6987, "Ġoccasion": 6988, "Ġappearance": 6989, "[t": 6990, "Ġcorrelation": 6991, "ĠMet": 6992, "ynom": 6993, "ĠPlan": 6994, "Ġmaybe": 6995, "aper": 6996, "Ġabsence": 6997, "Some": 6998, "roid": 6999, "section": 7000, "=o": 7001, "Ġfill": 7002, "Ġalle": 7003, "icles": 7004, "Ġbroken": 7005, "gra": 7006, ">+": 7007, "ART": 7008, "Ġmemb": 7009, "ses": 7010, "was": 7011, "Ġcarefully": 7012, "oses": 7013, "ĠWeb": 7014, "Ġconvent": 7015, "Ġoblig": 7016, "ĠCambridge": 7017, "lebr": 7018, "Ġdespite": 7019, "ĠDuring": 7020, "iously": 7021, "ifies": 7022, "item": 7023, "eting": 7024, "Ġspring": 7025, "ĠDie": 7026, "ĠLtd": 7027, "obs": 7028, "**Ċ": 7029, "Ġfib": 7030, "Ġmonitor": 7031, "Ġpointed": 7032, "oral": 7033, "Ġopening": 7034, "Ġmarried": 7035, "Ġgene": 7036, "Ġsitting": 7037, "Ġcrucial": 7038, "_D": 7039, "Ġagreed": 7040, "Ġtissue": 7041, "Ġoptions": 7042, "?(": 7043, "Ġkilled": 7044, "ĠOld": 7045, ",J": 7046, "Ð¡": 7047, "ĠWhere": 7048, "war": 7049, "Ġfailed": 7050, "ĠSa": 7051, "Ġparties": 7052, "Ġion": 7053, "organ": 7054, "Ġmir": 7055, "Ġnerv": 7056, "ĠSie": 7057, "ĠNovember": 7058, "edit": 7059, "Ġassessment": 7060, "-type": 7061, "RU": 7062, "ois": 7063, "213": 7064, "Ġoccurred": 7065, "ĠVir": 7066, "osh": 7067, "RT": 7068, "Ez": 7069, "Ġitem": 7070, "Ġelectro": 7071, "ĠJose": 7072, "Ġtrouble": 7073, "ĠCA": 7074, "Ms": 7075, "Ġintellect": 7076, "ĠOnce": 7077, "vin": 7078, "Ġimper": 7079, "Ġpush": 7080, "[n": 7081, ",m": 7082, ".O": 7083, "pat": 7084, "Ġrein": 7085, "RA": 7086, "Ġlean": 7087, "rd": 7088, "ĠMichael": 7089, "'),": 7090, "Ġcharacters": 7091, "Ġlies": 7092, "Ġmais": 7093, "Ġforced": 7094, "Ġprojects": 7095, "ested": 7096, "valid": 7097, "uction": 7098, "Ġdistr": 7099, "Ġwww": 7100, "ĠSun": 7101, "Ġindepend": 7102, "Ġmac": 7103, "Ġsi": 7104, "Ġhelped": 7105, "Ġdynamics": 7106, "Ġcatch": 7107, "Ġforth": 7108, "Ġplas": 7109, "303": 7110, "Ġcab": 7111, "ko": 7112, "Ġguide": 7113, "234": 7114, "*(": 7115, "ĠNor": 7116, "ĠBank": 7117, "Ġsweet": 7118, "Ġfra": 7119, "ĠĠĠĠĠĠĠĠĠĠĠĠĠĠ": 7120, "ĠIll": 7121, "Ġrecords": 7122, "HV": 7123, "just": 7124, "++)": 7125, "214": 7126, "sel": 7127, "Ġinequ": 7128, "ĠLike": 7129, "Ġintended": 7130, "_S": 7131, "osa": 7132, "Ġpark": 7133, "cluding": 7134, "ĠSystems": 7135, "Ġcreating": 7136, "Ġhung": 7137, "len": 7138, "sey": 7139, "Ġfindings": 7140, "ĠGovernment": 7141, "Don": 7142, "Ġfederal": 7143, "dy": 7144, "\")Ċ": 7145, "ICA": 7146, "Ġadministration": 7147, "ĠPost": 7148, "221": 7149, "Ġoverl": 7150, "cia": 7151, "anged": 7152, "rained": 7153, "ĠÂ±": 7154, "Ge": 7155, "Ġclassical": 7156, "Ġoption": 7157, "Ġlegs": 7158, "Ġsolve": 7159, "-N": 7160, "Ġreferred": 7161, "Ġthank": 7162, "Ġkne": 7163, "Ġriver": 7164, "itivity": 7165, "ĠHuman": 7166, "TC": 7167, "ĠSum": 7168, "Ġgro": 7169, "Ġwilling": 7170, "Ġresolution": 7171, "Ġoperating": 7172, "ĠStand": 7173, "itely": 7174, "Ġ\"#": 7175, "224": 7176, "contin": 7177, "Ġcharacteristic": 7178, "erate": 7179, "Ġprocedures": 7180, "kins": 7181, "Ġcomprehens": 7182, "xygen": 7183, "Ġrain": 7184, "Ġthousand": 7185, "Ġstead": 7186, "Ġkitchen": 7187, "olve": 7188, "ola": 7189, "ifications": 7190, "object": 7191, "231": 7192, "ATE": 7193, "Ġproved": 7194, "ructions": 7195, "Ġvoid": 7196, "Ġoptimal": 7197, "ĠFalse": 7198, "ĠRepublic": 7199, "ĠAir": 7200, "Ġsister": 7201, "enced": 7202, "IO": 7203, "ĠMult": 7204, "Ġdivided": 7205, "Ġrecommend": 7206, "Ġstated": 7207, "Ġdisappe": 7208, "Ġcategory": 7209, "Ġsomewhat": 7210, "ĠStudies": 7211, "Ġconcer": 7212, "ĠAny": 7213, "Ġsegment": 7214, "Since": 7215, "Ġsections": 7216, "_i": 7217, "inations": 7218, "Trans": 7219, "Ġspoke": 7220, "vg": 7221, "Ny": 7222, "ICE": 7223, "Ġtun": 7224, "/x": 7225, "Ġregarding": 7226, "\"]": 7227, "ÐĴ": 7228, "Ġarbitr": 7229, "/F": 7230, "Ġprofession": 7231, "bered": 7232, "ieties": 7233, "orter": 7234, "Ġacknow": 7235, "Ġboys": 7236, "Ġhorse": 7237, "ĠLand": 7238, "alian": 7239, "ĠLin": 7240, "ĠMem": 7241, "Ġstret": 7242, "ĠAdd": 7243, "Ġdevices": 7244, "RS": 7245, "Ġtables": 7246, "Ġfeelings": 7247, "Ġaccompl": 7248, "CB": 7249, "Ġcampaign": 7250, "option": 7251, "ĠCommission": 7252, "Ġrecept": 7253, "Ġbare": 7254, "uan": 7255, "à¤¾": 7256, "Ġtheoretical": 7257, "Ġtransformation": 7258, "zer": 7259, "Ġshoulder": 7260, "epth": 7261, "adow": 7262, "Ġloved": 7263, "/or": 7264, ">>": 7265, "Ġconfidence": 7266, ".min": 7267, "orical": 7268, "Ġlimits": 7269, "ben": 7270, "Ġguar": 7271, "Ġimproved": 7272, "Ġfluid": 7273, "ĠWho": 7274, "Ġfix": 7275, "theless": 7276, ";g": 7277, "Ġdense": 7278, "Ġassumption": 7279, "label": 7280, "Ġnav": 7281, "Ġinnov": 7282, "ĠExp": 7283, "ĠRef": 7284, "ĠĠĠĠĠĠĠĠĠĠĠĠĠĠĠĠĠĠĠĠĠĠĠĠĠĠĠĠĠĠĠĠĠĠĠĠĠĠĠĠĠĠĠĠĠĠĠĠĠĠĠĠĠĠĠĠĠĠĠĠĠĠĠĠ": 7285, "Ġsituations": 7286, "illa": 7287, "Ġwalls": 7288, "Ġresponses": 7289, "anda": 7290, "Man": 7291, "Ġdemonstrated": 7292, "ĠOrgan": 7293, "Ġextremely": 7294, "HO": 7295, "Ġparticle": 7296, "PE": 7297, "ĠSimilar": 7298, "ropy": 7299, "ĠRiver": 7300, "True": 7301, "Ġbehaviour": 7302, "Ġcu": 7303, "ĠTom": 7304, "Ġterr": 7305, "size": 7306, "Mm": 7307, "Ġdestroy": 7308, "Ġbattle": 7309, "235": 7310, "ictions": 7311, "Ġatmosp": 7312, "HJ": 7313, "Ġconcepts": 7314, "260": 7315, "Ġclosely": 7316, "plt": 7317, "ĠCommittee": 7318, "Ġedges": 7319, "ĠCa": 7320, "Ġdiscovered": 7321, "020": 7322, "Ġ$$": 7323, "Ġkill": 7324, "Ãµ": 7325, "Ġreb": 7326, "Ġexperienced": 7327, "ĠPeople": 7328, "216": 7329, "Ġahead": 7330, "IX": 7331, "Ġconclusion": 7332, "dm": 7333, "Ġrou": 7334, "_train": 7335, "Ye": 7336, "abet": 7337, "ĠIr": 7338, "Ġelimin": 7339, "Ġtub": 7340, "yer": 7341, "Ġkin": 7342, "Ġannual": 7343, "Ġrecognition": 7344, "ĠIEEE": 7345, "ĠInte": 7346, "Ġkinds": 7347, "Ġpra": 7348, "Ġinvent": 7349, "Ġmeta": 7350, "Ġexcellent": 7351, "Ġtrib": 7352, "iner": 7353, "ymm": 7354, "Ġsigns": 7355, "Ġsky": 7356, "QB": 7357, "ĠLett": 7358, "030": 7359, "/T": 7360, "PO": 7361, "uable": 7362, "Ġarrived": 7363, "Ġweap": 7364, "update": 7365, "offset": 7366, "ĠCD": 7367, "320": 7368, "Ġcogn": 7369, "Ġadvert": 7370, "Ġgrad": 7371, "Ġtheorem": 7372, "Ġwitness": 7373, "Ġreader": 7374, "Dr": 7375, "ĠZe": 7376, "Ix": 7377, "Ġobservation": 7378, "]-": 7379, "Ġeventually": 7380, "oder": 7381, "struct": 7382, "Ġminute": 7383, "-pack": 7384, "270": 7385, "ĠNon": 7386, "Ġopportunities": 7387, "road": 7388, "Ġcreation": 7389, "/B": 7390, "ifferent": 7391, "Ġsymbol": 7392, "Ġacts": 7393, "Ġstrongly": 7394, "Ġrig": 7395, "icians": 7396, "450": 7397, "cules": 7398, "312": 7399, "Ġbecoming": 7400, "iverse": 7401, "Ġstone": 7402, "Ġsevere": 7403, "Ġrecognized": 7404, "Ġinterval": 7405, "Ġhell": 7406, "hol": 7407, "ĠFurthermore": 7408, "floor": 7409, "Ġhandle": 7410, "Ġsen": 7411, "ĠBay": 7412, "isp": 7413, "Ġbacter": 7414, "Ġseeing": 7415, "Ġphilosophy": 7416, "ĠBritain": 7417, "eck": 7418, "ito": 7419, "ogle": 7420, "sect": 7421, "rian": 7422, ".max": 7423, "learn": 7424, "gery": 7425, "Ġjump": 7426, "ĠOxford": 7427, "eding": 7428, "-E": 7429, "aine": 7430, "Ġorders": 7431, "Hz": 7432, "Ġmixed": 7433, "uz": 7434, "ystem": 7435, "Ġsuitable": 7436, "Ġfle": 7437, "Ġcontained": 7438, "ĠJapanese": 7439, "Ġpowers": 7440, "MENT": 7441, "Ġparticipants": 7442, "Mr": 7443, "229": 7444, "Ġvictim": 7445, "eld": 7446, "Ġbear": 7447, "Ġeigen": 7448, "cd": 7449, "weight": 7450, "Ġkid": 7451, "CG": 7452, "ĠDay": 7453, "NW": 7454, "Ġtro": 7455, "Ġcm": 7456, "SD": 7457, "Ġclaims": 7458, "Ġdenote": 7459, "Ġnuclear": 7460, "Ġconven": 7461, "280": 7462, "Yy": 7463, "emale": 7464, "Can": 7465, "ctr": 7466, "Ġdelay": 7467, "ĠBox": 7468, "Ġantib": 7469, "Ġmotor": 7470, "inity": 7471, "ĠManagement": 7472, "wer": 7473, "ĠMil": 7474, "Ġcities": 7475, "LCA": 7476, "Ġmanager": 7477, "Ġrul": 7478, "ĠSil": 7479, "Ġsentence": 7480, "Ġdynamic": 7481, "512": 7482, "ador": 7483, "Ġhuge": 7484, "ITY": 7485, "cean": 7486, "Ġbath": 7487, "Ġhur": 7488, "Ġexpert": 7489, "=new": 7490, "Ġcustomers": 7491, "Ġprecis": 7492, "Ġdies": 7493, "icked": 7494, "ĠLong": 7495, "Ġwaves": 7496, "Ġdigital": 7497, "AAA": 7498, "Ġvoc": 7499, "Ġ$-": 7500, "adr": 7501, "Ġwidely": 7502, "aÃ§Ã£o": 7503, "fa": 7504, "Ãµes": 7505, "ĠLo": 7506, "Ġseek": 7507, "Ġrecall": 7508, "iate": 7509, "Ġscr": 7510, "iology": 7511, ",as": 7512, "Ġcompleted": 7513, "Ġwealth": 7514, "Ġfacts": 7515, "Ġunknown": 7516, "219": 7517, "Ġintegral": 7518, "ocket": 7519, "ĠGal": 7520, "Ġadult": 7521, "ĠLouis": 7522, "Ts": 7523, "While": 7524, "Ġsharp": 7525, "ima": 7526, "--------------------------------": 7527, "ĠÐľ": 7528, "ĠMicro": 7529, "Ġsignificance": 7530, "Ġconversation": 7531, ",\\": 7532, "ĠCap": 7533, "ĠSl": 7534, "Ġdepart": 7535, "enter": 7536, ",I": 7537, "Ġleader": 7538, ")+": 7539, "223": 7540, "Ġlibrary": 7541, "Ġgreatest": 7542, "006": 7543, "ontal": 7544, "Ġmissing": 7545, "Sm": 7546, "Ġvariation": 7547, "233": 7548, "Ġadvanced": 7549, "Ġnurs": 7550, "ĠOffice": 7551, "Ġadvance": 7552, "245": 7553, "unc": 7554, "ĠPRO": 7555, "|Ċ": 7556, "Ġnice": 7557, "Ġconj": 7558, "Ġdrugs": 7559, "Why": 7560, "ĠProfess": 7561, "Ġbelie": 7562, "PG": 7563, "ĠProgram": 7564, "Class": 7565, "Ġgames": 7566, "Ġweb": 7567, "Ġthro": 7568, "Ġpreced": 7569, "{g": 7570, "Ġspeaking": 7571, "Ġcitizens": 7572, "Ġpropos": 7573, "217": 7574, "Ġgenerate": 7575, "ĠSet": 7576, "Ġsecondary": 7577, "ĠGold": 7578, "Ġvs": 7579, "ocratic": 7580, "(!": 7581, ",in": 7582, "Ġaccurate": 7583, "Ġinvar": 7584, "Ġbreast": 7585, "Ġconsiderable": 7586, "Ġembed": 7587, "lich": 7588, "Ġpolynom": 7589, "gypt": 7590, "Ġlic": 7591, "Ġpregn": 7592, "has": 7593, "Ġprimarily": 7594, "Ġnecessarily": 7595, "/N": 7596, "Ġabsolute": 7597, "Ġgalax": 7598, "ĠGreek": 7599, "Ġspaces": 7600, "asy": 7601, "Ġaudience": 7602, "Ġremove": 7603, "War": 7604, "ublished": 7605, "Ġdesired": 7606, "Ġprime": 7607, "John": 7608, "Ġemotional": 7609, "275": 7610, "icate": 7611, "ĠAmericans": 7612, "oves": 7613, "Ġpassage": 7614, "Ġadequ": 7615, "vy": 7616, "304": 7617, "gged": 7618, "fol": 7619, "ĠWind": 7620, "ĠBet": 7621, "Ġkeeping": 7622, "Ġeasier": 7623, "Ġscal": 7624, "ĠTor": 7625, "Ġaccel": 7626, "Ġcelebr": 7627, "ĠHy": 7628, "011": 7629, "+/": 7630, "Ġdram": 7631, "Ġcontrolled": 7632, "net": 7633, "fall": 7634, "ĠIndeed": 7635, "underline": 7636, "Ġturns": 7637, "Ġaid": 7638, "auss": 7639, "232": 7640, "Ã©n": 7641, "Ġpolitics": 7642, "Ġsick": 7643, "Ġwatched": 7644, "Ġcash": 7645, "Ġconducted": 7646, "Ġchrom": 7647, "ĠÑı": 7648, "Ġcustomer": 7649, "Ġchem": 7650, "Ġcommunities": 7651, "Ġdecrease": 7652, "Ġbag": 7653, "Ġlip": 7654, "Ġhappens": 7655, "Ġlose": 7656, "Ġrevolution": 7657, "Ð½Ð°Ñı": 7658, "oped": 7659, "Sub": 7660, "pecific": 7661, "AU": 7662, "(u": 7663, "Ġnumerous": 7664, "Ġcooper": 7665, "arks": 7666, "Our": 7667, "Ġplatform": 7668, "Ġdependent": 7669, "Ġmuscle": 7670, "ĠInstead": 7671, "DB": 7672, "group": 7673, "Ġelev": 7674, "Ġhabit": 7675, "Ġkids": 7676, "-level": 7677, "ĠInternet": 7678, "_x": 7679, "Ġtrig": 7680, "Comp": 7681, "Ġshut": 7682, "truct": 7683, "ĠSpe": 7684, ".con": 7685, "di": 7686, "Ġvolt": 7687, "tre": 7688, "Ġpapers": 7689, "Ġjournal": 7690, "ĠBur": 7691, "ĠEnd": 7692, "à¥įà¤": 7693, "format": 7694, "ĠBrown": 7695, "Ġlargely": 7696, "dX": 7697, "istered": 7698, "243": 7699, "qqqq": 7700, "\\|": 7701, "_test": 7702, "ĠTex": 7703, "Go": 7704, "ĠCOM": 7705, "aven": 7706, "vas": 7707, "Ġentry": 7708, "ĠTheory": 7709, "Ġye": 7710, "ĠPolit": 7711, "MR": 7712, "Ġoxygen": 7713, "QL": 7714, "Ġsuc": 7715, "Ġton": 7716, "Ġdegrees": 7717, "View": 7718, "227": 7719, "Are": 7720, "FL": 7721, "Ġstability": 7722, "Ġphr": 7723, "version": 7724, "ivo": 7725, "Ġantic": 7726, "you": 7727, "Ġpossibly": 7728, "ĠDef": 7729, "Ġsector": 7730, "Ġnotion": 7731, "endix": 7732, "ĠSir": 7733, "UE": 7734, "Ġcalc": 7735, "Ġdistrict": 7736, "DP": 7737, "-ph": 7738, "Ġdirector": 7739, "Ġimmediate": 7740, "going": 7741, "Ġeducational": 7742, "Ġmatters": 7743, "Ġends": 7744, "ARD": 7745, "ema": 7746, "hn": 7747, "Ġveget": 7748, "ĠConf": 7749, "241": 7750, "Ġdefault": 7751, "Ġsalt": 7752, "ĠON": 7753, ":\\": 7754, "ota": 7755, "Ġrevealed": 7756, "/L": 7757, "Ġentered": 7758, "oung": 7759, "Ġofficial": 7760, "265": 7761, "Ġbrown": 7762, "Ġseg": 7763, "igration": 7764, "Ġseconds": 7765, "Ġsole": 7766, "Ġcategories": 7767, "only": 7768, "Ġexposure": 7769, "Ġimplementation": 7770, "sch": 7771, "ĠWell": 7772, "444": 7773, "-K": 7774, "Ġaus": 7775, "/z": 7776, "Ġexplanation": 7777, "rection": 7778, "Ġguard": 7779, "Ġmainly": 7780, "Ã©r": 7781, "ĠLeg": 7782, "Ġconcerns": 7783, "Ġreactions": 7784, "Ġhurt": 7785, "Ġeffectively": 7786, "Ġdimensions": 7787, "car": 7788, "Ġhelps": 7789, "isk": 7790, "226": 7791, "Ġterrit": 7792, "anish": 7793, "Ġfilter": 7794, "008": 7795, "Ġjustice": 7796, "Ġcompare": 7797, "number": 7798, "Ġinstall": 7799, "Ġreact": 7800, "wered": 7801, "oston": 7802, "athy": 7803, "Ġble": 7804, "Ġclassification": 7805, "Ġdomestic": 7806, "inction": 7807, "Ġcurrently": 7808, "Ġresearc": 7809, "Ġforget": 7810, "Ġinh": 7811, "RY": 7812, "Ġpool": 7813, "273": 7814, "check": 7815, "ĠAnalysis": 7816, "Rh": 7817, "ĠEX": 7818, "Ġcollabor": 7819, "Ġcoffe": 7820, "Ġintensity": 7821, "ĠFebruary": 7822, "(h": 7823, "Ġstatements": 7824, "007": 7825, "Ġsuppose": 7826, "{N": 7827, "reshold": 7828, "amples": 7829, "305": 7830, "Ġpropag": 7831, "His": 7832, "252": 7833, "ĠTw": 7834, "ometimes": 7835, "Ġurban": 7836, "Ġagric": 7837, "Ġgap": 7838, "andon": 7839, "ĠCat": 7840, ":n": 7841, "Ġmixture": 7842, "ether": 7843, "ĠJac": 7844, "ĠProceed": 7845, "transform": 7846, "/H": 7847, ".K": 7848, "Ġpert": 7849, "Ġequilibrium": 7850, "=-": 7851, "Ġoperators": 7852, "Ġbuck": 7853, "\"The": 7854, "Ġretain": 7855, "isters": 7856, "Ġsubs": 7857, "ĠAT": 7858, "Ġclub": 7859, "Ġhier": 7860, "ĠPower": 7861, "DD": 7862, "Ġju": 7863, "Ġyellow": 7864, "Ġturning": 7865, "Ġfacilit": 7866, "Ġspend": 7867, "Ġseat": 7868, "istent": 7869, "ĠUN": 7870, "Ġtail": 7871, "ictor": 7872, "merican": 7873, "Ġstuff": 7874, "Ġviolence": 7875, "\\u": 7876, "\\left": 7877, "Acc": 7878, "Ġperman": 7879, "Ġnicht": 7880, "Ġextension": 7881, "Ug": 7882, "}.": 7883, "Ġbegins": 7884, "eper": 7885, "ĠBre": 7886, "ĠUK": 7887, "Ġfiles": 7888, "Ġyouth": 7889, "Ġrecorded": 7890, "âĢĻt": 7891, "However": 7892, "Ġcapable": 7893, "Ġenhance": 7894, "coming": 7895, "ullet": 7896, "Ġinfection": 7897, "ĠTV": 7898, "Ġwatching": 7899, "OF": 7900, "ĠDire": 7901, "db": 7902, "aa": 7903, "ortunately": 7904, "Ġourselves": 7905, "ĠSk": 7906, "fb": 7907, "imm": 7908, "555": 7909, "Ġstorage": 7910, "Vl": 7911, "ĠCounty": 7912, "Ðŀ": 7913, "Pe": 7914, "Ġreject": 7915, "arl": 7916, "Ġsubsequent": 7917, "301": 7918, "Ġattend": 7919, ",D": 7920, "ERT": 7921, "ounded": 7922, "Ġexceed": 7923, "ĠClin": 7924, "/e": 7925, "Ġpurs": 7926, "238": 7927, "Ġconsidering": 7928, "Ġdistributed": 7929, "254": 7930, "ĠRet": 7931, "ocument": 7932, "uj": 7933, "ĠAnother": 7934, "Ġswitch": 7935, "ooking": 7936, "239": 7937, "ĠCr": 7938, "ĠUp": 7939, "ĠJul": 7940, "Ġconsequences": 7941, ",S": 7942, "osc": 7943, "248": 7944, "ungen": 7945, "May": 7946, "mean": 7947, ",w": 7948, "228": 7949, "Ġleadership": 7950, "ĠLog": 7951, "Ġstatic": 7952, "anta": 7953, "Although": 7954, "Ġchallenges": 7955, "gal": 7956, "BA": 7957, "Ġwaste": 7958, "Ġtwice": 7959, "Ġpairs": 7960, "ĠTrue": 7961, "ĠâĢ¢": 7962, "290": 7963, "ĠFather": 7964, "Gr": 7965, "Ġinsurance": 7966, "ensus": 7967, "Ġpy": 7968, "Ġphosph": 7969, "fil": 7970, "-packages": 7971, "ĠLuc": 7972, "Ġlit": 7973, "Ġ[[": 7974, "ishment": 7975, "Ġrapidly": 7976, "issions": 7977, "isis": 7978, "ĠSing": 7979, "Ġfurn": 7980, "pes": 7981, "irmed": 7982, "itÃ©": 7983, "Ġarmy": 7984, "aria": 7985, "Ġfashion": 7986, "orough": 7987, "ĠCentral": 7988, "(m": 7989, "[A": 7990, "Ġknowing": 7991, "approx": 7992, "ABLE": 7993, "Ġdiscipl": 7994, "ĠLearning": 7995, "Ġthrow": 7996, "Os": 7997, "Ġenzym": 7998, "Ġcompact": 7999, "Ġadding": 8000, "Ġrose": 8001, "Nl": 8002, "Ġ(\"": 8003, "Ġhole": 8004, "ĠDesign": 8005, "xic": 8006, "Bh": 8007, "Ġradius": 8008, "SR": 8009, "fficients": 8010, "Ġpartial": 8011, "750": 8012, "BD": 8013, "237": 8014, "attering": 8015, "262": 8016, "Ġprofit": 8017, "=u": 8018, "uced": 8019, "imately": 8020, "249": 8021, "Vy": 8022, "Ġspecified": 8023, "253": 8024, "Ġaccounts": 8025, "ANT": 8026, "ĠJo": 8027, "Ġcoffee": 8028, "Ġfamous": 8029, "/y": 8030, "Ġfab": 8031, "ĠINT": 8032, "Value": 8033, "lik": 8034, "itan": 8035, "Ġexplore": 8036, "Ġjoin": 8037, "Ġbudget": 8038, "(-": 8039, "bour": 8040, "Ġanswers": 8041, "ĠControl": 8042, "Ġcircuit": 8043, "-V": 8044, "Ġcurves": 8045, "Mx": 8046, "ĠIns": 8047, "246": 8048, "embly": 8049, "Ġbeam": 8050, "Ġom": 8051, "km": 8052, "Ġintegration": 8053, "ĠProble": 8054, "eries": 8055, "Ġordered": 8056, "space": 8057, "Ġspatial": 8058, ".add": 8059, "OUR": 8060, "Ġcommonly": 8061, "Ġwinter": 8062, "_v": 8063, "hl": 8064, "plete": 8065, "orial": 8066, "ernel": 8067, "Ġped": 8068, "Ġfruit": 8069, "score": 8070, "Ġordinary": 8071, "ĠEffect": 8072, "Ġsimult": 8073, "Ġreasonable": 8074, "Ġnit": 8075, "rices": 8076, "aux": 8077, "Ġimmun": 8078, "Ġworse": 8079, "create": 8080, "Ġunion": 8081, "Ġroots": 8082, "xp": 8083, "ĠWal": 8084, "water": 8085, "Ġgest": 8086, "Ġdust": 8087, "261": 8088, "015": 8089, "cat": 8090, "Ġsimulation": 8091, "Ġvec": 8092, "kz": 8093, "anch": 8094, "THE": 8095, "draw": 8096, "âĪĴ": 8097, "Ġsteel": 8098, "Ġlayers": 8099, ",P": 8100, "Ġcompetition": 8101, "296": 8102, ".index": 8103, "Ġcalculate": 8104, "Ġdivision": 8105, "ĠÃĹ": 8106, "iration": 8107, "Ġdiagram": 8108, "Ġevident": 8109, ">V": 8110, "file": 8111, "\\}": 8112, "plots": 8113, "normal": 8114, "ĠÐĶ": 8115, "uality": 8116, "Ġmilk": 8117, "iture": 8118, "Ġsuit": 8119, "Ġcro": 8120, "}}\\": 8121, "ALL": 8122, "gi": 8123, "Ġstrange": 8124, "Ġworry": 8125, "Ġdepending": 8126, "Ġweather": 8127, "oir": 8128, "ILL": 8129, "Ġnin": 8130, "Ġassociation": 8131, "ĠOR": 8132, "omer": 8133, "IZ": 8134, "281": 8135, "Ġnumerical": 8136, "Ġalcohol": 8137, "ped": 8138, ",[": 8139, "cw": 8140, "Ġhighlight": 8141, "fast": 8142, "Ġmolecular": 8143, "Ġinvolving": 8144, "=l": 8145, "KG": 8146, "Ġcriteria": 8147, "ĠEgypt": 8148, "Ġwalking": 8149, "_j": 8150, "236": 8151, "ACT": 8152, "****************": 8153, "Ġdifferential": 8154, "Ġplays": 8155, "Ġ*/Ċ": 8156, "Ġbone": 8157, "ĠTechnology": 8158, "Ġsich": 8159, "'T": 8160, "Ġsnow": 8161, "Ġloop": 8162, "adian": 8163, "Ġvillage": 8164, "Note": 8165, "oday": 8166, "lu": 8167, "DF": 8168, "Ġtheories": 8169, "âĺ": 8170, "Ġconstraints": 8171, "ĠLabor": 8172, "Ġrecon": 8173, "ĠNever": 8174, "Ġmaps": 8175, "Ġnegot": 8176, "tenance": 8177, "Ġsugar": 8178, "Her": 8179, "Ġhidden": 8180, "Ġanalys": 8181, "nan": 8182, "Ġhypothesis": 8183, "242": 8184, "Ġvess": 8185, "UV": 8186, "\\right": 8187, ",B": 8188, "Ġmanufacture": 8189, "Ġplayers": 8190, "Ġconcerning": 8191, "Off": 8192, "ĠAv": 8193, "Ġdecide": 8194, "(y": 8195, "oured": 8196, "']Ċ": 8197, "Af": 8198, "eller": 8199, "Ġresource": 8200, "rene": 8201, "Ġuniversal": 8202, ";s": 8203, "Ġestimates": 8204, ".in": 8205, "Ġdescribes": 8206, "ottom": 8207, "=c": 8208, "atio": 8209, "iones": 8210, "bled": 8211, "{M": 8212, "ĠMartin": 8213, "/r": 8214, "azine": 8215, "Ġdiscover": 8216, "wa": 8217, "();": 8218, "Rem": 8219, "ĠRussian": 8220, "Ġtelling": 8221, "Ġpanel": 8222, "Ke": 8223, "Ġdropped": 8224, "ĠId": 8225, "Ġimprovement": 8226, "012": 8227, "ĠProceedings": 8228, "Ġdepos": 8229, "Ġconsumption": 8230, ",L": 8231, "Just": 8232, "247": 8233, ".V": 8234, "Ġasking": 8235, "aneously": 8236, "Ġmetab": 8237, "Ġcolumns": 8238, "Ġoutl": 8239, "Ġ----": 8240, "Ġadopted": 8241, "ĠMedic": 8242, "Ġmanaged": 8243, "Ġproportion": 8244, "Ġdepartment": 8245, "251": 8246, "aud": 8247, "Ġconsideration": 8248, "Ġprompt": 8249, "UP": 8250, "Ġduty": 8251, "ĠLee": 8252, "ympt": 8253, "ersonal": 8254, "anguages": 8255, "Ġcoast": 8256, "open": 8257, "bing": 8258, "Ġjobs": 8259, "ĠJoseph": 8260, "uing": 8261, "Ġreson": 8262, "Ðļ": 8263, "Ġsuperior": 8264, "seud": 8265, "ĠReport": 8266, "ĠÐł": 8267, ".text": 8268, "Ġdifficulty": 8269, "Ġbeat": 8270, "stream": 8271, "Ġstre": 8272, "IES": 8273, "Ġmechanisms": 8274, "Ġadvice": 8275, "310": 8276, "oting": 8277, "non": 8278, "bin": 8279, "agen": 8280, "BM": 8281, "Reg": 8282, "285": 8283, "esian": 8284, "Ġsan": 8285, "Ġfro": 8286, "ymph": 8287, "ECT": 8288, "Ġhal": 8289, "Ġeine": 8290, "kh": 8291, "Ġintroduction": 8292, "Ġunderlying": 8293, "SH": 8294, "Ġfault": 8295, "riend": 8296, "night": 8297, "Ġintroduce": 8298, "fraid": 8299, "Ġdinner": 8300, "Ġfocused": 8301, "Ġtruly": 8302, "burg": 8303, "Ġpercentage": 8304, "Ġarticles": 8305, "ĠSuper": 8306, "Ġsounds": 8307, "Ġcrime": 8308, "ployment": 8309, "imer": 8310, "writ": 8311, "hav": 8312, "ĠArab": 8313, "Ġstick": 8314, "Ġlen": 8315, "Ġshock": 8316, "bles": 8317, "Ġteach": 8318, "Ġemployment": 8319, "Ġclothes": 8320, "{R": 8321, "390": 8322, "Ġtopic": 8323, "BR": 8324, "ea": 8325, "font": 8326, "tz": 8327, "Ġrend": 8328, "ĠDen": 8329, "Ġrecognize": 8330, "Ġsorry": 8331, "Right": 8332, "Ġdriving": 8333, "reme": 8334, "Ġsucceed": 8335, "rich": 8336, "emp": 8337, "311": 8338, "[a": 8339, "auge": 8340, "Ġreturns": 8341, "Ġhealthy": 8342, "Ġdependence": 8343, "ĠSP": 8344, "Ġadults": 8345, "ĠCarol": 8346, "BO": 8347, "ĠAccuracy": 8348, "Ġreplied": 8349, "Ġstructural": 8350, "ĠRoad": 8351, "Ġhumans": 8352, "icular": 8353, "\\%": 8354, "Ġvisible": 8355, "erver": 8356, "Ġnewsp": 8357, "uilding": 8358, "ĠIntroduction": 8359, "Ġcollected": 8360, "iger": 8361, "Ġattitude": 8362, "ĠList": 8363, "Ġodd": 8364, "Ġperiods": 8365, "Ġapproximation": 8366, "Ġradiation": 8367, "MF": 8368, "Ġgrew": 8369, "cor": 8370, "iac": 8371, "oking": 8372, "Ġrect": 8373, "Ġportion": 8374, "302": 8375, "Ġoutcome": 8376, "ĠSpirit": 8377, "Ġmomentum": 8378, "ĠExpl": 8379, "CV": 8380, "Ġcoefficients": 8381, "met": 8382, "tail": 8383, "inking": 8384, "umes": 8385, "rance": 8386, "attice": 8387, "-width": 8388, "244": 8389, "ĠNature": 8390, "Ġteeth": 8391, "Ġcart": 8392, "-J": 8393, "allow": 8394, "ĠnÃ£o": 8395, "406": 8396, "Ġsed": 8397, "ĠWood": 8398, "Ġevaluate": 8399, "Ġobserve": 8400, "Ġwire": 8401, "Ġearn": 8402, "267": 8403, "-ind": 8404, "arse": 8405, "Ġguy": 8406, "ĠMont": 8407, "ĠConsider": 8408, "Ġlogic": 8409, "Ġcomplexity": 8410, "ĠTer": 8411, "/G": 8412, "ĠMel": 8413, "Ġprofile": 8414, "-ex": 8415, "asm": 8416, "Ġquantity": 8417, "ĠHand": 8418, "Ġdrawing": 8419, "oz": 8420, "lie": 8421, "Ġanswered": 8422, "ĠEs": 8423, "Ġequally": 8424, "Ġinvestigation": 8425, "Ġreplaced": 8426, "Ġwebs": 8427, "ĠBusiness": 8428, "Ġfellow": 8429, "257": 8430, "Ġmostly": 8431, "ĠAdv": 8432, "009": 8433, "Ġremem": 8434, "ervice": 8435, "ĠGrand": 8436, "None": 8437, "akers": 8438, "_size": 8439, "adding": 8440, "Ġintent": 8441, "Ġclar": 8442, "ĠAnswer": 8443, "QD": 8444, "esis": 8445, "iral": 8446, "tl": 8447, "Ġpleasure": 8448, "Ġdemonstrate": 8449, "Ġdirected": 8450, "oked": 8451, "ĠEll": 8452, "full": 8453, "Ġplayer": 8454, "ĠDou": 8455, "-old": 8456, "Ġoptical": 8457, "Ġspecifically": 8458, "Ġacademic": 8459, "Ġsensitive": 8460, "orted": 8461, "Ġremind": 8462, "Ġallowing": 8463, "First": 8464, "ĠSund": 8465, "Ġmarkets": 8466, "list": 8467, "Ġfunds": 8468, "Ġafraid": 8469, "ĠMedical": 8470, "ĠPers": 8471, "asant": 8472, "269": 8473, "340": 8474, "Ġevil": 8475, "Ġconfiguration": 8476, "effect": 8477, "Ġdefect": 8478, "grid": 8479, "Ġil": 8480, "Ġcontributions": 8481, "_h": 8482, "pan": 8483, "igation": 8484, "Ġintellectual": 8485, "Ġpresents": 8486, "vv": 8487, "Ġcentre": 8488, ",R": 8489, "Ġdisturb": 8490, "\"><": 8491, "quare": 8492, "Ġblow": 8493, "bel": 8494, "Ġdesc": 8495, "erman": 8496, "Ġgarden": 8497, "Ġnur": 8498, "Ġhardly": 8499, "Point": 8500, "Ġwriter": 8501, "414": 8502, "Ġliber": 8503, "Ġvaluable": 8504, "dG": 8505, "Ġmetric": 8506, "328": 8507, "iy": 8508, "ente": 8509, "clusions": 8510, "Ġfirms": 8511, "########": 8512, "Ġdefend": 8513, "Ġ->": 8514, "agon": 8515, "RL": 8516, "ĠMale": 8517, "{x": 8518, ",g": 8519, "Ġelectronic": 8520, "Ġformat": 8521, "ĠAtt": 8522, "ĠLes": 8523, "DE": 8524, "Ġgentle": 8525, "DA": 8526, "Ġcov": 8527, "Ġfinger": 8528, "330": 8529, "Ġthirty": 8530, "Ġshell": 8531, ".data": 8532, "Ġlisted": 8533, "pered": 8534, "Ġhem": 8535, "Ġmolecules": 8536, "ĠBoard": 8537, "Ġorg": 8538, "YS": 8539, "Ġpil": 8540, "after": 8541, "Ġcert": 8542, "ĠLibrary": 8543, "ĠTim": 8544, "Ġcareful": 8545, "ĠBill": 8546, "272": 8547, ";r": 8548, "Ġsilence": 8549, "clusive": 8550, "ĠWater": 8551, "Ġchart": 8552, "Ġsatisfied": 8553, "itial": 8554, "Ġinduced": 8555, "ĠThree": 8556, "Ġstages": 8557, "Ġsymmetry": 8558, "ĠLatin": 8559, "Ġrare": 8560, "Ġho": 8561, "888": 8562, "ĠCatholic": 8563, "ĠOper": 8564, "\"We": 8565, "(g": 8566, "Ġtall": 8567, "Ġalgorithms": 8568, "Ġinterface": 8569, "elihood": 8570, "777": 8571, "\"S": 8572, "ĠMach": 8573, "Cor": 8574, "ĠPubl": 8575, "vc": 8576, "tri": 8577, "ĠConst": 8578, "Ġtrained": 8579, "Ġcoefficient": 8580, "Ġvast": 8581, "ĠExt": 8582, "Ġrealize": 8583, "cin": 8584, "Ġextensive": 8585, "Ġdil": 8586, "ĠCam": 8587, "Ġvert": 8588, "Ġru": 8589, "Ġnine": 8590, "Mc": 8591, "ocial": 8592, "Ġcycl": 8593, "Ġtone": 8594, "Ġmovements": 8595, "288": 8596, "ĠHill": 8597, "rb": 8598, "Ġdiffer": 8599, "Ġtaught": 8600, "Ġcluster": 8601, "aurant": 8602, "259": 8603, "Ġexception": 8604, "cell": 8605, "384": 8606, "Ġsubset": 8607, "CK": 8608, "ieval": 8609, "Ġmarketing": 8610, "State": 8611, "areness": 8612, "(function": 8613, "Key": 8614, "ĠSecret": 8615, "ĠWomen": 8616, "VD": 8617, "-v": 8618, "325": 8619, "264": 8620, "aul": 8621, "bur": 8622, "auc": 8623,
[...]
