{"version": "1.0", "truncation": null, "padding": null, "added_tokens": [{"id": 0, "content": "<s>", "single_word": false, "lstrip": false, "rstrip": false, "normalized": false, "special": true}, {"id": 1, "content": "</s>", "single_word": false, "lstrip": false, "rstrip": false, "normalized": false, "special": true}, {"id": 2, "content": "<tool_call>", "single_word": false, "lstrip": false, "rstrip": false, "normalized": false, "special": true}, {"id": 3, "content": "</tool_call>", "single_word": false, "lstrip": false, "rstrip": false, "normalized": false, "special": true}, {"id": 4, "content": "<|im_sep|>", "single_word": false, "lstrip": false, "rstrip": false, "normalized": false, "special": true}, {"id": 5, "content": "<|fim_prefix|>", "single_word": false, "lstrip": false, "rstrip": false, "normalized": false, "special": true}, {"id": 6, "content": "<|fim_middle|>", "single_word": false, "lstrip": false, "rstrip": false, "normalized": false, "special": true}, {"id": 7, "content": "<|fim_suffix|>", "single_word": false, "lstrip": false, "rstrip": false, "normalized": false, "special": true}, {"id": 8, "content": "<think>", "single_word": false, "lstrip": false, "rstrip": false, "normalized": false, "special": false}, {"id": 9, "content": "</think>", "single_word": false, "lstrip": false, "rstrip": false, "normalized": false, "special": false}, {"id": 10, "content": "<tool_response>", "single_word": false, "lstrip": false, "rstrip": false, "normalized": false, "special": true}, {"id": 11, "content": "</tool_response>", "single_word": false, "lstrip": false, "rstrip": false, "normalized": false, "special": true}, {"id": 12, "content": "<tools>", "single_word": false, "lstrip": false, "rstrip": false, "normalized": false, "special": true}, {"id": 13, "content": "</tools>", "single_word": false, "lstrip": false, "rstrip": false, "normalized": false, "special": true}, {"id": 14, "content": "<arguments>", "single_word": false, "lstrip": false, "rstrip": false, "normalized": false, "special": true}, {"id": 15, "content": "</arguments>", "single_word": false, "lstrip": false, "rstrip": false, "normalized": false, "special": true}, {"id": 16, "content": "<parameters>", "single_word": false, "lstrip": false, "rstrip": false, "normalized": false, "special": true}, {"id": 17, "content": "</parameters>", "single_word": false, "lstrip": false, "rstrip": false, "normalized": false, "special": true}, {"id": 18, "content": "<function", "single_word": false, "lstrip": false, "rstrip": false, "normalized": false, "special": true}, {"id": 19, "content": "</function>", "single_word": false, "lstrip": false, "rstrip": false, "normalized": false, "special": true}, {"id": 20, "content": "<param", "single_word": false, "lstrip": false, "rstrip": false, "normalized": false, "special": true}, {"id": 21, "content": "</param>", "single_word": false, "lstrip": false, "rstrip": false, "normalized": false, "special": true}, {"id": 32280, "content": "<|im_start|>", "single_word": false, "lstrip": false, "rstrip": false, "normalized": false, "special": true}, {"id": 32281, "content": "<|im_end|>", "single_word": false, "lstrip": false, "rstrip": false, "normalized": false, "special": true}, {"id": 32282, "content": "<unk>", "single_word": false, "lstrip": false, "rstrip": false, "normalized": false, "special": true}, {"id": 32283, "content": "<|thought_begin|>", "single_word": false, "lstrip": false, "rstrip": false, "normalized": false, "special": true}, {"id": 32284, "content": "<|thought_end|>", "single_word": false, "lstrip": false, "rstrip": false, "normalized": false, "special": true}, {"id": 32285, "content": "<|tool_call|>", "single_word": false, "lstrip": false, "rstrip": false, "normalized": false, "special": true}, {"id": 32286, "content": "<|execute_start|>", "single_word": false, "lstrip": false, "rstrip": false, "normalized": false, "special": true}, {"id": 32287, "content": "<|execute_end|>", "single_word": false, "lstrip": false, "rstrip": false, "normalized": false, "special": true}, {"id": 32288, "content": "/think", "single_word": false, "lstrip": false, "rstrip": false, "normalized": false, "special": true}, {"id": 32289, "content": "/no_think", "single_word": false, "lstrip": false, "rstrip": false, "normalized": false, "special": true}, {"id": 32290, "content": "<unused_token_0>", "single_word": false, "lstrip": false, "rstrip": false, "normalized": true, "special": false}, {"id": 32291, "content": "<unused_token_1>", "single_word": false, "lstrip": false, "rstrip": false, "normalized": true, "special": false}, {"id": 32292, "content": "<unused_token_2>", "single_word": false, "lstrip": false, "rstrip": false, "normalized": true, "special": false}, {"id": 32293, "content": "<unused_token_3>", "single_word": false, "lstrip": false, "rstrip": false, "normalized": true, "special": false}, {"id": 32294, "content": "<unused_token_4>", "single_word": false, "lstrip": false, "rstrip": false, "normalized": true, "special": false}, {"id": 32295, "content": "<unused_token_5>", "single_word": false, "lstrip": false, "rstrip": false, "normalized": true, "special": false}, {"id": 32296, "content": "<unused_token_6>", "single_word": false, "lstrip": false, "rstrip": false, "normalized": true, "special": false}, {"id": 32297, "content": "<unused_token_7>", "single_word": false, "lstrip": false, "rstrip": false, "normalized": true, "special": false}, {"id": 32298, "content": "<unused_token_8>", "single_word": false, "lstrip": false, "rstrip": false, "normalized": true, "special": false}, {"id": 32299, "content": "<unused_token_9>", "single_word": false, "lstrip": false, "rstrip": false, "normalized": true, "special": false}, {"id": 32300, "content": "<unused_token_10>", "single_word": false, "lstrip": false, "rstrip": false, "normalized": true, "special": false}, {"id": 32301, "content": "<unused_token_11>", "single_word": false, "lstrip": false, "rstrip": false, "normalized": true, "special": false}, {"id": 32302, "content": "<unused_token_12>", "single_word": false, "lstrip": false, "rstrip": false, "normalized": true, "special": false}, {"id": 32303, "content": "<unused_token_13>", "single_word": false, "lstrip": false, "rstrip": false, "normalized": true, "special": false}, {"id": 32304, "content": "<unused_token_14>", "single_word": false, "lstrip": false, "rstrip": false, "normalized": true, "special": false}, {"id": 32305, "content": "<unused_token_15>", "single_word": false, "lstrip": false, "rstrip": false, "normalized": true, "special": false}, {"id": 32306, "content": "<unused_token_16>", "single_word": false, "lstrip": false, "rstrip": false, "normalized": true, "special": false}, {"id": 32307, "content": "<unused_token_17>", "single_word": false, "lstrip": false, "rstrip": false, "normalized": true, "special": false}, {"id": 32308, "content": "<unused_token_18>", "single_word": false, "lstrip": false, "rstrip": false, "normalized": true, "special": false}, {"id": 32309, "content": "<unused_token_19>", "single_word": false, "lstrip": false, "rstrip": false, "normalized": true, "special": false}, {"id": 32310, "content": "<unused_token_20>", "single_word": false, "lstrip": false, "rstrip": false, "normalized": true, "special": false}, {"id": 32311, "content": "<unused_token_21>", "single_word": false, "lstrip": false, "rstrip": false, "normalized": true, "special": false}, {"id": 32312, "content": "<unused_token_22>", "single_word": false, "lstrip": false, "rstrip": false, "normalized": true, "special": false}, {"id": 32313, "content": "<unused_token_23>", "single_word": false, "lstrip": false, "rstrip": false, "normalized": true, "special": false}, {"id": 32314, "content": "<unused_token_24>", "single_word": false, "lstrip": false, "rstrip": false, "normalized": true, "special": false}, {"id": 32315, "content": "<unused_token_25>", "single_word": false, "lstrip": false, "rstrip": false, "normalized": true, "special": false}, {"id": 32316, "content": "<unused_token_26>", "single_word": false, "lstrip": false, "rstrip": false, "normalized": true, "special": false}, {"id": 32317, "content": "<unused_token_27>", "single_word": false, "lstrip": false, "rstrip": false, "normalized": true, "special": false}, {"id": 32318, "content": "<unused_token_28>", "single_word": false, "lstrip": false, "rstrip": false, "normalized": true, "special": false}, {"id": 32319, "content": "<unused_token_29>", "single_word": false, "lstrip": false, "rstrip": false, "normalized": true, "special": false}, {"id": 32320, "content": "<unused_token_30>", "single_word": false, "lstrip": false, "rstrip": false, "normalized": true, "special": false}, {"id": 32321, "content": "<unused_token_31>", "single_word": false, "lstrip": false, "rstrip": false, "normalized": true, "special": false}, {"id": 32322, "content": "<unused_token_32>", "single_word": false, "lstrip": false, "rstrip": false, "normalized": true, "special": false}, {"id": 32323, "content": "<unused_token_33>", "single_word": false, "lstrip": false, "rstrip": false, "normalized": true, "special": false}, {"id": 32324, "content": "<unused_token_34>", "single_word": false, "lstrip": false, "rstrip": false, "normalized": true, "special": false}, {"id": 32325, "content": "<unused_token_35>", "single_word": false, "lstrip": false, "rstrip": false, "normalized": true, "special": false}, {"id": 32326, "content": "<unused_token_36>", "single_word": false, "lstrip": false, "rstrip": false, "normalized": true, "special": false}, {"id": 32327, "content": "<unused_token_37>", "single_word": false, "lstrip": false, "rstrip": false, "normalized": true, "special": false}, {"id": 32328, "content": "<unused_token_38>", "single_word": false, "lstrip": false, "rstrip": false, "normalized": true, "special": false}, {"id": 32329, "content": "<unused_token_39>", "single_word": false, "lstrip": false, "rstrip": false, "normalized": true, "special": false}, {"id": 32330, "content": "<unused_token_40>", "single_word": false, "lstrip": false, "rstrip": false, "normalized": true, "special": false}, {"id": 32331, "content": "<unused_token_41>", "single_word": false, "lstrip": false, "rstrip": false, "normalized": true, "special": false}, {"id": 32332, "content": "<unused_token_42>", "single_word": false, "lstrip": false, "rstrip": false, "normalized": true, "special": false}, {"id": 32333, "content": "<unused_token_43>", "single_word": false, "lstrip": false, "rstrip": false, "normalized": true, "special": false}, {"id": 32334, "content": "<unused_token_44>", "single_word": false, "lstrip": false, "rstrip": false, "normalized": true, "special": false}, {"id": 32335, "content": "<unused_token_45>", "single_word": false, "lstrip": false, "rstrip": false, "normalized": true, "special": false}, {"id": 32336, "content": "<unused_token_46>", "single_word": false, "lstrip": false, "rstrip": false, "normalized": true, "special": false}, {"id": 32337, "content": "<unused_token_47>", "single_word": false, "lstrip": false, "rstrip": false, "normalized": true, "special": false}, {"id": 32338, "content": "<unused_token_48>", "single_word": false, "lstrip": false, "rstrip": false, "normalized": true, "special": false}, {"id": 32339, "content": "<unused_token_49>", "single_word": false, "lstrip": false, "rstrip": false, "normalized": true, "special": false}, {"id": 32340, "content": "<unused_token_50>", "single_word": false, "lstrip": false, "rstrip": false, "normalized": true, "special": false}, {"id": 32341, "content": "<unused_token_51>", "single_word": false, "lstrip": false, "rstrip": false, "normalized": true, "special": false}, {"id": 32342, "content": "<unused_token_52>", "single_word": false, "lstrip": false, "rstrip": false, "normalized": true, "special": false}, {"id": 32343, "content": "<unused_token_53>", "single_word": false, "lstrip": false, "rstrip": false, "normalized": true, "special": false}, {"id": 32344, "content": "<unused_token_54>", "single_word": false, "lstrip": false, "rstrip": false, "normalized": true, "special": false}, {"id": 32345, "content": "<unused_token_55>", "single_word": false, "lstrip": false, "rstrip": false, "normalized": true, "special": false}, {"id": 32346, "content": "<unused_token_56>", "single_word": false, "lstrip": false, "rstrip": false, "normalized": true, "special": false}, {"id": 32347, "content": "<unused_token_57>", "single_word": false, "lstrip": false, "rstrip": false, "normalized": true, "special": false}, {"id": 32348, "content": "<unused_token_58>", "single_word": false, "lstrip": false, "rstrip": false, "normalized": true, "special": false}, {"id": 32349, "content": "<unused_token_59>", "single_word": false, "lstrip": false, "rstrip": false, "normalized": true, "special": false}, {"id": 32350, "content": "<unused_token_60>", "single_word": false, "lstrip": false, "rstrip": false, "normalized": true, "special": false}, {"id": 32351, "content": "<unused_token_61>", "single_word": false, "lstrip": false, "rstrip": false, "normalized": true, "special": false}, {"id": 32352, "content": "<unused_token_62>", "single_word": false, "lstrip": false, "rstrip": false, "normalized": true, "special": false}, {"id": 32353, "content": "<unused_token_63>", "single_word": false, "lstrip": false, "rstrip": false, "normalized": true, "special": false}, {"id": 32354, "content": "<unused_token_64>", "single_word": false, "lstrip": false, "rstrip": false, "normalized": true, "special": false}, {"id": 32355, "content": "<unused_token_65>", "single_word": false, "lstrip": false, "rstrip": false, "normalized": true, "special": false}, {"id": 32356, "content": "<unused_token_66>", "single_word": false, "lstrip": false, "rstrip": false, "normalized": true, "special": false}, {"id": 32357, "content": "<unused_token_67>", "single_word": false, "lstrip": false, "rstrip": false, "normalized": true, "special": false}, {"id": 32358, "content": "<unused_token_68>", "single_word": false, "lstrip": false, "rstrip": false, "normalized": true, "special": false}, {"id": 32359, "content": "<unused_token_69>", "single_word": false, "lstrip": false, "rstrip": false, "normalized": true, "special": false}, {"id": 32360, "content": "<unused_token_70>", "single_word": false, "lstrip": false, "rstrip": false, "normalized": true, "special": false}, {"id": 32361, "content": "<unused_token_71>", "single_word": false, "lstrip": false, "rstrip": false, "normalized": true, "special": false}, {"id": 32362, "content": "<unused_token_72>", "single_word": false, "lstrip": false, "rstrip": false, "normalized": true, "special": false}, {"id": 32363, "content": "<unused_token_73>", "single_word": false, "lstrip": false, "rstrip": false, "normalized": true, "special": false}, {"id": 32364, "content": "<unused_token_74>", "single_word": false, "lstrip": false, "rstrip": false, "normalized": true, "special": false}, {"id": 32365, "content": "<unused_token_75>", "single_word": false, "lstrip": false, "rstrip": false, "normalized": true, "special": false}, {"id": 32366, "content": "<unused_token_76>", "single_word": false, "lstrip": false, "rstrip": false, "normalized": true, "special": false}, {"id": 32367, "content": "<unused_token_77>", "single_word": false, "lstrip": false, "rstrip": false, "normalized": true, "special": false}, {"id": 32368, "content": "<unused_token_78>", "single_word": false, "lstrip": false, "rstrip": false, "normalized": true, "special": false}, {"id": 32369, "content": "<unused_token_79>", "single_word": false, "lstrip": false, "rstrip": false, "normalized": true, "special": false}, {"id": 32370, "content": "<unused_token_80>", "single_word": false, "lstrip": false, "rstrip": false, "normalized": true, "special": false}, {"id": 32371, "content": "<unused_token_81>", "single_word": false, "lstrip": false, "rstrip": false, "normalized": true, "special": false}, {"id": 32372, "content": "<unused_token_82>", "single_word": false, "lstrip": false, "rstrip": false, "normalized": true, "special": false}, {"id": 32373, "content": "<unused_token_83>", "single_word": false, "lstrip": false, "rstrip": false, "normalized": true, "special": false}, {"id": 32374, "content": "<unused_token_84>", "single_word": false, "lstrip": false, "rstrip": false, "normalized": true, "special": false}, {"id": 32375, "content": "<unused_token_85>", "single_word": false, "lstrip": false, "rstrip": false, "normalized": true, "special": false}, {"id": 32376, "content": "<unused_token_86>", "single_word": false, "lstrip": false, "rstrip": false, "normalized": true, "special": false}, {"id": 32377, "content": "<unused_token_87>", "single_word": false, "lstrip": false, "rstrip": false, "normalized": true, "special": false}, {"id": 32378, "content": "<unused_token_88>", "single_word": false, "lstrip": false, "rstrip": false, "normalized": true, "special": false}, {"id": 32379, "content": "<unused_token_89>", "single_word": false, "lstrip": false, "rstrip": false, "normalized": true, "special": false}, {"id": 32380, "content": "<unused_token_90>", "single_word": false, "lstrip": false, "rstrip": false, "normalized": true, "special": false}, {"id": 32381, "content": "<unused_token_91>", "single_word": false, "lstrip": false, "rstrip": false, "normalized": true, "special": false}, {"id": 32382, "content": "<unused_token_92>", "single_word": false, "lstrip": false, "rstrip": false, "normalized": true, "special": false}, {"id": 32383, "content": "<unused_token_93>", "single_word": false, "lstrip": false, "rstrip": false, "normalized": true, "special": false}, {"id": 32384, "content": "<unused_token_94>", "single_word": false, "lstrip": false, "rstrip": false, "normalized": true, "special": false}, {"id": 32385, "content": "<unused_token_95>", "single_word": false, "lstrip": false, "rstrip": false, "normalized": true, "special": false}, {"id": 32386, "content": "<unused_token_96>", "single_word": false, "lstrip": false, "rstrip": false, "normalized": true, "special": false}, {"id": 32387, "content": "<unused_token_97>", "single_word": false, "lstrip": false, "rstrip": false, "normalized": true, "special": false}, {"id": 32388, "content": "<unused_token_98>", "single_word": false, "lstrip": false, "rstrip": false, "normalized": true, "special": false}, {"id": 32389, "content": "<unused_token_99>", "single_word": false, "lstrip": false, "rstrip": false, "normalized": true, "special": false}, {"id": 32390, "content": "<unused_token_100>", "single_word": false, "lstrip": false, "rstrip": false, "normalized": true, "special": false}, {"id": 32391, "content": "<unused_token_101>", "single_word": false, "lstrip": false, "rstrip": false, "normalized": true, "special": false}, {"id": 32392, "content": "<unused_token_102>", "single_word": false, "lstrip": false, "rstrip": false, "normalized": true, "special": false}, {"id": 32393, "content": "<unused_token_103>", "single_word": false, "lstrip": false, "rstrip": false, "normalized": true, "special": false}, {"id": 32394, "content": "<unused_token_104>", "single_word": false, "lstrip": false, "rstrip": false, "normalized": true, "special": false}, {"id": 32395, "content": "<unused_token_105>", "single_word": false, "lstrip": false, "rstrip": false, "normalized": true, "special": false}, {"id": 32396, "content": "<unused_token_106>", "single_word": false, "lstrip": false, "rstrip": false, "normalized": true, "special": false}, {"id": 32397, "content": "<unused_token_107>", "single_word": false, "lstrip": false, "rstrip": false, "normalized": true, "special": false}, {"id": 32398, "content": "<unused_token_108>", "single_word": false, "lstrip": false, "rstrip": false, "normalized": true, "special": false}, {"id": 32399, "content": "<unused_token_109>", "single_word": false, "lstrip": false, "rstrip": false, "normalized": true, "special": false}, {"id": 32400, "content": "<unused_token_110>", "single_word": false, "lstrip": false, "rstrip": false, "normalized": true, "special": false}, {"id": 32401, "content": "<unused_token_111>", "single_word": false, "lstrip": false, "rstrip": false, "normalized": true, "special": false}, {"id": 32402, "content": "<unused_token_112>", "single_word": false, "lstrip": false, "rstrip": false, "normalized": true, "special": false}, {"id": 32403, "content": "<unused_token_113>", "single_word": false, "lstrip": false, "rstrip": false, "normalized": true, "special": false}, {"id": 32404, "content": "<unused_token_114>", "single_word": false, "lstrip": false, "rstrip": false, "normalized": true, "special": false}, {"id": 32405, "content": "<unused_token_115>", "single_word": false, "lstrip": false, "rstrip": false, "normalized": true, "special": false}, {"id": 32406, "content": "<unused_token_116>", "single_word": false, "lstrip": false, "rstrip": false, "normalized": true, "special": false}, {"id": 32407, "content": "<unused_token_117>", "single_word": false, "lstrip": false, "rstrip": false, "normalized": true, "special": false}, {"id": 32408, "content": "<unused_token_118>", "single_word": false, "lstrip": false, "rstrip": false, "normalized": true, "special": false}, {"id": 32409, "content": "<unused_token_119>", "single_word": false, "lstrip": false, "rstrip": false, "normalized": true, "special": false}, {"id": 32410, "content": "<unused_token_120>", "single_word": false, "lstrip": false, "rstrip": false, "normalized": true, "special": false}, {"id": 32411, "content": "<unused_token_121>", "single_word": false, "lstrip": false, "rstrip": false, "normalized": true, "special": false}, {"id": 32412, "content": "<unused_token_122>", "single_word": false, "lstrip": false, "rstrip": false, "normalized": true, "special": false}, {"id": 32413, "content": "<unused_token_123>", "single_word": false, "lstrip": false, "rstrip": false, "normalized": true, "special": false}, {"id": 32414, "content": "<unused_token_124>", "single_word": false, "lstrip": false, "rstrip": false, "normalized": true, "special": false}, {"id": 32415, "content": "<unused_token_125>", "single_word": false, "lstrip": false, "rstrip": false, "normalized": true, "special": false}, {"id": 32416, "content": "<unused_token_126>", "single_word": false, "lstrip": false, "rstrip": false, "normalized": true, "special": false}, {"id": 32417, "content": "<unused_token_127>", "single_word": false, "lstrip": false, "rstrip": false, "normalized": true, "special": false}, {"id": 32418, "content": "<unused_token_128>", "single_word": false, "lstrip": false, "rstrip": false, "normalized": true, "special": false}, {"id": 32419, "content": "<unused_token_129>", "single_word": false, "lstrip": false, "rstrip": false, "normalized": true, "special": false}, {"id": 32420, "content": "<unused_token_130>", "single_word": false, "lstrip": false, "rstrip": false, "normalized": true, "special": false}, {"id": 32421, "content": "<unused_token_131>", "single_word": false, "lstrip": false, "rstrip": false, "normalized": true, "special": false}, {"id": 32422, "content": "<unused_token_132>", "single_word": false, "lstrip": false, "rstrip": false, "normalized": true, "special": false}, {"id": 32423, "content": "<unused_token_133>", "single_word": false, "lstrip": false, "rstrip": false, "normalized": true, "special": false}, {"id": 32424, "content": "<unused_token_134>", "single_word": false, "lstrip": false, "rstrip": false, "normalized": true, "special": false}, {"id": 32425, "content": "<unused_token_135>", "single_word": false, "lstrip": false, "rstrip": false, "normalized": true, "special": false}, {"id": 32426, "content": "<unused_token_136>", "single_word": false, "lstrip": false, "rstrip": false, "normalized": true, "special": false}, {"id": 32427, "content": "<unused_token_137>", "single_word": false, "lstrip": false, "rstrip": false, "normalized": true, "special": false}, {"id": 32428, "content": "<unused_token_138>", "single_word": false, "lstrip": false, "rstrip": false, "normalized": true, "special": false}, {"id": 32429, "content": "<unused_token_139>", "single_word": false, "lstrip": false, "rstrip": false, "normalized": true, "special": false}, {"id": 32430, "content": "<unused_token_140>", "single_word": false, "lstrip": false, "rstrip": false, "normalized": true, "special": false}, {"id": 32431, "content": "<unused_token_141>", "single_word": false, "lstrip": false, "rstrip": false, "normalized": true, "special": false}, {"id": 32432, "content": "<unused_token_142>", "single_word": false, "lstrip": false, "rstrip": false, "normalized": true, "special": false}, {"id": 32433, "content": "<unused_token_143>", "single_word": false, "lstrip": false, "rstrip": false, "normalized": true, "special": false}, {"id": 32434, "content": "<unused_token_144>", "single_word": false, "lstrip": false, "rstrip": false, "normalized": true, "special": false}, {"id": 32435, "content": "<unused_token_145>", "single_word": false, "lstrip": false, "rstrip": false, "normalized": true, "special": false}, {"id": 32436, "content": "<unused_token_146>", "single_word": false, "lstrip": false, "rstrip": false, "normalized": true, "special": false}, {"id": 32437, "content": "<unused_token_147>", "single_word": false, "lstrip": false, "rstrip": false, "normalized": true, "special": false}, {"id": 32438, "content": "<unused_token_148>", "single_word": false, "lstrip": false, "rstrip": false, "normalized": true, "special": false}, {"id": 32439, "content": "<unused_token_149>", "single_word": false, "lstrip": false, "rstrip": false, "normalized": true, "special": false}, {"id": 32440, "content": "<unused_token_150>", "single_word": false, "lstrip": false, "rstrip": false, "normalized": true, "special": false}, {"id": 32441, "content": "<unused_token_151>", "single_word": false, "lstrip": false, "rstrip": false, "normalized": true, "special": false}, {"id": 32442, "content": "<unused_token_152>", "single_word": false, "lstrip": false, "rstrip": false, "normalized": true, "special": false}, {"id": 32443, "content": "<unused_token_153>", "single_word": false, "lstrip": false, "rstrip": false, "normalized": true, "special": false}, {"id": 32444, "content": "<unused_token_154>", "single_word": false, "lstrip": false, "rstrip": false, "normalized": true, "special": false}, {"id": 32445, "content": "<unused_token_155>", "single_word": false, "lstrip": false, "rstrip": false, "normalized": true, "special": false}, {"id": 32446, "content": "<unused_token_156>", "single_word": false, "lstrip": false, "rstrip": false, "normalized": true, "special": false}, {"id": 32447, "content": "<unused_token_157>", "single_word": false, "lstrip": false, "rstrip": false, "normalized": true, "special": false}, {"id": 32448, "content": "<unused_token_158>", "single_word": false, "lstrip": false, "rstrip": false, "normalized": true, "special": false}, {"id": 32449, "content": "<unused_token_159>", "single_word": false, "lstrip": false, "rstrip": false, "normalized": true, "special": false}, {"id": 32450, "content": "<unused_token_160>", "single_word": false, "lstrip": false, "rstrip": false, "normalized": true, "special": false}, {"id": 32451, "content": "<unused_token_161>", "single_word": false, "lstrip": false, "rstrip": false, "normalized": true, "special": false}, {"id": 32452, "content": "<unused_token_162>", "single_word": false, "lstrip": false, "rstrip": false, "normalized": true, "special": false}, {"id": 32453, "content": "<unused_token_163>", "single_word": false, "lstrip": false, "rstrip": false, "normalized": true, "special": false}, {"id": 32454, "content": "<unused_token_164>", "single_word": false, "lstrip": false, "rstrip": false, "normalized": true, "special": false}, {"id": 32455, "content": "<unused_token_165>", "single_word": false, "lstrip": false, "rstrip": false, "normalized": true, "special": false}, {"id": 32456, "content": "<unused_token_166>", "single_word": false, "lstrip": false, "rstrip": false, "normalized": true, "special": false}, {"id": 32457, "content": "<unused_token_167>", "single_word": false, "lstrip": false, "rstrip": false, "normalized": true, "special": false}, {"id": 32458, "content": "<unused_token_168>", "single_word": false, "lstrip": false, "rstrip": false, "normalized": true, "special": false}, {"id": 32459, "content": "<unused_token_169>", "single_word": false, "lstrip": false, "rstrip": false, "normalized": true, "special": false}, {"id": 32460, "content": "<unused_token_170>", "single_word": false, "lstrip": false, "rstrip": false, "normalized": true, "special": false}, {"id": 32461, "content": "<unused_token_171>", "single_word": false, "lstrip": false, "rstrip": false, "normalized": true, "special": false}, {"id": 32462, "content": "<unused_token_172>", "single_word": false, "lstrip": false, "rstrip": false, "normalized": true, "special": false}, {"id": 32463, "content": "<unused_token_173>", "single_word": false, "lstrip": false, "rstrip": false, "normalized": true, "special": false}, {"id": 32464, "content": "<unused_token_174>", "single_word": false, "lstrip": false, "rstrip": false, "normalized": true, "special": false}, {"id": 32465, "content": "<unused_token_175>", "single_word": false, "lstrip": false, "rstrip": false, "normalized": true, "special": false}, {"id": 32466, "content": "<unused_token_176>", "single_word": false, "lstrip": false, "rstrip": false, "normalized": true, "special": false}, {"id": 32467, "content": "<unused_token_177>", "single_word": false, "lstrip": false, "rstrip": false, "normalized": true, "special": false}, {"id": 32468, "content": "<unused_token_178>", "single_word": false, "lstrip": false, "rstrip": false, "normalized": true, "special": false}, {"id": 32469, "content": "<unused_token_179>", "single_word": false, "lstrip": false, "rstrip": false, "normalized": true, "special": false}, {"id": 32470, "content": "<unused_token_180>", "single_word": false, "lstrip": false, "rstrip": false, "normalized": true, "special": false}, {"id": 32471, "content": "<unused_token_181>", "single_word": false, "lstrip": false, "rstrip": false, "normalized": true, "special": false}, {"id": 32472, "content": "<unused_token_182>", "single_word": false, "lstrip": false, "rstrip": false, "normalized": true, "special": false}, {"id": 32473, "content": "<unused_token_183>", "single_word": false, "lstrip": false, "rstrip": false, "normalized": true, "special": false}, {"id": 32474, "content": "<unused_token_184>", "single_word": false, "lstrip": false, "rstrip": false, "normalized": true, "special": false}, {"id": 32475, "content": "<unused_token_185>", "single_word": false, "lstrip": false, "rstrip": false, "normalized": true, "special": false}, {"id": 32476, "content": "<unused_token_186>", "single_word": false, "lstrip": false, "rstrip": false, "normalized": true, "special": false}, {"id": 32477, "content": "<unused_token_187>", "single_word": false, "lstrip": false, "rstrip": false, "normalized": true, "special": false}, {"id": 32478, "content": "<unused_token_188>", "single_word": false, "lstrip": false, "rstrip": false, "normalized": true, "special": false}, {"id": 32479, "content": "<unused_token_189>", "single_word": false, "lstrip": false, "rstrip": false, "normalized": true, "special": false}, {"id": 32480, "content": "<unused_token_190>", "single_word": false, "lstrip": false, "rstrip": false, "normalized": true, "special": false}, {"id": 32481, "content": "<unused_token_191>", "single_word": false, "lstrip": false, "rstrip": false, "normalized": true, "special": false}, {"id": 32482, "content": "<unused_token_192>", "single_word": false, "lstrip": false, "rstrip": false, "normalized": true, "special": false}, {"id": 32483, "content": "<unused_token_193>", "single_word": false, "lstrip": false, "rstrip": false, "normalized": true, "special": false}, {"id": 32484, "content": "<unused_token_194>", "single_word": false, "lstrip": false, "rstrip": false, "normalized": true, "special": false}, {"id": 32485, "content": "<unused_token_195>", "single_word": false, "lstrip": false, "rstrip": false, "normalized": true, "special": false}, {"id": 32486, "content": "<unused_token_196>", "single_word": false, "lstrip": false, "rstrip": false, "normalized": true, "special": false}, {"id": 32487, "content": "<unused_token_197>", "single_word": false, "lstrip": false, "rstrip": false, "normalized": true, "special": false}, {"id": 32488, "content": "<unused_token_198>", "single_word": false, "lstrip": false, "rstrip": false, "normalized": true, "special": false}, {"id": 32489, "content": "<unused_token_199>", "single_word": false, "lstrip": false, "rstrip": false, "normalized": true, "special": false}, {"id": 32490, "content": "<unused_token_200>", "single_word": false, "lstrip": false, "rstrip": false, "normalized": true, "special": false}, {"id": 32491, "content": "<unused_token_201>", "single_word": false, "lstrip": false, "rstrip": false, "normalized": true, "special": false}, {"id": 32492, "content": "<unused_token_202>", "single_word": false, "lstrip": false, "rstrip": false, "normalized": true, "special": false}, {"id": 32493, "content": "<unused_token_203>", "single_word": false, "lstrip": false, "rstrip": false, "normalized": true, "special": false}, {"id": 32494, "content": "<unused_token_204>", "single_word": false, "lstrip": false, "rstrip": false, "normalized": true, "special": false}, {"id": 32495, "content": "<unused_token_205>", "single_word": false, "lstrip": false, "rstrip": false, "normalized": true, "special": false}, {"id": 32496, "content": "<unused_token_206>", "single_word": false, "lstrip": false, "rstrip": false, "normalized": true, "special": false}, {"id": 32497, "content": "<unused_token_207>", "single_word": false, "lstrip": false, "rstrip": false, "normalized": true, "special": false}, {"id": 32498, "content": "<unused_token_208>", "single_word": false, "lstrip": false, "rstrip": false, "normalized": true, "special": false}, {"id": 32499, "content": "<unused_token_209>", "single_word": false, "lstrip": false, "rstrip": false, "normalized": true, "special": false}, {"id": 32500, "content": "<unused_token_210>", "single_word": false, "lstrip": false, "rstrip": false, "normalized": true, "special": false}, {"id": 32501, "content": "<unused_token_211>", "single_word": false, "lstrip": false, "rstrip": false, "normalized": true, "special": false}, {"id": 32502, "content": "<unused_token_212>", "single_word": false, "lstrip": false, "rstrip": false, "normalized": true, "special": false}, {"id": 32503, "content": "<unused_token_213>", "single_word": false, "lstrip": false, "rstrip": false, "normalized": true, "special": false}, {"id": 32504, "content": "<unused_token_214>", "single_word": false, "lstrip": false, "rstrip": false, "normalized": true, "special": false}, {"id": 32505, "content": "<unused_token_215>", "single_word": false, "lstrip": false, "rstrip": false, "normalized": true, "special": false}, {"id": 32506, "content": "<unused_token_216>", "single_word": false, "lstrip": false, "rstrip": false, "normalized": true, "special": false}, {"id": 32507, "content": "<unused_token_217>", "single_word": false, "lstrip": false, "rstrip": false, "normalized": true, "special": false}, {"id": 32508, "content": "<unused_token_218>", "single_word": false, "lstrip": false, "rstrip": false, "normalized": true, "special": false}, {"id": 32509, "content": "<unused_token_219>", "single_word": false, "lstrip": false, "rstrip": false, "normalized": true, "special": false}, {"id": 32510, "content": "<unused_token_220>", "single_word": false, "lstrip": false, "rstrip": false, "normalized": true, "special": false}, {"id": 32511, "content": "<unused_token_221>", "single_word": false, "lstrip": false, "rstrip": false, "normalized": true, "special": false}, {"id": 32512, "content": "<unused_token_222>", "single_word": false, "lstrip": false, "rstrip": false, "normalized": true, "special": false}, {"id": 32513, "content": "<unused_token_223>", "single_word": false, "lstrip": false, "rstrip": false, "normalized": true, "special": false}, {"id": 32514, "content": "<unused_token_224>", "single_word": false, "lstrip": false, "rstrip": false, "normalized": true, "special": false}, {"id": 32515, "content": "<unused_token_225>", "single_word": false, "lstrip": false, "rstrip": false, "normalized": true, "special": false}, {"id": 32516, "content": "<unused_token_226>", "single_word": false, "lstrip": false, "rstrip": false, "normalized": true, "special": false}, {"id": 32517, "content": "<unused_token_227>", "single_word": false, "lstrip": false, "rstrip": false, "normalized": true, "special": false}, {"id": 32518, "content": "<unused_token_228>", "single_word": false, "lstrip": false, "rstrip": false, "normalized": true, "special": false}, {"id": 32519, "content": "<unused_token_229>", "single_word": false, "lstrip": false, "rstrip": false, "normalized": true, "special": false}, {"id": 32520, "content": "<unused_token_230>", "single_word": false, "lstrip": false, "rstrip": false, "normalized": true, "special": false}, {"id": 32521, "content": "<unused_token_231>", "single_word": false, "lstrip": false, "rstrip": false, "normalized": true, "special": false}, {"id": 32522, "content": "<unused_token_232>", "single_word": false, "lstrip": false, "rstrip": false, "normalized": true, "special": false}, {"id": 32523, "content": "<unused_token_233>", "single_word": false, "lstrip": false, "rstrip": false, "normalized": true, "special": false}, {"id": 32524, "content": "<unused_token_234>", "single_word": false, "lstrip": false, "rstrip": false, "normalized": true, "special": false}, {"id": 32525, "content": "<unused_token_235>", "single_word": false, "lstrip": false, "rstrip": false, "normalized": true, "special": false}, {"id": 32526, "content": "<unused_token_236>", "single_word": false, "lstrip": false, "rstrip": false, "normalized": true, "special": false}, {"id": 32527, "content": "<unused_token_237>", "single_word": false, "lstrip": false, "rstrip": false, "normalized": true, "special": false}, {"id": 32528, "content": "<unused_token_238>", "single_word": false, "lstrip": false, "rstrip": false, "normalized": true, "special": false}, {"id": 32529, "content": "<unused_token_239>", "single_word": false, "lstrip": false, "rstrip": false, "normalized": true, "special": false}, {"id": 32530, "content": "<unused_token_240>", "single_word": false, "lstrip": false, "rstrip": false, "normalized": true, "special": false}, {"id": 32531, "content": "<unused_token_241>", "single_word": false, "lstrip": false, "rstrip": false, "normalized": true, "special": false}, {"id": 32532, "content": "<unused_token_242>", "single_word": false, "lstrip": false, "rstrip": false, "normalized": true, "special": false}, {"id": 32533, "content": "<unused_token_243>", "single_word": false, "lstrip": false, "rstrip": false, "normalized": true, "special": false}, {"id": 32534, "content": "<unused_token_244>", "single_word": false, "lstrip": false, "rstrip": false, "normalized": true, "special": false}, {"id": 32535, "content": "<unused_token_245>", "single_word": false, "lstrip": false, "rstrip": false, "normalized": true, "special": false}, {"id": 32536, "content": "<unused_token_246>", "single_word": false, "lstrip": false, "rstrip": false, "normalized": true, "special": false}, {"id": 32537, "content": "<unused_token_247>", "single_word": false, "lstrip": false, "rstrip": false, "normalized": true, "special": false}, {"id": 32538, "content": "<unused_token_248>", "single_word": false, "lstrip": false, "rstrip": false, "normalized": true, "special": false}, {"id": 32539, "content": "<unused_token_249>", "single_word": false, "lstrip": false, "rstrip": false, "normalized": true, "special": false}, {"id": 32540, "content": "<unused_token_250>", "single_word": false, "lstrip": false, "rstrip": false, "normalized": true, "special": false}, {"id": 32541, "content": "<unused_token_251>", "single_word": false, "lstrip": false, "rstrip": false, "normalized": true, "special": false}, {"id": 32542, "content": "<unused_token_252>", "single_word": false, "lstrip": false, "rstrip": false, "normalized": true, "special": false}, {"id": 32543, "content": "<unused_token_253>", "single_word": false, "lstrip": false, "rstrip": false, "normalized": true, "special": false}, {"id": 32544, "content": "<unused_token_254>", "single_word": false, "lstrip": false, "rstrip": false, "normalized": true, "special": false}, {"id": 32545, "content": "<unused_token_255>", "single_word": false, "lstrip": false, "rstrip": false, "normalized": true, "special": false}, {"id": 32546, "content": "<unused_token_256>", "single_word": false, "lstrip": false, "rstrip": false, "normalized": true, "special": false}, {"id": 32547, "content": "<unused_token_257>", "single_word": false, "lstrip": false, "rstrip": false, "normalized": true, "special": false}, {"id": 32548, "content": "<unused_token_258>", "single_word": false, "lstrip": false, "rstrip": false, "normalized": true, "special": false}, {"id": 32549, "content": "<unused_token_259>", "single_word": false, "lstrip": false, "rstrip": false, "normalized": true, "special": false}, {"id": 32550, "content": "<unused_token_260>", "single_word": false, "lstrip": false, "rstrip": false, "normalized": true, "special": false}, {"id": 32551, "content": "<unused_token_261>", "single_word": false, "lstrip": false, "rstrip": false, "normalized": true, "special": false}, {"id": 32552, "content": "<unused_token_262>", "single_word": false, "lstrip": false, "rstrip": false, "normalized": true, "special": false}, {"id": 32553, "content": "<unused_token_263>", "single_word": false, "lstrip": false, "rstrip": false, "normalized": true, "special": false}, {"id": 32554, "content": "<unused_token_264>", "single_word": false, "lstrip": false, "rstrip": false, "normalized": true, "special": false}, {"id": 32555, "content": "<unused_token_265>", "single_word": false, "lstrip": false, "rstrip": false, "normalized": true, "special": false}, {"id": 32556, "content": "<unused_token_266>", "single_word": false, "lstrip": false, "rstrip": false, "normalized": true, "special": false}, {"id": 32557, "content": "<unused_token_267>", "single_word": false, "lstrip": false, "rstrip": false, "normalized": true, "special": false}, {"id": 32558, "content": "<unused_token_268>", "single_word": false, "lstrip": false, "rstrip": false, "normalized": true, "special": false}, {"id": 32559, "content": "<unused_token_269>", "single_word": false, "lstrip": false, "rstrip": false, "normalized": true, "special": false}, {"id": 32560, "content": "<unused_token_270>", "single_word": false, "lstrip": false, "rstrip": false, "normalized": true, "special": false}, {"id": 32561, "content": "<unused_token_271>", "single_word": false, "lstrip": false, "rstrip": false, "normalized": true, "special": false}, {"id": 32562, "content": "<unused_token_272>", "single_word": false, "lstrip": false, "rstrip": false, "normalized": true, "special": false}, {"id": 32563, "content": "<unused_token_273>", "single_word": false, "lstrip": false, "rstrip": false, "normalized": true, "special": false}, {"id": 32564, "content": "<unused_token_274>", "single_word": false, "lstrip": false, "rstrip": false, "normalized": true, "special": false}, {"id": 32565, "content": "<unused_token_275>", "single_word": false, "lstrip": false, "rstrip": false, "normalized": true, "special": false}, {"id": 32566, "content": "<unused_token_276>", "single_word": false, "lstrip": false, "rstrip": false, "normalized": true, "special": false}, {"id": 32567, "content": "<unused_token_277>", "single_word": false, "lstrip": false, "rstrip": false, "normalized": true, "special": false}, {"id": 32568, "content": "<unused_token_278>", "single_word": false, "lstrip": false, "rstrip": false, "normalized": true, "special": false}, {"id": 32569, "content": "<unused_token_279>", "single_word": false, "lstrip": false, "rstrip": false, "normalized": true, "special": false}, {"id": 32570, "content": "<unused_token_280>", "single_word": false, "lstrip": false, "rstrip": false, "normalized": true, "special": false}, {"id": 32571, "content": "<unused_token_281>", "single_word": false, "lstrip": false, "rstrip": false, "normalized": true, "special": false}, {"id": 32572, "content": "<unused_token_282>", "single_word": false, "lstrip": false, "rstrip": false, "normalized": true, "special": false}, {"id": 32573, "content": "<unused_token_283>", "single_word": false, "lstrip": false, "rstrip": false, "normalized": true, "special": false}, {"id": 32574, "content": "<unused_token_284>", "single_word": false, "lstrip": false, "rstrip": false, "normalized": true, "special": false}, {"id": 32575, "content": "<unused_token_285>", "single_word": false, "lstrip": false, "rstrip": false, "normalized": true, "special": false}, {"id": 32576, "content": "<unused_token_286>", "single_word": false, "lstrip": false, "rstrip": false, "normalized": true, "special": false}, {"id": 32577, "content": "<unused_token_287>", "single_word": false, "lstrip": false, "rstrip": false, "normalized": true, "special": false}, {"id": 32578, "content": "<unused_token_288>", "single_word": false, "lstrip": false, "rstrip": false, "normalized": true, "special": false}, {"id": 32579, "content": "<unused_token_289>", "single_word": false, "lstrip": false, "rstrip": false, "normalized": true, "special": false}, {"id": 32580, "content": "<unused_token_290>", "single_word": false, "lstrip": false, "rstrip": false, "normalized": true, "special": false}, {"id": 32581, "content": "<unused_token_291>", "single_word": false, "lstrip": false, "rstrip": false, "normalized": true, "special": false}, {"id": 32582, "content": "<unused_token_292>", "single_word": false, "lstrip": false, "rstrip": false, "normalized": true, "special": false}, {"id": 32583, "content": "<unused_token_293>", "single_word": false, "lstrip": false, "rstrip": false, "normalized": true, "special": false}, {"id": 32584, "content": "<unused_token_294>", "single_word": false, "lstrip": false, "rstrip": false, "normalized": true, "special": false}, {"id": 32585, "content": "<unused_token_295>", "single_word": false, "lstrip": false, "rstrip": false, "normalized": true, "special": false}, {"id": 32586, "content": "<unused_token_296>", "single_word": false, "lstrip": false, "rstrip": false, "normalized": true, "special": false}, {"id": 32587, "content": "<unused_token_297>", "single_word": false, "lstrip": false, "rstrip": false, "normalized": true, "special": false}, {"id": 32588, "content": "<unused_token_298>", "single_word": false, "lstrip": false, "rstrip": false, "normalized": true, "special": false}, {"id": 32589, "content": "<unused_token_299>", "single_word": false, "lstrip": false, "rstrip": false, "normalized": true, "special": false}, {"id": 32590, "content": "<unused_token_300>", "single_word": false, "lstrip": false, "rstrip": false, "normalized": true, "special": false}, {"id": 32591, "content": "<unused_token_301>", "single_word": false, "lstrip": false, "rstrip": false, "normalized": true, "special": false}, {"id": 32592, "content": "<unused_token_302>", "single_word": false, "lstrip": false, "rstrip": false, "normalized": true, "special": false}, {"id": 32593, "content": "<unused_token_303>", "single_word": false, "lstrip": false, "rstrip": false, "normalized": true, "special": false}, {"id": 32594, "content": "<unused_token_304>", "single_word": false, "lstrip": false, "rstrip": false, "normalized": true, "special": false}, {"id": 32595, "content": "<unused_token_305>", "single_word": false, "lstrip": false, "rstrip": false, "normalized": true, "special": false}, {"id": 32596, "content": "<unused_token_306>", "single_word": false, "lstrip": false, "rstrip": false, "normalized": true, "special": false}, {"id": 32597, "content": "<unused_token_307>", "single_word": false, "lstrip": false, "rstrip": false, "normalized": true, "special": false}, {"id": 32598, "content": "<unused_token_308>", "single_word": false, "lstrip": false, "rstrip": false, "normalized": true, "special": false}, {"id": 32599, "content": "<unused_token_309>", "single_word": false, "lstrip": false, "rstrip": false, "normalized": true, "special": false}, {"id": 32600, "content": "<unused_token_310>", "single_word": false, "lstrip": false, "rstrip": false, "normalized": true, "special": false}, {"id": 32601, "content": "<unused_token_311>", "single_word": false, "lstrip": false, "rstrip": false, "normalized": true, "special": false}, {"id": 32602, "content": "<unused_token_312>", "single_word": false, "lstrip": false, "rstrip": false, "normalized": true, "special": false}, {"id": 32603, "content": "<unused_token_313>", "single_word": false, "lstrip": false, "rstrip": false, "normalized": true, "special": false}, {"id": 32604, "content": "<unused_token_314>", "single_word": false, "lstrip": false, "rstrip": false, "normalized": true, "special": false}, {"id": 32605, "content": "<unused_token_315>", "single_word": false, "lstrip": false, "rstrip": false, "normalized": true, "special": false}, {"id": 32606, "content": "<unused_token_316>", "single_word": false, "lstrip": false, "rstrip": false, "normalized": true, "special": false}, {"id": 32607, "content": "<unused_token_317>", "single_word": false, "lstrip": false, "rstrip": false, "normalized": true, "special": false}, {"id": 32608, "content": "<unused_token_318>", "single_word": false, "lstrip": false, "rstrip": false, "normalized": true, "special": false}, {"id": 32609, "content": "<unused_token_319>", "single_word": false, "lstrip": false, "rstrip": false, "normalized": true, "special": false}, {"id": 32610, "content": "<unused_token_320>", "single_word": false, "lstrip": false, "rstrip": false, "normalized": true, "special": false}, {"id": 32611, "content": "<unused_token_321>", "single_word": false, "lstrip": false, "rstrip": false, "normalized": true, "special": false}, {"id": 32612, "content": "<unused_token_322>", "single_word": false, "lstrip": false, "rstrip": false, "normalized": true, "special": false}, {"id": 32613, "content": "<unused_token_323>", "single_word": false, "lstrip": false, "rstrip": false, "normalized": true, "special": false}, {"id": 32614, "content": "<unused_token_324>", "single_word": false, "lstrip": false, "rstrip": false, "normalized": true, "special": false}, {"id": 32615, "content": "<unused_token_325>", "single_word": false, "lstrip": false, "rstrip": false, "normalized": true, "special": false}, {"id": 32616, "content": "<unused_token_326>", "single_word": false, "lstrip": false, "rstrip": false, "normalized": true, "special": false}, {"id": 32617, "content": "<unused_token_327>", "single_word": false, "lstrip": false, "rstrip": false, "normalized": true, "special": false}, {"id": 32618, "content": "<unused_token_328>", "single_word": false, "lstrip": false, "rstrip": false, "normalized": true, "special": false}, {"id": 32619, "content": "<unused_token_329>", "single_word": false, "lstrip": false, "rstrip": false, "normalized": true, "special": false}, {"id": 32620, "content": "<unused_token_330>", "single_word": false, "lstrip": false, "rstrip": false, "normalized": true, "special": false}, {"id": 32621, "content": "<unused_token_331>", "single_word": false, "lstrip": false, "rstrip": false, "normalized": true, "special": false}, {"id": 32622, "content": "<unused_token_332>", "single_word": false, "lstrip": false, "rstrip": false, "normalized": true, "special": false}, {"id": 32623, "content": "<unused_token_333>", "single_word": false, "lstrip": false, "rstrip": false, "normalized": true, "special": false}, {"id": 32624, "content": "<unused_token_334>", "single_word": false, "lstrip": false, "rstrip": false, "normalized": true, "special": false}, {"id": 32625, "content": "<unused_token_335>", "single_word": false, "lstrip": false, "rstrip": false, "normalized": true, "special": false}, {"id": 32626, "content": "<unused_token_336>", "single_word": false, "lstrip": false, "rstrip": false, "normalized": true, "special": false}, {"id": 32627, "content": "<unused_token_337>", "single_word": false, "lstrip": false, "rstrip": false, "normalized": true, "special": false}, {"id": 32628, "content": "<unused_token_338>", "single_word": false, "lstrip": false, "rstrip": false, "normalized": true, "special": false}, {"id": 32629, "content": "<unused_token_339>", "single_word": false, "lstrip": false, "rstrip": false, "normalized": true, "special": false}, {"id": 32630, "content": "<unused_token_340>", "single_word": false, "lstrip": false, "rstrip": false, "normalized": true, "special": false}, {"id": 32631, "content": "<unused_token_341>", "single_word": false, "lstrip": false, "rstrip": false, "normalized": true, "special": false}, {"id": 32632, "content": "<unused_token_342>", "single_word": false, "lstrip": false, "rstrip": false, "normalized": true, "special": false}, {"id": 32633, "content": "<unused_token_343>", "single_word": false, "lstrip": false, "rstrip": false, "normalized": true, "special": false}, {"id": 32634, "content": "<unused_token_344>", "single_word": false, "lstrip": false, "rstrip": false, "normalized": true, "special": false}, {"id": 32635, "content": "<unused_token_345>", "single_word": false, "lstrip": false, "rstrip": false, "normalized": true, "special": false}, {"id": 32636, "content": "<unused_token_346>", "single_word": false, "lstrip": false, "rstrip": false, "normalized": true, "special": false}, {"id": 32637, "content": "<unused_token_347>", "single_word": false, "lstrip": false, "rstrip": false, "normalized": true, "special": false}, {"id": 32638, "content": "<unused_token_348>", "single_word": false, "lstrip": false, "rstrip": false, "normalized": true, "special": false}, {"id": 32639, "content": "<unused_token_349>", "single_word": false, "lstrip": false, "rstrip": false, "normalized": true, "special": false}, {"id": 32640, "content": "<unused_token_350>", "single_word": false, "lstrip": false, "rstrip": false, "normalized": true, "special": false}, {"id": 32641, "content": "<unused_token_351>", "single_word": false, "lstrip": false, "rstrip": false, "normalized": true, "special": false}, {"id": 32642, "content": "<unused_token_352>", "single_word": false, "lstrip": false, "rstrip": false, "normalized": true, "special": false}, {"id": 32643, "content": "<unused_token_353>", "single_word": false, "lstrip": false, "rstrip": false, "normalized": true, "special": false}, {"id": 32644, "content": "<unused_token_354>", "single_word": false, "lstrip": false, "rstrip": false, "normalized": true, "special": false}, {"id": 32645, "content": "<unused_token_355>", "single_word": false, "lstrip": false, "rstrip": false, "normalized": true, "special": false}, {"id": 32646, "content": "<unused_token_356>", "single_word": false, "lstrip": false, "rstrip": false, "normalized": true, "special": false}, {"id": 32647, "content": "<unused_token_357>", "single_word": false, "lstrip": false, "rstrip": false, "normalized": true, "special": false}, {"id": 32648, "content": "<unused_token_358>", "single_word": false, "lstrip": false, "rstrip": false, "normalized": true, "special": false}, {"id": 32649, "content": "<unused_token_359>", "single_word": false, "lstrip": false, "rstrip": false, "normalized": true, "special": false}, {"id": 32650, "content": "<unused_token_360>", "single_word": false, "lstrip": false, "rstrip": false, "normalized": true, "special": false}, {"id": 32651, "content": "<unused_token_361>", "single_word": false, "lstrip": false, "rstrip": false, "normalized": true, "special": false}, {"id": 32652, "content": "<unused_token_362>", "single_word": false, "lstrip": false, "rstrip": false, "normalized": true, "special": false}, {"id": 32653, "content": "<unused_token_363>", "single_word": false, "lstrip": false, "rstrip": false, "normalized": true, "special": false}, {"id": 32654, "content": "<unused_token_364>", "single_word": false, "lstrip": false, "rstrip": false, "normalized": true, "special": false}, {"id": 32655, "content": "<unused_token_365>", "single_word": false, "lstrip": false, "rstrip": false, "normalized": true, "special": false}, {"id": 32656, "content": "<unused_token_366>", "single_word": false, "lstrip": false, "rstrip": false, "normalized": true, "special": false}, {"id": 32657, "content": "<unused_token_367>", "single_word": false, "lstrip": false, "rstrip": false, "normalized": true, "special": false}, {"id": 32658, "content": "<unused_token_368>", "single_word": false, "lstrip": false, "rstrip": false, "normalized": true, "special": false}, {"id": 32659, "content": "<unused_token_369>", "single_word": false, "lstrip": false, "rstrip": false, "normalized": true, "special": false}, {"id": 32660, "content": "<unused_token_370>", "single_word": false, "lstrip": false, "rstrip": false, "normalized": true, "special": false}, {"id": 32661, "content": "<unused_token_371>", "single_word": false, "lstrip": false, "rstrip": false, "normalized": true, "special": false}, {"id": 32662, "content": "<unused_token_372>", "single_word": false, "lstrip": false, "rstrip": false, "normalized": true, "special": false}, {"id": 32663, "content": "<unused_token_373>", "single_word": false, "lstrip": false, "rstrip": false, "normalized": true, "special": false}, {"id": 32664, "content": "<unused_token_374>", "single_word": false, "lstrip": false, "rstrip": false, "normalized": true, "special": false}, {"id": 32665, "content": "<unused_token_375>", "single_word": false, "lstrip": false, "rstrip": false, "normalized": true, "special": false}, {"id": 32666, "content": "<unused_token_376>", "single_word": false, "lstrip": false, "rstrip": false, "normalized": true, "special": false}, {"id": 32667, "content": "<unused_token_377>", "single_word": false, "lstrip": false, "rstrip": false, "normalized": true, "special": false}, {"id": 32668, "content": "<unused_token_378>", "single_word": false, "lstrip": false, "rstrip": false, "normalized": true, "special": false}, {"id": 32669, "content": "<unused_token_379>", "single_word": false, "lstrip": false, "rstrip": false, "normalized": true, "special": false}, {"id": 32670, "content": "<unused_token_380>", "single_word": false, "lstrip": false, "rstrip": false, "normalized": true, "special": false}, {"id": 32671, "content": "<unused_token_381>", "single_word": false, "lstrip": false, "rstrip": false, "normalized": true, "special": false}, {"id": 32672, "content": "<unused_token_382>", "single_word": false, "lstrip": false, "rstrip": false, "normalized": true, "special": false}, {"id": 32673, "content": "<unused_token_383>", "single_word": false, "lstrip": false, "rstrip": false, "normalized": true, "special": false}, {"id": 32674, "content": "<unused_token_384>", "single_word": false, "lstrip": false, "rstrip": false, "normalized": true, "special": false}, {"id": 32675, "content": "<unused_token_385>", "single_word": false, "lstrip": false, "rstrip": false, "normalized": true, "special": false}, {"id": 32676, "content": "<unused_token_386>", "single_word": false, "lstrip": false, "rstrip": false, "normalized": true, "special": false}, {"id": 32677, "content": "<unused_token_387>", "single_word": false, "lstrip": false, "rstrip": false, "normalized": true, "special": false}, {"id": 32678, "content": "<unused_token_388>", "single_word": false, "lstrip": false, "rstrip": false, "normalized": true, "special": false}, {"id": 32679, "content": "<unused_token_389>", "single_word": false, "lstrip": false, "rstrip": false, "normalized": true, "special": false}, {"id": 32680, "content": "<unused_token_390>", "single_word": false, "lstrip": false, "rstrip": false, "normalized": true, "special": false}, {"id": 32681, "content": "<unused_token_391>", "single_word": false, "lstrip": false, "rstrip": false, "normalized": true, "special": false}, {"id": 32682, "content": "<unused_token_392>", "single_word": false, "lstrip": false, "rstrip": false, "normalized": true, "special": false}, {"id": 32683, "content": "<unused_token_393>", "single_word": false, "lstrip": false, "rstrip": false, "normalized": true, "special": false}, {"id": 32684, "content": "<unused_token_394>", "single_word": false, "lstrip": false, "rstrip": false, "normalized": true, "special": false}, {"id": 32685, "content": "<unused_token_395>", "single_word": false, "lstrip": false, "rstrip": false, "normalized": true, "special": false}, {"id": 32686, "content": "<unused_token_396>", "single_word": false, "lstrip": false, "rstrip": false, "normalized": true, "special": false}, {"id": 32687, "content": "<unused_token_397>", "single_word": false, "lstrip": false, "rstrip": false, "normalized": true, "special": false}, {"id": 32688, "content": "<unused_token_398>", "single_word": false, "lstrip": false, "rstrip": false, "normalized": true, "special": false}, {"id": 32689, "content": "<unused_token_399>", "single_word": false, "lstrip": false, "rstrip": false, "normalized": true, "special": false}, {"id": 32690, "content": "<unused_token_400>", "single_word": false, "lstrip": false, "rstrip": false, "normalized": true, "special": false}, {"id": 32691, "content": "<unused_token_401>", "single_word": false, "lstrip": false, "rstrip": false, "normalized": true, "special": false}, {"id": 32692, "content": "<unused_token_402>", "single_word": false, "lstrip": false, "rstrip": false, "normalized": true, "special": false}, {"id": 32693, "content": "<unused_token_403>", "single_word": false, "lstrip": false, "rstrip": false, "normalized": true, "special": false}, {"id": 32694, "content": "<unused_token_404>", "single_word": false, "lstrip": false, "rstrip": false, "normalized": true, "special": false}, {"id": 32695, "content": "<unused_token_405>", "single_word": false, "lstrip": false, "rstrip": false, "normalized": true, "special": false}, {"id": 32696, "content": "<unused_token_406>", "single_word": false, "lstrip": false, "rstrip": false, "normalized": true, "special": false}, {"id": 32697, "content": "<unused_token_407>", "single_word": false, "lstrip": false, "rstrip": false, "normalized": true, "special": false}, {"id": 32698, "content": "<unused_token_408>", "single_word": false, "lstrip": false, "rstrip": false, "normalized": true, "special": false}, {"id": 32699, "content": "<unused_token_409>", "single_word": false, "lstrip": false, "rstrip": false, "normalized": true, "special": false}, {"id": 32700, "content": "<unused_token_410>", "single_word": false, "lstrip": false, "rstrip": false, "normalized": true, "special": false}, {"id": 32701, "content": "<unused_token_411>", "single_word": false, "lstrip": false, "rstrip": false, "normalized": true, "special": false}, {"id": 32702, "content": "<unused_token_412>", "single_word": false, "lstrip": false, "rstrip": false, "normalized": true, "special": false}, {"id": 32703, "content": "<unused_token_413>", "single_word": false, "lstrip": false, "rstrip": false, "normalized": true, "special": false}, {"id": 32704, "content": "<unused_token_414>", "single_word": false, "lstrip": false, "rstrip": false, "normalized": true, "special": false}, {"id": 32705, "content": "<unused_token_415>", "single_word": false, "lstrip": false, "rstrip": false, "normalized": true, "special": false}, {"id": 32706, "content": "<unused_token_416>", "single_word": false, "lstrip": false, "rstrip": false, "normalized": true, "special": false}, {"id": 32707, "content": "<unused_token_417>", "single_word": false, "lstrip": false, "rstrip": false, "normalized": true, "special": false}, {"id": 32708, "content": "<unused_token_418>", "single_word": false, "lstrip": false, "rstrip": false, "normalized": true, "special": false}, {"id": 32709, "content": "<unused_token_419>", "single_word": false, "lstrip": false, "rstrip": false, "normalized": true, "special": false}, {"id": 32710, "content": "<unused_token_420>", "single_word": false, "lstrip": false, "rstrip": false, "normalized": true, "special": false}, {"id": 32711, "content": "<unused_token_421>", "single_word": false, "lstrip": false, "rstrip": false, "normalized": true, "special": false}, {"id": 32712, "content": "<unused_token_422>", "single_word": false, "lstrip": false, "rstrip": false, "normalized": true, "special": false}, {"id": 32713, "content": "<unused_token_423>", "single_word": false, "lstrip": false, "rstrip": false, "normalized": true, "special": false}, {"id": 32714, "content": "<unused_token_424>", "single_word": false, "lstrip": false, "rstrip": false, "normalized": true, "special": false}, {"id": 32715, "content": "<unused_token_425>", "single_word": false, "lstrip": false, "rstrip": false, "normalized": true, "special": false}, {"id": 32716, "content": "<unused_token_426>", "single_word": false, "lstrip": false, "rstrip": false, "normalized": true, "special": false}, {"id": 32717, "content": "<unused_token_427>", "single_word": false, "lstrip": false, "rstrip": false, "normalized": true, "special": false}, {"id": 32718, "content": "<unused_token_428>", "single_word": false, "lstrip": false, "rstrip": false, "normalized": true, "special": false}, {"id": 32719, "content": "<unused_token_429>", "single_word": false, "lstrip": false, "rstrip": false, "normalized": true, "special": false}, {"id": 32720, "content": "<unused_token_430>", "single_word": false, "lstrip": false, "rstrip": false, "normalized": true, "special": false}, {"id": 32721, "content": "<unused_token_431>", "single_word": false, "lstrip": false, "rstrip": false, "normalized": true, "special": false}, {"id": 32722, "content": "<unused_token_432>", "single_word": false, "lstrip": false, "rstrip": false, "normalized": true, "special": false}, {"id": 32723, "content": "<unused_token_433>", "single_word": false, "lstrip": false, "rstrip": false, "normalized": true, "special": false}, {"id": 32724, "content": "<unused_token_434>", "single_word": false, "lstrip": false, "rstrip": false, "normalized": true, "special": false}, {"id": 32725, "content": "<unused_token_435>", "single_word": false, "lstrip": false, "rstrip": false, "normalized": true, "special": false}, {"id": 32726, "content": "<unused_token_436>", "single_word": false, "lstrip": false, "rstrip": false, "normalized": true, "special": false}, {"id": 32727, "content": "<unused_token_437>", "single_word": false, "lstrip": false, "rstrip": false, "normalized": true, "special": false}, {"id": 32728, "content": "<unused_token_438>", "single_word": false, "lstrip": false, "rstrip": false, "normalized": true, "special": false}, {"id": 32729, "content": "<unused_token_439>", "single_word": false, "lstrip": false, "rstrip": false, "normalized": true, "special": false}, {"id": 32730, "content": "<unused_token_440>", "single_word": false, "lstrip": false, "rstrip": false, "normalized": true, "special": false}, {"id": 32731, "content": "<unused_token_441>", "single_word": false, "lstrip": false, "rstrip": false, "normalized": true, "special": false}, {"id": 32732, "content": "<unused_token_442>", "single_word": false, "lstrip": false, "rstrip": false, "normalized": true, "special": false}, {"id": 32733, "content": "<unused_token_443>", "single_word": false, "lstrip": false, "rstrip": false, "normalized": true, "special": false}, {"id": 32734, "content": "<unused_token_444>", "single_word": false, "lstrip": false, "rstrip": false, "normalized": true, "special": false}, {"id": 32735, "content": "<unused_token_445>", "single_word": false, "lstrip": false, "rstrip": false, "normalized": true, "special": false}, {"id": 32736, "content": "<unused_token_446>", "single_word": false, "lstrip": false, "rstrip": false, "normalized": true, "special": false}, {"id": 32737, "content": "<unused_token_447>", "single_word": false, "lstrip": false, "rstrip": false, "normalized": true, "special": false}, {"id": 32738, "content": "<unused_token_448>", "single_word": false, "lstrip": false, "rstrip": false, "normalized": true, "special": false}, {"id": 32739, "content": "<unused_token_449>", "single_word": false, "lstrip": false, "rstrip": false, "normalized": true, "special": false}, {"id": 32740, "content": "<unused_token_450>", "single_word": false, "lstrip": false, "rstrip": false, "normalized": true, "special": false}, {"id": 32741, "content": "<unused_token_451>", "single_word": false, "lstrip": false, "rstrip": false, "normalized": true, "special": false}, {"id": 32742, "content": "<unused_token_452>", "single_word": false, "lstrip": false, "rstrip": false, "normalized": true, "special": false}, {"id": 32743, "content": "<unused_token_453>", "single_word": false, "lstrip": false, "rstrip": false, "normalized": true, "special": false}, {"id": 32744, "content": "<unused_token_454>", "single_word": false, "lstrip": false, "rstrip": false, "normalized": true, "special": false}, {"id": 32745, "content": "<unused_token_455>", "single_word": false, "lstrip": false, "rstrip": false, "normalized": true, "special": false}, {"id": 32746, "content": "<unused_token_456>", "single_word": false, "lstrip": false, "rstrip": false, "normalized": true, "special": false}, {"id": 32747, "content": "<unused_token_457>", "single_word": false, "lstrip": false, "rstrip": false, "normalized": true, "special": false}, {"id": 32748, "content": "<unused_token_458>", "single_word": false, "lstrip": false, "rstrip": false, "normalized": true, "special": false}, {"id": 32749, "content": "<unused_token_459>", "single_word": false, "lstrip": false, "rstrip": false, "normalized": true, "special": false}, {"id": 32750, "content": "<unused_token_460>", "single_word": false, "lstrip": false, "rstrip": false, "normalized": true, "special": false}, {"id": 32751, "content": "<unused_token_461>", "single_word": false, "lstrip": false, "rstrip": false, "normalized": true, "special": false}, {"id": 32752, "content": "<unused_token_462>", "single_word": false, "lstrip": false, "rstrip": false, "normalized": true, "special": false}, {"id": 32753, "content": "<unused_token_463>", "single_word": false, "lstrip": false, "rstrip": false, "normalized": true, "special": false}, {"id": 32754, "content": "<unused_token_464>", "single_word": false, "lstrip": false, "rstrip": false, "normalized": true, "special": false}, {"id": 32755, "content": "<unused_token_465>", "single_word": false, "lstrip": false, "rstrip": false, "normalized": true, "special": false}, {"id": 32756, "content": "<unused_token_466>", "single_word": false, "lstrip": false, "rstrip": false, "normalized": true, "special": false}, {"id": 32757, "content": "<unused_token_467>", "single_word": false, "lstrip": false, "rstrip": false, "normalized": true, "special": false}, {"id": 32758, "content": "<unused_token_468>", "single_word": false, "lstrip": false, "rstrip": false, "normalized": true, "special": false}, {"id": 32759, "content": "<unused_token_469>", "single_word": false, "lstrip": false, "rstrip": false, "normalized": true, "special": false}, {"id": 32760, "content": "<unused_token_470>", "single_word": false, "lstrip": false, "rstrip": false, "normalized": true, "special": false}, {"id": 32761, "content": "<unused_token_471>", "single_word": false, "lstrip": false, "rstrip": false, "normalized": true, "special": false}, {"id": 32762, "content": "<unused_token_472>", "single_word": false, "lstrip": false, "rstrip": false, "normalized": true, "special": false}, {"id": 32763, "content": "<unused_token_473>", "single_word": false, "lstrip": false, "rstrip": false, "normalized": true, "special": false}, {"id": 32764, "content": "<unused_token_474>", "single_word": false, "lstrip": false, "rstrip": false, "normalized": true, "special": false}, {"id": 32765, "content": "<unused_token_475>", "single_word": false, "lstrip": false, "rstrip": false, "normalized": true, "special": false}, {"id": 32766, "content": "<unused_token_476>", "single_word": false, "lstrip": false, "rstrip": false, "normalized": true, "special": false}, {"id": 32767, "content": "<unused_token_477>", "single_word": false, "lstrip": false, "rstrip": false, "normalized": true, "special": false}], "normalizer": null, "pre_tokenizer": {"type": "Sequence", "pretokenizers": [{"type": "Split", "pattern": {"Regex": "\\p{N}{1,3}"}, "behavior": "Isolated", "invert": false}, {"type": "Split", "pattern": {"Regex": "(?i:'s|'t|'re|'ve|'m|'ll|'d)|[^\\r\\n\\p{L}\\p{N}]?\\p{L}+|\\p{N}+| ?[^\\s\\p{L}\\p{N}]+[\\r\\n]*|\\s*[\\r\\n]+|\\s+(?!\\S)|\\s+"}, "behavior": "Isolated", "invert": false}, {"type": "ByteLevel", "add_prefix_space": false, "trim_offsets": true, "use_regex": false}]}, "post_processor": {"type": "TemplateProcessing", "single": [{"SpecialToken": {"id": "<s>", "type_id": 0}}, {"Sequence": {"id": "A", "type_id": 0}}], "pair": [{"SpecialToken": {"id": "<s>", "type_id": 0}}, {"Sequence": {"id": "A", "type_id": 0}}, {"SpecialToken": {"id": "<s>", "type_id": 1}}, {"Sequence": {"id": "B", "type_id": 1}}], "special_tokens": {"<s>": {"id": "<s>", "ids": [0], "tokens": ["<s>"]}}}, "decoder": {"type": "ByteLevel", "add_prefix_space": true, "trim_offsets": true, "use_regex": true}, "model": {"type": "BPE", "dropout": null, "unk_token": "<unk>", "continuing_subword_prefix": null, "end_of_word_suffix": null, "fuse_unk": false, "byte_fallback": false, "ignore_merges": false, "vocab": {"<s>": 0, "</s>": 1, "<tool_call>": 2, "</tool_call>": 3, "<|im_sep|>": 4, "<|fim_prefix|>": 5, "<|fim_middle|>": 6, "<|fim_suffix|>": 7, "<think>": 8, "</think>": 9, "<tool_response>": 10, "</tool_response>": 11, "<tools>": 12, "</tools>": 13, "<arguments>": 14, "</arguments>": 15, "<parameters>": 16, "</parameters>": 17, "<function": 18, "</function>": 19, "<param": 20, "</param>": 21, "!": 22, "\"": 23, "#": 24, "$": 25, "%": 26, "&": 27, "'": 28, "(": 29, ")": 30, "*": 31, "+": 32, ",": 33, "-": 34, ".": 35, "/": 36, "0": 37, "1": 38, "2": 39, "3": 40, "4": 41, "5": 42, "6": 43, "7": 44, "8": 45, "9": 46, ":": 47, ";": 48, "<": 49, "=": 50, ">": 51, "?": 52, "@": 53, "A": 54, "B": 55, "C": 56, "D": 57, "E": 58, "F": 59, "G": 60, "H": 61, "I": 62, "J": 63, "K": 64, "L": 65, "M": 66, "N": 67, "O": 68, "P": 69, "Q": 70, "R": 71, "S": 72, "T": 73, "U": 74, "V": 75, "W": 76, "X": 77, "Y": 78, "Z": 79, "[": 80, "\\": 81, "]": 82, "^": 83, "_": 84, "`": 85, "a": 86, "b": 87, "c": 88, "d": 89, "e": 90, "f": 91, "g": 92, "h": 93, "i": 94, "j": 95, "k": 96, "l": 97, "m": 98, "n": 99, "o": 100, "p": 101, "q": 102, "r": 103, "s": 104, "t": 105, "u": 106, "v": 107, "w": 108, "x": 109, "y": 110, "z": 111, "{": 112, "|": 113, "}": 114, "~": 115, "¡": 116, "¢": 117, "£": 118, "¤": 119, "¥": 120, "¦": 121, "§": 122, "¨": 123, "©": 124, "ª": 125, "«": 126, "¬": 127, "®": 128, "¯": 129, "°": 130, "±": 131, "²": 132, "³": 133, "´": 134, "µ": 135, "¶": 136, "·": 137, "¸": 138, "¹": 139, "º": 140, "»": 141, "¼": 142, "½": 143, "¾": 144, "¿": 145, "À": 146, "Á": 147, "Â": 148, "Ã": 149, "Ä": 150, "Å": 151, "Æ": 152, "Ç": 153, "È": 154, "É": 155, "Ê": 156, "Ë": 157, "Ì": 158, "Í": 159, "Î": 160, "Ï": 161, "Ð": 162, "Ñ": 163, "Ò": 164, "Ó": 165, "Ô": 166, "Õ": 167, "Ö": 168, "×": 169, "Ø": 170, "Ù": 171, "Ú": 172, "Û": 173, "Ü": 174, "Ý": 175, "Þ": 176, "ß": 177, "à": 178, "á": 179, "â": 180, "ã": 181, "ä": 182, "å": 183, "æ": 184, "ç": 185, "è": 186, "é": 187, "ê": 188, "ë": 189, "ì": 190, "í": 191, "î": 192, "ï": 193, "ð": 194, "ñ": 195, "ò": 196, "ó": 197, "ô": 198, "õ": 199, "ö": 200, "÷": 201, "ø": 202, "ù": 203, "ú": 204, "û": 205, "ü": 206, "ý": 207, "þ": 208, "ÿ": 209, "Ā": 210, "ā": 211, "Ă": 212, "ă": 213, "Ą": 214, "ą": 215, "Ć": 216, "ć": 217, "Ĉ": 218, "ĉ": 219, "Ċ": 220, "ċ": 221, "Č": 222, "č": 223, "Ď": 224, "ď": 225, "Đ": 226, "đ": 227, "Ē": 228, "ē": 229, "Ĕ": 230, "ĕ": 231, "Ė": 232, "ė": 233, "Ę": 234, "ę": 235, "Ě": 236, "ě": 237, "Ĝ": 238, "ĝ": 239, "Ğ": 240, "ğ": 241, "Ġ": 242, "ġ": 243, "Ģ": 244, "ģ": 245, "Ĥ": 246, "ĥ": 247, "Ħ": 248, "ħ": 249, "Ĩ": 250, "ĩ": 251, "Ī": 252, "ī": 253, "Ĭ": 254, "ĭ": 255, "Į": 256, "į": 257, "İ": 258, "ı": 259, "Ĳ": 260, "ĳ": 261, "Ĵ": 262, "ĵ": 263, "Ķ": 264, "ķ": 265, "ĸ": 266, "Ĺ": 267, "ĺ": 268, "Ļ": 269, "ļ": 270, "Ľ": 271, "ľ": 272, "Ŀ": 273, "ŀ": 274, "Ł": 275, "ł": 276, "Ń": 277, "Ġt": 278, "he": 279, "Ġa": 280, "in": 281, "ĠĠ": 282, "on": 283, "re": 284, "Ġthe": 285, "at": 286, "er": 287, "Ġs": 288, "Ġo": 289, "en": 290, "Ġc": 291, "Ġw": 292, "is": 293, "es": 294, "it": 295, "an": 296, "or": 297, "al": 298, "Ġp": 299, "ed": 300, "Ġf": 301, "Ġb": 302, "ar": 303, "Ġof": 304, "Ġan": 305, "ing": 306, "Ġm": 307, "Ġd": 308, "Ġin": 309, "ou": 310, "ion": 311, "ic": 312, "td": 313, "le": 314, "Ġand": 315, "Ġto": 316, "as": 317, "Ġ{": 318, "ro": 319, "Ġh": 320, "ĠĠĠĠ": 321, "Ġ\\": 322, "Ġ}": 323, "ï¼": 324, "Ġth": 325, "ent": 326, "Ġe": 327, "ct": 328, "Ġn": 329, "><": 330, "Ġl": 331, "el": 332, "om": 333, "st": 334, "ï¼Į": 335, "et": 336, "Ġre": 337, "il": 338, "im": 339, "ra": 340, "Ġ(": 341, "ĠT": 342, "ot": 343, "ol": 344, "id": 345, "Ġg": 346, "ig": 347, ".Ċ": 348, "ut": 349, "</": 350, "ve": 351, "ĠI": 352, "ation": 353, "ĠS": 354, "Ġis": 355, "ce": 356, "ĠA": 357, "ly": 358, "ch": 359, "ãĢ": 360, "us": 361, "Ġbe": 362, "ur": 363, "un": 364, "ow": 365, "Ġ$": 366, "ĠC": 367, "am": 368, "ad": 369, "Ġfor": 370, "Ġon": 371, "ver": 372, "âĢ": 373, "ul": 374, "Ġthat": 375, "os": 376, "Ġst": 377, "Ġhe": 378, "ith": 379, "ir": 380, "ĠM": 381, "ay": 382, "Ġ_": 383, "if": 384, "Ġas": 385, "00": 386, "Ġcon": 387, "Ġy": 388, "ĠĠĠ": 389, "tr": 390, "ãĢĤ": 391, "ĠP": 392, "od": 393, "Ġwith": 394, "qu": 395, "ĠÐ": 396, "ter": 397, "th": 398, "em": 399, "um": 400, "ĠB": 401, "Ġal": 402, "Ġit": 403, "Ġwh": 404, "ab": 405, "Ġpro": 406, "Ġde": 407, "ĠThe": 408, "ĠH": 409, "ath": 410, "Ġv": 411, "ag": 412, "se": 413, "her": 414, "ht": 415, "res": 416, "Ð¾": 417, "pe": 418, "Ġwe": 419, "iv": 420, "and": 421, "ac": 422, "Ġwas": 423, "ĠR": 424, "Ġex": 425, "Ġr": 426, "ĠD": 427, "ĠF": 428, "ate": 429, "ĠE": 430, "ld": 431, "Ġ-": 432, "ĠL": 433, "ess": 434, "Ġyou": 435, "Ġor": 436, "ĠW": 437, "ers": 438, "est": 439, "==": 440, "Ðµ": 441, "ist": 442, "ity": 443, "19": 444, "Ġare": 445, "Ġ\"": 446, "Ġcom": 447, "ction": 448, "pp": 449, "ĠĠĠĠĠĠĠĠ": 450, "Ġse": 451, "ant": 452, "Ġat": 453, "math": 454, "'s": 455, "ill": 456, "ore": 457, "Ġby": 458, "ain": 459, "Ġsu": 460, "op": 461, "ight": 462, "Ð°": 463, "rom": 464, "ĠN": 465, "oc": 466, "nd": 467, "Ġ=": 468, "ke": 469, "ĠG": 470, "ies": 471, "Ġ^": 472, "ive": 473, "ment": 474, "20": 475, "Ġnot": 476, "ure": 477, "Ġ'": 478, "ial": 479, "Ġun": 480, "ib": 481, "ÑĤ": 482, "art": 483, "></": 484, "Ð¸": 485, "Ġha": 486, "end": 487, "Ġsh": 488, "Ġne": 489, "pl": 490, "Ġfrom": 491, "te": 492, "Ġch": 493, "Ġ)": 494, "Ġ,": 495, "ĠĠĊ": 496, "ort": 497, "ge": 498, "Ġk": 499, "ould": 500, "pt": 501, "og": 502, "Ġle": 503, "ren": 504, "Ġ<": 505, "ie": 506, "ical": 507, "ĠJ": 508, "red": 509, "ud": 510, "Ġthis": 511, "ine": 512, "all": 513, "fe": 514, "Ð½": 515, "iz": 516, "ich": 517, "Ġus": 518, "ell": 519, ">Ċ": 520, "ĠO": 521, "per": 522, "Ġ$\\": 523, "ĠĠĠĠĠ": 524, "Ñģ": 525, "),": 526, "ust": 527, "Ġ.": 528, "10": 529, "Ġhave": 530, "Ġme": 531, "ard": 532, "our": 533, "Ġhis": 534, "rou": 535, "ÑĢ": 536, "rm": 537, "ri": 538, "ome": 539, "Ġcan": 540, "up": 541, "âĢľ": 542, "ph": 543, "ated": 544, "Ġj": 545, "Ġab": 546, "able": 547, "ĠIn": 548, "hen": 549, "ime": 550, "ous": 551, "out": 552, "ans": 553, "ap": 554, "--": 555, "Ġ[": 556, "ide": 557, "ult": 558, "AA": 559, "âĢĿ": 560, "ost": 561, "ak": 562, "Ġim": 563, "ther": 564, "ass": 565, "orm": 566, "Ġher": 567, "ind": 568, "Ġen": 569, "Ġall": 570, "The": 571, "ãĢģ": 572, "mathrm": 573, "Ġwor": 574, "Ġcomp": 575, "Ġcl": 576, "ue": 577, "Ġwhich": 578, "ations": 579, "ip": 580, "Ġres": 581, "ition": 582, "cc": 583, "ast": 584, "12": 585, "Ġpl": 586, "Ġhad": 587, "ok": 588, "ong": 589, "ack": 590, "Ġdo": 591, "act": 592, "der": 593, "Ġqu": 594, "$Ċ": 595, "Ġdis": 596, "age": 597, "to": 598, "gh": 599, "..": 600, "ame": 601, "du": 602, "',": 603, "ence": 604, "ĠU": 605, ").": 606, "ĠK": 607, "ary": 608, "Ġbut": 609, "Ġ}$": 610, "ance": 611, "Ġad": 612, "ft": 613, "ep": 614, "Ġtr": 615, "Ġ+": 616, "ang": 617, "one": 618, "====": 619, ".,": 620, "ne": 621, "int": 622, "cl": 623, "ach": 624, "Ġwere": 625, ".\"": 626, "Ġone": 627, "ub": 628, "rac": 629, "11": 630, "ens": 631, "ice": 632, "ia": 633, "ress": 634, "ff": 635, "Ġout": 636, "Ġper": 637, "av": 638, "Ġtheir": 639, "ase": 640, "Ġthey": 641, "ĠV": 642, "15": 643, "Ġso": 644, "con": 645, "ĠTh": 646, "Ġgo": 647, "18": 648, "$$Ċ": 649, "ign": 650, "ber": 651, "oun": 652, "ose": 653, "ual": 654, "Ġman": 655, "ace": 656, "Ð»": 657, "Ġcont": 658, "__": 659, ",\"": 660, "ents": 661, "Ġhas": 662, "ire": 663, "ions": 664, "Ġwill": 665, "'t": 666, "ely": 667, "are": 668, "13": 669, "Ġshe": 670, "Ġi": 671, "ite": 672, "ru": 673, "Ġup": 674, "14": 675, "Ġsp": 676, "16": 677, "âĢĶ": 678, "Ġmy": 679, "xt": 680, "Ġmore": 681, ")Ċ": 682, "urn": 683, "Ġother": 684, "ear": 685, "ook": 686, "form": 687, "row": 688, "Ġpart": 689, "ma": 690, "Ġev": 691, "vel": 692, "ound": 693, "de": 694, "so": 695, "IC": 696, "ĠY": 697, "Ġno": 698, "Ġx": 699, "ĠĠĠĊ": 700, "rent": 701, "very": 702, "we": 703, "17": 704, "own": 705, "ys": 706, "Ġsa": 707, "ll": 708, "unction": 709, "ile": 710, "Ġar": 711, "000": 712, "ors": 713, "25": 714, "low": 715, "Ġthere": 716, "ory": 717, "Ġbeen": 718, "Ġapp": 719, "Ġif": 720, "oss": 721, "ord": 722, "Ġsc": 723, "ake": 724, "Ġwould": 725, "ks": 726, "Ġag": 727, "port": 728, "here": 729, "ect": 730, "Ġwho": 731, "ĠCh": 732, "Ġdes": 733, "Ñĥ": 734, "}$": 735, "ces": 736, "wo": 737, "Ġhim": 738, "Ġpre": 739, "ĠHe": 740, "ms": 741, "ree": 742, "ater": 743, "ta": 744, "ry": 745, "Ġits": 746, "Ġob": 747, "aus": 748, "Ġyour": 749, "Ġli": 750, "Ġinto": 751, "Ġtime": 752, "ew": 753, "ple": 754, "Ġthan": 755, "ĠĠĠĠĠĠĠ": 756, "Ġabout": 757, "201": 758, "ĠSt": 759, "pr": 760, "ish": 761, "Ã©": 762, "Ġsy": 763, "erv": 764, "ĠIt": 765, "Ġwhen": 766, "ian": 767, "Ġ&": 768, "Ġte": 769, "ates": 770, "Ġsome": 771, "ray": 772, "Ġro": 773, "Ġover": 774, "ata": 775, "22": 776, "ings": 777, "hed": 778, "Ġspe": 779, "Ġcol": 780, "200": 781, "30": 782, "Ġpr": 783, "Ġdif": 784, "ov": 785, "ove": 786, "Ġkn": 787, "Ġany": 788, "vers": 789, "frac": 790, "ict": 791, "Ġrel": 792, "Ġbet": 793, ".\"Ċ": 794, "Ġalso": 795, "Ġthem": 796, "right": 797, "Ġmod": 798, "ark": 799, "eth": 800, "Ġbec": 801, "mathb": 802, "ally": 803, "ob": 804, "elf": 805, "],": 806, "ject": 807, "Ġinter": 808, "uc": 809, "Ġcons": 810, "the": 811, "\",": 812, "Ag": 813, "Ñĭ": 814, "olog": 815, "Ġacc": 816, "lect": 817, "ays": 818, "ious": 819, "old": 820, "ps": 821, "ick": 822, "ific": 823, "ty": 824, "=\"": 825, "Ġ|": 826, "cre": 827, "rit": 828, "Ġtwo": 829, "mer": 830, "ons": 831, "Ġonly": 832, "ail": 833, "tain": 834, "ood": 835, "fect": 836, ";Ċ": 837, "Ġass": 838, "ĠĠĠĠĠĠĠĠĠĠĠĠĠĠĠĠ": 839, "ild": 840, "24": 841, "Ġmay": 842, "irst": 843, "ener": 844, "Ġtra": 845, "Ġind": 846, "Ð¼": 847, "reat": 848, "cess": 849, "Ġwhat": 850, "\":": 851, "Ġ/": 852, "ied": 853, "Ð²": 854, "oint": 855, "Ġval": 856, "ular": 857, "Ġwork": 858, "99": 859, "cal": 860, "Ġpe": 861, ":Ċ": 862, "In": 863, "hat": 864, "ink": 865, "ient": 866, "Ġla": 867, "eg": 868, "Ġsub": 869, "Ġunder": 870, "Ġrec": 871, "Ġthese": 872, "Ġcould": 873, "âĢĿĊ": 874, "Ġour": 875, "27": 876, "les": 877, "50": 878, "ond": 879, "lic": 880, "ating": 881, "pect": 882, "Ġam": 883, "iss": 884, "erm": 885, "Ġem": 886, "Ġsuch": 887, "oth": 888, "23": 889, "ced": 890, "ution": 891, "Ġbl": 892, "Ġcomm": 893, "ĠThis": 894, "ble": 895, "fore": 896, "igh": 897, "``": 898, "stem": 899, "Ġph": 900, "ough": 901, "----": 902, "ss": 903, "ative": 904, "ise": 905, "Ġoff": 906, "Ġfe": 907, "ram": 908, "Ġco": 909, "ause": 910, "':": 911, "ics": 912, "fter": 913, "Ġsaid": 914, "Ġthen": 915, "26": 916, "199": 917, "ning": 918, "Ġlike": 919, "28": 920, "ility": 921, "Ġhow": 922, "Ġnew": 923, "36": 924, "Ġra": 925, "Ġact": 926, "40": 927, "var": 928, "turn": 929, "dition": 930, "Ġstud": 931, "ible": 932, "rough": 933, "ER": 934, "ween": 935, "========": 936, "Ġfirst": 937, "ade": 938, "ful": 939, "left": 940, "Ġdiffe": 941, "ational": 942, "29": 943, "ities": 944, "oy": 945, "Ð´": 946, "Ġ*": 947, "Ġtrans": 948, "33": 949, "Ġnum": 950, "ffect": 951, "Ġsm": 952, "round": 953, "Ġknow": 954, "Ġac": 955, "imes": 956, "sp": 957, "itt": 958, "Ġbetween": 959, "ng": 960, "com": 961, "Ġfl": 962, "pro": 963, "Ġet": 964, "ax": 965, "(t": 966, "ont": 967, "Ġreg": 968, "tern": 969, ",Ċ": 970, "ĠWe": 971, "ange": 972, "){": 973, "get": 974, "Ġfol": 975, "ex": 976, "uch": 977, "Ġform": 978, "resent": 979, "ures": 980, "ize": 981, "wn": 982, "Ġpol": 983, "cept": 984, "ull": 985, "Ġdid": 986, "Ġshould": 987, "Ġback": 988, "Ġthrough": 989, "Ġwhere": 990, "Ġset": 991, "ract": 992, "ec": 993, "Ġyear": 994, "ĠUn": 995, "Ġsim": 996, "Ġuse": 997, "Ġsee": 998, "ount": 999, "ments": 1000, "Ġrem": 1001, "Ġpar": 1002, "//": 1003, "iel": 1004, "Ġneed": 1005, "Ġint": 1006, "io": 1007, "Ġcor": 1008, "ric": 1009, "ug": 1010, "Ġsystem": 1011, "eng": 1012, "ix": 1013, "Ġmost": 1014, "Ġfollow": 1015, "iew": 1016, "ĠÐ²": 1017, "fl": 1018, "clud": 1019, "Ġinv": 1020, "pos": 1021, "Ġprodu": 1022, "60": 1023, "other": 1024, "**": 1025, "cy": 1026, "____": 1027, "array": 1028, "Ġget": 1029, "Ġz": 1030, "Ġsur": 1031, "37": 1032, "AAAA": 1033, "its": 1034, "ock": 1035, "ife": 1036, "ork": 1037, "}}": 1038, "Ġeach": 1039, "ĠAn": 1040, "Ġgener": 1041, "Ġdet": 1042, "ten": 1043, "Ġjust": 1044, "hes": 1045, "ature": 1046, "Ġstr": 1047, "Ġvar": 1048, "ople": 1049, "ower": 1050, "Ġequ": 1051, "Ġprov": 1052, "ily": 1053, "ident": 1054, "ined": 1055, "Ġatt": 1056, "_{": 1057, "35": 1058, "Ġresult": 1059, "ased": 1060, "Ġclass": 1061, "ever": 1062, "Ġinst": 1063, "198": 1064, "Ġdef": 1065, "ier": 1066, "cial": 1067, "trib": 1068, "ism": 1069, "this": 1070, "ds": 1071, "45": 1072, "ĠÑģ": 1073, "ON": 1074, "led": 1075, "ward": 1076, "mathbf": 1077, "ues": 1078, "Ġused": 1079, "ĠRe": 1080, "ĠPro": 1081, "als": 1082, "Ġ)$": 1083, "Ġent": 1084, "Ġhand": 1085, "function": 1086, "âĢ¦": 1087, "IN": 1088, "Ġagain": 1089, "Ġlook": 1090, "Ġpers": 1091, "Ġeven": 1092, "38": 1093, "Ġu": 1094, "Ġafter": 1095, "{array": 1096, "21": 1097, "Ġest": 1098, "##": 1099, "48": 1100, "ins": 1101, "ized": 1102, "Ġwell": 1103, ");": 1104, "?\"": 1105, "ĠCom": 1106, "amb": 1107, "Ġlong": 1108, "velop": 1109, "(\"": 1110, "iet": 1111, "Ġfunction": 1112, "Ġway": 1113, "ĠSe": 1114, "ather": 1115, "Ġmodel": 1116, "mathcal": 1117, "^{": 1118, "},": 1119, "Ġsupp": 1120, "Ġpoint": 1121, "gan": 1122, "Ġpeople": 1123, "ator": 1124, "ited": 1125, "Ġexp": 1126, "ness": 1127, "Ġfact": 1128, "ample": 1129, "sc": 1130, "Ġright": 1131, "ĠÐ½": 1132, "sh": 1133, "over": 1134, "Ġext": 1135, "ES": 1136, "Ġdifferent": 1137, "air": 1138, "75": 1139, "Ġgiv": 1140, "39": 1141, "ement": 1142, "Ġsame": 1143, "Ġdisc": 1144, "ctions": 1145, "44": 1146, "ool": 1147, "ages": 1148, "ĠX": 1149, "ght": 1150, "Ġel": 1151, "Ġsol": 1152, "Ġnow": 1153, "of": 1154, "ĠZ": 1155, "eta": 1156, "Ġsign": 1157, "uring": 1158, "Ġconst": 1159, "ale": 1160, "Ġshow": 1161, "Ġinte": 1162, "100": 1163, "Ġbecause": 1164, "Ġcar": 1165, "Ġmany": 1166, "ave": 1167, "Ġdata": 1168, "ype": 1169, "Ġpat": 1170, "Ġdown": 1171, "Ġevery": 1172, "Ġexper": 1173, "Ġappro": 1174, "val": 1175, "Ġvery": 1176, "ĠFor": 1177, "Ġmat": 1178, "ines": 1179, "ck": 1180, "ran": 1181, "46": 1182, "Ġbel": 1183, "Ġeffect": 1184, "arg": 1185, "put": 1186, "line": 1187, "Ġed": 1188, "und": 1189, "Ġwant": 1190, "Ġend": 1191, "ner": 1192, "ts": 1193, "Ġmin": 1194, "Ġpartic": 1195, "Ġke": 1196, "ĠQ": 1197, "ene": 1198, "ting": 1199, "Ġfin": 1200, "prime": 1201, "Ġhigh": 1202, "ĠÐ¸": 1203, "pha": 1204, "ization": 1205, "text": 1206, "dot": 1207, "Ġboth": 1208, "ince": 1209, "cent": 1210, "ern": 1211, "Ġmade": 1212, "Ġcall": 1213, "Ġmake": 1214, "ically": 1215, "AT": 1216, "ruct": 1217, "aking": 1218, "47": 1219, "for": 1220, "Ġap": 1221, "li": 1222, "Ġnumber": 1223, "irc": 1224, "ĠShe": 1225, "Ġthose": 1226, "ivers": 1227, "da": 1228, "man": 1229, "Ġgra": 1230, "ody": 1231, "Ġbefore": 1232, "AN": 1233, "gg": 1234, "49": 1235, "arch": 1236, "Ġmust": 1237, "Ġinclud": 1238, "way": 1239, "Th": 1240, "self": 1241, "Ġgood": 1242, "80": 1243, "ox": 1244, "AR": 1245, "Ġ:": 1246, "Ġcent": 1247, "Ġcomple": 1248, "Ġdevelop": 1249, "Ġcur": 1250, "Ġmuch": 1251, "197": 1252, "55": 1253, "Ġear": 1254, "ym": 1255, "ural": 1256, "Ġown": 1257, "ices": 1258, "ĠAl": 1259, "Ġrep": 1260, "Ġrequ": 1261, "uss": 1262, "66": 1263, "ci": 1264, "ared": 1265, "gy": 1266, "Ġimport": 1267, "}Ċ": 1268, "ology": 1269, "70": 1270, "Ġaut": 1271, "rest": 1272, "Ġprocess": 1273, "Ġgrou": 1274, "Ġfound": 1275, "alpha": 1276, "ven": 1277, "Ġdec": 1278, "formation": 1279, "yle": 1280, "ho": 1281, "ĠBut": 1282, "rence": 1283, "-b": 1284, "ute": 1285, "ublic": 1286, "Ġdep": 1287, "Ġgl": 1288, "Ġbeing": 1289, "Ġdire": 1290, "Ġfind": 1291, "Ġposs": 1292, "ethod": 1293, "}{": 1294, "yp": 1295, "vent": 1296, "Ġdoes": 1297, "EN": 1298, "ton": 1299, "Ġreal": 1300, "arge": 1301, "Ġsoc": 1302, "oh": 1303, "read": 1304, "hem": 1305, "Ð¿": 1306, "ĠIf": 1307, "Ġop": 1308, "Ġchild": 1309, "return": 1310, "app": 1311, "ength": 1312, "?Ċ": 1313, "ases": 1314, "32": 1315, "Ġ\\\\": 1316, "Ġlife": 1317, "Ġref": 1318, "Ġyears": 1319, "chn": 1320, "til": 1321, "90": 1322, "Ġproble": 1323, "par": 1324, "ider": 1325, "Ġincre": 1326, "OR": 1327, "34": 1328, "py": 1329, "]Ċ": 1330, "ĠAnd": 1331, "ield": 1332, "31": 1333, "ists": 1334, "ĠDe": 1335, "ash": 1336, "ars": 1337, "ode": 1338, "Ġpos": 1339, "ah": 1340, "rain": 1341, "Ġhel": 1342, "ional": 1343, "str": 1344, ").Ċ": 1345, "col": 1346, "AL": 1347, "any": 1348, "que": 1349, "au": 1350, "Ġbr": 1351, "land": 1352, "ants": 1353, "Ġread": 1354, "ted": 1355, "Ġloc": 1356, "Ġbu": 1357, "ought": 1358, "alk": 1359, "ĠPh": 1360, "Ġspec": 1361, "span": 1362, "ision": 1363, "Ġthink": 1364, "Ġpa": 1365, "be": 1366, "Ġexpl": 1367, "rol": 1368, "Ġmon": 1369, "Ġperson": 1370, "Ġcase": 1371, "ross": 1372, "Ġdist": 1373, "ĠAs": 1374, "ually": 1375, "Ġsmall": 1376, "meric": 1377, "Ġins": 1378, "Ġusing": 1379, "cond": 1380, "He": 1381, "Ġthree": 1382, "elta": 1383, "-s": 1384, "88": 1385, "tic": 1386, "Ġanal": 1387, "ĠNew": 1388, "Ġser": 1389, "ung": 1390, "lear": 1391, "ĠCon": 1392, "Ġresp": 1393, "77": 1394, "Ġes": 1395, "aw": 1396, "ann": 1397, "ved": 1398, "ivid": 1399, "ives": 1400, "min": 1401, "ral": 1402, "Ġque": 1403, "ively": 1404, "ential": 1405, "Ġgu": 1406, "ouse": 1407, "...": 1408, "Ġmem": 1409, "arm": 1410, "igure": 1411, "Ġcoun": 1412, "Ġserv": 1413, "ense": 1414, "ĠĠĠĠĠĠĠĠĠĠĠ": 1415, "Ġgr": 1416, "set": 1417, "202": 1418, "Ġhere": 1419, "ND": 1420, "We": 1421, "65": 1422, "yn": 1423, "```": 1424, "err": 1425, "ves": 1426, "Ġsom": 1427, "ters": 1428, "ulation": 1429, "95": 1430, "'d": 1431, "].": 1432, "ished": 1433, "Ġpresent": 1434, "Ġfam": 1435, "hip": 1436, "Ġwhile": 1437, "Ġsl": 1438, "Ġdi": 1439, "Ġprog": 1440, "ien": 1441, "Ġdon": 1442, "mathbb": 1443, "It": 1444, "ĠThey": 1445, "Ġnon": 1446, "Ġ$(": 1447, "196": 1448, "cr": 1449, "ĠHow": 1450, "atic": 1451, "Ġworld": 1452, "Ġmethod": 1453, "ability": 1454, "ffic": 1455, "Ġhum": 1456, "ambda": 1457, "Ġimp": 1458, "Ġdem": 1459, "ĠAr": 1460, "Ġline": 1461, "&&": 1462, "Ġgiven": 1463, "ior": 1464, "AC": 1465, "85": 1466, "Ġtake": 1467, "amp": 1468, "Ġadd": 1469, "Ġlet": 1470, "ality": 1471, "Ġbeh": 1472, "Ġtest": 1473, "Ġ{\\": 1474, "Ġmed": 1475, "ption": 1476, "els": 1477, "\">": 1478, "Ġstill": 1479, "ĠThere": 1480, ".l": 1481, "ience": 1482, "Ġcour": 1483, "mu": 1484, "-d": 1485, "Ġsay": 1486, "Ġhead": 1487, "OD": 1488, "Ġlead": 1489, ")$": 1490, "ĠâĢ": 1491, "ert": 1492, "ĠAmeric": 1493, "less": 1494, "RE": 1495, "ank": 1496, "az": 1497, "ired": 1498, "Ġhelp": 1499, "05": 1500, ",e": 1501, "Ġtoo": 1502, "Ġocc": 1503, "Ġmight": 1504, "Ġav": 1505, "alth": 1506, "Ġturn": 1507, "Ġwom": 1508, "ĠâĢľ": 1509, "ertain": 1510, ");Ċ": 1511, "inal": 1512, "ron": 1513, "01": 1514, "chool": 1515, "78": 1516, "ittle": 1517, "Ġorder": 1518, "Ġstand": 1519, "âĸ": 1520, "Ġoper": 1521, "acter": 1522, "Ġvalue": 1523, "Ġconf": 1524, "Ġlevel": 1525, "Ġquest": 1526, "ying": 1527, "Ġstate": 1528, "new": 1529, "Ð³": 1530, "ital": 1531, "Ġmain": 1532, "Ġwithout": 1533, "68": 1534, "Ġcontin": 1535, "):": 1536, "table": 1537, "ets": 1538, "Ġele": 1539, "Ġmeas": 1540, "ving": 1541, "raph": 1542, "oci": 1543, "stand": 1544, "po": 1545, "Ġpower": 1546, "aj": 1547, "iness": 1548, "Ġchar": 1549, "64": 1550, "Ġtem": 1551, "amma": 1552, "yl": 1553, "Ġ~": 1554, "Ġday": 1555, "ides": 1556, "ID": 1557, "OT": 1558, "98": 1559, "ĠEx": 1560, "view": 1561, "67": 1562, "egin": 1563, "Ġsk": 1564, "ole": 1565, "Ġaround": 1566, "ĠYou": 1567, "Ġexample": 1568, "}\\": 1569, "ane": 1570, "igma": 1571, "Ġcre": 1572, "Ġpres": 1573, "itive": 1574, "Ġseem": 1575, "iversity": 1576, "?\"Ċ": 1577, "ots": 1578, "._": 1579, "ason": 1580, "Ġloss": 1581, "Ġask": 1582, "Ġpass": 1583, "ified": 1584, "Ġey": 1585, "pi": 1586, "ĠĊ": 1587, "Ġdel": 1588, "akes": 1589, "Ġappe": 1590, "ST": 1591, "Ġmet": 1592, "Ġinformation": 1593, "Ġfollowing": 1594, "Ġmean": 1595, "--------": 1596, "ĠCl": 1597, "Ġstart": 1598, "Ġlear": 1599, "Ġanother": 1600, "rist": 1601, "Ġcondition": 1602, "bers": 1603, "ived": 1604, "Ġche": 1605, "Ġgreat": 1606, "Ġduring": 1607, "rem": 1608, "Ġide": 1609, "'Ċ": 1610, "ĠÃ": 1611, "not": 1612, "orn": 1613, "tt": 1614, "quad": 1615, "ĠLe": 1616, "ium": 1617, "oid": 1618, "Ġperform": 1619, "Ġinterest": 1620, ".S": 1621, "ried": 1622, "part": 1623, "Ġreturn": 1624, "Ġless": 1625, "angle": 1626, "Ġplace": 1627, "begin": 1628, "Ġimportant": 1629, "Ġthought": 1630, "69": 1631, "Ġobs": 1632, ".p": 1633, "atch": 1634, "Ġopen": 1635, "',Ċ": 1636, "hy": 1637, "ww": 1638, "ctor": 1639, "ately": 1640, "Ġ</": 1641, "cdot": 1642, "ik": 1643, "Ġsecond": 1644, "Ġlittle": 1645, "à¤": 1646, "ĠSh": 1647, "Ġnever": 1648, "ination": 1649, "ways": 1650, "bar": 1651, "Ġpur": 1652, "Ġbre": 1653, "Ġcommun": 1654, "Ġmark": 1655, "try": 1656, "Ġcap": 1657, "Ġcal": 1658, "Ġtechn": 1659, "agn": 1660, "Ġorgan": 1661, "-f": 1662, "=t": 1663, "ivity": 1664, "Ġcell": 1665, "name": 1666, "Ġplay": 1667, "'m": 1668, "Ġinc": 1669, "Ġ]": 1670, "Ġver": 1671, "tribut": 1672, "ining": 1673, "ĠInd": 1674, "Ġagainst": 1675, "Ġlarge": 1676, "IT": 1677, "ĠOn": 1678, "'re": 1679, "Ġwater": 1680, "Ġve": 1681, "ĠGod": 1682, "HE": 1683, "ling": 1684, "Ġ{Ċ": 1685, "Ġder": 1686, "Ġwithin": 1687, "Ġgroup": 1688, "Ġcare": 1689, "Ġstat": 1690, "Ġpublic": 1691, "Ġlast": 1692, "43": 1693, "79": 1694, "Ġident": 1695, "play": 1696, "Ġwrit": 1697, "lambda": 1698, "cul": 1699, "\\mathrm": 1700, "================": 1701, "ger": 1702, "41": 1703, "Ġprof": 1704, "med": 1705, "Ġmen": 1706, "\",\"": 1707, "Ġbas": 1708, "ush": 1709, "data": 1710, "ĠAd": 1711, "phi": 1712, "ently": 1713, "crib": 1714, "lt": 1715, "Ġobject": 1716, "gt": 1717, "________": 1718, "ients": 1719, "Ġinfl": 1720, "Ch": 1721, "Ġstruct": 1722, "Ġleft": 1723, "ilar": 1724, "Ġvari": 1725, "Ã¡": 1726, "âĢĻ": 1727, "Ġproper": 1728, "ression": 1729, "co": 1730, "conom": 1731, "Ã³": 1732, "Ġelect": 1733, "Ġfew": 1734, "Ġlim": 1735, "por": 1736, "Ġbook": 1737, "Ġdr": 1738, "ote": 1739, "ples": 1740, "Ġ.Ċ": 1741, "Ġhist": 1742, "use": 1743, "sw": 1744, "ething": 1745, "Ġold": 1746, "Ġparticular": 1747, "ency": 1748, "St": 1749, "Ġcome": 1750, "ief": 1751, "Ġgrow": 1752, "ither": 1753, "dis": 1754, "42": 1755, "AB": 1756, "Ġfre": 1757, "uck": 1758, "ysis": 1759, "Ġconsider": 1760, "ĠĠĠĠĠĠ": 1761, "ably": 1762, "ised": 1763, "NT": 1764, "nal": 1765, "ention": 1766, "Ġsince": 1767, "Ġq": 1768, "Ġresults": 1769, "ividual": 1770, ",r": 1771, "eter": 1772, "fer": 1773, "Ġvis": 1774, "Ġter": 1775, "sum": 1776, "Ġvol": 1777, "Ġadv": 1778, "Ġbro": 1779, "gr": 1780, "pped": 1781, "Ġsupport": 1782, "Ġgoing": 1783, "iety": 1784, "ilon": 1785, "ek": 1786, "II": 1787, "thing": 1788, "Ġmult": 1789, "ploy": 1790, "Ġstudy": 1791, "Ġbus": 1792, "Ġgre": 1793, "ury": 1794, "abl": 1795, "Ġlight": 1796, "mb": 1797, "Ġfeel": 1798, "ological": 1799, "Ġsing": 1800, "aps": 1801, ">-": 1802, "hor": 1803, "iod": 1804, "Ġlo": 1805, "son": 1806, "Ġsit": 1807, "58": 1808, "\\x": 1809, "uro": 1810, "Ġpract": 1811, "://": 1812, "den": 1813, "AAAAAAAA": 1814, "Ġgeneral": 1815, "Ġcontrol": 1816, "%$": 1817, "style": 1818, "oper": 1819, "Ġhuman": 1820, "MD": 1821, "LE": 1822, "-m": 1823, "ĠEng": 1824, "Ġoften": 1825, "Ġsocial": 1826, "Ġbo": 1827, "iron": 1828, "08": 1829, "Ġchang": 1830, "'ll": 1831, "inc": 1832, "Ġdeterm": 1833, "You": 1834, "An": 1835, "ains": 1836, "ga": 1837, "Ġdirect": 1838, "ĠÐ½Ð°": 1839, "-p": 1840, "ission": 1841, "Ġdesign": 1842, "Ġrepresent": 1843, "AS": 1844, "Ġhapp": 1845, "This": 1846, "Ġproblem": 1847, "IG": 1848, "ental": 1849, "Ġener": 1850, "Ġproduct": 1851, "Ġput": 1852, "MT": 1853, "Ġsomething": 1854, "beta": 1855, "Ġreport": 1856, "ÑĨ": 1857, "Ġview": 1858, "||": 1859, "Ġindividual": 1860, "Ġallow": 1861, "type": 1862, "IS": 1863, "urther": 1864, "Ġbest": 1865, "oor": 1866, "Ġaway": 1867, "Ġsat": 1868, ",and": 1869, "Ġpot": 1870, "Ġfil": 1871, "Ġpossible": 1872, "outh": 1873, "ĠÂ": 1874, "Ġredu": 1875, "195": 1876, "iter": 1877, "vious": 1878, "ference": 1879, "Ġtop": 1880, "ĠRes": 1881, "aterial": 1882, "Ġlow": 1883, "97": 1884, "by": 1885, "ends": 1886, "Ġself": 1887, "ccess": 1888, "sigma": 1889, "urs": 1890, "Ġalways": 1891, "ource": 1892, "let": 1893, "As": 1894, "rad": 1895, "Ġcalled": 1896, "Ġlaw": 1897, "Ġprote": 1898, "ohn": 1899, "rel": 1900, "ina": 1901, "Ġprob": 1902, "ION": 1903, "Ġchildren": 1904, "ames": 1905, "times": 1906, "ering": 1907, "))": 1908, "Ġunderstand": 1909, "Ġ#": 1910, "che": 1911, "ead": 1912, "fic": 1913, "ume": 1914, "raw": 1915, "-t": 1916, "ĠUniversity": 1917, "Ġfour": 1918, "Ġdidn": 1919, "Ġ>": 1920, "ĠTo": 1921, "olution": 1922, "iving": 1923, "ape": 1924, "where": 1925, "Ġcharacter": 1926, "Ġschool": 1927, "Ġpop": 1928, "ĠTr": 1929, "Ġobserv": 1930, "Ġchange": 1931, "Ġleg": 1932, "sy": 1933, "Ġmeasure": 1934, "Ġobtain": 1935, "Ġrun": 1936, "Ġhome": 1937, "AM": 1938, "Ġdiscuss": 1939, "eps": 1940, "Ġsignific": 1941, "ĠWhat": 1942, "Ġabove": 1943, "ances": 1944, "Ġrest": 1945, "ĠBe": 1946, "vern": 1947, "lo": 1948, "day": 1949, "ott": 1950, "Ġcr": 1951, "Pro": 1952, "ĠCol": 1953, "07": 1954, "att": 1955, "Ġrelations": 1956, "ĠWhen": 1957, "ormal": 1958, "Ġopp": 1959, "ĠIs": 1960, "istic": 1961, "Ġeas": 1962, "Ġrespect": 1963, "EC": 1964, "Ġhard": 1965, "-c": 1966, "work": 1967, "apt": 1968, "EL": 1969, "Ġdescrib": 1970, "rag": 1971, "face": 1972, "Ġbody": 1973, "aut": 1974, "57": 1975, "ument": 1976, "Ġcost": 1977, "ification": 1978, "ided": 1979, "pre": 1980, "Ġmom": 1981, "Ġlist": 1982, "Ġcertain": 1983, "Ġclear": 1984, "idence": 1985, "Ġcho": 1986, "ĠChrist": 1987, "ateg": 1988, "Ġside": 1989, "ograph": 1990, "plic": 1991, "ustr": 1992, "ĠAt": 1993, "59": 1994, "ule": 1995, "Ġsw": 1996, "Ġconc": 1997, "Ġthings": 1998, "Ġ}Ċ": 1999, "rop": 2000, "Ġgot": 2001, "cri": 2002, "theta": 2003, "Ġrow": 2004, "me": 2005, "Ġwar": 2006, "action": 2007, "ley": 2008, "Ġname": 2009, "ĠPl": 2010, "Ġrese": 2011, "Ġinvol": 2012, "../": 2013, "ĠNo": 2014, "AD": 2015, "06": 2016, "Ġmar": 2017, "\"Ċ": 2018, "Ġgive": 2019, "Ġtype": 2020, "Ġrad": 2021, "br": 2022, ".com": 2023, "Ġgovern": 2024, "Ġexpect": 2025, "leq": 2026, "ope": 2027, "ended": 2028, "_l": 2029, "Ġmove": 2030, "Ġopt": 2031, "Ġinvest": 2032, "Ġbetter": 2033, "ÃŃ": 2034, "thon": 2035, "Ġeyes": 2036, "ĠYork": 2037, "Ġund": 2038, "Ġwhe": 2039, "Ġperiod": 2040, "Ġuntil": 2041, ".g": 2042, "ĠâĢĵ": 2043, "Ġposition": 2044, "ieve": 2045, "Ġlab": 2046, "ique": 2047, "Ġsugg": 2048, ".s": 2049, "olds": 2050, "Ġsuggest": 2051, "Ġsum": 2052, "angu": 2053, "ories": 2054, "Ġfr": 2055, "ats": 2056, "Ġenergy": 2057, "bs": 2058, "Ġtot": 2059, "ĠMar": 2060, "uation": 2061, "Ġfore": 2062, "itud": 2063, "ched": 2064, "Ġden": 2065, "Ġphys": 2066, "rt": 2067, "aken": 2068, "Ġbeg": 2069, "Ġiss": 2070, "though": 2071, "Ġfield": 2072, "Ġnext": 2073, "wh": 2074, "ĠComm": 2075, "ued": 2076, "ogn": 2077, "Ġnet": 2078, "Ġdev": 2079, "ĠSp": 2080, "Ġface": 2081, "09": 2082, "Ġmov": 2083, "ison": 2084, "Ġpolit": 2085, "ery": 2086, "Ġindic": 2087, "Ġaddition": 2088, "Ġtell": 2089, "Ġfar": 2090, "Ġtyp": 2091, "Ġcame": 2092, "rodu": 2093, "eb": 2094, "ĠThese": 2095, "ream": 2096, "Ġplan": 2097, "Ġfamily": 2098, "Ġmanag": 2099, "ĠHowever": 2100, "resp": 2101, "'ve": 2102, "af": 2103, "Ġcrit": 2104, "poch": 2105, "ĠAmerican": 2106, "Ġcommon": 2107, "Ġclos": 2108, "reg": 2109, "ee": 2110, "Ġroom": 2111, "Ġtreat": 2112, "Ġsimilar": 2113, "Ġcult": 2114, ".c": 2115, "ĠTe": 2116, "Ġarg": 2117, "Ġvalues": 2118, "ird": 2119, "Ġarm": 2120, "ĠWh": 2121, "partial": 2122, "Ã£": 2123, ":\"": 2124, "Ġexist": 2125, "Ġpred": 2126, "Ġlater": 2127, "\"I": 2128, ")}": 2129, "56": 2130, "tribution": 2131, "Ġbased": 2132, "orth": 2133, "Ġtext": 2134, "ians": 2135, "cing": 2136, "Ġmeans": 2137, "Ġsever": 2138, "Ġtoward": 2139, "Ġpress": 2140, "Ã¼": 2141, "nu": 2142, "Ġkind": 2143, "most": 2144, "Ġsal": 2145, "Ġorig": 2146, "Ġhig": 2147, "ask": 2148, "(e": 2149, "Ġmaterial": 2150, "ĠOr": 2151, "gamma": 2152, "ify": 2153, "Ġmor": 2154, "_t": 2155, "Ġcirc": 2156, "Ġfac": 2157, "Ġspace": 2158, "alf": 2159, "ables": 2160, "Ġtimes": 2161, "Ġtw": 2162, "!Ċ": 2163, "ained": 2164, "arrow": 2165, "Ġquestion": 2166, "Ġlocal": 2167, "Ġrece": 2168, "ED": 2169, "Ġcourse": 2170, "ĠAll": 2171, "Ġnecess": 2172, "Ġleast": 2173, ".[": 2174, "iver": 2175, "Ġmot": 2176, "Ġassoci": 2177, "Ġant": 2178, "idth": 2179, "enn": 2180, "Ġshown": 2181, "usion": 2182, "ubl": 2183, "AP": 2184, "viron": 2185, "Ġnear": 2186, "LC": 2187, "Ġeconom": 2188, "Ġcurrent": 2189, "Ġdevelopment": 2190, "ording": 2191, "Ġfri": 2192, "Ġris": 2193, "mm": 2194, "epend": 2195, "Ġpost": 2196, "Ã£o": 2197, "Ġhy": 2198, "Ġexam": 2199, "Ġrate": 2200, "ĠLet": 2201, "Ġbusiness": 2202, "Ã§": 2203, "Ġreason": 2204, "ajor": 2205, "uf": 2206, "racy": 2207, "duct": 2208, "Ġinit": 2209, "Ġmind": 2210, "osp": 2211, "Ġothers": 2212, "Ġanalysis": 2213, "Ġabs": 2214, "ai": 2215, "++": 2216, "delta": 2217, "Ġupon": 2218, "ened": 2219, "ailable": 2220, "Ġwords": 2221, "ards": 2222, "Ġamong": 2223, "ours": 2224, "Ġwr": 2225, "Ex": 2226, "Ġdom": 2227, "Ġwomen": 2228, "Ġsubject": 2229, "194": 2230, "Ġeng": 2231, "Â·": 2232, "Ġprom": 2233, ";&": 2234, "Ġhowever": 2235, "Ġterm": 2236, "ered": 2237, "rho": 2238, "Ar": 2239, "Ġbehav": 2240, "Ġknown": 2241, "-l": 2242, "elt": 2243, "Ġtook": 2244, "To": 2245, "Ġstrong": 2246, "Ġsignificant": 2247, "bl": 2248, "02": 2249, "tau": 2250, ".e": 2251, "Ġalong": 2252, "87": 2253, "Ġseveral": 2254, "stit": 2255, "etic": 2256, "Ġmass": 2257, "Ġapplic": 2258, "atter": 2259, "Ġenough": 2260, "apter": 2261, "Ġcomput": 2262, "ĠĠĠĠĠĠĠĠĠĠĠĠĠĠĠ": 2263, "Ġparam": 2264, "Ġthough": 2265, "Al": 2266, "lection": 2267, "Ġbecome": 2268, "Ġshort": 2269, "RO": 2270, "Ġseen": 2271, ".length": 2272, "ING": 2273, "Ġmus": 2274, "\\%$": 2275, ".j": 2276, "imal": 2277, "Ġill": 2278, "Ġrather": 2279, "Ġemploy": 2280, "Ġinf": 2281, "Ġhouse": 2282, "Ġart": 2283, "ait": 2284, "ĠJohn": 2285, "Ġsuccess": 2286, "ival": 2287, "ĠBl": 2288, "imens": 2289, "96": 2290, "ledge": 2291, "pecial": 2292, "For": 2293, "ibility": 2294, "Ġprogram": 2295, "Ġlik": 2296, "Ġbound": 2297, "Ġland": 2298, "999": 2299, "Ġterms": 2300, "Ġbuild": 2301, "Re": 2302, "Ġcomb": 2303, "Ġsingle": 2304, "....": 2305, "Ġaccount": 2306, "aring": 2307, "gen": 2308, "Ġimpro": 2309, "Ġasked": 2310, "ready": 2311, "Ġfree": 2312, "What": 2313, "Ġhealth": 2314, "Ġarea": 2315, "Ġkeep": 2316, "omega": 2317, "Ġfull": 2318, "sup": 2319, "Ġsuper": 2320, "Ġneg": 2321, "Ġtoget": 2322, "urch": 2323, "ET": 2324, "aster": 2325, "Ġtogether": 2326, "ĠThen": 2327, "ux": 2328, "big": 2329, "Ġeither": 2330, "Cl": 2331, "****": 2332, "Ġmil": 2333, "oot": 2334, "Ġtotal": 2335, "And": 2336, "ĠNe": 2337, "Ġconne": 2338, "Ġmoment": 2339, "aim": 2340, "ĠMr": 2341, "ators": 2342, "cont": 2343, "ĠHis": 2344, "ler": 2345, "ĠPr": 2346, "Ġwon": 2347, "ĠPhys": 2348, "03": 2349, "193": 2350, "ĠCo": 2351, "Ġtrue": 2352, "fficient": 2353, "ift": 2354, "Ġyoung": 2355, "Ġenc": 2356, "ĠSo": 2357, "EE": 2358, "Ġresearch": 2359, "Ġtre": 2360, "Ġapproach": 2361, "Ġpotential": 2362, "cer": 2363, "Ġair": 2364, "Ġauthor": 2365, "oney": 2366, "une": 2367, "\"),": 2368, "Delta": 2369, "circ": 2370, "ources": 2371, "sequ": 2372, "Ġflow": 2373, "atures": 2374, "ids": 2375, ",n": 2376, "Ġdie": 2377, "ml": 2378, "ches": 2379, "^{\\": 2380, "uff": 2381, "fty": 2382, "respond": 2383, "Ġstructure": 2384, "Ġwent": 2385, "ĠEn": 2386, "Ġdays": 2387, "ae": 2388, "Ġearly": 2389, "Ġnight": 2390, "asing": 2391, "oll": 2392, "=function": 2393, "Ġnat": 2394, "Ã¤": 2395, ".A": 2396, "ember": 2397, "ĠThat": 2398, "see": 2399, "Ġhimself": 2400, "ĠAss": 2401, "Ġalready": 2402, "sych": 2403, "Ġeduc": 2404, "Ġspecial": 2405, "Ġdone": 2406, "ĠĠĠĠĠĠĠĠĠĠĠĠĠĠĠĠĠĠĠĠĠĠĠĠĠĠĠĠĠĠĠĠ": 2407, "Ġmajor": 2408, "rences": 2409, "anguage": 2410, "Ġdue": 2411, "div": 2412, "ged": 2413, "ored": 2414, "omet": 2415, "ending": 2416, "Ġpain": 2417, "Ġincluding": 2418, "mod": 2419, "Ġsize": 2420, "Ġlarg": 2421, "()": 2422, "Ġexperim": 2423, "===": 2424, "ges": 2425, "ault": 2426, "Ġlove": 2427, "_s": 2428, "If": 2429, "ressed": 2430, "iol": 2431, "Ġsec": 2432, "Ġsystems": 2433, "Ġonce": 2434, "imate": 2435, "US": 2436, "python": 2437, "But": 2438, "Ġreally": 2439, "Ph": 2440, "OL": 2441, "Ġfurther": 2442, "89": 2443, "ĠMan": 2444, "aces": 2445, "idd": 2446, "side": 2447, "Ġsens": 2448, "verage": 2449, "Ġavailable": 2450, "Ġbi": 2451, "iction": 2452, "ibr": 2453, "Ġlay": 2454, "roll": 2455, "infty": 2456, "erc": 2457, "sq": 2458, "elves": 2459, "istr": 2460, "Ġstudents": 2461, "bol": 2462, "vironment": 2463, "ips": 2464, "Ġcomplex": 2465, "icy": 2466, "position": 2467, "Ġmonth": 2468, "{\\": 2469, "iple": 2470, "Ġdeg": 2471, "Ġsure": 2472, ".'Ċ": 2473, "Ġable": 2474, "ocus": 2475, "At": 2476, "500": 2477, "Ġinde": 2478, "now": 2479, "ficult": 2480, "IL": 2481, "Ġquant": 2482, "Ġpast": 2483, "UR": 2484, "Ġwhether": 2485, "error": 2486, "rect": 2487, "Ġwind": 2488, "Ġsent": 2489, "Ġlooked": 2490, "De": 2491, "04": 2492, "add": 2493, "ĠOne": 2494, "Ġconditions": 2495, "ĠCar": 2496, "ising": 2497, "Ġheart": 2498, "Ġarr": 2499, "Ġwhole": 2500, "color": 2501, "Ġfrequ": 2502, "\\n": 2503, "empt": 2504, "fra": 2505, "Ġexperience": 2506, "hing": 2507, "Ġrelationship": 2508, "Ġtemper": 2509, "Ġtalk": 2510, "Ġcou": 2511, "Ġcannot": 2512, "61": 2513, "Ġprovide": 2514, "Ġwhy": 2515, "Ġpp": 2516, "63": 2517, "chan": 2518, "itor": 2519, "ĠCan": 2520, "oph": 2521, "Ġaction": 2522, "na": 2523, "Ġrespons": 2524, "ref": 2525, "Ġbene": 2526, "Ġpatients": 2527, "display": 2528, "Ĥ¬": 2529, "arget": 2530, "ado": 2531, "Ġmeet": 2532, "isf": 2533, "Ġmax": 2534, "ned": 2535, "Ġcorrespond": 2536, "My": 2537, "She": 2538, "ences": 2539, "Ġspecific": 2540, "-w": 2541, "sub": 2542, "Ġmaking": 2543, "Ġprim": 2544, "51": 2545, "ĠUnited": 2546, "iqu": 2547, "Ġdifficult": 2548, "imum": 2549, "Ġtheory": 2550, "ĠSoc": 2551, "ĠApp": 2552, "ĠTHE": 2553, "Ġpay": 2554, "Ġthing": 2555, "Ġcases": 2556, "Ġtold": 2557, "pper": 2558, "Ġcaus": 2559, "Ġpo": 2560, "uture": 2561, "vert": 2562, "Ġgen": 2563, "No": 2564, "ii": 2565, "order": 2566, "Ġtaken": 2567, "Ġhaving": 2568, "Ġsense": 2569, "Ġever": 2570, "icro": 2571, "Ġdou": 2572, "AG": 2573, "Ġdetail": 2574, "Ġproblems": 2575, "Ġproject": 2576, "Ġacross": 2577, "ustom": 2578, "62": 2579, "Ġfood": 2580, "Ġexc": 2581, "ĠQu": 2582, "iven": 2583, "ĠGe": 2584, "Ġang": 2585, "Ġrange": 2586, "Ġhigher": 2587, "CT": 2588, "ones": 2589, "pg": 2590, "Ġalmost": 2591, "Ġvarious": 2592, "Ġfail": 2593, "onse": 2594, "rix": 2595, "Ġste": 2596, "OM": 2597, "Ġgovernment": 2598, "eral": 2599, "Ġblack": 2600, "ands": 2601, "\\begin": 2602, "]=": 2603, "equ": 2604, "ĠSch": 2605, "irl": 2606, "Ġess": 2607, "ada": 2608, "Ġmarket": 2609, "ero": 2610, "Ġelse": 2611, "ceed": 2612, "Ġrele": 2613, "atory": 2614, "ware": 2615, "swer": 2616, ",'": 2617, "Im": 2618, "rid": 2619, "Ġ('": 2620, "(\\": 2621, "urope": 2622, "52": 2623, "aining": 2624, "Ġpaper": 2625, "Ġactiv": 2626, "ĠBy": 2627, "operator": 2628, "On": 2629, "urb": 2630, "itle": 2631, "inary": 2632, "ĠStates": 2633, "iam": 2634, "def": 2635, "ze": 2636, "ĠMe": 2637, "Ġ\\|": 2638, "IF": 2639, "Ġvers": 2640, "medi": 2641, "Ġhalf": 2642, "lected": 2643, "arr": 2644, "Ġ...": 2645, "OS": 2646, "ari": 2647, "ties": 2648, "ilities": 2649, "53": 2650, "Ġestabl": 2651, "alse": 2652, "Ġkey": 2653, ".C": 2654, "ister": 2655, "operatorname": 2656, "ĠSc": 2657, "Ġintrodu": 2658, "ĠSu": 2659, "itude": 2660, "ournal": 2661, "Ġsolution": 2662, "192": 2663, "Ġpath": 2664, ".t": 2665, "off": 2666, ".d": 2667, "Ġknew": 2668, "There": 2669, "ĠSte": 2670, "Ġyet": 2671, "Ġbegin": 2672, "Ġlower": 2673, "ĠPol": 2674, ".m": 2675, "Ġshall": 2676, "ortun": 2677, "Ġmother": 2678, "utes": 2679, "Ġlog": 2680, "/s": 2681, "Ġvo": 2682, "Ġpoints": 2683, "posed": 2684, "Ġach": 2685, "54": 2686, "Ġdoor": 2687, "ills": 2688, "Ġsepar": 2689, "Ġgroups": 2690, "Ġinflu": 2691, "Ġsound": 2692, "umn": 2693, "utions": 2694, "Ġitself": 2695, "Ġword": 2696, "(n": 2697, "Ġpriv": 2698, "Ġce": 2699, "ament": 2700, "Ġple": 2701, "ĠRo": 2702, "rame": 2703, "xi": 2704, "go": 2705, "htt": 2706, "uth": 2707, "ensity": 2708, "irm": 2709, "uracy": 2710, "Ġconcept": 2711, "ĠOF": 2712, "Ġnothing": 2713, "Ġsil": 2714, "iation": 2715, "-in": 2716, "Ġles": 2717, "omm": 2718, "Ġrequire": 2719, "org": 2720, "Un": 2721, "Ġrole": 2722, "Ġground": 2723, "ump": 2724, "Ġhistory": 2725, "Ġshows": 2726, "hib": 2727, "Ġsection": 2728, "Ġnature": 2729, "cle": 2730, "ĠAm": 2731, "ĠMed": 2732, "illed": 2733, ",a": 2734, "Ġsurface": 2735, "Ġpara": 2736, "Ġcy": 2737, "hers": 2738, "irt": 2739, "ured": 2740, "Ġaccept": 2741, "izing": 2742, "Ġspect": 2743, "Ġwalk": 2744, "Ġstyle": 2745, "Ġhold": 2746, "quot": 2747, "ĠWith": 2748, "dd": 2749, "psilon": 2750, "Ġchanges": 2751, "sqrt": 2752, "Ġpolitical": 2753, "Ġknowledge": 2754, "Ġfocus": 2755, "displaystyle": 2756, "CH": 2757, "Ġblood": 2758, "Ġnormal": 2759, "Ġprevious": 2760, "Ġage": 2761, "rack": 2762, "eters": 2763, "ius": 2764, ",t": 2765, "Ġdeath": 2766, "Ġmatter": 2767, "lex": 2768, "Ġamount": 2769, "back": 2770, "Ġmodels": 2771, "head": 2772, "Ġpercent": 2773, "Ġlearning": 2774, "Ġ;": 2775, "Ġoccur": 2776, "Ġhands": 2777, "-h": 2778, "73": 2779, "Ġrecord": 2780, "ymbol": 2781, "ĠÃł": 2782, "Ġcalcul": 2783, "Ġfelt": 2784, "Ġtable": 2785, "orld": 2786, "Ġinclude": 2787, "ĠCal": 2788, "gl": 2789, "_{\\": 2790, "ixed": 2791, "Ġphot": 2792, "Ġsays": 2793, "Ġmembers": 2794, "Ġfall": 2795, "ening": 2796, "ondon": 2797, "Ġcells": 2798, "ĠPress": 2799, "ground": 2800, "IA": 2801, "_d": 2802, "ĠâĢĶ": 2803, "Ġassum": 2804, "ection": 2805, "Ġer": 2806, "pose": 2807, "ales": 2808, "Ġweight": 2809, "ires": 2810, "Ġsequ": 2811, "Ġdu": 2812, "ules": 2813, "ĠEurope": 2814, "ruction": 2815, "Om": 2816, "Ġsaw": 2817, "Ġperformance": 2818, "Ġbig": 2819, "Ã³n": 2820, "-S": 2821, "ached": 2822, "place": 2823, "ĠĠĠĠĠĠĠĠĠ": 2824, "Ġut": 2825, "ores": 2826, "Ġcompon": 2827, "ĠAb": 2828, "Ġlength": 2829, "Ġred": 2830, "Ġrecogn": 2831, "Ġge": 2832, "Ġmagn": 2833, "Ġwoman": 2834, "aced": 2835, "ĠPar": 2836, "][": 2837, "Ġsimple": 2838, "vare": 2839, "ino": 2840, "ĠCor": 2841, "roup": 2842, "ĠIntern": 2843, "tilde": 2844, "sf": 2845, "ises": 2846, "Ġclose": 2847, "Ġstates": 2848, "Ġmill": 2849, "Ġcut": 2850, "rown": 2851, "artment": 2852, "Ġeffects": 2853, "Ġbar": 2854, "fully": 2855, "72": 2856, "bre": 2857, "Ġsatisf": 2858, "Ġlanguage": 2859, "ĠFig": 2860, "$\\": 2861, "('": 2862, "ows": 2863, "Ġjob": 2864, "Ġdefin": 2865, "omes": 2866, "body": 2867, "Ġport": 2868, "mp": 2869, "Ġprec": 2870, "Ġconcern": 2871, "idered": 2872, "Ġservice": 2873, "Ġrequired": 2874, "ike": 2875, "Ġincrease": 2876, "Ġinitial": 2877, "ENT": 2878, "Ġfuture": 2879, "IV": 2880, "Math": 2881, "uk": 2882, "Ġstudies": 2883, "varepsilon": 2884, "bo": 2885, "Ġmoney": 2886, "Ġdiv": 2887, "aves": 2888, "no": 2889, "pecially": 2890, "Ġwhite": 2891, "Ġfront": 2892, "ĠSy": 2893, "ĠUS": 2894, "Con": 2895, "Ġfather": 2896, "Ġparent": 2897, "Ġthus": 2898, "inter": 2899, "Ġenvironment": 2900, "itted": 2901, "Ġcountry": 2902, "ply": 2903, "bed": 2904, "Ġdise": 2905, "Ġâ": 2906, "tical": 2907, "Ġcompany": 2908, "enc": 2909, "Ġcross": 2910, "ĠCent": 2911, "Ġsex": 2912, "uments": 2913, "Ġdistribution": 2914, "Ġnatural": 2915, "cret": 2916, "ster": 2917, "iff": 2918, "ky": 2919, "lish": 2920, "gor": 2921, "bt": 2922, "ĠBrit": 2923, "Ġconsidered": 2924, "Ġdefined": 2925, "andom": 2926, "Figure": 2927, "lor": 2928, "iddle": 2929, "CC": 2930, "Ð»Ð°": 2931, "haps": 2932, "Ġeval": 2933, "191": 2934, "Ġidea": 2935, "Ġfive": 2936, "Ġdeep": 2937, "Ġimage": 2938, "osed": 2939, "Ġwanted": 2940, "sim": 2941, "pping": 2942, "UT": 2943, "Ġnecessary": 2944, "oms": 2945, "Ġmethods": 2946, "ĠMy": 2947, "Ġtri": 2948, "Fig": 2949, "Ġstandard": 2950, "but": 2951, "74": 2952, "Ġanything": 2953, "MS": 2954, "Ġconstant": 2955, "anced": 2956, "}_": 2957, ":[": 2958, "ynam": 2959, "Ġtreatment": 2960, "orem": 2961, "ĠPa": 2962, "Ġturned": 2963, "When": 2964, "Ġann": 2965, "ĠPer": 2966, "Ġsoft": 2967, "ha": 2968, "Type": 2969, "umber": 2970, "Ġbelow": 2971, "71": 2972, "erson": 2973, "Ġmechan": 2974, "ĠÐ³": 2975, "ĠRep": 2976, "NA": 2977, "ĠSee": 2978, "Ġdeal": 2979, "tot": 2980, "opy": 2981, "Ġpattern": 2982, "ega": 2983, "Ġid": 2984, "Ġmakes": 2985, "Ġprofess": 2986, "Ġstep": 2987, "(a": 2988, "irit": 2989, "MC": 2990, "Ġeff": 2991, "Ġtraining": 2992, "Ġoffic": 2993, "Ġworking": 2994, "Ġclaim": 2995, "mselves": 2996, "ĠSci": 2997, ".f": 2998, "84": 2999, "Ġhtt": 3000, "Ġappear": 3001, "ĠNot": 3002, "Ġaccess": 3003, "class": 3004, "acc": 3005, "Ġtherefore": 3006, "=e": 3007, "Ġobtained": 3008, "Ġevent": 3009, "xim": 3010, "Ġthemselves": 3011, "Ġbed": 3012, "centr": 3013, "rug": 3014, "ĠMay": 3015, "Ġhor": 3016, "Ġregard": 3017, "ĠII": 3018, "ĠÃ©": 3019, "-g": 3020, "Ġassociated": 3021, "/t": 3022, "cm": 3023, "urity": 3024, ".)": 3025, "101": 3026, ".jpg": 3027, "Ġliter": 3028, "ney": 3029, "ĠGerm": 3030, "93": 3031, "itting": 3032, "})": 3033, "ĠEl": 3034, "Ġgirl": 3035, "Ġneeded": 3036, "Ġimm": 3037, "ilt": 3038, "Ġ\\{": 3039, "91": 3040, "Ġbehind": 3041, "uous": 3042, "________________": 3043, "ret": 3044, "isc": 3045, "Ġfollows": 3046, "Ġproduction": 3047, "uit": 3048, "ĠWill": 3049, "itch": 3050, "ependent": 3051, "Ġheav": 3052, "ĠAcc": 3053, "Ġdark": 3054, "Ġrat": 3055, "Ġlimit": 3056, "Ġaff": 3057, "lying": 3058, "ili": 3059, "gorith": 3060, "Ġdescribed": 3061, "Ġfunctions": 3062, "verse": 3063, "Ġpositive": 3064, "airs": 3065, "Ġum": 3066, "acy": 3067, "IM": 3068, "190": 3069, "Ġusually": 3070, "bf": 3071, "istics": 3072, "value": 3073, "81": 3074, "uct": 3075, "How": 3076, "120": 3077, "mon": 3078, "Ġbehavior": 3079, "ĠEd": 3080, "à¥": 3081, "ros": 3082, "Ġbegan": 3083, "Ġpri": 3084, "\\\\": 3085, "bert": 3086, "iding": 3087, "Ġtradition": 3088, "Ġconsist": 3089, "astic": 3090, "Ġimag": 3091, "Ġaffect": 3092, "ĠHer": 3093, "Ġexcept": 3094, "Ġneeds": 3095, "Ġestim": 3096, "rap": 3097, "83": 3098, "Ġworks": 3099, ".x": 3100, "Ġdepend": 3101, "bit": 3102, "Ġquite": 3103, "Ġentire": 3104, "Ġnetwork": 3105, "rangle": 3106, "Ġlikely": 3107, "Ġtarget": 3108, "Ġrisk": 3109, "tag": 3110, "ĠFran": 3111, "ĠIN": 3112, "ille": 3113, "_c": 3114, "Ġresponse": 3115, "300": 3116, "Ġsem": 3117, "pm": 3118, "Ġheld": 3119, "Ġequation": 3120, "ais": 3121, "ey": 3122, "Ġdoing": 3123, "ils": 3124, "Ġdemon": 3125, "Ġforce": 3126, "Is": 3127, "PS": 3128, "istance": 3129, "Ġcoll": 3130, "Ġwhose": 3131, "86": 3132, "Ġquick": 3133, "obal": 3134, "([": 3135, "Ġactivity": 3136, "ĠSome": 3137, "erve": 3138, "ields": 3139, "cript": 3140, "Ġcompet": 3141, "Ġsix": 3142, "150": 3143, "Ġgrowth": 3144, "76": 3145, "_p": 3146, "ĠThus": 3147, "ios": 3148, "actions": 3149, "Ġfun": 3150, "ĠCont": 3151, "Ġtemperature": 3152, "82": 3153, "Ġbecame": 3154, "=n": 3155, "aving": 3156, "Ġpersonal": 3157, "lied": 3158, "Us": 3159, "ught": 3160, "ender": 3161, "Ġson": 3162, "like": 3163, "omen": 3164, "(r": 3165, "Ġcle": 3166, "Omega": 3167, "pri": 3168, "Ã¨": 3169, "overed": 3170, "Ġret": 3171, "ĠFigure": 3172, "reen": 3173, "Ġ['": 3174, "with": 3175, "arent": 3176, "ols": 3177, "Ġconcentr": 3178, "Ġpor": 3179, "EM": 3180, "Ġrelig": 3181, "Ġevidence": 3182, "Ġlos": 3183, "Te": 3184, "Ġcheck": 3185, "ĠEnglish": 3186, "Ġrev": 3187, "_loss": 3188, "Ġdat": 3189, "94": 3190, "ites": 3191, "rs": 3192, "umb": 3193, "Ġcreat": 3194, "ĠGu": 3195, "trans": 3196, "Ġslow": 3197, "odes": 3198, "Ġstory": 3199, "ĠRev": 3200, "Ġweek": 3201, "Ġespecially": 3202, "ishing": 3203, ".M": 3204, "resh": 3205, "125": 3206, "Ġparticip": 3207, ".D": 3208, "ring": 3209, "iber": 3210, "tered": 3211, "Ġwall": 3212, "unt": 3213, "Ġcommunic": 3214, "ĠAct": 3215, "hel": 3216, "Ġlevels": 3217, "ĠIm": 3218, "oke": 3219, "vec": 3220, "log": 3221, "Ġdifference": 3222, "-st": 3223, "Ġvoice": 3224, "Ġrelated": 3225, "lement": 3226, "Ã¶": 3227, "Ġ`": 3228, "(x": 3229, "Ġcustom": 3230, "ĠGr": 3231, "Ġcontr": 3232, "AK": 3233, "Ġquestions": 3234, "light": 3235, "Ġsource": 3236, "Ġsyn": 3237, "Ġbelieve": 3238, "ĠDes": 3239, "Ġjud": 3240, "Tr": 3241, "ula": 3242, "Ġfinal": 3243, "ĠDo": 3244, "92": 3245, "128": 3246, "EST": 3247, "Ġbreak": 3248, "abor": 3249, "www": 3250, "Ġcommunity": 3251, "Ġphysical": 3252, "ops": 3253, "arc": 3254, "Ġsqu": 3255, "Ġanswer": 3256, "atively": 3257, "####": 3258, "Ġgave": 3259, "ĠĠĠĠĊ": 3260, "ension": 3261, "Ġattempt": 3262, "ging": 3263, "Ġlonger": 3264, "aries": 3265, "Ġcomplete": 3266, "psi": 3267, "Ġperm": 3268, "earch": 3269, "Ġaverage": 3270, "oved": 3271, "ham": 3272, "],[": 3273, "Ġlines": 3274, "orts": 3275, "rams": 3276, "orks": 3277, "Ġgraph": 3278, "Ġinvestig": 3279, "oul": 3280, "epsilon": 3281, "Ġseries": 3282, "ĠCoun": 3283, "Ġagre": 3284, "Ġdoc": 3285, "aching": 3286, "arily": 3287, "Ġprinc": 3288, "plement": 3289, "Aw": 3290, "Ġpubl": 3291, "ĠAfter": 3292, "aff": 3293, "uration": 3294, "Ġpractice": 3295, "Ġwasn": 3296, "hood": 3297, ".get": 3298, "Ġpredict": 3299, ",i": 3300, "Ġexact": 3301, "frak": 3302, "ieved": 3303, "Ġobserved": 3304, "Ġways": 3305, "mathfrak": 3306, "abel": 3307, "Ġfriend": 3308, "ĠStr": 3309, "AQ": 3310, "Ġsus": 3311, "ĠStud": 3312, "print": 3313, "Ġcause": 3314, "ĠComp": 3315, "Ġintegr": 3316, "alle": 3317, "Ġfactor": 3318, "geq": 3319, "reet": 3320, "Ġmess": 3321, "Ġpsych": 3322, "Ġlooking": 3323, "dro": 3324, "Qu": 3325, "rought": 3326, "ems": 3327, "])": 3328, "Ġprovided": 3329, "cted": 3330, "Ġinput": 3331, "Ġintern": 3332, "UL": 3333, "ĠLondon": 3334, "Ġens": 3335, "ĠDr": 3336, "IR": 3337, "Ġcity": 3338, "Ġcolor": 3339, "dom": 3340, "ev": 3341, "Ġprobably": 3342, "mathsf": 3343, "Ġareas": 3344, "----------------": 3345, "Ġnumbers": 3346, "Ġseems": 3347, "itation": 3348, "Ġpie": 3349, "Ġdemonstr": 3350, "bolds": 3351, "Ġpressure": 3352, "Ġbit": 3353, "wise": 3354, "];": 3355, "001": 3356, "Ġtax": 3357, ",s": 3358, "boldsymbol": 3359, "ony": 3360, "Ġir": 3361, "Ġtaking": 3362, "ste": 3363, "plot": 3364, "->": 3365, "Ġda": 3366, "osis": 3367, "acity": 3368, "QU": 3369, "Ġsimply": 3370, "Ġanaly": 3371, "raction": 3372, "Ind": 3373, "Ġreview": 3374, "aly": 3375, "Ġfactors": 3376, "ĠAf": 3377, "urg": 3378, "ĠAg": 3379, "ĠSim": 3380, "Ġimprove": 3381, "Ġadj": 3382, "ĠInc": 3383, "Ġeducation": 3384, "Ġfund": 3385, "Ġnational": 3386, "Ġcompar": 3387, "Ġpopulation": 3388, "Ġbenef": 3389, "Ġchall": 3390, "ford": 3391, "elling": 3392, "Ġoutside": 3393, "Ġpull": 3394, "Ġlot": 3395, "By": 3396, "Ġteam": 3397, "All": 3398, "Ġaccording": 3399, "Ġgreater": 3400, "ĠMc": 3401, "{C": 3402, "Ġtypes": 3403, "Ġsam": 3404, "rew": 3405, "ministr": 3406, "Ġpolicy": 3407, "iÃ³n": 3408, "Ġattention": 3409, "Ġbring": 3410, "ĠMod": 3411, "Ġexpected": 3412, "Ġten": 3413, "Ġartic": 3414, "pid": 3415, "(s": 3416, "Ġdam": 3417, "Ġcorrect": 3418, "Ġfav": 3419, "AY": 3420, "OC": 3421, "Ġexpression": 3422, "ica": 3423, "110": 3424, "ilos": 3425, "En": 3426, "Ġeconomic": 3427, "Ġquality": 3428, "ror": 3429, "Ġregion": 3430, "Ġcontext": 3431, "Ġsle": 3432, "osition": 3433, "-C": 3434, "Ġhours": 3435, "omp": 3436, "ĠMore": 3437, "Ġdraw": 3438, "Ġphase": 3439, "opt": 3440, "align": 3441, "OW": 3442, "Ġspeak": 3443, "Ġproced": 3444, "varphi": 3445, "Ġstren": 3446, "raft": 3447, "Ġteac": 3448, "tries": 3449, "Ġelements": 3450, "Ġtry": 3451, "ĠJournal": 3452, "ki": 3453, "Ġmach": 3454, "ĠAND": 3455, "Ġfeatures": 3456, "ĠWar": 3457, "Sh": 3458, "Ġsoon": 3459, "cale": 3460, "max": 3461, "Ġfa": 3462, "_f": 3463, "ĠBr": 3464, "Ġmanagement": 3465, "iles": 3466, "ecause": 3467, "ĠPart": 3468, "/d": 3469, "Ġinterpre": 3470, "Ġlearn": 3471, "Ġbasis": 3472, "Ġwritten": 3473, "lege": 3474, "Ġseemed": 3475, "Ġinside": 3476, "Ġincreased": 3477, "Ġsomeone": 3478, "Ġcontent": 3479, "Ġeffective": 3480, "Ġliving": 3481, ".b": 3482, "Ġattack": 3483, "nder": 3484, ".'": 3485, "oud": 3486, "ĠTrans": 3487, "Ġstra": 3488, "ĠMin": 3489, "Ġminutes": 3490, "Ġgas": 3491, "Ġadm": 3492, "index": 3493, "zz": 3494, "Ġimmedi": 3495, "lier": 3496, "Ġcat": 3497, "kn": 3498, "Ġinstead": 3499, "oe": 3500, "inally": 3501, "Ġdisease": 3502, "Ġalgorith": 3503, "anc": 3504, "ĠNational": 3505, "raining": 3506, "111": 3507, "Ġservices": 3508, "Ġlive": 3509, "Ġsituation": 3510, "bor": 3511, "ensive": 3512, "That": 3513, "ĠState": 3514, "ements": 3515, "Ġdeveloped": 3516, "Ġequal": 3517, "sl": 3518, "FIG": 3519, "which": 3520, "ana": 3521, "Ġoriginal": 3522, "date": 3523, "comp": 3524, "const": 3525, "atives": 3526, "ĠHar": 3527, "),Ċ": 3528, "Ġthird": 3529, "itary": 3530, ".pro": 3531, "inger": 3532, "Ġheard": 3533, "Ġfem": 3534, "Ġmaintain": 3535, "mber": 3536, "Ġbal": 3537, "Ġcentury": 3538, "Ġful": 3539, "Ġcount": 3540, "ĠChar": 3541, "Ġunderstanding": 3542, "key": 3543, "nn": 3544, "roke": 3545, "ĠST": 3546, "bra": 3547, "./": 3548, "lib": 3549, "ĠVal": 3550, "ATION": 3551, "Gamma": 3552, "Ġpack": 3553, "Ġtoday": 3554, "Īĺ": 3555, "ĠInt": 3556, "cription": 3557, "Ġelement": 3558, "-M": 3559, "Ġmonths": 3560, "pmb": 3561, "180": 3562, "isions": 3563, "So": 3564, "ĠUs": 3565, "Ġpict": 3566, "ura": 3567, "ĠReg": 3568, "Wh": 3569, "anger": 3570, "iques": 3571, "uly": 3572, "Ġgame": 3573, "Ġmicro": 3574, "ounds": 3575, "Ġincreasing": 3576, "aN": 3577, "Le": 3578, "\")": 3579, "imin": 3580, "Ġeverything": 3581, "hemical": 3582, "iting": 3583, "Ġ(\\": 3584, "Ġfeet": 3585, "ĠDep": 3586, "ocal": 3587, "Ġbase": 3588, "Ġ,Ċ": 3589, "IP": 3590, "Ġimpact": 3591, "102": 3592, "Ġdistance": 3593, "ese": 3594, "Ġhot": 3595, "Ġdirection": 3596, "ancial": 3597, "Se": 3598, "Ġtou": 3599, "cos": 3600, "vant": 3601, "Ġpatient": 3602, "oly": 3603, "ordin": 3604, "overline": 3605, "Ġmatrix": 3606, "ĠPe": 3607, "Ġmeaning": 3608, "=[": 3609, "come": 3610, "Ġhyp": 3611, "hern": 3612, "Ġgives": 3613, "Ġlinear": 3614, "pec": 3615, "Ġsett": 3616, "Ġproperties": 3617, "Ġcreate": 3618, "VV": 3619, "mar": 3620, "Ġconsum": 3621, "-n": 3622, "ett": 3623, "Ġdimens": 3624, "qq": 3625, "iform": 3626, "Ġ${": 3627, "Ġbad": 3628, "rench": 3629, "ded": 3630, "oles": 3631, "ĠBar": 3632, "oo": 3633, "width": 3634, "Ġ{'": 3635, "ington": 3636, "AF": 3637, "{m": 3638, "Ġhom": 3639, "Ġlate": 3640, "Ġreported": 3641, "Ġproperty": 3642, "-based": 3643, "Ġsample": 3644, "Ġbrought": 3645, "Ġrandom": 3646, "Ġfire": 3647, "Ġdecl": 3648, "ivil": 3649, "Ġein": 3650, "Ġdynam": 3651, "Ġessential": 3652, "Ġdecre": 3653, "Ġstay": 3654, "ĠFr": 3655, "Ġconduct": 3656, "Ġfigure": 3657, "âĢĻs": 3658, "iled": 3659, "ĠWorld": 3660, "aches": 3661, "tributed": 3662, "yond": 3663, "Ġinstit": 3664, "ulations": 3665, "Ġmiss": 3666, "\">Ċ": 3667, "Ġsubst": 3668, "Of": 3669, "189": 3670, "leg": 3671, "ulated": 3672, "CE": 3673, "Ġstarted": 3674, "onal": 3675, "Ġopportun": 3676, "Ġevents": 3677, "Ġmodern": 3678, "Ġprint": 3679, "lin": 3680, "Ġforms": 3681, "Ġexperien": 3682, "Ġca": 3683, "Ġviol": 3684, "}^{": 3685, "OP": 3686, "Ġaddress": 3687, "inct": 3688, "Ġhistor": 3689, "Ġwait": 3690, "eneral": 3691, "room": 3692, "Ġissues": 3693, "Ġemer": 3694, "Ġleave": 3695, "Ġprice": 3696, "Ġcomplet": 3697, "ĠSince": 3698, "men": 3699, "Ġsn": 3700, "NS": 3701, "igen": 3702, "asc": 3703, "izes": 3704, "ĠSystem": 3705, ".org": 3706, "Ġproducts": 3707, "']": 3708, "Ġapproxim": 3709, "ellow": 3710, "Ġinvolved": 3711, "Ġavoid": 3712, "Ġactually": 3713, "ĠSm": 3714, "Ġaud": 3715, "Ġparameters": 3716, "ustry": 3717, "Ġassess": 3718, "vey": 3719, "(){": 3720, "Ġconv": 3721, "Ġpan": 3722, "Ġtrying": 3723, "ĠDis": 3724, "Ġalthough": 3725, "Ġalone": 3726, "-B": 3727, "Ġappropri": 3728, "Pl": 3729, "olic": 3730, "Ġoutput": 3731, "Ġcry": 3732, "df": 3733, "ĠLa": 3734, "ĠMon": 3735, "ĠAmerica": 3736, "fill": 3737, "ingu": 3738, "Ġprivate": 3739, "Ġsociety": 3740, "Ġdecision": 3741, "Ġimplement": 3742, "Ġcontact": 3743, ".y": 3744, "uel": 3745, "Ġcountries": 3746, "aint": 3747, "Ġsomet": 3748, "Ġcateg": 3749, "Ġcentral": 3750, "ades": 3751, "Ġcapital": 3752, "400": 3753, "Ġbott": 3754, "AE": 3755, "âĢĺ": 3756, "Ġwrite": 3757, "Ġprevent": 3758, "iment": 3759, "='": 3760, "more": 3761, "Ġeasy": 3762, "ography": 3763, "Ġdig": 3764, "Ġ\\}": 3765, "Ġerror": 3766, "Ã§Ã£o": 3767, "enty": 3768, "Ġreve": 3769, "ato": 3770, ">.": 3771, "Ġcompared": 3772, "Ġmention": 3773, "Ġprovides": 3774, "ĠDav": 3775, "Ġcomes": 3776, "Ġdirectly": 3777, "Ġpage": 3778, "Ġbuilding": 3779, "108": 3780, "Ġdegree": 3781, "langle": 3782, "TA": 3783, "Ġ@": 3784, "Ġtrain": 3785, "Ġprop": 3786, "Ġpresence": 3787, "Ġparts": 3788, "apan": 3789, "Ġapplication": 3790, "%</": 3791, "Ġord": 3792, "{\"": 3793, "ding": 3794, "Ġadded": 3795, "under": 3796, "Ġfollowed": 3797, "Ġlarger": 3798, "used": 3799, "Ġactivities": 3800, "xy": 3801, "ĠAfric": 3802, "Ġlas": 3803, "Ġparticularly": 3804, "iant": 3805, "Ġexpress": 3806, "}}$": 3807, "Ġtakes": 3808, "do": 3809, "Ġhair": 3810, "Ġplant": 3811, "ĠFrom": 3812, "ĠSouth": 3813, "ken": 3814, "Ġdest": 3815, "Ġarch": 3816, "Ġsite": 3817, "etr": 3818, "vis": 3819, "ira": 3820, "Ġdrug": 3821, "Ġinstance": 3822, "New": 3823, "!\"": 3824, "gu": 3825, "Ġdemand": 3826, "Ġindex": 3827, "Ġbroad": 3828, "Ġdro": 3829, "105": 3830, "Col": 3831, "gth": 3832, "Ġprior": 3833, "eds": 3834, "ĠÎ": 3835, "Ġaspect": 3836, "Ġlack": 3837, "BB": 3838, "Ġsch": 3839, "Ġissue": 3840, "187": 3841, "ĠNow": 3842, "chi": 3843, "ĠInternational": 3844, "Ã©s": 3845, "Ġsequence": 3846, "Ġcode": 3847, "()Ċ": 3848, "Ġunit": 3849, "bon": 3850, "Ġspirit": 3851, "import": 3852, "Ġsun": 3853, "Ġ//": 3854, "Ġregular": 3855, "188": 3856, "ternal": 3857, "Ġcouldn": 3858, "Ġlost": 3859, "LA": 3860, ".;": 3861, "Ġaltern": 3862, "Ġspecies": 3863, "Ġnote": 3864, "Ġstri": 3865, ".The": 3866, "itions": 3867, "Ġrecent": 3868, "Ġdetect": 3869, ".P": 3870, "ronic": 3871, "Ġcorresponding": 3872, "inn": 3873, ">(": 3874, "Ġwriting": 3875, "Ġtransform": 3876, "Ġillustr": 3877, "Ġswe": 3878, "ĠGl": 3879, "Ġsometimes": 3880, "Ġprep": 3881, "Ãª": 3882, "140": 3883, "Ġmillion": 3884, "Ġscale": 3885, "Ġnumer": 3886, "Ġaw": 3887, "Ġinj": 3888, "Ġep": 3889, "_n": 3890, ",âĢĿ": 3891, "Ġbir": 3892, "ferences": 3893, "ights": 3894, "px": 3895, "ĠNorth": 3896, "era": 3897, "Ġbeaut": 3898, "Ġinfluence": 3899, "Ġpresented": 3900, "(this": 3901, "/m": 3902, "Ġsearch": 3903, "adem": 3904, "Ad": 3905, "emb": 3906, "103": 3907, "ancy": 3908, "Be": 3909, "Ġtruth": 3910, "Ġtown": 3911, "Ġexec": 3912, "othes": 3913, "ĠWest": 3914, "Ġpour": 3915, "ares": 3916, "aling": 3917, "Ġdensity": 3918, "Ġrespectively": 3919, "ĠEr": 3920, "anks": 3921, "Ġvolume": 3922, "Ġax": 3923, "ming": 3924, "Ġbecomes": 3925, "Ġmusic": 3926, "Ġthinking": 3927, "ĠKing": 3928, "ĠChristian": 3929, "ials": 3930, "Ġmole": 3931, "Ġcolumn": 3932, "oin": 3933, "oat": 3934, "clus": 3935, "Ġrepl": 3936, "-to": 3937, "dered": 3938, "ĠMat": 3939, "igr": 3940, "ĠCons": 3941, ":#": 3942, "/st": 3943, "(var": 3944, "Ġshare": 3945, "Ġcamp": 3946, "eks": 3947, "change": 3948, "ij": 3949, "Ġperhaps": 3950, "och": 3951, "OG": 3952, "estern": 3953, "Ġforward": 3954, "Ġdoesn": 3955, "TH": 3956, "Ġ{\"": 3957, "Ġcover": 3958, "Or": 3959, "Ġnuc": 3960, "urt": 3961, "Ġhear": 3962, "duc": 3963, "oon": 3964, "Ġchoice": 3965, "250": 3966, "Ġaccuracy": 3967, "Ġcoming": 3968, "Ġbasic": 3969, "Ġcompan": 3970, "Ġengine": 3971, "Ġmulti": 3972, ".L": 3973, "Ġapplied": 3974, ".R": 3975, "Ġweak": 3976, "109": 3977, "Ġacid": 3978, "Ġtor": 3979, "Ġblock": 3980, "Ġeth": 3981, "Ġdead": 3982, "Ġmap": 3983, "ading": 3984, "SS": 3985, "oted": 3986, "ĠBritish": 3987, "Ġability": 3988, "Ġdetermined": 3989, "itte": 3990, "Ġ$^": 3991, "Ġconstit": 3992, "UN": 3993, "totype": 3994, "fort": 3995, "Ġbeyond": 3996, "186": 3997, "Ġparents": 3998, ",l": 3999, "ĠĠĠĠĠĠĠĠĠĠ": 4000, "Id": 4001, "Ġgetting": 4002, "Ġadditional": 4003, "top": 4004, "Ġfram": 4005, "box": 4006, "gment": 4007, ".n": 4008, "-e": 4009, "ico": 4010, "za": 4011, "203": 4012, "ĠRec": 4013, "Ġconstruct": 4014, "Ġextrem": 4015, "Ġmultiple": 4016, "Ġmyself": 4017, "ĠFl": 4018, "hr": 4019, "IE": 4020, "Ġnegative": 4021, "Ġindividuals": 4022, "Ġpurpose": 4023, "104": 4024, "ship": 4025, "ffe": 4026, "Ġemot": 4027, "Ġhope": 4028, "Ġmer": 4029, "ĠAc": 4030, "Ġmiddle": 4031, "Ġfriends": 4032, "Ġperfect": 4033, "rely": 4034, "_m": 4035, "ĠTable": 4036, "Ġstress": 4037, "-y": 4038, "Ġfear": 4039, "ĠPres": 4040, "ĠFirst": 4041, "Ġpick": 4042, "Ġled": 4043, "Ġbox": 4044, "ĠResearch": 4045, "Ġoffice": 4046, "etry": 4047, "Ġmut": 4048, "Ġcapt": 4049, "aged": 4050, "Ġhab": 4051, "Ġcenter": 4052, ".:": 4053, "Ġcard": 4054, "Ġautom": 4055, "Ġwatch": 4056, "###": 4057, "],Ċ": 4058, "UM": 4059, "ously": 4060, "Ġtowards": 4061, "undred": 4062, "135": 4063, "Ġgenerally": 4064, "Ġtas": 4065, "Ġqual": 4066, "Let": 4067, "With": 4068, "Ġculture": 4069, "Ġheat": 4070, ".h": 4071, "Ġscient": 4072, "ĠCH": 4073, "ldots": 4074, "Ġdra": 4075, "ership": 4076, "ĠEm": 4077, "ogen": 4078, "Ġincluded": 4079, "rightarrow": 4080, "ĠWilliam": 4081, "Ġreceived": 4082, "ĠJan": 4083, "Ġtransl": 4084, "Ġstage": 4085, "Ġfoot": 4086, "Ps": 4087, "Ġuseful": 4088, "Ġmis": 4089, "ara": 4090, "enth": 4091, "Ġearlier": 4092, "Ġlink": 4093, "Gl": 4094, "LT": 4095, "ĠServ": 4096, "Ġstrength": 4097, "allel": 4098, "124": 4099, "Ġpoor": 4100, "orph": 4101, "YX": 4102, "=r": 4103, "800": 4104, "Ġevalu": 4105, "['": 4106, "ests": 4107, "from": 4108, "tex": 4109, "alt": 4110, "dots": 4111, ".B": 4112, "Ġbur": 4113, "Ġmovement": 4114, "Ġproduced": 4115, "Ġunc": 4116, "Ġtask": 4117, "Ġconvers": 4118, "Ġchapter": 4119, "-P": 4120, "Ġcritical": 4121, "FB": 4122, "icht": 4123, "Ġwrong": 4124, "augh": 4125, "'.": 4126, "va": 4127, "Ġuser": 4128, "Ġstop": 4129, "ching": 4130, "Ġsurpr": 4131, "rum": 4132, "clusion": 4133, "Ġprocesses": 4134, "Ġnorm": 4135, "ĠRuss": 4136, "phas": 4137, "IB": 4138, "aled": 4139, "255": 4140, "Ġtend": 4141, "isms": 4142, "Ġconsequ": 4143, "Ġindependent": 4144, "Ġserious": 4145, "Ġshape": 4146, "sin": 4147, "Ġvalid": 4148, ",c": 4149, "Ġones": 4150, ".-": 4151, "ospital": 4152, "Array": 4153, "107": 4154, "Ġslight": 4155, "ĠHist": 4156, "160": 4157, "Ġtried": 4158, "ords": 4159, "hemat": 4160, ".push": 4161, "ĠPat": 4162, "Ġcorrel": 4163, "ida": 4164, "Ġmorning": 4165, "(c": 4166, ".J": 4167, "Ġrefer": 4168, "127": 4169, "ZW": 4170, "tributes": 4171, "Ġacqu": 4172, "Ġmag": 4173, "130": 4174, "ka": 4175, "Ġconver": 4176, "Ġeasily": 4177, "Ġlabor": 4178, "omy": 4179, "121": 4180, "Ġfile": 4181, "}(": 4182, "ĠâĢĺ": 4183, "Ġcourt": 4184, "106": 4185, "oman": 4186, "fin": 4187, ":{": 4188, "tation": 4189, "Ġoffer": 4190, "Ġmit": 4191, "Ġindustry": 4192, "ĠBer": 4193, "Ġzero": 4194, "joy": 4195, "ufact": 4196, "upp": 4197, "cles": 4198, "Ġfast": 4199, "olar": 4200, "lim": 4201, "Ġinform": 4202, ",-": 4203, "ĠBo": 4204, "ĠEar": 4205, "Ax": 4206, "Ġroad": 4207, "Ġetc": 4208, "Ġrelation": 4209, "ĠĠĠĠĠĠĠĠĠĠĠĠĠĠĠĠĠĠĠ": 4210, "ĠSection": 4211, "Ġproposed": 4212, "https": 4213, "ĠPre": 4214, "Ġneigh": 4215, "Ġbackground": 4216, "Ġfixed": 4217, "inks": 4218, "Ġdifferences": 4219, "ript": 4220, "Ġround": 4221, "iot": 4222, "Ġwave": 4223, "iling": 4224, "Ġrepe": 4225, "ayer": 4226, "ĠJapan": 4227, "ety": 4228, "::": 4229, "ctors": 4230, "112": 4231, "Ġfinancial": 4232, "orge": 4233, "exp": 4234, "Ob": 4235, "122": 4236, "urrent": 4237, "itable": 4238, "ias": 4239, "Ġexerc": 4240, "(i": 4241, "ception": 4242, "Ġrule": 4243, "Ġwide": 4244, "Ġcontrast": 4245, "ideo": 4246, "my": 4247, "========================": 4248, "115": 4249, "185": 4250, "Yes": 4251, "Ġcontract": 4252, "-D": 4253, "Ġbeginning": 4254, "ĠCommun": 4255, "ĠFrench": 4256, "Ġparty": 4257, "Ġrights": 4258, "Ġspeed": 4259, "Ġnam": 4260, "that": 4261, "FF": 4262, "king": 4263, "ibrary": 4264, "book": 4265, "Oh": 4266, "âĢĵ": 4267, "ĠMark": 4268, "stitute": 4269, "Ġdetermine": 4270, "Ġreading": 4271, "Ġlif": 4272, "ĠCour": 4273, "Ġdog": 4274, "Ġproduce": 4275, "OV": 4276, "known": 4277, "rapy": 4278, "Ġmemory": 4279, "(),": 4280, "race": 4281, "Ġappropriate": 4282, "istry": 4283, "117": 4284, "Bl": 4285, "bG": 4286, "iency": 4287, "berg": 4288, "omas": 4289, "Ġlimited": 4290, "Ġmouth": 4291, "Ġphilos": 4292, "Ġimpl": 4293, "Ġinternational": 4294, "mark": 4295, "+\"": 4296, "Ġanim": 4297, "Ġglobal": 4298, "ĠWhile": 4299, "/c": 4300, "Ġclin": 4301, "Ġnor": 4302, "Ġadvant": 4303, "======": 4304, "One": 4305, "ports": 4306, "Ġresources": 4307, "Ġsleep": 4308, "Ġclosed": 4309, "Table": 4310, "pite": 4311, "Ġrates": 4312, "ĠAlthough": 4313, "omb": 4314, "Ġflu": 4315, "Ġcreated": 4316, "Ġvariables": 4317, "ante": 4318, "AV": 4319, "Ġtrou": 4320, "bb": 4321, "Ġfit": 4322, "EP": 4323, "Ġhon": 4324, "ny": 4325, "Ġbooks": 4326, "Ġprimary": 4327, "********": 4328, "Ġquickly": 4329, "123": 4330, "-r": 4331, "rote": 4332, "ĠOther": 4333, "Ġsort": 4334, "Ġemp": 4335, "IH": 4336, "Ġinn": 4337, ".E": 4338, "Ġcarry": 4339, "attle": 4340, "Ġearth": 4341, "Ġren": 4342, "Ġprobability": 4343, "OU": 4344, "ĠAug": 4345, "âĢ¢": 4346, "Ġtree": 4347, "Str": 4348, "band": 4349, "Ġextra": 4350, "ech": 4351, "={": 4352, "ially": 4353, "Ġrecomm": 4354, "ults": 4355, "Ġhundred": 4356, "Ġvia": 4357, "Ġstru": 4358, "ĠAng": 4359, "Ġclearly": 4360, "chen": 4361, "Ġkept": 4362, "ĠChapter": 4363, "Ġstraight": 4364, "---": 4365, "Ġvector": 4366, "Ġfrequency": 4367, "600": 4368, "Ġremember": 4369, "Ġ[========================": 4370, "Ġreached": 4371, "Ġphen": 4372, "Ġago": 4373, "Ġsteps": 4374, "ession": 4375, "appa": 4376, "Ġrelative": 4377, "Ġsurv": 4378, "Ġwood": 4379, "ĠHere": 4380, "-A": 4381, "iers": 4382, "Ġpen": 4383, "Ġcontains": 4384, "Ġpret": 4385, "Ġsymb": 4386, "Ġimages": 4387, "uman": 4388, "Ġcomputer": 4389, "Ġideas": 4390, "Ġestablished": 4391, "cap": 4392, "ĠAssoci": 4393, "ĠNone": 4394, "Ġfeature": 4395, "Ġdiscussed": 4396, "Ġfine": 4397, "Ġfair": 4398, "sec": 4399, "aily": 4400, "Ai": 4401, "Ġnull": 4402, "Ġmaximum": 4403, "ĠLord": 4404, "Ġreaction": 4405, "iful": 4406, "ERS": 4407, "pa": 4408, "ulate": 4409, "======]": 4410, "Ġ[==============================]": 4411, "eration": 4412, "EF": 4413, "ĠJust": 4414, "ĠPaul": 4415, "Ġpublished": 4416, ",o": 4417, "Ġbreath": 4418, "ĠEven": 4419, "116": 4420, "Ġstrict": 4421, ",the": 4422, "Ġequival": 4423, "Ã¼r": 4424, "ĠScience": 4425, "itz": 4426, "Ġachieve": 4427, "Ġshowed": 4428, "Ġhost": 4429, "Ġcomponents": 4430, "Ġfirm": 4431, "TS": 4432, "ando": 4433, "Ġcred": 4434, "tribute": 4435, "asons": 4436, "Ġgone": 4437, "Ġindu": 4438, "Ġremain": 4439, "Ġadministr": 4440, "Ġvirt": 4441, "Ġeight": 4442, "Ġbrother": 4443, "Ġfat": 4444, "Ġcosts": 4445, "_id": 4446, "184": 4447, "Ġfeed": 4448, "lig": 4449, "test": 4450, "Ġproof": 4451, "):Ċ": 4452, "Ġsuff": 4453, "Ġball": 4454, "ĠTherefore": 4455, "114": 4456, "113": 4457, "Ġtransfer": 4458, "Ġwhom": 4459, "Ġdas": 4460, "ĠJe": 4461, "vere": 4462, "ifying": 4463, "izations": 4464, "uls": 4465, "ooth": 4466, "Ġratio": 4467, "Ġtrade": 4468, "NG": 4469, "stroke": 4470, "Ġcru": 4471, "Ġlives": 4472, "Ġtele": 4473, "Ġclean": 4474, "Ġleading": 4475, "Ġrules": 4476, "Ġmaterials": 4477, "ederal": 4478, "point": 4479, "flict": 4480, "estion": 4481, "Ġblue": 4482, "ibly": 4483, "Ġsold": 4484, "Ġoil": 4485, "ĠInter": 4486, "Ġcharge": 4487, "157": 4488, "ĠMor": 4489, "ĠSw": 4490, "ager": 4491, "url": 4492, "wide": 4493, "vention": 4494, "Ġaim": 4495, "overn": 4496, "Ġmoved": 4497, "oring": 4498, "Ġhydro": 4499, "Ġobjects": 4500, "ama": 4501, "Ġpopular": 4502, "Ġtravel": 4503, "Ġscience": 4504, "hens": 4505, "Ġmid": 4506, "Ġcontain": 4507, "Ġprogress": 4508, "pling": 4509, "Now": 4510, "XS": 4511, "Ġorganization": 4512, "PR": 4513, "link": 4514, "Ġfeeling": 4515, "Ġversion": 4516, "Ġcontinued": 4517, "ocks": 4518, "\\*": 4519, "Ġcommand": 4520, "Ġglass": 4521, "Ġalgorithm": 4522, "ellig": 4523, "Ġskin": 4524, "Ġvariable": 4525, "Ġplus": 4526, "ja": 4527, "ĠLaw": 4528, "Ġspl": 4529, "EB": 4530, "118": 4531, "Ġimportance": 4532, "Ġtechnology": 4533, "Ġworth": 4534, "Ġvel": 4535, "Phi": 4536, "\").": 4537, "Ġassign": 4538, "Ġdate": 4539, "etric": 4540, "Ġoptim": 4541, "Ġactive": 4542, "ĠRel": 4543, "Data": 4544, "Ġobvious": 4545, "_b": 4546, "Ġdocument": 4547, "ĠTra": 4548, "Ne": 4549, "Ġequations": 4550, "Ġappears": 4551, "Pr": 4552, "Ġreference": 4553, "ĠSchool": 4554, "ĠChurch": 4555, "axis": 4556, "Ġenjoy": 4557, "ĠOur": 4558, "Ġcit": 4559, "tes": 4560, "ĠAust": 4561, "pective": 4562, "Ġune": 4563, "Ġbuilt": 4564, "=(": 4565, "333": 4566, "Ġgrand": 4567, "Ġtrust": 4568, "Ġrestr": 4569, "}_{": 4570, "Ġband": 4571, "Ġsolutions": 4572, "encies": 4573, "MA": 4574, "126": 4575, "sb": 4576, "Ġmedical": 4577, ".w": 4578, "ĠTechn": 4579, "Ġthroughout": 4580, "Ġsources": 4581, "Ġsufficient": 4582, "la": 4583, "sis": 4584, "PP": 4585, "Ġboy": 4586, "asure": 4587, "Ġfloor": 4588, "Ġsto": 4589, "Ġactual": 4590, "Ġcand": 4591, "ĠEq": 4592, "Ġedge": 4593, "Ġdiscussion": 4594, "amin": 4595, "Ġchann": 4596, "ountain": 4597, "Ġtransm": 4598, "ya": 4599, "-H": 4600, "Ġstudent": 4601, "Ġunique": 4602, "ca": 4603, "Ġfig": 4604, "ĠBro": 4605, "119": 4606, "Ġcompletely": 4607, "Ġhighly": 4608, "Ġemphas": 4609, "unch": 4610, "CR": 4611, "ĠCity": 4612, "requ": 4613, "Ġdetails": 4614, "Ġfaith": 4615, "Ġsecurity": 4616, "ĠEngland": 4617, "works": 4618, "Ġcold": 4619, "Ġtitle": 4620, "ategy": 4621, "ixt": 4622, "onic": 4623, "amm": 4624, "Ġreduced": 4625, "Ġarms": 4626, "Ġdomin": 4627, "abla": 4628, "Ġwonder": 4629, "Bb": 4630, "They": 4631, "Ġcollect": 4632, "rupt": 4633, "ridge": 4634, "Ġready": 4635, "ĠĠĠĠĠĠĠĠĠĠĠĠĠ": 4636, "Ġselect": 4637, "Ġdefinition": 4638, "kappa": 4639, "-up": 4640, "Ġfinally": 4641, "fo": 4642, "Ġdiss": 4643, "ago": 4644, "Ġrespond": 4645, "EG": 4646, "$$": 4647, "Ġformer": 4648, "Ġstrateg": 4649, "osen": 4650, "ashington": 4651, "Ġgreen": 4652, "Ġthreat": 4653, "gar": 4654, "')Ċ": 4655, "ĠEuropean": 4656, "ustrial": 4657, "Ġou": 4658, "ĠSer": 4659, "Ġforeign": 4660, "Ġwindow": 4661, "Ġenter": 4662, "itors": 4663, "raint": 4664, "Ġrapid": 4665, "Do": 4666, "Not": 4667, "ams": 4668, "asion": 4669, "Ġrequires": 4670, "agement": 4671, "Ġfields": 4672, "ocation": 4673, "Ġsecret": 4674, "icle": 4675, "Ġsud": 4676, "gs": 4677, "aur": 4678, "Ġexactly": 4679, "EX": 4680, "002": 4681, "183": 4682, "unk": 4683, "Ġvon": 4684, "Ġrunning": 4685, "gn": 4686, "Ġparameter": 4687, "http": 4688, "ĠVol": 4689, "})$": 4690, "].Ċ": 4691, "Ġnovel": 4692, "(b": 4693, "Ġcarried": 4694, "Ġfilm": 4695, "ĠGeneral": 4696, "Ġvan": 4697, "alled": 4698, "Ġeye": 4699, "zo": 4700, "Ġexamples": 4701, "REF": 4702, "Ġenh": 4703, "Ġtechniques": 4704, "Ġdouble": 4705, "Ġdisplay": 4706, "Ġstatement": 4707, "rab": 4708, "Big": 4709, "ĠChina": 4710, "omin": 4711, "Ġdesigned": 4712, "Ġreflect": 4713, "arp": 4714, "ipment": 4715, "Ġbrain": 4716, "/f": 4717, "CD": 4718, "ĠLoss": 4719, "illing": 4720, "aded": 4721, "Ġuses": 4722, "Ġsmaller": 4723, "Ġroll": 4724, "\",Ċ": 4725, "well": 4726, "Ġthick": 4727, "Ġdefine": 4728, "Ġremains": 4729, "Ġletter": 4730, "Ġstatus": 4731, "Ġ!": 4732, "Name": 4733, "Ġcontroll": 4734, "Ġharm": 4735, "Lambda": 4736, "ĠSupp": 4737, "Ġpoly": 4738, "ĠInst": 4739, "Ġprograms": 4740, "Ġsudden": 4741, "ittee": 4742, "-se": 4743, "itect": 4744, ",h": 4745, "Ġign": 4746, "rec": 4747, "ba": 4748, "uge": 4749, "Ġencou": 4750, "Ġpair": 4751, "Ġperformed": 4752, "OH": 4753, "ĠDepartment": 4754, "181": 4755, "aging": 4756, ",d": 4757, ".F": 4758, "inner": 4759, "((": 4760, "AI": 4761, ".)Ċ": 4762, "CI": 4763, "wards": 4764, "Ġcontinuous": 4765, "ette": 4766, "Ġfight": 4767, "zy": 4768, "Ġchanged": 4769, "Ġthous": 4770, "Ġargument": 4771, "ĠHouse": 4772, "Ġbank": 4773, "Ġsignal": 4774, "ache": 4775, "Ġanyone": 4776, "ube": 4777, "Ġadapt": 4778, "Ġimmediately": 4779, "isation": 4780, "nabla": 4781, "iny": 4782, "ĠOf": 4783, "Ġdiag": 4784, "Ġmotion": 4785, "Ġexists": 4786, "/step": 4787, "Ġapplications": 4788, "}},": 4789, "Ġplaced": 4790, "Ġwarm": 4791, "Ġhappened": 4792, "Ġcounter": 4793, "Ġcoe": 4794, "gram": 4795, "Ġassume": 4796, "Ġbond": 4797, "vision": 4798, "tributions": 4799, "Ġfully": 4800, "/b": 4801, "Ġsolid": 4802, "Ġbab": 4803, "ĠAnn": 4804, "Ġcam": 4805, "yr": 4806, "Ġprotect": 4807, ".H": 4808, "Ġmoving": 4809, "Ġweeks": 4810, "Ġfalse": 4811, "Ġallowed": 4812, "Ġvariety": 4813, "Ġchalleng": 4814, "ns": 4815, "apers": 4816, "wood": 4817, "Ġsets": 4818, "Ġreligious": 4819, "iable": 4820, "Ġschem": 4821, "Ġliterature": 4822, "Ġorigin": 4823, "mail": 4824, "Ġupper": 4825, "-align": 4826, "Ġforces": 4827, "Ġclust": 4828, "roy": 4829, "Ġcontinue": 4830, "ĠĠĠĠĠĠĠĠĠĠĠĠ": 4831, "\";": 4832, "ĠĠĠĠĠĠĠĠĠĠĠĠĠĠĠĠĠĠĠĠĠĠĠ": 4833, "rage": 4834, ".set": 4835, "[i": 4836, "Ġbran": 4837, "170": 4838, "ĠComput": 4839, "rc": 4840, "Ġhttps": 4841, "icit": 4842, "edom": 4843, "Ġcomponent": 4844, "Ġarray": 4845, "Ġ%": 4846, "icon": 4847, "ipal": 4848, "empl": 4849, "Ġspread": 4850, "urance": 4851, "ĠAut": 4852, "hold": 4853, "Ġvict": 4854, "ĠTheorem": 4855, "Ġstim": 4856, "Ġgold": 4857, "ĠHealth": 4858, "Val": 4859, "Res": 4860, "Ġoccup": 4861, "Ġoperation": 4862, "Ġmeeting": 4863, "Ġstar": 4864, "Ġdivid": 4865, "Ġyourself": 4866, "ĠBook": 4867, "Ġutil": 4868, "Ġreach": 4869, "Ġcompanies": 4870, "ĠOct": 4871, "TR": 4872, "Ġgiving": 4873, "Ġsaying": 4874, "Ġallows": 4875, "AH": 4876, "Ġcompl": 4877, "Ġexperiment": 4878, "Ġunits": 4879, "Ġhyper": 4880, "mat": 4881, "ilde": 4882, "ĠEduc": 4883, "atever": 4884, "otal": 4885, "ĠDavid": 4886, "ĠBlack": 4887, "Ab": 4888, "Ġlegal": 4889, "Ġworkers": 4890, "375": 4891, "antic": 4892, "Ġpassed": 4893, "Ġmeasured": 4894, "fig": 4895, "Ġcup": 4896, "Ġwat": 4897, "Ġmanufact": 4898, "Ġdream": 4899, "inding": 4900, "Ġcommunication": 4901, "Ġdiff": 4902, "Ġincludes": 4903, "aset": 4904, "field": 4905, "Ġlatter": 4906, "Ġconstruction": 4907, "Ġsym": 4908, "Ġmedia": 4909, "Ġsamples": 4910, "ĠJames": 4911, "BC": 4912, "Ġstaff": 4913, "Ġsaf": 4914, "-L": 4915, "Ġmember": 4916, "Ġworked": 4917, "iance": 4918, "Ġeveryone": 4919, "ĠLi": 4920, "ophy": 4921, "cular": 4922, "179": 4923, "Ġstock": 4924, "ao": 4925, "uary": 4926, "iat": 4927, "129": 4928, "ĠSub": 4929, "Ġlayer": 4930, "Ġsetting": 4931, "/l": 4932, "ĠGerman": 4933, "SE": 4934, "ĠMich": 4935, "Ġrob": 4936, "Ġnearly": 4937, "Ġnod": 4938, "ees": 4939, "\\t": 4940, "emma": 4941, "/w": 4942, "Ġbelong": 4943, "Ġdeb": 4944, "Ġmilitary": 4945, "Ġpicture": 4946, "ih": 4947, "elled": 4948, "Ġapply": 4949, "Ġbul": 4950, "Ġ==": 4951, "TER": 4952, "Ġsymm": 4953, "zen": 4954, "umin": 4955, "map": 4956, "term": 4957, "182": 4958, "Ġcas": 4959, "-F": 4960, "ework": 4961, "Ġhour": 4962, "nel": 4963, "131": 4964, "Ġpow": 4965, "Ġsitu": 4966, "Ġconflict": 4967, "Ġgradu": 4968, "crete": 4969, "ris": 4970, "ries": 4971, "Ġcircum": 4972, "Ġexistence": 4973, "orrow": 4974, "ael": 4975, "cient": 4976, "ĠWhy": 4977, "Ġdistinct": 4978, "ears": 4979, "cast": 4980, "gebra": 4981, "Ġhttp": 4982, "Ġmeant": 4983, "Ġabsol": 4984, "Ġemb": 4985, "Ġtransport": 4986, "SI": 4987, "Ġprotein": 4988, "comm": 4989, "ĪĴ": 4990, "Ġinteresting": 4991, "ZX": 4992, "Ġinternal": 4993, "iring": 4994, "ĠRich": 4995, "start": 4996, "Ġrelatively": 4997, "Ġveloc": 4998, "su": 4999, "Ġfavor": 5000, "Ġinteraction": 5001, "Ġaccom": 5002, "ensor": 5003, "Ġsea": 5004, "Ġnews": 5005, "Ġwid": 5006, "void": 5007, "ady": 5008, "ĠHol": 5009, "active": 5010, "ĠApr": 5011, "ĠCalif": 5012, "ads": 5013, "Ġgoes": 5014, "odies": 5015, "ĠSociety": 5016, "Ġvisual": 5017, "Ġtraditional": 5018, "roph": 5019, "Ġstructures": 5020, "Ġbuy": 5021, "Ġcaused": 5022, "Ġchoose": 5023, "SP": 5024, "139": 5025, "subset": 5026, "yd": 5027, "Ġpurch": 5028, "iveness": 5029, "ĠSam": 5030, "}{\\": 5031, "enge": 5032, "144": 5033, "159": 5034, "Ġskills": 5035, "level": 5036, "inci": 5037, "Ġonto": 5038, "Ġbes": 5039, "irect": 5040, "Ġdiagn": 5041, "Ġmachine": 5042, "des": 5043, "Ġopin": 5044, "175": 5045, "Ġbehavi": 5046, "ef": 5047, "/p": 5048, "Ġapparent": 5049, "ML": 5050, "wid": 5051, "Ġsquare": 5052, "-con": 5053, ".ex": 5054, "otic": 5055, "Then": 5056, "icted": 5057, "osite": 5058, "Ġerr": 5059, "ĠDon": 5060, "151": 5061, "vest": 5062, "MOD": 5063, "152": 5064, "idden": 5065, "Ġextract": 5066, "what": 5067, "Ġbrief": 5068, ":h": 5069, "ĠVer": 5070, "Ġ**": 5071, "Ġwouldn": 5072, "Ġreduce": 5073, "Ġincome": 5074, "Ġwrote": 5075, "NN": 5076, "Ġformation": 5077, "ĠEv": 5078, "...Ċ": 5079, "ĠChe": 5080, "Ġcharg": 5081, "kin": 5082, "ĠdÃ©": 5083, "Ġdecided": 5084, "ĠFurther": 5085, "ui": 5086, "ĠHigh": 5087, "ĠData": 5088, "Ġhop": 5089, "Ġsignificantly": 5090, "142": 5091, "Ġevolution": 5092, "Sigma": 5093, "Cont": 5094, "ĠSan": 5095, "oma": 5096, "Ġheavy": 5097, "ĠAp": 5098, "Ġindeed": 5099, "otimes": 5100, "From": 5101, "Ġincreases": 5102, "pers": 5103, "ĠYour": 5104, "ushed": 5105, "ls": 5106, "Ġphone": 5107, "ĠPark": 5108, "ĠJune": 5109, "-re": 5110, "inese": 5111, "Ġreasons": 5112, "Ġeffort": 5113, "Ġfinite": 5114, "Ġexplain": 5115, "ĠMus": 5116, "136": 5117, "_g": 5118, "rows": 5119, "RI": 5120, "&#": 5121, "ita": 5122, "Ġprocedure": 5123, "Ġstring": 5124, "clude": 5125, "Ġdanger": 5126, "atin": 5127, "ayout": 5128, "Ġuna": 5129, ",f": 5130, "isl": 5131, "CA": 5132, "Ġproport": 5133, "idge": 5134, ".r": 5135, "Ġchance": 5136, "Ġhar": 5137, "MP": 5138, "can": 5139, "133": 5140, "Ġpas": 5141, "-Ċ": 5142, "Ġult": 5143, "jection": 5144, "iced": 5145, "132": 5146, "204": 5147, "ĠRed": 5148, "Ġprove": 5149, "ĠHam": 5150, "umer": 5151, "Ġpal": 5152, "DS": 5153, "Ġtwenty": 5154, "Ġstrategy": 5155, "lease": 5156, "Ġmessage": 5157, "Ġquantum": 5158, "ipp": 5159, "ilies": 5160, "Ġarrang": 5161, "ete": 5162, "Ġmeasures": 5163, "))Ċ": 5164, "156": 5165, "ĠSocial": 5166, "abil": 5167, "ĠMiss": 5168, "Ġnames": 5169, "atus": 5170, "Ġeffic": 5171, "166": 5172, "MG": 5173, "Ġactions": 5174, "ava": 5175, "ĠEast": 5176, "rite": 5177, "Ġburn": 5178, "ĠMost": 5179, "ĠMac": 5180, "337": 5181, "html": 5182, "ĠFe": 5183, "isted": 5184, "riage": 5185, "Ġunivers": 5186, "Ġcultural": 5187, "Am": 5188, "ĠBecause": 5189, "Ġspin": 5190, "ria": 5191, ",p": 5192, ":t": 5193, "Ġadjust": 5194, "Ġopened": 5195, "Ġ--": 5196, "irty": 5197, "Ġzu": 5198, "Ġpure": 5199, "cup": 5200, "Ġprofessional": 5201, "143": 5202, "Ġtransition": 5203, "Ġsales": 5204, "-T": 5205, "Ġcook": 5206, "ĠTest": 5207, "else": 5208, "amental": 5209, "ĠSur": 5210, "145": 5211, "153": 5212, "Ġmanner": 5213, "empor": 5214, "ancing": 5215, "ĠWashington": 5216, "Ġbirth": 5217, "ude": 5218, "vi": 5219, ";stroke": 5220, "141": 5221, "QQ": 5222, "Ã±": 5223, "-year": 5224, "Ġlabel": 5225, "Ġbill": 5226, "ĠEqu": 5227, "Ġfif": 5228, "aker": 5229, "ĠBi": 5230, "ander": 5231, "171": 5232, "Ġinteg": 5233, "178": 5234, "CL": 5235, "ĠIndian": 5236, "ĠOb": 5237, "Ġheight": 5238, "Ġestablish": 5239, "Ġ$^{": 5240, "Ġbelief": 5241, "Ġprepar": 5242, "qquad": 5243, ",M": 5244, "Ġdrink": 5245, "Ġintroduced": 5246, "138": 5247, "Ġanimals": 5248, "force": 5249, "Ġchemical": 5250, "=a": 5251, "Ġplaces": 5252, ".âĢĿ": 5253, "(l": 5254, "ĠFrance": 5255, "ua": 5256, "Ġnoted": 5257, "-R": 5258, "........": 5259, "-G": 5260, "Ġarticle": 5261, "Ġcapacity": 5262, "Ġnoise": 5263, ".T": 5264, "================================": 5265, "Ġsin": 5266, "Ġtiss": 5267, "Ġidentified": 5268, "Mi": 5269, "nes": 5270, "ĠTwo": 5271, "(f": 5272, "ras": 5273, "ario": 5274, "Ġcool": 5275, "ĠArt": 5276, "Ġsuggested": 5277, "ober": 5278, "aciÃ³n": 5279, "abs": 5280, "ĠSept": 5281, "ĠIII": 5282, "ornia": 5283, "Ġabsor": 5284, "Ġdry": 5285, "Ġneut": 5286, "Ġidentity": 5287, "Ġpiece": 5288, "-of": 5289, "161": 5290, "010": 5291, "Ġgoal": 5292, "oi": 5293, "ĠEach": 5294, ".W": 5295, "Ġincor": 5296, "875": 5297, "Ed": 5298, "Ġrise": 5299, "Ġsuccessful": 5300, "ĠAugust": 5301, "mercial": 5302, "Ġbottom": 5303, "(d": 5304, "-th": 5305, "nce": 5306, "Ġlocation": 5307, "625": 5308, "Ġsac": 5309, "155": 5310, "Ġboard": 5311, "}$Ċ": 5312, "Ġclasses": 5313, "Ġlearned": 5314, "fered": 5315, "Ġdoubt": 5316, "Ġimplic": 5317, "Az": 5318, "frame": 5319, "Ġmentioned": 5320, "Ġmanif": 5321, "Ġwa": 5322, "Ġformed": 5323, "Ġisn": 5324, "ĠGo": 5325, "Ġcop": 5326, "gress": 5327, "Ġhous": 5328, "Ġoperations": 5329, "imensional": 5330, "Ġrelevant": 5331, "hest": 5332, "168": 5333, "YT": 5334, "Ġseparate": 5335, "Ġappeared": 5336, "177": 5337, "ĠProf": 5338, "âĢĶthe": 5339, "Ġpages": 5340, "widet": 5341, "widetilde": 5342, "Com": 5343, "137": 5344, "Ġwish": 5345, "Ġresid": 5346, "ĠHen": 5347, "Ġur": 5348, "Ġcoordin": 5349, "Sp": 5350, "poses": 5351, "Ġrac": 5352, "Ġonline": 5353, "PT": 5354, "Ġconcentration": 5355, "inciples": 5356, "ini": 5357, "ĠAssociation": 5358, "ĠInstitute": 5359, "Ġtrack": 5360, "El": 5361, "Ġbeautiful": 5362, "Ġfailure": 5363, "Ġdaily": 5364, "Ġsupply": 5365, "Ġliqu": 5366, "iliar": 5367, "134": 5368, "Ġprinciple": 5369, "Ġexhib": 5370, "Ġexpressed": 5371, "Ġmedic": 5372, "ye": 5373, "Ġsmooth": 5374, "Ġtherm": 5375, "();Ċ": 5376, "Ġsav": 5377, ".png": 5378, ".I": 5379, "UB": 5380, ".G": 5381, "165": 5382, "cis": 5383, "Ġplot": 5384, "ĠOff": 5385, "abilities": 5386, "othing": 5387, "Ġcharacteristics": 5388, "otes": 5389, "ĠStreet": 5390, "Ġvir": 5391, "Ġformula": 5392, "ĠClass": 5393, "long": 5394, "Ġgrowing": 5395, "Ġcast": 5396, "ESS": 5397, "cious": 5398, "linear": 5399, "Ġsafe": 5400, "Ġsoul": 5401, "ultural": 5402, "Ġrepresentation": 5403, "ĠMart": 5404, "-sh": 5405, "-a": 5406, "176": 5407, "])Ċ": 5408, "Ġvertical": 5409, "NC": 5410, "OB": 5411, "zing": 5412, "reci": 5413, "ĠNote": 5414, "Ġlat": 5415, "167": 5416, "Ġexperiments": 5417, "het": 5418, "ĠEst": 5419, "Ġresulting": 5420, "ĠWhite": 5421, ")(": 5422, "Ġpatterns": 5423, "sv": 5424, "fection": 5425, "Ġopportunity": 5426, "Text": 5427, "Ġreality": 5428, "Ġextent": 5429, "ĠGeorge": 5430, "]),": 5431, "Ġpun": 5432, "Ġscen": 5433, "Ġrock": 5434, "Des": 5435, "Ġ\\}$": 5436, "-pro": 5437, "Ġ?": 5438, "Ġmode": 5439, "Ġisol": 5440, "Ġoccurs": 5441, "/v": 5442, "Ġslightly": 5443, "Ġstudied": 5444, "UD": 5445, "List": 5446, "Ġded": 5447, "Ġphenomen": 5448, "ĠGree": 5449, "ĠSuch": 5450, "ometry": 5451, "=i": 5452, "Ġstrugg": 5453, "Ġna": 5454, "ados": 5455, "Ġgenerated": 5456, "Ġideal": 5457, "ĠMarch": 5458, "HT": 5459, "Ġplane": 5460, "Ġoverall": 5461, "/Ċ": 5462, ",y": 5463, "kt": 5464, "Ġfarm": 5465, "nam": 5466, "149": 5467, "ĠCenter": 5468, "Ġdomain": 5469, "Ġgeneration": 5470, "pen": 5471, ")),": 5472, "bm": 5473, "EV": 5474, "Ġsoftware": 5475, "Ġpolic": 5476, "bal": 5477, "hors": 5478, "Me": 5479, "Ġfru": 5480, "Ġidentify": 5481, "Ġserve": 5482, "Ġattract": 5483, "bi": 5484, "ĠGovern": 5485, "lands": 5486, "Ġdied": 5487, "ido": 5488, "HR": 5489, "Ġhol": 5490, "Ġsynthe": 5491, "Ġcurve": 5492, "osph": 5493, "Ġrecently": 5494, "Ġschools": 5495, "aughter": 5496, "ĠDevelop": 5497, "Ġtim": 5498, "Ġdescription": 5499, "Xiv": 5500, "Ġconnection": 5501, "ĠJack": 5502, "ĠÂ«": 5503, "Ġconcerned": 5504, "ĠMary": 5505, "ĠJuly": 5506, "ĠPsych": 5507, "uild": 5508, "Er": 5509, "148": 5510, "Ġmob": 5511, "erved": 5512, "ball": 5513, "147": 5514, "Ġcollection": 5515, "kw": 5516, "Ġrepro": 5517, "anging": 5518, "Ġprefer": 5519, "=!": 5520, "Ġleads": 5521, "FO": 5522, "stein": 5523, "Ġdrive": 5524, "Ġbalance": 5525, "169": 5526, "164": 5527, "ĠPal": 5528, "Ġvideo": 5529, "Ġdescribe": 5530, "Ġauthority": 5531, "neq": 5532, "Ġreturned": 5533, "Ġconnected": 5534, "time": 5535, "Ġequipment": 5536, "________________________________": 5537, "Ġgain": 5538, "Ġlaws": 5539, "ivation": 5540, "162": 5541, "Ġconfig": 5542, "Ġquiet": 5543, "Ãº": 5544, "Ġlooks": 5545, "Ġtests": 5546, "Ġrelationships": 5547, "Ġmist": 5548, "\".": 5549, "Ġsurround": 5550, "rer": 5551, "Ġdos": 5552, "Ġrequest": 5553, "case": 5554, "Ġitems": 5555, "Ġbenefits": 5556, "Ġexisting": 5557, "154": 5558, "ishes": 5559, "rane": 5560, "Ġscore": 5561, "\\{": 5562, "resents": 5563, "Ġcomparison": 5564, "select": 5565, "PC": 5566, "ĠMany": 5567, "EW": 5568, "Ġmedium": 5569, "173": 5570, "After": 5571, "Ġpolice": 5572, "Ġcontinu": 5573, "path": 5574, "Ġje": 5575, "Ġsexual": 5576, "003": 5577, "Ġequivalent": 5578, ".is": 5579, "Ġaspects": 5580, "ĠWil": 5581, "Ġanti": 5582, "cho": 5583, "mary": 5584, "uy": 5585, "({": 5586, "Ġstation": 5587, "ĠSol": 5588, "Ġmarg": 5589, "Ġsubsequ": 5590, "Ġran": 5591, "256": 5592, "gence": 5593, "alysis": 5594, "overy": 5595, "146": 5596, "ĠArm": 5597, "ĠNet": 5598, "ĠRem": 5599, "eline": 5600, "arian": 5601, "Ġunf": 5602, "Ġflat": 5603, "arn": 5604, "ĠDi": 5605, "XX": 5606, ",b": 5607, "oyal": 5608, "163": 5609, "Ġmoral": 5610, "Ġminimum": 5611, "Ġelectr": 5612, "uted": 5613, "Ġprepared": 5614, "Ġtempor": 5615, "Ġpeak": 5616, "Ġplants": 5617, "AND": 5618, "Ġmagnetic": 5619, "Ġadvantage": 5620, "Ġregions": 5621, "Ġexperimental": 5622, "Ġpaid": 5623, "rees": 5624, "cf": 5625, "Ġtalking": 5626, "Ġcertainly": 5627, "utive": 5628, "ipped": 5629, "Ġclient": 5630, "ague": 5631, "Ġuniform": 5632, "ĠChinese": 5633, "idation": 5634, "image": 5635, "Ġensure": 5636, "know": 5637, "Ġformal": 5638, "opl": 5639, ")/": 5640, "stood": 5641, "Ġampl": 5642, "Ġcorpor": 5643, "Ġjoint": 5644, "acing": 5645, "Ġos": 5646, "cz": 5647, "Ġfreedom": 5648, "PH": 5649, "Ġclinical": 5650, "Ġfresh": 5651, "ker": 5652, "Ġcopy": 5653, "âĢĶand": 5654, "Ġtechnique": 5655, "Ġrequirements": 5656, "172": 5657, "ĠAre": 5658, "Ġexternal": 5659, "Ġexchange": 5660, "hi": 5661, "ĠReview": 5662, "ossible": 5663, "oming": 5664, "210": 5665, "}],": 5666, "ĠKe": 5667, "Ġagreement": 5668, "Ġteaching": 5669, "ells": 5670, "ĠSal": 5671, "ĠMath": 5672, "Par": 5673, "Ġuns": 5674, "ĠEvery": 5675, "-time": 5676, "ston": 5677, "URE": 5678, "mid": 5679, "Ġdut": 5680, "Ġboundary": 5681, "cher": 5682, "olf": 5683, "Au": 5684, "ĠTO": 5685, "Ġangle": 5686, "Ġsuggests": 5687, "SC": 5688, "Ġvelocity": 5689, "Ġaccur": 5690, "ĠArch": 5691, "ĠTheir": 5692, "ĠDem": 5693, "model": 5694, "vo": 5695, "Ġeat": 5696, "ĠCalifornia": 5697, "666": 5698, "Ġplanning": 5699, "Ġdans": 5700, "Ġoperator": 5701, "ĠDan": 5702, "205": 5703, "Ġtheore": 5704, "null": 5705, "Ġselected": 5706, "Ġmiles": 5707, "Ġraised": 5708, "Ġolder": 5709, "ln": 5710, "arter": 5711, "Ġconstraint": 5712, "Ġesc": 5713, "Ġhappy": 5714, "Ġmental": 5715, "stitution": 5716, ";\\": 5717, "Ġintr": 5718, "Ġfell": 5719, "Ġrepresents": 5720, "Ġindicate": 5721, "Ġprocessing": 5722, "Ġveh": 5723, "Ġcomfort": 5724, "AJ": 5725, "Ġgal": 5726, "Ġvent": 5727, "_data": 5728, "220": 5729, "Ġ{-": 5730, "Ġsympt": 5731, "KS": 5732, "itter": 5733, "Â»": 5734, "Ġtasks": 5735, "Ġoffered": 5736, "Ġusers": 5737, "Ġcombination": 5738, "Ġsimpl": 5739, "Ġvisit": 5740, "Ġresponsible": 5741, "ansion": 5742, "stract": 5743, "agger": 5744, "ront": 5745, "Ġfing": 5746, "Ġist": 5747, "158": 5748, "Ġlie": 5749, "ĠThomas": 5750, "Ġproceed": 5751, "Ġhistorical": 5752, "Ġau": 5753, "Fl": 5754, "Ġhospital": 5755, "Ġcancer": 5756, "eed": 5757, "estic": 5758, ".sh": 5759, "Ã©e": 5760, "LL": 5761, "ags": 5762, "240": 5763, "Ġexplan": 5764, "ano": 5765, "Ġhref": 5766, "Ġmo": 5767, "ambridge": 5768, "ĠCollege": 5769, "Ġstarting": 5770, "arden": 5771, "-term": 5772, "ĠWork": 5773, "Ġring": 5774, "Ġmale": 5775, "ners": 5776, "Ġleaves": 5777, "cn": 5778, "Ġcontaining": 5779, "Ġpulled": 5780, ".In": 5781, "Ġsend": 5782, "230": 5783, "Ġarchitect": 5784, "La": 5785, "174": 5786, "HD": 5787, "Ġinterview": 5788, "je": 5789, "zeta": 5790, "Ġauthors": 5791, "String": 5792, "Ġcriter": 5793, "GE": 5794, "ena": 5795, "Ġstream": 5796, "Ġreceive": 5797, "Ġnone": 5798, "Ġthr": 5799, "222": 5800, "Ġselection": 5801, "height": 5802, "ologies": 5803, "Ġcouple": 5804, "Ġfamilies": 5805, "appe": 5806, "GB": 5807, "ville": 5808, "Ġtrees": 5809, "Ġnut": 5810, "ĠRobert": 5811, "ĠLou": 5812, "Ġvary": 5813, "Ġmes": 5814, "Ġmetal": 5815, "Ġuncertain": 5816, "Ġholds": 5817, "ĠPR": 5818, "Ġinstr": 5819, "greg": 5820, "apping": 5821, "ora": 5822, "Ġsubstant": 5823, "Ġotherwise": 5824, "Ġreduction": 5825, "ĠApril": 5826, "ipe": 5827, "Ġcandid": 5828, "/j": 5829, "Ġpowerful": 5830, "ĠGra": 5831, "Ġteacher": 5832, "Ġalternative": 5833, "Ġcomo": 5834, "icago": 5835, "mann": 5836, "Ġpractical": 5837, "Ġelectron": 5838, "Ġnp": 5839, "ocy": 5840, "Ġwin": 5841, "AW": 5842, "images": 5843, "rey": 5844, "ulture": 5845, ")},": 5846, "Ġexercise": 5847, "Object": 5848, "Ġpros": 5849, "Ġsites": 5850, "olved": 5851, "izer": 5852, "Ġcovered": 5853, "Ġpet": 5854, "Ġstanding": 5855, "Ġtool": 5856, "Ġseven": 5857, "bn": 5858, "Ġcos": 5859, "ĠCON": 5860, "ĠCanada": 5861, "Ġcalculated": 5862, "Ġpreviously": 5863, "Ġstopped": 5864, "Ġyield": 5865, "itis": 5866, "IST": 5867, "CP": 5868, "Ġchair": 5869, "Ġresistance": 5870, "Ġspent": 5871, "Ġspeech": 5872, "iller": 5873, "pol": 5874, "ĠUnder": 5875, "ĠBen": 5876, "Ġwit": 5877, "Ġ$|": 5878, "rim": 5879, "Ġtreated": 5880, "Ġconscious": 5881, "Ġframework": 5882, "ĠPublic": 5883, "Ġefficient": 5884, "coh": 5885, "Ġelectric": 5886, "=#": 5887, "Ġcompre": 5888, "ÃŃa": 5889, "Ġderived": 5890, "ĠCompany": 5891, "Ġtight": 5892, "\");": 5893, "Ġefforts": 5894, "Ġborn": 5895, "Ġanimal": 5896, "ilit": 5897, "Ġexplained": 5898, ")-": 5899, "Nm": 5900, "Ġcomment": 5901, "Co": 5902, "Ġmel": 5903, "CM": 5904, "Ġslowly": 5905, "Ġhappen": 5906, "ĠIndia": 5907, ">$": 5908, "flow": 5909, "ferent": 5910, "Ġparallel": 5911, "().": 5912, "ographic": 5913, "[\"": 5914, "DR": 5915, "Ġfinding": 5916, "Ġtorch": 5917, "Ġrot": 5918, "UG": 5919, "Ġoffers": 5920, "ulf": 5921, "Ġnotice": 5922, "Ġgun": 5923, "Ġchosen": 5924, "Ġnetworks": 5925, "ĠBel": 5926, "teen": 5927, "Ġminor": 5928, "Ġsafety": 5929, "Ġdistingu": 5930, "Ġfundamental": 5931, "ĠGermany": 5932, "cember": 5933, "Ġcircumst": 5934, "Ġstore": 5935, "ĠDiv": 5936, "ĠUse": 5937, "Ġseason": 5938, "Ġiron": 5939, "Ġestimate": 5940, "Ġ..": 5941, "Ġcauses": 5942, "ader": 5943, "](": 5944, "omorph": 5945, "nt": 5946, "appro": 5947, "Ġintellig": 5948, "Ġradio": 5949, "ĠDet": 5950, "ĠStep": 5951, "ĠMoreover": 5952, "ildren": 5953, "Ġinfin": 5954, "ĠNat": 5955, "gin": 5956, "Ġbow": 5957, "Ġspectrum": 5958, "See": 5959, "Ġempt": 5960, "Ġapproaches": 5961, "Ġjo": 5962, "uer": 5963, "Ġà¤": 5964, "ĠFOR": 5965, "Ġinterested": 5966, "}}{": 5967, "Ġagent": 5968, "Ġdepends": 5969, "Ġmaster": 5970, "Ġtools": 5971, "ĠUsing": 5972, "Ġsummer": 5973, "Ġnarrow": 5974, "Ġevaluation": 5975, "ĠFeb": 5976, "Ġroot": 5977, "ĠGen": 5978, "Ġhit": 5979, "_acc": 5980, "Ġwidth": 5981, "Ġbright": 5982, "Ġpossess": 5983, "Ġmas": 5984, "700": 5985, "ĠEconom": 5986, "ĠElect": 5987, "board": 5988, "pd": 5989, "_col": 5990, "uke": 5991, "Ġwild": 5992, "ĠChem": 5993, "eless": 5994, "lies": 5995, "ocked": 5996, "Ġpossibility": 5997, "Ġauf": 5998, "AX": 5999, "ĠSec": 6000, "ĠConference": 6001, "Ġinvolve": 6002, "omic": 6003, "Ġinhib": 6004, "Ġcore": 6005, ",u": 6006, "Ġdial": 6007, "Ġinterests": 6008, "down": 6009, "uv": 6010, "LD": 6011, "script": 6012, "Ġrout": 6013, "Ġhadn": 6014, "Ġox": 6015, "Ġdesire": 6016, "Ġrich": 6017, "}),": 6018, "Ġconsistent": 6019, "Ġtherapy": 6020, "ĠAlso": 6021, "/n": 6022, "Ġeconomy": 6023, "anted": 6024, "Ġ]$": 6025, "antly": 6026, "Ġrepresented": 6027, "FR": 6028, "Ġprot": 6029, "alog": 6030, "Ġtesting": 6031, "jo": 6032, "Ġnucle": 6033, "Ġcitiz": 6034, "ingly": 6035, "pected": 6036, "phone": 6037, "Ã¡s": 6038, "usiness": 6039, "/g": 6040, "atically": 6041, "ĠHistory": 6042, "outhern": 6043, "ĠFin": 6044, "onent": 6045, "Ġhoriz": 6046, "Sc": 6047, "ervation": 6048, "Ġdecisions": 6049, "ĠIS": 6050, "Ġwaiting": 6051, "Ġdoll": 6052, "edge": 6053, "Ġwel": 6054, "ptions": 6055, "Ġcomplic": 6056, "Ġ|Ċ": 6057, "Ġsides": 6058, "Ġbra": 6059, "Ġcarbon": 6060, "ĠEducation": 6061, "Ġorient": 6062, "amily": 6063, "LS": 6064, "orage": 6065, "rep": 6066, "'S": 6067, "Ġdepth": 6068, "Ġbaby": 6069, "opic": 6070, "Ġexpand": 6071, "Ġproviding": 6072, "Ġtouch": 6073, "oken": 6074, "Ġleaving": 6075, "Ġfemale": 6076, "ĠTraining": 6077, "/M": 6078, "van": 6079, "Ġprem": 6080, "Ġteachers": 6081, "Ġsubjects": 6082, "kg": 6083, "212": 6084, "ocol": 6085, ">\\": 6086, "ĠGreat": 6087, "ĠMal": 6088, "Ġlived": 6089, "Ġplans": 6090, "ĠZh": 6091, "Ġremoved": 6092, "Ġcolon": 6093, "osing": 6094, "ilib": 6095, "Ġunderstood": 6096, "edy": 6097, "WF": 6098, "Ġtour": 6099, "iated": 6100, "uffer": 6101, "Ġpul": 6102, "Ã´": 6103, "othe": 6104, "Â°": 6105, "Ġexplicit": 6106, "OO": 6107, "ovember": 6108, "anges": 6109, "ifically": 6110, "ella": 6111, "ĠfÃ¼r": 6112, "Ġsusp": 6113, "cu": 6114, "\"],": 6115, "Ġdevice": 6116, "*,": 6117, "PD": 6118, "Ġsupported": 6119, "ĠSecond": 6120, "string": 6121, ".py": 6122, "onents": 6123, "zed": 6124, "Ġremark": 6125, "ĠĠĠĠĠĠĠĠĠĠĠĠĠĠĠĠĠ": 6126, "?'": 6127, "TT": 6128, "Ġvision": 6129, "oration": 6130, "Ġdamage": 6131, "ipl": 6132, "Ġjour": 6133, "Ġimplies": 6134, "Ġkit": 6135, "Ġfilled": 6136, "Ġtrac": 6137, "default": 6138, "ilton": 6139, "Ġscientific": 6140, "Ġfloat": 6141, "how": 6142, "kay": 6143, "Ġhypothes": 6144, "Here": 6145, "venue": 6146, "Ġdiam": 6147, "Ġcommercial": 6148, "Ġqui": 6149, "standing": 6150, "icks": 6151, "sm": 6152, "Ġwhatever": 6153, "ĠWestern": 6154, "Ġsong": 6155, "Ġfrequently": 6156, "Ġborder": 6157, "/D": 6158, "itudes": 6159, "/C": 6160, "Ġindustrial": 6161, "Ġobservations": 6162, "aren": 6163, "Ġshowing": 6164, "Ġprotection": 6165, "vd": 6166, "rium": 6167, "Ġlib": 6168, "Ġnarr": 6169, "Ġcrow": 6170, "Ġapproximately": 6171, "Ġindicated": 6172, "Ġextended": 6173, "Ġknows": 6174, "state": 6175, "oving": 6176, "Ġpretty": 6177, "Ġinvestment": 6178, "Ġcolle": 6179, "à¥į": 6180, "ĠParis": 6181, "widehat": 6182, "Ġmort": 6183, "ĠRoman": 6184, "kl": 6185, "ĠAlex": 6186, "Ġmechanism": 6187, "Ġnorth": 6188, "ĠDec": 6189, "aign": 6190, "ĠPo": 6191, "uh": 6192, "ademic": 6193, "Ġdeveloping": 6194, "005": 6195, "ĠOut": 6196, "Ġparticles": 6197, "idel": 6198, "rier": 6199, "208": 6200, "Ġforg": 6201, "Ġspot": 6202, "Ġchain": 6203, "Ġfamiliar": 6204, "360": 6205, "Ġprinciples": 6206, "225": 6207, "900": 6208, "Ġta": 6209, "xford": 6210, "Ġsave": 6211, "isher": 6212, "Ġgar": 6213, "/S": 6214, "Ġexperiences": 6215, "Ġyes": 6216, "Ġremained": 6217, "Ġnodes": 6218, "values": 6219, "while": 6220, "UC": 6221, "Ġmajority": 6222, "xx": 6223, "Ġframe": 6224, "Ġneither": 6225, "Î±": 6226, "ĠAfrica": 6227, "Ġplate": 6228, "vol": 6229, "')": 6230, "Ġcryst": 6231, "Ġpractices": 6232, "Ġexpos": 6233, "ellect": 6234, "dr": 6235, "Ġfraction": 6236, "EEE": 6237, "ĠTH": 6238, "ĠPeter": 6239, "ĠSeptember": 6240, "Ġlocated": 6241, "orry": 6242, "Ġhat": 6243, "Ġshift": 6244, "Ġplayed": 6245, "ela": 6246, "img": 6247, "ĠLear": 6248, "mic": 6249, "Ġvac": 6250, "lam": 6251, "ĠTime": 6252, "athe": 6253, "Ġcomposition": 6254, "207": 6255, "Per": 6256, "Ġholding": 6257, "param": 6258, "Ġchest": 6259, "Ġdimension": 6260, "ĠHel": 6261, "ellent": 6262, "ĠForm": 6263, "Ġmal": 6264, "Ġreports": 6265, "rot": 6266, "Ġfish": 6267, "inder": 6268, "Ġbenefit": 6269, "ceived": 6270, "Ġben": 6271, "Ġclim": 6272, "Ġtum": 6273, "ashion": 6274, "anned": 6275, "ĠUnion": 6276, "Ġneighbor": 6277, "Ġpersons": 6278, "Ġmerely": 6279, "oto": 6280, "ws": 6281, "ollow": 6282, "Ġaware": 6283, "BS": 6284, "ĠDNA": 6285, "oviet": 6286, "ĠMass": 6287, "Ġencourag": 6288, "Ġmathemat": 6289, "Ġsurvey": 6290, "App": 6291, "ĠProcess": 6292, "Ġgrav": 6293, "Ġstandards": 6294, "Ġmix": 6295, "Ġcritic": 6296, "Index": 6297, "ails": 6298, "eq": 6299, "ĠGroup": 6300, ".),": 6301, "ĠÏ": 6302, "ĠJanuary": 6303, "Ġenvironmental": 6304, "ĠInformation": 6305, "PL": 6306, "Ġcycle": 6307, "Ġconnect": 6308, "211": 6309, "'],": 6310, "Ġhighest": 6311, "Ġstories": 6312, "ĠMex": 6313, "ÃŁ": 6314, "Ġarguments": 6315, "duction": 6316, "oes": 6317, "ĠAD": 6318, "rig": 6319, "Ġdaughter": 6320, "Ġbelieved": 6321, ">=": 6322, "Ġing": 6323, "Ġfrag": 6324, "Ġshif": 6325, "urban": 6326, "Ġaccepted": 6327, "Ġassumed": 6328, "Ġprices": 6329, "eli": 6330, "gw": 6331, "ĠSmith": 6332, "ĠAustral": 6333, "Ġshared": 6334, "zym": 6335, "eness": 6336, "004": 6337, "Ġthin": 6338, "Ġ$\\{": 6339, "\\frac": 6340, "-ch": 6341, "Ġspat": 6342, "{H": 6343, "Ġtypical": 6344, "istical": 6345, "ĠOh": 6346, "Mod": 6347, "Ġneck": 6348, "EA": 6349, "Ġstrategies": 6350, "Ġship": 6351, "Ġrank": 6352, "ĠÂ£": 6353, "(p": 6354, "ĠStat": 6355, "Ġstars": 6356, "[r": 6357, "Ġexcess": 6358, "Ġusual": 6359, ",A": 6360, "ĠFre": 6361, "aneous": 6362, "itative": 6363, "Ġgirls": 6364, "ĠService": 6365, "GR": 6366, "Ġcalls": 6367, "user": 6368, "Ġsust": 6369, "cel": 6370, "roduction": 6371, "Ġtrend": 6372, "Ġscene": 6373, "ona": 6374, "ĠBra": 6375, "Ġhence": 6376, "Ġwhis": 6377, "ĠOctober": 6378, "asp": 6379, "ĠRichard": 6380, "Ġshot": 6381, "Ġforest": 6382, "_r": 6383, "Ġrace": 6384, "Ġopinion": 6385, "Ġinner": 6386, "Ġmeasurements": 6387, "Ġwants": 6388, "Ġopposite": 6389, "Ġvit": 6390, "Ġrational": 6391, "Ġnamed": 6392, "ĠBoth": 6393, "Color": 6394, "Ġrepeated": 6395, "Ġencoun": 6396, "Ġrelease": 6397, "oster": 6398, "Ġguess": 6399, "Ġ$[": 6400, "istant": 6401, "Ġviews": 6402, "ĠSpr": 6403, "+=": 6404, "cks": 6405, "Ġans": 6406, "Ġminim": 6407, "uries": 6408, "Ġperspective": 6409, ".(": 6410, "Ġ$=": 6411, "equiv": 6412, "-and": 6413, "Ġdetailed": 6414, "ifier": 6415, "ĠMa": 6416, "ĠIV": 6417, "bid": 6418, "ĠMag": 6419, "Up": 6420, "Ġnotes": 6421, "ĠCO": 6422, "abase": 6423, "CO": 6424, "}^": 6425, "Time": 6426, "Ġgoods": 6427, "FT": 6428, ",but": 6429, "Ġfigures": 6430, "MB": 6431, "unic": 6432, "Ġcond": 6433, "-the": 6434, "acters": 6435, "350": 6436, "!!": 6437, "/P": 6438, "[e": 6439, "Ġchannel": 6440, "Ġachieved": 6441, "ĠFour": 6442, "Ġma": 6443, "uses": 6444, "Ġsuddenly": 6445, "Ġunless": 6446, "Ġletters": 6447, "ĠSat": 6448, "Ġflex": 6449, "Ġtom": 6450, "},Ċ": 6451, "ĠDevelopment": 6452, "Ay": 6453, "sk": 6454, "Ġours": 6455, "Ġleaders": 6456, "Ġliquid": 6457, "Ġorganizations": 6458, "Ġfingers": 6459, "Ġalign": 6460, "Ġresponsibility": 6461, "Ġrub": 6462, "Ġsand": 6463, "-like": 6464, "ĠModel": 6465, "Ġwhereas": 6466, "Ġimpossible": 6467, "Ġmountain": 6468, "Ġsouth": 6469, "ethyl": 6470, "-W": 6471, "uzz": 6472, "ĠAnt": 6473, "Ġdrop": 6474, "ĠPort": 6475, "Ġhall": 6476, "Ġappreci": 6477, "ĠGreen": 6478, "ĠUSA": 6479, "CS": 6480, "ĠIts": 6481, "Ġstreet": 6482, "Ġsoil": 6483, "using": 6484, "lete": 6485, "ĠFrank": 6486, "udget": 6487, "Ġcaught": 6488, "Ġdiet": 6489, "conds": 6490, "Ġgent": 6491, "Ġtypically": 6492, "Ġplease": 6493, "Ġfinished": 6494, "rog": 6495, "Ġvot": 6496, "Ġstable": 6497, "elle": 6498, "Ġmeasurement": 6499, "ounced": 6500, "Ġansw": 6501, "Psi": 6502, "Ġremaining": 6503, "Ġmarked": 6504, "Ġindicates": 6505, "ĠOver": 6506, "Ġpolar": 6507, "Ġ$(\\": 6508, "Ġcircumstances": 6509, "Ġcombined": 6510, "Ste": 6511, "218": 6512, "Ġ)Ċ": 6513, "Ġefficiency": 6514, "ivate": 6515, "Ġalgebra": 6516, "ĠFrancis": 6517, "load": 6518, "BN": 6519, "char": 6520, "PA": 6521, "Ġadop": 6522, "Ġsight": 6523, "rend": 6524, "atform": 6525, "Ġcollege": 6526, "Ġamb": 6527, "Mu": 6528, "Fe": 6529, "Ġreform": 6530, "Ġnode": 6531, "mas": 6532, "Ġdri": 6533, "LY": 6534, "ĠMo": 6535, "star": 6536, "Ġincorpor": 6537, "mosp": 6538, "idad": 6539, "attr": 6540, "gb": 6541, "urally": 6542, "oding": 6543, "ĠExper": 6544, "ĠOnly": 6545, "Ġtrial": 6546, "Ġrelax": 6547, "]:": 6548, "Ġfunctional": 6549, "Ġtal": 6550, "Ġ=>": 6551, "ĠAccording": 6552, "NR": 6553, "ĠarXiv": 6554, "ĠMethod": 6555, "rome": 6556, "ĠFinally": 6557, "ĠLife": 6558, "ĠYet": 6559, "abled": 6560, "^{-": 6561, ".N": 6562, "Ġexpansion": 6563, "ĠCharles": 6564, "Ġinstitutions": 6565, "-de": 6566, "house": 6567, "Ġgets": 6568, "AO": 6569, "Ġtechnical": 6570, "uce": 6571, "Ġserved": 6572, "Ġconsists": 6573, "Ġderiv": 6574, "Ġanx": 6575, "ĠMer": 6576, "Ġscheme": 6577, "Ġestimated": 6578, "ilibrium": 6579, "Ġsubm": 6580, "Ġchallenge": 6581, "Ġlargest": 6582, "-dimensional": 6583, "PI": 6584, "Ġrough": 6585, "Ġcorner": 6586, "Ġerrors": 6587, "Ġagents": 6588, "ĠFore": 6589, "Ni": 6590, "orthern": 6591, "Ġinteractions": 6592, "pled": 6593, "perty": 6594, "ĠHence": 6595, "ĠRob": 6596, "Ġsubt": 6597, "Ġagree": 6598, "Pi": 6599, "Ġcommit": 6600, ".app": 6601, "enses": 6602, "bitr": 6603, "cs": 6604, "cluded": 6605, "ĠHenry": 6606, "aze": 6607, "ĠGood": 6608, "Ġemployees": 6609, "These": 6610, "Ġpositions": 6611, "ogene": 6612, "actor": 6613, "ĠChicago": 6614, "Ġalt": 6615, "Ġmission": 6616, "ĠLemma": 6617, "Em": 6618, "content": 6619, "Ġpurposes": 6620, "ald": 6621, "/h": 6622, "comes": 6623, "Ġmatch": 6624, "Ġsupposed": 6625, "ruary": 6626, "206": 6627, "Ġmine": 6628, ".html": 6629, "Ġpolicies": 6630, "Es": 6631, "Ġthoughts": 6632, "Ġdoctor": 6633, "ĠMax": 6634, "cha": 6635, "ĠDecember": 6636, "ĠBig": 6637, "break": 6638, "Ġinvolves": 6639, "(o": 6640, "otion": 6641, "iders": 6642, "Ah": 6643, "Ġ||": 6644, "Ġinsp": 6645, "ĠFound": 6646, "ometric": 6647, "Ġegg": 6648, "Ġentirely": 6649, "Ġanalog": 6650, "Ġdetection": 6651, "Ġinstitution": 6652, "Ġinterpretation": 6653, "related": 6654, "ige": 6655, "Ġancient": 6656, "word": 6657, "Ġ=$": 6658, "emporary": 6659, "win": 6660, "Ġscreen": 6661, "ibilities": 6662, "Ġreplace": 6663, "nic": 6664, "Ġcircle": 6665, "-cent": 6666, "Ro": 6667, "{Ċ": 6668, "Ġload": 6669, "rank": 6670, "aked": 6671, "there": 6672, "Ġprincipal": 6673, "Ġcloser": 6674, "ician": 6675, "Proof": 6676, "apped": 6677, "Ġcontribution": 6678, "Ġaccomp": 6679, "ani": 6680, "Ġsymptoms": 6681, "real": 6682, "ĠAfrican": 6683, "Ġpieces": 6684, "ĠHall": 6685, "III": 6686, "calc": 6687, "orders": 6688, "209": 6689, "Ġcareer": 6690, "Ġchanging": 6691, "iro": 6692, "irms": 6693, "ĠDel": 6694, "};": 6695, "neg": 6696, "Ac": 6697, "Ġbodies": 6698, "Ġevening": 6699, "etime": 6700, "cohol": 6701, "INE": 6702, "Ġaffected": 6703, "erg": 6704, "Ġaxis": 6705, "Ġobjective": 6706, "Ġcredit": 6707, "input": 6708, "Ġplaying": 6709, "Ġsell": 6710, "Ġempty": 6711, "MW": 6712, "scr": 6713, "Int": 6714, "=s": 6715, "Ġapart": 6716, "mes": 6717, "215": 6718, "Ġdrawn": 6719, "mo": 6720, "ĠEarth": 6721, "ĠRad": 6722, "Ġconsult": 6723, "Ġgoals": 6724, "Ġfer": 6725, "Ġice": 6726, "herent": 6727, "Ġmixt": 6728, "faces": 6729, "slant": 6730, ")\\": 6731, "Ġrealized": 6732, "ĠBas": 6733, "Br": 6734, "Ġemployed": 6735, "ulating": 6736, "ourse": 6737, "Ġdataset": 6738, "eles": 6739, "ĠEngine": 6740, "Ġshap": 6741, "Ġoccasion": 6742, "Ġappearance": 6743, "[t": 6744, "Ġcorrelation": 6745, "ĠMet": 6746, "ynom": 6747, "ĠPlan": 6748, "Ġmaybe": 6749, "aper": 6750, "Ġabsence": 6751, "Some": 6752, "roid": 6753, "section": 6754, "=o": 6755, "Ġfill": 6756, "Ġalle": 6757, "icles": 6758, "Ġbroken": 6759, "gra": 6760, ">+": 6761, "ART": 6762, "Ġmemb": 6763, "ses": 6764, "was": 6765, "Ġcarefully": 6766, "oses": 6767, "ĠWeb": 6768, "Ġconvent": 6769, "ĠCambridge": 6770, "lebr": 6771, "Ġdespite": 6772, "ĠDuring": 6773, "iously": 6774, "ifies": 6775, "item": 6776, "eting": 6777, "Ġspring": 6778, "ĠDie": 6779, "obs": 6780, "**Ċ": 6781, "Ġfib": 6782, "Ġmonitor": 6783, "Ġpointed": 6784, "oral": 6785, "Ġopening": 6786, "Ġmarried": 6787, "Ġgene": 6788, "Ġsitting": 6789, "Ġcrucial": 6790, "_D": 6791, "Ġagreed": 6792, "Ġtissue": 6793, "Ġoptions": 6794, "?(": 6795, "Ġkilled": 6796, "ĠOld": 6797, ",J": 6798, "ĠWhere": 6799, "war": 6800, "Ġfailed": 6801, "ĠSa": 6802, "Ġparties": 6803, "Ġion": 6804, "organ": 6805, "Ġmir": 6806, "Ġnerv": 6807, "ĠNovember": 6808, "edit": 6809, "Ġassessment": 6810, "-type": 6811, "RU": 6812, "ois": 6813, "213": 6814, "Ġoccurred": 6815, "ĠVir": 6816, "osh": 6817, "RT": 6818, "Ġitem": 6819, "Ġelectro": 6820, "ĠJose": 6821, "Ġtrouble": 6822, "ĠCA": 6823, "Ms": 6824, "Ġintellect": 6825, "ĠOnce": 6826, "vin": 6827, "Ġimper": 6828, "Ġpush": 6829, "[n": 6830, ",m": 6831, ".O": 6832, "pat": 6833, "Ġrein": 6834, "RA": 6835, "Ġlean": 6836, "rd": 6837, "ĠMichael": 6838, "'),": 6839, "Ġcharacters": 6840, "Ġlies": 6841, "Ġforced": 6842, "Ġprojects": 6843, "ested": 6844, "valid": 6845, "uction": 6846, "Ġdistr": 6847, "Ġwww": 6848, "ĠSun": 6849, "Ġindepend": 6850, "Ġmac": 6851, "Ġsi": 6852, "Ġhelped": 6853, "Ġdynamics": 6854, "Ġcatch": 6855, "Ġforth": 6856, "Ġplas": 6857, "303": 6858, "ko": 6859, "Ġguide": 6860, "234": 6861, "*(": 6862, "ĠNor": 6863, "ĠBank": 6864, "Ġsweet": 6865, "Ġfra": 6866, "ĠĠĠĠĠĠĠĠĠĠĠĠĠĠ": 6867, "ĠIll": 6868, "Ġrecords": 6869, "HV": 6870, "just": 6871, "++)": 6872, "214": 6873, "sel": 6874, "Ġinequ": 6875, "ĠLike": 6876, "Ġintended": 6877, "_S": 6878, "osa": 6879, "Ġpark": 6880, "cluding": 6881, "ĠSystems": 6882, "Ġcreating": 6883, "Ġhung": 6884, "len": 6885, "sey": 6886, "Ġfindings": 6887, "Don": 6888, "dy": 6889, "\")Ċ": 6890, "ĠPost": 6891, "221": 6892, "Ġoverl": 6893, "cia": 6894, "anged": 6895, "rained": 6896, "ĠÂ±": 6897, "Ge": 6898, "Ġclassical": 6899, "Ġoption": 6900, "Ġlegs": 6901, "Ġsolve": 6902, "-N": 6903, "Ġreferred": 6904, "Ġthank": 6905, "Ġkne": 6906, "Ġriver": 6907, "itivity": 6908, "ĠHuman": 6909, "TC": 6910, "ĠSum": 6911, "Ġwilling": 6912, "Ġresolution": 6913, "Ġoperating": 6914, "ĠStand": 6915, "itely": 6916, "Ġ\"#": 6917, "224": 6918, "contin": 6919, "Ġcharacteristic": 6920, "erate": 6921, "Ġprocedures": 6922, "kins": 6923, "Ġcomprehens": 6924, "xygen": 6925, "Ġrain": 6926, "Ġthousand": 6927, "Ġstead": 6928, "Ġkitchen": 6929, "olve": 6930, "ola": 6931, "ifications": 6932, "object": 6933, "231": 6934, "ATE": 6935, "Ġproved": 6936, "ructions": 6937, "Ġvoid": 6938, "Ġoptimal": 6939, "ĠFalse": 6940, "ĠAir": 6941, "Ġsister": 6942, "enced": 6943, "IO": 6944, "ĠMult": 6945, "Ġdivided": 6946, "Ġrecommend": 6947, "Ġstated": 6948, "Ġdisappe": 6949, "Ġcategory": 6950, "Ġsomewhat": 6951, "ĠStudies": 6952, "Ġconcer": 6953, "ĠAny": 6954, "Ġsegment": 6955, "Since": 6956, "Ġsections": 6957, "_i": 6958, "inations": 6959, "Trans": 6960, "vg": 6961, "ICE": 6962, "Ġtun": 6963, "/x": 6964, "Ġregarding": 6965, "\"]": 6966, "Ġarbitr": 6967, "/F": 6968, "Ġprofession": 6969, "bered": 6970, "ieties": 6971, "orter": 6972, "Ġacknow": 6973, "Ġboys": 6974, "Ġhorse": 6975, "ĠLand": 6976, "alian": 6977, "ĠLin": 6978, "ĠMem": 6979, "Ġstret": 6980, "ĠAdd": 6981, "Ġdevices": 6982, "RS": 6983, "Ġtables": 6984, "Ġaccompl": 6985, "CB": 6986, "Ġcampaign": 6987, "option": 6988, "Ġrecept": 6989, "Ġbare": 6990, "uan": 6991, "à¤¾": 6992, "Ġtheoretical": 6993, "Ġtransformation": 6994, "zer": 6995, "epth": 6996, "adow": 6997, "/or": 6998, ">>": 6999, "Ġconfidence": 7000, ".min": 7001, "orical": 7002, "Ġlimits": 7003, "ben": 7004, "Ġguar": 7005, "Ġimproved": 7006, "Ġfluid": 7007, "ĠWho": 7008, "Ġfix": 7009, "theless": 7010, "Ġdense": 7011, "Ġassumption": 7012, "label": 7013, "Ġnav": 7014, "Ġinnov": 7015, "ĠExp": 7016, "ĠRef": 7017, "ĠĠĠĠĠĠĠĠĠĠĠĠĠĠĠĠĠĠĠĠĠĠĠĠĠĠĠĠĠĠĠĠĠĠĠĠĠĠĠĠĠĠĠĠĠĠĠĠĠĠĠĠĠĠĠĠĠĠĠĠĠĠĠĠ": 7018, "Ġsituations": 7019, "illa": 7020, "Ġwalls": 7021, "Ġresponses": 7022, "anda": 7023, "Man": 7024, "Ġdemonstrated": 7025, "ĠOrgan": 7026, "Ġextremely": 7027, "HO": 7028, "Ġparticle": 7029, "PE": 7030, "ĠSimilar": 7031, "ropy": 7032, "ĠRiver": 7033, "True": 7034, "Ġbehaviour": 7035, "Ġcu": 7036, "ĠTom": 7037, "Ġterr": 7038, "size": 7039, "Mm": 7040, "Ġdestroy": 7041, "235": 7042, "ictions": 7043, "Ġatmosp": 7044, "Ġconcepts": 7045, "260": 7046, "Ġclosely": 7047, "plt": 7048, "ĠCommittee": 7049, "Ġedges": 7050, "ĠCa": 7051, "Ġdiscovered": 7052, "020": 7053, "Ġ$$": 7054, "Ġkill": 7055, "Ãµ": 7056, "Ġreb": 7057, "Ġexperienced": 7058, "ĠPeople": 7059, "216": 7060, "Ġahead": 7061, "IX": 7062, "Ġconclusion": 7063, "dm": 7064, "Ġrou": 7065, "_train": 7066, "abet": 7067, "ĠIr": 7068, "Ġelimin": 7069, "Ġtub": 7070, "Ġkin": 7071, "Ġannual": 7072, "Ġrecognition": 7073, "ĠIEEE": 7074, "ĠInte": 7075, "Ġkinds": 7076, "Ġinvent": 7077, "Ġmeta": 7078, "Ġexcellent": 7079, "iner": 7080, "ymm": 7081, "Ġsigns": 7082, "Ġsky": 7083, "QB": 7084, "ĠLett": 7085, "030": 7086, "/T": 7087, "PO": 7088, "uable": 7089, "Ġarrived": 7090, "Ġweap": 7091, "update": 7092, "offset": 7093, "ĠCD": 7094, "320": 7095, "Ġcogn": 7096, "Ġadvert": 7097, "Ġgrad": 7098, "Ġtheorem": 7099, "Ġwitness": 7100, "Ġreader": 7101, "Dr": 7102, "ĠZe": 7103, "Ġobservation": 7104, "]-": 7105, "Ġeventually": 7106, "oder": 7107, "struct": 7108, "Ġminute": 7109, "-pack": 7110, "270": 7111, "ĠNon": 7112, "Ġopportunities": 7113, "road": 7114, "Ġcreation": 7115, "/B": 7116, "ifferent": 7117, "Ġsymbol": 7118, "Ġacts": 7119, "Ġstrongly": 7120, "Ġrig": 7121, "450": 7122, "cules": 7123, "312": 7124, "Ġbecoming": 7125, "iverse": 7126, "Ġstone": 7127, "Ġsevere": 7128, "Ġrecognized": 7129, "Ġinterval": 7130, "Ġhell": 7131, "hol": 7132, "ĠFurthermore": 7133, "floor": 7134, "Ġhandle": 7135, "Ġsen": 7136, "ĠBay": 7137, "isp": 7138, "Ġbacter": 7139, "Ġseeing": 7140, "Ġphilosophy": 7141, "eck": 7142, "ito": 7143, "ogle": 7144, "sect": 7145, "rian": 7146, ".max": 7147, "learn": 7148, "gery": 7149, "Ġjump": 7150, "ĠOxford": 7151, "eding": 7152, "-E": 7153, "Ġorders": 7154, "Hz": 7155, "Ġmixed": 7156, "uz": 7157, "ystem": 7158, "Ġsuitable": 7159, "Ġcontained": 7160, "ĠJapanese": 7161, "Ġpowers": 7162, "MENT": 7163, "Ġparticipants": 7164, "Mr": 7165, "229": 7166, "Ġvictim": 7167, "eld": 7168, "Ġbear": 7169, "Ġeigen": 7170, "cd": 7171, "weight": 7172, "Ġkid": 7173, "CG": 7174, "ĠDay": 7175, "NW": 7176, "Ġtro": 7177, "Ġcm": 7178, "SD": 7179, "Ġclaims": 7180, "Ġdenote": 7181, "Ġnuclear": 7182, "Ġconven": 7183, "280": 7184, "emale": 7185, "Can": 7186, "ctr": 7187, "Ġdelay": 7188, "ĠBox": 7189, "Ġantib": 7190, "Ġmotor": 7191, "inity": 7192, "ĠManagement": 7193, "wer": 7194, "ĠMil": 7195, "Ġcities": 7196, "Ġmanager": 7197, "Ġrul": 7198, "ĠSil": 7199, "Ġsentence": 7200, "Ġdynamic": 7201, "512": 7202, "ador": 7203, "Ġhuge": 7204, "ITY": 7205, "cean": 7206, "Ġbath": 7207, "Ġhur": 7208, "Ġexpert": 7209, "=new": 7210, "Ġcustomers": 7211, "Ġprecis": 7212, "Ġdies": 7213, "icked": 7214, "ĠLong": 7215, "Ġwaves": 7216, "Ġdigital": 7217, "AAA": 7218, "Ġvoc": 7219, "Ġ$-": 7220, "adr": 7221, "Ġwidely": 7222, "aÃ§Ã£o": 7223, "fa": 7224, "Ãµes": 7225, "ĠLo": 7226, "Ġseek": 7227, "Ġrecall": 7228, "iate": 7229, "Ġscr": 7230, "iology": 7231, ",as": 7232, "Ġcompleted": 7233, "Ġwealth": 7234, "Ġfacts": 7235, "Ġunknown": 7236, "219": 7237, "Ġintegral": 7238, "ocket": 7239, "ĠGal": 7240, "Ġadult": 7241, "Ts": 7242, "While": 7243, "Ġsharp": 7244, "ima": 7245, "--------------------------------": 7246, "ĠMicro": 7247, "Ġsignificance": 7248, "Ġconversation": 7249, ",\\": 7250, "ĠCap": 7251, "ĠSl": 7252, "Ġdepart": 7253, "enter": 7254, ",I": 7255, "Ġleader": 7256, ")+": 7257, "223": 7258, "Ġlibrary": 7259, "Ġgreatest": 7260, "006": 7261, "ontal": 7262, "Ġmissing": 7263, "Sm": 7264, "Ġvariation": 7265, "233": 7266, "Ġadvanced": 7267, "ĠOffice": 7268, "Ġadvance": 7269, "245": 7270, "unc": 7271, "ĠPRO": 7272, "|Ċ": 7273, "Ġnice": 7274, "Ġconj": 7275, "Ġdrugs": 7276, "Why": 7277, "ĠProfess": 7278, "Ġbelie": 7279, "PG": 7280, "ĠProgram": 7281, "Class": 7282, "Ġgames": 7283, "Ġweb": 7284, "Ġthro": 7285, "Ġpreced": 7286, "{g": 7287, "Ġspeaking": 7288, "Ġpropos": 7289, "217": 7290, "Ġgenerate": 7291, "ĠSet": 7292, "Ġsecondary": 7293, "ĠGold": 7294, "Ġvs": 7295, "(!": 7296, ",in": 7297, "Ġaccurate": 7298, "Ġinvar": 7299, "Ġbreast": 7300, "Ġconsiderable": 7301, "Ġembed": 7302, "lich": 7303, "Ġpolynom": 7304, "Ġlic": 7305, "Ġpregn": 7306, "has": 7307, "Ġprimarily": 7308, "Ġnecessarily": 7309, "/N": 7310, "Ġabsolute": 7311, "Ġgalax": 7312, "ĠGreek": 7313, "Ġspaces": 7314, "asy": 7315, "Ġaudience": 7316, "Ġremove": 7317, "War": 7318, "ublished": 7319, "Ġdesired": 7320, "Ġprime": 7321, "John": 7322, "Ġemotional": 7323, "275": 7324, "icate": 7325, "oves": 7326, "Ġpassage": 7327, "Ġadequ": 7328, "vy": 7329, "304": 7330, "gged": 7331, "fol": 7332, "ĠWind": 7333, "ĠBet": 7334, "Ġkeeping": 7335, "Ġeasier": 7336, "Ġscal": 7337, "ĠTor": 7338, "Ġaccel": 7339, "Ġcelebr": 7340, "ĠHy": 7341, "011": 7342, "+/": 7343, "Ġdram": 7344, "Ġcontrolled": 7345, "net": 7346, "fall": 7347, "ĠIndeed": 7348, "underline": 7349, "Ġturns": 7350, "Ġaid": 7351, "auss": 7352, "232": 7353, "Ã©n": 7354, "Ġsick": 7355, "Ġwatched": 7356, "Ġcash": 7357, "Ġconducted": 7358, "Ġchrom": 7359, "Ġcustomer": 7360, "Ġchem": 7361, "Ġcommunities": 7362, "Ġdecrease": 7363, "Ġbag": 7364, "Ġlip": 7365, "Ġhappens": 7366, "Ġlose": 7367, "Ġrevolution": 7368, "oped": 7369, "Sub": 7370, "pecific": 7371, "AU": 7372, "(u": 7373, "Ġnumerous": 7374, "Ġcooper": 7375, "arks": 7376, "Our": 7377, "Ġplatform": 7378, "Ġdependent": 7379, "Ġmuscle": 7380, "ĠInstead": 7381, "DB": 7382, "group": 7383, "Ġelev": 7384, "Ġhabit": 7385, "Ġkids": 7386, "-level": 7387, "ĠInternet": 7388, "_x": 7389, "Ġtrig": 7390, "Comp": 7391, "Ġshut": 7392, "truct": 7393, "ĠSpe": 7394, ".con": 7395, "di": 7396, "Ġvolt": 7397, "tre": 7398, "Ġpapers": 7399, "Ġjournal": 7400, "ĠBur": 7401, "ĠEnd": 7402, "à¥įà¤": 7403, "format": 7404, "ĠBrown": 7405, "Ġlargely": 7406, "dX": 7407, "istered": 7408, "243": 7409, "qqqq": 7410, "\\|": 7411, "_test": 7412, "ĠTex": 7413, "Go": 7414, "ĠCOM": 7415, "aven": 7416, "vas": 7417, "Ġentry": 7418, "ĠTheory": 7419, "Ġye": 7420, "ĠPolit": 7421, "MR": 7422, "Ġoxygen": 7423, "QL": 7424, "Ġsuc": 7425, "Ġton": 7426, "Ġdegrees": 7427, "View": 7428, "227": 7429, "Are": 7430, "FL": 7431, "Ġstability": 7432, "Ġphr": 7433, "version": 7434, "ivo": 7435, "Ġantic": 7436, "you": 7437, "Ġpossibly": 7438, "ĠDef": 7439, "Ġsector": 7440, "Ġnotion": 7441, "endix": 7442, "ĠSir": 7443, "UE": 7444, "Ġcalc": 7445, "Ġdistrict": 7446, "DP": 7447, "-ph": 7448, "Ġdirector": 7449, "Ġimmediate": 7450, "going": 7451, "Ġeducational": 7452, "Ġmatters": 7453, "Ġends": 7454, "ARD": 7455, "ema": 7456, "hn": 7457, "Ġveget": 7458, "ĠConf": 7459, "241": 7460, "Ġdefault": 7461, "Ġsalt": 7462, "ĠON": 7463, ":\\": 7464, "ota": 7465, "Ġrevealed": 7466, "/L": 7467, "Ġentered": 7468, "oung": 7469, "Ġofficial": 7470, "265": 7471, "Ġbrown": 7472, "Ġseg": 7473, "igration": 7474, "Ġseconds": 7475, "Ġsole": 7476, "Ġcategories": 7477, "only": 7478, "Ġexposure": 7479, "Ġimplementation": 7480, "sch": 7481, "ĠWell": 7482, "444": 7483, "-K": 7484, "Ġaus": 7485, "/z": 7486, "Ġexplanation": 7487, "rection": 7488, "Ġguard": 7489, "Ġmainly": 7490, "Ã©r": 7491, "ĠLeg": 7492, "Ġconcerns": 7493, "Ġreactions": 7494, "Ġhurt": 7495, "Ġeffectively": 7496, "Ġdimensions": 7497, "car": 7498, "Ġhelps": 7499, "isk": 7500, "226": 7501, "Ġterrit": 7502, "anish": 7503, "Ġfilter": 7504, "008": 7505, "Ġcompare": 7506, "number": 7507, "Ġinstall": 7508, "Ġreact": 7509, "wered": 7510, "oston": 7511, "Ġclassification": 7512, "Ġdomestic": 7513, "inction": 7514, "Ġcurrently": 7515, "Ġresearc": 7516, "Ġforget": 7517, "Ġinh": 7518, "RY": 7519, "Ġpool": 7520, "273": 7521, "check": 7522, "ĠAnalysis": 7523, "Rh": 7524, "ĠEX": 7525, "Ġcollabor": 7526, "Ġcoffe": 7527, "Ġintensity": 7528, "ĠFebruary": 7529, "(h": 7530, "Ġstatements": 7531, "007": 7532, "Ġsuppose": 7533, "{N": 7534, "reshold": 7535, "amples": 7536, "305": 7537, "Ġpropag": 7538, "His": 7539, "252": 7540, "ĠTw": 7541, "ometimes": 7542, "Ġurban": 7543, "Ġagric": 7544, "Ġgap": 7545, "andon": 7546, "ĠCat": 7547, ":n": 7548, "Ġmixture": 7549, "ether": 7550, "ĠJac": 7551, "ĠProceed": 7552, "transform": 7553, "/H": 7554, ".K": 7555, "Ġpert": 7556, "Ġequilibrium": 7557, "=-": 7558, "Ġoperators": 7559, "Ġbuck": 7560, "\"The": 7561, "Ġretain": 7562, "isters": 7563, "Ġsubs": 7564, "ĠAT": 7565, "Ġclub": 7566, "Ġhier": 7567, "ĠPower": 7568, "DD": 7569, "Ġju": 7570, "Ġyellow": 7571, "Ġturning": 7572, "Ġfacilit": 7573, "Ġspend": 7574, "Ġseat": 7575, "istent": 7576, "ĠUN": 7577, "Ġtail": 7578, "ictor": 7579, "merican": 7580, "Ġstuff": 7581, "\\u": 7582, "\\left": 7583, "Acc": 7584, "Ġperman": 7585, "Ġnicht": 7586, "Ġextension": 7587, "}.": 7588, "Ġbegins": 7589, "eper": 7590, "ĠBre": 7591, "ĠUK": 7592, "Ġfiles": 7593, "Ġrecorded": 7594, "âĢĻt": 7595, "However": 7596, "Ġcapable": 7597, "Ġenhance": 7598, "coming": 7599, "ullet": 7600, "Ġinfection": 7601, "ĠTV": 7602, "Ġwatching": 7603, "OF": 7604, "ĠDire": 7605, "db": 7606, "aa": 7607, "ortunately": 7608, "Ġourselves": 7609, "ĠSk": 7610, "fb": 7611, "imm": 7612, "555": 7613, "Ġstorage": 7614, "Pe": 7615, "Ġreject": 7616, "arl": 7617, "Ġsubsequent": 7618, "301": 7619, "Ġattend": 7620, ",D": 7621, "ERT": 7622, "ounded": 7623, "Ġexceed": 7624, "ĠClin": 7625, "/e": 7626, "Ġpurs": 7627, "238": 7628, "Ġconsidering": 7629, "Ġdistributed": 7630, "254": 7631, "ĠRet": 7632, "ocument": 7633, "uj": 7634, "ĠAnother": 7635, "Ġswitch": 7636, "ooking": 7637, "239": 7638, "ĠCr": 7639, "ĠUp": 7640, "ĠJul": 7641, "Ġconsequences": 7642, ",S": 7643, "osc": 7644, "248": 7645, "ungen": 7646, "May": 7647, "mean": 7648, ",w": 7649, "228": 7650, "ĠLog": 7651, "Ġstatic": 7652, "anta": 7653, "Although": 7654, "Ġchallenges": 7655, "gal": 7656, "BA": 7657, "Ġwaste": 7658, "Ġtwice": 7659, "Ġpairs": 7660, "ĠTrue": 7661, "ĠâĢ¢": 7662, "290": 7663, "Gr": 7664, "Ġinsurance": 7665, "ensus": 7666, "Ġpy": 7667, "Ġphosph": 7668, "fil": 7669, "Ġlit": 7670, "Ġ[[": 7671, "Ġrapidly": 7672, "issions": 7673, "isis": 7674, "ĠSing": 7675, "Ġfurn": 7676, "pes": 7677, "irmed": 7678, "itÃ©": 7679, "aria": 7680, "Ġfashion": 7681, "orough": 7682, "ĠCentral": 7683, "(m": 7684, "[A": 7685, "Ġknowing": 7686, "approx": 7687, "ABLE": 7688, "Ġdiscipl": 7689, "ĠLearning": 7690, "Ġthrow": 7691, "Os": 7692, "Ġenzym": 7693, "Ġcompact": 7694, "Ġadding": 7695, "Ġ(\"": 7696, "Ġhole": 7697, "ĠDesign": 7698, "xic": 7699, "Ġradius": 7700, "SR": 7701, "fficients": 7702, "Ġpartial": 7703, "750": 7704, "BD": 7705, "237": 7706, "attering": 7707, "262": 7708, "Ġprofit": 7709, "=u": 7710, "uced": 7711, "imately": 7712, "249": 7713, "Ġspecified": 7714, "253": 7715, "Ġaccounts": 7716, "ANT": 7717, "ĠJo": 7718, "Ġcoffee": 7719, "Ġfamous": 7720, "/y": 7721, "Ġfab": 7722, "ĠINT": 7723, "Value": 7724, "lik": 7725, "itan": 7726, "Ġexplore": 7727, "Ġjoin": 7728, "Ġbudget": 7729, "(-": 7730, "bour": 7731, "Ġanswers": 7732, "ĠControl": 7733, "Ġcircuit": 7734, "-V": 7735, "Ġcurves": 7736, "ĠIns": 7737, "246": 7738, "embly": 7739, "Ġbeam": 7740, "Ġom": 7741, "km": 7742, "Ġintegration": 7743, "ĠProble": 7744, "eries": 7745, "Ġordered": 7746, "space": 7747, "Ġspatial": 7748, ".add": 7749, "Ġcommonly": 7750, "Ġwinter": 7751, "_v": 7752, "hl": 7753, "plete": 7754, "orial": 7755, "ernel": 7756, "Ġped": 7757, "Ġfruit": 7758, "score": 7759, "Ġordinary": 7760, "ĠEffect": 7761, "Ġsimult": 7762, "Ġreasonable": 7763, "Ġnit": 7764, "rices": 7765, "aux": 7766, "Ġimmun": 7767, "Ġworse": 7768, "create": 7769, "Ġunion": 7770, "Ġroots": 7771, "xp": 7772, "ĠWal": 7773, "water": 7774, "Ġdust": 7775, "261": 7776, "015": 7777, "cat": 7778, "Ġsimulation": 7779, "Ġvec": 7780, "kz": 7781, "anch": 7782, "THE": 7783, "draw": 7784, "âĪĴ": 7785, "Ġsteel": 7786, "Ġlayers": 7787, ",P": 7788, "Ġcompetition": 7789, "296": 7790, ".index": 7791, "Ġcalculate": 7792, "Ġdivision": 7793, "ĠÃĹ": 7794, "iration": 7795, "Ġdiagram": 7796, "Ġevident": 7797, "file": 7798, "\\}": 7799, "plots": 7800, "normal": 7801, "uality": 7802, "Ġmilk": 7803, "iture": 7804, "Ġsuit": 7805, "Ġcro": 7806, "}}\\": 7807, "ALL": 7808, "gi": 7809, "Ġstrange": 7810, "Ġworry": 7811, "Ġdepending": 7812, "Ġweather": 7813, "oir": 7814, "Ġassociation": 7815, "ĠOR": 7816, "omer": 7817, "IZ": 7818, "281": 7819, "Ġnumerical": 7820, "Ġalcohol": 7821, "ped": 7822, ",[": 7823, "cw": 7824, "Ġhighlight": 7825, "fast": 7826, "Ġmolecular": 7827, "Ġinvolving": 7828, "=l": 7829, "KG": 7830, "Ġcriteria": 7831, "Ġwalking": 7832, "_j": 7833, "236": 7834, "ACT": 7835, "****************": 7836, "Ġdifferential": 7837, "Ġplays": 7838, "Ġ*/Ċ": 7839, "Ġbone": 7840, "ĠTechnology": 7841, "Ġsich": 7842, "'T": 7843, "Ġsnow": 7844, "Ġloop": 7845, "adian": 7846, "Note": 7847, "oday": 7848, "lu": 7849, "DF": 7850, "Ġtheories": 7851, "Ġconstraints": 7852, "ĠLabor": 7853, "Ġrecon": 7854, "ĠNever": 7855, "Ġmaps": 7856, "tenance": 7857, "Ġsugar": 7858, "Her": 7859, "Ġhidden": 7860, "Ġanalys": 7861, "nan": 7862, "Ġhypothesis": 7863, "242": 7864, "Ġvess": 7865, "UV": 7866, "\\right": 7867, ",B": 7868, "Ġmanufacture": 7869, "Ġplayers": 7870, "Ġconcerning": 7871, "Off": 7872, "ĠAv": 7873, "Ġdecide": 7874, "(y": 7875, "oured": 7876, "']Ċ": 7877, "Af": 7878, "eller": 7879, "Ġresource": 7880, "rene": 7881, "Ġuniversal": 7882, "Ġestimates": 7883, ".in": 7884, "Ġdescribes": 7885, "ottom": 7886, "=c": 7887, "atio": 7888, "iones": 7889, "bled": 7890, "{M": 7891, "ĠMartin": 7892, "/r": 7893, "azine": 7894, "Ġdiscover": 7895, "wa": 7896, "();": 7897, "Rem": 7898, "ĠRussian": 7899, "Ġtelling": 7900, "Ġpanel": 7901, "Ke": 7902, "Ġdropped": 7903, "ĠId": 7904, "Ġimprovement": 7905, "012": 7906, "ĠProceedings": 7907, "Ġdepos": 7908, "Ġconsumption": 7909, ",L": 7910, "Just": 7911, "247": 7912, ".V": 7913, "Ġasking": 7914, "aneously": 7915, "Ġmetab": 7916, "Ġcolumns": 7917, "Ġoutl": 7918, "Ġ----": 7919, "Ġadopted": 7920, "ĠMedic": 7921, "Ġmanaged": 7922, "Ġproportion": 7923, "Ġdepartment": 7924, "251": 7925, "aud": 7926, "Ġconsideration": 7927, "Ġprompt": 7928, "UP": 7929, "ĠLee": 7930, "ympt": 7931, "ersonal": 7932, "anguages": 7933, "Ġcoast": 7934, "open": 7935, "bing": 7936, "Ġjobs": 7937, "ĠJoseph": 7938, "uing": 7939, "Ġreson": 7940, "Ġsuperior": 7941, "seud": 7942, "ĠReport": 7943, ".text": 7944, "Ġdifficulty": 7945, "Ġbeat": 7946, "stream": 7947, "Ġmechanisms": 7948, "Ġadvice": 7949, "310": 7950, "oting": 7951, "non": 7952, "bin": 7953, "agen": 7954, "BM": 7955, "Reg": 7956, "285": 7957, "esian": 7958, "Ġsan": 7959, "Ġfro": 7960, "ECT": 7961, "Ġhal": 7962, "Ġeine": 7963, "kh": 7964, "Ġintroduction": 7965, "Ġunderlying": 7966, "SH": 7967, "Ġfault": 7968, "riend": 7969, "night": 7970, "Ġintroduce": 7971, "fraid": 7972, "Ġfocused": 7973, "Ġtruly": 7974, "burg": 7975, "Ġpercentage": 7976, "Ġarticles": 7977, "ĠSuper": 7978, "Ġsounds": 7979, "Ġcrime": 7980, "ployment": 7981, "imer": 7982, "writ": 7983, "hav": 7984, "ĠArab": 7985, "Ġstick": 7986, "Ġlen": 7987, "Ġshock": 7988, "bles": 7989, "Ġteach": 7990, "Ġemployment": 7991, "Ġclothes": 7992, "{R": 7993, "390": 7994, "Ġtopic": 7995, "BR": 7996, "ea": 7997, "font": 7998, "tz": 7999, "Ġrend": 8000, "ĠDen": 8001, "Ġrecognize": 8002, "Ġsorry": 8003, "Right": 8004, "Ġdriving": 8005, "reme": 8006, "Ġsucceed": 8007, "rich": 8008, "emp": 8009, "311": 8010, "[a": 8011, "auge": 8012, "Ġreturns": 8013, "Ġhealthy": 8014, "Ġdependence": 8015, "ĠSP": 8016, "Ġadults": 8017, "BO": 8018, "ĠAccuracy": 8019, "Ġstructural": 8020, "ĠRoad": 8021, "Ġhumans": 8022, "icular": 8023, "\\%": 8024, "Ġvisible": 8025, "erver": 8026, "Ġnewsp": 8027, "uilding": 8028, "ĠIntroduction": 8029, "Ġcollected": 8030, "iger": 8031, "Ġattitude": 8032, "ĠList": 8033, "Ġodd": 8034, "Ġperiods": 8035, "Ġapproximation": 8036, "Ġradiation": 8037, "MF": 8038, "Ġgrew": 8039, "cor": 8040, "iac": 8041, "oking": 8042, "Ġrect": 8043, "Ġportion": 8044, "302": 8045, "Ġoutcome": 8046, "Ġmomentum": 8047, "ĠExpl": 8048, "CV": 8049, "Ġcoefficients": 8050, "met": 8051, "tail": 8052, "inking": 8053, "umes": 8054, "rance": 8055, "attice": 8056, "-width": 8057, "244": 8058, "ĠNature": 8059, "Ġteeth": 8060, "Ġcart": 8061, "-J": 8062, "allow": 8063, "406": 8064, "Ġsed": 8065, "ĠWood": 8066, "Ġevaluate": 8067, "Ġobserve": 8068, "Ġwire": 8069, "Ġearn": 8070, "267": 8071, "-ind": 8072, "arse": 8073, "Ġguy": 8074, "ĠConsider": 8075, "Ġlogic": 8076, "Ġcomplexity": 8077, "ĠTer": 8078, "/G": 8079, "ĠMel": 8080, "Ġprofile": 8081, "-ex": 8082, "asm": 8083, "Ġquantity": 8084, "ĠHand": 8085, "Ġdrawing": 8086, "oz": 8087, "lie": 8088, "Ġanswered": 8089, "ĠEs": 8090, "Ġequally": 8091, "Ġinvestigation": 8092, "Ġreplaced": 8093, "Ġwebs": 8094, "ĠBusiness": 8095, "Ġfellow": 8096, "257": 8097, "Ġmostly": 8098, "ĠAdv": 8099, "009": 8100, "Ġremem": 8101, "ervice": 8102, "ĠGrand": 8103, "None": 8104, "_size": 8105, "adding": 8106, "Ġintent": 8107, "Ġclar": 8108, "ĠAnswer": 8109, "QD": 8110, "esis": 8111, "iral": 8112, "tl": 8113, "Ġdemonstrate": 8114, "Ġdirected": 8115, "oked": 8116, "ĠEll": 8117, "full": 8118, "Ġplayer": 8119, "ĠDou": 8120, "-old": 8121, "Ġoptical": 8122, "Ġspecifically": 8123, "Ġacademic": 8124, "Ġsensitive": 8125, "orted": 8126, "Ġremind": 8127, "Ġallowing": 8128, "First": 8129, "ĠSund": 8130, "Ġmarkets": 8131, "list": 8132, "Ġfunds": 8133, "Ġafraid": 8134, "ĠMedical": 8135, "ĠPers": 8136, "asant": 8137, "269": 8138, "340": 8139, "Ġevil": 8140, "Ġconfiguration": 8141, "effect": 8142, "Ġdefect": 8143, "grid": 8144, "Ġil": 8145, "Ġcontributions": 8146, "_h": 8147, "pan": 8148, "igation": 8149, "Ġpresents": 8150, "vv": 8151, "Ġcentre": 8152, ",R": 8153, "Ġdisturb": 8154, "\"><": 8155, "quare": 8156, "Ġblow": 8157, "bel": 8158, "Ġdesc": 8159, "erman": 8160, "Ġgarden": 8161, "Ġhardly": 8162, "Point": 8163, "Ġwriter": 8164, "414": 8165, "Ġliber": 8166, "Ġvaluable": 8167, "dG": 8168, "Ġmetric": 8169, "328": 8170, "iy": 8171, "ente": 8172, "clusions": 8173, "Ġfirms": 8174, "########": 8175, "Ġdefend": 8176, "Ġ->": 8177, "agon": 8178, "RL": 8179, "ĠMale": 8180, "{x": 8181, ",g": 8182, "Ġelectronic": 8183, "Ġformat": 8184, "ĠAtt": 8185, "ĠLes": 8186, "DE": 8187, "Ġgentle": 8188, "DA": 8189, "Ġcov": 8190, "Ġfinger": 8191, "330": 8192, "Ġshell": 8193, ".data": 8194, "Ġlisted": 8195, "Ġhem": 8196, "Ġmolecules": 8197, "ĠBoard": 8198, "Ġorg": 8199, "YS": 8200, "Ġpil": 8201, "after": 8202, "Ġcert": 8203, "ĠLibrary": 8204, "ĠTim": 8205, "Ġcareful": 8206, "ĠBill": 8207, "272": 8208, "clusive": 8209, "ĠWater": 8210, "Ġchart": 8211, "Ġsatisfied": 8212, "itial": 8213, "Ġinduced": 8214, "ĠThree": 8215, "Ġstages": 8216, "Ġsymmetry": 8217, "ĠLatin": 8218, "Ġrare": 8219, "Ġho": 8220, "888": 8221, "ĠOper": 8222, "(g": 8223, "Ġtall": 8224, "Ġalgorithms": 8225, "Ġinterface": 8226, "elihood": 8227, "777": 8228, "\"S": 8229, "ĠMach": 8230, "Cor": 8231, "ĠPubl": 8232, "vc": 8233, "tri": 8234, "ĠConst": 8235, "Ġtrained": 8236, "Ġcoefficient": 8237, "Ġvast": 8238, "ĠExt": 8239, "Ġrealize": 8240, "Ġextensive": 8241, "Ġdil": 8242, "ĠCam": 8243, "Ġvert": 8244, "Ġru": 8245, "Ġnine": 8246, "Mc": 8247, "ocial": 8248, "Ġcycl": 8249, "Ġtone": 8250, "Ġmovements": 8251, "288": 8252, "ĠHill": 8253, "rb": 8254, "Ġdiffer": 8255, "Ġtaught": 8256, "Ġcluster": 8257, "aurant": 8258, "259": 8259, "Ġexception": 8260, "cell": 8261, "384": 8262, "Ġsubset": 8263, "CK": 8264, "ieval": 8265, "Ġmarketing": 8266, "State": 8267, "areness": 8268, "(function": 8269, "Key": 8270, "VD": 8271, "-v": 8272, "325": 8273, "264": 8274, "aul": 8275, "bur": 8276, "auc": 8277, "Ġdecay": 8278, "idade": 8279, "quir": 8280, "defined": 8281, "ĠGet": 8282, "{F": 8283, "263": 8284, "ascular": 8285, "rogen": 8286, "unning": 8287, "Ġchap": 8288, "ĠTimes": 8289, "-day": 8290, "Ġprecisely": 8291, "Ġmagnitude": 8292, "Ġwav": 8293, "ĠSon": 8294, "Ġlisten": 8295, "ĠĠĠĠĠĠĠĠĠĠĠĠĠĠĠĠĠĠĠĠ": 8296, "soft": 8297, "Ass": 8298, "ques": 8299, "CTION": 8300, "Ġraise": 8301, "Image": 8302, "Ġtells": 8303, "Ġexamination": 8304, "ĠCre": 8305, "Ġstands": 8306, "Ġproteins": 8307, "tw": 8308, "Ġnoticed": 8309, "Ġtong": 8310, "Ġnom": 8311, "HS": 8312, "Ġtraffic": 8313, "ez": 8314, "Rec": 8315, "Ġcompens": 8316, "aret": 8317, "Ġsecure": 8318, "Ġeditor": 8319, "dagger": 8320, "fit": 8321, "298": 8322, "atrix": 8323, "Ġescape": 8324, "]$": 8325, "ĠHamilton": 8326, "266": 8327, "Ġincreasingly": 8328, "Ġcontemporary": 8329, "Another": 8330, "ogue": 8331, "ĠEp": 8332, "Ġcloud": 8333, "Ġconventional": 8334, "nb": 8335, ".âĢĿĊ": 8336, "Ġwine": 8337, "Ġfourth": 8338, "ARY": 8339, "Def": 8340, "Ġunable": 8341, "Ġreleased": 8342, "Ġvul": 8343, "(A": 8344, "Ġtermin": 8345, "white": 8346, "Ġtrip": 8347, "Ġaccum": 8348, "Ġpassing": 8349, "aylor": 8350, "277": 8351, "Ġarter": 8352, "Ġalter": 8353, "315": 8354, "Ġgrown": 8355, ".a": 8356, "Ġgrass": 8357, "Ġtoler": 8358, "quest": 8359, "Ġ).": 8360, "ulus": 8361, "Bo": 8362, "cb": 8363, "ĠType": 8364, ".st": 8365, "}_{\\": 8366, "Ġdf": 8367, "Ġbinding": 8368, "iar": 8369, "ĠStudy": 8370, "ulum": 8371, "Ġtensor": 8372, "cx": 8373, "Ġruns": 8374, "iem": 8375, "Ġstatistical": 8376, "Ġpreparation": 8377, "host": 8378, "ĠApplic": 8379, "erted": 8380, "Ġcontrad": 8381, "Ġsig": 8382, "Ã¨re": 8383, "Ġhouses": 8384, ".type": 8385, "Ġavec": 8386, "Well": 8387, "rip": 8388, "Ġjoined": 8389, "irical": 8390, "Ġmodes": 8391, "noon": 8392, "Out": 8393, "Ġproperly": 8394, "Ġshel": 8395, "Ġtransmission": 8396, "ĠNav": 8397, "onald": 8398, "iana": 8399, "Ġtaste": 8400, "Îµ": 8401, "345": 8402, "Ġbuff": 8403, "291": 8404, "Ġcrisis": 8405, "cons": 8406, "LO": 8407, "Ġneuro": 8408, "Ġclip": 8409, "Size": 8410, "Ġreconst": 8411, "scill": 8412, "ĠVis": 8413, "Ġexplo": 8414, "Ġske": 8415, "Ġstruggle": 8416, "claim": 8417, "Ġtranslation": 8418, "Ġpartner": 8419, "365": 8420, "313": 8421, "Ġcontribute": 8422, "Ġsynd": 8423, "Ġrail": 8424, "Ġwet": 8425, "ĠTexas": 8426, "kes": 8427, "dt": 8428, "*Ċ": 8429, "ĠNY": 8430, "amber": 8431, "299": 8432, "Ġtelevision": 8433, "lder": 8434, "Ġextreme": 8435, "Ġsubstantial": 8436, "Ġbeside": 8437, "316": 8438, "-free": 8439, "Ġpublication": 8440, "Ġregime": 8441, "ateral": 8442, "Ġsilver": 8443, "Ġsought": 8444, "Ġpictures": 8445, "Ġinstrument": 8446, "Ġmad": 8447, "Ġpicked": 8448, "ĠWang": 8449, "Ġsummar": 8450, "finition": 8451, "=\\": 8452, "Ġpromise": 8453, "\"}": 8454, "Ġinstruction": 8455, "_st": 8456, "018": 8457, "Ġvehicle": 8458, "Ġcontrols": 8459, "total": 8460, "_C": 8461, "Ġtemperatures": 8462, "Ġidentical": 8463, "nergy": 8464, "Ġtested": 8465, "Ġintelligence": 8466, "Ġradical": 8467, "Ġinterpret": 8468, "Ġyields": 8469, "043": 8470, "Ġsplit": 8471, "Ġidentification": 8472, "Ġimagine": 8473, "Ġpaint": 8474, "Ġconstructed": 8475, "ĠAR": 8476, "ĠâĪĴ": 8477, "Ġatoms": 8478, "length": 8479, "Ġconsequence": 8480, "Ġcamera": 8481, "Ġamounts": 8482, "late": 8483, "rency": 8484, "{P": 8485, "ificial": 8486, "Ġfuel": 8487, "Question": 8488, "lets": 8489, "Ġmoments": 8490, "float": 8491, "307": 8492, "324": 8493, "PU": 8494, "icated": 8495, "Ġdesk": 8496, "Ġdocuments": 8497, "code": 8498, "Ġjourney": 8499, "Ġaccident": 8500, "ĠChen": 8501, "Eu": 8502, "Ġfaster": 8503, "Ġmorph": 8504, "Ġdangerous": 8505, "Ġpermission": 8506, ",T": 8507, "mediate": 8508, "EO": 8509, "Ġorganized": 8510, "480": 8511, "Ġdatabase": 8512, "Ġwear": 8513, "_name": 8514, "Ġtip": 8515, "Ġengineering": 8516, "Ġshr": 8517, "Ġsad": 8518, "Ġgender": 8519, "Ġinstant": 8520, "258": 8521, "sa": 8522, "Ġnos": 8523, "rif": 8524, "640": 8525, "Date": 8526, "Ġpron": 8527, "eping": 8528, "NF": 8529, "Ġregarded": 8530, "Ġthermal": 8531, "ĠNov": 8532, "Ġuncon": 8533, "ĠColl": 8534, "utely": 8535, "Ġsup": 8536, "Ġrecommended": 8537, "Ġreaders": 8538, "Ġemission": 8539, "ORD": 8540, "Ġprev": 8541, "ĠPan": 8542, "gent": 8543, "ala": 8544, "Ġfacilities": 8545, "ĠYes": 8546, "icken": 8547, "Ġcorresponds": 8548, "ĠScott": 8549, "pert": 8550, "acher": 8551, "remove": 8552, "Ġgather": 8553, "Ġdeli": 8554, "Î½": 8555, "Ġdiagnosis": 8556, "iva": 8557, "(X": 8558, "+f": 8559, "_T": 8560, "Ġscores": 8561, "ishop": 8562, "true": 8563, "OK": 8564, "Ġcra": 8565, "Ġlaid": 8566, "Ġwest": 8567, "Ġargued": 8568, "illy": 8569, "271": 8570, "ipping": 8571, "ĨĴ": 8572, "Ġgate": 8573, "Ġepoch": 8574, "Ġbread": 8575, "Ġparad": 8576, "Ġsignals": 8577, "ĠGiven": 8578, "Ġinjury": 8579, "Ġflux": 8580, "Ġrecip": 8581, "/J": 8582, "ĠOpt": 8583, "Ġprediction": 8584, "icious": 8585, "cdots": 8586, "Ġentre": 8587, "Ġexamine": 8588, "ku": 8589, "ello": 8590, "SA": 8591, "Ġtit": 8592,
[...]
