{"version": "1.0", "truncation": null, "padding": null, "added_tokens": [{"id": 32742, "content": "<|endoftext|>", "single_word": false, "lstrip": false, "rstrip": false, "normalized": false, "special": true}, {"id": 32743, "content": "<|im_start|>", "single_word": false, "lstrip": false, "rstrip": false, "normalized": false, "special": true}, {"id": 32744, "content": "<|im_end|>", "single_word": false, "lstrip": false, "rstrip": false, "normalized": false, "special": true}, {"id": 32745, "content": "<|object_ref_start|>", "normalized": false, "lstrip": false, "rstrip": false, "single_word": false, "special": true}, {"id": 32746, "content": "<|object_ref_end|>", "normalized": false, "lstrip": false, "rstrip": false, "single_word": false, "special": true}, {"id": 32747, "content": "<|box_start|>", "normalized": false, "lstrip": false, "rstrip": false, "single_word": false, "special": true}, {"id": 32748, "content": "<|box_end|>", "normalized": false, "lstrip": false, "rstrip": false, "single_word": false, "special": true}, {"id": 32749, "content": "<|quad_start|>", "normalized": false, "lstrip": false, "rstrip": false, "single_word": false, "special": true}, {"id": 32750, "content": "<|quad_end|>", "normalized": false, "lstrip": false, "rstrip": false, "single_word": false, "special": true}, {"id": 32751, "content": "<|vision_start|>", "normalized": false, "lstrip": false, "rstrip": false, "single_word": false, "special": true}, {"id": 32752, "content": "<|vision_end|>", "normalized": false, "lstrip": false, "rstrip": false, "single_word": false, "special": true}, {"id": 32753, "content": "<|vision_pad|>", "normalized": false, "lstrip": false, "rstrip": false, "single_word": false, "special": true}, {"id": 32754, "content": "<|image_pad|>", "normalized": false, "lstrip": false, "rstrip": false, "single_word": false, "special": true}, {"id": 32755, "content": "<|video_pad|>", "normalized": false, "lstrip": false, "rstrip": false, "single_word": false, "special": true}, {"id": 32756, "content": "<tool_call>", "lstrip": false, "normalized": false, "rstrip": false, "single_word": false, "special": false}, {"id": 32757, "content": "</tool_call>", "lstrip": false, "normalized": false, "rstrip": false, "single_word": false, "special": false}, {"id": 32758, "content": "<|fim_prefix|>", "lstrip": false, "normalized": false, "rstrip": false, "single_word": false, "special": false}, {"id": 32759, "content": "<|fim_middle|>", "lstrip": false, "normalized": false, "rstrip": false, "single_word": false, "special": false}, {"id": 32760, "content": "<|fim_suffix|>", "lstrip": false, "normalized": false, "rstrip": false, "single_word": false, "special": false}, {"id": 32761, "content": "<|fim_pad|>", "lstrip": false, "normalized": false, "rstrip": false, "single_word": false, "special": false}, {"id": 32762, "content": "<|repo_name|>", "lstrip": false, "normalized": false, "rstrip": false, "single_word": false, "special": false}, {"id": 32763, "content": "<|file_sep|>", "lstrip": false, "normalized": false, "rstrip": false, "single_word": false, "special": false}, {"id": 32764, "content": "<tool_response>", "lstrip": false, "normalized": false, "rstrip": false, "single_word": false, "special": false}, {"id": 32765, "content": "</tool_response>", "lstrip": false, "normalized": false, "rstrip": false, "single_word": false, "special": false}, {"id": 32766, "content": "<think>", "lstrip": false, "normalized": false, "rstrip": false, "single_word": false, "special": false}, {"id": 32767, "content": "</think>", "lstrip": false, "normalized": false, "rstrip": false, "single_word": false, "special": false}], "normalizer": {"type": "NFC"}, "pre_tokenizer": {"type": "Sequence", "pretokenizers": [{"type": "Split", "pattern": {"Regex": "(?i:'s|'t|'re|'ve|'m|'ll|'d)|[^\\r\\n\\p{L}\\p{N}]?[\\p{L}\\p{M}]+|\\p{N}| ?[^\\s\\p{L}\\p{M}\\p{N}]+[\\r\\n]*|\\s*[\\r\\n]+|\\s+(?!\\S)|\\s+"}, "behavior": "Isolated", "invert": false}, {"type": "ByteLevel", "add_prefix_space": false, "trim_offsets": false, "use_regex": false}]}, "post_processor": {"type": "ByteLevel", "add_prefix_space": false, "trim_offsets": false, "use_regex": false}, "decoder": {"type": "ByteLevel", "add_prefix_space": false, "trim_offsets": false, "use_regex": false}, "model": {"type": "BPE", "dropout": null, "unk_token": null, "continuing_subword_prefix": "", "end_of_word_suffix": "", "fuse_unk": false, "byte_fallback": false, "ignore_merges": false, "vocab": {"!": 0, "\"": 1, "#": 2, "$": 3, "%": 4, "&": 5, "'": 6, "(": 7, ")": 8, "*": 9, "+": 10, ",": 11, "-": 12, ".": 13, "/": 14, "0": 15, "1": 16, "2": 17, "3": 18, "4": 19, "5": 20, "6": 21, "7": 22, "8": 23, "9": 24, ":": 25, ";": 26, "<": 27, "=": 28, ">": 29, "?": 30, "@": 31, "A": 32, "B": 33, "C": 34, "D": 35, "E": 36, "F": 37, "G": 38, "H": 39, "I": 40, "J": 41, "K": 42, "L": 43, "M": 44, "N": 45, "O": 46, "P": 47, "Q": 48, "R": 49, "S": 50, "T": 51, "U": 52, "V": 53, "W": 54, "X": 55, "Y": 56, "Z": 57, "[": 58, "\\": 59, "]": 60, "^": 61, "_": 62, "`": 63, "a": 64, "b": 65, "c": 66, "d": 67, "e": 68, "f": 69, "g": 70, "h": 71, "i": 72, "j": 73, "k": 74, "l": 75, "m": 76, "n": 77, "o": 78, "p": 79, "q": 80, "r": 81, "s": 82, "t": 83, "u": 84, "v": 85, "w": 86, "x": 87, "y": 88, "z": 89, "{": 90, "|": 91, "}": 92, "~": 93, "¡": 94, "¢": 95, "£": 96, "¤": 97, "¥": 98, "¦": 99, "§": 100, "¨": 101, "©": 102, "ª": 103, "«": 104, "¬": 105, "®": 106, "¯": 107, "°": 108, "±": 109, "²": 110, "³": 111, "´": 112, "µ": 113, "¶": 114, "·": 115, "¸": 116, "¹": 117, "º": 118, "»": 119, "¼": 120, "½": 121, "¾": 122, "¿": 123, "À": 124, "Á": 125, "Â": 126, "Ã": 127, "Ä": 128, "Å": 129, "Æ": 130, "Ç": 131, "È": 132, "É": 133, "Ê": 134, "Ë": 135, "Ì": 136, "Í": 137, "Î": 138, "Ï": 139, "Ð": 140, "Ñ": 141, "Ò": 142, "Ó": 143, "Ô": 144, "Õ": 145, "Ö": 146, "×": 147, "Ø": 148, "Ù": 149, "Ú": 150, "Û": 151, "Ü": 152, "Ý": 153, "Þ": 154, "ß": 155, "à": 156, "á": 157, "â": 158, "ã": 159, "ä": 160, "å": 161, "æ": 162, "ç": 163, "è": 164, "é": 165, "ê": 166, "ë": 167, "ì": 168, "í": 169, "î": 170, "ï": 171, "ð": 172, "ñ": 173, "ò": 174, "ó": 175, "ô": 176, "õ": 177, "ö": 178, "÷": 179, "ø": 180, "ù": 181, "ú": 182, "û": 183, "ü": 184, "ý": 185, "þ": 186, "ÿ": 187, "Ā": 188, "ā": 189, "Ă": 190, "ă": 191, "Ą": 192, "ą": 193, "Ć": 194, "ć": 195, "Ĉ": 196, "ĉ": 197, "Ċ": 198, "ċ": 199, "Č": 200, "č": 201, "Ď": 202, "ď": 203, "Đ": 204, "đ": 205, "Ē": 206, "ē": 207, "Ĕ": 208, "ĕ": 209, "Ė": 210, "ė": 211, "Ę": 212, "ę": 213, "Ě": 214, "ě": 215, "Ĝ": 216, "ĝ": 217, "Ğ": 218, "ğ": 219, "Ġ": 220, "ġ": 221, "Ģ": 222, "ģ": 223, "Ĥ": 224, "ĥ": 225, "Ħ": 226, "ħ": 227, "Ĩ": 228, "ĩ": 229, "Ī": 230, "ī": 231, "Ĭ": 232, "ĭ": 233, "Į": 234, "į": 235, "İ": 236, "ı": 237, "Ĳ": 238, "ĳ": 239, "Ĵ": 240, "ĵ": 241, "Ķ": 242, "ķ": 243, "ĸ": 244, "Ĺ": 245, "ĺ": 246, "Ļ": 247, "ļ": 248, "Ľ": 249, "ľ": 250, "Ŀ": 251, "ŀ": 252, "Ł": 253, "ł": 254, "Ń": 255, "ĠĠ": 256, "ĠĠĠĠ": 257, "in": 258, "Ġt": 259, "ĠĠĠĠĠĠĠĠ": 260, "er": 261, "ĠĠĠ": 262, "on": 263, "Ġa": 264, "re": 265, "at": 266, "st": 267, "en": 268, "or": 269, "Ġth": 270, "ĊĊ": 271, "Ġc": 272, "le": 273, "Ġs": 274, "it": 275, "an": 276, "ar": 277, "al": 278, "Ġthe": 279, "Ġp": 280, "Ġf": 281, "ou": 282, "Ġ=": 283, "is": 284, "ĠĠĠĠĠĠĠ": 285, "ing": 286, "es": 287, "Ġw": 288, "ion": 289, "ed": 290, "ic": 291, "Ġb": 292, "Ġd": 293, "et": 294, "Ġm": 295, "Ġo": 296, "ro": 297, "as": 298, "el": 299, "ct": 300, "nd": 301, "Ġin": 302, "Ġh": 303, "ent": 304, "id": 305, "Ġn": 306, "am": 307, "ĠĠĠĠĠĠĠĠĠĠĠ": 308, "Ġto": 309, "Ġre": 310, "--": 311, "Ġ{": 312, "Ġof": 313, "om": 314, "im": 315, "čĊ": 316, "Ġ(": 317, "il": 318, "//": 319, "Ġand": 320, "ur": 321, "se": 322, "Ġl": 323, "ex": 324, "ĠS": 325, "ad": 326, "Ġ\"": 327, "ch": 328, "ut": 329, "if": 330, "**": 331, "Ġ}": 332, "em": 333, "ol": 334, "ĠĠĠĠĠĠĠĠĠĠĠĠĠĠĠĠ": 335, "th": 336, "Ġg": 337, "ig": 338, "iv": 339, "ce": 340, "od": 341, "Ġv": 342, "ate": 343, "ĠT": 344, "ag": 345, "ay": 346, "Ġ*": 347, "ot": 348, "us": 349, "ĠC": 350, "Ġst": 351, "ĠI": 352, "un": 353, "ul": 354, "ue": 355, "ĠA": 356, "ow": 357, "Ġ'": 358, "ew": 359, "Ġ<": 360, "ation": 361, "()": 362, "Ġfor": 363, "ab": 364, "ort": 365, "um": 366, "ame": 367, "Ġis": 368, "pe": 369, "tr": 370, "ck": 371, "âĢ": 372, "Ġy": 373, "ist": 374, "----": 375, "he": 376, "Ġe": 377, "lo": 378, "ĠM": 379, "Ġbe": 380, "ers": 381, "Ġon": 382, "Ġcon": 383, "ap": 384, "ub": 385, "ĠP": 386, "ĠĠĠĠĠĠĠĠĠĠĠĠĠĠĠ": 387, "ass": 388, "int": 389, "ly": 390, "urn": 391, "Ġ$": 392, "av": 393, "port": 394, "ir": 395, "->": 396, "nt": 397, "ction": 398, "end": 399, "Ġde": 400, "ith": 401, "out": 402, "turn": 403, "our": 404, "ĠĠĠĠĠ": 405, "lic": 406, "res": 407, "pt": 408, "==": 409, "Ġthis": 410, "Ġwh": 411, "Ġif": 412, "ĠD": 413, "ver": 414, "age": 415, "ĠB": 416, "ht": 417, "ext": 418, "=\"": 419, "Ġthat": 420, "****": 421, "ĠR": 422, "Ġit": 423, "ess": 424, "ĠF": 425, "Ġr": 426, "os": 427, "and": 428, "Ġas": 429, "ect": 430, "ke": 431, "rom": 432, "Ġ//": 433, "con": 434, "ĠL": 435, "(\"": 436, "qu": 437, "lass": 438, "Ġwith": 439, "iz": 440, "de": 441, "ĠN": 442, "Ġal": 443, "op": 444, "up": 445, "get": 446, "ile": 447, "Ġan": 448, "ata": 449, "ore": 450, "ri": 451, "Ġpro": 452, "ter": 453, "ain": 454, "ĠW": 455, "ĠE": 456, "Ġcom": 457, "Ġreturn": 458, "art": 459, "ĠH": 460, "ack": 461, "import": 462, "ublic": 463, "Ġor": 464, "est": 465, "ment": 466, "ĠG": 467, "able": 468, "Ġ-": 469, "ine": 470, "ill": 471, "ind": 472, "ere": 473, "::": 474, "ity": 475, "Ġ+": 476, "Ġtr": 477, "elf": 478, "ight": 479, "('": 480, "orm": 481, "ult": 482, "str": 483, "..": 484, "\",": 485, "Ġyou": 486, "ype": 487, "pl": 488, "Ġnew": 489, "Ġj": 490, "ĠĠĠĠĠĠĠĠĠĠĠĠĠĠĠĠĠĠĠ": 491, "Ġfrom": 492, "Ġex": 493, "ĠO": 494, "ld": 495, "Ġ[": 496, "oc": 497, "Ġse": 498, "Ġle": 499, "--------": 500, ".s": 501, "',": 502, "ant": 503, "Ġat": 504, "ase": 505, ".c": 506, "Ġch": 507, "</": 508, "ave": 509, "ang": 510, "Ġare": 511, "Ġint": 512, "âĢĻ": 513, "_t": 514, "ert": 515, "ial": 516, "act": 517, "ive": 518, "ode": 519, "ost": 520, "Ġclass": 521, "Ġnot": 522, "og": 523, "ord": 524, "alue": 525, "all": 526, "ff": 527, "ont": 528, "ime": 529, "are": 530, "ĠU": 531, "Ġpr": 532, "Ġ:": 533, "ies": 534, "ize": 535, "ure": 536, "Ġby": 537, "ire": 538, ".p": 539, "Ġsh": 540, "ice": 541, "ast": 542, "ption": 543, "tring": 544, "ok": 545, "__": 546, "cl": 547, "##": 548, "Ġhe": 549, "ard": 550, ").": 551, "Ġ@": 552, "iew": 553, "Ġwas": 554, "ip": 555, "this": 556, "Ġu": 557, "ĠThe": 558, "ide": 559, "ace": 560, "ib": 561, "ac": 562, "rou": 563, "Ġwe": 564, "ject": 565, "Ġpublic": 566, "ak": 567, "ve": 568, "ath": 569, "oid": 570, "Ġ=>": 571, "ust": 572, "que": 573, "Ġres": 574, "))": 575, "'s": 576, "Ġk": 577, "ans": 578, "yst": 579, "unction": 580, "********": 581, "Ġi": 582, "Ġus": 583, "pp": 584, "one": 585, "ail": 586, "====": 587, "name": 588, "Ġstr": 589, "Ġ/": 590, "Ġ&": 591, "ach": 592, "div": 593, "ystem": 594, "ell": 595, "Ġhave": 596, "err": 597, "ould": 598, "ull": 599, "pon": 600, "ĠJ": 601, "_p": 602, "Ġ==": 603, "ign": 604, "St": 605, "Ġpl": 606, "form": 607, "put": 608, "ount": 609, "dd": 610, "ite": 611, "Ġget": 612, "rr": 613, "ome": 614, "ĠâĢ": 615, "aram": 616, "cc": 617, "Ġ*/": 618, "ER": 619, "In": 620, "les": 621, "_s": 622, "ong": 623, "ie": 624, "Ġcan": 625, "ĠV": 626, "erv": 627, "pr": 628, "Ġun": 629, "row": 630, "ber": 631, "Ġdo": 632, "ll": 633, "Ġel": 634, "Ġself": 635, "ated": 636, "ary": 637, "Ġ.": 638, "']": 639, "ud": 640, "Ġen": 641, "ĠTh": 642, "ĠĠĠĠĠĠĠĠĠĠĠĠĠĠĠĠĠĠĠĠĠĠĠ": 643, "te": 644, "_c": 645, "uct": 646, "Ġab": 647, "ork": 648, ".get": 649, "Ġ#": 650, "aw": 651, "ress": 652, "ob": 653, "Name": 654, "app": 655, "['": 656, "Ġall": 657, "ory": 658, "ition": 659, "ance": 660, "ear": 661, "Ġcont": 662, "vent": 663, "ia": 664, "Ġwill": 665, "IN": 666, "ĠĠĠĠĠĠĠĠĠ": 667, "return": 668, "Ġ</": 669, "data": 670, "Re": 671, "ple": 672, "ild": 673, "ther": 674, "Ġyour": 675, "($": 676, "Ġout": 677, "),": 678, "Ġhas": 679, "String": 680, "so": 681, "Ġup": 682, "ax": 683, "Ġdef": 684, "Ġbo": 685, "ge": 686, "alse": 687, "ON": 688, "per": 689, "ich": 690, "Ġbut": 691, "ĠĊ": 692, "Ġ_": 693, "_m": 694, "add": 695, "quest": 696, "odel": 697, "self": 698, "ery": 699, "ft": 700, "ens": 701, "ake": 702, ".C": 703, "Ġgo": 704, "Ġfunction": 705, "ĠK": 706, "ivate": 707, "Ġim": 708, "Ġconst": 709, ".t": 710, "Ġvoid": 711, "Ġset": 712, "ĠSystem": 713, "cri": 714, "li": 715, ".m": 716, "ally": 717, "set": 718, "ep": 719, "âĢĻs": 720, "bo": 721, "def": 722, "Ġme": 723, "Ġ!": 724, "atch": 725, "\">": 726, "ec": 727, "ĠIn": 728, "ph": 729, "Ġ|": 730, "_f": 731, "Ġvar": 732, "ence": 733, "Id": 734, "ree": 735, "ink": 736, "lect": 737, "ug": 738, "eth": 739, "Ġelse": 740, "----------------": 741, "cont": 742, "Ġso": 743, "atic": 744, "Ġlo": 745, "pro": 746, "ton": 747, "ss": 748, "own": 749, "abel": 750, "oint": 751, "ous": 752, "eld": 753, "ST": 754, "The": 755, "ĠĠĠĠĠĠĠĠĠĠĠĠĠĠĠĠĠĠĠĠĠĠĠĠĠĠĠĠĠĠĠĠ": 756, "RE": 757, "\":": 758, "olor": 759, "tp": 760, "eg": 761, "key": 762, "ude": 763, "ĠSt": 764, "ound": 765, "Ġar": 766, "ener": 767, "ser": 768, "bject": 769, "essage": 770, "fer": 771, "Ġmore": 772, "ations": 773, "ents": 774, "Ġhis": 775, "Ġthey": 776, ".S": 777, "ĠY": 778, "use": 779, "ne": 780, "ish": 781, "old": 782, "_d": 783, "io": 784, "ield": 785, "Ġper": 786, "Cont": 787, "ings": 788, "####": 789, "Ġdata": 790, "Ġsa": 791, "ef": 792, "fo": 793, "Ġone": 794, "eng": 795, "Ġdis": 796, "AT": 797, "Ġname": 798, "Ġtrue": 799, "val": 800, "led": 801, ".f": 802, "Ġne": 803, "Ġend": 804, ".T": 805, "cre": 806, "ark": 807, "log": 808, "Ex": 809, "error": 810, "_id": 811, "urre": 812, "ange": 813, "Ġnull": 814, "rray": 815, "Ġmy": 816, "pan": 817, "ict": 818, "ator": 819, "View": 820, "List": 821, "âĢĿ": 822, "Ġpre": 823, "Ġx": 824, "clude": 825, "arg": 826, "ov": 827, ".h": 828, "Ġ>": 829, "Ġtheir": 830, "')": 831, "irst": 832, "ick": 833, "gh": 834, "LE": 835, "OR": 836, "Ġprivate": 837, "tem": 838, "user": 839, "Ġ)": 840, "com": 841, ".A": 842, "Ġid": 843, "read": 844, "Ġwho": 845, "_b": 846, "Ġtime": 847, "Ġman": 848, "ry": 849, "========": 850, "roup": 851, "rop": 852, "public": 853, "vel": 854, "umber": 855, "ble": 856, "Ġwhich": 857, "****************": 858, "Ġany": 859, "Ġfalse": 860, "we": 861, "Ġvalue": 862, "Ġli": 863, "\")": 864, "nder": 865, "gr": 866, "Ġno": 867, "param": 868, "fig": 869, ".com": 870, "Ġapp": 871, "_l": 872, "ions": 873, ".D": 874, "ĠCh": 875, "Ġabout": 876, "Ġadd": 877, "Ġsu": 878, "Ġstring": 879, "ID": 880, "Ġover": 881, "string": 882, ".l": 883, "ource": 884, "_C": 885, "Ġqu": 886, "ĠString": 887, "ca": 888, "SE": 889, "Ġro": 890, "sh": 891, "ual": 892, "Type": 893, "son": 894, "new": 895, "ern": 896, "Ġag": 897, "AR": 898, "].": 899, "Ġ?": 900, "ical": 901, "Ġdes": 902, "uth": 903, "ix": 904, "ays": 905, "Ġtype": 906, "'t": 907, "ault": 908, "Ġinter": 909, "var": 910, ".b": 911, "Ġpart": 912, ".d": 913, "urrent": 914, "IT": 915, "EN": 916, "enc": 917, "(f": 918, "ra": 919, "value": 920, "cho": 921, "utton": 922, "ose": 923, "Ġ!=": 924, "ater": 925, "Ã©": 926, "reate": 927, "oll": 928, "pos": 929, "yle": 930, "ng": 931, "AL": 932, "using": 933, "ames": 934, "ates": 935, "ely": 936, "Ġwork": 937, "Ġem": 938, "inal": 939, "Ġsp": 940, "Ġwhen": 941, ".set": 942, "ĠĠĠĠĠĠ": 943, "to": 944, "quire": 945, "indow": 946, "lement": 947, "pect": 948, "ash": 949, "[i": 950, "Ġuse": 951, ".F": 952, "pec": 953, "Ġad": 954, "ove": 955, "ception": 956, "ength": 957, "include": 958, "ader": 959, "ĠĠĠĠĠĠĠĠĠĠĠĠĠĠĠĠĠĠĠĠĠĠĠĠĠĠĠ": 960, "atus": 961, "Th": 962, "itle": 963, "rit": 964, "void": 965, "().": 966, "Ġoff": 967, "Ġother": 968, "Ġ&&": 969, "ms": 970, "Ġbeen": 971, "Ġte": 972, "ml": 973, "co": 974, "nc": 975, "ervice": 976, "Ġ%": 977, "ann": 978, "ade": 979, "lock": 980, "const": 981, "ponse": 982, "Ġsup": 983, "++": 984, "date": 985, "Ġacc": 986, "Ġhad": 987, "Ġbu": 988, "ĠRe": 989, "Ġwere": 990, "Ġfile": 991, "Ġwould": 992, "ĠâĢľ": 993, "ven": 994, "iss": 995, "Ġour": 996, "class": 997, "raw": 998, "Ġyear": 999, "Data": 1000, "Ġval": 1001, "Ġsome": 1002, "fter": 1003, "ys": 1004, "Ġ///": 1005, "round": 1006, "view": 1007, "Ġpe": 1008, "Ġthere": 1009, "Ġsaid": 1010, "du": 1011, "of": 1012, "line": 1013, "/*": 1014, "duct": 1015, "Ġher": 1016, "ĠĠĠĠĠĠĠĠĠĠĠĠĠ": 1017, "Res": 1018, "Ġco": 1019, "Ġcomm": 1020, "ise": 1021, "min": 1022, "ĠĠĠĠĊ": 1023, "#include": 1024, "ethod": 1025, ".P": 1026, "ute": 1027, "Ġass": 1028, "Int": 1029, "ask": 1030, "loc": 1031, "Ġlike": 1032, "ody": 1033, "Ġlet": 1034, "load": 1035, "Ġam": 1036, "rol": 1037, "Ġgr": 1038, "yp": 1039, "Ġalso": 1040, "ĠIt": 1041, "url": 1042, "ific": 1043, "ors": 1044, "_P": 1045, "_n": 1046, "igh": 1047, "Ġthan": 1048, "Com": 1049, "AN": 1050, "UL": 1051, "ating": 1052, "ĠThis": 1053, "ref": 1054, "_S": 1055, "Ġstatic": 1056, "roll": 1057, "Ġjust": 1058, "Ġresult": 1059, "ian": 1060, "idth": 1061, "Ġthem": 1062, "der": 1063, "reak": 1064, "Con": 1065, "://": 1066, "ule": 1067, "...": 1068, "arch": 1069, "ement": 1070, "Ġ<<": 1071, "ush": 1072, "ense": 1073, "arr": 1074, "Ġinto": 1075, "cess": 1076, "amp": 1077, "ied": 1078, "ument": 1079, "Ġ\\": 1080, "],": 1081, "wo": 1082, "als": 1083, "Ġwhat": 1084, "anc": 1085, "Value": 1086, "='": 1087, "olum": 1088, "Ġpos": 1089, "ages": 1090, "ayer": 1091, "Ġsc": 1092, "ues": 1093, "_T": 1094, "Ġlist": 1095, "(s": 1096, "Ġcase": 1097, "Ch": 1098, "ponent": 1099, "Ġz": 1100, "Ġkn": 1101, "let": 1102, "DE": 1103, "red": 1104, "Ġfe": 1105, "Ġ,": 1106, "(t": 1107, "Ġfirst": 1108, "word": 1109, "Ġimport": 1110, "Ġact": 1111, "Ġchar": 1112, "CT": 1113, "ĠTr": 1114, "ople": 1115, "={": 1116, "ient": 1117, "cent": 1118, ".j": 1119, "lection": 1120, "Ġonly": 1121, "Ġprint": 1122, "mer": 1123, ".W": 1124, "ock": 1125, "Ġ--": 1126, "Text": 1127, "Ġop": 1128, "ank": 1129, "Ġits": 1130, "Ġback": 1131, "[\"": 1132, "Ġneed": 1133, "Ġcl": 1134, "Ġsub": 1135, "Ġla": 1136, "((": 1137, ".\"": 1138, "Object": 1139, "Ġstart": 1140, "file": 1141, "(self": 1142, "ner": 1143, "ey": 1144, "Ġuser": 1145, "Ġent": 1146, "ĠCom": 1147, "its": 1148, "ĠCon": 1149, "ouble": 1150, "ower": 1151, "item": 1152, "very": 1153, "ĠWe": 1154, "lick": 1155, "ĠQ": 1156, "ttp": 1157, "':": 1158, "ics": 1159, "Ġunder": 1160, ".L": 1161, ");": 1162, "ices": 1163, "Ġreg": 1164, "SS": 1165, "Ġthen": 1166, "reat": 1167, "ious": 1168, ".G": 1169, "ek": 1170, "irect": 1171, "heck": 1172, "cript": 1173, "ning": 1174, "ĠUn": 1175, "Ġmay": 1176, "ĠWh": 1177, "Bo": 1178, "Item": 1179, "struct": 1180, ".st": 1181, "ream": 1182, "ible": 1183, "loat": 1184, "Ġorg": 1185, "und": 1186, "sum": 1187, "_in": 1188, "../": 1189, "_M": 1190, "Ġhow": 1191, "rite": 1192, "To": 1193, "ww": 1194, "Ġpeople": 1195, "index": 1196, ".n": 1197, "http": 1198, "(m": 1199, "ector": 1200, "Ġind": 1201, "Ġjav": 1202, "ĠHe": 1203, "_st": 1204, "ful": 1205, "ole": 1206, "Ġshould": 1207, "opy": 1208, "elp": 1209, "ier": 1210, "_name": 1211, "erson": 1212, "ION": 1213, "ote": 1214, "Ġtest": 1215, "Ġbet": 1216, "rror": 1217, "ular": 1218, "ãĢ": 1219, "ĠÐ": 1220, "bs": 1221, "ting": 1222, "Ġmake": 1223, "Tr": 1224, "Ġafter": 1225, "arget": 1226, "RO": 1227, "olumn": 1228, "rc": 1229, "_re": 1230, "define": 1231, "Ġright": 1232, "right": 1233, "day": 1234, "Ġlong": 1235, "[]": 1236, "(p": 1237, "td": 1238, "cond": 1239, "ĠPro": 1240, "Ġrem": 1241, "ptions": 1242, "vid": 1243, ".g": 1244, "Ġext": 1245, "Ġ__": 1246, "pace": 1247, "mp": 1248, "Ġmin": 1249, "stance": 1250, "air": 1251, "action": 1252, "wh": 1253, "type": 1254, "util": 1255, "ait": 1256, "<?": 1257, "IC": 1258, "text": 1259, "Ġph": 1260, "Ġfl": 1261, ".M": 1262, "ccess": 1263, "br": 1264, "fore": 1265, "ersion": 1266, ".re": 1267, "ateg": 1268, "Ġloc": 1269, "ins": 1270, "-s": 1271, "trib": 1272, "ĠInt": 1273, "Ġarray": 1274, ",\"": 1275, "Pro": 1276, "(c": 1277, "ession": 1278, "Ġshe": 1279, "\"]": 1280, "aph": 1281, "Ġexp": 1282, "erty": 1283, "ĠSe": 1284, "Ġpar": 1285, "unc": 1286, "ET": 1287, "Ġread": 1288, "print": 1289, "Ġrel": 1290, "Ġform": 1291, "Ġdr": 1292, "input": 1293, "Ġtrans": 1294, "########": 1295, "order": 1296, "By": 1297, "Ġaw": 1298, "ities": 1299, "uff": 1300, "play": 1301, ".add": 1302, "ĠâĢĵ": 1303, "Ġwant": 1304, "Ġcomp": 1305, "ments": 1306, "Ġ||": 1307, "az": 1308, "be": 1309, "Ġnumber": 1310, "Ġrequire": 1311, "ĠEx": 1312, "Ġcol": 1313, "Ġkey": 1314, "ember": 1315, "Ġtwo": 1316, "Ġsize": 1317, "Ġwhere": 1318, "UT": 1319, "result": 1320, "ĠĠĠĠĠĠĠĠĠĠĠĠĠĠĠĠĠĠĠĠĠĠĠĠĠĠĠĠĠĠĠ": 1321, "ough": 1322, "orld": 1323, "ood": 1324, "uch": 1325, "ative": 1326, "ger": 1327, "arent": 1328, "Ġ/*": 1329, "Ġarg": 1330, "Ġwhile": 1331, "(this": 1332, "Ġrec": 1333, "Ġdif": 1334, "State": 1335, "Ġspec": 1336, "ride": 1337, "_F": 1338, "Ġlook": 1339, "AM": 1340, "ility": 1341, "eter": 1342, "âĢĻt": 1343, "ĊĊĊ": 1344, "ayout": 1345, "--------------------------------": 1346, "ager": 1347, "Ġcould": 1348, "Ġbr": 1349, "ends": 1350, "ures": 1351, "Ġknow": 1352, "ets": 1353, "ĠIf": 1354, "ĠSh": 1355, ".w": 1356, "back": 1357, "Ġser": 1358, "Ġ+=": 1359, "Ġfr": 1360, "Ġhand": 1361, "Ind": 1362, "ULL": 1363, "Im": 1364, "Ġmost": 1365, "Ġtry": 1366, "Ġnow": 1367, "rough": 1368, "ackage": 1369, "Ġhim": 1370, "._": 1371, "ify": 1372, "Ġbreak": 1373, "ren": 1374, "itt": 1375, "Ġap": 1376, "(n": 1377, "ĠYou": 1378, "-m": 1379, "Ġevery": 1380, "ustom": 1381, "lient": 1382, "ocument": 1383, "cription": 1384, "Error": 1385, "-b": 1386, "][": 1387, "trans": 1388, "Ġpoint": 1389, "Ġstd": 1390, "Ġfil": 1391, "Time": 1392, "Ġmod": 1393, "Ġ->": 1394, "Ġerror": 1395, "ah": 1396, "Ġtext": 1397, "roller": 1398, "lose": 1399, "ql": 1400, "Ġpol": 1401, "></": 1402, "Ġshow": 1403, "User": 1404, "ased": 1405, "Ġfind": 1406, "Ð°": 1407, "ED": 1408, "span": 1409, "enu": 1410, "Ġcurrent": 1411, "Ġused": 1412, "cept": 1413, "clud": 1414, "Ġplay": 1415, "Ġlog": 1416, "ution": 1417, "fl": 1418, "Ġsee": 1419, "indows": 1420, "Ġhelp": 1421, "Ġthese": 1422, "Ġpass": 1423, "Ġdown": 1424, "Ġeven": 1425, "ason": 1426, "uild": 1427, "from": 1428, "(d": 1429, "Ġbl": 1430, "label": 1431, "else": 1432, "Ðµ": 1433, "Ġ(!": 1434, "ized": 1435, "(),": 1436, "Ġob": 1437, "Ġitem": 1438, "ump": 1439, "UR": 1440, "orn": 1441, "Ġdon": 1442, "Se": 1443, "man": 1444, "ample": 1445, "tn": 1446, "================": 1447, "He": 1448, "gram": 1449, "Ġdid": 1450, "wn": 1451, "_h": 1452, "iver": 1453, "Ġsm": 1454, "Ġthrough": 1455, "ĠAn": 1456, "che": 1457, "Ġinv": 1458, "ouse": 1459, "Ġes": 1460, "ĠNew": 1461, "export": 1462, "mary": 1463, "uto": 1464, "ler": 1465, "Ġlast": 1466, "Ġevent": 1467, "try": 1468, "ï¼": 1469, "ily": 1470, "igned": 1471, "ines": 1472, "ollow": 1473, "icense": 1474, "sole": 1475, "lear": 1476, "(int": 1477, "Ġagain": 1478, "Ġhigh": 1479, "html": 1480, "Index": 1481, "uthor": 1482, "Ġline": 1483, "Event": 1484, "_D": 1485, "Ġdoes": 1486, "itial": 1487, "Ġcr": 1488, "ars": 1489, "Ġtem": 1490, "cause": 1491, "face": 1492, "Ġ`": 1493, "_A": 1494, "Button": 1495, "ature": 1496, "ected": 1497, "ES": 1498, "ister": 1499, "Ġbefore": 1500, "ale": 1501, "other": 1502, "Ġbecause": 1503, "roid": 1504, "Ġed": 1505, "ik": 1506, "reg": 1507, "ĠDe": 1508, "Ġdist": 1509, "Ġstate": 1510, "Ġcons": 1511, "rint": 1512, "att": 1513, "Ġhere": 1514, "ined": 1515, "Ġfinal": 1516, "Ġ\"\"": 1517, "Key": 1518, "LO": 1519, "Ġdel": 1520, "pty": 1521, "thing": 1522, "ĠAnd": 1523, "Ġrun": 1524, "ĠX": 1525, "ym": 1526, ".app": 1527, "Ġvery": 1528, "ces": 1529, "_N": 1530, "ared": 1531, "ward": 1532, "list": 1533, "ited": 1534, "olog": 1535, "itch": 1536, "Box": 1537, "ife": 1538, "Ġac": 1539, "Ġmodel": 1540, "Ġmon": 1541, "Ġway": 1542, "lete": 1543, "Ġcall": 1544, "Ġatt": 1545, "Ġcal": 1546, "vert": 1547, "Ġdec": 1548, "lease": 1549, "oun": 1550, "fr": 1551, "formation": 1552, "etail": 1553, "Ġnum": 1554, "aj": 1555, "query": 1556, "Ġwell": 1557, "Ġobject": 1558, "ĠAs": 1559, "Ġyears": 1560, "Color": 1561, "IS": 1562, "Ġdefault": 1563, "Wh": 1564, "Ġins": 1565, "aint": 1566, "Ġjava": 1567, "Ġsim": 1568, "ĠAr": 1569, "mon": 1570, "til": 1571, "):": 1572, "Set": 1573, "atter": 1574, "Ġview": 1575, "Ġpres": 1576, "array": 1577, "We": 1578, "At": 1579, "Ġbel": 1580, "Ġmany": 1581, "Man": 1582, "ender": 1583, "Ġbeing": 1584, "Ġgood": 1585, "ational": 1586, "ware": 1587, ".log": 1588, "Ġusing": 1589, "_B": 1590, "Ġ:=": 1591, "_w": 1592, "ists": 1593, "lish": 1594, "Ġstud": 1595, "ĠAl": 1596, "Ġgu": 1597, "config": 1598, "uring": 1599, "time": 1600, "oken": 1601, "amespace": 1602, "Ġrequest": 1603, "Ġchild": 1604, "ĠÃ": 1605, "lob": 1606, "Ġparam": 1607, "Ġecho": 1608, "function": 1609, "********************************": 1610, "ps": 1611, "Element": 1612, "alk": 1613, "lication": 1614, "by": 1615, "Size": 1616, "rawing": 1617, "Ġperson": 1618, "ĠĠĠĠĠĠĠĠĠĠĠĠĠĠĠĠĠ": 1619, "\\n": 1620, "object": 1621, "ince": 1622, "En": 1623, "File": 1624, "uf": 1625, "ffect": 1626, "AC": 1627, "Ġstyle": 1628, "summary": 1629, "Ġque": 1630, "_r": 1631, "Ġ($": 1632, "Model": 1633, "ident": 1634, "Ġmethod": 1635, "IL": 1636, "ott": 1637, "less": 1638, "ING": 1639, "Ġ()": 1640, "Ġexpect": 1641, "ync": 1642, "package": 1643, "urs": 1644, "Ġprot": 1645, "./": 1646, "pre": 1647, "ma": 1648, "Ġsur": 1649, "Ġfound": 1650, "Info": 1651, "par": 1652, "imes": 1653, ".e": 1654, "ains": 1655, "Ġpost": 1656, "-d": 1657, "olean": 1658, "Ġsl": 1659, "PE": 1660, "Ġsuch": 1661, "select": 1662, "ainer": 1663, "Ġthink": 1664, "Ġdiffer": 1665, ".r": 1666, "FF": 1667, "ool": 1668, "plate": 1669, "qual": 1670, "ĠFor": 1671, "Ġmuch": 1672, "uc": 1673, "(new": 1674, "odule": 1675, "Ġsom": 1676, "Ġhttp": 1677, "ĠList": 1678, "Ġcount": 1679, "Ġinst": 1680, "char": 1681, "mit": 1682, ".id": 1683, "aking": 1684, "Ġgener": 1685, "px": 1686, "vice": 1687, "_data": 1688, "ĠNULL": 1689, "idd": 1690, "ãĢĤ": 1691, "Ġmed": 1692, "org": 1693, "ider": 1694, "ache": 1695, "work": 1696, "Ġcheck": 1697, "ween": 1698, "Ġ((": 1699, "the": 1700, "ants": 1701, "><": 1702, ".B": 1703, "-c": 1704, "Ġopen": 1705, "Ġest": 1706, "ĠĠĠĠĠĠĠĠĊ": 1707, "Ġnext": 1708, "IM": 1709, "ÑĤ": 1710, "OT": 1711, "Ã³": 1712, "Ġfollow": 1713, "content": 1714, "ĠĠĠĠĠĠĠĠĠĠĠĠ": 1715, "Ġinclud": 1716, "HE": 1717, "ĠRes": 1718, "Ġhref": 1719, "Ð¸": 1720, "Ġcar": 1721, "ypes": 1722, "image": 1723, "Un": 1724, "Ġbool": 1725, "AD": 1726, "Ġgame": 1727, "rows": 1728, "*/": 1729, "velop": 1730, "Ġpath": 1731, "ision": 1732, "Ġeach": 1733, "ĠPl": 1734, "_type": 1735, "Path": 1736, "nection": 1737, "Ġav": 1738, "').": 1739, "Ġsupport": 1740, "ENT": 1741, "rem": 1742, "\").": 1743, "Ġown": 1744, "Ġcor": 1745, "count": 1746, "miss": 1747, "ually": 1748, "Ġmem": 1749, "std": 1750, "ience": 1751, "search": 1752, "Form": 1753, "Ġsex": 1754, "ename": 1755, "Ġsign": 1756, "Ġet": 1757, "ĠĠĠĠĠĠĠĠĠĠ": 1758, "','": 1759, "ĠApp": 1760, "Ġthose": 1761, "off": 1762, "Ġerr": 1763, "Ġsystem": 1764, "Ġbest": 1765, "code": 1766, "Ġsame": 1767, "Ġdi": 1768, "uss": 1769, "Ġcreate": 1770, "ather": 1771, "Array": 1772, ".in": 1773, "fe": 1774, "Service": 1775, "UN": 1776, "ats": 1777, "ĠZ": 1778, "alth": 1779, "Ġmade": 1780, "true": 1781, "AB": 1782, "Ġmark": 1783, "rid": 1784, "ified": 1785, "yn": 1786, "press": 1787, "Ġgroup": 1788, "Ġfin": 1789, "ĠLicense": 1790, "Field": 1791, "eger": 1792, "Ġworld": 1793, "iness": 1794, "ty": 1795, "Ġprocess": 1796, "(b": 1797, "Ġcre": 1798, "arn": 1799, "ives": 1800, "Ġmain": 1801, "ideo": 1802, "_g": 1803, "AG": 1804, "valid": 1805, "img": 1806, "PI": 1807, "Ġcolor": 1808, "Ġreport": 1809, "Ġtake": 1810, "rib": 1811, "OM": 1812, "Ġday": 1813, "Ġsk": 1814, "bers": 1815, "oot": 1816, "Image": 1817, "Ġcomple": 1818, "ollection": 1819, "Ġtop": 1820, "Ġfree": 1821, "AS": 1822, "De": 1823, "ĠOn": 1824, "IG": 1825, "eta": 1826, "Date": 1827, "Ġaction": 1828, "Over": 1829, "itor": 1830, "ĠĠĠĠĠĠĠĠĠĠĠĠĠĠĠĠĠĠĠĠĠĠĠĠĠĠĠĠĠĠĠĠĠĠĠ": 1831, "not": 1832, "Ġindex": 1833, "her": 1834, "icon": 1835, "On": 1836, "ivity": 1837, "mand": 1838, "OL": 1839, "Ġreal": 1840, "Ġmax": 1841, "land": 1842, "....": 1843, "raph": 1844, "Ġbuild": 1845, "leg": 1846, "âĢ¦": 1847, "ook": 1848, "uck": 1849, "Ġmessage": 1850, "test": 1851, "ivers": 1852, "Ġinput": 1853, "Ġart": 1854, "Ġbetween": 1855, "Get": 1856, "enter": 1857, "ground": 1858, "ene": 1859, "Ã¡": 1860, ".length": 1861, "Node": 1862, "(i": 1863, "Class": 1864, "for": 1865, "ĠâĢĶ": 1866, "ten": 1867, "oin": 1868, "Ġke": 1869, "ui": 1870, "ĠIN": 1871, "Ġtable": 1872, "sub": 1873, "ĠLe": 1874, "Ġhead": 1875, "Ġmust": 1876, "Context": 1877, "Ġorder": 1878, "Ġmov": 1879, "over": 1880, "Ġcontin": 1881, "Ġsay": 1882, "static": 1883, "pany": 1884, "Ġter": 1885, "head": 1886, "rg": 1887, "Ġproduct": 1888, "This": 1889, ".âĢĿ": 1890, "ĠBut": 1891, "loy": 1892, "Ġdouble": 1893, "sg": 1894, "Ġplace": 1895, ".x": 1896, "message": 1897, "Ġinformation": 1898, "private": 1899, "Ġoper": 1900, "ced": 1901, "db": 1902, "\"></": 1903, "Param": 1904, "icle": 1905, "Ġweek": 1906, "Ġprop": 1907, "table": 1908, "idget": 1909, "place": 1910, "Prop": 1911, "ĠAll": 1912, "els": 1913, "box": 1914, ".R": 1915, "ĠTo": 1916, "iter": 1917, "Sh": 1918, "uration": 1919, "older": 1920, "_list": 1921, "come": 1922, "Ġsw": 1923, "ization": 1924, "bl": 1925, "Ġprogram": 1926, "(e": 1927, "ape": 1928, "check": 1929, "Ġund": 1930, "ategory": 1931, "ags": 1932, "Ġresponse": 1933, "US": 1934, "Ġstruct": 1935, "escription": 1936, "Ġcode": 1937, "_H": 1938, "uffer": 1939, "Ġwithout": 1940, "lobal": 1941, "ilter": 1942, "PO": 1943, "option": 1944, "Ġsol": 1945, "Ġ===": 1946, "akes": 1947, "Message": 1948, "Ġref": 1949, "ever": 1950, "ĠSo": 1951, "aining": 1952, ".append": 1953, "Ġstill": 1954, "Ġprovid": 1955, "Ġassert": 1956, "med": 1957, "Ġcap": 1958, "usiness": 1959, "Ġrep": 1960, "tings": 1961, "ved": 1962, ".N": 1963, "api": 1964, "OD": 1965, "Ġfield": 1966, "iven": 1967, "oto": 1968, "âĢľ": 1969, "col": 1970, "(x": 1971, "ght": 1972, "Result": 1973, "Code": 1974, ".is": 1975, "link": 1976, "Ġcour": 1977, "An": 1978, "Ġteam": 1979, "ift": 1980, "Ġsecond": 1981, "Ġgoing": 1982, "Ġrange": 1983, "_E": 1984, "ness": 1985, "Ġfam": 1986, "Ġnil": 1987, "ĠCont": 1988, "ailable": 1989, "utes": 1990, "atab": 1991, "Ġfact": 1992, "Ġvis": 1993, "(&": 1994, "ĠAN": 1995, "Al": 1996, "title": 1997, "CE": 1998, "\\\"": 1999, "irt": 2000, "Ġwrit": 2001, "ftware": 2002, "ond": 2003, "Ġret": 2004, "osition": 2005, "Ġhome": 2006, "Ġleft": 2007, "args": 2008, "meric": 2009, "Ġdirect": 2010, "oci": 2011, "Pl": 2012, "As": 2013, "ret": 2014, "ado": 2015, "Of": 2016, "chn": 2017, "ĠGet": 2018, "ee": 2019, "ross": 2020, "();": 2021, "____": 2022, ".ph": 2023, "It": 2024, "oute": 2025, "Ġexper": 2026, "chool": 2027, "www": 2028, "},": 2029, "Ġallow": 2030, "ĠÂ": 2031, "())": 2032, "size": 2033, "ism": 2034, "ai": 2035, "tract": 2036, "ane": 2037, "context": 2038, "Ġbeg": 2039, "CH": 2040, "Ġpage": 2041, "hip": 2042, "no": 2043, "core": 2044, "sp": 2045, "Ġdifferent": 2046, "iable": 2047, "ĠMe": 2048, "button": 2049, "ĠIs": 2050, "ervices": 2051, "Ġca": 2052, "Ġaround": 2053, "App": 2054, "ration": 2055, "Ġrece": 2056, "Ġreally": 2057, "Ġimage": 2058, "Ġtarget": 2059, "Ġdep": 2060, "opyright": 2061, "tra": 2062, "ingle": 2063, "ital": 2064, "Layout": 2065, "Ġboth": 2066, "arm": 2067, "=>": 2068, "aterial": 2069, "iled": 2070, "Ġput": 2071, "Qu": 2072, "ung": 2073, "map": 2074, "Ġlevel": 2075, "Component": 2076, "book": 2077, "creen": 2078, "Ġconfig": 2079, "Or": 2080, ".data": 2081, "Ġdocument": 2082, "\",\"": 2083, "tribute": 2084, "ux": 2085, "Log": 2086, "ference": 2087, "post": 2088, "_e": 2089, "Ġlocal": 2090, "andom": 2091, "assert": 2092, "Val": 2093, "lected": 2094, "ina": 2095, "atabase": 2096, "Add": 2097, "Ġcontent": 2098, ".print": 2099, "signed": 2100, "ric": 2101, "Ġfa": 2102, "-f": 2103, "ived": 2104, "Ġquest": 2105, ".ex": 2106, "Ġfloat": 2107, "Ġdevelop": 2108, "Map": 2109, "ading": 2110, "Ġposs": 2111, "UE": 2112, "_O": 2113, ">(": 2114, "etails": 2115, "Ġtoo": 2116, "Ġextends": 2117, "ĠNone": 2118, "Ġfore": 2119, "format": 2120, "Ġgreat": 2121, "inter": 2122, "cale": 2123, "Ñģ": 2124, "ron": 2125, "iving": 2126, "Ent": 2127, "ency": 2128, "xt": 2129, "oy": 2130, "Ġmonth": 2131, "Ġhapp": 2132, "Ġsuper": 2133, "bar": 2134, "default": 2135, "_de": 2136, "ords": 2137, "ln": 2138, "ĠInd": 2139, "ases": 2140, "Ġtitle": 2141, "Ġcontext": 2142, "oh": 2143, "-p": 2144, "Em": 2145, "Ġmet": 2146, "Test": 2147, "Ġlife": 2148, "_v": 2149, "ĠUS": 2150, "UI": 2151, "ocation": 2152, "md": 2153, "Ġ]": 2154, "sw": 2155, "Ġincre": 2156, "script": 2157, "ential": 2158, "ways": 2159, ".de": 2160, "Ġsrc": 2161, "Ġcatch": 2162, "ĠAmeric": 2163, "ĠĠĠĠĠĠĠĠĠĠĠĠĠĠ": 2164, "Ġpay": 2165, "plit": 2166, "âĢĶ": 2167, "Ġcoun": 2168, "obj": 2169, ".php": 2170, "Ġchange": 2171, "ething": 2172, "'re": 2173, "aster": 2174, "los": 2175, "lation": 2176, "ĠĠĊ": 2177, "Le": 2178, "Ã¤": 2179, "({": 2180, "ready": 2181, "ĠNo": 2182, "Ġposition": 2183, "Ġold": 2184, "Ġbook": 2185, "abled": 2186, "bug": 2187, "Hand": 2188, "isplay": 2189, "aving": 2190, "Ġgover": 2191, "Ġversion": 2192, "System": 2193, "nect": 2194, "response": 2195, "Style": 2196, "Up": 2197, "angu": 2198, "Ġthree": 2199, "init": 2200, "ero": 2201, "Ġlaw": 2202, "endif": 2203, "Ġbase": 2204, "email": 2205, "(l": 2206, "_V": 2207, "Ġconf": 2208, "ATE": 2209, "Ġduring": 2210, "tes": 2211, "Ġconsole": 2212, "ĠPr": 2213, "Ġspe": 2214, "ves": 2215, "path": 2216, "ialog": 2217, "dition": 2218, "_to": 2219, "ards": 2220, "Ġagainst": 2221, "etwork": 2222, "ĠPh": 2223, "_L": 2224, "cur": 2225, "imit": 2226, "With": 2227, "Ġpower": 2228, "ium": 2229, "Ġwom": 2230, "left": 2231, "ources": 2232, "atri": 2233, "ĠIm": 2234, "ĠMan": 2235, "orth": 2236, "${": 2237, "quals": 2238, "ese": 2239, "_size": 2240, "Ġiss": 2241, "otal": 2242, "-g": 2243, "ique": 2244, "rame": 2245, "Ġwidth": 2246, "erg": 2247, ")(": 2248, "ittle": 2249, "TR": 2250, "ĠThey": 2251, "ences": 2252, "rl": 2253, "ons": 2254, "Ġlabel": 2255, ".y": 2256, "-t": 2257, "update": 2258, "anel": 2259, "sc": 2260, ".to": 2261, "Ġproject": 2262, "Ã¼": 2263, "Ġelement": 2264, "Ġsuccess": 2265, ".sh": 2266, "ram": 2267, "ched": 2268, "Ġdate": 2269, "Ġtot": 2270, "All": 2271, "ification": 2272, "Ġtri": 2273, "chem": 2274, "my": 2275, "Ġbig": 2276, "ĠAd": 2277, "ĠAt": 2278, "ots": 2279, "num": 2280, "Act": 2281, "Ġmap": 2282, "era": 2283, "cope": 2284, ".$": 2285, ",âĢĿ": 2286, "Ġpop": 2287, "Ġfew": 2288, "Ġlen": 2289, "uid": 2290, "eters": 2291, "ules": 2292, "ÃŃ": 2293, "source": 2294, "https": 2295, "Ġdem": 2296, "Ġear": 2297, "Ġmatch": 2298, "ories": 2299, "aces": 2300, "ĠCl": 2301, "Ġnode": 2302, "irc": 2303, "local": 2304, "unity": 2305, "Ġanother": 2306, "<<": 2307, "ogle": 2308, "Ġsit": 2309, "ework": 2310, "TE": 2311, ".I": 2312, "NS": 2313, "ology": 2314, "ought": 2315, ">>": 2316, "Ġcare": 2317, "state": 2318, "Ġeffect": 2319, "++)": 2320, "_file": 2321, "ending": 2322, "Line": 2323, "For": 2324, "ior": 2325, "ĠSc": 2326, "Ġfun": 2327, "])": 2328, "start": 2329, "vious": 2330, "Ġ},": 2331, "ours": 2332, "Ġleg": 2333, "Ġservice": 2334, "Ġsince": 2335, "iron": 2336, "Label": 2337, "Ġnon": 2338, "Ġlos": 2339, "iction": 2340, "Ġfull": 2341, "acter": 2342, "board": 2343, "gress": 2344, "Ġturn": 2345, "ither": 2346, ".size": 2347, "Ġbody": 2348, "resh": 2349, "eturn": 2350, "(_": 2351, "yles": 2352, "ormal": 2353, "pi": 2354, "Ġsomething": 2355, "!--": 2356, "Ġprodu": 2357, "Ġstand": 2358, "Ġproble": 2359, "Ġavailable": 2360, "mt": 2361, "ĠBl": 2362, "Ġ...": 2363, "Ġblock": 2364, "Input": 2365, "Ġkeep": 2366, "Count": 2367, "open": 2368, "Ġ['": 2369, "Ġthrow": 2370, "Action": 2371, "Ġthings": 2372, "True": 2373, "Ġurl": 2374, "ĠBo": 2375, "printf": 2376, "Ġred": 2377, "js": 2378, "ĠOr": 2379, "Status": 2380, "Instance": 2381, "Ġcontrol": 2382, "Ġcome": 2383, "Ġcustom": 2384, "location": 2385, "model": 2386, "Ġsource": 2387, "Ġeas": 2388, ".out": 2389, "oney": 2390, "Ġpartic": 2391, "AP": 2392, "ublish": 2393, "odes": 2394, "_pro": 2395, "ply": 2396, "riter": 2397, "Ġprov": 2398, "Ġmill": 2399, "HT": 2400, "Ġchang": 2401, "Ġask": 2402, "ĠĠĠĠĠĠĠĠĠĠĠĠĠĠĠĠĠĠĠĠĠ": 2403, "Ġoutput": 2404, "Ġemail": 2405, ".push": 2406, "ination": 2407, "atrix": 2408, "Table": 2409, "uccess": 2410, "ĠĠĠĠĠĠĠĠĠĠĠĠĠĠĠĠĠĠĠĠĠĠĠĠĠĠĠĠĠĠĠĠĠĠĠĠĠĠĠ": 2411, "Ġdisc": 2412, "([": 2413, "Ġbusiness": 2414, "height": 2415, ".html": 2416, "ta": 2417, "field": 2418, "Ġrequired": 2419, "_R": 2420, "Ġgovern": 2421, "lex": 2422, ".,": 2423, "ĠSet": 2424, "urch": 2425, "ts": 2426, "af": 2427, "Ġmight": 2428, "istory": 2429, "Str": 2430, "Ġnever": 2431, "Response": 2432, "arse": 2433, "ada": 2434, "ĠHow": 2435, "Ġ*)": 2436, "Ġ;": 2437, "Ġhard": 2438, "Ad": 2439, "Ġintern": 2440, "used": 2441, "(data": 2442, "mod": 2443, "annel": 2444, "Ġnp": 2445, "ugg": 2446, "Ġcalled": 2447, "body": 2448, "Ġcho": 2449, "(r": 2450, "_set": 2451, "ird": 2452, "Ġ>=": 2453, "Ġoptions": 2454, "ĠGener": 2455, "Ġheight": 2456, "Point": 2457, "You": 2458, "ety": 2459, "Click": 2460, "Ġsmall": 2461, "Ġide": 2462, "Ġaccess": 2463, "anguage": 2464, "Ġprotected": 2465, "Ġjob": 2466, "ĠThere": 2467, "Def": 2468, "Ġaddress": 2469, "Not": 2470, "oo": 2471, "aps": 2472, "ained": 2473, "atur": 2474, "Ġsum": 2475, "-w": 2476, "ĠDate": 2477, "Ġlittle": 2478, "Ġfri": 2479, "YPE": 2480, "Ġport": 2481, "eh": 2482, "pring": 2483, "_path": 2484, "Ġstatus": 2485, "aim": 2486, "bool": 2487, "Ġappe": 2488, "Ġos": 2489, ".name": 2490, "ension": 2491, "_G": 2492, "Ġupdate": 2493, "Config": 2494, "aff": 2495, "ERR": 2496, "Ġ<=": 2497, "ately": 2498, "uction": 2499, "ĠTe": 2500, "Ġlink": 2501, "ĠUser": 2502, ".find": 2503, ".org": 2504, "me": 2505, "Ġgiven": 2506, "Out": 2507, "Ġbetter": 2508, "Page": 2509, "Ġfeel": 2510, "enn": 2511, "ML": 2512, "Ġalready": 2513, "Ġincluding": 2514, "oogle": 2515, "ru": 2516, "ically": 2517, "prop": 2518, "lean": 2519, "outer": 2520, "Ġalways": 2521, "ording": 2522, "If": 2523, "orage": 2524, "Ġparent": 2525, "vis": 2526, "Ġgot": 2527, "stand": 2528, "Ġless": 2529, "/s": 2530, "ĠAss": 2531, "apt": 2532, "ired": 2533, "ĠAdd": 2534, "Ġaccount": 2535, "ploy": 2536, "Ġder": 2537, "resent": 2538, "Ġlot": 2539, "Ġvalid": 2540, "Ġbit": 2541, "ponents": 2542, "Ġfollowing": 2543, "_ex": 2544, "SON": 2545, "Ġsure": 2546, "ocial": 2547, "Ġprom": 2548, "erties": 2549, "header": 2550, ".pro": 2551, "Ġboolean": 2552, "Ġsearch": 2553, "ken": 2554, "Ġorig": 2555, "Ġer": 2556, "Ed": 2557, "EM": 2558, "aut": 2559, "ling": 2560, "ality": 2561, "bed": 2562, "ether": 2563, "posit": 2564, "Ġinvest": 2565, "ĠOR": 2566, "Ġsays": 2567, "mission": 2568, "AME": 2569, "Ġtemp": 2570, "oad": 2571, "Ġrest": 2572, "info": 2573, "Ġinterest": 2574, "Arg": 2575, "Ġperform": 2576, "pons": 2577, "ĠView": 2578, "Ġver": 2579, "lib": 2580, "Util": 2581, "arge": 2582, "Ġmult": 2583, "Ġdie": 2584, "Ġsite": 2585, "../../": 2586, "EL": 2587, "Ġvalues": 2588, "pen": 2589, "No": 2590, "icro": 2591, "Ġbeh": 2592, "acy": 2593, "rec": 2594, "\"))": 2595, "Content": 2596, "_W": 2597, "plement": 2598, "Ġwon": 2599, "Ġvideo": 2600, "adi": 2601, "point": 2602, "%%": 2603, "Ġgl": 2604, "erved": 2605, "viron": 2606, "IF": 2607, "uted": 2608, "'m": 2609, "Ġcert": 2610, "Ġprof": 2611, "Ġcell": 2612, "ari": 2613, "Ġplayer": 2614, "ais": 2615, "Ġcost": 2616, "Ġhum": 2617, "(R": 2618, "Ġoffic": 2619, "ks": 2620, ".text": 2621, "atures": 2622, "Ġtotal": 2623, "ope": 2624, "Ġstat": 2625, "UM": 2626, "Ġload": 2627, "ights": 2628, "Ġclear": 2629, "uro": 2630, "Ġtechn": 2631, "upport": 2632, "IR": 2633, "Ġrow": 2634, "Ġseem": 2635, "Ġq": 2636, "Ġshort": 2637, "ĠNot": 2638, "ipp": 2639, "Group": 2640, "section": 2641, "max": 2642, "irl": 2643, "Ġoverride": 2644, "Ġcompany": 2645, "Ġdone": 2646, "Ġgre": 2647, "Ġbelie": 2648, "rist": 2649, "Ġhealth": 2650, "ANT": 2651, "ĠBe": 2652, ".value": 2653, "ĠGr": 2654, "ottom": 2655, "Ġargs": 2656, "PT": 2657, "status": 2658, "func": 2659, "uments": 2660, "-h": 2661, "Number": 2662, "ĠLog": 2663, "erver": 2664, "ament": 2665, "Ġobj": 2666, "inc": 2667, "Ġchildren": 2668, "icy": 2669, "IZ": 2670, "ands": 2671, "ably": 2672, "Ġdistrib": 2673, "Ġcur": 2674, "erial": 2675, "Ġdays": 2676, "reated": 2677, "rect": 2678, "-l": 2679, "irm": 2680, "idden": 2681, "omb": 2682, "Ġinitial": 2683, ".js": 2684, "Ġâ": 2685, "Query": 2686, "Ġonline": 2687, "imal": 2688, ".con": 2689, "au": 2690, "Url": 2691, "control": 2692, "irection": 2693, "Ġinstance": 2694, "ĠFr": 2695, "where": 2696, "Ġorgan": 2697, "apter": 2698, "Ġreason": 2699, "options": 2700, "ĠMar": 2701, "(a": 2702, "Ġwithin": 2703, "ODE": 2704, "admin": 2705, "ended": 2706, "Ġdesign": 2707, "ĠData": 2708, "une": 2709, "ĠFile": 2710, "root": 2711, "Ġcent": 2712, "Ġarr": 2713, "_add": 2714, "len": 2715, "page": 2716, ",'": 2717, "_str": 2718, "Ġbro": 2719, "ability": 2720, "outh": 2721, "/c": 2722, "pose": 2723, "irtual": 2724, "earch": 2725, "argin": 2726, "Ġschool": 2727, "ava": 2728, "Ġconsider": 2729, ".label": 2730, "ĠArray": 2731, "web": 2732, "opt": 2733, ".println": 2734, "ulation": 2735, "Ġfunc": 2736, "PL": 2737, "Ġ\"\\": 2738, "ĠText": 2739, "actory": 2740, "(function": 2741, "null": 2742, "Ġeng": 2743, "down": 2744, "Ġinclude": 2745, "ĠEn": 2746, "ĠDr": 2747, "Ġdb": 2748, "!!": 2749, "side": 2750, "Ġinit": 2751, "quired": 2752, "ĠShe": 2753, "Column": 2754, "react": 2755, "Ġann": 2756, "Ġstop": 2757, "Ġlater": 2758, "ĠThat": 2759, "ention": 2760, "df": 2761, "UG": 2762, "ILE": 2763, "Ġclient": 2764, "raft": 2765, "ffer": 2766, "POST": 2767, "elper": 2768, "Ġlove": 2769, "quote": 2770, "oud": 2771, "Ġable": 2772, "Ġmen": 2773, "AX": 2774, "ĠCopyright": 2775, "Ã¶": 2776, "avig": 2777, "req": 2778, "erc": 2779, "ilt": 2780, "pecial": 2781, "_com": 2782, "room": 2783, "Ġgive": 2784, "amb": 2785, "ike": 2786, "Ġcondition": 2787, "client": 2788, "ators": 2789, ":\"": 2790, "Ġcopy": 2791, "uture": 2792, "iversity": 2793, "ernal": 2794, "{{": 2795, "ĠCan": 2796, "ounc": 2797, "do": 2798, "Ġocc": 2799, "Ġappro": 2800, "thers": 2801, "ze": 2802, "Ġeither": 2803, "ĠFl": 2804, "Ġimportant": 2805, "Ġlead": 2806, "attr": 2807, "ART": 2808, "Equal": 2809, "Ġda": 2810, "etch": 2811, "entity": 2812, "Ġfamily": 2813, "adding": 2814, "Ġoption": 2815, "Ġexist": 2816, "ica": 2817, "ĠObject": 2818, "'ve": 2819, "vers": 2820, "itional": 2821, "output": 2822, "ĠTrue": 2823, "ĠOF": 2824, "_time": 2825, "Ġoffer": 2826, "HER": 2827, "egin": 2828, "\"\"": 2829, "Ġwater": 2830, "Ġche": 2831, "ĠMy": 2832, "ored": 2833, "Ġstep": 2834, "ances": 2835, "CK": 2836, "AY": 2837, "struction": 2838, "(C": 2839, "ouch": 2840, "Stream": 2841, "active": 2842, "ama": 2843, "product": 2844, "Ġgovernment": 2845, "ĠID": 2846, "ajor": 2847, "And": 2848, "Ġdisplay": 2849, "Ð»": 2850, "Ġtimes": 2851, "Ġfour": 2852, "Ġfar": 2853, "Ġpresent": 2854, "ĠNS": 2855, "uest": 2856, "Ġbas": 2857, "echo": 2858, "child": 2859, "ifier": 2860, "Ġlib": 2861, "Property": 2862, "translation": 2863, "Ġroom": 2864, "Ġonce": 2865, "Ġ[]": 2866, "center": 2867, "================================": 2868, "Ġresults": 2869, "Ġcontinue": 2870, "Ġtalk": 2871, "_get": 2872, "Ġgrow": 2873, ".sw": 2874, "eb": 2875, "ĠPublic": 2876, "OP": 2877, "ecute": 2878, "ols": 2879, "Ġ**": 2880, "Ġmass": 2881, "ured": 2882, ".class": 2883, "omic": 2884, "Ġmean": 2885, "ips": 2886, "Ġaut": 2887, "Ġuntil": 2888, "Ġmarket": 2889, "Ġarea": 2890, "uit": 2891, "Ġlength": 2892, "ĠWith": 2893, "structor": 2894, "event": 2895, "\"><": 2896, "ĠSp": 2897, "IV": 2898, "Ġmus": 2899, "iff": 2900, "Ġkind": 2901, "author": 2902, "ounds": 2903, "mb": 2904, "_key": 2905, "width": 2906, "pository": 2907, "Ġlight": 2908, "uk": 2909, "Row": 2910, "ohn": 2911, "alf": 2912, "vironment": 2913, "apper": 2914, "Ġside": 2915, "_info": 2916, "Ġexample": 2917, "imary": 2918, "Ġwr": 2919, "Ġcamp": 2920, "cribe": 2921, "\"/": 2922, "Ġmiss": 2923, "way": 2924, "Ġbased": 2925, "Ġplan": 2926, "Vis": 2927, "omain": 2928, "unk": 2929, "Ġaway": 2930, "UP": 2931, "<T": 2932, "OS": 2933, "iod": 2934, "ĠMon": 2935, "âĢĻre": 2936, "Ġlik": 2937, "Ã§": 2938, "ively": 2939, ".v": 2940, "imer": 2941, "izer": 2942, "Sub": 2943, "Ġbutton": 2944, "ĠUp": 2945, "Ġexperience": 2946, "CL": 2947, "Ġrender": 2948, "_value": 2949, "Ġnear": 2950, "URL": 2951, "alt": 2952, "Ġcountry": 2953, "ibility": 2954, "ead": 2955, "Ġauthor": 2956, "Ġspecific": 2957, "base": 2958, "(name": 2959, "ones": 2960, "ĠDo": 2961, "Ġalong": 2962, "year": 2963, "Ġexpress": 2964, ".'": 2965, "env": 2966, "Ġbegin": 2967, "Ġsoftware": 2968, "Ġimp": 2969, "Ġwin": 2970, "Ã³n": 2971, "Ġthing": 2972, "Trans": 2973, "ĠTHE": 2974, "Ġwhy": 2975, "Ġdoesn": 2976, "ij": 2977, "ging": 2978, "Ġsingle": 2979, "offset": 2980, "arning": 2981, "ograph": 2982, "ley": 2983, "_count": 2984, "Ġanal": 2985, "create": 2986, "/m": 2987, "ĠReg": 2988, "unch": 2989, "=$": 2990, "isk": 2991, "Ġrights": 2992, "(M": 2993, "aper": 2994, ".model": 2995, "Ġpo": 2996, "empty": 2997, "artment": 2998, "Ġant": 2999, "ĠWhen": 3000, "Ġwomen": 3001, "ĠEd": 3002, "Ġseason": 3003, "Ġdest": 3004, "Ã£": 3005, "(h": 3006, "Ġpossible": 3007, "Ġsever": 3008, "Ġdidn": 3009, "Ġsent": 3010, "Ġenc": 3011, "Ġcommand": 3012, "_x": 3013, "Ġrecent": 3014, "olution": 3015, "vector": 3016, "ĠBy": 3017, "ĠMay": 3018, "ĠAct": 3019, "Ġmoney": 3020, "INT": 3021, "bsite": 3022, "sl": 3023, "attern": 3024, "ĠClass": 3025, "Ġtold": 3026, "udio": 3027, "current": 3028, "Ġequ": 3029, "Ġauto": 3030, "ĠState": 3031, "da": 3032, "msg": 3033, "Ġworking": 3034, "Ġquery": 3035, "ĠBr": 3036, "Ġwindow": 3037, "auth": 3038, "only": 3039, "Ġleast": 3040, "agn": 3041, "Ġexpl": 3042, "itter": 3043, "aring": 3044, "Ġcolumn": 3045, "ĠGeneral": 3046, "\":\"": 3047, "eral": 3048, "rior": 3049, "Ġrecord": 3050, "IB": 3051, "EX": 3052, "Ġdat": 3053, "Ġmaking": 3054, "ued": 3055, "ĠCar": 3056, "emp": 3057, "\".": 3058, "ĠMed": 3059, "Ġclose": 3060, "Ġpercent": 3061, "Ġpast": 3062, "(g": 3063, ":(": 3064, "Ġwrite": 3065, "Ġmove": 3066, "Ġpat": 3067, "Control": 3068, "Ġvi": 3069, "inate": 3070, "'ll": 3071, "aged": 3072, "Null": 3073, "Ġspecial": 3074, "IZE": 3075, "Ġcity": 3076, "ĠEng": 3077, "ixed": 3078, "inary": 3079, "py": 3080, "Ġeff": 3081, "ario": 3082, "Ġtell": 3083, "avor": 3084, "Ġselect": 3085, "level": 3086, "imum": 3087, "oper": 3088, "IP": 3089, "esc": 3090, "Ġfont": 3091, "ĠAm": 3092, "ished": 3093, "ills": 3094, "Inter": 3095, "OW": 3096, "Ġcourse": 3097, "Ġlate": 3098, "iddle": 3099, "Ġamount": 3100, "ino": 3101, "cul": 3102, "andle": 3103, "Ġben": 3104, "ĠCal": 3105, "Ġ$_": 3106, "ĠRep": 3107, "Ġenough": 3108, "Token": 3109, "(j": 3110, "Sc": 3111, "Width": 3112, "now": 3113, "atform": 3114, "Ġlooking": 3115, "Ġhold": 3116, "Module": 3117, "ITY": 3118, "vo": 3119, "ison": 3120, ".Data": 3121, "yc": 3122, "Ġpot": 3123, "idual": 3124, "ides": 3125, "rt": 3126, "Ġproperty": 3127, "ĠĠĠĠĠĠĠĠĠĠĠĠĠĠĠĠĠĠĠĠĠĠĠĠĠĠĠĠĠĠĠĠĠĠĠĠĠĠĠĠĠĠĠ": 3128, "amework": 3129, "go": 3130, "Ġlow": 3131, "Ġpara": 3132, "Ġprice": 3133, "ury": 3134, "Ġtoday": 3135, "roy": 3136, "Ġ'/": 3137, "Ġpolit": 3138, "Ġ''": 3139, "ymb": 3140, "Ph": 3141, "Ġadv": 3142, "Ġattack": 3143, "ĠSte": 3144, "ROM": 3145, "ana": 3146, "Ġmeans": 3147, "Ġstory": 3148, "ids": 3149, "aken": 3150, "Ġmeet": 3151, "Ġmom": 3152, "ĠâĢĺ": 3153, "Ġden": 3154, "obile": 3155, "change": 3156, "ĠĠĠĠĠĠĠĠĠĠĠĠĊ": 3157, "ici": 3158, "na": 3159, "ĠForm": 3160, "Ġsort": 3161, "Select": 3162, "pare": 3163, "Ġthought": 3164, "_con": 3165, "Ġtask": 3166, "ocus": 3167, "ĠDE": 3168, "ĠMin": 3169, "Ġopt": 3170, "umer": 3171, "KE": 3172, "then": 3173, "Ġdet": 3174, "ĠTest": 3175, "ports": 3176, "Ġreview": 3177, "move": 3178, "Ġswitch": 3179, "ERT": 3180, "patch": 3181, "annot": 3182, "Ġabove": 3183, "itive": 3184, "Ġquestion": 3185, "ĠQu": 3186, "gle": 3187, "Ġword": 3188, "Ġprovide": 3189, "ĠReturn": 3190, "Ġresearch": 3191, "Ã£o": 3192, "ustr": 3193, "Ġpublish": 3194, "chema": 3195, "}}": 3196, "ĠCON": 3197, "-in": 3198, "allback": 3199, "Ġcover": 3200, "\\\\": 3201, "color": 3202, "ĠIS": 3203, "Ġwhether": 3204, "imate": 3205, "isc": 3206, "Bar": 3207, "Ġdiv": 3208, "Be": 3209, "ourn": 3210, "Ġhaving": 3211, "lem": 3212, "player": 3213, "abs": 3214, "amera": 3215, "ney": 3216, "Ġexc": 3217, "gether": 3218, "plied": 3219, "ao": 3220, "[$": 3221, "Ġ++": 3222, "ipe": 3223, "show": 3224, "/d": 3225, "[:": 3226, "agement": 3227, "lev": 3228, "_ID": 3229, "rary": 3230, "ades": 3231, "_se": 3232, "ause": 3233, "Ġemploy": 3234, "Ġfre": 3235, "Ġcomplet": 3236, "Ġlarge": 3237, "ral": 3238, "\\x": 3239, "Ġfac": 3240, "Ġcreated": 3241, "uper": 3242, ".state": 3243, "Ġhost": 3244, "eneric": 3245, "/b": 3246, "(!": 3247, "while": 3248, "ias": 3249, "BUG": 3250, "Ġrole": 3251, "Reg": 3252, "ĠColor": 3253, "Start": 3254, "top": 3255, "Ġweb": 3256, "Ġdev": 3257, "Ġdeal": 3258, "Integer": 3259, "position": 3260, "Ġ(\"": 3261, "Ġproblem": 3262, "sv": 3263, "Ġpress": 3264, "ABLE": 3265, "ATION": 3266, "ĠSee": 3267, "anch": 3268, "Ġthough": 3269, "leep": 3270, "Ġpoints": 3271, "ĠĠĠĠĠĠĠĠĠĠĠĠĠĠĠĠĠĠĠĠĠĠĠĠĠ": 3272, ".J": 3273, "Ġ::": 3274, "ptr": 3275, "DB": 3276, ".png": 3277, "node": 3278, "soft": 3279, "pond": 3280, "Ġever": 3281, "----------------------------------------------------------------": 3282, "Menu": 3283, "Ġservices": 3284, "pg": 3285, "params": 3286, "Ġactually": 3287, "Ġ\"/": 3288, "Empty": 3289, "Method": 3290, "Ġident": 3291, "unic": 3292, "Ġmillion": 3293, "Ġaff": 3294, "style": 3295, "Ġconc": 3296, "ios": 3297, "ignment": 3298, "Pr": 3299, "Ġunderstand": 3300, "uary": 3301, "Ġhappen": 3302, "Ġserver": 3303, "ĠCo": 3304, "SC": 3305, "Ġles": 3306, "Ġfiles": 3307, "Grid": 3308, "Ġoften": 3309, "Ġinfo": 3310, "_tr": 3311, "src": 3312, "ony": 3313, "Ġspace": 3314, "umb": 3315, "Ġpassword": 3316, "Ġstore": 3317, "ĠWhat": 3318, "ged": 3319, "ĠFalse": 3320, "Us": 3321, "swer": 3322, "_index": 3323, "Ġformat": 3324, "most": 3325, "sm": 3326, "New": 3327, "Ġdetails": 3328, "Ġprob": 3329, "ĠAND": 3330, "ilar": 3331, "Ġ${": 3332, "rypt": 3333, "ĠFree": 3334, "_of": 3335, "dated": 3336, "Ġ>>": 3337, "Ġface": 3338, "CTION": 3339, "Ġsave": 3340, "Ġtyp": 3341, "dev": 3342, "(\"#": 3343, "AGE": 3344, "container": 3345, "edit": 3346, "QL": 3347, "Ġitems": 3348, "Ġsocial": 3349, "ien": 3350, "ĠReact": 3351, "Ġmar": 3352, "Ġredu": 3353, "ĠRE": 3354, "Ġmajor": 3355, "Cell": 3356, "next": 3357, "Ġexpected": 3358, "Ġyet": 3359, "Ġindiv": 3360, "tributes": 3361, "atis": 3362, "amed": 3363, "Ġfood": 3364, "Source": 3365, "(string": 3366, "ites": 3367, "dr": 3368, "Ġmembers": 3369, "Ġcomb": 3370, "items": 3371, "ĠPer": 3372, "TH": 3373, "=True": 3374, "Ġbar": 3375, "comm": 3376, "(w": 3377, "Ġsend": 3378, "Ġinc": 3379, "FA": 3380, "Ġparams": 3381, "apping": 3382, "ros": 3383, "ugin": 3384, "fa": 3385, "Ġconnection": 3386, "Ġbecome": 3387, "Mode": 3388, "Ġev": 3389, "Ġdiff": 3390, "ĠUnited": 3391, "Height": 3392, "fully": 3393, "images": 3394, "Ġmakes": 3395, "Ġglobal": 3396, "Ġcontact": 3397, "Ġabs": 3398, "float": 3399, "Ġexcept": 3400, "ĠPol": 3401, "Child": 3402, "typ": 3403, "Ġcertain": 3404, "iÃ³n": 3405, "OUT": 3406, "Ġimpro": 3407, "iles": 3408, "ĠPart": 3409, "values": 3410, "oss": 3411, "ilit": 3412, "ĠEvent": 3413, "curity": 3414, "ster": 3415, "Ġcharacter": 3416, "Ġnews": 3417, "Ġ\",": 3418, "Ġdevice": 3419, "cel": 3420, "heet": 3421, "Default": 3422, "click": 3423, "(value": 3424, "ĠAb": 3425, "Ġprevious": 3426, "ERROR": 3427, "ocal": 3428, "Ġmaterial": 3429, "Ġbelow": 3430, "ĠChrist": 3431, "Ġmedia": 3432, "cover": 3433, "ĠUI": 3434, "Ġfail": 3435, "Ġblack": 3436, "Ġcomponent": 3437, "ĠAmerican": 3438, "Ġadded": 3439, "Ġbuy": 3440, "stit": 3441, "Ġcame": 3442, "Ġdelete": 3443, "property": 3444, "oding": 3445, "Ġcard": 3446, "rops": 3447, "Ġhttps": 3448, "Ġroot": 3449, "Ġhandle": 3450, "CC": 3451, "Back": 3452, "emplate": 3453, "Ġgetting": 3454, "_by": 3455, "mail": 3456, "_sh": 3457, "ĠDec": 3458, "(true": 3459, "Ġcomput": 3460, "Ġclaim": 3461, "ĠSub": 3462, "Ġair": 3463, "ops": 3464, "nav": 3465, "ements": 3466, "(id": 3467, "Ġenter": 3468, "anged": 3469, "End": 3470, "Ġlocation": 3471, "Ġnight": 3472, "Ġdoing": 3473, "ĠRed": 3474, "lin": 3475, "Ġpick": 3476, "Ġwatch": 3477, "essages": 3478, "Ġhuman": 3479, "Ġdam": 3480, "pend": 3481, "dir": 3482, "Ġtax": 3483, "Ġgirl": 3484, "reet": 3485, "Ġbox": 3486, "Ġstrong": 3487, "(v": 3488, "rel": 3489, "Ġinterface": 3490, "fect": 3491, "_at": 3492, "Ġhouse": 3493, "Ġtrack": 3494, "je": 3495, "ĠJohn": 3496, "istr": 3497, "(S": 3498, "ube": 3499, "Ġce": 3500, "itted": 3501, "VER": 3502, "*)": 3503, "parent": 3504, "Ġapplication": 3505, "any": 3506, "Ġpack": 3507, "\\u": 3508, "Ġpract": 3509, "Ġsection": 3510, "Ġunsigned": 3511, "ĠOne": 3512, "Ä±": 3513, "iple": 3514, "aid": 3515, "Ñĥ": 3516, "Vector": 3517, "byte": 3518, "Ġwait": 3519, "ĠÃł": 3520, "Ã¥": 3521, "Ġtogether": 3522, "Ġthrows": 3523, "FO": 3524, "'))": 3525, "host": 3526, "ising": 3527, "Ġterms": 3528, "-r": 3529, "Ġapply": 3530, "Ġsession": 3531, "Options": 3532, "uggest": 3533, "Ġothers": 3534, "witter": 3535, "Ġfund": 3536, "Init": 3537, "__(": 3538, "ensor": 3539, "Ġseveral": 3540, "ii": 3541, "[j": 3542, "IO": 3543, "Ġtemplate": 3544, "Position": 3545, "Ġecon": 3546, "achine": 3547, "Ġil": 3548, ".spring": 3549, "main": 3550, "elt": 3551, "iment": 3552, "Rec": 3553, "mm": 3554, "ĠUniversity": 3555, "ursor": 3556, "ĠĠĠĠĠĠĠĠĠĠĠĠĠĠĠĠĠĠĠĠ": 3557, "GL": 3558, "icture": 3559, "ithub": 3560, "cer": 3561, "cast": 3562, "From": 3563, "ales": 3564, "Ġsubject": 3565, "ny": 3566, "Ġesc": 3567, ".write": 3568, "ï¼Į": 3569, "What": 3570, ".H": 3571, "Ġhistory": 3572, "ĠFe": 3573, "Ġindividual": 3574, "unit": 3575, "Ġ-->": 3576, "Ġdu": 3577, "IST": 3578, "Ġusers": 3579, "fs": 3580, "false": 3581, "unt": 3582, "Title": 3583, "Ġmot": 3584, "Ġfuture": 3585, "ached": 3586, "Ġstarted": 3587, "Ġmode": 3588, "_array": 3589, "Ġax": 3590, "ires": 3591, "There": 3592, "ught": 3593, "tml": 3594, "posed": 3595, "icult": 3596, "Ġtook": 3597, "Ġgames": 3598, "Ġ}}": 3599, "Ġproducts": 3600, "Is": 3601, "Ġbad": 3602, "ĠDes": 3603, ".path": 3604, "ĠPost": 3605, "avel": 3606, "(:": 3607, "Ġneeds": 3608, "Ġknown": 3609, "Fl": 3610, "Ġexec": 3611, "Ġseen": 3612, "ume": 3613, "Ġborder": 3614, "Ġlive": 3615, "temp": 3616, "Per": 3617, "Ġvariable": 3618, "iet": 3619, "ĠDef": 3620, "Ġge": 3621, "eme": 3622, "_back": 3623, "first": 3624, "Ġprovided": 3625, "Ġfilename": 3626, "Ġhope": 3627, "uly": 3628, "auto": 3629, "find": 3630, "_string": 3631, "itude": 3632, "Attribute": 3633, "Ġyoung": 3634, ".txt": 3635, "Ġwebsite": 3636, "ĠProp": 3637, "Ġey": 3638, "ional": 3639, "ictionary": 3640, "urther": 3641, "ALL": 3642, "Ġstudy": 3643, "ili": 3644, "Ġnetwork": 3645, "yl": 3646, "istance": 3647, "OK": 3648, "NU": 3649, "rest": 3650, "ĠST": 3651, "icrosoft": 3652, "Ġlimit": 3653, "Ġcut": 3654, "Ġcou": 3655, "ogn": 3656, "ival": 3657, "Ġwent": 3658, ".z": 3659, "Link": 3660, "Ġfire": 3661, "Ġacross": 3662, "Ġcommunity": 3663, "region": 3664, "NE": 3665, "Ref": 3666, "Ġofficial": 3667, "Ġvisit": 3668, "olve": 3669, "Ġreceived": 3670, "Ġtoken": 3671, "Ġmonths": 3672, "Ġanim": 3673, "Ġparticular": 3674, "styles": 3675, "ico": 3676, "Ġess": 3677, "ĠÃ©": 3678, "ball": 3679, "Ġlearn": 3680, "inding": 3681, "Var": 3682, "Ġdecl": 3683, "LECT": 3684, "One": 3685, "pha": 3686, "Ġ~": 3687, "fort": 3688, "asure": 3689, "Ġmind": 3690, "ĠEnd": 3691, "Check": 3692, "Ġquick": 3693, "\"),": 3694, "AND": 3695, "utions": 3696, "Base": 3697, "________": 3698, "Ġcomment": 3699, "INE": 3700, "âĢĻve": 3701, "But": 3702, "ĠEl": 3703, "ĠUs": 3704, "Ġadmin": 3705, "mark": 3706, "ĠName": 3707, "ĠType": 3708, "amic": 3709, "pc": 3710, "loor": 3711, "FT": 3712, "Ġopp": 3713, "cket": 3714, ")->": 3715, "tx": 3716, "Ġpur": 3717, "uel": 3718, "ymbol": 3719, "uation": 3720, "anger": 3721, "Ġbackground": 3722, "ecess": 3723, "efined": 3724, "........": 3725, "Ġdescription": 3726, "Ġrepresent": 3727, "pression": 3728, "rowser": 3729, "Ġseries": 3730, "wards": 3731, "aise": 3732, "Ġhot": 3733, "acity": 3734, "ries": 3735, "actions": 3736, "Create": 3737, "adio": 3738, "amples": 3739, "Ġoriginal": 3740, "ensive": 3741, "font": 3742, "stream": 3743, "server": 3744, "Ġbill": 3745, "ACK": 3746, "ilename": 3747, "Ġframe": 3748, "Edit": 3749, "adius": 3750, "Ġdraw": 3751, "anks": 3752, "Ġdeter": 3753, "Ġcomes": 3754, "_int": 3755, "Ġforeach": 3756, "angle": 3757, "Ġelect": 3758, "pected": 3759, "Header": 3760, "istration": 3761, "False": 3762, "ĠGame": 3763, "Ġfilter": 3764, "Activity": 3765, "Ġlarg": 3766, "inition": 3767, "Ġ\"<": 3768, "ised": 3769, "Ġremove": 3770, "ĠTrans": 3771, "met": 3772, "see": 3773, "Format": 3774, "Command": 3775, "ĠEX": 3776, "None": 3777, "Ġfront": 3778, "ASE": 3779, "ĠRec": 3780, "oundation": 3781, "Ġvo": 3782, "(*": 3783, "Change": 3784, "group": 3785, "ients": 3786, "uy": 3787, "****************************************************************": 3788, "Ġdig": 3789, "hr": 3790, "(-": 3791, "Ġgen": 3792, "number": 3793, "vec": 3794, "urope": 3795, "entry": 3796, "LL": 3797, "Ġste": 3798, "Valid": 3799, "'],": 3800, "_param": 3801, "Ġselected": 3802, "Ġaccording": 3803, "ĠDis": 3804, "Ġutil": 3805, "_error": 3806, "Ġassoci": 3807, "Ġwor": 3808, "Ġprintf": 3809, "rag": 3810, "Âł": 3811, "DD": 3812, "ĠVal": 3813, "Ġactiv": 3814, "Eng": 3815, "etime": 3816, "Ġvirtual": 3817, "aign": 3818, "aur": 3819, "ĠPres": 3820, "Ġanything": 3821, "ĠOff": 3822, "Ġhours": 3823, "Ġwar": 3824, "Args": 3825, "aging": 3826, "Ġmodels": 3827, "ĠTime": 3828, "Ob": 3829, "ams": 3830, "joy": 3831, "Ġearly": 3832, ".read": 3833, "Ġcenter": 3834, "ĠInitial": 3835, "Ġlanguage": 3836, "length": 3837, "xy": 3838, "Ġsn": 3839, "Ġinf": 3840, "Post": 3841, "Ġago": 3842, "Ġeasy": 3843, "_code": 3844, "ĠANY": 3845, "_ch": 3846, "Ġdownload": 3847, "(T": 3848, "aved": 3849, "âĢĵ": 3850, "Ġstudents": 3851, "Ġfig": 3852, "light": 3853, "xx": 3854, "Ġbuffer": 3855, "ĠDep": 3856, "ĠMath": 3857, "ITH": 3858, "Ġvari": 3859, "Ġdue": 3860, "Ġpor": 3861, "Ġep": 3862, "otype": 3863, "Ġcannot": 3864, "Ġwhite": 3865, "<int": 3866, "tern": 3867, "Ġregister": 3868, "Ġpred": 3869, "clus": 3870, "_date": 3871, "Ġauth": 3872, "Ġperiod": 3873, "nown": 3874, "Ġvot": 3875, "Ġscreen": 3876, "'d": 3877, "Types": 3878, "Ġtmp": 3879, "ural": 3880, "Ġbenef": 3881, "_y": 3882, "Ġnet": 3883, "ĠStates": 3884, "ĠNe": 3885, "ĠNOT": 3886, "Ġneg": 3887, "Ġcommon": 3888, "scope": 3889, "Ġcred": 3890, "ges": 3891, "Ġsuggest": 3892, "oom": 3893, "Ġaccept": 3894, "Ġrandom": 3895, "erm": 3896, "ĠVector": 3897, "with": 3898, "TER": 3899, "(str": 3900, "Ġrespons": 3901, "Ġhit": 3902, "grid": 3903, "ria": 3904, "Ġclick": 3905, "undle": 3906, "Case": 3907, "insert": 3908, "Ġ\"\"\"": 3909, "Ġimplement": 3910, "atal": 3911, "tempt": 3912, "template": 3913, "ocr": 3914, "returns": 3915, "Ġplayers": 3916, "users": 3917, "edef": 3918, "ĠThese": 3919, "Ġamong": 3920, "Ġdeb": 3921, "ha": 3922, "Ġcirc": 3923, "Ġanswer": 3924, "Ġwalk": 3925, "Ġtreat": 3926, "ĠGe": 3927, "ĠCreate": 3928, "Ġage": 3929, "OST": 3930, "angular": 3931, "Ñı": 3932, "Ġfive": 3933, "Ġdistributed": 3934, "Ġfriend": 3935, "TP": 3936, "Ġclean": 3937, "ows": 3938, "dis": 3939, "Ġwords": 3940, ".io": 3941, "zy": 3942, "Ġheader": 3943, "ĠCheck": 3944, "âĢĻm": 3945, "just": 3946, "holder": 3947, "ĠGNU": 3948, "ĠCol": 3949, "imest": 3950, "entic": 3951, "Ġtre": 3952, "last": 3953, "la": 3954, "ĠYork": 3955, "Lo": 3956, "Ġdiscuss": 3957, "ĠGod": 3958, "Ġissue": 3959, "rew": 3960, "Ġland": 3961, "Ġstream": 3962, "ĠPar": 3963, "Ġquality": 3964, "Par": 3965, "_num": 3966, "Ġsal": 3967, "elves": 3968, "Ġworks": 3969, "Ġhalf": 3970, "enses": 3971, "vas": 3972, "Ġpolice": 3973, "ua": 3974, "Ġsimple": 3975, "Address": 3976, "Ġempty": 3977, "esh": 3978, "Update": 3979, "ĠĠĠĠĠĠĠĠĠĠĠĠĠĠĠĠĠĠ": 3980, "Ġagre": 3981, "ĠFROM": 3982, "Ġcook": 3983, "Ġeverything": 3984, "ilities": 3985, "Ġrelations": 3986, "Ġnothing": 3987, "Ġrunning": 3988, "RI": 3989, "_a": 3990, "por": 3991, ".sub": 3992, "require": 3993, "ĠCity": 3994, "ĠWest": 3995, "Ġmor": 3996, "store": 3997, "oder": 3998, "Ġna": 3999, "Ġ[[": 4000, "Ġ('": 4001, "ĠDon": 4002, "ERS": 4003, "/p": 4004, "abor": 4005, "Ġsomeone": 4006, "_text": 4007, "ĠSome": 4008, "ato": 4009, "double": 4010, "Ġshare": 4011, "_dir": 4012, "Ġur": 4013, "Stack": 4014, "ĠWorld": 4015, ".X": 4016, "stract": 4017, "How": 4018, "icles": 4019, "Ġentry": 4020, "Ġchanges": 4021, "Ġpersonal": 4022, "(A": 4023, "Ġoffset": 4024, "Ġpie": 4025, "ĠJan": 4026, "-group": 4027, "module": 4028, "Items": 4029, "ĠHowever": 4030, "verage": 4031, "Ġevents": 4032, ".min": 4033, "Ġinvol": 4034, "za": 4035, "Ġwhole": 4036, "Ġneeded": 4037, "Ġlikely": 4038, "rief": 4039, "ORM": 4040, "version": 4041, "Ġfight": 4042, "Ġein": 4043, "Frame": 4044, "gen": 4045, "ĠOut": 4046, "avigation": 4047, "Length": 4048, "illed": 4049, "quence": 4050, "ĠSoftware": 4051, "Ġwriting": 4052, "Ġrate": 4053, "Panel": 4054, "inner": 4055, "Ġ[\"": 4056, "Ġtw": 4057, "cd": 4058, "_state": 4059, "ĠSm": 4060, "ĠMark": 4061, "prot": 4062, "ĠMr": 4063, "method": 4064, "ustomer": 4065, "Icon": 4066, "Ġcorrect": 4067, "(object": 4068, "ĠMore": 4069, "Ġfall": 4070, "Ġvol": 4071, "Ġdevelopment": 4072, "ently": 4073, "Ġsi": 4074, "medi": 4075, "ving": 4076, "PP": 4077, "aker": 4078, "Ġindu": 4079, "Ġelif": 4080, "Ġpret": 4081, "Ġbelieve": 4082, "ns": 4083, "omet": 4084, "ĠIntern": 4085, "Rect": 4086, "So": 4087, ".error": 4088, "Read": 4089, "Ġfeatures": 4090, "Ġminutes": 4091, "---": 4092, "asing": 4093, "cret": 4094, "Ġcollection": 4095, "'.": 4096, "Ġsimilar": 4097, "Ġtaken": 4098, "(\"%": 4099, "Order": 4100, "ĠTH": 4101, "aced": 4102, "Ġisn": 4103, "/j": 4104, "Ġson": 4105, "graph": 4106, "ĠInteger": 4107, "Ġnecess": 4108, "reen": 4109, "Ġum": 4110, "Ġ\\<": 4111, "Ġmoment": 4112, "Ġbring": 4113, "Ġindic": 4114, "ysis": 4115, "Level": 4116, "verse": 4117, "urrenc": 4118, "_test": 4119, "Ġentire": 4120, "Down": 4121, "(result": 4122, "ĠRead": 4123, "Ã¨": 4124, "Mod": 4125, "Ġtrying": 4126, "Ġmember": 4127, "ĠCor": 4128, "ODO": 4129, "-control": 4130, "ĠSim": 4131, "plot": 4132, "_on": 4133, "Ġphys": 4134, "}/": 4135, "Ġnamespace": 4136, "acc": 4137, "Player": 4138, "ARE": 4139, "Ġfoot": 4140, "Ġboard": 4141, "part": 4142, "Ġsus": 4143, "wise": 4144, "ĠMc": 4145, "Ġpush": 4146, "ATA": 4147, "Ġplease": 4148, "ried": 4149, "weet": 4150, "bit": 4151, "ided": 4152, "VE": 4153, "ĠSw": 4154, "UB": 4155, "Ġtypes": 4156, "edia": 4157, "Ġclos": 4158, "acebook": 4159, "When": 4160, "Ġedit": 4161, "igger": 4162, "Ġenerg": 4163, "Ġphot": 4164, "ĠCount": 4165, "ĠEurope": 4166, "ĠRuss": 4167, "peed": 4168, "ĠStr": 4169, "Ġpy": 4170, "Ġcult": 4171, "Ġdefined": 4172, "Ġobt": 4173, "Ġthread": 4174, "ille": 4175, "Ġinstead": 4176, "strong": 4177, "ĠSec": 4178, "URE": 4179, "Ġidea": 4180, ".se": 4181, "emy": 4182, "selected": 4183, "Connection": 4184, "acing": 4185, "thread": 4186, ".next": 4187, "Ġcoll": 4188, "Ġfilm": 4189, "istic": 4190, "Ġcompet": 4191, "Ġconn": 4192, "though": 4193, "Ġcompan": 4194, "ocket": 4195, "Ġteach": 4196, "=(": 4197, "Ġphone": 4198, "Ġactive": 4199, "delete": 4200, "tries": 4201, "Ġmo": 4202, "Ġdeath": 4203, "ocol": 4204, "Ġarticle": 4205, "rodu": 4206, "andid": 4207, "Ñĭ": 4208, "ĠCr": 4209, "ka": 4210, "():": 4211, "lood": 4212, "Ġalmost": 4213, "Ġsell": 4214, "rip": 4215, "Unit": 4216, "Ġapplic": 4217, "Ġconnect": 4218, "Ġfeature": 4219, "Ġvia": 4220, "'),": 4221, "Ġlim": 4222, "ĠĠĠĠĠĠĠĠĠĠĠĠĠĠĠĠĠĠĠĠĠĠĠĠĠĠĠĠĠĠĠĠĠĠĠĠĠĠĠĠĠĠĠĠĠĠĠ": 4223, "ĠGu": 4224, "Engine": 4225, "Ġens": 4226, "Ġenvironment": 4227, "block": 4228, "HERE": 4229, "NULL": 4230, "gy": 4231, "tag": 4232, ")).": 4233, "exp": 4234, "Ġcompl": 4235, "Ġinstall": 4236, "Ġcomplete": 4237, "queue": 4238, "atural": 4239, "Ġgeneral": 4240, "thon": 4241, "Ġasked": 4242, "ores": 4243, "(res": 4244, "Ġreserved": 4245, "SP": 4246, "ĠâĢ¦": 4247, "ÅĤ": 4248, "Ġsignific": 4249, "Off": 4250, "ĠĠĠĠĠĠĠĠĠĠĠĠĠĠĠĠĠĠĠĠĠĠĠĠĠĠĠĠĠ": 4251, "ĠAg": 4252, "ĠJust": 4253, "ĠError": 4254, "Ġinfl": 4255, "adata": 4256, "Ġicon": 4257, "asks": 4258, "''": 4259, "?.": 4260, "account": 4261, "Ġ(*": 4262, "rap": 4263, "_var": 4264, "ĠFOR": 4265, "Ġparty": 4266, "ĠYour": 4267, "cat": 4268, "stry": 4269, ".new": 4270, "boot": 4271, "ĠNov": 4272, "Ġvector": 4273, "Ġnormal": 4274, "Ġfurther": 4275, "Ġdatabase": 4276, "attle": 4277, "Ġmusic": 4278, "Ġspeed": 4279, "Ġdoc": 4280, "process": 4281, "IGHT": 4282, "Ġtaking": 4283, "Ġviol": 4284, "ceed": 4285, "ĠAfter": 4286, "Ġforward": 4287, "Ġcrit": 4288, "rot": 4289, "Ġfailed": 4290, "efore": 4291, "Ġconcern": 4292, "oe": 4293, "ba": 4294, "Ġsender": 4295, "Ġterm": 4296, "has": 4297, "=\"#": 4298, "Ġpotential": 4299, "Num": 4300, "Ġpublished": 4301, "ĠImage": 4302, "straint": 4303, "UD": 4304, "ĠOb": 4305, "Ġprobably": 4306, "lim": 4307, "olume": 4308, "Ġconsum": 4309, "ague": 4310, "ensions": 4311, "Ġinvestig": 4312, "-year": 4313, "');": 4314, "-sm": 4315, "Ġenjoy": 4316, "orig": 4317, "ering": 4318, "cp": 4319, "leased": 4320, "plements": 4321, "Ġreturns": 4322, "pat": 4323, "BO": 4324, "ĠHouse": 4325, "Ġweight": 4326, "ighb": 4327, "Ġconditions": 4328, "Ġexception": 4329, "description": 4330, "Ġtrad": 4331, "-to": 4332, "Ġ{}": 4333, "Ġmodule": 4334, "END": 4335, "Ġconstructor": 4336, "aves": 4337, "Ġfavor": 4338, "ĠNow": 4339, ";i": 4340, "ĠMain": 4341, "_k": 4342, "eries": 4343, "âĢĻll": 4344, "transform": 4345, "imestamp": 4346, "Pre": 4347, "Ġmer": 4348, ".res": 4349, "stant": 4350, "Location": 4351, "Ġloss": 4352, "ĠĊĊ": 4353, "net": 4354, "Ġengine": 4355, "Block": 4356, "Ġissues": 4357, "Ġparse": 4358, "ĠBar": 4359, "Ġstay": 4360, "ĠJSON": 4361, "Ġdom": 4362, "airs": 4363, "wner": 4364, "Ġlower": 4365, "ĠDem": 4366, "ufact": 4367, "Ġps": 4368, "Ġperfect": 4369, "RL": 4370, "Ġeduc": 4371, "ls": 4372, "emory": 4373, "uge": 4374, "Ġexact": 4375, ".key": 4376, "alled": 4377, "ech": 4378, "ief": 4379, "\\/": 4380, "oke": 4381, "Ġformer": 4382, "Ġsix": 4383, "ida": 4384, "Ġmargin": 4385, "Ġheart": 4386, "ald": 4387, "pack": 4388, "Ġrather": 4389, "Ġbuilding": 4390, "erman": 4391, "lice": 4392, "Ġquestions": 4393, "izes": 4394, "lege": 4395, "irectory": 4396, "Ġje": 4397, "Ġcas": 4398, "utf": 4399, "Ġsecurity": 4400, "Ġhowever": 4401, "weight": 4402, "Ġinside": 4403, "Ġpresident": 4404, "Char": 4405, "ĠWITH": 4406, ".map": 4407, "Ġgraph": 4408, "Ġtag": 4409, "_status": 4410, "Ġattempt": 4411, "opp": 4412, "uses": 4413, "Ġround": 4414, ",$": 4415, "Ġfriends": 4416, "Email": 4417, "?>": 4418, "Resource": 4419, "KEY": 4420, "osp": 4421, "ĠNorth": 4422, "ables": 4423, "istrib": 4424, "_class": 4425, "ello": 4426, "That": 4427, "Ðº": 4428, "pecially": 4429, "Ġcampaign": 4430, "Ġalt": 4431, "area": 4432, "Ġchall": 4433, "Ġopport": 4434, "Ġenergy": 4435, "like": 4436, "ington": 4437, ")*": 4438, "yy": 4439, "Ġprofession": 4440, "irth": 4441, "Ġseg": 4442, "Ġhor": 4443, "iers": 4444, "can": 4445, "Ġbehind": 4446, "Product": 4447, "fg": 4448, "ĠSk": 4449, ".jpg": 4450, "?:": 4451, "Ġcallback": 4452, "long": 4453, "MS": 4454, "ATH": 4455, "Ġraise": 4456, "Ġwanted": 4457, "rown": 4458, "utor": 4459, "lt": 4460, "]=": 4461, "eline": 4462, "MA": 4463, "Ġsepar": 4464, "cs": 4465, "semb": 4466, "Dis": 4467, "bserv": 4468, "ĠWill": 4469, "Ġpolicy": 4470, "Ġthird": 4471, "phone": 4472, "Ġbed": 4473, "/g": 4474, "ĠInc": 4475, "izing": 4476, ".remove": 4477, "instance": 4478, ".type": 4479, "Ġserv": 4480, "Each": 4481, "Ġhar": 4482, "ĠMessage": 4483, "SELECT": 4484, "Pos": 4485, "Ġrecomm": 4486, "Ġtraining": 4487, "ĠEnt": 4488, "ĠChar": 4489, "icht": 4490, "(file": 4491, "Ġprior": 4492, "Game": 4493, "Ġexit": 4494, ".core": 4495, "PC": 4496, "nes": 4497, "anced": 4498, "Ġmag": 4499, "Ġrelease": 4500, "Ġshall": 4501, "udent": 4502, "ĠSouth": 4503, "ando": 4504, ":'": 4505, "sk": 4506, "anner": 4507, "Ġoutside": 4508, "ledge": 4509, "ĠRob": 4510, "Ġimm": 4511, "ĠWeb": 4512, "Des": 4513, "BC": 4514, "ancial": 4515, "Dec": 4516, "ferences": 4517, "Ġpurch": 4518, "ĠModel": 4519, "ctor": 4520, "gn": 4521, "_start": 4522, "_un": 4523, ".*": 4524, "ises": 4525, "Ġground": 4526, "Ġunique": 4527, "Ġbeaut": 4528, "{\"": 4529, "Ġpour": 4530, "ĠOct": 4531, "Ġtree": 4532, "sets": 4533, "_res": 4534, "_reg": 4535, "(\"\\": 4536, "Ġbyte": 4537, "Bl": 4538, "Ġdating": 4539, "Ġmatter": 4540, "ĠRem": 4541, "ĠAug": 4542, "ĠLa": 4543, "Ġ$(": 4544, "ournal": 4545, "iam": 4546, "Ġshows": 4547, "write": 4548, "Ġball": 4549, "Ġsimply": 4550, "Ġfast": 4551, "Ġmemory": 4552, "ASS": 4553, "ĠOf": 4554, "oved": 4555, "ante": 4556, "aul": 4557, "istry": 4558, "Ġfit": 4559, "Ġpolitical": 4560, "ancel": 4561, "_.": 4562, "card": 4563, "och": 4564, "_image": 4565, "\\t": 4566, "(L": 4567, "Ġindustry": 4568, "coming": 4569, "Ġextra": 4570, "Ġreported": 4571, "Ġresources": 4572, "Ġimg": 4573, "flow": 4574, "ĠPre": 4575, "Ġwrong": 4576, "interface": 4577, "Parameter": 4578, "ners": 4579, "á»": 4580, "ture": 4581, "ersist": 4582, "ountry": 4583, "Ġseems": 4584, "alance": 4585, "dest": 4586, "Ġmaint": 4587, "Ġunit": 4588, "acters": 4589, "ĠTR": 4590, "iful": 4591, "project": 4592, "Application": 4593, "Ġtakes": 4594, "term": 4595, "Ġetc": 4596, "uster": 4597, "Ġappear": 4598, "address": 4599, "Ġfem": 4600, "hs": 4601, "Ġhom": 4602, ",-": 4603, "Ġdifficult": 4604, "Ġcoming": 4605, "Open": 4606, "Ġsettings": 4607, "ĠWar": 4608, "ĠThen": 4609, "Ġautom": 4610, "ĠFoundation": 4611, "Ġquite": 4612, "Description": 4613, "Ġblog": 4614, "iqu": 4615, "PS": 4616, "_field": 4617, "ĠSch": 4618, "ĠLO": 4619, "Ġdescri": 4620, "Ġeveryone": 4621, "Ġpretty": 4622, "Ġlonger": 4623, "Ġmenu": 4624, "Ġcurrently": 4625, "sec": 4626, "Ġrelationship": 4627, "ĠMap": 4628, "aset": 4629, "Ġparameters": 4630, "Ġcrush": 4631, "igration": 4632, "total": 4633, "Ġnames": 4634, "\");": 4635, "riend": 4636, "ynamic": 4637, "Ġeffort": 4638, "Ġactual": 4639, "Ġfields": 4640, "ters": 4641, "Ġfix": 4642, "_model": 4643, "Ġcases": 4644, "CA": 4645, "My": 4646, "Interface": 4647, "ĠSE": 4648, "]]": 4649, "alle": 4650, "ĠNational": 4651, "inline": 4652, ".V": 4653, "ara": 4654, "refix": 4655, "asc": 4656, "astic": 4657, "Cl": 4658, "Ġperformance": 4659, "aily": 4660, ".net": 4661, "views": 4662, "ayers": 4663, "late": 4664, "ĠApr": 4665, "ederal": 4666, "'])": 4667, "Ġhigher": 4668, "cr": 4669, "alert": 4670, "_node": 4671, "ĠGoogle": 4672, "Ġitself": 4673, "Auth": 4674, "urrency": 4675, "Ġsignificant": 4676, "append": 4677, "Ġrespect": 4678, "strap": 4679, "Ġuna": 4680, "riteria": 4681, "Output": 4682, "Ġprogress": 4683, "Ġmid": 4684, "ĠMicrosoft": 4685, "Ġresource": 4686, "ablish": 4687, "Ġdim": 4688, ".load": 4689, "Ġdirection": 4690, "Ġadditional": 4691, "ĠĠĠĠĠĠĠĠĠĠĠĠĠĠĠĠĠĠĠĠĠĠĠĠ": 4692, "Ġnumbers": 4693, "Ġcompanies": 4694, ".Th": 4695, "Ġsound": 4696, "username": 4697, "Ġstatement": 4698, "Ġalert": 4699, "Ġcontract": 4700, "home": 4701, "_length": 4702, "ev": 4703, "ï¼ļ": 4704, "\";": 4705, "ĠHigh": 4706, "ĠPoint": 4707, "oph": 4708, "Ġlines": 4709, "ox": 4710, "application": 4711, "Ġsoon": 4712, "ctions": 4713, "inger": 4714, "Ġjoin": 4715, "ĠPe": 4716, "Ġlas": 4717, ".E": 4718, "css": 4719, "/or": 4720, "ĠStart": 4721, "ĠTO": 4722, "Ġsubs": 4723, "conn": 4724, "components": 4725, "quare": 4726, "Function": 4727, "endar": 4728, ".index": 4729, "Ġfill": 4730, "ÄĻ": 4731, "Ġchoose": 4732, "how": 4733, "ĠAmerica": 4734, "------------": 4735, "ĠValue": 4736, "Ġoffice": 4737, "Ġveh": 4738, "Ġtransform": 4739, "ĠArt": 4740, "Ġinde": 4741, "Ġfn": 4742, "Ġimplements": 4743, "plete": 4744, "+\"": 4745, "tmp": 4746, "amily": 4747, "Ġhash": 4748, "missions": 4749, "EST": 4750, "gt": 4751, "ĠĠĠĠĠĠĠĠĠĠĠĠĠĠĠĠĠĠĠĠĠĠ": 4752, "Ġflag": 4753, "Ġparticip": 4754, "den": 4755, "ĠReturns": 4756, "Ġnote": 4757, "Ã¼r": 4758, "pm": 4759, "ideos": 4760, "Ġspecified": 4761, "ĠEN": 4762, "ester": 4763, "olid": 4764, "Ġupon": 4765, "Ġ'\\": 4766, "uz": 4767, "Ġvert": 4768, "Ġvict": 4769, "Ġ\"$": 4770, ".k": 4771, "Ġgroups": 4772, "github": 4773, "lang": 4774, "Ġmut": 4775, "TO": 4776, "Ġve": 4777, "ĠPlease": 4778, "access": 4779, "Ġ{\"": 4780, "rea": 4781, "Ġrisk": 4782, "icker": 4783, "oggle": 4784, "ANG": 4785, "Ġwoman": 4786, "Ġgets": 4787, "Ġign": 4788, "ĠId": 4789, "_log": 4790, "ONE": 4791, "Ġevid": 4792, "ĠHar": 4793, "_sub": 4794, "Ġincluded": 4795, "ĠAp": 4796, "igr": 4797, "Ġsem": 4798, "ĠBlack": 4799, "doc": 4800, "_table": 4801, "ĠĠĠĠĠĠĠĠĠĠĠĠĠĠĠĠĠĠĠĠĠĠĠĠĠĠĠĠĠĠĠĠĠĠĠĠĠĠĠĠĠĠĠĠĠĠĠĠĠĠĠĠĠĠĠĠĠĠĠĠĠĠĠĠ": 4802, "-up": 4803, "Ġcause": 4804, "Ġ..": 4805, "Ġvan": 4806, "_dict": 4807, "Ġfocus": 4808, "IND": 4809, "Ġmultiple": 4810, "ido": 4811, "Ġregard": 4812, "-M": 4813, "andler": 4814, "ourse": 4815, "Ġdeg": 4816, ".U": 4817, "Ġaddition": 4818, "Ġvarious": 4819, "Ġreceive": 4820, "ĠHT": 4821, "Obj": 4822, "DF": 4823, "Ġincrease": 4824, "ĠOpen": 4825, "];": 4826, "Ġcommit": 4827, "ategories": 4828, "atory": 4829, "ship": 4830, "ĠMich": 4831, "Ġhtml": 4832, "romise": 4833, "Ġleave": 4834, "Ġstrateg": 4835, "aven": 4836, "ĠConsole": 4837, "known": 4838, "-n": 4839, "Ġbre": 4840, "Session": 4841, "iance": 4842, "Ġalign": 4843, "_result": 4844, ".split": 4845, "Ġreading": 4846, "Ġclo": 4847, "Ġnotice": 4848, "_pr": 4849, "arter": 4850, "Ġlock": 4851, "Ġstandard": 4852, "etic": 4853, "ellow": 4854, "Ġpadding": 4855, "ĠHis": 4856, "Ġstates": 4857, "(P": 4858, "aa": 4859, "Ġinternal": 4860, "ean": 4861, "ĠPRO": 4862, "ĠKey": 4863, "Ġespecially": 4864, "ming": 4865, "Ġcross": 4866, "Ġnational": 4867, "filter": 4868, "Ġscript": 4869, "_i": 4870, "%%%%": 4871, "Ġproblems": 4872, "istor": 4873, "Ġarch": 4874, "Ġwritten": 4875, "Ġmilit": 4876, "MENT": 4877, ".ch": 4878, "cape": 4879, "ĠMus": 4880, "ĠAPI": 4881, "foot": 4882, "Ġimages": 4883, "endl": 4884, ".In": 4885, "First": 4886, "Ġplatform": 4887, "Option": 4888, "ste": 4889, "ĠTODO": 4890, "Ġforce": 4891, "ĠDav": 4892, "(B": 4893, "RT": 4894, "ĠBase": 4895, "Ġannounc": 4896, "ĠPy": 4897, "ds": 4898, ".as": 4899, "Ġprevent": 4900, "apan": 4901, "Ġ{'": 4902, "ĠService": 4903, "ĠSen": 4904, "ador": 4905, "profile": 4906, "Top": 4907, "Ġiter": 4908, "po": 4909, "IES": 4910, "IE": 4911, "iant": 4912, "ãĢģ": 4913, "_j": 4914, "ĠSept": 4915, "_map": 4916, "bum": 4917, "ĠHome": 4918, "ians": 4919, "GB": 4920, "Ġliving": 4921, "Ġpattern": 4922, "(input": 4923, "icient": 4924, "Core": 4925, "Ġentity": 4926, "Ġinteg": 4927, "Changed": 4928, "Ġuseful": 4929, ".info": 4930, "Ġtool": 4931, "Ġok": 4932, "Ġfeed": 4933, "IX": 4934, "Ã©s": 4935, "ĠNews": 4936, "remove": 4937, "erry": 4938, "ipment": 4939, "ares": 4940, "Do": 4941, "Current": 4942, "ustral": 4943, "ĠÑģ": 4944, "})": 4945, "Ġpopular": 4946, "Ġstre": 4947, "Ġmethods": 4948, "Left": 4949, "cal": 4950, "Ġdir": 4951, "Ġallowed": 4952, "Ġimpact": 4953, "Ġelements": 4954, "Ġprote": 4955, "Ġtrain": 4956, ".tr": 4957, "rs": 4958, "ĠTask": 4959, "aries": 4960, "(D": 4961, "Ġrelated": 4962, "Ġvers": 4963, "Ġsil": 4964, "Ġcmd": 4965, "Ġtechnology": 4966, ".width": 4967, "Float": 4968, "ĠUse": 4969, "Body": 4970, "should": 4971, "Font": 4972, "ycle": 4973, "ĠBrit": 4974, "Ġmit": 4975, "Ġscale": 4976, "Ġ(_": 4977, "ernel": 4978, "Ġscore": 4979, "/v": 4980, "Ġstudent": 4981, "UC": 4982, ".show": 4983, "Ġaverage": 4984, "(ex": 4985, "common": 4986, "imation": 4987, "chie": 4988, "river": 4989, "ĠMarch": 4990, "category": 4991, "fin": 4992, "Ġcourt": 4993, "Ð²": 4994, "Ġcontainer": 4995, "-st": 4996, "_for": 4997, "Ġparts": 4998, "Ġdecision": 4999, "obs": 5000, "oub": 5001, "mitted": 5002, "Ġsaw": 5003, "Ġapproach": 5004, "ICE": 5005, "Ġsaying": 5006, "Ġanyone": 5007, "meta": 5008, "SD": 5009, "Ġsong": 5010, "display": 5011, "Oper": 5012, "outes": 5013, "Ġchannel": 5014, "Ġchanged": 5015, "Ãª": 5016, "Ġfinally": 5017, "_number": 5018, "Please": 5019, "à¤": 5020, "oring": 5021, "-re": 5022, "Ġkill": 5023, "Ġdrug": 5024, "window": 5025, "Ġconvert": 5026, "ombre": 5027, "Ġways": 5028, "ĠFirst": 5029, "urity": 5030, "ĠWindows": 5031, "ees": 5032, "Ġmat": 5033, "rapper": 5034, "Ġplus": 5035, "anges": 5036, "azon": 5037, "/t": 5038, "lat": 5039, "aste": 5040, "Ġprofile": 5041, "Ġready": 5042, "rote": 5043, "Ġsense": 5044, "Gener": 5045, "ĠConfig": 5046, "omy": 5047, "ĠJune": 5048, "Ġlatest": 5049, "Ġsaf": 5050, "Ġregion": 5051, "Ġdeep": 5052, "witch": 5053, "ĠPark": 5054, "}`": 5055, "ĠFrom": 5056, "II": 5057, "Ġcv": 5058, "Ġreach": 5059, "Ġcounter": 5060, "ĠWork": 5061, "ĠURL": 5062, "ĠUpdate": 5063, "Ġimmedi": 5064, "close": 5065, "ados": 5066, "ferred": 5067, "Ġweeks": 5068, "urg": 5069, "Ġdamage": 5070, "Ġlost": 5071, "ani": 5072, "_lo": 5073, "Ġhimself": 5074, "Ġdog": 5075, "ï¿": 5076, "pir": 5077, "tt": 5078, "Ġpaper": 5079, "Ġthems": 5080, "second": 5081, "Ġstaff": 5082, "ĠInput": 5083, "ĠFacebook": 5084, "Ġalloc": 5085, "Ġsched": 5086, "ACE": 5087, "Ġthemselves": 5088, "ĠComponent": 5089, "Ġdriver": 5090, "ja": 5091, "(path": 5092, "Ġcategory": 5093, "alls": 5094, "pu": 5095, "ĠAction": 5096, "ĠGL": 5097, "istics": 5098, "Ġoil": 5099, "Ġstock": 5100, "Ġdead": 5101, "VAL": 5102, "QUE": 5103, "Ġcharg": 5104, "Return": 5105, "Ġful": 5106, "dom": 5107, "Ġrules": 5108, "Ġmodify": 5109, "Ġeval": 5110, "ham": 5111, "atement": 5112, "\\<": 5113, "ula": 5114, "=False": 5115, "RA": 5116, "Ġcontains": 5117, "Ġstack": 5118, "mar": 5119, "Ġundefined": 5120, "Ass": 5121, "ĠChina": 5122, "vey": 5123, "Ġplaying": 5124, ")/": 5125, "actor": 5126, "Ġbottom": 5127, "lier": 5128, "ĠNumber": 5129, "Ġcouple": 5130, "DC": 5131, "ĠSO": 5132, "gor": 5133, "success": 5134, "command": 5135, "Filter": 5136, "ĠOur": 5137, "_item": 5138, "Ġroad": 5139, "Version": 5140, "case": 5141, "urt": 5142, "avior": 5143, "ych": 5144, "sembly": 5145, "ĠProduct": 5146, "Ġheld": 5147, "afe": 5148, "Ġincludes": 5149, "Ġavoid": 5150, "ĠFin": 5151, "ĠMod": 5152, "Ġtab": 5153, "ano": 5154, "Ã±": 5155, "ipping": 5156, "-e": 5157, "Ġinsert": 5158, "target": 5159, "chan": 5160, "IME": 5161, "Ġmachine": 5162, "avy": 5163, "ĠNO": 5164, "ĠInter": 5165, "Ġoperation": 5166, "Tag": 5167, "]:": 5168, "Ġproduction": 5169, "Ġareas": 5170, "Ġren": 5171, "_from": 5172, "Ġoperator": 5173, "men": 5174, "apped": 5175, "_per": 5176, "zen": 5177, "Ġtor": 5178, "(response": 5179, "Ġcandid": 5180, "Ġconv": 5181, "ailed": 5182, "ĠLib": 5183, "comp": 5184, "ura": 5185, "ï¿½": 5186, "ĠHere": 5187, "Ġargument": 5188, "hood": 5189, "Ġestablish": 5190, "ography": 5191, "ambda": 5192, "Ġsch": 5193, "Ġmovie": 5194, "Ġsec": 5195, "Ġactivity": 5196, "Ø§": 5197, "_all": 5198, "incip": 5199, "Ġprovides": 5200, "Ġsys": 5201, "acket": 5202, "Ġwasn": 5203, "Ġuses": 5204, "ĠFunction": 5205, ".google": 5206, "ĠResult": 5207, "elcome": 5208, "ĠSy": 5209, "ĠCent": 5210, "ALSE": 5211, "aciÃ³n": 5212, "EXT": 5213, "Ġlicense": 5214, "ĠLong": 5215, "Ġaccom": 5216, "Ġability": 5217, "Active": 5218, "ological": 5219, "oly": 5220, ")),": 5221, "Ġparameter": 5222, "ĠGroup": 5223, "ĠItem": 5224, "ining": 5225, "Ġjud": 5226, "ims": 5227, "fix": 5228, "inder": 5229, "agram": 5230, "Ġfunctions": 5231, "Ġexperi": 5232, "ĠEm": 5233, "Ġrot": 5234, "Ġpen": 5235, "ĠAS": 5236, "Ġchoice": 5237, "ĠPage": 5238, "QU": 5239, "antity": 5240, "ÂŃ": 5241, "words": 5242, "Ġflex": 5243, "protected": 5244, "ĠAny": 5245, "Ġcharacters": 5246, "enced": 5247, "ĠJuly": 5248, "iler": 5249, "Card": 5250, "urance": 5251, "Ġrev": 5252, "aly": 5253, "Ġwonder": 5254, "ĠPort": 5255, "Ġlegal": 5256, "role": 5257, "Ġten": 5258, "Ġgoes": 5259, "MP": 5260, "white": 5261, "Ġreference": 5262, "Ġmis": 5263, "ĠProject": 5264, "icks": 5265, ">&": 5266, "CON": 5267, "Ġrepl": 5268, "Ġregular": 5269, "ramework": 5270, "Ġgoal": 5271, "Ġtouch": 5272, "Ġbuilt": 5273, "des": 5274, "Part": 5275, "(re": 5276, "Ġworth": 5277, "hib": 5278, "game": 5279, "ĠÐ²": 5280, "acion": 5281, "ĠWhite": 5282, "(type": 5283, "(`": 5284, "Ġnatural": 5285, "Ġinj": 5286, "Ġcalcul": 5287, "ĠApril": 5288, "Ġassociated": 5289, "~~": 5290, "=[": 5291, "Ġstorage": 5292, "Ġbytes": 5293, "Ġtravel": 5294, "Ġsou": 5295, "Ġpassed": 5296, "!=": 5297, "ascript": 5298, ".open": 5299, "Ġgrid": 5300, "Ġbus": 5301, "Ġrecogn": 5302, "Ab": 5303, "Ġhon": 5304, "ĠCenter": 5305, "Ġprec": 5306, "build": 5307, "HTML": 5308, "ĠSan": 5309, "Ġcountries": 5310, "aled": 5311, "token": 5312, "kt": 5313, "Ġqual": 5314, "Last": 5315, "adow": 5316, "Ġmanufact": 5317, "idad": 5318, "Next": 5319, "xf": 5320, ".a": 5321, "ĠPM": 5322, "erve": 5323, "iting": 5324, "_th": 5325, "ci": 5326, "=None": 5327, "gs": 5328, "atives": 5329, "Äħ": 5330, "Ġill": 5331, "IA": 5332, "children": 5333, "DO": 5334, "Ġlevels": 5335, "Ġ{{": 5336, "Ġlooks": 5337, "Ġ\"#": 5338, "Ġnecessary": 5339, "ĠĠĠĊ": 5340, "cell": 5341, "Entry": 5342, "Ġ'#": 5343, "Ġextrem": 5344, "Ġplaceholder": 5345, "Load": 5346, "Ġreleased": 5347, "ORE": 5348, "Enumer": 5349, "ĠTV": 5350, "SET": 5351, "Press": 5352, "ĠDepartment": 5353, "Ġproperties": 5354, "Ġrespond": 5355, "Search": 5356, "ael": 5357, "Ġrequ": 5358, "ĠBook": 5359, "(st": 5360, "Ġfinancial": 5361, "icket": 5362, "_input": 5363, "Ġthreat": 5364, "(in": 5365, "Ã§Ã£o": 5366, "Ġevidence": 5367, "));": 5368, "ĠBro": 5369, "Ġou": 5370, "buf": 5371, "Script": 5372, "dat": 5373, "Ġrule": 5374, "Ġstarting": 5375, "[index": 5376, "ae": 5377, "Ġcontrib": 5378, "session": 5379, "_new": 5380, "utable": 5381, "ober": 5382, "Ġrecently": 5383, "Ġreturned": 5384, "itions": 5385, "Ġseek": 5386, "Ġcommunic": 5387, "Ġ\".": 5388, "DS": 5389, "Ġotherwise": 5390, "ĠGerman": 5391, "ixel": 5392, "Ġsystems": 5393, "Ġdrop": 5394, "Ġstructure": 5395, "encies": 5396, "anning": 5397, "ĠLink": 5398, "ĠResponse": 5399, "Ġstri": 5400, "Å¼": 5401, "ĠDB": 5402, "otion": 5403, "(@": 5404, ".test": 5405, "Ġdirectly": 5406, "Ġ\"%": 5407, "ris": 5408, "elta": 5409, "mine": 5410, "ĠĠĠĠĠĠĠĠĠĠĠĠĠĠĠĠĠĠĠĠĠĠĠĠĠĠ": 5411, "(k": 5412, "bon": 5413, "asic": 5414, "pite": 5415, "___": 5416, "Max": 5417, "Ġerrors": 5418, "ĠWhile": 5419, "Ġarguments": 5420, "Ġensure": 5421, "Right": 5422, "-based": 5423, "Web": 5424, "Ġ-=": 5425, "Ġintrodu": 5426, "ĠInst": 5427, "ĠWash": 5428, "ordin": 5429, "join": 5430, "Database": 5431, "Ġgrad": 5432, "Ġusually": 5433, "ITE": 5434, "ĠGo": 5435, "REF": 5436, "Ġip": 5437, "ĠAustral": 5438, "Ġist": 5439, "Ġserious": 5440, "Ġcustomer": 5441, "odo": 5442, "cor": 5443, "Ġdoor": 5444, "Ġplant": 5445, "Ġbegan": 5446, "Ġdistance": 5447, "Ġchance": 5448, "Ġord": 5449, "came": 5450, "Ġprotect": 5451, "ĠNode": 5452, "ening": 5453, "Ġroute": 5454, "ĠSchool": 5455, "hi": 5456, "Ġneighb": 5457, "After": 5458, "licit": 5459, "Ġcontr": 5460, "Ġprimary": 5461, "AA": 5462, "utils": 5463, "Ġbi": 5464, "Red": 5465, "Ġleaders": 5466, "unities": 5467, "Ġgun": 5468, "onth": 5469, "ĠDev": 5470, "FILE": 5471, "Ġcomments": 5472, "_len": 5473, "arrow": 5474, "amount": 5475, "Range": 5476, "sert": 5477, "Ġupdated": 5478, "ĠMo": 5479, "Ġinform": 5480, "ociety": 5481, "ala": 5482, "Access": 5483, "Ġhab": 5484, "Ġcreat": 5485, "_arg": 5486, "ĠJanuary": 5487, "ĠDay": 5488, "uple": 5489, "document": 5490, "gorith": 5491, "menu": 5492, "ĠOver": 5493, "bb": 5494, ".title": 5495, "_out": 5496, "Ġled": 5497, "uri": 5498, "gl": 5499, "Ġbank": 5500, "MD": 5501, "Ġsample": 5502, "Ġhands": 5503, "ĠVersion": 5504, "Ġoffers": 5505, "Ġshape": 5506, "Ġsleep": 5507, "_point": 5508, "Settings": 5509, "Ġachie": 5510, "Ġsold": 5511, "ota": 5512, "Am": 5513, "Ġsafe": 5514, "Store": 5515, "Ġshared": 5516, "Ġpriv": 5517, "Ġsens": 5518, "){": 5519, "Ġremember": 5520, "shared": 5521, "element": 5522, "Ġshoot": 5523, "Vert": 5524, "Ġenv": 5525, "_label": 5526, "run": 5527, "Ġscene": 5528, "device": 5529, "_title": 5530, "agon": 5531, "aby": 5532, "Ġbecame": 5533, "boolean": 5534, "Ġpark": 5535, "ĠCode": 5536, "upload": 5537, "riday": 5538, "ĠSeptember": 5539, "Fe": 5540, "Ġsen": 5541, "cing": 5542, "FL": 5543, "Col": 5544, "uts": 5545, "_page": 5546, "inn": 5547, "Ġimplied": 5548, "aling": 5549, "Ġyourself": 5550, "conf": 5551, "Ġaud": 5552, ".)": 5553, "Ġwrote": 5554, "NG": 5555, ".Error": 5556, "Ġequal": 5557, "ĠRequest": 5558, "Ġserial": 5559, "Ġallows": 5560, "XX": 5561, "Ġmiddle": 5562, "chor": 5563, "Ã¸": 5564, "erval": 5565, "reading": 5566, "ĠAugust": 5567, "Ġquickly": 5568, "Ġweap": 5569, "ĠCG": 5570, "ropri": 5571, "ho": 5572, "Ġcop": 5573, "ĠBig": 5574, "Ġvs": 5575, "Ġfrequ": 5576, "Ġactions": 5577, "Ġproper": 5578, "Ġinn": 5579, "Ġobjects": 5580, "Ġmatrix": 5581, "avascript": 5582, "Ġones": 5583, ".group": 5584, "Ġgreen": 5585, "Ġpaint": 5586, "ools": 5587, "ycl": 5588, "olt": 5589, "comment": 5590, "Dir": 5591, "Ġune": 5592, "izont": 5593, "Ġdesigned": 5594, "_val": 5595, "avi": 5596, "iring": 5597, "tab": 5598, "Ġlayer": 5599, "Ġviews": 5600, "Ġreve": 5601, "rael": 5602, "ĠON": 5603, "rics": 5604, "np": 5605, "Ġcore": 5606, "Main": 5607, "Ġexpert": 5608, "_en": 5609, "Ġ/>": 5610, "utter": 5611, "IAL": 5612, "ails": 5613, "ĠKing": 5614, "ĠMet": 5615, "_end": 5616, "addr": 5617, "ora": 5618, "Ġir": 5619, "Min": 5620, "Ġsurpr": 5621, "Ġrepe": 5622, "Ġdirectory": 5623, "PUT": 5624, "-S": 5625, "Ġelection": 5626, "haps": 5627, "cm": 5628, "Values": 5629, "column": 5630, "ivil": 5631, "inue": 5632, "Ġbeautiful": 5633, "Ġsecret": 5634, "Ġchat": 5635, "ums": 5636, "Ġorigin": 5637, "Ġeffects": 5638, "Ġmanagement": 5639, "illa": 5640, "tk": 5641, "Ġsetting": 5642, "ĠCour": 5643, "Ġhappy": 5644, "Ġfinish": 5645, "Ġcamera": 5646, "ĠVer": 5647, "ĠHer": 5648, "(Q": 5649, "cons": 5650, "ita": 5651, "Ġ'.": 5652, "{}": 5653, "Ġstuff": 5654, "ĠAR": 5655, "Task": 5656, "hidden": 5657, "eros": 5658, "atio": 5659, "ĠHealth": 5660, "olute": 5661, "Enter": 5662, "'>": 5663, "ĠTwitter": 5664, "Ġhy": 5665, "fit": 5666, "Ġmilitary": 5667, "Ġsale": 5668, "required": 5669, "non": 5670, "bootstrap": 5671, "hold": 5672, "rim": 5673, "-old": 5674, "ĠDown": 5675, "Ġmention": 5676, "contact": 5677, "_group": 5678, "oday": 5679, "Ġtown": 5680, "Ġsolution": 5681, "uate": 5682, "elling": 5683, "otes": 5684, "ental": 5685, "omen": 5686, "ospital": 5687, "ĠSup": 5688, "Ġslow": 5689, "Ġblue": 5690, "ago": 5691, "Ġlives": 5692, "Ġ^": 5693, ".un": 5694, "inst": 5695, "enge": 5696, "Ġcustomers": 5697, "Ġcast": 5698, "udget": 5699, "icens": 5700, "Ġdetermin": 5701, "_pl": 5702, "Ġdark": 5703, "si": 5704, "thern": 5705, "ĠJapan": 5706, "/w": 5707, "PU": 5708, "ĠEast": 5709, "ovie": 5710, "Ġpackage": 5711, "Ġnor": 5712, "bot": 5713, "_post": 5714, "ulate": 5715, "Ġclub": 5716, "Ġloop": 5717, "ione": 5718, "shot": 5719, "Initial": 5720, "Ġplayed": 5721, "register": 5722, "rought": 5723, "_max": 5724, "acement": 5725, "match": 5726, "raphics": 5727, "AST": 5728, "Ġexisting": 5729, "Ġcomplex": 5730, "DA": 5731, "mo": 5732, "ito": 5733, "Ġanalysis": 5734, "Ġdeliver": 5735, "ĠĠĠĠĠĠĠĠĠĠĠĠĠĠĠĠĊ": 5736, "idx": 5737, "Ãł": 5738, "ĠEnglish": 5739, "<!--": 5740, "Ġcomputer": 5741, "Ġpas": 5742, "Ġrais": 5743, "Hash": 5744, "Ġmobile": 5745, "Ġowner": 5746, "FIG": 5747, "ĠĠĠĠĠĠĠĠĠĠĠĠĠĠĠĠĠĠĠĠĠĠĠĠĠĠĠĠĠĠĠĠĠĠĠĠĠĠĠĠĠĠĠĠĠĠĠĠĠĠĠ": 5748, "thes": 5749, "Ġattr": 5750, "wd": 5751, ".time": 5752, "Ġtreatment": 5753, "ĠAc": 5754, "impl": 5755, "more": 5756, "pass": 5757, "Ġha": 5758, "Ġleading": 5759, "FFFF": 5760, "atar": 5761, "aders": 5762, "dates": 5763, "Ġzu": 5764, "Ġflow": 5765, "Target": 5766, "Ġinvolved": 5767, "Ġio": 5768, "parse": 5769, "$_": 5770, "hest": 5771, ".int": 5772, "-item": 5773, "asy": 5774, "Sp": 5775, "Ġshift": 5776, "NT": 5777, "Ġtf": 5778, ".web": 5779, "CS": 5780, "Ġ})": 5781, "Ġeyes": 5782, "_z": 5783, "iforn": 5784, "Ġ{@": 5785, "Ġnice": 5786, ".list": 5787, "Ġfloor": 5788, "Ġredirect": 5789, "ĠUK": 5790, "Ġwish": 5791, "Ġcapt": 5792, "legal": 5793, "ĠIO": 5794, "Ġstage": 5795, "ĠAfr": 5796, "igen": 5797, "ĠSH": 5798, "Delete": 5799, "ells": 5800, "Ġsolid": 5801, "Ġmeeting": 5802, "Ġworked": 5803, "Ġeditor": 5804, "iny": 5805, "Ð¼": 5806, "_read": 5807, "eff": 5808, "Offset": 5809, "cha": 5810, "ipped": 5811, "Ġdict": 5812, "ĠRun": 5813, "Ġang": 5814, "xml": 5815, "imple": 5816, "Ġmedical": 5817, "_token": 5818, "connect": 5819, "Ġhour": 5820, "Ġcontroller": 5821, "Gr": 5822, "anded": 5823, "Ġbooks": 5824, "Ġspeak": 5825, "aming": 5826, "Ġmount": 5827, "ondon": 5828, "Ġfelt": 5829, "idge": 5830, "_pos": 5831, "PR": 5832, "Ġmodern": 5833, "Collection": 5834, "CD": 5835, "ĠLo": 5836, "Ġseconds": 5837, "ibly": 5838, "Ġinternational": 5839, "ooth": 5840, "iate": 5841, "Ġcele": 5842, "ĠBit": 5843, "ivo": 5844, "ivery": 5845, "rd": 5846, "Ġcache": 5847, ".count": 5848, "Ġroll": 5849, "RED": 5850, "Ġsetup": 5851, "izontal": 5852, "models": 5853, "Ġconsidered": 5854, "settings": 5855, "ĠRel": 5856, "Ġgrowth": 5857, "Ġmix": 5858, "ĠWashington": 5859, "Ġplt": 5860, "ĠIM": 5861, "áº": 5862, "Ġturned": 5863, "ĠWed": 5864, "Ġ\"-": 5865, "Ġletter": 5866, "ĠĠĠĠĠĠĠĠĠĠĠĠĠĠĠĠĠĠĠĠĠĠĠĠĠĠĠĠ": 5867, "ĠOctober": 5868, "_line": 5869, "Ġattention": 5870, "Ġcollect": 5871, "ĠHash": 5872, "Ġimag": 5873, "Tree": 5874, "Ġsituation": 5875, "ette": 5876, "_no": 5877, "IVE": 5878, "Ġvon": 5879, "Ġknowledge": 5880, "Ġdrive": 5881, "Ġblood": 5882, "Ġcit": 5883, "primary": 5884, "Ġconfiguration": 5885, "tee": 5886, "Ġphoto": 5887, "isode": 5888, "Trace": 5889, "Ġgave": 5890, "Ġshot": 5891, "ĠAir": 5892, "Ġmother": 5893, "price": 5894, "Ġmorning": 5895, "-x": 5896, "Ġtrade": 5897, "Ġdesc": 5898, "Ġparents": 5899, "ted": 5900, "wer": 5901, "Ġsy": 5902, "ĠKe": 5903, "ancy": 5904, "Ġpiece": 5905, "ifornia": 5906, "ran": 5907, "iding": 5908, "comes": 5909, "El": 5910, "Long": 5911, "Ġprofessional": 5912, "rupt": 5913, "va": 5914, "Ġcompletely": 5915, "Ġpractice": 5916, "Ġselection": 5917, "Rem": 5918, "ini": 5919, "Ġcam": 5920, "Ġsites": 5921, "pa": 5922, "arrant": 5923, "*(": 5924, "ĠFriday": 5925, "sequ": 5926, "Ġreader": 5927, "Ġmessages": 5928, "Ke": 5929, "Ġnov": 5930, "HP": 5931, "align": 5932, "arily": 5933, "Ġ',": 5934, "_with": 5935, "Ġdas": 5936, "Ġheard": 5937, "atomic": 5938, "rial": 5939, ")[": 5940, "Ġdise": 5941, "@end": 5942, "Ġgold": 5943, "Ġfair": 5944, "Ġsales": 5945, "strict": 5946, "save": 5947, "Ġmeasure": 5948, "Ġ\"+": 5949, "ecause": 5950, "ĠTable": 5951, "Ġdecided": 5952, "(((": 5953, "INFO": 5954, "Ġopportunity": 5955, "Te": 5956, "ccording": 5957, "ki": 5958, "ĠUN": 5959, "Ġcontain": 5960, "Ġmanager": 5961, "Ġpain": 5962, "ĠFire": 5963, "rome": 5964, "Ġplans": 5965, "Found": 5966, "lay": 5967, "ĠDecember": 5968, "Ġinflu": 5969, "Ãº": 5970, "rench": 5971, "ĠĠĠĠĠĠĠĠĠĠĠĠĠĠĠĠĠĠĠĠĠĠĠĠĠĠĠĠĠĠĠĠĠ": 5972, "azing": 5973, "call": 5974, "wood": 5975, "Ġloaded": 5976, "Ġgrand": 5977, "/f": 5978, "imp": 5979, "_U": 5980, "STR": 5981, "âĢ¢": 5982, "Ġcredit": 5983, "orge": 5984, "QUEST": 5985, "Ġdifference": 5986, "ĠPC": 5987, "Ġpub": 5988, "unday": 5989, "Ġfra": 5990, ".max": 5991, "Ġtried": 5992, "annels": 5993, "send": 5994, "Ġreports": 5995, "Ġadult": 5996, "Ġconsist": 5997, "ĠStreet": 5998, "ĠProgram": 5999, "SQL": 6000, "Matrix": 6001, "ouncil": 6002, "-A": 6003, "Ġwhose": 6004, "Ġrelig": 6005, "ĠSex": 6006, "Ġgives": 6007, "none": 6008, "(G": 6009, "-right": 6010, "ĠNovember": 6011, "ellig": 6012, "utive": 6013, "Äĥ": 6014, "overn": 6015, "Ġeasily": 6016, "Ġideas": 6017, "ĠÐ½": 6018, "lying": 6019, "elle": 6020, "Can": 6021, "_color": 6022, "Ġpair": 6023, "ngth": 6024, "Ġsplit": 6025, "drop": 6026, "arty": 6027, "ona": 6028, "Ġcapital": 6029, "Ġhear": 6030, "Ġexists": 6031, "emo": 6032, "Run": 6033, "oi": 6034, "Ġparser": 6035, "ĠMethod": 6036, "Ġeducation": 6037, "[k": 6038, "Ġlibrary": 6039, "oded": 6040, "Ġcalls": 6041, "here": 6042, "Rel": 6043, "Ġbrand": 6044, "background": 6045, "ga": 6046, "_params": 6047, "Category": 6048, "ĠIndia": 6049, "Ġing": 6050, "Render": 6051, "umpy": 6052, "Ġpet": 6053, "FC": 6054, "ĠAnt": 6055, "Ext": 6056, "Ġcharge": 6057, "ened": 6058, "grad": 6059, "EO": 6060, "Ġdepend": 6061, "frame": 6062, "Ġdf": 6063, "Ġhuge": 6064, "ĠPART": 6065, "eds": 6066, ";;": 6067, "ĠAM": 6068, "Ġbasic": 6069, "ĠLet": 6070, "lich": 6071, "Ġarm": 6072, "Ġstar": 6073, "Work": 6074, "Ġcarry": 6075, "ĠIsrael": 6076, "={{": 6077, "Ġsaved": 6078, "Ġsyn": 6079, "Ġconstant": 6080, "Ġpositive": 6081, "Ġconduct": 6082, "Ġskin": 6083, "Ġearlier": 6084, "Ġlayout": 6085, "ĠIP": 6086, "OUR": 6087, "Ġtim": 6088, "_cl": 6089, "ĠCard": 6090, "Ġtemper": 6091, "ĠDavid": 6092, "Ġwants": 6093, "Ġpicture": 6094, "Ġvideos": 6095, "ĠComm": 6096, "isions": 6097, "Mapping": 6098, "-content": 6099, "ĠEar": 6100, "-de": 6101, "Ġprem": 6102, "bruary": 6103, "Ġcomponents": 6104, "Ġthroughout": 6105, "Ġpull": 6106, "Ġpages": 6107, "ente": 6108, "respond": 6109, "Ġgas": 6110, "criptor": 6111, "Ġedge": 6112, "Ġbound": 6113, "ACT": 6114, "******": 6115, "Ġcreating": 6116, "ĠCH": 6117, "Br": 6118, ".co": 6119, "Ġlearning": 6120, ".Length": 6121, "Ġpatients": 6122, "Ġkids": 6123, "Ġcomfort": 6124, "Ġshown": 6125, "ĠBack": 6126, "ella": 6127, "Ġlat": 6128, "Ġdispatch": 6129, "Ġclasses": 6130, ".at": 6131, "Ġsuccessful": 6132, "ban": 6133, "Ġobtain": 6134, "ĠSl": 6135, "Ġlack": 6136, "(size": 6137, "Ġnone": 6138, "_X": 6139, "sort": 6140, "nap": 6141, "pet": 6142, "bin": 6143, "ĠCanada": 6144, "They": 6145, "Ġdans": 6146, "ĠMat": 6147, "Ġhair": 6148, "Ġcu": 6149, "Ġlaws": 6150, "leted": 6151, "ped": 6152, "Ġpow": 6153, "Ġknew": 6154, "_,": 6155, "ĠMag": 6156, "idents": 6157, "Ġ),": 6158, "-center": 6159, "Ġwide": 6160, "ĠAuthor": 6161, "stants": 6162, "Ġjobs": 6163, "Ġmath": 6164, "etimes": 6165, "Boolean": 6166, "Ġscope": 6167, "_is": 6168, "Ġmeas": 6169, "Ġkeys": 6170, "elay": 6171, "Ġexactly": 6172, "ĠPaul": 6173, "mas": 6174, "(len": 6175, "fd": 6176, "Ġ);": 6177, "irit": 6178, "ields": 6179, "oman": 6180, "ĠTop": 6181, "Ġvote": 6182, "Ġmask": 6183, "Ġtheme": 6184, "Ġfine": 6185, "Ġwriter": 6186, "_offset": 6187, "car": 6188, "Ġaltern": 6189, "Ġcopyright": 6190, "Ġdestroy": 6191, "pper": 6192, "Ġgenerate": 6193, "pped": 6194, "âĢĻd": 6195, "ĠĠĠĠĠĠĊ": 6196, "make": 6197, "ĠShow": 6198, "Ġbrowser": 6199, "Ġfavorite": 6200, "Ġcareer": 6201, "Ġhappened": 6202, "Ġrecommend": 6203, "Ġliter": 6204, "grade": 6205, "ĠÂ£": 6206, "Phone": 6207, "oms": 6208, "Ġnamed": 6209, "-label": 6210, "ipo": 6211, "ĠOther": 6212, "Ġpanel": 6213, "Ġrock": 6214, "Scale": 6215, "Ġtrust": 6216, "front": 6217, "Ġdemon": 6218, "Ar": 6219, "Net": 6220, "Ġeconomic": 6221, "footer": 6222, "Ġrace": 6223, "(node": 6224, "ĠOption": 6225, "split": 6226, "Ġphysical": 6227, "ifest": 6228, "Ġremoved": 6229, "Ġlooked": 6230, "';": 6231, "ding": 6232, "gest": 6233, "aturday": 6234, "Price": 6235, "Ġdro": 6236, "Ġtowards": 6237, "Ġuns": 6238, "ĠCL": 6239, "Ġrows": 6240, "Ġdefine": 6241, "Ġfather": 6242, "ĠDesign": 6243, "assign": 6244, "mut": 6245, "Device": 6246, "Did": 6247, "ometry": 6248, "Ġhistor": 6249, "ĠParam": 6250, "ĠBoolean": 6251, "Ġnature": 6252, "ih": 6253, "Ġdiscover": 6254, "sem": 6255, "ĠTechn": 6256, "Ġwall": 6257, "{$": 6258, "Ġexam": 6259, "opping": 6260, "Ġnearly": 6261, "Ġcool": 6262, "Ġindepend": 6263, "RES": 6264, "Ġhandler": 6265, "ĠMonday": 6266, "Ġsun": 6267, "ously": 6268, "vest": 6269, "Display": 6270, "(y": 6271, "atically": 6272, "Ġpredict": 6273, "ying": 6274, "Ġsometimes": 6275, "Ġdrink": 6276, "Ġbul": 6277, "ifications": 6278, ".insert": 6279, "Ġtests": 6280, "Alignment": 6281, "Ġattribute": 6282, "ĠNote": 6283, "Ġmyself": 6284, "arts": 6285, "Now": 6286, "Ġinteresting": 6287, "lients": 6288, "Ġpopulation": 6289, "ĠCalifornia": 6290, "\"I": 6291, "Ġgreater": 6292, "uesday": 6293, "Ġthous": 6294, "Ġcosts": 6295, "Ġlaunch": 6296, "ker": 6297, "band": 6298, "ĠPlay": 6299, "Ġband": 6300, ".shape": 6301, "esome": 6302, "article": 6303, "Ġwer": 6304, "Ã¡s": 6305, "usr": 6306, "BA": 6307, "ican": 6308, "ett": 6309, "validate": 6310, "ulti": 6311, "Ġimmediately": 6312, "zer": 6313, "Ġfigure": 6314, "oes": 6315, "eller": 6316, "ircle": 6317, "ĠSign": 6318, ".db": 6319, "Ġrank": 6320, "Ġprojects": 6321, "_rec": 6322, "API": 6323, "ĠLine": 6324, "Port": 6325, "Ġpoll": 6326, "Ġgiving": 6327, "idence": 6328, "Ġplot": 6329, "icial": 6330, "Ġwarrant": 6331, "ITION": 6332, "ĠDouble": 6333, "Ġbillion": 6334, "gorithm": 6335, "Ġequipment": 6336, "DATE": 6337, "EE": 6338, "Ġple": 6339, "iation": 6340, "Ġheaders": 6341, "Ġproced": 6342, "Ġpa": 6343, "ĠBest": 6344, "imately": 6345, ".\\": 6346, "mploy": 6347, "Ġraw": 6348, "_block": 6349, "undred": 6350, "Ġbrought": 6351, "created": 6352, "CP": 6353, "eps": 6354, "Op": 6355, "Ġinterview": 6356, "Ġpartial": 6357, "bing": 6358, "Author": 6359, "Book": 6360, "ĠPat": 6361, "uman": 6362, "Users": 6363, "plus": 6364, "ĠDirect": 6365, "venue": 6366, "alpha": 6367, "ĠCall": 6368, "imated": 6369, "Ġremain": 6370, "Ġanti": 6371, "ĠLondon": 6372, "Ġsafety": 6373, "oles": 6374, "controller": 6375, "ĠPhil": 6376, "ĠAssoci": 6377, "ena": 6378, "coin": 6379, "reshold": 6380, "Ġbatch": 6381, "entication": 6382, "enty": 6383, "Ġbeginning": 6384, "Ġzero": 6385, "ĠConvert": 6386, "Ġterr": 6387, "Ġpaid": 6388, "Ġincreased": 6389, "catch": 6390, "-size": 6391, "activity": 6392, "equals": 6393, "Ġqueue": 6394, "ĠInternational": 6395, "ĠfÃ¼r": 6396, "ursday": 6397, "Ġscient": 6398, "allow": 6399, "axis": 6400, "Ġappropri": 6401, "edge": 6402, "Ġidx": 6403, "Success": 6404, ":\\": 6405, "xis": 6406, "Ġmaximum": 6407, "arks": 6408, "Ġbirth": 6409, "Ġmaybe": 6410, ".py": 6411, "files": 6412, "Ġlimited": 6413, "_check": 6414, "look": 6415, "plies": 6416, "Ġmovement": 6417, "'].": 6418, "Ġbroad": 6419, "ĠBE": 6420, ".cpp": 6421, "ĠEvery": 6422, "Ġfans": 6423, "pared": 6424, "ĊĠĠĠĠĊ": 6425, "Ġforeign": 6426, "Ġpan": 6427, "Ġtour": 6428, "ĠOrder": 6429, "Ġmoving": 6430, "Ġauf": 6431, "Call": 6432, "cb": 6433, "ÅŁ": 6434, "ventory": 6435, "Ġfully": 6436, "Ġannounced": 6437, "Ġagreed": 6438, "rie": 6439, "Ġearn": 6440, ".array": 6441, "(text": 6442, "Ġmaterials": 6443, ",p": 6444, "ffff": 6445, "vg": 6446, "Ġunless": 6447, "LOG": 6448, "Ġsexual": 6449, "Ġ\\\"": 6450, "-time": 6451, "Ġsupported": 6452, "Ġphotos": 6453, "iform": 6454, ")]": 6455, "rier": 6456, "Ġdialog": 6457, "aver": 6458, "ige": 6459, ")+": 6460, "_idx": 6461, ":[": 6462, "_min": 6463, "Ġpressure": 6464, "Ġteams": 6465, "Sign": 6466, "begin": 6467, "rian": 6468, "LS": 6469, "Ġimprove": 6470, "ĠSunday": 6471, "Ġdefinition": 6472, "iger": 6473, "rollers": 6474, "Ġthinking": 6475, "Template": 6476, "-F": 6477, "Ġemerg": 6478, "plates": 6479, "ĠUSA": 6480, "ĠAlso": 6481, "rev": 6482, "Ġenable": 6483, "ĠCO": 6484, "Ġconcept": 6485, ")-": 6486, "ĠâĢ¢": 6487, "Ġsets": 6488, "Ġmeaning": 6489, "emon": 6490, "ĠCons": 6491, "cmp": 6492, "eder": 6493, "anned": 6494, "icensed": 6495, "ĠSuper": 6496, "Ġdaily": 6497, "Ġmulti": 6498, "_u": 6499, "Ġchalleng": 6500, "_mode": 6501, "Ġstrict": 6502, "jo": 6503, "inton": 6504, "(list": 6505, "Only": 6506, ">{": 6507, "Ġvehicle": 6508, "ĠPlayer": 6509, "ĠDel": 6510, "Ġpool": 6511, ".url": 6512, "nesday": 6513, "Local": 6514, "Ġorganization": 6515, "render": 6516, "ĠApplication": 6517, "Ġsummer": 6518, "expected": 6519, "NA": 6520, "Ġrap": 6521, "Ġsurface": 6522, "Ġvariables": 6523, "Ġopin": 6524, "Ġworkers": 6525, "vm": 6526, "Co": 6527, "ughter": 6528, "Ġmaster": 6529, "Ġ\"\",": 6530, "Ġstories": 6531, "Ġcelebr": 6532, "inese": 6533, "BS": 6534, "ĠCommand": 6535, "Ġog": 6536, "kg": 6537, "Ġsteps": 6538, "ĠBen": 6539, "(args": 6540, "ĠPerson": 6541, ",y": 6542, "Ġskills": 6543, "vc": 6544, "Ġbuilder": 6545, "Ġgar": 6546, "ĠAuth": 6547, "ĠAT": 6548, "nn": 6549, "Ġeffective": 6550, "Ġtools": 6551, "ARD": 6552, "Ġdigital": 6553, "Double": 6554, "ĠFind": 6555, "RC": 6556, "Ġinline": 6557, "/r": 6558, "Ġintent": 6559, "aight": 6560, "Ġrequests": 6561, "Ġdebug": 6562, "Ġspent": 6563, "ÅĽ": 6564, "Ġprincip": 6565, "cludes": 6566, "Ġsurv": 6567, "media": 6568, "ĠFebruary": 6569, "ĠMac": 6570, "Ġmissing": 6571, "Ġwife": 6572, "Ġtalking": 6573, "ĠMake": 6574, "Ġcart": 6575, "Ġlocated": 6576, "Enc": 6577, "-a": 6578, "chron": 6579, "Ġcards": 6580, "Ġguy": 6581, "Ġpers": 6582, "ĠYes": 6583, "atever": 6584, "ĠAng": 6585, "olar": 6586, "ĠEven": 6587, "Ġaccur": 6588, "ĠPower": 6589, "ĠGold": 6590, "clear": 6591, "Process": 6592, "Ġrecords": 6593, "Ġkilled": 6594, "Ġpurpose": 6595, "panel": 6596, "ÃŃa": 6597, "Ġexerc": 6598, "WS": 6599, "/L": 6600, "Ġ___": 6601, "Ġsin": 6602, "roke": 6603, "Sl": 6604, "ugh": 6605, "ears": 6606, "Ġpointer": 6607, "Ġhop": 6608, "allery": 6609, "Ġobs": 6610, "covery": 6611, "ocity": 6612, "itchen": 6613, "ulations": 6614, "Ġ).": 6615, "straints": 6616, "vention": 6617, "Ġrequires": 6618, "ĠOper": 6619, "ME": 6620, "Ġnorm": 6621, "IRE": 6622, "exas": 6623, "Ġprograms": 6624, "Ġweak": 6625, "uing": 6626, "Ġmil": 6627, "Ġfirm": 6628, "initely": 6629, "apse": 6630, "atisf": 6631, "Ġdemand": 6632, "_mod": 6633, "Ġdescribed": 6634, "Ġplaces": 6635, "VID": 6636, "Ġalone": 6637, "Ġexport": 6638, "Ġvec": 6639, "ĠMax": 6640, "Ġactivities": 6641, "ictures": 6642, "gener": 6643, "Ġma": 6644, "Ĥ¬": 6645, "Ġexpression": 6646, "ĠMost": 6647, "Ġtesting": 6648, "EC": 6649, "Ġadjust": 6650, "Ġagree": 6651, "ighest": 6652, "ĠLaw": 6653, ".Y": 6654, "Ġdescribe": 6655, "ĠEuropean": 6656, "-sh": 6657, "Ġconvers": 6658, "ĠAv": 6659, "(ch": 6660, "?\"": 6661, "chen": 6662, "ima": 6663, "Document": 6664, "Ġoperations": 6665, "win": 6666, "Ġscen": 6667, "/h": 6668, "ĠSC": 6669, "Ġexplo": 6670, ":%": 6671, "NAME": 6672, "(var": 6673, "Ġdirector": 6674, "ONG": 6675, "Ġyield": 6676, "Ġfeet": 6677, "ĠSearch": 6678, "ĠIl": 6679, "Ġrestaur": 6680, "duc": 6681, "Ġinteger": 6682, "Ġhighly": 6683, "checked": 6684, "Ġoptim": 6685, "ĠLI": 6686, "itation": 6687, "Ġtransport": 6688, "ission": 6689, "fill": 6690, "usion": 6691, "ĠĠĠĠĠĠĠĠĠĠĠĠĠĠĠĠĠĠĠĠĠĠĠĠĠĠĠĠĠĠ": 6692, "-th": 6693, "upt": 6694, "Ġessential": 6695, "anted": 6696, "Ġbenefits": 6697, "iki": 6698, "Ġgirls": 6699, "iced": 6700, "buffer": 6701, "]+": 6702, "Ġprices": 6703, "ĠFre": 6704, "Ġsat": 6705, "Ġwood": 6706, "ARG": 6707, "ĠAdmin": 6708, "dk": 6709, "Ġreset": 6710, "Ġforms": 6711, "ĠÐ¸": 6712, "ĠTuesday": 6713, "_train": 6714, "orary": 6715, "ategor": 6716, "Ġdt": 6717, "Total": 6718, "construct": 6719, "ilies": 6720, "Ġguys": 6721, "Ġinstruction": 6722, "yled": 6723, "Ġinternet": 6724, "ady": 6725, "faces": 6726, "jection": 6727, "ĠJack": 6728, "Ġrect": 6729, "[-": 6730, "ĠLeg": 6731, "Ġdevices": 6732, "OC": 6733, "oration": 6734, "ertain": 6735, "Ġguard": 6736, "Ġenum": 6737, "voke": 6738, "ĠOk": 6739, "Home": 6740, "(tr": 6741, "ETH": 6742, "Ġdelay": 6743, "Ġpurchase": 6744, "dc": 6745, "Ġaren": 6746, "_once": 6747, "ror": 6748, "draw": 6749, ".run": 6750, "(model": 6751, "lik": 6752, "ĠArg": 6753, "Ġfish": 6754, "_fe": 6755, "(X": 6756, "_output": 6757, "??": 6758, "Ġjo": 6759, "andard": 6760, "Ġdoll": 6761, "errors": 6762, "_base": 6763, "Ġleader": 6764, "Ġcompar": 6765, "Ġdoub": 6766, "ĠVis": 6767, "-C": 6768, "ĠStud": 6769, "stitute": 6770, "More": 6771, "ĠDescription": 6772, "ads": 6773, "bind": 6774, "employ": 6775, "[n": 6776, ".all": 6777, "-B": 6778, "&&": 6779, "alm": 6780, "Ġculture": 6781, "house": 6782, "Ġsuffer": 6783, "Ġstraight": 6784, "ĠStar": 6785, "udo": 6786, "Ġded": 6787, "ĠCOM": 6788, "Ġconfirm": 6789, "ĠGood": 6790, ".sc": 6791, "________________": 6792, "DR": 6793, "Ġadvert": 6794, "Ġcouldn": 6795, "stack": 6796, "Kit": 6797, "Ġhous": 6798, "Ġmechan": 6799, "rate": 6800, "Ġaudio": 6801, "cores": 6802, "Ġspot": 6803, "Ġincreasing": 6804, "Ġ##": 6805, ")))": 6806, "points": 6807, "Ġcompared": 6808, "lig": 6809, "Ġbehavior": 6810, "ĠBY": 6811, "ĠAtt": 6812, "craft": 6813, "headers": 6814, "ete": 6815, "Ġdetail": 6816, "ĠCommon": 6817, "ston": 6818, "Ġfresh": 6819, ".example": 6820, "berg": 6821, "Ġmoved": 6822, "Ġpayload": 6823, "Äĩ": 6824, "Ġbey": 6825, "urer": 6826, "Ġsymbol": 6827, "Ġassum": 6828, "Ġpul": 6829, "Effect": 6830, "Ġhundred": 6831, "Tool": 6832, "aked": 6833, "connection": 6834, "Ġvoice": 6835, "Ġpd": 6836, "Ġtransaction": 6837, "Ġlinks": 6838, "Err": 6839, "ĠIndian": 6840, "TC": 6841, "atalog": 6842, "ni": 6843, "sign": 6844, "ji": 6845, "ya": 6846, "Ġdemonstr": 6847, "ulated": 6848, "Ġinstit": 6849, "Ġboost": 6850, "Ġcells": 6851, "olic": 6852, "ifying": 6853, "ĠDi": 6854, "orrow": 6855, "Ġcollege": 6856, "Your": 6857, "Ġlargest": 6858, "Ġqui": 6859, "Ġindividuals": 6860, "_buffer": 6861, "SA": 6862, "ĠControl": 6863, "Ġsing": 6864, "Ġsuit": 6865, "SG": 6866, "Ġjump": 6867, "Ġsmart": 6868, "oma": 6869, "ĠExp": 6870, "Ġ'-": 6871, "Ġassist": 6872, "Ġsuccessfully": 6873, "sys": 6874, "ĠCre": 6875, "_ref": 6876, "Ġbur": 6877, "Ġbeyond": 6878, "Ġnodes": 6879, "Details": 6880, "inct": 6881, "ĠJames": 6882, "Ġaffect": 6883, "-se": 6884, "Ġfetch": 6885, "`,": 6886, "}.": 6887, "ĠBO": 6888, "Show": 6889, "Ġrates": 6890, "Ġbon": 6891, "ĠMedia": 6892, "ĠValid": 6893, "acks": 6894, "Ġstudies": 6895, "Me": 6896, "Ġowners": 6897, "Ġgrowing": 6898, "Variable": 6899, "ĠBel": 6900, ".random": 6901, "vement": 6902, "onym": 6903, "(F": 6904, "ĠFALSE": 6905, "Ġtorch": 6906, "(row": 6907, "igo": 6908, "structure": 6909, "Ġcertainly": 6910, "Dep": 6911, "ĠGreen": 6912, "question": 6913, "Ġadding": 6914, "ĠDevelop": 6915, "_def": 6916, "Ġmach": 6917, "=%": 6918, "conds": 6919, "Project": 6920, "Ġreject": 6921, "ĠÎ": 6922, "Ġpoor": 6923, "Ġaware": 6924, "ĠBuild": 6925, "ĠBritish": 6926, "ĠNE": 6927, "Ġnumer": 6928, "rees": 6929, "claim": 6930, "Ġmock": 6931, "Ġom": 6932, "Ġscre": 6933, "OLD": 6934, ".pl": 6935, "eler": 6936, "Ġcorrespond": 6937, "Ġbinary": 6938, "_order": 6939, "ĠSQL": 6940, "Ġadvant": 6941, "Ġprev": 6942, ".[": 6943, "plier": 6944, "arp": 6945, "Ġclosed": 6946, "Ġencour": 6947, "aud": 6948, "Ġdeveloped": 6949, "Ġpermission": 6950, "operator": 6951, "Ġsym": 6952, "atively": 6953, "Ã©e": 6954, "-color": 6955, "ky": 6956, "Ġalthough": 6957, "................": 6958, "Ġamazing": 6959, "ĠDefault": 6960, "Ġfailure": 6961, "acle": 6962, "Properties": 6963, "Ġdream": 6964, "Ġdistr": 6965, "Ġau": 6966, "Ġgenerated": 6967, "ĠTeam": 6968, "USE": 6969, "Ġincome": 6970, "Ġeye": 6971, "_not": 6972, "\"],": 6973, "Support": 6974, "orders": 6975, "ville": 6976, "ĠWednesday": 6977, "olver": 6978, "Ġoppos": 6979, "isation": 6980, "ola": 6981, "Close": 6982, "<p": 6983, "_width": 6984, "Invalid": 6985, "xb": 6986, "Ġstrugg": 6987, "Ġtxt": 6988, "ĠPath": 6989, "alar": 6990, "service": 6991, "ĠMichael": 6992, "okes": 6993, "She": 6994, "Ġguess": 6995, "ĠJava": 6996, "Ġparticularly": 6997, "ĠII": 6998, "Ġdomain": 6999, "Ġreduce": 7000, "-left": 7001, "real": 7002, "Ġappears": 7003, "Ġcomo": 7004, "ĠUnit": 7005, "ĠGovern": 7006, "ali": 7007, "allel": 7008, "_I": 7009, "Ġcos": 7010, "ĠGlobal": 7011, "Ġtele": 7012, "ben": 7013, "_trans": 7014, "Ġreasons": 7015, "Ġemb": 7016, "ensity": 7017, "lines": 7018, "omin": 7019, "Ð°ÑĤ": 7020, "pects": 7021, "clip": 7022, "foo": 7023, "rent": 7024, "Ġaf": 7025, "Ġdanger": 7026, "iling": 7027, "Names": 7028, "Our": 7029, "Ġdistribution": 7030, "While": 7031, "SL": 7032, "Write": 7033, "Ġgoto": 7034, "Ġcolors": 7035, "Ġpowerful": 7036, "kin": 7037, "Ġdepth": 7038, "ercial": 7039, "ĠMarket": 7040, "under": 7041, "ĠLast": 7042, "ÃŁ": 7043, "greg": 7044, "Ġposts": 7045, "Don": 7046, "Ġmicro": 7047, "Ġ(@": 7048, "ĠHot": 7049, "ĠIndex": 7050, ";&": 7051, "#!": 7052, "ĠNor": 7053, "ĠCap": 7054, "-(": 7055, "Ġinterested": 7056, "pear": 7057, "olicy": 7058, ".format": 7059, "phere": 7060, "Ġaxis": 7061, "ĠBusiness": 7062, "ersistence": 7063, "urr": 7064, "Ġminimum": 7065, "endor": 7066, "ĠSD": 7067, "ĠInternet": 7068, "Exp": 7069, "iverse": 7070, "MM": 7071, "Ġobvious": 7072, "Ġbasis": 7073, "Ġscience": 7074, "Ġbudget": 7075, "izations": 7076, "PA": 7077, "Ġflags": 7078, "pret": 7079, "Ġvariety": 7080, "Ġtruth": 7081, "dt": 7082, "Ġgone": 7083, "Ġbattle": 7084, "ĠSil": 7085, "rf": 7086, "uda": 7087, "ĠCam": 7088, "Ġstation": 7089, "cheme": 7090, "ĠSun": 7091, "Ġfinished": 7092, "Ġshop": 7093, "ĠKore": 7094, "Ġeight": 7095, "ND": 7096, ">,": 7097, "(num": 7098, "Ġmail": 7099, "rey": 7100, "results": 7101, "Make": 7102, "Modal": 7103, "ĠLOG": 7104, "ĠSur": 7105, "Ġoverall": 7106, "ĠInformation": 7107, "Ġconstruction": 7108, "but": 7109, "Ġmedic": 7110, "Ġduration": 7111, "itness": 7112, "agent": 7113, "AV": 7114, "Ġseven": 7115, "olf": 7116, "Ġcalling": 7117, "Ġans": 7118, "orizontal": 7119, "ĠStatus": 7120, "ĠOnline": 7121, "RR": 7122, "ĠRich": 7123, "ĠHill": 7124, "Ġbrain": 7125, "Ġfollowed": 7126, "emic": 7127, "Ġslight": 7128, "Ġinsurance": 7129, "Ġabstract": 7130, "ĠSum": 7131, "Non": 7132, "Ġvolume": 7133, "-L": 7134, "ĠDim": 7135, "ĠMart": 7136, "Ġcursor": 7137, "Ġimplementation": 7138, "urred": 7139, "Ġlarger": 7140, "'+": 7141, ".transform": 7142, "Ġupload": 7143, "ĠĠĠĠĠĠĠĠĠĠĠĠĠĠĠĠĠĠĠĠĠĠĠĠĠĠĠĠĠĠĠĠĠĠĠĠĠĠĠĠĠĠĠĠĠĠĠĠĠĠĠĠĠĠĠ": 7144, "Draw": 7145, "nel": 7146, "qrt": 7147, "ĠNetwork": 7148, "Ġtit": 7149, "Axis": 7150, "Ġcompleted": 7151, "Ġcolumns": 7152, "xc": 7153, "Ġsupply": 7154, "iminal": 7155, "Ġspr": 7156, "================================================================": 7157, "Ġunits": 7158, "(u": 7159, "mi": 7160, "replace": 7161, "[key": 7162, "antic": 7163, "Ġpayment": 7164, ",B": 7165, "ĠApple": 7166, "gin": 7167, "Required": 7168, "#+": 7169, "lands": 7170, "Ġsqu": 7171, "Ġfactor": 7172, "dec": 7173, "Ġstrength": 7174, "Ġboy": 7175, "Ġbalance": 7176, "Ġsources": 7177, "screen": 7178, "-top": 7179, "ĠAmazon": 7180, "Ġhidden": 7181, "Ġeat": 7182, "ĠÂ»": 7183, "Ġtrigger": 7184, "Ġtro": 7185, "Ġclaims": 7186, "ford": 7187, "ĠCompany": 7188, ",:": 7189, "handle": 7190, "Ġproduce": 7191, "/lib": 7192, "Ġ-*": 7193, "arc": 7194, "ander": 7195, "ĠEngine": 7196, "Ġattributes": 7197, "task": 7198, "<=": 7199, "(N": 7200, "Ġwarm": 7201, "which": 7202, "ĠFore": 7203, "agnost": 7204, "mys": 7205, "Ġtal": 7206, "ĠSal": 7207, "gi": 7208, "ĠPrint": 7209, "ĠTRUE": 7210, "Ġflash": 7211, "ĠMill": 7212, "bi": 7213, "contr": 7214, "ĠSam": 7215, "Ġnegative": 7216, "kit": 7217, "Ġsett": 7218, "abe": 7219, "Ġburn": 7220, "Ġsociety": 7221, "ĠSecurity": 7222, "_up": 7223, "ceive": 7224, "Ġclients": 7225, "Ġproviding": 7226, "Ġrout": 7227, "material": 7228, "ĠSer": 7229, "ĠOffice": 7230, "Ġ'$": 7231, "Ġfoc": 7232, "Ġexcell": 7233, "Ġcat": 7234, "normal": 7235, "Ġdetermine": 7236, "Ġemployees": 7237, "ĠTexas": 7238, "Ġtraff": 7239, "ĠReport": 7240, "anta": 7241, "ĠBox": 7242, "Ġpartner": 7243, "EB": 7244, "LINE": 7245, "Ġfeeling": 7246, "Ġcivil": 7247, "Ġwouldn": 7248, ".left": 7249, "-v": 7250, "_level": 7251, "'}": 7252, "AF": 7253, "Ġloading": 7254, "ĠOnly": 7255, "Ġcookies": 7256, "ĠGl": 7257, "CO": 7258, "Ġstrategy": 7259, "Ġship": 7260, "poses": 7261, "Ġsignal": 7262, "Ġalpha": 7263, "Radius": 7264, "Ġreplace": 7265, "counter": 7266, "bservable": 7267, "ela": 7268, "Weight": 7269, "hash": 7270, "bose": 7271, "fx": 7272, "ĠEmail": 7273, "Ġrefer": 7274, "iques": 7275, "Step": 7276, "Ġahead": 7277, "ĠServices": 7278, "essor": 7279, "Ġpun": 7280, "Ġappropriate": 7281, "akers": 7282, "osen": 7283, "posing": 7284, "Ġagent": 7285, "fc": 7286, "Ġtransfer": 7287, "Ġinvalid": 7288, "ĠResearch": 7289, "Vertex": 7290, "Ġjournal": 7291, "[x": 7292, "ĠWell": 7293, "Spec": 7294, "Ġol": 7295, "Ġspend": 7296, "ĠAustralia": 7297, "Match": 7298, "ĠĠĠĠĠĠĠĠĠĠĠĠĠĠĠĠĠĠĠĠĠĠĠĠĠĠĠĠĠĠĠĠĠĠĠĠĠ": 7299, "ĠMAX": 7300, "izable": 7301, "clusive": 7302, "Ġquarter": 7303, "yan": 7304, "ĠEdit": 7305, "arden": 7306, "=new": 7307, "Ġfrag": 7308, "Bit": 7309, "zi": 7310, "aine": 7311, "udd": 7312, "debug": 7313, "Ġcash": 7314, "Ġeen": 7315, "Ġcommercial": 7316, "ĠVideo": 7317, "loader": 7318, "Ġfixed": 7319, "Ġapplications": 7320, "Ġ_,": 7321, "ĠRussia": 7322, "itect": 7323, "_(": 7324, "ĠBlock": 7325, "Ġsan": 7326, "ĠTom": 7327, "Ġperhaps": 7328, "Ġsig": 7329, "levant": 7330, "Ġcorpor": 7331, "ataset": 7332, "ronic": 7333, "xe": 7334, "Ġeth": 7335, "Some": 7336, "pop": 7337, "Ġtend": 7338, "_and": 7339, "Ġreviews": 7340, "Ġwild": 7341, "Ġdegree": 7342, ".O": 7343, "_args": 7344, "nil": 7345, "Ġdisabled": 7346, "Parent": 7347, "Ġnotes": 7348, "Ġlogging": 7349, "ĠMal": 7350, "DM": 7351, "Ġxml": 7352, "ĠRobert": 7353, "elen": 7354, "layout": 7355, "fol": 7356, ",b": 7357, "filename": 7358, "Ġfan": 7359, "ĠCustom": 7360, "ĠDie": 7361, "Ġtrip": 7362, "MB": 7363, "Ġsoft": 7364, "Ġapplicable": 7365, "Ġupper": 7366, "_al": 7367, "Here": 7368, "wp": 7369, "ĠServer": 7370, "Ġchem": 7371, "Ġhighest": 7372, "ĠSelect": 7373, "ĠWhy": 7374, "Sec": 7375, "heel": 7376, "Operation": 7377, "Ġconnected": 7378, "irmed": 7379, "Ġcitiz": 7380, "ĠChe": 7381, "Ġforces": 7382, "Ġwww": 7383, "Root": 7384, "ANCE": 7385, "Many": 7386, "icip": 7387, "rgan": 7388, "ĠTor": 7389, "ĠPress": 7390, "ĠMor": 7391, "-line": 7392, "uled": 7393, ">\\": 7394, "Ġthus": 7395, "hol": 7396, "ĠChinese": 7397, "Ġposted": 7398, "Ġmagn": 7399, "abilities": 7400, "Ġdisease": 7401, "Ġremains": 7402, "ĠProf": 7403, "-form": 7404, "organ": 7405, "icate": 7406, "Ġstress": 7407, "]*": 7408, "Ġ----------------------------------------------------------------": 7409, "orry": 7410, "Ġdied": 7411, "mat": 7412, "Ġstarts": 7413, "Ġruns": 7414, "Ġguide": 7415, "entials": 7416, "dict": 7417, "ĠSize": 7418, "uler": 7419, "Ġresponsible": 7420, "Ġcontaining": 7421, "ĠPrice": 7422, "||": 7423, "FS": 7424, "Ġemp": 7425, "Ġsuff": 7426, "pth": 7427, "Ġdefinitely": 7428, "pute": 7429, "Ġmarketing": 7430, "ĠWH": 7431, "ĠSie": 7432, "+=": 7433, "Ġconsult": 7434, "Ġsigned": 7435, "Ġsequence": 7436, "lee": 7437, "Ġrequirements": 7438, "hy": 7439, "Express": 7440, "MT": 7441, "sey": 7442, "Ġult": 7443, "elligence": 7444, "Ġanaly": 7445, "Ġdress": 7446, "engine": 7447, "ĠGreat": 7448, "ĠAndroid": 7449, "ĠAlex": 7450, "mode": 7451, ".Date": 7452, "VICE": 7453, "Ġfamilies": 7454, "ĠRussian": 7455, "ĠTimes": 7456, ".call": 7457, "$(": 7458, "Ġfolder": 7459, "ches": 7460, "_row": 7461, "unes": 7462, "ÙĦ": 7463, "agen": 7464, "ĠHand": 7465, "Iter": 7466, "Ġbiggest": 7467, "Ġpolic": 7468, "Ġpermissions": 7469, "Ġshowed": 7470, "ĠElement": 7471, "Ġtopic": 7472, "road": 7473, "ĠBank": 7474, "record": 7475, "Ġpartners": 7476, "ĠRef": 7477, "essions": 7478, "Ġassess": 7479, "UST": 7480, "produ": 7481, "LC": 7482, "Ġul": 7483, ".form": 7484, "hide": 7485, "copy": 7486, "UTF": 7487, "ĠLin": 7488, "una": 7489, "ugar": 7490, "Ġadministration": 7491, "Ġopening": 7492, "Ġscan": 7493, "Ġcontinued": 7494, "component": 7495, "Ġhappens": 7496, "ummy": 7497, "ĠPR": 7498, "Loading": 7499, "di": 7500, "Ġwaiting": 7501, "Tab": 7502, "Ġeconomy": 7503, "ĠFrench": 7504, "txt": 7505, "Ġfant": 7506, "SH": 7507, "Ġnumpy": 7508, "Ġstreet": 7509, "Ġmale": 7510, "anging": 7511, "ĠBill": 7512, "Ġpreviously": 7513, "BI": 7514, "Ġmist": 7515, "ĠField": 7516, "ups": 7517, "ĠProcess": 7518, "Ġkept": 7519, "ĠOT": 7520, "Ġtraditional": 7521, ".i": 7522, "amin": 7523, "Ġhelps": 7524, "Any": 7525, "origin": 7526, "ju": 7527, "desc": 7528, "ktop": 7529, "olly": 7530, "Ġfs": 7531, "Ġut": 7532, "Ġcentral": 7533, "(test": 7534, "Ġsatisf": 7535, "GR": 7536, "ĠFull": 7537, "Ġheat": 7538, "iber": 7539, "Ġonto": 7540, "mos": 7541, "Ġfactory": 7542, "aws": 7543, "Statement": 7544, ".be": 7545, "Ġguest": 7546, "Ġmal": 7547, "ARY": 7548, "Ġreached": 7549, "Ġmouse": 7550, "Ġchallenge": 7551, "ĠTem": 7552, "Ġextract": 7553, "Ġseparate": 7554, "Ġmir": 7555, "help": 7556, "Ġcapacity": 7557, "ĠProperty": 7558, "kan": 7559, "ĠLight": 7560, ".parent": 7561, "Ġunderstanding": 7562, "Ġeasier": 7563, "Ġenh": 7564, "Ġfat": 7565, "amm": 7566, "-of": 7567, "ils": 7568, "ĠOh": 7569, "Ġpsych": 7570, "Ġ$.": 7571, "inds": 7572, "Ġrelative": 7573, "shop": 7574, "short": 7575, "ĠSand": 7576, "uestion": 7577, "Ġfear": 7578, "Ġschools": 7579, "Ġserve": 7580, "zone": 7581, "Ġmajority": 7582, "example": 7583, "Ġlang": 7584, "endo": 7585, "Ġprocessing": 7586, "-user": 7587, "Ġeg": 7588, "COM": 7589, "ĠBlue": 7590, "iro": 7591, "Ġremote": 7592, "ĠIT": 7593, "#!/": 7594, "Ġredistrib": 7595, "raz": 7596, "ĠSince": 7597, "ĠTur": 7598, "Background": 7599, "===": 7600, "Ġreflect": 7601, "Ġpros": 7602, "cmd": 7603, "Ġwhom": 7604, "ĠAre": 7605, "ĠThom": 7606, "gu": 7607, "Ġmonitor": 7608, "rm": 7609, "Ġpatient": 7610, "verter": 7611, "Ġgain": 7612, "Inst": 7613, "Ġdies": 7614, "Area": 7615, "_filter": 7616, "Ġgrat": 7617, "Ġreality": 7618, "ordinate": 7619, "olved": 7620, "Contact": 7621, "Ġcompliance": 7622, "_or": 7623, "ĠVar": 7624, "dl": 7625, "Ġappend": 7626, "GER": 7627, "(max": 7628, "Ġdynamic": 7629, "ordinates": 7630, "_options": 7631, "_column": 7632, "Ġbatter": 7633, "space": 7634, "La": 7635, "ĠSource": 7636, "/bin": 7637, "Ġdos": 7638, "ĠBoard": 7639, "ĠAL": 7640, "ĠMer": 7641, "Ġmiles": 7642, "_header": 7643, "izz": 7644, "Ġbenefit": 7645, "Ġintegr": 7646, "(current": 7647, "ulo": 7648, ".default": 7649, "ĠDiv": 7650, "Ġton": 7651, "oth": 7652, "ervation": 7653, "edom": 7654, "Ġbaby": 7655, "ceived": 7656, ".top": 7657, "riority": 7658, "ĠLocal": 7659, "riage": 7660, "Ġattacks": 7661, "Ġhospital": 7662, "Ġfemale": 7663, "ĠFlor": 7664, "Ġchain": 7665, "ashion": 7666, "Save": 7667, "Ġfarm": 7668, "Ġknows": 7669, "Ġgenerally": 7670, "ipeline": 7671, "Ġmeant": 7672, "encia": 7673, "Ġnicht": 7674, "Ġcontents": 7675, "PM": 7676, "(line": 7677, "CG": 7678, "job": 7679, "ĠReal": 7680, "uer": 7681, "ĠØ": 7682, "etro": 7683, "Ġspeech": 7684, "Ġthr": 7685, "foreach": 7686, "Ġwarn": 7687, "Ġheavy": 7688, "Ne": 7689, "Ġinvestigation": 7690, "Math": 7691, "-title": 7692, "Ġdespite": 7693, "chain": 7694, "Ġwhatever": 7695, "arian": 7696, "fn": 7697, "Ġmeta": 7698, "Ġregarding": 7699, "mes": 7700, "Ġresolve": 7701, "poss": 7702, "ira": 7703, "force": 7704, "oice": 7705, "Ã¢": 7706, "Ġpm": 7707, "Ġupdates": 7708, "Arr": 7709, "testing": 7710, "Ġtoward": 7711, "ntax": 7712, "Ġlisten": 7713, "Ġgoals": 7714, "Dr": 7715, "Ġrare": 7716, "Ġtrail": 7717, "Keys": 7718, "Cal": 7719, "Car": 7720, "ĠPeople": 7721, "classes": 7722, "Reference": 7723, "emb": 7724, "activ": 7725, "Ġprim": 7726, "redict": 7727, "Ġrad": 7728, "Ġspread": 7729, "Ġclock": 7730, "Ġvir": 7731, "editor": 7732, "Ġefforts": 7733, "Ġbranch": 7734, "Ġindust": 7735, "Ġmotor": 7736, "Ġamb": 7737, "Ġdatetime": 7738, "ĠChristian": 7739, "ĠAmericans": 7740, "full": 7741, "Ġfmt": 7742, "Ġcaused": 7743, "ĠContent": 7744, "Ġbath": 7745, "ĠEach": 7746, "Ġradio": 7747, "achment": 7748, "uzz": 7749, "Ġrestrict": 7750, "abin": 7751, "ĠLoad": 7752, "Ġextension": 7753, "Ġessay": 7754, "Ġhat": 7755, "aviour": 7756, "Ġoffered": 7757, "Ġvill": 7758, "bc": 7759, "ĠMiss": 7760, "ĠBer": 7761, "ĠLike": 7762, "Ġhelped": 7763, "Ġspirit": 7764, "ws": 7765, "Ġtherefore": 7766, "Ġincor": 7767, "Ġminor": 7768, "ipes": 7769, "city": 7770, "trie": 7771, ".base": 7772, "_frame": 7773, "Ġopened": 7774, "LY": 7775, "nu": 7776, "tf": 7777, "margin": 7778, "Ġpi": 7779, "Ġeq": 7780, "bd": 7781, "Fields": 7782, "ĠTree": 7783, "Ġban": 7784, "ĊĠĠĠĠĠĠĠĠĊ": 7785, "Ġproduced": 7786, "system": 7787, "Mark": 7788, "Ġbg": 7789, "Ġconstit": 7790, "Ġmission": 7791, "_format": 7792, "clusion": 7793, "!\"": 7794, "break": 7795, "Ġther": 7796, "Transform": 7797, "Ġfootball": 7798, "-link": 7799, ".auth": 7800, "Ġbag": 7801, "overs": 7802, "Ġenabled": 7803, "Ġrac": 7804, "(I": 7805, "CR": 7806, "ancing": 7807, "Ġmanaged": 7808, "_q": 7809, "Ġmac": 7810, "ĠAuto": 7811, "Ġpin": 7812, "acking": 7813, "Ġoccas": 7814, "person": 7815, "Ġti": 7816, "Ġhaven": 7817, "Ġglass": 7818, "ĠSimple": 7819, "Print": 7820, "Ġsurround": 7821, "NO": 7822, "ĠMany": 7823, "Ġweekend": 7824, "Ġsomew": 7825, "small": 7826, "Ġplugin": 7827, "fields": 7828, "ĠInitialize": 7829, "oon": 7830, "atile": 7831, "ye": 7832, "Ġolder": 7833, "Ġgam": 7834, "Ġextremely": 7835, "Ġhet": 7836, "enum": 7837, "ĠSET": 7838, "Ġtimer": 7839, "/index": 7840, "Ġcritical": 7841, "Rows": 7842, "Ġexecute": 7843, "Ġshowing": 7844, ".xml": 7845, "-list": 7846, "Role": 7847, "that": 7848, "cher": 7849, "ĠâĨ": 7850, "XT": 7851, "Ġthousands": 7852, "Ġresp": 7853, "olut": 7854, "Ag": 7855, "ĠTwo": 7856, "Ġbecomes": 7857, "theme": 7858, "urb": 7859, "ARN": 7860, "Ġlose": 7861, "Lower": 7862, "Ġvel": 7863, "Ġdefense": 7864, "condition": 7865, "Ġbes": 7866, "Ġdry": 7867, "Ġscroll": 7868, "ĠRest": 7869, "Where": 7870, "Ġwire": 7871, "Ġstrings": 7872, "gment": 7873, "Ġmatches": 7874, "Ġelectric": 7875, "Ġexcellent": 7876, "idade": 7877, "push": 7878, "Ġtasks": 7879, "Ġrich": 7880, "sa": 7881, "ĠSmith": 7882, "UNCTION": 7883, "pective": 7884, "Ġwidget": 7885, "ista": 7886, "Ġagency": 7887, "Ġsich": 7888, "ologies": 7889, "Ġtrial": 7890, "alysis": 7891, ".check": 7892, "about": 7893, "Ġplaced": 7894, "Ġdan": 7895, ".equal": 7896, "Ġweather": 7897, "Ġdestination": 7898, "iece": 7899, "Ġprovider": 7900, "plex": 7901, "Note": 7902, "Ġplanning": 7903, "attribute": 7904, "PRO": 7905, "atches": 7906, "Ġ<-": 7907, "Ġseeing": 7908, "Ġcancel": 7909, "_ind": 7910, "Ġvisual": 7911, "ĠCurrent": 7912, "ĠCollege": 7913, "Ġagreement": 7914, "ĠStore": 7915, "oving": 7916, "Ġcorner": 7917, "ISE": 7918, "Fin": 7919, "Ġprotection": 7920, "Ġfi": 7921, "Play": 7922, ")}": 7923, ".frame": 7924, "-z": 7925, "Ġtransition": 7926, "igin": 7927, "Ġcandidate": 7928, "ĠUnion": 7929, "_values": 7930, "cle": 7931, "Ġtrend": 7932, "wide": 7933, "aren": 7934, "Loc": 7935, "UTH": 7936, "ĠBay": 7937, "Ġsmaller": 7938, "ius": 7939, "well": 7940, "Ġconflic": 7941, "bert": 7942, "Ġinvestment": 7943, "custom": 7944, "ĠSession": 7945, "ania": 7946, "ĠMass": 7947, "Argument": 7948, "Ġbelong": 7949, "_function": 7950, "ema": 7951, "ĠAddress": 7952, "Ġinner": 7953, "ĠContact": 7954, "ĠCA": 7955, "lot": 7956, "Ġpictures": 7957, "ĠSupport": 7958, "_names": 7959, "Layer": 7960, "ĠClick": 7961, "Sum": 7962, "Ã¦": 7963, "ĠLook": 7964, "uous": 7965, "Lib": 7966, "EP": 7967, "hat": 7968, "override": 7969, "apsed": 7970, "Ġlabels": 7971, "quis": 7972, "ĠStream": 7973, "ĠCommit": 7974, "\"}": 7975, "Ġangle": 7976, "ĠBecause": 7977, "%%%%%%%%": 7978, "Ġaim": 7979, "Ġstick": 7980, "agraph": 7981, "answer": 7982, "Ġclin": 7983, "ĠINT": 7984, "Ġstyles": 7985, "Ġborn": 7986, "Ġscr": 7987, "Ġexpand": 7988, "Ġraised": 7989, "------------------------------------------------": 7990, ">)": 7991, "_char": 7992, "resource": 7993, "Ġepisode": 7994, "ĠEs": 7995, "ĠEarth": 7996, "ÂłÂł": 7997, "UPDATE": 7998, "ĠSou": 7999, "uis": 8000, "types": 8001, "Ġmas": 8002, "Ġfav": 8003, "Ġconstruct": 8004, "_rate": 8005, "eras": 8006, "Ġexternal": 8007, "Ġapplied": 8008, "Ġprefix": 8009, "oted": 8010, "lers": 8011, "Ġcold": 8012, "ĠSP": 8013, "ĠChurch": 8014, "ĠOutput": 8015, "losed": 8016, "ificate": 8017, "operation": 8018, "herit": 8019, "osh": 8020, "Direction": 8021, "Cancel": 8022, "ĠFrank": 8023, "Ġfinding": 8024, "Ġrouter": 8025, "ses": 8026, "Ġcrow": 8027, "Ġsand": 8028, "Ġrid": 8029, "iture": 8030, "Ġentre": 8031, "Ġobserv": 8032, "Ġvac": 8033, "-T": 8034, "Art": 8035, "night": 8036, "Ġexchange": 8037, "Ġdistrict": 8038, "Ġdepartment": 8039, "Ġdocuments": 8040, "Ġcentury": 8041, "ĠNext": 8042, "Ġsusp": 8043, "-P": 8044, "rend": 8045, "isters": 8046, "ĠAnn": 8047, "wt": 8048, "ati": 8049, "ĠHTML": 8050, "when": 8051, "Ġshut": 8052, "<a": 8053, "edy": 8054, "Ġhealthy": 8055, "Ġtemperature": 8056, "ĠGen": 8057, "Ġmetal": 8058, "Ġsubmit": 8059, "ĠDO": 8060, "Ġattract": 8061, "ĠWord": 8062, "Ġll": 8063, "Ġseemed": 8064, "ko": 8065, "Ġlabor": 8066, "Ġasset": 8067, "you": 8068, "Ġcars": 8069, "ĠColumn": 8070, "Ġsquare": 8071, "âĢĿ,": 8072, "apes": 8073, "Ġthanks": 8074, "Ġtick": 8075, "Ġexperiment": 8076, "tree": 8077, "-text": 8078, "-width": 8079, "fast": 8080, "-body": 8081, "Ġguar": 8082, "crete": 8083, "ĠTim": 8084, "Ġclearly": 8085, "Ġjustify": 8086, "cache": 8087, "Ġpresence": 8088, "Ġfactors": 8089, "Ġemployee": 8090, "]))": 8091, "Member": 8092, "Ġselector": 8093, "bor": 8094, "ĠMex": 8095, "ailure": 8096, "ĠNet": 8097, "Ġreli": 8098, "EG": 8099, "loss": 8100, "Ġleaving": 8101, "Ġbeat": 8102, "Ġminute": 8103, "Ġredistribute": 8104, "Ġcancer": 8105, "/{": 8106, "BL": 8107, "Ġspan": 8108, "ĠChild": 8109, "Center": 8110, "Ġearth": 8111, "YS": 8112, "ĠLevel": 8113, "Ġsea": 8114, "illing": 8115, "ĠĠĠĠĊĠĠĠĠĊ": 8116, "ĠLabel": 8117, "ĠEst": 8118, "cos": 8119, "Failed": 8120, "swers": 8121, "Editor": 8122, "ront": 8123, "ĠMP": 8124, "expr": 8125, "ĠLife": 8126, "Ġ??": 8127, "Ġattend": 8128, "Ġspecies": 8129, "-D": 8130, "Ġaus": 8131, "Struct": 8132, "Ġadvantage": 8133, "oston": 8134, "-block": 8135, "initial": 8136, "Ġtruly": 8137, "Ġcompare": 8138, "Ġspect": 8139, "Full": 8140, "bes": 8141, "Ġvisible": 8142, "Ġmess": 8143, "stances": 8144, "Ġcloud": 8145, "Ġfurn": 8146, "icago": 8147, "LOW": 8148, "Ġtraffic": 8149, "Ġfol": 8150, "Ġdeclar": 8151, "Ġslot": 8152, "ĠExt": 8153, "ĠEngland": 8154, "ĠUnder": 8155, "Ġta": 8156, "letter": 8157, "ĠDonald": 8158, "Yes": 8159, "ĠUSE": 8160, "Ġopinion": 8161, "ĠAut": 8162, "border": 8163, "Ġadvice": 8164, "Ġautomatically": 8165, "isco": 8166, "Ġmm": 8167, "aml": 8168, "Ġinitialize": 8169, "Ġ({": 8170, "Ġgeneration": 8171, "Ġbits": 8172, "clipse": 8173, "Ġunf": 8174, "utors": 8175, "plt": 8176, "Ġdelta": 8177, "isis": 8178, "Ġlimitations": 8179, "Ġended": 8180, "ĠMad": 8181, "ilm": 8182, "These": 8183, "Ġchart": 8184, "Ġindependent": 8185, "Year": 8186, "Ġinstr": 8187, "Ġtags": 8188, "ĠArch": 8189, "stop": 8190, "Progress": 8191, "Ġmi": 8192, "Ġlearned": 8193, "Ge": 8194, "SM": 8195, "TYPE": 8196, "Ġcy": 8197, "unately": 8198, "limit": 8199, "sel": 8200, "Ġmovies": 8201, "Ġsteel": 8202, "oz": 8203, "gb": 8204, "site": 8205, ".right": 8206, "ĠCore": 8207, "Ġmixed": 8208, "step": 8209, "Ġputs": 8210, "super": 8211, "lyph": 8212, "ĠColors": 8213, "Ġinnov": 8214, "Ġdeck": 8215, "apers": 8216, "](": 8217, "continue": 8218, "spec": 8219, "ĠRoad": 8220, "ASH": 8221, "iliar": 8222, "Ġcontinues": 8223, "ĠVir": 8224, "Ġbin": 8225, "}\",": 8226, "going": 8227, "each": 8228, "BD": 8229, "ĠAccess": 8230, "Doc": 8231, "ĠManagement": 8232, "BER": 8233, "asket": 8234, "Ġestablished": 8235, "INS": 8236, "_height": 8237, "ĠFont": 8238, "Ġneighbor": 8239, "lor": 8240, "Ġgather": 8241, "Ġidentity": 8242, "Ġfab": 8243, "padding": 8244, "Ã´": 8245, "Ġforced": 8246, "resents": 8247, "_left": 8248, "ĠHam": 8249, "Ġeventually": 8250, "acer": 8251, "pub": 8252, "Ġtra": 8253, "unique": 8254, "del": 8255, "ĠFlorida": 8256, "xa": 8257, "ĠÂ·": 8258, "Ġvalidate": 8259, "Visual": 8260, "Expression": 8261, "_func": 8262, "member": 8263, "trl": 8264, "vin": 8265, "owl": 8266, "ifies": 8267, "ĠContext": 8268, "/n": 8269, "sn": 8270, "undefined": 8271, "Ġaccounts": 8272, "Section": 8273, "icians": 8274, "Ġadvis": 8275, "(is": 8276, "[:,": 8277, "ĠFrance": 8278, "Func": 8279, "icious": 8280, "Ġtok": 8281, "Channel": 8282, "ĠAD": 8283, "lemma": 8284, "reme": 8285, "uj": 8286, "uclear": 8287, "fetch": 8288, "Ġbal": 8289, "Ġguid": 8290, "-align": 8291, "ĠWrite": 8292, "ĠOnce": 8293, "Ġpitch": 8294, "CF": 8295, "ĠCommission": 8296, "Ġincred": 8297, "PER": 8298, "ĠLos": 8299, "parser": 8300, "Ġassume": 8301, "ĠToken": 8302, "Ġnom": 8303, "-term": 8304, "Ġremaining": 8305, "Ġpieces": 8306, "apy": 8307, "ĠLess": 8308, "range": 8309, "prise": 8310, "Ġbusinesses": 8311, "Ġparties": 8312, "ĠPrivate": 8313, "ĠPlan": 8314, "Ġregistered": 8315, "Ġjour": 8316, "acker": 8317, "/>": 8318, "chat": 8319, "sect": 8320, "Ġcreation": 8321, "olutely": 8322, "Ġinstant": 8323, "Ġdelivery": 8324, "icken": 8325, "yes": 8326, "ĠFranc": 8327, "bling": 8328, "enda": 8329, "[(": 8330, "_range": 8331, "ĠĠĠĠĠĠĠĠĠĠĠĠĠĠĠĠĠĠĠĠĠĠĠĠĠĠĠĠĠĠĠĠĠĠ": 8332, "Ġschedule": 8333, "Ġthank": 8334, "xd": 8335, "Ġhook": 8336, "Ġdocumentation": 8337, "Parameters": 8338, "Hello": 8339, "vt": 8340, "Ġarticles": 8341, "Ġwest": 8342, "defined": 8343, "okens": 8344, "reset": 8345, "ĠMA": 8346, "]),": 8347, "Ġcities": 8348, "related": 8349, "Ġappeared": 8350, "Ġwid": 8351, "ĠIns": 8352, "Ġdecre": 8353, "ĠLou": 8354, "(time": 8355, "ĠThank": 8356, "Ġmentioned": 8357, "ounce": 8358, "ĠTry": 8359, "ĠWall": 8360, "/images": 8361, "ĠEr": 8362, "Ġcritic": 8363, "ĠYear": 8364, "Ġflo": 8365, "NN": 8366, "ooter": 8367, "ĠAff": 8368, "rooms": 8369, "Ġhyp": 8370, "global": 8371, "Ġavec": 8372, "Ġcompletion": 8373, "Ġcond": 8374, "onymous": 8375, "(temp": 8376, "Ġstars": 8377, "Ġrelevant": 8378, "Ġcovered": 8379, "Ġelim": 8380, "Ġtu": 8381, "Ġsecure": 8382, "Ġstored": 8383, "]/": 8384, "Ġmigr": 8385, "MI": 8386, "ĠDen": 8387, "Ġannual": 8388, "-and": 8389, "Ġcrime": 8390, "bel": 8391, "Ġkitchen": 8392, "@g": 8393, "_ph": 8394, "ournament": 8395, "ĠSocial": 8396, "ĠSpecial": 8397, "Ġtail": 8398, "Ġunknown": 8399, "ded": 8400, "Ġapprec": 8401, "cf": 8402, "Ġassign": 8403, "-out": 8404, "ĠMont": 8405, "dp": 8406, "Ġstone": 8407, ".grid": 8408, "Results": 8409, "Ġdaughter": 8410, "Ġcurr": 8411, "Ġlin": 8412, "Ġsouth": 8413, "forms": 8414, "ĠOUT": 8415, "lette": 8416, "aks": 8417, "igure": 8418, "ĠEU": 8419, "variable": 8420, "Ġbrief": 8421, "ĠScott": 8422, "Ġconference": 8423, "anda": 8424, "oral": 8425, "Ġeine": 8426, "ORS": 8427, "Ġris": 8428, "Ġgender": 8429, "estic": 8430, "(out": 8431, "Ġms": 8432, "See": 8433, "Ġwilling": 8434, "aze": 8435, "Ġsports": 8436, "Ġyes": 8437, "lu": 8438, "Ġpurs": 8439, "-pro": 8440, "Ġdriving": 8441, "ĠÄ": 8442, "Ġpropos": 8443, "ultip": 8444, "uplic": 8445, "Ġapprox": 8446, "(cl": 8447, "Ġwear": 8448, "Ġreply": 8449, "Ġice": 8450, "Ġtx": 8451, "kr": 8452, "ĠGermany": 8453, "ĠGeorge": 8454, "Ġcb": 8455, "Move": 8456, "Ġpoly": 8457, "voice": 8458, "}\"": 8459, "Ġanimal": 8460, "Av": 8461, "ĠLocation": 8462, "Ġnative": 8463, ",int": 8464, "Ġprepar": 8465, "Ġinterval": 8466, "plementation": 8467, "Ġbug": 8468, ">\"": 8469, "stat": 8470, "Ġfaith": 8471, "Ġrom": 8472, "prev": 8473, "ĠElect": 8474, "Find": 8475, "otor": 8476, "original": 8477, "Ġpositions": 8478, "Ġweapons": 8479, "Ġcoff": 8480, "Ġpurposes": 8481, "pol": 8482, "Ġimpress": 8483, "Ġanimals": 8484, "(np": 8485, "Ġ``": 8486, "flag": 8487, "Ġsolutions": 8488, "ĠActive": 8489, "Ġbright": 8490, ".date": 8491, "Ġsitu": 8492, "Ġsie": 8493, "akt": 8494, "Space": 8495, ".dat": 8496, "han": 8497, "azine": 8498, "ĠZe": 8499, "Ġcrash": 8500, "(/": 8501, ">=": 8502, "Ð±": 8503, "iva": 8504, "ĠLat": 8505, "_ext": 8506, "Initialize": 8507, "Ġreverse": 8508, "Ġprompt": 8509, "onto": 8510, "ĠJournal": 8511, ")\"": 8512, "lets": 8513, "phan": 8514, "Will": 8515, "Ġafford": 8516, "Ġskill": 8517, "NC": 8518, "TS": 8519, "Just": 8520, "iteral": 8521, "YP": 8522, "Ġwind": 8523, "Ġwarning": 8524, "ĠWater": 8525, "Ġdraft": 8526, "Ġcm": 8527, "Ġsam": 8528, "Ġholding": 8529, "zip": 8530, "ĠScience": 8531, "Ġsupposed": 8532, "Gen": 8533, "Ġdiet": 8534, "ĠPass": 8535, "vi": 8536, "note": 8537, "ĠAbout": 8538, "ĠInstitute": 8539, "Ġclimate": 8540, "Ġnut": 8541, "ested": 8542, "Ġapparent": 8543, "Ġholds": 8544, "fi": 8545, "news": 8546, "CM": 8547, "video": 8548, "ping": 8549, "Ġsenior": 8550, "wa": 8551, "_default": 8552, "ĠDatabase": 8553, "rep": 8554, "ESS": 8555, "nergy": 8556, "Ġrise": 8557, "Ġkernel": 8558, ".Q": 8559, "Ġoffering": 8560, "decl": 8561, "ĠCS": 8562, "Ġlisted": 8563, "Ġmostly": 8564, "enger": 8565, "Ġblocks": 8566, "olo": 8567, "Ġgoverning": 8568, "\\F": 8569, "Ġconcent": 8570, "Ġmb": 8571, "Ġoccurred": 8572, "Ġchanging": 8573, "Beh": 8574, "\"The": 8575, "Ġtile": 8576, "ĠAssociation": 8577, "alty": 8578, "_ad": 8579, "odies": 8580, "iated": 8581, "Ġprepared": 8582, "possible": 8583, "Ġmort": 8584, "TEST": 8585, "Ġignore": 8586, "Ġcalc": 8587, "Ġrs": 8588, "ĠTHIS": 8589, "Ġcanvas": 8590, "java": 8591, "Ġdut": 8592, ".input": 8593, "Ġaux": 8594, "Sup": 8595, "Ġartist": 8596, "Vec": 8597, "etween": 8598, "ĠCategory": 8599, "Ġ[-": 8600, "ĠJul": 8601, "Ġring": 8602, ".ed": 8603, "YY": 8604, "Let": 8605, "TextField": 8606, "Ġflat": 8607, "_print": 8608, "ĠOTHER": 8609, "adian": 8610, "Ġchecked": 8611, "ele": 8612, "Align": 8613, "standing": 8614, "Ġ[],": 8615, "Ġlab": 8616, "ucky": 8617, "ĠChristmas": 8618, "(image": 8619, "Ġlots": 8620, "Ġslightly": 8621, "erge": 8622, "ĠRight": 8623, "Ġaward": 8624, "ĠOS": 8625, "oves": 8626, "icated": 8627, "Ġmanage": 8628, "oliday": 8629, "Amount": 8630, "Nav": 8631, "wrap": 8632, "BB": 8633, "Ġwatching": 8634, "arios": 8635, "Ġoptional": 8636, "_K": 8637, "ĠAP": 8638, "ĠRev": 8639, "(o": 8640, ",c": 8641, "umin": 8642, "etailed": 8643, "ĠHy": 8644, "Ġblank": 8645, "agger": 8646, "ĠSelf": 8647, "earn": 8648, "channel": 8649, "blem": 8650, "_sp": 8651, "icing": 8652, "ez": 8653, "Ġtheory": 8654, "ĠTer": 8655, ",n": 8656, "logo": 8657, "World": 8658, "Ġpython": 8659, "Ġlif": 8660, "Ġtrav": 8661, "Ġconven": 8662, "company": 8663, "Ver": 8664, "Ġzone": 8665, "products": 8666, "ĠEduc": 8667, "Ġverify": 8668, "ĠMil": 8669, "ono": 8670, "Ġpacket": 8671, "Ġcer": 8672, "Ġenumer": 8673, "Ġpars": 8674, "formed": 8675, "Ġoccup": 8676, "tre": 8677, "Ġexercise": 8678, "Day": 8679, "_sum": 8680, "Ġasking": 8681, "aption": 8682, "Ġorders": 8683, "Ġspending": 8684, "ĠERR": 8685, "ĠUtil": 8686, "\\'": 8687, "?)": 8688, "Ġemot": 8689, "Ġinfluence": 8690, "ĠAfrica": 8691, "atters": 8692, "Ùħ": 8693, "Ġtom": 8694, "cluded": 8695, "aped": 8696, "Ġpolicies": 8697, "-ex": 8698, "-tr": 8699, "blank": 8700, "merce": 8701, "Ġcoverage": 8702, "Ġrc": 8703, "_matrix": 8704, "_box": 8705, "Ġcharges": 8706, "ĠBoston": 8707, "Pe": 8708, "Ġcircum": 8709, "Ġfilled": 8710, "Ġnorth": 8711, "Ġtermin": 8712, "retch": 8713, ".code": 8714, "_col": 8715, "ĠGovernment": 8716, "ĠLord": 8717, "asi": 8718, "Ġdiscussion": 8719, "enance": 8720, "outube": 8721, "Ġserved": 8722, "ĠPut": 8723, "Ġsweet": 8724, "Before": 8725, "ategy": 8726, ".of": 8727, "ĠMaterial": 8728, "Sort": 8729, "ONT": 8730, "igital": 8731, "Why": 8732, "Ġsust": 8733, "abet": 8734, "Ġsegment": 8735, "cut": 8736, "ĠMary": 8737, "Ġlie": 8738, "month": 8739, "Ġprime": 8740, "ti": 8741, "Use": 8742, "ĠPop": 8743, "ĠSave": 8744, "Interval": 8745, "execute": 8746, "dy": 8747, "_cont": 8748, "Ġphase": 8749, "checkbox": 8750, "week": 8751, "Ġhide": 8752, "Ġtil": 8753, "Ġju": 8754, "Custom": 8755, "burg": 8756, "/M": 8757, "Ġquant": 8758, "Ġrub": 8759, "ixels": 8760, "Ġinstalled": 8761, "Ġdump": 8762, "Ġproperly": 8763, "Ġdecide": 8764, "apply": 8765, "Has": 8766, "Ġkeeping": 8767, "Ġcitizens": 8768, "Ġjoint": 8769, "pool": 8770, "_op": 8771, "Ġweapon": 8772, "gnore": 8773, "ĠExec": 8774, "otten": 8775, "ĠMS": 8776, "Ġ(-": 8777, "ĠReview": 8778, "Ġexamples": 8779, "Ġtight": 8780, "!(": 8781, "DP": 8782, "Ġphotograph": 8783, "low": 8784, "ĠGrand": 8785, "Ġmaintain": 8786, "Ġnums": 8787, "Ġzip": 8788, "ials": 8789, "peg": 8790, "~~~~": 8791, "rastructure": 8792, "ĠPL": 8793, "uen": 8794, "obby": 8795, "Ġpic": 8796, "Ġseed": 8797, "Ġexperienced": 8798, "Ġodd": 8799, "Ġkick": 8800, "Ġprocedure": 8801, "-on": 8802, ",j": 8803, "ĠAlthough": 8804, "accept": 8805, "Blue": 8806, "layer": 8807, "available": 8808, "Ġends": 8809, ".table": 8810, "Ġdataset": 8811, "bus": 8812, "Ġexplain": 8813, "(pro": 8814, "ĠCommittee": 8815, "Ġnoted": 8816, "Dim": 8817, "ĠWeek": 8818, "ĠEdge": 8819, "Ġoperating": 8820, "ipl": 8821, "agination": 8822, "Ġproceed": 8823, "Ġanimation": 8824, "ĠWatch": 8825, "iat": 8826, "Ġoppon": 8827, "/A": 8828, "Report": 8829, "Ġsounds": 8830, "Ġbund": 8831, ".pr": 8832, "(tmp": 8833, "Ġkid": 8834, "Ġyang": 8835, "math": 8836, "@gmail": 8837, "redients": 8838, "Ġvent": 8839, "avigate": 8840, "Look": 8841, "Ġreligious": 8842, "Ġrand": 8843, "_ip": 8844, "uan": 8845, "iciency": 8846, "ĠChange": 8847, "ĠEntity": 8848, "ĠRet": 8849, "plan": 8850, "Ã©n": 8851, "uries": 8852, "train": 8853, "Definition": 8854, "============": 8855, "zz": 8856, "ĠOK": 8857, ".bl": 8858, "_score": 8859, "Ġacad": 8860, "Ġrefresh": 8861, "amento": 8862, "pid": 8863, "tc": 8864, "Ġtips": 8865, "Ġhomes": 8866, "Ġfuel": 8867, "âĸ": 8868, "ĠRoom": 8869, "ĠEv": 8870, "arser": 8871, "_top": 8872, "eah": 8873, "ĠDelete": 8874, "uke": 8875, "Ġusage": 8876, "aria": 8877, "_dev": 8878, "Ġtexture": 8879, "Ġconversation": 8880, "eper": 8881, "done": 8882, "ĠSecond": 8883, "Ġshooting": 8884, "_pre": 8885, "stitution": 8886, "Ġpresented": 8887, "Ġwa": 8888, "oker": 8889, "iner": 8890, "Ġbecoming": 8891, "Ġincident": 8892, "Att": 8893, "Ġrevealed": 8894, "forc": 8895, "Ġboot": 8896, "Photo": 8897, "Ġspring": 8898, ".\",": 8899, "ĠDictionary": 8900, "Ġlocations": 8901, "Ġsamples": 8902, "ĠBrown": 8903, "Ġstats": 8904, "quality": 8905, "-dis": 8906, "Ġhelping": 8907, "Ġped": 8908, "(se": 8909, "ĠWho": 8910, "alian": 8911, "internal": 8912, "Ġft": 8913, "->{": 8914, "Ġmine": 8915, "Ġsector": 8916, "Ġgro": 8917, "Ġopportunities": 8918, "ĠÃ¼": 8919, "Ġmp": 8920, "Ġdoubt": 8921, "About": 8922, "Ġchair": 8923, "Ġstopped": 8924, "loop": 8925, "Ġapps": 8926, "ansion": 8927, "Ġmental": 8928, "ĠĠĠĠĠĠĠĠĠĠĠĠĠĠĠĠĠĠĠĠĠĠĠĠĠĠĠĠĠĠĠĠĠĠĠĠĠĠĠĠĠ": 8929, "FR": 8930, "Ġdefend": 8931, "care": 8932, "Ġideal": 8933, "urface": 8934, "Ġele": 8935, "ulator": 8936, "anguages": 8937, "Ġfunds": 8938, "Ġadapt": 8939, "Ġdeploy": 8940, "opts": 8941, "Ġvalidation": 8942, "Ġconcerns": 8943, "uce": 8944, ".num": 8945, "ila": 8946, "Ġcup": 8947, "Ġpure": 8948, "asm": 8949, "MO": 8950, "Ġcs": 8951, "Ġstores": 8952, "Ġcommunication": 8953, "mem": 8954, "_right": 8955, "Ġidentify": 8956, "enerated": 8957, "ordered": 8958, "Ġ\"[": 8959, "Ġswe": 8960, "Condition": 8961, "ĠAccording": 8962, "Ġprepare": 8963, "Ġrob": 8964, "Pool": 8965, "Ġsport": 8966, "rv": 8967, "Ġalternative": 8968, "ĠChicago": 8969, "ipher": 8970, "ische": 8971, "kl": 8972, "ĠWil": 8973, "keys": 8974, "Ġwelcome": 8975, "king": 8976, "ĠManager": 8977, "Ġcaught": 8978, "Score": 8979, "Ġsurvey": 8980, "hab": 8981, "Ġdecor": 8982, "Ġturns": 8983, "Ġradius": 8984, "errupt": 8985, "Cor": 8986, "Ġmel": 8987, "Ġintr": 8988, "(q": 8989, "ĠAC": 8990, "amos": 8991, "MAX": 8992, "ĠGrid": 8993, "ĠĠĠĠĠĠĠĠĠĠĠĠĠĠĠĠĠĠĠĠĠĠĠĠĠĠĠĠĠĠĠĠĠĠĠĠ": 8994, "Ġts": 8995, "Ġlinked": 8996, "free": 8997, "Ġfaster": 8998, "ctr": 8999, "_J": 9000, "DT": 9001, "Ġcombination": 9002, "Ġintended": 9003, "-the": 9004, "-type": 9005, "ectors": 9006, "ami": 9007, "uting": 9008, "Ġuma": 9009, "XML": 9010, "UCT": 9011, "Ap": 9012, "ĠRandom": 9013, "Ġran": 9014, ".sort": 9015, "Ġsorted": 9016, "itory": 9017, "Ġpriority": 9018, "ĠGal": 9019, "ĠOld": 9020, "hot": 9021, "ĠDisplay": 9022, "(sub": 9023, "_Y": 9024, "ĠCare": 9025, "loading": 9026, "Kind": 9027, ",,": 9028, "rase": 9029, "_replace": 9030, "ĠRT": 9031, "Ġentered": 9032, "gers": 9033, "Ġich": 9034, "(start": 9035, "/app": 9036, "Ġbrother": 9037, "Memory": 9038, "Ġutf": 9039, "prec": 9040, "Ġnavigation": 9041, "ORK": 9042, "Ġaudience": 9043, "Ġdur": 9044, "Ġcluster": 9045, "unched": 9046, "Ġ],": 9047, "Ġcomfortable": 9048, ".values": 9049, "ĠTotal": 9050, "Ġsnap": 9051, "Ġstandards": 9052, "Ġperformed": 9053, "hand": 9054, "Ġphil": 9055, "ibr": 9056, "trim": 9057, "Ġforget": 9058, "Ġdoctor": 9059, "icons": 9060, ",s": 9061, "ĠOp": 9062, "Sm": 9063, "Stop": 9064, "Comment": 9065, "Person": 9066, "rb": 9067, "ĠĠĠĠĠĠĠĠĠĠĠĠĠĠĠĠĠĠĠĠĊ": 9068, "ĠCentral": 9069, "Ġputting": 9070, "Ġmd": 9071, "ĠLove": 9072, "Program": 9073, "Border": 9074, "oor": 9075, "Ġallowing": 9076, "after": 9077, "Ġentries": 9078, "ĠMaybe": 9079, "]).": 9080, "ĠShort": 9081, ")\\": 9082, "Ġprefer": 9083, "osis": 9084, "Ġskip": 9085, "Ġcompetition": 9086, "_match": 9087, "lications": 9088, "Ġals": 9089, "_eq": 9090, "lan": 9091, "_search": 9092, "ĠMusic": 9093, "asis": 9094, "Ġbind": 9095, "ĠIsland": 9096, "rum": 9097, "(E": 9098, "Ġseat": 9099, "Video": 9100, "Ġack": 9101, "reek": 9102, "Ġrating": 9103, "Ġrestaurant": 9104, "pping": 9105, "uality": 9106, "Ġleague": 9107, "Ġfocused": 9108, "Ġabsolute": 9109, "Ġtells": 9110, "Ang": 9111, "Ġcommunities": 9112, "Ġhonest": 9113, "oking": 9114, "Ġapart": 9115, "arity": 9116, "/$": 9117, "ĠEnc": 9118, "Cre": 9119, "Ġshock": 9120, "ĠArab": 9121, "/re": 9122, "Ġretrie": 9123, "isa": 9124, "ĠOrgan": 9125, "Enum": 9126, "Ġpossibly": 9127, "ĠJapanese": 9128, "Ġcraft": 9129, "ĠPlace": 9130, "Ġfunding": 9131, "Ġconfirmed": 9132, "Ġcycle": 9133, "/x": 9134, "GE": 9135, "Ġhearing": 9136, "Ġplants": 9137, "Ġmouth": 9138, "pages": 9139, "ĠRemove": 9140, "_total": 9141, "Ġod": 9142, "ollapse": 9143, "door": 9144, "Ġbought": 9145, "ARCH": 9146, "_dim": 9147, "dden": 9148, "Ġdecades": 9149, "Ġversions": 9150, "fire": 9151, "Ġmoves": 9152, "fb": 9153, "Ġcoffee": 9154, "ĠRow": 9155, "Ġschema": 9156, "Ġfighting": 9157, "Ġretail": 9158, "Ġmodified": 9159, "TF": 9160, "Files": 9161, "_command": 9162, "stone": 9163, "Ġbond": 9164, "ĠDevelopment": 9165, "Ġpt": 9166, "FORM": 9167, "plet": 9168, "Ġidentified": 9169, "cpp": 9170, "Ġcoding": 9171, "oked": 9172, "ĠMaster": 9173, "Ġresidents": 9174, "redit": 9175, "ĠPhoto": 9176, "=-": 9177, "unte": 9178, "ateur": 9179, "ĠSing": 9180, "Ġsheet": 9181, ".val": 9182, "orse": 9183, "Ġhers": 9184, "Ġdetermined": 9185, "Common": 9186, "Ġwed": 9187, "PH": 9188, "ĠAtl": 9189, "cred": 9190, "Ġmes": 9191, "Ġadvanced": 9192, "Go": 9193, "kill": 9194, "fp": 9195, "Ġpal": 9196, "Ġtruck": 9197, "Ġcombined": 9198, "ĠCorpor": 9199, "Ġjoined": 9200, "ĠJose": 9201, "uns": 9202, "levision": 9203, "Ġbroken": 9204, "Ġmarriage": 9205, "ĠWestern": 9206, "Ġrepresents": 9207, "ĠTitle": 9208, "Ġss": 9209, "Ġabsolutely": 9210, "Ġsmooth": 9211, "ĠUnless": 9212, "Word": 9213, "Ġmerge": 9214, "igan": 9215, "ĠVol": 9216, "Ġnn": 9217, "Ġseeking": 9218, "Single": 9219, ".this": 9220, "bound": 9221, ";\"": 9222, "_df": 9223, "Ġinjury": 9224, "(H": 9225, "Ġissued": 9226, "Ġpatch": 9227, "Ġleaves": 9228, "Ġadopt": 9229, "FileName": 9230, "Ġnu": 9231, "cluding": 9232, "-R": 9233, "Ġsubstant": 9234, "ĠBUT": 9235, "Ġtechnical": 9236, "Ġtwice": 9237, "Ġunivers": 9238, "yr": 9239, "Ġdrag": 9240, "ĠDC": 9241, "Ġsed": 9242, "Ġbot": 9243, "ĠPal": 9244, "ĠHall": 9245, "forcement": 9246, "Ġauch": 9247, ".mod": 9248, "notation": 9249, "_files": 9250, ".line": 9251, "[name": 9252, "Ġresolution": 9253, "Ġbott": 9254, "ende": 9255, "(arr": 9256, "Free": 9257, ":-": 9258, "ĠJo": 9259, "ĠĠĠĠĠĊ": 9260, "ĠRiver": 9261, "_rows": 9262, "Ġhelpful": 9263, "Ġmassive": 9264, "Ġmeasures": 9265, "Ġworry": 9266, "ĠSpec": 9267, "Ġworse": 9268, "Ġlay": 9269, "Ġmagic": 9270, "ĠTheir": 9271, "oul": 9272, "ĠWhere": 9273, "Ġsudden": 9274, "Ġbinding": 9275, "Ġflight": 9276, "ĠWomen": 9277, "ĠPolicy": 9278, "Ġdrugs": 9279, "ishing": 9280, "ĠMel": 9281, "peat": 9282, "tor": 9283, "Ġproposed": 9284, "Ġstated": 9285, "Ġeast": 9286, "Ġwinning": 9287, "folio": 9288, "ĠPan": 9289, "ĠAnge": 9290, "Ġcopies": 9291, "LM": 9292, "Ġvm": 9293, "Ġdictionary": 9294, "Seg": 9295, "elines": 9296, "Ġiron": 9297, "ĠFort": 9298, "Ġdebate": 9299, "eq": 9300, "acher": 9301, "lf": 9302, "ÄŁ": 9303, "ĠMen": 9304, "Ġtrim": 9305, "Ġ!!": 9306, "Ġpad": 9307, "Ġfollows": 9308, "requ": 9309, "ĠEp": 9310, ".github": 9311, "eto": 9312, "_main": 9313, "pleted": 9314, "fortunately": 9315, "Ġwindows": 9316, "Ġplane": 9317, "ĠConnection": 9318, "}\\": 9319, "==\"": 9320, "andon": 9321, "ĠRoy": 9322, "west": 9323, "iginal": 9324, "itz": 9325, "ĠPeter": 9326, "Ġtough": 9327, "Ġreduced": 9328, "Ġcalculate": 9329, "Ġrapid": 9330, "customer": 9331, "Ġefficient": 9332, "Ġmedium": 9333, "Ġfell": 9334, "ĠCas": 9335, "Ġfeedback": 9336, "Speed": 9337, "(output": 9338, "Ġcategories": 9339, "Ġfee": 9340, "};": 9341, "Ġdeleted": 9342, "reh": 9343, "Ġproof": 9344, "Desc": 9345, "Build": 9346, "Ġsides": 9347, "-%": 9348, "ĠĠĠĠĠĠĠĠĠĠĠĠĠĠĠĠĠĠĠĠĠĠĠĠĠĠĠĠĠĠĠĠĠĠĠĠĠĠ": 9349, "Ø±": 9350, "Ġfeels": 9351, "Ġachieve": 9352, "Ġclim": 9353, "ĠCD": 9354, "Ġteacher": 9355, "_current": 9356, "bn": 9357, "isting": 9358, "Enable": 9359, "Ġplays": 9360, "Ġdiscount": 9361, "ĠKE": 9362, "Fore": 9363, "Ġappearance": 9364, "Mon": 9365, "ĠHuman": 9366, "iot": 9367, "ĠHistory": 9368, "Ġsac": 9369, "ĠCollection": 9370, "Ġrecommended": 9371, "Ġorganizations": 9372, "Ġdiscovered": 9373, "cohol": 9374, "adas": 9375, "ĠThomas": 9376, "May": 9377, "Ġconserv": 9378, "Ġdomin": 9379, "ĠFollow": 9380, "ĠSection": 9381, "ĠThanks": 9382, "Ġrecipe": 9383, "Ġwonderful": 9384, "_if": 9385, "Ġru": 9386, "Ġinputs": 9387, "Ġfif": 9388, "Ġvision": 9389, "cy": 9390, "ĠSeries": 9391, "Ġtrading": 9392, "Ġmarker": 9393, "Begin": 9394, "Ġtypically": 9395, "Ġcauses": 9396, "Ġdetect": 9397, "country": 9398, "appy": 9399, "Ġcref": 9400, "ĠLE": 9401, "reader": 9402, "Ġadministr": 9403, "Ãµ": 9404, "ucket": 9405, "Ġfashion": 9406, ".char": 9407, "izar": 9408, "Ġdisable": 9409, "Ġsuc": 9410, "ĠLive": 9411, "issue": 9412, "Ġmetadata": 9413, "flags": 9414, "Ġcommitted": 9415, "Ġva": 9416, "Ġrough": 9417, "Ġhighlight": 9418, "VO": 9419, "Ġencoding": 9420, "-Z": 9421, "_sign": 9422, "Ġrain": 9423, "reatest": 9424, "ĠEND": 9425, "Selection": 9426, "Ġcandidates": 9427, "Ġsav": 9428, "Ġdecisions": 9429, "Ġcollabor": 9430, "ridge": 9431, "feed": 9432, "ression": 9433, "Ġpersons": 9434, "VM": 9435, "ega": 9436, "According": 9437, "acked": 9438, "Ġdollars": 9439, "_loss": 9440, "ĠCost": 9441, "Ġauthority": 9442, "ĠToday": 9443, "istant": 9444, "ĠHead": 9445, "âĢĿ.": 9446, "cean": 9447, "culate": 9448, "Ġven": 9449, "However": 9450, "Ġtokens": 9451, "Graph": 9452, "unning": 9453, "agers": 9454, ".csv": 9455, "Ġdeveloping": 9456, "Ġinstructions": 9457, "Ġpromise": 9458, "Ġrequested": 9459, "/\"": 9460, "uilt": 9461, "-day": 9462, "Ġintelligence": 9463, "ĠHard": 9464, "Bool": 9465, "idential": 9466, "Ġselling": 9467, "CI": 9468, "AGES": 9469, "tle": 9470, "bur": 9471, "RY": 9472, "Ġbigger": 9473, "Ġrat": 9474, "Ġfamous": 9475, "Ġexplained": 9476, "Ġnuclear": 9477, "-N": 9478, "Ġcrisis": 9479, "ĠEnter": 9480, "Ġanswers": 9481, "/pl": 9482, "Ġsequ": 9483, "_next": 9484, "mask": 9485, "Ġstanding": 9486, "Ġplenty": 9487, "ĠCross": 9488, "dro": 9489, "=true": 9490, "ĠChris": 9491, "ĠMike": 9492, "Len": 9493, "URN": 9494, "Resources": 9495, "-H": 9496, "Bottom": 9497, "_qu": 9498, "puter": 9499, "esterday": 9500, "since": 9501, "Ġfamiliar": 9502, ",i": 9503, "VC": 9504, "Ġment": 9505, ",C": 9506, "Ġfreedom": 9507, "Ġroutes": 9508, "Ġcommands": 9509, "Ġmesh": 9510, "/C": 9511, "ĠSettings": 9512, "-style": 9513, "Ġwitness": 9514, "Ġcle": 9515, "Ġunion": 9516, "aret": 9517, "Ġthoughts": 9518, "Ġ----": 9519, "_process": 9520, "ingly": 9521, "_open": 9522, "Ġreward": 9523, "Changes": 9524, "Month": 9525, "Ġexecution": 9526, "Ġbeach": 9527, "/'": 9528, "Ġabort": 9529, "ĠSingle": 9530, "Ġdp": 9531, "ĠMa": 9532, "ĠPet": 9533, "%)": 9534, "rand": 9535, "Rule": 9536, "Ġhel": 9537, "Ġquiet": 9538, "Ġratio": 9539, "osoph": 9540, "ĠIL": 9541, "Ġadvent": 9542, "cap": 9543, "ĠUSB": 9544, "Driver": 9545, "Ġours": 9546, "ĠJohnson": 9547, ".K": 9548, ".q": 9549, "ĠPDF": 9550, "acts": 9551, "ĠQuery": 9552, "Ġprocesses": 9553, "imo": 9554, "Ġadds": 9555, "Ġentirely": 9556, "Ġwash": 9557, "Ġanimated": 9558, "Ġprofit": 9559, "encing": 9560, "/S": 9561, "ĠSym": 9562, "Ġmanual": 9563, "Download": 9564, "Ġmotion": 9565, "-bottom": 9566, "PG": 9567, "(:,": 9568, "Ġera": 9569, "Ġho": 9570, "ĠJim": 9571, "quir": 9572, "Ã¡n": 9573, "Ġexpensive": 9574, "_co": 9575, "Well": 9576, "ĠâĨĴ": 9577, "names": 9578, "ĠVi": 9579, "ĠPS": 9580, "Ġdangerous": 9581, "[p": 9582, "OME": 9583, "Other": 9584, "Points": 9585, "heading": 9586, "Ġcurrency": 9587, "Ġpercentage": 9588, "Ġclassic": 9589, "thead": 9590, "ĠMO": 9591, "FE": 9592, "Idx": 9593, "ĠÃ¨": 9594, "Ġaccident": 9595, "Ġvariant": 9596, "Ġmyst": 9597, "ĠLand": 9598, "ĠBre": 9599, "Ġharm": 9600, "ĠAcc": 9601, "Ġcharged": 9602, "arry": 9603, "ĠLanguage": 9604, "Ġwalking": 9605, "ifer": 9606, "ynam": 9607, "Ġtimestamp": 9608, "ipt": 9609, "ĠHas": 9610, "REFER": 9611, "ĠIts": 9612, "Ġexperiences": 9613, "Ġcreates": 9614, "RS": 9615, "cart": 9616, "black": 9617, "Ġchoices": 9618, "war": 9619, "Ġordered": 9620, "Ġevening": 9621, "Ġpil": 9622, "Ġtun": 9623, "ĠBad": 9624, "random": 9625, "Ġexplicit": 9626, "Ġarrived": 9627, "Ġfly": 9628, "Ġeconom": 9629, "-mail": 9630, "Ġlists": 9631, "Ġarchitect": 9632, "Ġds": 9633, "ĠSol": 9634, "Ġvehicles": 9635, "Hz": 9636, "-com": 9637, "Ġking": 9638, "ĠHelp": 9639, "Ġabuse": 9640, "Ġextr": 9641, "Ġchemical": 9642, "Ġorient": 9643, "Ġbreath": 9644, "ĠSpace": 9645, "DED": 9646, "igma": 9647, "Ġentr": 9648, "Ġsob": 9649, "-name": 9650, "Ġaffected": 9651, "ika": 9652, "Ġcoal": 9653, "Ġhundreds": 9654, "Ġpolitics": 9655, "subject": 9656, "Ġconsumer": 9657, "ANGE": 9658, "Ġrepeated": 9659, "Ġprotocol": 9660, "Ġleads": 9661, "useum": 9662, "Every": 9663, "Import": 9664, "(count": 9665, "Ġchallenges": 9666, "Ġnovel": 9667, "Ġdepart": 9668, "bits": 9669, "oting": 9670, "(\\": 9671, "Ġcreative": 9672, "Ġbuff": 9673, "Ġintroduced": 9674, "usic": 9675, "modules": 9676, "Are": 9677, "-doc": 9678, "language": 9679, "Ġtod": 9680, "omething": 9681, "Ġhun": 9682, "aters": 9683, "Ġimplemented": 9684, "ĠCase": 9685, "Renderer": 9686, "Wrapper": 9687, "Objects": 9688, "tl": 9689, "Ġforg": 9690, "Ġpermit": 9691, "Ġtargets": 9692, "ĠIF": 9693, "Ġtip": 9694, "sex": 9695, "Ġsupports": 9696, "Ġfold": 9697, "photo": 9698, "Ġgoogle": 9699, "Ġsharing": 9700, "Ġgoods": 9701, "vs": 9702, "ĠDan": 9703, "Rate": 9704, "ĠMartin": 9705, "Ġmanner": 9706, "lie": 9707, ".The": 9708, "Internal": 9709, "Ġcontrols": 9710, "Mat": 9711, "Ġmand": 9712, "Ġextended": 9713, "Ok": 9714, "Ġembed": 9715, "Ġplanet": 9716, "ĠNon": 9717, "-ch": 9718, ")\",": 9719, "epar": 9720, "Ġbelieved": 9721, "ĠEnvironment": 9722, "-res": 9723, "Ġhandling": 9724, "nic": 9725, "-level": 9726, "BE": 9727, "ungen": 9728, "Ġalter": 9729, "[idx": 9730, "Pop": 9731, "cam": 9732, "Ġbattery": 9733, "MC": 9734, "Ġimpl": 9735, "otation": 9736, "ĠLab": 9737, "ĠGames": 9738, "ray": 9739, "Extra": 9740, "Two": 9741, "ĠLes": 9742, "Â°": 9743, "Ġjourney": 9744, "eting": 9745, "âĶ": 9746, "Ġdin": 9747, "Ġperman": 9748, "Ġsolve": 9749, "Ġlaunched": 9750, "Ġnine": 9751, "Ġsending": 9752, "Ġtelling": 9753, "ĠMatrix": 9754, "eric": 9755, "Ġgrab": 9756, ".u": 9757, "ĠLibrary": 9758, "Ġdebt": 9759, "Ġfrequency": 9760, ".ad": 9761, "ĠAfrican": 9762, "Å¡": 9763, "Global": 9764, "Ġexperts": 9765, "Ġdepending": 9766, "gray": 9767, "Ġjudge": 9768, "Ġsentence": 9769, "losure": 9770, "Ac": 9771, "Ġtrace": 9772, "Edge": 9773, "Ġfriendly": 9774, "Ġconcerned": 9775, "blog": 9776, "Ġclaimed": 9777, "}'": 9778, "integer": 9779, "_tree": 9780, "xi": 9781, "Ġaccepted": 9782, "_one": 9783, "ĠEducation": 9784, "ublished": 9785, "gon": 9786, "outs": 9787, "Ġmining": 9788, "Ġsongs": 9789, "Ġgranted": 9790, "ĠLake": 9791, "Ġloan": 9792, "uent": 9793, "Ġdetailed": 9794, "except": 9795, "_cmd": 9796, "ĠHE": 9797, "Related": 9798, "zt": 9799, "Ġspecifically": 9800, "Static": 9801, "Ġcarried": 9802, "ANS": 9803, "Created": 9804, "Ġcul": 9805, "]-": 9806, "FP": 9807, "Ġsitting": 9808, "Ġ\"\")": 9809, "ĠEqu": 9810, "kins": 9811, "ancer": 9812, "ogen": 9813, "Ġvoters": 9814, "ĠProt": 9815, "bsites": 9816, "oster": 9817, "Ġarms": 9818, "avity": 9819, "Ġvul": 9820, "Ġhousing": 9821, "Ġbear": 9822, "_iter": 9823, "pired": 9824, "Ġmarkets": 9825, "ĠStudent": 9826, "Ġticket": 9827, "Ġmillions": 9828, ")=": 9829, "Ġrecover": 9830, "ĠForce": 9831, "ĠBoth": 9832, "Ġvictim": 9833, "ĠDisc": 9834, "report": 9835, "Ġfourth": 9836, "ĠAssembly": 9837, "/user": 9838, "Ġath": 9839, "Ġ([": 9840, "Ġchannels": 9841, "choice": 9842, "exec": 9843, "emale": 9844, "_le": 9845, "Ġresponsibility": 9846, "ĠTw": 9847, "Ġelseif": 9848, "Ġfo": 9849, "asts": 9850, "Ġtreated": 9851, "sen": 9852, "ĠVict": 9853, "sumer": 9854, "Ġast": 9855, "ĠResource": 9856, "ĠStandard": 9857, "updated": 9858, "ivalent": 9859, "Ġassets": 9860, "_temp": 9861, "Ġinterests": 9862, "Ġhardware": 9863, "ĠShare": 9864, "Ġ*,": 9865, "ĠTake": 9866, "ĠImages": 9867, "ĠJun": 9868, "Ġliqu": 9869, "Ġworst": 9870, "ymbols": 9871, "Ġdrivers": 9872, "ĠDocument": 9873, "eno": 9874, "ĠTechnology": 9875, "Ġapproved": 9876, "umps": 9877, "Ġsnow": 9878, "formance": 9879, "uits": 9880, "ÙĨ": 9881, "Ġdifferences": 9882, "ĠPs": 9883, "Ġtodo": 9884, "Ġsel": 9885, "urers": 9886, "invalid": 9887, "Ġtweet": 9888, "Ġresearchers": 9889, "ĠRO": 9890, "Ġillegal": 9891, "dialog": 9892, "lg": 9893, "final": 9894, "Ġpp": 9895, "Ġci": 9896, "Ġsuggested": 9897, "pdf": 9898, "aching": 9899, "ĠRo": 9900, "ĠProperties": 9901, "ĠSi": 9902, "Ġbuying": 9903, "Ġmu": 9904, "Ġlands": 9905, "ifiers": 9906, "ĠFILE": 9907, "ROUP": 9908, "Ġholder": 9909, "ĠSon": 9910, "Ġsympt": 9911, ")?": 9912, "Ġfort": 9913, "Ġforum": 9914, "prefix": 9915, "apture": 9916, "Tube": 9917, "ems": 9918, "imize": 9919, "aus": 9920, "course": 9921, "INGS": 9922, "Ġacknow": 9923, "pling": 9924, "Ġworker": 9925, "hal": 9926, "ĠRichard": 9927, "Elements": 9928, "star": 9929, "Ġrelationships": 9930, "Ġcheap": 9931, "ACH": 9932, "ĠXML": 9933, ",&": 9934, "ĠLouis": 9935, "Ġride": 9936, "Ġchunk": 9937, "[s": 9938, "Ġchosen": 9939, "_[": 9940, "/(": 9941, "ĠJeff": 9942, "ĠCanadian": 9943, "Ġunable": 9944, "Ġnos": 9945, "high": 9946, "Ġlift": 9947, "fun": 9948, "(){": 9949, "elly": 9950, "_as": 9951, "Ġradi": 9952, "ĠAngeles": 9953, "ĠSpan": 9954, "itors": 9955, "Ġmigration": 9956, "AK": 9957, "Oh": 9958, "ĠGT": 9959, "Ġadvance": 9960, "ĠStyle": 9961, "ection": 9962, "rog": 9963, "Ġshopping": 9964, "ĠRect": 9965, "OU": 9966, "Ġsubstantial": 9967, "Ġpregn": 9968, "Ġpromote": 9969, "Ġsigns": 9970, "/.": 9971, "Ġletters": 9972, "ctrl": 9973, "\"\\": 9974, "ĠJones": 9975, "Ġvertex": 9976, "Ġaffili": 9977, "Ġwealth": 9978, "Ġsignificantly": 9979, "Ġec": 9980, "Ġxs": 9981, "actual": 9982, ".per": 9983, "_step": 9984, "mac": 9985, "Ġtransl": 9986, "ĠĠĠĠĠĠĠĠĠĠĠĠĠĠĠĠĠĠĠĠĠĠĠĠĠĠĠĠĠĠĠĠĠĠĠĠĠĠĠĠĠĠĠĠĠĠĠĠĠĠĠĠĠĠĠĠĠĠĠ": 9987, "agnostic": 9988, "ĠDuring": 9989, "Ġtill": 9990, "Ġsignature": 9991, "Ġbird": 9992, "ĠOl": 9993, "ĠIr": 9994, "HS": 9995, "Ġelev": 9996, "Ġmt": 9997, "ĠNav": 9998, "Ġrelax": 9999, "Ġplate": 10000, "Ġgrade": 10001, "iences": 10002, "High": 10003, "ĠDIS": 10004, "Ġnoise": 10005, "aux": 10006, "ĠUP": 10007, "osa": 10008, "Ġvoc": 10009, "Ġ))": 10010, "ocom": 10011, ",d": 10012, "ĠDraw": 10013, "Ġ\"(": 10014, "Ġvisited": 10015, "ĠâĪ": 10016, "Ġsucceed": 10017, "Ġimpossible": 10018, "aire": 10019, "ĠTurn": 10020, "Ġdish": 10021, "FG": 10022, "Ġsensor": 10023, "ANN": 10024, "aba": 10025, "Ġsurg": 10026, "Ġfp": 10027, "_an": 10028, "-J": 10029, "-G": 10030, "ĠJob": 10031, "Convert": 10032, "Ġauthors": 10033, "\\r": 10034, "Ġ-*-": 10035, "flex": 10036, "Ġsoc": 10037, "Ret": 10038, "Ġsalt": 10039, "ĠClear": 10040, "Ġrooms": 10041, "conv": 10042, "#{": 10043, "ĠArea": 10044, "hen": 10045, "Ġbegins": 10046, "-y": 10047, "Ġexcited": 10048, "Ġignored": 10049, "Ġbonus": 10050, "student": 10051, "Ġrelatively": 10052, "ĠLow": 10053, "ĠProdu": 10054, "posure": 10055, "Ġthick": 10056, "aniel": 10057, "Extension": 10058, "Il": 10059, "eed": 10060, "LOC": 10061, "Ġconflict": 10062, "uv": 10063, "iser": 10064, "Ġwave": 10065, "Mar": 10066, "ĠCommunity": 10067, "iche": 10068, "ĠNothing": 10069, "[m": 10070, "ĠLee": 10071, "Ã¨re": 10072, "!!!": 10073, "anz": 10074, "ĠSK": 10075, "Ġdemocr": 10076, "razy": 10077, "aser": 10078, "vertex": 10079, "Warning": 10080, "argo": 10081, "Ġactor": 10082, "ĠInstead": 10083, "ĠUsing": 10084, "Self": 10085, "Ġspeaking": 10086, "ĠParis": 10087, "ĠFood": 10088, "EIF": 10089, "ĠBi": 10090, "ĠIB": 10091, "Ġuniversity": 10092, "ĠHeader": 10093, "Copy": 10094, "etc": 10095, "rical": 10096, "Ġ>>>": 10097, "books": 10098, "Ġalgorithm": 10099, "Ġnumerous": 10100, "Share": 10101, "Have": 10102, "Ġprove": 10103, "health": 10104, "Ġdecimal": 10105, "Ġcommission": 10106, "xC": 10107, "Ġsummary": 10108, "atted": 10109, "Ġcloser": 10110, "ĠWood": 10111, "ku": 10112, "_items": 10113, "Flag": 10114, "Ġconfidence": 10115, "ĠFederal": 10116, "Ġcompat": 10117, "Ġvertical": 10118, "IDE": 10119, ":\",": 10120, "ĠWay": 10121, "Temp": 10122, "ĠSTR": 10123, "ritten": 10124, "Sync": 10125, "ĠAV": 10126, "ĠGuid": 10127, "Ġenvironmental": 10128, "Ġcorresponding": 10129, "ĠJS": 10130, "Ġlived": 10131, "gar": 10132, "ĠGraph": 10133, "ĠStat": 10134, ".al": 10135, "ĠHD": 10136, "Ġoccur": 10137, "Ġthreshold": 10138, "REG": 10139, "Meta": 10140, "Å¾": 10141, "Ġcum": 10142, "Ã«": 10143, "Ġobtained": 10144, "Ġcomplaint": 10145, "Ġeating": 10146, "Ġtar": 10147, "(to": 10148, "Pass": 10149, "Ġplastic": 10150, "tility": 10151, "ĠWin": 10152, "pile": 10153, "ĠGar": 10154, "Ġquantity": 10155, "_last": 10156, "Ġgreatest": 10157, "ĠUsed": 10158, "ĠHP": 10159, "riting": 10160, "blue": 10161, "domain": 10162, "Ġscores": 10163, "Normal": 10164, "Then": 10165, "***": 10166, "dist": 10167, "lon": 10168, "Ġhate": 10169, "database": 10170, "Ġpand": 10171, "Ġlogic": 10172, "=false": 10173, "bg": 10174, "ĠConfiguration": 10175, "Ġnur": 10176, "OG": 10177, "Ġmarried": 10178, "Ġdropped": 10179, "Ġregistration": 10180, "ultiple": 10181, "izers": 10182, "shape": 10183, "Ġwearing": 10184, "Ġdedicated": 10185, "Ġadvoc": 10186, "ĠFamily": 10187, "Ġstatements": 10188, "ematic": 10189, "Ġmotiv": 10190, "ĠHave": 10191, "Ġblow": 10192, "Job": 10193, "cert": 10194, "_vector": 10195, "install": 10196, "embed": 10197, "DIR": 10198, "ĠSpring": 10199, "Ġexhib": 10200, "ĠComment": 10201, "ĠOptional": 10202, "ĠDark": 10203, "ĠShould": 10204, "Ġcentre": 10205, "Ġtrouble": 10206, "Ġns": 10207, "uling": 10208, "ĠMexico": 10209, "ĠNY": 10210, "Mr": 10211, "-fl": 10212, "ĠCustomer": 10213, "idi": 10214, "rible": 10215, "Ġsizes": 10216, "validation": 10217, "ĠJon": 10218, "Nodes": 10219, "Ġfragment": 10220, "Ġspoke": 10221, "Ġwaste": 10222, "Join": 10223, "Ġillustr": 10224, "eli": 10225, "cient": 10226, "Ġaid": 10227, "Ġpassing": 10228, "Ġfaces": 10229, "Shape": 10230, "_Z": 10231, "iti": 10232, "Ġalle": 10233, "Ġrobot": 10234, "ĠĠĠĠĠĠĠĊ": 10235, "ĠSpe": 10236, "Ġreceiving": 10237, "ĠDetails": 10238, "Ġ\")": 10239, "mg": 10240, "Ġcomparison": 10241, "*,": 10242, "ĠFound": 10243, "(U": 10244, "/F": 10245, "Ġxxx": 10246, "Network": 10247, "ders": 10248, "Ġcapture": 10249, "Ġcorre": 10250, "ĠLtd": 10251, "ĠAdv": 10252, "[@": 10253, "Ġclip": 10254, "ĠProfile": 10255, "riterion": 10256, "LD": 10257, "ered": 10258, "Ġfavour": 10259, "score": 10260, "ĠFilter": 10261, "Ġchecks": 10262, "ĠPlus": 10263, "Ġscientific": 10264, "Ġprivacy": 10265, "Head": 10266, "Ġfeat": 10267, "Ġdegrees": 10268, "Ġfilms": 10269, "ĠAudio": 10270, "ĠTag": 10271, "ĠEnergy": 10272, "itar": 10273, "parator": 10274, "Ġfellow": 10275, "ĠTri": 10276, "cloud": 10277, "ĠAcad": 10278, "Ġreb": 10279, "ĠBur": 10280, "Ġhex": 10281, "ĠWilliam": 10282, "Ġaz": 10283, "Ġpractices": 10284, "Ġanywhere": 10285, "ĠPosition": 10286, "iams": 10287, "placeholder": 10288, "Ġoder": 10289, "mond": 10290, "events": 10291, "?âĢĿ": 10292, "Ġattached": 10293, ".action": 10294, "Ġfigures": 10295, "nam": 10296, ".plot": 10297, "noon": 10298, "Character": 10299, "Ġwinter": 10300, "ĠVariable": 10301, "Ġtrees": 10302, "(V": 10303, "Ġhier": 10304, "ĠEcon": 10305, "Ġfd": 10306, "Rest": 10307, "iana": 10308, "Ġfake": 10309, "Ġsad": 10310, "Ġble": 10311, "Prot": 10312, "Ġbuttons": 10313, "Ġtelevision": 10314, "Ġlogo": 10315, "extension": 10316, "stein": 10317, "aciones": 10318, "Ġsimp": 10319, "Ġrecorded": 10320, "Ġbrings": 10321, "Ġprincipal": 10322, "(source": 10323, "kdir": 10324, "Ġcorrectly": 10325, "fil": 10326, "Ġwel": 10327, "Pair": 10328, "scale": 10329, "[c": 10330, "Ġ---": 10331, "Ġescape": 10332, "ikes": 10333, "ician": 10334, "Ġchapter": 10335, "Ġshadow": 10336, "Ġawesome": 10337, "WE": 10338, "Ġlambda": 10339, "Ġdistinct": 10340, "Ġbare": 10341, "-off": 10342, "Ġcolour": 10343, "olec": 10344, "aga": 10345, "Ġadj": 10346, "Short": 10347, "Ġtotally": 10348, "VD": 10349, "ĠTre": 10350, "vements": 10351, "ĠSolution": 10352, "Ġfundament": 10353, "Follow": 10354, "Ġfacility": 10355, "Ġhappening": 10356, "OF": 10357, "Span": 10358, "ĠÂ«": 10359, "iden": 10360, "Ġexceed": 10361, "Ġcp": 10362, "Ġhasn": 10363, "Ġpri": 10364, "Ġconsequ": 10365, "Ignore": 10366, "ĠFuture": 10367, "Ġcarbon": 10368, "fmt": 10369, "Ġspl": 10370, "(title": 10371, "Ġdeals": 10372, "ea": 10373, "Div": 10374, "Ġtested": 10375, "_return": 10376, "upported": 10377, "ĠCook": 10378, "Ġpaying": 10379, "ĠIll": 10380, "ĠPrime": 10381, "_callback": 10382, "driver": 10383, "Once": 10384, "abb": 10385, "ĠSets": 10386, "Ġcc": 10387, "Ġshell": 10388, "alo": 10389, "(log": 10390, "ctors": 10391, "Ġneighborhood": 10392, "ailability": 10393, "vol": 10394, "Ġtechniques": 10395, "uh": 10396, "Ġrepository": 10397, "imm": 10398, "JS": 10399, ":{": 10400, "Complete": 10401, "Since": 10402, "enable": 10403, "ĠDoes": 10404, "ĠWalk": 10405, "what": 10406, "kes": 10407, "Ġmultip": 10408, "iments": 10409, "eur": 10410, "ĠMos": 10411, "rovers": 10412, "Ġcompute": 10413, "Ġproviders": 10414, "ĠMedic": 10415, "LP": 10416, "umeric": 10417, "Ġreplaced": 10418, "-free": 10419, "Ġmatching": 10420, "ĠEditor": 10421, "ĠSaf": 10422, "Ġsind": 10423, ".edu": 10424, "aya": 10425, "Ġdogs": 10426, "Ġdesire": 10427, "ĠMiddle": 10428, "Cart": 10429, "Theme": 10430, "Ġmob": 10431, "Ġdisplayed": 10432, "igit": 10433, "Ġadults": 10434, "\"\"\"": 10435, "Ġdelivered": 10436, "visible": 10437, "<<<": 10438, "ĠGO": 10439, "Ġassigned": 10440, "Ġcombat": 10441, "ĠHaw": 10442, ".-": 10443, "Ġsupporting": 10444, "ircraft": 10445, "Ġspin": 10446, "ĠCR": 10447, "à¥": 10448, "Ġspaces": 10449, "?,": 10450, "Ġpatterns": 10451, "-box": 10452, "Ġframework": 10453, "/%": 10454, "Ġteaching": 10455, "ARNING": 10456, "_keys": 10457, "Ġtables": 10458, "inations": 10459, "-weight": 10460, "radio": 10461, "ĠPac": 10462, "ring": 10463, "Ġquote": 10464, "anna": 10465, "Ġwerden": 10466, "Ġcream": 10467, "Ġmachines": 10468, "-k": 10469, "Ġstim": 10470, "ĠStock": 10471, "rick": 10472, "Ġimportance": 10473, "rx": 10474, "Ãµes": 10475, "ÙĪ": 10476, "Ġstroke": 10477, "Ġtaste": 10478, "Thanks": 10479, "ĠRequired": 10480, "ova": 10481, "Media": 10482, "Ġinterrupt": 10483, "python": 10484, "pair": 10485, "Ġcircle": 10486, "Ġiniti": 10487, "_stream": 10488, "Ġcompreh": 10489, "learn": 10490, "Public": 10491, "Ġhumans": 10492, "Ġbringing": 10493, "ographic": 10494, "_layer": 10495, "-like": 10496, "Ġvotes": 10497, "Ġdesired": 10498, "Mask": 10499, "Ġrelation": 10500, "Help": 10501, "Ġinspir": 10502, "ĠMono": 10503, "ometimes": 10504, "Ġrotation": 10505, "/test": 10506, "Star": 10507, "phy": 10508, "Ġincreases": 10509, "TEXT": 10510, "ĠÃ¤": 10511, "ĠVan": 10512, "Ġlights": 10513, "ĠGuide": 10514, "Ġdates": 10515, "aman": 10516, "Ġpaths": 10517, "dx": 10518, "Ġreaction": 10519, "Environment": 10520, "interest": 10521, "Ġreaders": 10522, "Ġdomestic": 10523, "Ġfiled": 10524, "City": 10525, "Ġmapping": 10526, "ĠDES": 10527, "Ġrepair": 10528, "tics": 10529, "ixture": 10530, "zo": 10531, "ĠDer": 10532, "Ġgest": 10533, "Ġhist": 10534, "ĠInvest": 10535, "ĠRoman": 10536, "Ġcultural": 10537, "feature": 10538, "pts": 10539, "bt": 10540, "Ġdot": 10541, "Ġdiam": 10542, "uspend": 10543, "Ġsurprise": 10544, "abil": 10545, "Ġvirt": 10546, "Ġbomb": 10547, "aron": 10548, "Ġvast": 10549, "Real": 10550, "epend": 10551, "icted": 10552, "Ġpicked": 10553, "ĠFL": 10554, ".zeros": 10555, "sup": 10556, "Microsoft": 10557, "agic": 10558, "iveness": 10559, "Ġpdf": 10560, "Ġroles": 10561, "ras": 10562, "Ġindustrial": 10563, "Ġfacilities": 10564, "Ġni": 10565, "Ġba": 10566, "Ġcls": 10567, "Customer": 10568, "Ġimagine": 10569, "Ġmad": 10570, "(de": 10571, "Ġfro": 10572, "Ġcommittee": 10573, ",x": 10574, "Ġdivision": 10575, "optional": 10576, "ĠPhys": 10577, "ingu": 10578, "Ġsync": 10579, "ĠNa": 10580, "OLUM": 10581, "itÃ©": 10582, "Ġidentifier": 10583, "owed": 10584, "Ġextent": 10585, "Ġhur": 10586, "VA": 10587, "clar": 10588, "Ġedges": 10589, "Ġindeed": 10590, "inherit": 10591, "Ġreporting": 10592, "Ġencounter": 10593, "Ġkinds": 10594, "_pred": 10595, "Ġconsidering": 10596, ".(": 10597, "Ġprotein": 10598, "Typ": 10599, "gricult": 10600, "ĠBall": 10601, "ĠEss": 10602, "ĠRub": 10603, "ĠĠĠĠĠĠĠĠĠĠĠĠĠĠĠĠĠĠĠĠĠĠĠĠĠĠĠĠĠĠĠĠĠĠĠĠĠĠĠĠ": 10604, "itud": 10605, "Ġspell": 10606, "ĠJoe": 10607, "itan": 10608, "Ġmatters": 10609, "Ġemergency": 10610, "uated": 10611, "ĠChat": 10612, "arker": 10613, "iper": 10614, "Ġscheme": 10615, "Ġmarked": 10616, "Ġbodies": 10617, "Ġcorporate": 10618, "Ġdimension": 10619, "Ġcontrast": 10620, "erview": 10621, "ĠERROR": 10622, "Ġcapable": 10623, "Ġadvertising": 10624, "ĠPA": 10625, "ĠFrancisco": 10626, "Ġfacing": 10627, "git": 10628, "Ġbeer": 10629, "Ġsky": 10630, "download": 10631, "ĠCur": 10632, "mc": 10633, "Ġcriteria": 10634, "Ġaspect": 10635, "Ġbundle": 10636, "Could": 10637, "Ġtank": 10638, "-id": 10639, "Ġhurt": 10640, "Ġbroadcast": 10641, "Cap": 10642, "Ġalcohol": 10643, "ĠColl": 10644, "Ġplanned": 10645, "pler": 10646, "ĠSite": 10647, "Ġresc": 10648, "oment": 10649, "ĠJavaScript": 10650, "Ġrhs": 10651, "eres": 10652, "ifi": 10653, "Ġparking": 10654, "Ġisland": 10655, "Ġsister": 10656, "Constraints": 10657, "dim": 10658, "_points": 10659, "Ġgap": 10660, "_active": 10661, "ĠPO": 10662, "-scale": 10663, "lambda": 10664, "rule": 10665, "ĠMedical": 10666, "entries": 10667, "Ġsolar": 10668, "Ġresulting": 10669, "Ġestimated": 10670, "Ġimproved": 10671, "Duration": 10672, "$.": 10673, "Like": 10674, ",(": 10675, "%s": 10676, "Ġpixel": 10677, "Ġadapter": 10678, "Ġrevenue": 10679, "ogram": 10680, "ĠLA": 10681, "ĠMachine": 10682, "Ġfle": 10683, "Ġbike": 10684, "Ġdisp": 10685, "Ġconsistent": 10686, "aÃ§Ã£o": 10687, "gender": 10688, "ĠThose": 10689, "perience": 10690, "Ġrush": 10691, "Ġneck": 10692, "_first": 10693, "CB": 10694, "Ġseq": 10695, "har": 10696, "Ġhits": 10697, "ĠâĤ¬": 10698, "Ġcontained": 10699, "rient": 10700, "water": 10701, "ĠArm": 10702, "Ġ./": 10703, "Â»": 10704, "Ġassistance": 10705, "[],": 10706, "Ġveget": 10707, "escape": 10708, "icer": 10709, "boost": 10710, "ĠFloat": 10711, "-W": 10712, "*>": 10713, "Ġboys": 10714, "Ġagents": 10715, "Ġhint": 10716, "vision": 10717, "Ġtech": 10718, "ĠConnect": 10719, "Ġlegend": 10720, "ĠBet": 10721, "Subject": 10722, "Ġlit": 10723, "Remove": 10724, "ĠFinal": 10725, "pearance": 10726, "Ġparticipants": 10727, "ĠPython": 10728, "Ġbusy": 10729, "iel": 10730, "vertices": 10731, "ĠClose": 10732, "Img": 10733, "ĠCorporation": 10734, "Ġextend": 10735, "Ġwebsites": 10736, "Ġpossibility": 10737, "Ġmeat": 10738, "Ġrepresentation": 10739, "ĠSuccess": 10740, "Hi": 10741, "Ġnob": 10742, "Ġturning": 10743, "Ġfabric": 10744, "Ġperspective": 10745, "ĠSn": 10746, "Thank": 10747, ";j": 10748, "Ġfacts": 10749, "Ġunt": 10750, "-end": 10751, "ĠHen": 10752, "ĠÐ½Ð°": 10753, "ĠInfo": 10754, "Ġconducted": 10755, "ĠÃ¥": 10756, "Ġwine": 10757, "John": 10758, "ĠAge": 10759, "ounded": 10760, "Ġrealize": 10761, "Ġ];": 10762, "Ġsubsequ": 10763, ",m": 10764, "iano": 10765, "Ġaccompl": 10766, "isp": 10767, ".std": 10768, "BR": 10769, "keep": 10770, "ĠALL": 10771, "Ġisol": 10772, "amma": 10773, "Package": 10774, "Ġoccasion": 10775, "strip": 10776, "istribution": 10777, "Colors": 10778, "aler": 10779, "Ġtid": 10780, "ĠLED": 10781, "ĠCart": 10782, "Ġkilling": 10783, "ĠPHP": 10784, "fection": 10785, "Ġinstances": 10786, "cv": 10787, "\"/>": 10788, "Ġsf": 10789, "ĠBitcoin": 10790, "uable": 10791, "rank": 10792, "ignore": 10793, "track": 10794, "Ġshouldn": 10795, "ĠOP": 10796, "Ġkm": 10797, "Ġhelper": 10798, "_head": 10799, "ĠWhether": 10800, "oco": 10801, "_bl": 10802, "Ġstatistics": 10803, "Ġbeauty": 10804, "Ġtog": 10805, "tip": 10806, "Ġcsv": 10807, "weak": 10808, "Ġlikes": 10809, "Äį": 10810, "Ġrepeat": 10811, "Ġemph": 10812, "Ġvit": 10813, "Even": 10814, "Ġcircumstances": 10815, "bian": 10816, "Ġsugar": 10817, "Windows": 10818, "Ġobserved": 10819, "/data": 10820, "Ġcalendar": 10821, "Ġstrike": 10822, "ĠRES": 10823, "_sc": 10824, "orem": 10825, "(z": 10826, "power": 10827, "etect": 10828, "ĠSat": 10829, "Ġgang": 10830, "ĠBundle": 10831, ".sum": 10832, "once": 10833, "Ġexplore": 10834, "Ġapproximately": 10835, "Ġlosing": 10836, "thesis": 10837, "ĠFund": 10838, "Ġdiagn": 10839, "properties": 10840, "cedure": 10841, "Ġyy": 10842, "Ġgrant": 10843, "Ġglob": 10844, "uffle": 10845, "Ġdecade": 10846, "ĠImport": 10847, "Ġoriginally": 10848, "Ġindicate": 10849, "Ġourselves": 10850, "Sw": 10851, "enerate": 10852, "Ġbasically": 10853, "ĠHom": 10854, "ĠKar": 10855, "Ġmodal": 10856, "isi": 10857, "Ġsuggests": 10858, "Ġdtype": 10859, "Ġtur": 10860, "bf": 10861, "Ġconnections": 10862, "ĠBefore": 10863, "isted": 10864, "Ġpulled": 10865, "Ġforth": 10866, "pad": 10867, "Ġexciting": 10868, "Ġcompr": 10869, "Ġshares": 10870, "Ġrig": 10871, "green": 10872, "_vec": 10873, "Ġenumerate": 10874, "Auto": 10875, "ĠRay": 10876, "asse": 10877, "Ġholiday": 10878, "gun": 10879, "Ġwrapper": 10880, "seq": 10881, "ĠYoung": 10882, "serve": 10883, "^(": 10884, "iders": 10885, "'S": 10886, "pin": 10887, "Ġreasonable": 10888, "ĠSociety": 10889, "Ġbei": 10890, "erves": 10891, "rad": 10892, "ĠFox": 10893, "Ġwheel": 10894, "Ġvary": 10895, "Ġproxy": 10896, "ĠAnother": 10897, "ĠPen": 10898, "Ġchecking": 10899, "Origin": 10900, "ugs": 10901, "oir": 10902, "Ġexpressed": 10903, "Ġmoder": 10904, "Ġagencies": 10905, "iously": 10906, "ĠRod": 10907, "Ġsole": 10908, "Med": 10909, "Ġpc": 10910, "bal": 10911, "Example": 10912, "Ġstrip": 10913, "ĠComp": 10914, "Most": 10915, "putation": 10916, "ĠFour": 10917, "ĠGeorg": 10918, "weights": 10919, "/l": 10920, "Ġaggress": 10921, "Ġdrawing": 10922, "andy": 10923, "-j": 10924, "aka": 10925, "href": 10926, "Ġteachers": 10927, "_Q": 10928, "(it": 10929, "ĠMB": 10930, "Ġtemporary": 10931, "stra": 10932, "oup": 10933, "Ġtopics": 10934, "Ġportion": 10935, "idos": 10936, "Ġrecovery": 10937, "Ġstands": 10938, "#[": 10939, "Ġafternoon": 10940, "ĠArticle": 10941, "Ġexplan": 10942, "Ġik": 10943, "+(": 10944, "lag": 10945, "Ġdisk": 10946, "Ġcontrovers": 10947, "asp": 10948, "ĠAustralian": 10949, "ĠYouTube": 10950, "contains": 10951, "duce": 10952, "ĠMatt": 10953, "atern": 10954, "Ġvolunte": 10955, "Ġnewsp": 10956, "VP": 10957, "oltip": 10958, "Ġaccurate": 10959, "ĠExample": 10960, "%,": 10961, "ĠDaily": 10962, "ĠSW": 10963, "Ġlimits": 10964, "kip": 10965, "Ġending": 10966, "Ġboss": 10967, "ĠDialog": 10968, "Also": 10969, "ordan": 10970, "rowse": 10971, "-min": 10972, "Ġ\"&": 10973, "UX": 10974, "Ġdevelopers": 10975, "Ġaccuracy": 10976, "Ġmaintenance": 10977, "Ġheav": 10978, "Ġfilters": 10979, "Ġnarr": 10980, "ĠEmp": 10981, "ĠMobile": 10982, ".output": 10983, ".col": 10984, "Material": 10985, "uma": 10986, "Ġconsumers": 10987, "shift": 10988, "Ġmini": 10989, "collection": 10990, ".center": 10991, "History": 10992, "Ġbench": 10993, "());": 10994, "itories": 10995, "Ġcrowd": 10996, "Ġpowers": 10997, "-E": 10998, "Ġdismiss": 10999, "Ġtalks": 11000, "ĠChannel": 11001, "forward": 11002, "iest": 11003, "Ġbeta": 11004, "(color": 11005, "Ġeffectively": 11006, "sd": 11007, "ĠEffect": 11008, "ibilities": 11009, "Ġreturning": 11010, "ĠFar": 11011, "Ġmodules": 11012, "ilation": 11013, "Ġ(%": 11014, "Ġstorm": 11015, "onna": 11016, "ĠEXP": 11017, "Ġdispl": 11018, "ĠĠĠĠĠĠĠĠĠĠĠĠĠĠĠĠĠĠĠĠĠĠĠĠĠĠĠĠĠĠĠĠĠĠĠĠĠĠĠĠĠĠĠĠĠ": 11019, "fall": 11020, "etrics": 11021, "Ġhandles": 11022, "TL": 11023, "brand": 11024, "ĠTool": 11025, "Ġusual": 11026, ".Z": 11027, "crement": 11028, "adium": 11029, "stock": 11030, "Ġserving": 11031, "ĠBon": 11032, "Ġlinear": 11033, "ĠTarget": 11034, "ĠRadio": 11035, "HL": 11036, "omatic": 11037, "agues": 11038, "inity": 11039, "diff": 11040, "quot": 11041, "Ġsymptoms": 11042, "ĠFeb": 11043, "tras": 11044, "}>": 11045, "ĠKim": 11046, "Ġga": 11047, "Ġartists": 11048, "ĠAbstract": 11049, "Ġham": 11050, "oval": 11051, "Ġcha": 11052, "aten": 11053, "Fixed": 11054, "Ġvulner": 11055, "ĠParameters": 11056, "quantity": 11057, "Ġsoul": 11058, "Ġpairs": 11059, "ĠGre": 11060, "_word": 11061, "ĠCC": 11062, "Ġgi": 11063, "Ġscheduled": 11064, "rotation": 11065, "ulous": 11066, "ĠEll": 11067, "lp": 11068, "aha": 11069, "Copyright": 11070, "Ġdram": 11071, "Ġdiagram": 11072, "ĠMem": 11073, "Ġgarden": 11074, "Comp": 11075, "Ġattempts": 11076, "uffix": 11077, "Ġphilosoph": 11078, "Ġsv": 11079, "anto": 11080, "ĠTele": 11081, "Ġaspects": 11082, "Ġrail": 11083, "Ġwidely": 11084, "ashed": 11085, "iar": 11086, "inf": 11087, "upper": 11088, "_results": 11089, "issing": 11090, "Ġequivalent": 11091, "Ġty": 11092, "Ġpotentially": 11093, "ĠRecord": 11094, "resentation": 11095, "ounding": 11096, "Ġreligion": 11097, "Ġconsc": 11098, "ĠLim": 11099, ".am": 11100, "PATH": 11101, "_spec": 11102, "orted": 11103, "_shape": 11104, "Ġkeeps": 11105, "ĠLoc": 11106, "ori": 11107, "ĠTEST": 11108, "Ġregions": 11109, "Ġbelieves": 11110, "/en": 11111, "posite": 11112, "{'": 11113, "_const": 11114, "sample": 11115, "ĠWilliams": 11116, "ĠAndrew": 11117, "Ġlayers": 11118, "azy": 11119, "ĠKn": 11120, "Ġacid": 11121, "ĠAsia": 11122, "Ġexcess": 11123, "Ġkeyboard": 11124, "ensus": 11125, "Ġcrew": 11126, "Ġmissed": 11127, "master": 11128, "ĠWild": 11129, "Ġnewly": 11130, "Ġwinner": 11131, "icode": 11132, "Domain": 11133, "ĠSar": 11134, "Ġforest": 11135, "LED": 11136, "claimer": 11137, "ĠWindow": 11138, "Ġresistance": 11139, "Ġpipe": 11140, "Ġcoast": 11141, "DEF": 11142, "exit": 11143, "Ġultimately": 11144, "imitive": 11145, "ĠKeep": 11146, "Ġhistorical": 11147, "Ġanyway": 11148, "ĠJackson": 11149, "ERN": 11150, "yntax": 11151, "ERY": 11152, "isms": 11153, "Ġcn": 11154, "Ġoccurs": 11155, "Ġ;;": 11156, "AE": 11157, "/img": 11158, "Ġyesterday": 11159, "-default": 11160, "Ġtiny": 11161, "Ġproc": 11162, "Ġalive": 11163, ".th": 11164, "earing": 11165, "Folder": 11166, "abc": 11167, "Ġnoticed": 11168, "Ġedition": 11169, "imator": 11170, "Ġyards": 11171, "Ġverbose": 11172, "ĠMid": 11173, "Ã©es": 11174, "Ġglo": 11175, "Ġbuildings": 11176, "Ġze": 11177, "ĠIter": 11178, "Ġtube": 11179, "ĠPot": 11180, "\\M": 11181, "bridge": 11182, "ĠScript": 11183, "ĠModule": 11184, "Ġvacc": 11185, "Ġinstallation": 11186, "vy": 11187, "ĠSM": 11188, "bat": 11189, "Ġfinds": 11190, "Ġatmos": 11191, "izard": 11192, "Ġreplacement": 11193, "licated": 11194, "Ġlogged": 11195, "ĠLeft": 11196, "_Type": 11197, "tm": 11198, "Pad": 11199, "Ġhousehold": 11200, "Ġrele": 11201, "Ġproposal": 11202, "::::": 11203, "Ġinfrastructure": 11204, "/html": 11205, "Ġads": 11206, "izza": 11207, "Ġmg": 11208, "-image": 11209, "<m": 11210, "oose": 11211, "Ġyellow": 11212, ".exp": 11213, "away": 11214, "Ġopposition": 11215, "ĠAgain": 11216, "Ġexclusive": 11217, "Ã©r": 11218, "ĠCODE": 11219, "emporary": 11220, "Ġreact": 11221, "pipe": 11222, "cz": 11223, "Ġlargely": 11224, "Ġdiss": 11225, "axy": 11226, "esis": 11227, "ĠRen": 11228, "Ġcorn": 11229, "days": 11230, "Ġfruit": 11231, "Insert": 11232, "Est": 11233, "_dec": 11234, "ĠLuc": 11235, "ĠÃ¼ber": 11236, "parameters": 11237, "express": 11238, "Unknown": 11239, "Ġrevolution": 11240, "Ġuniform": 11241, "ĠPack": 11242, "lar": 11243, "Ġdepends": 11244, "Validation": 11245, "het": 11246, "ĠIde": 11247, "Language": 11248, "uet": 11249, "ĠPo": 11250, "ĠSteve": 11251, "Ġcontest": 11252, "Ġapparently": 11253, "Ġfrequently": 11254, "Ġtradition": 11255, "ocolate": 11256, "SI": 11257, "ĠArgument": 11258, "erte": 11259, "ĠLayout": 11260, "Ġdx": 11261, "Ġgenerator": 11262, "lights": 11263, "Py": 11264, "eda": 11265, "raid": 11266, "Ġancient": 11267, "Ġpump": 11268, "Ġdw": 11269, "Ġspecify": 11270, "Ġremark": 11271, "antee": 11272, "ernet": 11273, "inent": 11274, "dm": 11275, "ĠMemory": 11276, "rich": 11277, "ĠTools": 11278, "Ġkne": 11279, "Ġperm": 11280, "bad": 11281, "Feature": 11282, "Ġreferred": 11283, "Ġneither": 11284, "Ġcounty": 11285, "Ġ\"{": 11286, "Ġtack": 11287, "Ġrenew": 11288, "``": 11289, "Ġbrown": 11290, "Errors": 11291, "erto": 11292, "Ġsustain": 11293, "SO": 11294, "letes": 11295, "ĠInvalid": 11296, "Ġexistence": 11297, "erra": 11298, "ĊĠĠĊ": 11299, "utorial": 11300, "pay": 11301, "charge": 11302, "ĠIre": 11303, "atest": 11304, "Ġexplos": 11305, "Ġfired": 11306, "NER": 11307, "ĠTy": 11308, "icion": 11309, "Ġobviously": 11310, "ĠDevice": 11311, "-related": 11312, "Ġvor": 11313, "Ġupgrade": 11314, "Light": 11315, "Ġcodes": 11316, "Ġwrites": 11317, "food": 11318, "@section": 11319, "Ġtracks": 11320, "Ġseriously": 11321, "cht": 11322, "Ġimmediate": 11323, "Ġscientists": 11324, "Ġ{$": 11325, "_ne": 11326, "Ġaccommod": 11327, "ĠHarry": 11328, "Ġsight": 11329, "ersistent": 11330, "-input": 11331, "Ġcoordinates": 11332, "Â·": 11333, "Welcome": 11334, ".conf": 11335, "Ġgrew": 11336, "Ġbold": 11337, "ĠCPU": 11338, "(my": 11339, "Ġperfectly": 11340, "Ġmoments": 11341, "-data": 11342, "ystal": 11343, "Ġdisap": 11344, "Ġreduction": 11345, "Ġgeneric": 11346, "Ġdy": 11347, "aller": 11348, "Ġcurl": 11349, "ĠBody": 11350, "Ġbanks": 11351, ",t": 11352, "avg": 11353, "Ġevil": 11354, "Ġmanufacturer": 11355, "Ġreceiver": 11356, "Columns": 11357, "Ġingredients": 11358, "ques": 11359, "Ġslowly": 11360, "ĠCell": 11361, "_normal": 11362, "_prefix": 11363, "ĠMD": 11364, "Ġcourses": 11365, "athan": 11366, "occ": 11367, "esign": 11368, "=['": 11369, "]}": 11370, ".font": 11371, "oda": 11372, "Ġhall": 11373, "Ġsaving": 11374, "Random": 11375, "Ġopposite": 11376, "YES": 11377, "Clear": 11378, "âĢĺ": 11379, "ĠFord": 11380, "onic": 11381, "\"])": 11382, "Ġsufficient": 11383, "LES": 11384, "Ġphen": 11385, "Ġoh": 11386, "_csv": 11387, "Ġroutine": 11388, "aylor": 11389, "Ġbasket": 11390, "rypted": 11391, "Sim": 11392, "atos": 11393, "(W": 11394, "Ġshr": 11395, "Ġsick": 11396, "Another": 11397, "Ġdoors": 11398, "razil": 11399, "Ġmaps": 11400, "translate": 11401, "Ġnearby": 11402, "Ġnach": 11403, "batch": 11404, "ashes": 11405, "angers": 11406, "Ġacts": 11407, "inv": 11408, "Ġretain": 11409, "utch": 11410, "Ġknowing": 11411, "Ġrepresenting": 11412, "NOT": 11413, "png": 11414, "Ġtrick": 11415, "ĠEdition": 11416, "uplicate": 11417, "Ġcontrolled": 11418, "cfg": 11419, "Ġmilk": 11420, "White": 11421, "Sequence": 11422, "awa": 11423, "Ġdiscussed": 11424, "ĠYES": 11425, "tags": 11426, "Ġtact": 11427, "Ġsid": 11428, "$$": 11429, "ĠEnum": 11430, "Ġframes": 11431, "});": 11432, "Ġregul": 11433, "Region": 11434, "fff": 11435, "Ġcro": 11436, "(com": 11437, "Student": 11438, "Counter": 11439, "Ġbutter": 11440, "ĠHa": 11441, "ĠDigital": 11442, "Ġbid": 11443, "ingers": 11444, "ĠCountry": 11445, "/k": 11446, "dating": 11447, ":#": 11448, "ĠDATA": 11449, "ynchron": 11450, "_body": 11451, "ipient": 11452, "oft": 11453, "UBL": 11454, "docs": 11455, "Ġsynchron": 11456, "Ġformed": 11457, "ruption": 11458, "Ġknock": 11459, "ocs": 11460, "\"{": 11461, "Ġtransactions": 11462, "Ġhabit": 11463, "Ġaircraft": 11464, "irk": 11465, "ĠAB": 11466, "Ġfairly": 11467, "Ġinstrument": 11468, "(min": 11469, "Ġot": 11470, "Ġcolle": 11471, "=s": 11472, "Ġids": 11473, "ĠMatch": 11474, "zero": 11475, "Ġnetworks": 11476, ".gov": 11477, "Ġintel": 11478, "Ġsections": 11479, "outine": 11480, "ĠBlog": 11481, "Ġbridge": 11482, "ĠCV": 11483, "convert": 11484, "ĠBern": 11485, "eval": 11486, "(set": 11487, "tool": 11488, "Ġpayments": 11489, "Ġconcrete": 11490, "Ġelig": 11491, "Ġacceler": 11492, "Ġhole": 11493, "_o": 11494, "Ġgraphics": 11495, "onder": 11496, "Ġpackages": 11497, "/a": 11498, "ĠKnow": 11499, "Ġduty": 11500, "[t": 11501, "Ġongoing": 11502, "Ġtan": 11503, "Ġinterpret": 11504, "asters": 11505, "Ġlegs": 11506, "-file": 11507, "Ġprohib": 11508, ":=": 11509, "Ġblo": 11510, "otic": 11511, "_exp": 11512, "ĠStop": 11513, "aping": 11514, "_push": 11515, "Ġease": 11516, "strcmp": 11517, "oli": 11518, "Ġextreme": 11519, "Ġprofessor": 11520, "Images": 11521, "Ġaddresses": 11522, "plemented": 11523, "Ġincorpor": 11524, "ĠDa": 11525, "IRST": 11526, "Ġdiscrim": 11527, "Ġcompens": 11528, "gregate": 11529, "aches": 11530, "ĠCriteria": 11531, "Ġsecondary": 11532, "ĠSem": 11533, "ĠMcC": 11534, "Ġacademic": 11535, "Upper": 11536, "utral": 11537, "aded": 11538, "Ġderived": 11539, "ĠKen": 11540, "Ġtypical": 11541, "ĠBob": 11542, "Ġbounds": 11543, "ĠSeason": 11544, "Ġcrazy": 11545, "ĠĠĠĠĠĠĠĠĠĠĠĠĠĠĠĠĠĠĠĠĠĠĠĠĠĠĠĠĠĠĠĠĠĠĠĠĠĠĠĠĠĠ": 11546, "ĠMir": 11547, "Ġemotional": 11548, ",v": 11549, "cn": 11550, "/st": 11551, "onom": 11552, "Ġdeclared": 11553, ">.": 11554, "ailing": 11555, "Ġnormally": 11556, "evin": 11557, "likely": 11558, "Ġpointed": 11559, "ĠStack": 11560, "Ġwalls": 11561, "mean": 11562, "Ġlistening": 11563, "adv": 11564, "Ġswap": 11565, "IFT": 11566, "Øª": 11567, "uls": 11568, "notations": 11569, "Ġemails": 11570, "ĠThus": 11571, "ĠStone": 11572, "Ġappeal": 11573, ".âĢĻ": 11574, "Ġregulations": 11575, "ĠPhone": 11576, "ulf": 11577, "ĠDR": 11578, "Ġtechnologies": 11579, "Ġparagraph": 11580, "Ġnecessarily": 11581, "Ġunderst": 11582, "Ġfinger": 11583, "pressed": 11584, "-by": 11585, "iffer": 11586, "watch": 11587, "ĠBa": 11588, "Ġweights": 11589, "ĠRon": 11590, "periment": 11591, "xic": 11592, "ĠCamera": 11593, "Prefix": 11594, "Ġinstitutions": 11595, ":int": 11596, "Ġexposure": 11597, "pattern": 11598, "ĠLinux": 11599, ".number": 11600, "redient": 11601, "\"},": 11602, "Ġelectronic": 11603, "rong": 11604, "erd": 11605, "rait": 11606, "Ġcontinuing": 11607, "ĠTemplate": 11608, "ĠEth": 11609, "sz": 11610, "Env": 11611, "%.": 11612, "arters": 11613, "ĠTABLE": 11614, "ĠÃ®": 11615, "perature": 11616, "progress": 11617, "Pres": 11618, "implementation": 11619, "###": 11620, ":/": 11621, "Ġcutting": 11622, "xB": 11623, "ressed": 11624, "lab": 11625, "Ġcausing": 11626, "bra": 11627, "illy": 11628, "pletion": 11629, "will": 11630, "_bar": 11631, "Ġstructures": 11632, "ĠImp": 11633, "ÛĮ": 11634, "Ġ<>": 11635, "Ġ----------------": 11636, "Ġplain": 11637, "Ġpeer": 11638, "gg": 11639, "oints": 11640, "Ġsomewhat": 11641, "Ġwet": 11642, "Ġemployment": 11643, "Ġtickets": 11644, "irms": 11645, "Ġtuple": 11646, "sis": 11647, "rig": 11648, "Ġconversion": 11649, "Ġconfigure": 11650, "egr": 11651, "ĠCa": 11652, "Black": 11653, "Ġmagazine": 11654, "AW": 11655, "osing": 11656, "Ġbroke": 11657, "Ġdestroyed": 11658, "Ġapproval": 11659, "ĠIII": 11660, "Ġdesigns": 11661, "omp": 11662, "Ġcrypt": 11663, "?(": 11664, "orough": 11665, ".o": 11666, "erring": 11667, "Google": 11668, "Ġgear": 11669, "Fill": 11670, "life": 11671, "Ġsuitable": 11672, "Ġsurprised": 11673, "Ġmanifest": 11674, "atten": 11675, "Ġfrustr": 11676, "Ġii": 11677, "Ġexpansion": 11678, "igs": 11679, "Rob": 11680, "_layout": 11681, "Ġtranslation": 11682, "Best": 11683, "Ġliquid": 11684, "ITS": 11685, "Ġprod": 11686, "Ġoperate": 11687, "Ġnatur": 11688, "argument": 11689, "ĠCentre": 11690, "Ġ\"--": 11691, "locale": 11692, "_seq": 11693, "Ġupcoming": 11694, "Chart": 11695, "ĠDivision": 11696, "Ġclinical": 11697, "Company": 11698, "Separ": 11699, "las": 11700, ":s": 11701, "Ġheading": 11702, "[id": 11703, "Ġstretch": 11704, "Ġreprodu": 11705, "legend": 11706, "enders": 11707, "Ġresponses": 11708, "Ġont": 11709, "ritical": 11710, "ĠLi": 11711, "ĠThree": 11712, "jax": 11713, "Ġâĸ": 11714, "Ġcovers": 11715, "-.": 11716, "Ġfails": 11717, "includes": 11718, "Ġfault": 11719, "Ġly": 11720, "ĠPur": 11721, "ĠAsian": 11722, "_batch": 11723, "vl": 11724, "Ġgiant": 11725, "ĠManual": 11726, "ĠCopy": 11727, "Health": 11728, "Ġtwe": 11729, "_labels": 11730, "Ġcollected": 11731, "Ġdealing": 11732, "cks": 11733, "Ġchose": 11734, "âĶĢ": 11735, "odd": 11736, "SR": 11737, "ÙĬ": 11738, "Ġaccord": 11739, "ĠMove": 11740, "ĠMode": 11741, "Ġthreads": 11742, "++++": 11743, "ĠOptions": 11744, "ĠDid": 11745, "ucc": 11746, ".abs": 11747, "ĠWal": 11748, "erior": 11749, "Ġmainly": 11750, "ĠDriver": 11751, "Ġcounts": 11752, "eam": 11753, "Ġ&=": 11754, "Question": 11755, "ĠAli": 11756, "Ġanymore": 11757, "tail": 11758, "Ġmile": 11759, "ĠFair": 11760, "Ġsorry": 11761, "Ġsurrounding": 11762, "Ġadm": 11763, "Dev": 11764, "ĠSound": 11765, "ĠAsh": 11766, "FD": 11767, "Team": 11768, "ubble": 11769, "Ġasc": 11770, "Ġintention": 11771, "Acc": 11772, "chi": 11773, "usters": 11774, "Ġinspired": 11775, "seg": 11776, "Ġmanip": 11777, "Connect": 11778, "ĠBeh": 11779, "Ġfindings": 11780, "Ġassembly": 11781, "world": 11782, "Ġremained": 11783, "(.": 11784, "Ġmx": 11785, "Loop": 11786, "Ġfantastic": 11787, "who": 11788, "aki": 11789, "ĠBasic": 11790, "ĠYet": 11791, "ĠUsers": 11792, "ikip": 11793, "Ġheads": 11794, "ĠMichigan": 11795, "Ġrecording": 11796, "Ġsubmitted": 11797, "_variable": 11798, "mediate": 11799, "Ġstood": 11800, "Ġrear": 11801, "velocity": 11802, "ĠĠĠĠĠĠĠĠĠĠĠĠĠĠĠĠĠĠĠĠĠĠĠĠĠĠĠĠĠĠĠĠĠĠĠĠĠĠĠĠĠĠĠĠĠĠĠĠĠĠĠĠĠĠĠĠĠĠĠĠĠĠĠĠĠĠĠĠĠĠĠĠĠĠĠ": 11803, "_year": 11804, "amps": 11805, "mal": 11806, "Ġyounger": 11807, "Ġstruggle": 11808, "Ġcable": 11809, "anes": 11810, "ĠNeed": 11811, "Pol": 11812, "ĠPH": 11813, "agem": 11814, "ĠBas": 11815, "_space": 11816, ".loc": 11817, ":i": 11818, "adr": 11819, "Ġengineering": 11820, "iten": 11821, ")&": 11822, "ĠLittle": 11823, "xA": 11824, "Anchor": 11825, "Ġhang": 11826, "Ġcompetitive": 11827, "Ġtranslate": 11828, "ooks": 11829, "/sh": 11830, "some": 11831, "Encoding": 11832, "Ġdesigner": 11833, "ĠStorage": 11834, "ĠNever": 11835, "Ġsomewhere": 11836, "Ġboxes": 11837, ".source": 11838, "Ġgrown": 11839, "Ġopponent": 11840, "APP": 11841, "ĠActiv": 11842, "Ġamounts": 11843, "Ġclone": 11844, "Ġweren": 11845, "_ac": 11846, "Ġbreaking": 11847, "Ġreliable": 11848, "ĠSky": 11849, "asting": 11850, "illion": 11851, "comments": 11852, "ulty": 11853, "/config": 11854, "ĠĊĊĊ": 11855, "TODO": 11856, "Ġpurchased": 11857, "_cor": 11858, "complete": 11859, "_graph": 11860, "isodes": 11861, "Ġsituations": 11862, "ĠHor": 11863, "Ġentities": 11864, "ĠSans": 11865, "rompt": 11866, "Ġ/.": 11867, "Ġincreasingly": 11868, "Ġexplains": 11869, "theast": 11870, "Ġhal": 11871, "Ġtechnique": 11872, "Ġdrawn": 11873, "Ġfeatured": 11874, "yyyy": 11875, "atin": 11876, "phen": 11877, "achel": 11878, "!\\": 11879, "lower": 11880, "ĠGR": 11881, "Ġpag": 11882, "Ġtou": 11883, "Distance": 11884, "Ġhell": 11885, "sim": 11886, "Usage": 11887, "ĠFall": 11888, "ĠMu": 11889, "Ġcruc": 11890, "Ġsont": 11891, "Ġinterior": 11892, "para": 11893, "Ġriver": 11894, "-class": 11895, "before": 11896, "Contents": 11897, "ĠWas": 11898, "ICT": 11899, "Ġformula": 11900, "Ġindicates": 11901, "itting": 11902, "ĠItalian": 11903, "Ġwins": 11904, "ĠCloud": 11905, "Ġwird": 11906, "ĠStep": 11907, "Ġinvestors": 11908, "bold": 11909, "_display": 11910, "orer": 11911, "Reset": 11912, "Ġsurgery": 11913, "Ġstrategies": 11914, "ĠâĢŀ": 11915, "Ġreform": 11916, "Ġlisting": 11917, "Ġbis": 11918, "Ġsuddenly": 11919, "Ġao": 11920, "fas": 11921, "Ġtracking": 11922, "ĠBL": 11923, "Ġmature": 11924, "ĠÄĳ": 11925, "arnings": 11926, "-con": 11927, "bottom": 11928, "Ġsurprising": 11929, "Ġgene": 11930, "ĠMIT": 11931, "CODE": 11932, "details": 11933, "ĠConference": 11934, "Information": 11935, "-down": 11936, "raries": 11937, "bro": 11938, "Ġsubjects": 11939, "Ġ'*": 11940, "orient": 11941, "verbose": 11942, "EF": 11943, "Ġtoler": 11944, "engers": 11945, "Ġendpoint": 11946, "Ġstrange": 11947, "Ġcolon": 11948, "Ġpreferred": 11949, "dep": 11950, "ĠEV": 11951, "Ġwhe": 11952, "Ġpup": 11953, "Ġtalked": 11954, "Ġinstitution": 11955, "Ġexposed": 11956, "teen": 11957, "ĠFront": 11958, "TT": 11959, "program": 11960, "Ġencourage": 11961, "een": 11962, "NI": 11963, "'\"": 11964, ".Width": 11965, "Ġliked": 11966, "Ġ{...": 11967, "ĠSystems": 11968, "Ġmanufacturing": 11969, "ĠInf": 11970, "Ġinches": 11971, "Ã¹": 11972, "ĠCharles": 11973, "BU": 11974, "ĠLabor": 11975, "unn": 11976, "Ġestim": 11977, "mobile": 11978, "ĠLearn": 11979, "âĦ": 11980, "Ġindices": 11981, "Ġtub": 11982, "ikipedia": 11983, "Cost": 11984, "Ġfunctionality": 11985, "uzzle": 11986, "emos": 11987, "enna": 11988, "Ġshots": 11989, "Ġrestore": 11990, "/D": 11991, "],[": 11992, "alias": 11993, "Ġsilver": 11994, "_features": 11995, "Ġhouses": 11996, "ĠWars": 11997, "Ġinjuries": 11998, "Ġconstantly": 11999, "ĠConf": 12000, "Ġrecognized": 12001, "Ġpractical": 12002, "Ġdecent": 12003, "]);": 12004, "asty": 12005, "ĠActivity": 12006, "-mode": 12007, "Ġslide": 12008, "Power": 12009, "indices": 12010, "Ġqualified": 12011, "Ġthrown": 12012, "hello": 12013, "ĠNick": 12014, "assembly": 12015, "ĠSmall": 12016, "olding": 12017, "Should": 12018, "ĠSilver": 12019, "Ġtoggle": 12020, "Ctrl": 12021, "ĠBoot": 12022, "ĠMur": 12023, "don": 12024, "ĠFA": 12025, "Ġassociation": 12026, "fox": 12027, ",a": 12028, "azione": 12029, "Ġfade": 12030, "ĠDar": 12031, "Ġluck": 12032, "Ġterminal": 12033, "Ġefficiency": 12034, "Ġunw": 12035, "Ġnarrow": 12036, "ĠSea": 12037, ",A": 12038, "_opt": 12039, "ĠJac": 12040, "asted": 12041, "ĠAdam": 12042, "ĠIllegal": 12043, "Ġsearching": 12044, "Java": 12045, "ĠFormat": 12046, "Ġrealized": 12047, "Ġkil": 12048, "Ġscenario": 12049, "Ġincredible": 12050, "ĠQuest": 12051, "âĤ¬": 12052, "Ġreferences": 12053, "ĠVert": 12054, "egative": 12055, "Ġwrap": 12056, "ĠTrad": 12057, "trace": 12058, "Ġtherapy": 12059, "ĠKingdom": 12060, "haust": 12061, "(end": 12062, "Ġpharm": 12063, "-----": 12064, "ĠAG": 12065, "atable": 12066, ")$": 12067, "Ġmonthly": 12068, "Ġdiagnostic": 12069, "Symbol": 12070, "sr": 12071, "ROW": 12072, "Ġclothes": 12073, "ĠUnt": 12074, "Ġactivation": 12075, "Ġinitially": 12076, "Ġcuts": 12077, "found": 12078, "ĠStory": 12079, "estr": 12080, "-page": 12081, "Ġincorrect": 12082, "ĠJoseph": 12083, "_style": 12084, "ĠDaniel": 12085, "sheet": 12086, "lined": 12087, "Ġra": 12088, "_empty": 12089, "mu": 12090, "Ġpermitted": 12091, "Ġregional": 12092, "ĠSuch": 12093, "Ġroof": 12094, "times": 12095, "Ġchest": 12096, "ĠTab": 12097, "special": 12098, "Ġclosely": 12099, "etry": 12100, "-be": 12101, "ĠRam": 12102, "ĠSpanish": 12103, "Ġcommitment": 12104, "Ġwake": 12105, "_{": 12106, "cker": 12107, "Ġinher": 12108, "ĠParameter": 12109, "Ġexpr": 12110, "}{": 12111, "Ġvaluable": 12112, "Ġfunny": 12113, "Inv": 12114, "Ġstable": 12115, "*t": 12116, "pliers": 12117, "ĠCSS": 12118, "ĠCondition": 12119, "ĠSpeed": 12120, "ublisher": 12121, "cest": 12122, "Ġspark": 12123, "ĠProte": 12124, "setup": 12125, "ĠTax": 12126, "Who": 12127, "Family": 12128, "-for": 12129, ".uk": 12130, "Ġfasc": 12131, "svg": 12132, "Ġbirthday": 12133, "veh": 12134, "elled": 12135, "TA": 12136, "ĠStan": 12137, "weather": 12138, "Ġsuspect": 12139, "WM": 12140, "avid": 12141, "inos": 12142, "Good": 12143, "Ġpossess": 12144, "Cons": 12145, "amber": 12146, "Ġhorse": 12147, "ĠTransform": 12148, ".svg": 12149, "Ġfoo": 12150, "Ġdella": 12151, "amer": 12152, "Ġprocessed": 12153, "ĠHarr": 12154, "ĠAI": 12155, "CHAR": 12156, "(%": 12157, "Ġtap": 12158, "Ġtea": 12159, "Ġrein": 12160, "Ġworldwide": 12161, "Ġbir": 12162, "Ã§Ãµes": 12163, "Ġrepresented": 12164, "iller": 12165, "Ġdance": 12166, "Ġvisitors": 12167, "-bit": 12168, "ĠRog": 12169, "vp": 12170, "iph": 12171, "itled": 12172, "Coll": 12173, "_real": 12174, "_show": 12175, "ĠĠĠĠĠĠĠĠĠĠĠĠĠĠĠĠĠĠĠĠĠĠĠĠĠĠĠĠĠĠĠĠĠĠĠĠĠĠĠĠĠĠĠĠĠĠĠĠĠĠĠĠĠĠĠĠĠĠĠĠĠĠĠ": 12176, "Ġlatter": 12177, "archy": 12178, "Ġbow": 12179, "Ġoutcome": 12180, "Ġrisks": 12181, "ĠTherefore": 12182, "Ġownership": 12183, "Ġparallel": 12184, "geometry": 12185, "Ġrecognize": 12186, "ĠCP": 12187, "ITLE": 12188, "connected": 12189, "vertical": 12190, "Ġconsumption": 12191, "Ġshoes": 12192, "unks": 12193, "Ġfoods": 12194, "Ġpipeline": 12195, "Ġcollections": 12196, "Ġearned": 12197, "Ġcd": 12198, "ĠVery": 12199, "Optional": 12200, "Ġscreens": 12201, "Ġtitles": 12202, "Ġabandon": 12203, "kind": 12204, "Ġclosing": 12205, "lica": 12206, "_inter": 12207, "Ġcampus": 12208, "setting": 12209, "ede": 12210, "Ġfolks": 12211, "Ġboat": 12212, "Ġpermanent": 12213, "Ġcarrying": 12214, "Ġconservative": 12215, "important": 12216, ".img": 12217, "ĠImm": 12218, "Ġdimensions": 12219, "aland": 12220, "single": 12221, "----------": 12222, "ariant": 12223, "ternal": 12224, "ĠItaly": 12225, ")==": 12226, "ceptor": 12227, "Ġsca": 12228, "/main": 12229, "_dat": 12230, "Ġlets": 12231, "Ġaqu": 12232, "Ġwhenever": 12233, "berry": 12234, "Ġacting": 12235, "anti": 12236, "pd": 12237, "Today": 12238, "!.": 12239, "itable": 12240, "Ġgal": 12241, "]{": 12242, "NET": 12243, "[in": 12244, "Ġexem": 12245, "Ġevolution": 12246, "vars": 12247, "-only": 12248, "Ġwatched": 12249, "Ġsevere": 12250, "Ġprofessionals": 12251, "portion": 12252, "Ġguarante": 12253, "Ð³": 12254, "Ġpushed": 12255, "ĠGi": 12256, "ï½": 12257, "Ġtum": 12258, "ĠAz": 12259, "isse": 12260, ".ac": 12261, "Setting": 12262, "Ġappreciate": 12263, "Ġsurve": 12264, "ĠRole": 12265, "plotlib": 12266, "jet": 12267, "dam": 12268, "Ġplatforms": 12269, "UTO": 12270, "ĠInternal": 12271, "+:": 12272, "General": 12273, "quiv": 12274, "iso": 12275, "Ġaccum": 12276, "obe": 12277, "Ġmarks": 12278, "curr": 12279, "asa": 12280, "ĠĠĠĠĠĠĠĠĠĠĠĠĠĠĠĠĠĠĠĠĠĠĠĠĠĠĠĠĠĠĠĠĠĠĠĠĠĠĠĠĠĠĠĠ": 12281, "Ġthin": 12282, "_over": 12283, "arest": 12284, "ĠOs": 12285, "Ġvelocity": 12286, "ĠPriv": 12287, "bow": 12288, "Ġguarantee": 12289, "Ġevaluate": 12290, "Ġinventory": 12291, "qa": 12292, "Ġlies": 12293, "Ġassessment": 12294, "datetime": 12295, "raf": 12296, "ĠFoot": 12297, "Ġlowest": 12298, "Ġlanguages": 12299, "extra": 12300, "-back": 12301, "templates": 12302, "ĠMust": 12303, "AI": 12304, "Ġbias": 12305, "ationship": 12306, "Constant": 12307, "Ġprogramming": 12308, "Ins": 12309, "inated": 12310, "[a": 12311, "Ġthinks": 12312, "Ġregardless": 12313, "ulating": 12314, "ĠSU": 12315, "Ġsimpl": 12316, "copyright": 12317, "Ġbunch": 12318, "Ġuniverse": 12319, "ĠErr": 12320, "Ġpresentation": 12321, "categories": 12322, "Ġattach": 12323, "Ġdiscipl": 12324, "Ġregularly": 12325, "Ġprimarily": 12326, "inks": 12327, "[[": 12328, "Ġsans": 12329, "sequence": 12330, "GO": 12331, "Ġcarefully": 12332, "otted": 12333, "Ġdont": 12334, "gre": 12335, "ĠOil": 12336, "_stack": 12337, "ĠProducts": 12338, "Ġprivile": 12339, "ĠFurther": 12340, "Ġalias": 12341, "Ġses": 12342, "creens": 12343, "Ġdirected": 12344, "odge": 12345, "marks": 12346, "ĠUnivers": 12347, "erts": 12348, "Ġutility": 12349, "agnostics": 12350, "Ġinject": 12351, "ĠDNA": 12352, "Ġ\",\"": 12353, "amar": 12354, "Ġeu": 12355, "_put": 12356, "tw": 12357, "Ġzoom": 12358, "Ġlegit": 12359, "pecific": 12360, "Ġabsor": 12361, "Ġow": 12362, "ICAL": 12363, "Ġsuperv": 12364, "Exists": 12365, "Ġrespectively": 12366, "ĠStand": 12367, "Conf": 12368, "ussian": 12369, "Ġarc": 12370, "Ġnd": 12371, "ucks": 12372, "Ġrestr": 12373, "Ġseasons": 12374, "ĠChapter": 12375, "ĠSwitch": 12376, "pic": 12377, "Ġhi": 12378, "loaded": 12379, "Ġfluid": 12380, "Ġruntime": 12381, ".it": 12382, "BN": 12383, "asant": 12384, "ryption": 12385, "Ġtaught": 12386, "Ġmul": 12387, "_grid": 12388, "Ġsoci": 12389, "ĠIntel": 12390, "Cmd": 12391, "Ġaccessible": 12392, "rames": 12393, "leton": 12394, "ĠSquare": 12395, "Ġbucket": 12396, "ĠBreak": 12397, "Ġbrush": 12398, "Ġtensor": 12399, "Ġfunctional": 12400, "Ġ\"*": 12401, "whel": 12402, "Ġtent": 12403, "ĠCharacter": 12404, "Ġsees": 12405, "Big": 12406, "Ġextern": 12407, "ĠJr": 12408, ".;": 12409, "nl": 12410, "ĠHER": 12411, "van": 12412, "Ġfeelings": 12413, "Ġlean": 12414, "Ġhoping": 12415, "TV": 12416, "Ġcurve": 12417, "_std": 12418, "Ġmoral": 12419, "emes": 12420, "ogy": 12421, "Ġurban": 12422, "Ġaside": 12423, "Ġediting": 12424, "ADD": 12425, "Second": 12426, "Track": 12427, "Ġvoting": 12428, "Ġhonor": 12429, "ellen": 12430, "Chat": 12431, "Ġimprovement": 12432, "Ġparsed": 12433, "ĠĠĠĠĠĠĠĠĠĊ": 12434, "Ġlazy": 12435, "Ġfalling": 12436, "ĠPa": 12437, "_gr": 12438, "Ġforever": 12439, "ĠDu": 12440, "Ġresume": 12441, "Ġpapers": 12442, "Ġsuffering": 12443, "âĢĭ": 12444, "Ġdeclarations": 12445, "Ġexecuted": 12446, "ĠHol": 12447, ".block": 12448, "SK": 12449, "Ġstuck": 12450, "incipal": 12451, "Ġsessions": 12452, "uni": 12453, "Ġcoup": 12454, "appro": 12455, "Ġslots": 12456, "Ġmedicine": 12457, "Ġglad": 12458, "merican": 12459, "agg": 12460, "Ġkann": 12461, "Ġbrands": 12462, "Ġske": 12463, "Ġdigit": 12464, "<n": 12465, "Ġbackup": 12466, "Ġpersonally": 12467, "Ġcry": 12468, "Ġgran": 12469, "ĠDrop": 12470, "platform": 12471, "inking": 12472, "ubs": 12473, "Ġml": 12474, "lessly": 12475, "Ġbat": 12476, "LOT": 12477, "Ġmuscle": 12478, "Ġcertificate": 12479, "Ġharder": 12480, "Ġpixels": 12481, "Ġdeveloper": 12482, "ĠLas": 12483, "egan": 12484, ".<": 12485, "Ġexplode": 12486, "Ġparticipate": 12487, "Pattern": 12488, "(table": 12489, "ĠTEXT": 12490, "constants": 12491, "thew": 12492, "Ġsubstr": 12493, "ĠSmart": 12494, "gent": 12495, "-bar": 12496, "essional": 12497, "'\\": 12498, "TK": 12499, "proof": 12500, "proc": 12501, "=$(": 12502, "Ġlunch": 12503, "iscal": 12504, "ĠEntry": 12505, "Ġoutdoor": 12506, "semble": 12507, "Ġessentially": 12508, "/G": 12509, "%\"": 12510, "sten": 12511, "Ġdust": 12512, "Ġfib": 12513, "Although": 12514, "Ġreads": 12515, "ycles": 12516, "ĠHel": 12517, "Ġfundamental": 12518, "Ġtow": 12519, "ĠADD": 12520, "ĠAcademy": 12521, "Ġcomprehensive": 12522, "ĠMeta": 12523, "Ġacknowled": 12524, "ĠARE": 12525, "]==": 12526, "Ġcleaning": 12527, "ĠSales": 12528, "allenge": 12529, "Horizontal": 12530, "quential": 12531, "develop": 12532, "isor": 12533, "-K": 12534, "requency": 12535, "ĠQuestion": 12536, "_diff": 12537, ".el": 12538, "cnt": 12539, "ĠSa": 12540, "inite": 12541, "Ġunus": 12542, "-white": 12543, "etary": 12544, "Ġinvolving": 12545, "best": 12546, "ented": 12547, "ĠĠĠĠĠĠĠĠĠĠĠĠĠĠĠĠĠĠĠĠĠĠĠĠĊ": 12548, "Ġrepo": 12549, "enabled": 12550, "Ġsha": 12551, "Ġmembership": 12552, "inating": 12553, "_sm": 12554, "_weight": 12555, "Stat": 12556, "_env": 12557, "links": 12558, ",r": 12559, "upid": 12560, "Ġopens": 12561, "Ġgent": 12562, "rence": 12563, "ĠBroad": 12564, "mma": 12565, "âĤ": 12566, "pf": 12567, "Ġ(&": 12568, "omo": 12569, "Ġliterally": 12570, "metric": 12571, "Ġbars": 12572, "zed": 12573, "Ġformal": 12574, "identifier": 12575, "ĠDeath": 12576, "Ġdeclare": 12577, "arms": 12578, "REAM": 12579, "Ġconsequences": 12580, "tools": 12581, "People": 12582, "ĠWhich": 12583, ".float": 12584, "ĠPolit": 12585, "Ġleaf": 12586, "-check": 12587, "ĠIss": 12588, "Angle": 12589, "sin": 12590, "chart": 12591, "ĠNUM": 12592, "Basic": 12593, "Abstract": 12594, "_use": 12595, "ĠLy": 12596, "Ġouter": 12597, "lap": 12598, "quer": 12599, "heap": 12600, "Ġcombine": 12601, "owers": 12602, "Ġprocedures": 12603, "ĠSort": 12604, "anim": 12605, "variant": 12606, "ehicle": 12607, "Primary": 12608, "oen": 12609, "theta": 12610, "eman": 12611, "Ġimpressive": 12612, "Ġslice": 12613, "Ġunderstood": 12614, "His": 12615, "Ġinformed": 12616, "Ġnick": 12617, "hd": 12618, "Ġelections": 12619, ".pdf": 12620, "inciple": 12621, "born": 12622, "uta": 12623, "Ġlicensed": 12624, "Cr": 12625, "Ġbread": 12626, "Ġnod": 12627, "Ġhopes": 12628, ".gif": 12629, "Ġrose": 12630, "Tip": 12631, "ĠFC": 12632, "During": 12633, "km": 12634, ")>": 12635, "archive": 12636, "ycling": 12637, "-o": 12638, "AMP": 12639, "Ġdoctors": 12640, "Direct": 12641, "ARI": 12642, "ieren": 12643, "_dist": 12644, "yo": 12645, "ĠProgress": 12646, "Ġzum": 12647, "Ġmemor": 12648, "ĠED": 12649, ".head": 12650, "pointer": 12651, "Ġestimate": 12652, "ĠGreg": 12653, "[y": 12654, "Ġprecision": 12655, "isch": 12656, "Cloud": 12657, "(df": 12658, "Ġlocked": 12659, "Ġrising": 12660, "ĠMs": 12661, "Ġscenes": 12662, "_the": 12663, "people": 12664, "Ġrecon": 12665, "ĠFun": 12666, "pection": 12667, "ĠSY": 12668, "urd": 12669, "_true": 12670, "Ġeverybody": 12671, "ivot": 12672, "Ġhence": 12673, "ĠNAS": 12674, "Ġopposed": 12675, "unknown": 12676, "failed": 12677, "Ġwriters": 12678, "}:": 12679, "Ġconverted": 12680, "eding": 12681, "placement": 12682, "ĠHost": 12683, "Sound": 12684, "Ġsought": 12685, "mid": 12686, "Ġsalary": 12687, "ogg": 12688, "bul": 12689, "dot": 12690, "ĠCONT": 12691, "Ġcontinu": 12692, "was": 12693, "Ġfraud": 12694, "_tmp": 12695, "mitter": 12696, "GA": 12697, "Ġtournament": 12698, "[r": 12699, "centage": 12700, "ĠKorean": 12701, "undef": 12702, "ĠAvailable": 12703, "reshape": 12704, "ĠStruct": 12705, "ĠSUB": 12706, "Answer": 12707, "Ġore": 12708, ",k": 12709, "Ġexplanation": 12710, "refs": 12711, "ĠDrive": 12712, "ĠTraining": 12713, "big": 12714, "ologist": 12715, "ennis": 12716, "Ùĩ": 12717, "Ġchicken": 12718, "ĠĠĠĠĠĠĠĠĠĠĊ": 12719, "Ġpeak": 12720, "Ġdrinking": 12721, "Ġencode": 12722, "ĠNEW": 12723, "including": 12724, "Ġprinciples": 12725, "ĠMah": 12726, "-key": 12727, "Ġkeyword": 12728, "%;": 12729, "Ġtrained": 12730, "Ġkv": 12731, "ĠBoy": 12732, "parameter": 12733, "Ġsuite": 12734, "Ġthousand": 12735, "Ġcoordinate": 12736, "-generated": 12737, "generated": 12738, "Ġadmitted": 12739, "Ġswim": 12740, "union": 12741, "Na": 12742, "ĠRoyal": 12743, "Updated": 12744, "Ġvital": 12745, "raction": 12746, "Ġpreced": 12747, "Ġhorizontal": 12748, "Ġsmoke": 12749, "ÐĴ": 12750, "FB": 12751, "ĠResources": 12752, "rolling": 12753, "Ġpasses": 12754, "ĠNum": 12755, "rotate": 12756, "etype": 12757, "Ġsensitive": 12758, "Ġtall": 12759, "iy": 12760, "_section": 12761, "brid": 12762, "Ġcircuit": 12763, "atan": 12764, "ENC": 12765, "Ġdriven": 12766, "Ġvoted": 12767, "Ġeducational": 12768, "Ġinteraction": 12769, "abetes": 12770, "Ġtone": 12771, "Ġmerely": 12772, "_div": 12773, "vely": 12774, "articles": 12775, "ĠSouthern": 12776, "Ġstronger": 12777, "ĠGiven": 12778, "ĠEric": 12779, "ĠIR": 12780, "abstract": 12781, "Under": 12782, "Ġincrement": 12783, "oven": 12784, "Ġcoin": 12785, "Ġsuffered": 12786, "stats": 12787, "Ġmeetings": 12788, "Ġentering": 12789, "Ġalongside": 12790, "itals": 12791,
[...]
